<unk>	0
<s>	0
</s>	0
▁.	-2.78823
▁,	-3.17825
▁bir	-3.78681
▁"	-4.07049
▁ve	-4.10093
▁	-4.49751
▁bu	-4.53499
n	-4.64003
▁'	-4.68448
a	-5.07471
▁Bu	-5.12228
▁için	-5.14089
▁da	-5.18016
e	-5.19941
m	-5.27762
lar	-5.35482
k	-5.35785
▁Ve	-5.3664
▁de	-5.39131
▁çok	-5.39506
▁?	-5.4375
▁daha	-5.52308
ler	-5.65316
▁ki	-5.77768
▁var	-5.80313
▁)	-5.80422
(	-5.80522
i	-5.82005
▁:	-5.8343
▁gibi	-5.86345
▁olarak	-5.89543
▁şey	-5.95972
▁—	-6.01048
▁ne	-6.05991
▁olan	-6.07282
▁kadar	-6.11345
den	-6.1377
▁o	-6.15475
t	-6.15478
▁en	-6.19735
ları	-6.19813
nin	-6.21669
de	-6.22275
▁her	-6.2228
da	-6.23565
leri	-6.23643
la	-6.27238
ya	-6.28392
▁ya	-6.29984
▁değil	-6.3053
le	-6.30591
nın	-6.30924
dan	-6.31397
▁ile	-6.31734
ye	-6.34334
▁-	-6.36843
z	-6.40018
na	-6.41741
p	-6.42653
▁zaman	-6.44168
▁ama	-6.45119
▁olduğunu	-6.45356
▁iyi	-6.45432
▁Ama	-6.48021
▁büyük	-6.48765
▁bunu	-6.49962
ce	-6.50265
▁sonra	-6.50848
▁Bir	-6.51165
▁nasıl	-6.52012
ki	-6.5239
in	-6.55128
▁sadece	-6.58683
ne	-6.6053
er	-6.60572
li	-6.63656
si	-6.64665
▁çünkü	-6.67094
yi	-6.6728
ü	-6.69808
▁şekilde	-6.70099
r	-6.7216
ı	-6.72594
▁şu	-6.73016
▁önce	-6.7381
▁fazla	-6.75616
▁O	-6.77226
en	-6.7853
s	-6.78543
▁yıl	-6.79253
▁iki	-6.80514
dir	-6.82859
▁;	-6.84117
▁yeni	-6.84548
▁gerçekten	-6.86125
▁aynı	-6.8649
▁kendi	-6.89214
▁Yani	-6.89813
l	-6.8992
dır	-6.89948
▁hakkında	-6.91183
▁Şimdi	-6.91616
ların	-6.93902
▁benim	-6.95298
yı	-6.95879
lerin	-6.95948
▁insan	-6.9628
sı	-6.96814
▁olduğu	-6.97296
▁ben	-6.98522
larını	-6.98913
▁Ben	-7.01238
uz	-7.01299
▁tüm	-7.01324
di	-7.02014
lı	-7.02214
▁mi	-7.0231
▁farklı	-7.02519
▁ilk	-7.04461
▁diğer	-7.05561
▁içinde	-7.06996
lerini	-7.07339
▁böyle	-7.09018
▁insanlar	-7.09387
y	-7.09441
▁aslında	-7.0978
▁yok	-7.09814
▁doğru	-7.10568
▁ilgili	-7.10678
ca	-7.1131
yla	-7.11809
▁başka	-7.12156
▁küçük	-7.12174
▁bunun	-7.12402
ma	-7.1256
▁sahip	-7.12623
▁bile	-7.13768
▁♫	-7.14456
▁burada	-7.16164
u	-7.17037
▁Gülüşmeler	-7.17388
▁veya	-7.17799
lik	-7.20628
▁ise	-7.20707
ın	-7.22896
▁önemli	-7.23317
▁şeyler	-7.23464
▁eğer	-7.23562
▁in	-7.25096
lara	-7.2524
▁biz	-7.25255
▁Faka	-7.26431
▁bana	-7.26597
ni	-7.27723
▁biri	-7.27791
yle	-7.28444
lere	-7.28945
▁size	-7.29947
▁bizim	-7.31065
▁biraz	-7.32558
▁Eğ	-7.33536
iz	-7.33539
▁tek	-7.33782
▁gün	-7.34105
um	-7.35309
▁üzerinde	-7.36768
▁oldu	-7.37409
▁son	-7.38101
▁bütün	-7.38207
▁hiç	-7.38859
ken	-7.39617
▁insanların	-7.40111
▁geri	-7.42475
▁Bunu	-7.43184
▁vardı	-7.43541
▁şimdi	-7.44886
▁neden	-7.45781
▁yüzden	-7.46717
ti	-7.47795
▁zamanda	-7.48206
▁az	-7.48708
lık	-7.491
▁diye	-7.50119
▁göre	-7.50326
an	-7.50462
te	-7.51208
dı	-7.51383
▁onu	-7.51671
▁yer	-7.51673
▁Çünk	-7.51817
sa	-7.52241
▁bazı	-7.52547
ş	-7.53292
ta	-7.53401
▁tam	-7.53779
▁tarafından	-7.54308
▁karşı	-7.54887
niz	-7.55127
▁üç	-7.55228
▁bilgi	-7.55254
▁Kahkaha	-7.55307
ndan	-7.55598
▁iş	-7.56208
▁gerçek	-7.5631
arak	-7.56927
▁İşte	-7.5701
▁istiyorum	-7.57694
sine	-7.58098
▁olmak	-7.58123
▁yapmak	-7.58304
tan	-7.59059
▁an	-7.59211
▁Çok	-7.59358
▁mı	-7.59783
nız	-7.60679
▁nın	-7.61403
▁su	-7.61839
sel	-7.62972
du	-7.63179
me	-7.63415
▁ortaya	-7.64595
▁S	-7.64618
▁olacak	-7.64629
▁Peki	-7.6496
▁olması	-7.65404
▁oldukça	-7.66021
▁bize	-7.66187
▁a	-7.66633
▁dünya	-7.67326
siniz	-7.67529
o	-7.68224
▁Bunun	-7.68244
▁fakat	-7.68761
daki	-7.689
▁şeyi	-7.68929
ydi	-7.69262
▁yani	-7.69656
▁oluyor	-7.70039
tı	-7.70133
▁Her	-7.70354
▁10	-7.70455
▁beni	-7.70767
lerine	-7.7086
nda	-7.70891
sanız	-7.7098
▁Burada	-7.71217
ten	-7.71377
lerden	-7.714
▁güzel	-7.71687
mız	-7.71853
miz	-7.71942
▁soru	-7.72563
▁etmek	-7.72579
lardan	-7.72659
▁anda	-7.7278
▁birkaç	-7.73106
▁Aslında	-7.73167
▁kişi	-7.74064
▁tekrar	-7.74223
▁bunlar	-7.74444
▁Dünya	-7.74716
▁A	-7.74719
▁hareket	-7.74781
▁Ne	-7.7512
d	-7.75122
▁onları	-7.75266
▁Alkış	-7.75302
▁ın	-7.75573
▁e	-7.75574
tir	-7.7562
im	-7.76043
larına	-7.76408
▁uzun	-7.76734
mi	-7.77059
▁devam	-7.77802
▁boyunca	-7.77893
▁Alkışlar	-7.78351
▁zor	-7.78388
se	-7.78612
▁olabilir	-7.78995
▁onun	-7.79007
▁kötü	-7.79847
▁20	-7.80236
▁teknoloji	-7.80702
▁yüzde	-7.80793
larının	-7.816
▁açık	-7.81627
▁fark	-7.81663
ini	-7.81889
sini	-7.8197
▁milyon	-7.82301
▁para	-7.82391
lerle	-7.82517
ydı	-7.82849
▁birçok	-7.83269
▁geliyor	-7.83876
tır	-7.83938
▁i	-7.84031
▁!	-7.85011
▁Anca	-7.85281
▁Evet	-7.85811
▁tür	-7.8626
▁Daha	-7.86266
▁yol	-7.86391
▁karar	-7.86418
▁000	-7.86666
mış	-7.86937
▁Siz	-7.87053
▁onlar	-7.8752
▁belki	-7.88452
▁yüksek	-7.89423
ip	-7.90378
▁orada	-7.90428
▁tamamen	-7.90618
dur	-7.90895
▁Biz	-7.91457
lu	-7.91887
▁olur	-7.92282
▁birlikte	-7.92372
▁arasında	-7.92464
un	-7.92675
lerde	-7.93183
▁öyle	-7.93281
▁harika	-7.93824
▁hayal	-7.94038
▁Bunlar	-7.95259
▁basit	-7.95457
▁dedi	-7.956
▁yerine	-7.96276
▁gereken	-7.96623
erek	-7.96899
▁işte	-7.97061
larla	-7.97262
▁buna	-7.97808
▁Afrika	-7.97953
yu	-7.98007
larda	-7.98115
▁gelen	-7.98335
▁dünyanın	-7.99114
lerinin	-7.99141
▁bugün	-7.99638
▁pek	-7.99744
nı	-8.00037
▁üzerine	-8.00093
sına	-8.00483
▁enerji	-8.00496
▁artık	-8.00522
▁şöyle	-8.00573
▁hiçbir	-8.02048
▁yardım	-8.02058
▁daki	-8.0218
sını	-8.02586
seniz	-8.03426
▁E	-8.03458
▁ederim	-8.03596
▁kaç	-8.04194
▁hikaye	-8.04226
deki	-8.04393
▁eden	-8.04504
▁çocuk	-8.04558
larında	-8.0457
▁3	-8.04581
▁yakın	-8.04715
ıp	-8.05038
lardı	-8.05086
▁nin	-8.05501
▁konu	-8.05665
▁Böylece	-8.05762
ını	-8.0629
▁durum	-8.06357
▁dolar	-8.06549
▁Amerika	-8.06732
f	-8.06804
▁vardır	-8.07177
▁konusunda	-8.07856
▁geldi	-8.07987
▁hızlı	-8.08544
▁ediyor	-8.09584
ç	-8.09678
▁onların	-8.10747
▁sene	-8.1172
▁nokta	-8.11851
▁Sade	-8.11936
▁Tamam	-8.12792
▁2	-8.13059
g	-8.13171
▁alan	-8.13278
▁Şu	-8.13422
▁kat	-8.13497
▁yeniden	-8.14047
ım	-8.14124
▁işe	-8.14146
▁sosyal	-8.14203
▁çoğu	-8.14524
▁bizi	-8.14623
▁bilim	-8.14893
▁yaklaşık	-8.14947
ine	-8.15017
▁herkes	-8.15193
▁ancak	-8.15249
▁sonunda	-8.15363
▁tane	-8.1547
dim	-8.15475
▁yerde	-8.15997
▁hale	-8.16061
sunuz	-8.16192
lerinden	-8.16218
▁Sonra	-8.16314
▁fikir	-8.16318
▁ta	-8.16327
▁çalışma	-8.1683
▁C	-8.17994
▁zorunda	-8.181
▁elde	-8.18412
▁kadın	-8.18681
sınız	-8.18701
▁onlara	-8.18941
▁sizin	-8.19006
▁sorun	-8.19137
▁süre	-8.19234
▁dört	-8.19349
nde	-8.19356
▁ay	-8.20232
▁hem	-8.20338
▁temel	-8.2046
▁örnek	-8.20797
▁ilginç	-8.21005
▁olmayan	-8.21053
ar	-8.21229
▁eski	-8.21438
▁Ya	-8.21605
▁te	-8.21638
▁ona	-8.21672
▁Benim	-8.21951
▁proje	-8.22088
▁yaşam	-8.22158
▁Teşekkürler	-8.22266
▁herhangi	-8.22324
▁bilgisayar	-8.22365
▁hemen	-8.22449
ci	-8.22452
▁özel	-8.22746
▁göz	-8.23513
miş	-8.23527
▁hala	-8.23919
▁bak	-8.24104
▁Onlar	-8.243
▁şeyleri	-8.24305
▁altında	-8.2431
▁yapı	-8.24565
▁kolay	-8.24616
larından	-8.24825
▁siz	-8.2483
▁milyar	-8.25639
▁insanları	-8.25699
▁durumda	-8.26096
lerinde	-8.26122
▁parça	-8.26148
▁demek	-8.26338
▁1	-8.26435
▁güçlü	-8.26759
▁istediğim	-8.26832
▁inanılmaz	-8.26873
▁birşey	-8.26979
▁izin	-8.27104
sin	-8.27603
▁B	-8.27618
▁dünyada	-8.27651
▁beyin	-8.27711
▁saat	-8.27928
▁olma	-8.28118
▁dan	-8.28376
▁kontrol	-8.28403
▁adam	-8.28613
▁veri	-8.28821
▁En	-8.29175
▁etti	-8.29459
ri	-8.29836
▁den	-8.30646
▁5	-8.31258
mak	-8.32019
▁K	-8.32095
▁çıkar	-8.32175
▁dair	-8.32521
▁araba	-8.32644
nden	-8.32902
inde	-8.32998
▁çevre	-8.33063
▁yine	-8.33379
▁ülke	-8.33661
▁mümkün	-8.33663
▁yapma	-8.33773
acak	-8.3379
▁başladı	-8.33853
▁etme	-8.33927
▁hatta	-8.34609
mı	-8.34877
▁mu	-8.34902
▁eğitim	-8.35124
ik	-8.35181
▁genç	-8.35277
▁Bugün	-8.35297
▁Neden	-8.36146
▁hafta	-8.36271
▁un	-8.36346
▁şunu	-8.36733
▁parçası	-8.36758
lığı	-8.36941
▁gelir	-8.36987
▁beş	-8.37194
▁T	-8.37244
▁hepsi	-8.37337
▁30	-8.37347
▁benzer	-8.37713
▁sürü	-8.38229
▁bunları	-8.38404
▁yüz	-8.38544
liği	-8.38726
h	-8.38785
mek	-8.38804
▁inşa	-8.38905
il	-8.39223
▁tahmin	-8.40112
▁kimse	-8.40842
lan	-8.40964
▁New	-8.41077
▁güç	-8.41146
▁hava	-8.41231
▁kabul	-8.41456
▁yalnız	-8.41511
▁ye	-8.42058
▁gösteriyor	-8.42062
▁yolu	-8.42394
▁bence	-8.4264
▁değildir	-8.42775
▁edin	-8.43086
▁İlk	-8.43155
▁araştırma	-8.4351
▁100	-8.43559
▁kez	-8.44016
▁aile	-8.44088
▁insanlara	-8.44167
al	-8.44361
ına	-8.4446
cı	-8.4494
▁neredeyse	-8.44941
mizi	-8.4508
▁kız	-8.45162
▁hayat	-8.45175
▁değildi	-8.45188
▁yapmaya	-8.45523
▁yanlış	-8.45639
▁D	-8.46335
▁gördüğünüz	-8.4635
ba	-8.46429
▁konuşma	-8.4675
▁dedim	-8.46898
on	-8.47254
▁kısa	-8.47353
▁U	-8.47357
▁H	-8.48149
▁özellikle	-8.48578
▁50	-8.48606
▁sizi	-8.48611
▁yapan	-8.48732
▁araya	-8.49331
▁gerekiyor	-8.49527
▁sistemi	-8.49572
▁gerek	-8.49608
mızı	-8.49763
▁genel	-8.49769
▁çalışan	-8.49842
▁neler	-8.49913
ız	-8.50051
sinin	-8.50069
▁yere	-8.50263
▁üzere	-8.50431
▁yaptığı	-8.50458
dım	-8.50824
sal	-8.5084
▁birisi	-8.50872
▁altı	-8.50882
siz	-8.5094
▁Hindistan	-8.50973
▁G	-8.51333
tik	-8.51649
▁cevap	-8.51746
▁derece	-8.51953
lama	-8.52053
re	-8.52077
▁olduğuna	-8.52238
et	-8.52579
dum	-8.52625
▁doğal	-8.52972
▁ses	-8.53459
yız	-8.53788
▁verici	-8.5382
▁anlama	-8.53896
ır	-8.542
▁düşünün	-8.54323
▁gelecek	-8.54623
▁TED	-8.54854
▁bakın	-8.54859
nızı	-8.55227
▁I	-8.55243
▁Son	-8.55274
▁200	-8.5554
▁hasta	-8.55676
ra	-8.55732
▁dakika	-8.56113
▁aşağı	-8.56115
▁geçen	-8.56235
▁muhtemel	-8.56709
▁Aynı	-8.56738
ir	-8.56754
▁ı	-8.56891
▁kullanarak	-8.57026
▁grup	-8.57531
yiz	-8.57567
▁bundan	-8.57569
▁savaş	-8.5761
sız	-8.57617
▁bin	-8.57647
▁ifade	-8.57924
▁Tüm	-8.57925
dik	-8.57977
nüz	-8.5817
▁yoktu	-8.58257
va	-8.58284
▁başladım	-8.58382
▁ana	-8.58394
▁hücre	-8.58424
▁şeyin	-8.58552
el	-8.58617
maya	-8.58697
c	-8.58784
▁Ha	-8.59111
▁15	-8.5917
▁arasındaki	-8.59364
▁çeşit	-8.59408
nun	-8.59544
sek	-8.59732
▁bunların	-8.59733
▁sonraki	-8.59916
▁4	-8.59979
luk	-8.60046
▁yapıyor	-8.60162
sak	-8.60316
ecek	-8.60487
▁on	-8.60714
▁ihtiyacımız	-8.60723
▁kim	-8.60869
▁sağlık	-8.60921
▁Çin	-8.60998
▁iletişim	-8.61102
▁olduğumuz	-8.61347
b	-8.61458
▁al	-8.61547
su	-8.61722
▁biliyoruz	-8.61807
▁olmadığını	-8.61823
▁tedavi	-8.61938
nizi	-8.61979
▁bağlı	-8.62012
▁tasarım	-8.62036
sinde	-8.62081
▁Belki	-8.62349
▁İnsanlar	-8.62396
▁değer	-8.62463
▁yılda	-8.62651
at	-8.62675
▁söz	-8.62902
▁olsa	-8.63052
▁görüyorsunuz	-8.63114
▁ev	-8.63398
▁gece	-8.6354
▁rağmen	-8.63562
▁beraber	-8.63819
larımız	-8.6383
▁düşünüyorum	-8.64209
▁teşekkür	-8.64219
sun	-8.64418
▁görebilirsiniz	-8.64512
▁alıp	-8.64687
▁video	-8.64913
▁toplum	-8.65453
▁karmaşık	-8.65526
▁at	-8.6554
▁dolayı	-8.65579
▁olursa	-8.6559
sın	-8.65632
▁ister	-8.6574
▁insanın	-8.66094
▁u	-8.66456
▁ikinci	-8.66688
▁ele	-8.6669
▁ışık	-8.66819
▁nedir	-8.66907
▁problem	-8.67561
▁asla	-8.67601
ça	-8.67721
▁yaptık	-8.67794
â	-8.67972
▁yaptığımız	-8.68054
or	-8.68092
▁içine	-8.68194
st	-8.68319
▁erkek	-8.68535
▁ettim	-8.68661
▁yardımcı	-8.68755
▁York	-8.68785
▁sebep	-8.69537
▁sanat	-8.6977
▁bazen	-8.7011
▁etmeye	-8.70154
ro	-8.70184
▁görmek	-8.70513
▁Ban	-8.706
▁düşündüm	-8.70915
lo	-8.70933
▁adı	-8.70999
▁başına	-8.71144
▁Ayrıca	-8.71256
▁olsun	-8.71259
▁he	-8.7128
▁derin	-8.71382
▁yılında	-8.71394
▁düşünce	-8.7148
▁yaşayan	-8.71598
▁olup	-8.71974
▁ortak	-8.72081
▁yapılan	-8.72102
imiz	-8.72258
▁çocuklar	-8.72549
▁değişim	-8.72624
▁dışında	-8.72845
▁olmadığı	-8.72876
▁geç	-8.73067
▁sistem	-8.73139
▁kendini	-8.73163
gi	-8.73184
inin	-8.73329
▁dünyayı	-8.73377
▁Büyük	-8.73499
▁Ma	-8.73648
▁bakış	-8.7371
abilir	-8.73726
▁el	-8.73839
▁işi	-8.73841
iyor	-8.73843
▁içerisinde	-8.73861
▁6	-8.73862
▁hep	-8.7388
ydu	-8.739
▁hazır	-8.7402
▁oyun	-8.74421
▁kelime	-8.7473
▁deniz	-8.74776
yım	-8.74862
▁ekonomik	-8.7501
▁dikkat	-8.75153
▁küresel	-8.75285
▁sürekli	-8.75681
muş	-8.75688
▁kesinlikle	-8.75896
▁almak	-8.76153
man	-8.76166
ında	-8.76167
▁vermek	-8.76302
▁konuda	-8.76339
▁Avrupa	-8.76435
▁beri	-8.76564
▁görüyoruz	-8.76765
▁Yeni	-8.76924
▁kısmı	-8.7694
alım	-8.76949
lerimiz	-8.77112
▁dolu	-8.77411
es	-8.77556
▁defa	-8.77564
▁çıktı	-8.77616
meye	-8.77808
▁fikri	-8.77861
▁Kendi	-8.77886
▁anne	-8.78166
▁ölüm	-8.78171
▁gerektiğini	-8.78481
ün	-8.78548
▁binlerce	-8.78563
▁iç	-8.78631
lü	-8.78734
sının	-8.7888
min	-8.78927
▁güneş	-8.79125
▁test	-8.79147
▁takip	-8.79288
▁M	-8.79425
tu	-8.79427
▁doğa	-8.79577
▁Bütün	-8.79583
▁adım	-8.79852
▁sık	-8.79969
▁haline	-8.80016
▁olmalı	-8.80102
ıyor	-8.80179
▁Bizim	-8.80182
▁başarılı	-8.80194
▁Teşekkür	-8.8023
▁olurdu	-8.8025
▁arada	-8.80593
▁yaptı	-8.80669
▁40	-8.80669
▁ait	-8.80904
us	-8.80991
▁başarı	-8.81012
▁Diğer	-8.81189
▁Hayır	-8.81412
▁bulunan	-8.81432
▁nedenle	-8.81468
▁sebebi	-8.81829
▁biliyor	-8.82066
▁bina	-8.82248
▁Gerçekten	-8.82513
▁meydan	-8.82522
▁evet	-8.8256
▁eder	-8.82596
▁Buna	-8.82609
▁göster	-8.8264
▁yemek	-8.83031
▁yaşında	-8.83138
ebilir	-8.83297
▁ileri	-8.83428
▁İki	-8.83431
▁uygun	-8.83478
▁kan	-8.8351
▁sağ	-8.83654
▁dünyadaki	-8.83779
ması	-8.84119
▁ediyorum	-8.8416
▁yaptım	-8.84253
▁hayatta	-8.84289
▁olay	-8.84308
to	-8.8446
▁geniş	-8.8449
▁canlı	-8.84766
▁mutlu	-8.84846
▁sonuç	-8.84894
▁gidip	-8.84984
▁hepimiz	-8.85043
▁ayrıca	-8.85066
▁mükemmel	-8.85166
▁metre	-8.85282
▁baş	-8.85422
▁ihtiyaç	-8.85499
▁varsa	-8.8603
▁merak	-8.86338
▁güven	-8.86344
▁sayesinde	-8.86521
liğin	-8.86641
▁resim	-8.86816
▁düşük	-8.86939
abiliriz	-8.87022
▁ilişki	-8.87227
▁elektrik	-8.87294
elim	-8.87307
▁deki	-8.8739
ğı	-8.87629
▁DNA	-8.87685
▁tabii	-8.87735
▁haber	-8.87763
▁fotoğraf	-8.87931
▁acı	-8.88136
▁musunuz	-8.88162
▁gerekir	-8.88207
leme	-8.88398
▁hangi	-8.8849
yken	-8.88527
▁madde	-8.88712
▁kadınlar	-8.88771
unu	-8.88838
▁mevcut	-8.8887
▁sayı	-8.88878
▁sen	-8.88891
ur	-8.8964
yim	-8.89674
▁başladık	-8.89691
sinden	-8.89761
▁şehir	-8.89777
▁muhteşem	-8.90069
inden	-8.9007
mda	-8.90588
▁film	-8.90818
▁zamanlar	-8.90905
▁ağ	-8.90947
▁ön	-8.91177
▁araç	-8.91224
▁müzik	-8.91252
▁nerede	-8.91308
▁J	-8.91361
▁veren	-8.91525
is	-8.91717
▁ilgi	-8.91775
dığı	-8.92091
▁olmadan	-8.92234
dığını	-8.92301
▁yanı	-8.92333
▁sıra	-8.92414
▁şeye	-8.92472
leriyle	-8.92496
cu	-8.92548
▁etki	-8.92568
ge	-8.92847
▁biliyorum	-8.9285
▁yavaş	-8.93126
▁yı	-8.93168
▁gerekli	-8.93175
▁yıldır	-8.93366
▁7	-8.93395
▁model	-8.93498
▁ABD	-8.93547
▁okul	-8.93704
▁makine	-8.93765
▁korku	-8.93886
▁ciddi	-8.93906
▁gidiyor	-8.9396
▁tamam	-8.94085
▁internet	-8.94102
▁görme	-8.94138
▁normal	-8.94312
▁ettik	-8.94339
▁yan	-8.94514
▁gücü	-8.94549
▁destek	-8.94738
▁yaz	-8.9476
▁anlamak	-8.94929
▁yatırım	-8.9509
▁göstermek	-8.95164
sında	-8.95233
▁ara	-8.9538
▁yukarı	-8.95467
▁görünüyor	-8.95636
▁kalan	-8.95642
▁oda	-8.95709
▁kapı	-8.95951
tur	-8.96053
▁söyledi	-8.96132
▁çizgi	-8.96297
▁k	-8.96354
yse	-8.96364
▁kendisi	-8.96384
▁yaptığım	-8.96541
▁aldı	-8.96595
▁beyaz	-8.96717
▁12	-8.96869
▁sinir	-8.96882
çe	-8.96957
▁uzak	-8.97026
▁yedi	-8.97098
▁verdi	-8.97172
▁çıkan	-8.97175
▁veriyor	-8.97198
▁bağlantı	-8.97203
▁De	-8.97259
▁dahil	-8.97331
▁verme	-8.97353
▁olacağını	-8.97566
▁çözüm	-8.97806
▁asıl	-8.98113
▁kendimi	-8.98226
▁El	-8.98641
▁deney	-8.98897
▁ek	-8.98999
▁alma	-8.9912
▁emin	-8.99238
▁ortalama	-8.99244
▁hayvan	-8.99254
▁bilirsiniz	-8.99431
bi	-8.9964
▁oluşan	-9.00007
▁kafa	-9.00143
w	-9.00165
▁sesi	-9.0027
▁herkesin	-9.00355
ch	-9.0041
vi	-9.00522
▁alanı	-9.00692
▁bölge	-9.00812
▁mavi	-9.00891
dık	-9.01007
▁yanında	-9.01559
▁kitap	-9.01564
▁kişisel	-9.01639
▁yazı	-9.01791
ğ	-9.01964
▁Müzik	-9.0201
▁zaten	-9.02011
▁Amerikan	-9.0202
▁heyecan	-9.0212
▁birinin	-9.02231
1	-9.02358
▁18	-9.0239
dü	-9.02464
▁düşün	-9.0262
▁yerlerde	-9.02756
▁nun	-9.02856
dür	-9.02923
▁buraya	-9.03145
▁60	-9.03196
▁Artık	-9.03383
▁aşı	-9.03478
be	-9.03578
mesi	-9.03626
▁olduğum	-9.03693
▁Birleşi	-9.04096
▁tepki	-9.04212
▁üst	-9.04226
▁nedeni	-9.04247
▁bulmak	-9.04296
▁bakalım	-9.04336
lığın	-9.04435
▁anlamın	-9.04512
▁çalışıyor	-9.04563
▁orta	-9.04566
▁San	-9.04744
ktan	-9.04768
▁fiziksel	-9.04786
▁dil	-9.04947
▁bakar	-9.05025
yan	-9.05036
▁olsaydı	-9.05116
▁Onun	-9.05158
▁8	-9.0518
▁Başka	-9.05188
▁yeterli	-9.05299
▁lazım	-9.05467
▁Al	-9.05501
ının	-9.05614
▁düşünme	-9.05666
▁ufak	-9.05702
v	-9.06006
▁çocukların	-9.06151
▁arka	-9.06298
▁Örneğin	-9.06409
2	-9.06531
zi	-9.06536
▁şeylerden	-9.06654
▁sahibi	-9.06672
▁devlet	-9.06682
▁olmasını	-9.06711
▁ekonomi	-9.06734
▁söylemek	-9.06763
ha	-9.06831
abilirsiniz	-9.06847
▁birini	-9.06865
▁olmaya	-9.06878
▁tabi	-9.06932
larıyla	-9.06971
▁sayıda	-9.07017
▁resmi	-9.07125
▁yıllık	-9.07195
▁öğrenme	-9.07273
larımızı	-9.07357
▁belli	-9.07402
▁idi	-9.07444
▁uzay	-9.07547
ru	-9.07709
▁Mars	-9.07742
▁mücadele	-9.0784
▁aldım	-9.07967
▁diyor	-9.07987
liğe	-9.08012
▁hastalık	-9.08037
mizin	-9.08042
▁F	-9.08094
▁Su	-9.08189
▁verdim	-9.08193
▁CA	-9.08341
co	-9.08381
▁deneyim	-9.08453
diği	-9.08457
▁kullanma	-9.08743
▁sağlıyor	-9.08784
ebiliriz	-9.08801
▁derecede	-9.09002
▁noktada	-9.0903
▁Bazı	-9.09233
▁alt	-9.09322
▁edecek	-9.09341
▁görüntü	-9.09438
▁telefon	-9.09456
▁yeşil	-9.09535
▁buradaki	-9.09603
▁gördüm	-9.09755
▁kaynak	-9.09831
ed	-9.1013
ter	-9.10196
▁Ç	-9.10202
▁bazıları	-9.10251
▁Me	-9.1028
▁sanırım	-9.10527
▁anlamı	-9.10718
▁zengin	-9.10865
▁biçimde	-9.1109
▁halde	-9.11091
▁katı	-9.11189
▁tarafta	-9.11246
9	-9.11248
▁Google	-9.11259
▁ediyoruz	-9.11263
lerdi	-9.11289
▁dışarı	-9.11425
ebilirsiniz	-9.1143
▁dışı	-9.11598
▁şirket	-9.11599
▁yapıyoruz	-9.11681
▁Nasıl	-9.11759
▁tanesi	-9.11776
▁et	-9.11896
ö	-9.12207
▁bırak	-9.1233
▁dünyaya	-9.12558
▁kalp	-9.12632
▁verir	-9.12683
▁bas	-9.12715
▁iklim	-9.12761
▁gittim	-9.12856
çi	-9.12881
▁geli	-9.12956
▁şarkı	-9.13049
▁şeylerin	-9.1311
▁sayfa	-9.13204
▁Bunları	-9.13241
▁11	-9.13288
▁kullan	-9.13339
▁yaratmak	-9.13402
D	-9.13495
▁ilaç	-9.13777
▁şekli	-9.1381
▁sahne	-9.1381
▁yerel	-9.13922
▁25	-9.13927
▁aşırı	-9.13933
▁işin	-9.13942
▁Güney	-9.14031
▁kanser	-9.14072
▁günde	-9.14096
▁çıkıyor	-9.14147
ılmış	-9.14291
▁medya	-9.14296
▁seçim	-9.14319
lerimizi	-9.1433
▁Hatt	-9.14488
▁dijital	-9.14542
S	-9.14673
▁yaşlı	-9.14674
▁ihtiyacı	-9.14716
▁ayrı	-9.1483
▁takım	-9.1491
▁Tanrı	-9.14954
▁oldukları	-9.14954
▁hoş	-9.14974
▁Kuzey	-9.15299
sam	-9.15345
▁olduklarını	-9.15361
▁biliyorsunuz	-9.1537
▁olacaktır	-9.15554
anırım	-9.15563
raya	-9.15659
▁hâl	-9.15747
▁işler	-9.15762
▁Herkes	-9.158
▁ortada	-9.15836
▁hayır	-9.15844
▁şaşırtıcı	-9.16095
▁Sa	-9.1622
imi	-9.16262
▁etkili	-9.1627
▁saniye	-9.16504
▁zamanlarda	-9.16605
▁alıyor	-9.167
▁gel	-9.16884
▁milyonlarca	-9.17168
▁gerektiği	-9.17263
▁azında	-9.17269
▁konusu	-9.17606
lanmış	-9.17645
▁kamera	-9.17694
▁der	-9.17735
▁üstünde	-9.17744
▁petrol	-9.17816
▁çift	-9.18012
▁Böyle	-9.18029
▁gördüğümüz	-9.18277
▁büyüme	-9.18494
▁sağlayan	-9.18504
mize	-9.18521
▁kişinin	-9.18526
▁fakir	-9.18554
▁gösteren	-9.18637
▁merkezi	-9.18948
▁istedim	-9.19046
mayı	-9.1934
▁Mo	-9.1939
▁tip	-9.19571
▁açısından	-9.19578
▁çalışmak	-9.19597
▁yerinde	-9.19629
▁durumu	-9.19692
▁zamanı	-9.19953
▁gitme	-9.20081
▁yüzünden	-9.20184
▁bununla	-9.20274
ga	-9.20357
▁gelişme	-9.20466
▁olmuş	-9.20549
3	-9.20691
▁teşekkürler	-9.20834
▁adında	-9.20899
▁Mesel	-9.20969
▁mü	-9.21075
4	-9.21268
▁dış	-9.21359
▁Birkaç	-9.2145
▁mesela	-9.21451
▁kırmızı	-9.2146
▁plan	-9.21639
▁ilham	-9.21726
▁yapar	-9.21752
▁başında	-9.22228
▁işaret	-9.22266
ing	-9.22516
▁yaratıcı	-9.22518
▁üniversite	-9.22635
▁80	-9.22806
▁sonucu	-9.22823
▁risk	-9.22855
▁Onu	-9.22886
▁N	-9.22941
▁L	-9.23032
▁icin	-9.23033
▁insanlarla	-9.23101
▁İş	-9.23129
▁harita	-9.23162
▁örneğin	-9.23207
diğini	-9.2341
▁koruma	-9.23526
▁çeşitli	-9.23559
▁anlamda	-9.23742
▁dizi	-9.23819
▁değilim	-9.23828
▁görsel	-9.23992
▁zarar	-9.24122
▁yap	-9.24127
▁sayısı	-9.24329
▁olmuştu	-9.24336
▁temsil	-9.24409
mde	-9.24501
▁tanı	-9.24612
▁la	-9.24728
ku	-9.24744
▁Hiç	-9.24801
▁kara	-9.24802
▁tercih	-9.24807
▁robot	-9.24815
▁istiyoruz	-9.24873
▁İ	-9.2515
▁sanki	-9.25175
▁öğrenci	-9.25222
lığ	-9.25298
çı	-9.25392
▁getir	-9.25395
cak	-9.25656
▁yapabiliriz	-9.25776
kten	-9.25777
▁kaynağı	-9.25854
▁etkisi	-9.25901
nu	-9.25916
▁numara	-9.25949
▁göstereceğim	-9.25957
▁s	-9.2605
▁mesaj	-9.26067
▁R	-9.26334
za	-9.26365
▁nde	-9.26385
▁yoksa	-9.26397
▁Dolayısı	-9.26529
▁alır	-9.26545
▁gördük	-9.26548
▁değiştir	-9.26604
▁sınıf	-9.26637
▁umut	-9.26688
▁önceki	-9.26725
▁temiz	-9.2677
▁yıllar	-9.26877
▁başlıyor	-9.26904
▁uygulama	-9.26946
▁Orada	-9.26964
bo	-9.26976
▁içindeki	-9.27009
▁bakım	-9.27072
▁İyi	-9.27239
▁hedef	-9.27268
tim	-9.27348
▁bakarsa	-9.27368
lıyız	-9.27374
go	-9.27414
▁anlat	-9.27518
▁ürün	-9.2759
son	-9.27698
layan	-9.27715
▁inanıyorum	-9.27731
▁altın	-9.27736
ğa	-9.27871
▁gerçekte	-9.27905
ünü	-9.27993
ton	-9.28011
mın	-9.28029
▁program	-9.28031
▁pazar	-9.28039
▁ucuz	-9.28087
▁hizmet	-9.2845
▁beynin	-9.28477
▁konuşmak	-9.28544
▁Ba	-9.28557
▁gizli	-9.28586
▁kutu	-9.28634
▁bilimsel	-9.28728
mıştı	-9.28842
▁geçmiş	-9.28883
▁hücreleri	-9.28891
▁cep	-9.28897
▁söylüyor	-9.29
rken	-9.29095
▁İkinci	-9.29257
▁ince	-9.29308
kçe	-9.29356
▁akıl	-9.29417
▁satın	-9.29504
▁koy	-9.29575
▁ders	-9.29716
▁eş	-9.2977
▁inan	-9.29896
▁İnsan	-9.29962
▁Gerçek	-9.29963
▁baskı	-9.30034
▁garip	-9.30064
▁ayak	-9.3017
▁demokrasi	-9.30364
▁yüzlerce	-9.30366
mıza	-9.30565
▁gider	-9.30601
bu	-9.30651
▁elbette	-9.30665
▁korkunç	-9.30666
▁seviyorum	-9.30704
▁kendimizi	-9.30706
▁sağlıklı	-9.30735
▁kalma	-9.30986
▁günlük	-9.31031
landı	-9.31087
▁gelecekte	-9.31124
▁kullanmak	-9.31138
acağız	-9.31144
muz	-9.31211
▁Biraz	-9.31293
▁yapılmış	-9.315
▁çaba	-9.31574
▁Video	-9.31575
▁bilmiyorum	-9.31621
▁getirmek	-9.31643
mızın	-9.3169
▁nerey	-9.31801
▁yoktur	-9.31945
dığımız	-9.31976
▁esas	-9.32098
▁Tabii	-9.32125
▁başlar	-9.32152
▁önünde	-9.3236
larımızın	-9.32657
▁giden	-9.32712
▁edilmiş	-9.32784
ysa	-9.3279
▁aç	-9.33012
▁tarih	-9.3307
lanma	-9.33223
▁olanlar	-9.33282
▁9	-9.33332
iyle	-9.33333
▁yapacak	-9.33485
▁açıdan	-9.33537
▁kişiler	-9.33668
▁alakalı	-9.33758
lük	-9.3378
▁yaptıkları	-9.33817
▁yaş	-9.33931
▁güvenli	-9.33958
▁P	-9.34089
▁arkadaşım	-9.34126
▁gönder	-9.34131
sem	-9.34202
▁fikirler	-9.34399
▁türlü	-9.34426
▁sorunu	-9.34452
▁kesin	-9.34502
B	-9.34502
▁ülkeler	-9.34548
▁suç	-9.34574
▁olduğundan	-9.34648
▁yara	-9.34675
▁üçüncü	-9.34741
ol	-9.34783
▁uzakta	-9.34799
▁üzerindeki	-9.34807
duk	-9.34963
▁fırsat	-9.3497
▁uç	-9.3502
▁mesele	-9.35051
▁edilen	-9.35073
▁eve	-9.35295
▁yapıyorlar	-9.35418
▁etrafında	-9.35616
▁şekil	-9.35634
▁Va	-9.35666
▁buldum	-9.35691
▁oray	-9.35795
fi	-9.35845
▁masa	-9.35864
ımız	-9.35917
▁piyasa	-9.3593
▁icat	-9.35931
▁geleneksel	-9.35946
▁yiyecek	-9.3595
▁bunlardan	-9.35951
▁önemlisi	-9.35979
▁gitmek	-9.36003
lerdir	-9.3612
▁olduğunda	-9.36254
▁erkekler	-9.36277
mişti	-9.36301
▁kendilerini	-9.36302
▁yasa	-9.36397
▁Onları	-9.36428
tü	-9.36536
▁bitki	-9.36585
▁t	-9.3696
iyoruz	-9.36999
▁algı	-9.37028
▁süreç	-9.37176
san	-9.37183
▁ilerleme	-9.37212
▁si	-9.37312
ko	-9.37629
▁Batı	-9.37655
▁sabah	-9.37669
sıyla	-9.37769
▁geldiği	-9.37843
▁Pekala	-9.37857
▁ettiği	-9.37889
ve	-9.37907
▁kal	-9.37989
▁kere	-9.38196
mıyor	-9.382
po	-9.38309
▁istediğimiz	-9.38327
▁sağlamak	-9.38332
▁hayatın	-9.38347
▁aldık	-9.38399
▁değişik	-9.38407
▁fazlası	-9.38449
cık	-9.38506
▁Se	-9.3855
▁çocukları	-9.38655
acağım	-9.38705
▁evrim	-9.38747
▁görev	-9.38769
A	-9.38864
▁ardında	-9.38866
▁anlamaya	-9.38933
▁tıp	-9.38935
▁hastalığı	-9.39023
▁Birçok	-9.39161
▁sonsuz	-9.39189
nize	-9.39199
▁Burası	-9.39282
▁oldum	-9.39376
▁Sen	-9.39514
▁Tam	-9.39515
▁rol	-9.39618
ver	-9.39669
▁mil	-9.39726
▁sorular	-9.39753
▁yapmayı	-9.39755
▁70	-9.398
▁balık	-9.39804
▁aracı	-9.3995
▁kök	-9.3998
ste	-9.40091
▁hata	-9.40209
▁insanı	-9.4022
▁yaparken	-9.40227
▁herşey	-9.40228
it	-9.40345
▁boş	-9.40395
▁değiştirmek	-9.40432
▁modern	-9.40484
▁Tek	-9.40537
▁dur	-9.40609
▁karbon	-9.40689
▁Di	-9.40711
▁örneği	-9.40785
▁teşvik	-9.40817
▁yoğun	-9.40854
▁kap	-9.40859
7	-9.40896
▁çalışıyoruz	-9.40955
▁kurma	-9.40977
▁getiriyor	-9.4101
▁yöntem	-9.4101
▁geldiğini	-9.41079
▁budur	-9.41302
▁okyanus	-9.41303
▁politik	-9.41389
▁bizler	-9.41459
▁kar	-9.41597
▁içeri	-9.41623
▁İnsanların	-9.41639
▁sahibiz	-9.41724
meyi	-9.41735
▁Ş	-9.41756
▁olağanüstü	-9.41824
▁gıda	-9.41824
▁tut	-9.41863
yor	-9.42116
▁belirli	-9.42133
▁Beni	-9.42157
▁genetik	-9.42165
▁düşünmeye	-9.42192
eceğiz	-9.42203
▁genellik	-9.42224
abilecek	-9.42228
▁halinde	-9.42234
miyor	-9.42242
▁sırasında	-9.42267
▁verin	-9.42276
▁hayvanlar	-9.42324
▁seç	-9.42355
adlı	-9.42444
▁politika	-9.42493
▁toprak	-9.42504
kı	-9.42536
▁ten	-9.42558
▁dahi	-9.4258
▁sekiz	-9.42843
▁90	-9.42921
▁tartışma	-9.42931
▁verdik	-9.42967
lenmiş	-9.42972
▁kullanıyor	-9.42975
C	-9.42982
▁bulduk	-9.43025
ndaki	-9.43034
▁Orta	-9.43048
▁yağmur	-9.43183
ici	-9.43193
▁sıcak	-9.43481
▁görüş	-9.43577
▁davet	-9.43674
▁deneme	-9.43674
▁tepe	-9.43693
▁İnternet	-9.43705
T	-9.43809
▁ikna	-9.43878
▁ikisi	-9.44052
hi	-9.44089
▁anlam	-9.44093
ilmiş	-9.44094
▁hayatı	-9.44151
▁hastane	-9.44228
5	-9.44351
siyle	-9.44394
lardır	-9.44481
▁Da	-9.44531
▁amacı	-9.44583
▁yaparak	-9.44627
▁şiddet	-9.44677
▁yarısı	-9.44738
▁senin	-9.44787
eyim	-9.44838
der	-9.44897
▁ak	-9.4492
unun	-9.45166
▁geriye	-9.45205
▁yarı	-9.45266
▁programı	-9.45326
▁ediyorlar	-9.45344
gu	-9.4538
▁yi	-9.4544
▁sol	-9.45462
▁ortasında	-9.45518
▁yeterin	-9.4555
▁yaşıyor	-9.45688
▁çekici	-9.45692
▁modeli	-9.45742
▁gezegen	-9.45754
▁demektir	-9.45764
▁bebek	-9.45921
▁zihin	-9.45955
▁boyutlu	-9.45965
▁Ro	-9.45989
▁karanlık	-9.46195
▁etkileşim	-9.46238
malıyız	-9.46253
▁oranı	-9.46276
▁akıllı	-9.46291
▁yaygın	-9.46307
▁erken	-9.46415
▁siyah	-9.46484
▁He	-9.46598
ul	-9.46615
▁16	-9.46674
▁Geçen	-9.46676
▁duruyor	-9.46693
ebilecek	-9.46746
▁virüs	-9.46801
iniz	-9.46853
yıp	-9.46926
ize	-9.47011
▁noktası	-9.47016
▁Demek	-9.47053
▁fare	-9.47106
▁kazan	-9.47123
▁süreci	-9.47177
mu	-9.47202
yorum	-9.47242
ür	-9.47308
▁denge	-9.47312
▁düşünüyor	-9.4733
▁Ta	-9.47342
▁açıkça	-9.47466
▁kültür	-9.476
fa	-9.47647
▁kenar	-9.47674
lanan	-9.47704
ilen	-9.47731
▁W	-9.47741
▁mal	-9.47847
▁gelme	-9.47928
▁kendime	-9.47929
▁kare	-9.48002
▁yapabilir	-9.48023
▁sıfır	-9.48086
▁Öyle	-9.48096
▁sırada	-9.48167
▁çalışıyorum	-9.48192
▁hepsini	-9.48236
diğimiz	-9.48277
▁sonuçlar	-9.48399
lıyor	-9.48437
▁nesil	-9.4845
▁Hepimiz	-9.4846
▁taraf	-9.4849
▁duvar	-9.48553
ıldı	-9.48615
kar	-9.48677
▁dayan	-9.4872
▁kadınların	-9.4873
▁süper	-9.48733
▁onunla	-9.48759
▁hücreler	-9.48867
▁Ra	-9.49048
▁tarz	-9.49111
▁Ka	-9.49161
▁sonrasında	-9.49206
▁ziyaret	-9.4945
▁başta	-9.49595
▁ülkede	-9.49651
▁geçir	-9.49729
os	-9.49929
▁çalışmaya	-9.49932
▁yabancı	-9.49936
K	-9.4994
▁güvenlik	-9.49946
▁500	-9.4997
8	-9.50099
▁yüzyıl	-9.50125
▁ışığı	-9.50152
▁hayatını	-9.50208
▁babam	-9.50209
eceğini	-9.50354
▁Çocuk	-9.5054
▁yapmamız	-9.50594
▁çek	-9.50683
▁devre	-9.50699
▁çalış	-9.50708
ıyla	-9.5088
▁miktarda	-9.50931
▁yüzü	-9.5098
masını	-9.50987
▁şirketler	-9.5113
P	-9.51219
mızda	-9.51223
▁olduğumu	-9.51346
▁tehlikeli	-9.51351
▁tehdit	-9.51371
eceğim	-9.51388
▁Doğu	-9.51397
▁birşeyler	-9.51426
▁Tabi	-9.51461
dikleri	-9.51517
▁adını	-9.51539
▁yana	-9.51577
▁seyahat	-9.51599
nca	-9.51626
leşmiş	-9.51674
birine	-9.51696
▁pahalı	-9.5179
▁Buradaki	-9.51909
sından	-9.52088
▁gir	-9.52115
▁Öyleyse	-9.5213
▁imkansız	-9.52156
▁bağ	-9.52189
▁zeki	-9.52339
▁kon	-9.52356
▁eğlenceli	-9.52368
▁bi	-9.52425
▁ısı	-9.52432
▁nefes	-9.52492
▁teori	-9.52573
▁vücut	-9.52607
▁çalıştığım	-9.5268
▁bulma	-9.52684
▁kod	-9.52742
▁ağır	-9.52835
▁yaşama	-9.52837
▁alanda	-9.52882
▁adına	-9.52886
▁telefonu	-9.52905
▁malzeme	-9.53007
ley	-9.53042
▁cok	-9.53075
▁duyu	-9.53171
▁duygu	-9.53172
taki	-9.53255
▁gitti	-9.5328
ayım	-9.53298
6	-9.53299
ıpkı	-9.53326
▁Kim	-9.53402
▁anlatmak	-9.53414
▁Be	-9.53563
▁edici	-9.53623
▁Do	-9.53642
iyorum	-9.53761
▁tarihi	-9.53866
▁alın	-9.53911
▁yu	-9.53921
▁muazzam	-9.54004
▁araçlar	-9.54028
▁öğren	-9.54059
▁bildiğimiz	-9.54227
ey	-9.54254
▁dans	-9.54423
▁günü	-9.54674
▁gerekiyordu	-9.54712
▁düşünmek	-9.54726
▁Bilim	-9.54746
▁17	-9.54753
▁suyu	-9.54784
▁çapında	-9.54847
▁getirdi	-9.54859
▁edebilir	-9.54979
▁olmayacak	-9.55054
▁Sonuç	-9.55061
▁akşam	-9.55153
▁Bazen	-9.55153
likle	-9.55169
▁silah	-9.55189
lanıyor	-9.55318
▁anı	-9.5534
▁tecrübe	-9.55355
▁yaşındaki	-9.5549
▁okuma	-9.55532
▁öğrendim	-9.55728
▁rahat	-9.55744
unda	-9.5576
▁seviye	-9.55886
▁yapmış	-9.55911
▁makale	-9.55978
▁birine	-9.56001
▁gaye	-9.56005
▁kaldır	-9.56016
▁yeri	-9.56046
▁olduğumuzu	-9.56184
▁ederek	-9.56323
▁okula	-9.56337
▁hızla	-9.56369
▁ettiler	-9.564
▁sanal	-9.56436
▁buz	-9.56447
▁olmayı	-9.56465
▁Sizin	-9.5652
mo	-9.56523
▁Çoğu	-9.56598
▁Li	-9.56649
▁sonu	-9.56661
▁bisiklet	-9.56706
▁Güneş	-9.56706
▁işbirliği	-9.56706
▁Chris	-9.56707
▁kaya	-9.56711
▁Yine	-9.5673
▁oy	-9.56775
▁almaya	-9.56861
diğim	-9.56865
▁geçti	-9.56873
▁bulunuyor	-9.56933
▁söylediği	-9.57074
▁Re	-9.57107
▁sağlayacak	-9.57128
▁ettiğimiz	-9.57207
▁edildi	-9.57219
▁mimari	-9.5722
▁annem	-9.57223
▁benziyor	-9.57242
▁cevabı	-9.57354
▁burası	-9.57361
liğini	-9.57377
▁amaç	-9.57439
▁saygı	-9.57465
▁sana	-9.57483
▁ton	-9.57689
▁üretim	-9.57698
▁kimyasal	-9.57809
▁din	-9.57873
ği	-9.57905
acağını	-9.57963
▁Ona	-9.57985
▁me	-9.58077
▁neyse	-9.58097
ımı	-9.58117
ot	-9.5813
▁benzeri	-9.58181
▁can	-9.58193
▁13	-9.58271
▁biyolojik	-9.58357
▁istiyor	-9.58374
▁sağladı	-9.58394
▁işlem	-9.58499
▁halk	-9.58519
▁çoğunu	-9.58552
▁zeka	-9.58605
▁olmaları	-9.58609
▁köpek	-9.58668
▁hak	-9.5869
▁Dr	-9.58701
▁teknik	-9.5871
▁Co	-9.58766
lüğü	-9.58809
▁adamı	-9.58845
▁14	-9.58852
▁yaratma	-9.58894
▁21	-9.58908
▁müthiş	-9.59082
▁burda	-9.59113
▁24	-9.59126
▁soğuk	-9.59416
▁isteyen	-9.59537
▁hesap	-9.59714
▁yaklaşım	-9.59732
▁söyleme	-9.59802
suz	-9.59804
▁gösterdi	-9.59829
▁kayıt	-9.59835
yo	-9.59837
H	-9.59869
▁kağıt	-9.59887
ıyoruz	-9.59903
▁f	-9.60038
▁strateji	-9.60074
▁La	-9.60095
▁sanatçı	-9.60119
▁doktor	-9.6014
▁sey	-9.60146
▁yazar	-9.60187
▁sordu	-9.60229
▁gösteri	-9.60292
▁görürsünüz	-9.60293
▁göreceksiniz	-9.60306
▁ayı	-9.60389
▁söyle	-9.60413
ab	-9.60432
▁kendimiz	-9.60449
▁öğrenmek	-9.60484
ndeki	-9.60609
▁geçme	-9.60612
▁endişe	-9.60637
▁onlarla	-9.60639
▁olmaz	-9.60661
▁yada	-9.60729
▁sonuçları	-9.60766
▁bölüm	-9.60785
▁saldırı	-9.609
▁Hem	-9.6101
▁kilo	-9.61011
▁benimle	-9.61103
▁buçuk	-9.6111
▁hal	-9.61141
bil	-9.61162
▁tarafı	-9.61176
laşma	-9.61203
▁görmeye	-9.61224
▁tan	-9.6135
▁Küçük	-9.61517
▁zayıf	-9.61517
▁ağaç	-9.61521
▁gücünü	-9.6157
▁parti	-9.61586
▁olduk	-9.61607
abiliyor	-9.61613
▁baba	-9.61637
▁hepimizin	-9.61697
▁liste	-9.61699
▁di	-9.61727
▁tuhaf	-9.61928
▁İngiltere	-9.61928
ık	-9.61957
▁top	-9.62023
▁beyni	-9.62111
▁arası	-9.62145
▁kısım	-9.62145
▁hakkı	-9.62155
E	-9.62164
▁çalıştım	-9.62275
▁sefer	-9.62311
▁HIV	-9.62341
▁kamu	-9.62354
▁olmamız	-9.62379
▁dönü	-9.62381
▁farkında	-9.62399
▁buldu	-9.62408
▁buydu	-9.62474
▁bil	-9.62501
▁na	-9.62574
eceği	-9.62624
▁Devletler	-9.62632
▁ülkelerde	-9.62716
▁alet	-9.62742
N	-9.62877
▁Adam	-9.62959
▁iste	-9.6306
▁arazi	-9.6313
▁nefret	-9.63173
▁net	-9.63201
▁verilen	-9.63222
▁dağ	-9.63282
▁problemi	-9.6329
▁şeklinde	-9.63368
ıcı	-9.63375
▁olanı	-9.63531
▁kuru	-9.63615
▁ateş	-9.63631
▁geleceği	-9.63656
▁sordum	-9.63722
▁sevgi	-9.63823
▁tarım	-9.64002
▁standart	-9.64012
▁paylaş	-9.64018
L	-9.64046
ıl	-9.6412
▁görünen	-9.64125
lendi	-9.64154
▁biyoloji	-9.64356
▁hikâye	-9.64389
▁kitabı	-9.64487
▁kullanılan	-9.64493
▁İngilizce	-9.64563
▁ada	-9.64565
diniz	-9.64608
▁dediler	-9.64624
met	-9.64711
▁Harika	-9.64857
▁gen	-9.64907
▁Na	-9.64932
▁yapabilirsiniz	-9.64939
▁çocuğu	-9.65024
▁edil	-9.65046
▁sıradan	-9.65122
▁bilme	-9.65165
▁Elbette	-9.65283
▁Şöyle	-9.65283
▁ha	-9.65344
▁devrim	-9.65364
bir	-9.65396
ör	-9.65493
▁başa	-9.65507
▁rüzgar	-9.6554
▁mikro	-9.6564
mizde	-9.65671
▁balığı	-9.65687
▁hafif	-9.6571
▁sürdürülebilir	-9.6571
▁kas	-9.65775
lamak	-9.65822
▁rahatsız	-9.65956
şi	-9.6596
▁The	-9.66155
▁renk	-9.66173
▁Yüz	-9.66185
▁hesaplama	-9.66365
imizin	-9.66409
th	-9.66427
ildi	-9.66442
▁yıldız	-9.66457
▁hükümet	-9.66514
▁sizinle	-9.66515
maktadır	-9.66552
▁kilometre	-9.66572
ist	-9.66622
▁eşit	-9.6663
▁zorundayız	-9.66685
▁ç	-9.66742
▁Bo	-9.66775
▁cihaz	-9.66819
▁gazete	-9.66864
▁duygusal	-9.67026
▁sağlar	-9.67068
▁önemlidir	-9.67069
▁gaz	-9.67101
▁Asya	-9.67114
▁ölü	-9.67244
▁olduğunuz	-9.67262
nuz	-9.67315
▁kes	-9.67317
▁arkadaş	-9.67364
▁ünlü	-9.67454
▁molekül	-9.67473
ho	-9.67529
▁değiştirdi	-9.67575
▁geçerli	-9.67591
▁konuş	-9.67614
▁alanlar	-9.67618
▁değerli	-9.6769
▁üstüne	-9.67769
ah	-9.67788
▁sergi	-9.67799
▁yazılım	-9.67835
▁li	-9.67866
▁plastik	-9.67875
▁giderek	-9.679
teki	-9.67914
▁ver	-9.67916
▁sistemin	-9.68095
▁değiliz	-9.68116
▁av	-9.6813
▁nesne	-9.68149
▁Yap	-9.6815
▁sorunları	-9.682
▁olmadı	-9.68309
▁Afganistan	-9.68314
▁arama	-9.68332
▁bulunduğu	-9.68333
lığını	-9.68492
▁oluştur	-9.68547
cü	-9.68584
▁engel	-9.68739
▁evrenin	-9.68777
▁çocuğun	-9.68808
▁gösterme	-9.68816
▁şirketi	-9.68881
larca	-9.68896
▁Amerikalı	-9.68901
▁yapıldı	-9.69009
▁motor	-9.69013
▁19	-9.69152
▁fotoğrafı	-9.69206
▁türü	-9.69221
▁miktar	-9.69281
▁verimli	-9.69285
▁sınır	-9.69333
▁arı	-9.69358
▁yapıyorum	-9.69429
▁gelişmiş	-9.69449
▁kısmını	-9.69547
▁olun	-9.69582
▁spor	-9.69631
▁199	-9.69638
▁bakmak	-9.6965
▁oyunu	-9.69662
▁Kız	-9.69716
00	-9.69738
▁yolunu	-9.69797
▁km	-9.69807
▁şans	-9.69856
▁cam	-9.69909
▁ka	-9.69995
▁gemi	-9.70016
▁dediği	-9.70023
▁ila	-9.70069
▁etmeyi	-9.70139
ebiliyor	-9.70146
▁deri	-9.70183
▁orman	-9.7021
▁Man	-9.70228
▁gözlem	-9.70236
▁polis	-9.70255
▁yaptığını	-9.70301
nizin	-9.70319
▁azalt	-9.70332
▁davranış	-9.7035
▁paylaşmak	-9.70352
nıza	-9.70423
▁sor	-9.70511
▁çöp	-9.70526
▁şehrin	-9.70554
▁yapay	-9.70647
▁parmak	-9.70683
▁yayın	-9.70684
▁bakteri	-9.70767
▁şeyden	-9.70797
asyon	-9.70899
▁kitle	-9.70923
▁batı	-9.70924
▁alacak	-9.70926
▁sabit	-9.70986
▁görüyor	-9.71003
▁açı	-9.71008
▁nevi	-9.71017
▁evren	-9.71103
▁önün	-9.71186
▁sorunlar	-9.71226
▁kuş	-9.71227
▁dönüş	-9.71239
▁yaratıyor	-9.71281
▁oluşturmak	-9.71396
yoruz	-9.71418
▁Gördüğünüz	-9.71438
▁edip	-9.7144
▁posta	-9.71532
▁Ki	-9.7156
▁evde	-9.71578
kça	-9.71593
▁Bize	-9.71603
▁sesleri	-9.71641
▁Baş	-9.71664
lanır	-9.71687
▁başarısız	-9.71722
▁Bilirsin	-9.7181
▁Ev	-9.71818
▁ol	-9.71855
▁doku	-9.71867
▁önümüzde	-9.71895
▁duyma	-9.72088
▁Doğru	-9.72101
▁kol	-9.72113
▁olabileceğini	-9.72132
▁değiller	-9.72156
luğu	-9.72271
▁yarat	-9.72285
▁uluslararası	-9.7235
do	-9.72362
▁mantıklı	-9.72447
▁merkez	-9.72501
▁başlama	-9.72517
F	-9.726
▁aşama	-9.72662
tık	-9.72711
▁Sonun	-9.72783
▁yüzyılda	-9.72911
ck	-9.72934
▁yönetim	-9.7301
bilme	-9.73107
▁gerçeği	-9.73238
▁bilmiyor	-9.73248
▁düşünür	-9.73264
▁ü	-9.73283
as	-9.73353
▁açıklama	-9.73369
sh	-9.73397
ren	-9.73623
▁hali	-9.73649
▁sevdiğim	-9.73727
▁verdiği	-9.73881
▁reklam	-9.73939
▁yerler	-9.74011
▁sağlığı	-9.74118
▁değiştirme	-9.74184
▁çoğunlukla	-9.74246
▁Eski	-9.74267
▁görebilir	-9.74297
▁dönem	-9.74318
▁ettiğim	-9.7435
▁kural	-9.74431
▁So	-9.7447
ılması	-9.74491
meliyiz	-9.74546
nün	-9.74619
mektedir	-9.7462
▁tehlike	-9.74633
▁kanıt	-9.74664
▁Te	-9.74666
▁Ko	-9.74716
dılar	-9.74723
▁uydu	-9.74818
▁karakter	-9.7483
▁verileri	-9.74857
lenme	-9.74946
▁Önce	-9.75074
▁hatırlıyorum	-9.75159
▁bilinen	-9.75211
dıkları	-9.75224
▁Hepsi	-9.75233
▁hayatımı	-9.75265
▁giy	-9.75312
▁olanak	-9.7532
▁fazlasını	-9.75331
▁yılı	-9.75357
▁olabilecek	-9.75377
▁geldiğinde	-9.75382
▁art	-9.75409
iyorlar	-9.75409
▁fikirleri	-9.75422
▁bulunma	-9.75484
▁Hiçbir	-9.75594
M	-9.75636
▁keşfed	-9.75655
▁edebilirsiniz	-9.75665
▁300	-9.7574
▁diyorum	-9.75744
▁tak	-9.75791
▁bağımsız	-9.75794
▁V	-9.75815
▁yakıt	-9.75833
ından	-9.75945
▁mahalle	-9.76015
▁Davi	-9.76016
▁değişikliği	-9.76016
▁altyapı	-9.7608
▁epey	-9.7608
▁taş	-9.761
▁iddia	-9.76187
mıştım	-9.76217
▁kalıyor	-9.76222
▁tasarruf	-9.76237
▁olabileceği	-9.76239
▁adamın	-9.76297
▁Le	-9.76314
▁sizlere	-9.76316
▁şeydir	-9.76316
▁dev	-9.76326
▁geçer	-9.76445
▁ayır	-9.76491
▁John	-9.76544
▁Londra	-9.76556
▁şeker	-9.76556
▁yola	-9.76565
▁radyo	-9.76766
▁değişimi	-9.76791
▁yük	-9.76801
▁yapacağı	-9.76802
ılan	-9.76818
▁çıkı	-9.76881
▁açısı	-9.76996
▁verecek	-9.77041
▁park	-9.77059
▁bilmek	-9.7706
lerimizin	-9.77211
▁dikkatli	-9.77295
ebileceği	-9.77335
▁parçaları	-9.77373
▁Birincisi	-9.77389
▁g	-9.77492
una	-9.77524
▁site	-9.77544
iyet	-9.77598
▁çalışır	-9.77615
▁neyin	-9.77626
▁toplumun	-9.77648
▁An	-9.77681
imizi	-9.77743
▁kapalı	-9.77748
▁alanında	-9.77944
▁parlak	-9.77999
▁herşeyi	-9.78082
▁kanseri	-9.7815
G	-9.78211
▁sorumlu	-9.78238
inizi	-9.78372
▁ma	-9.78444
▁koydu	-9.78451
▁boya	-9.7846
yon	-9.78475
▁birbirleri	-9.78481
▁lütfe	-9.78484
▁web	-9.78484
▁siyasi	-9.78504
▁gelişmekte	-9.78504
eri	-9.78553
▁geçiyor	-9.78602
▁aktif	-9.78694
▁olacağı	-9.78724
O	-9.78735
▁ötesinde	-9.7884
▁olabilirsiniz	-9.78943
▁dediğimiz	-9.78965
▁ortam	-9.78965
▁seks	-9.78966
▁cümle	-9.78971
▁Güzel	-9.78974
ğe	-9.79005
lamaya	-9.79118
▁gittik	-9.79153
abilmek	-9.79185
▁ölçüde	-9.79338
▁ün	-9.79404
▁korumak	-9.7942
▁matematik	-9.79423
▁kaldı	-9.79528
▁ödeme	-9.79538
▁sarı	-9.79629
▁düz	-9.7973
▁Ar	-9.79742
▁İngiliz	-9.79804
▁kullanımı	-9.79936
▁hissi	-9.79937
▁kur	-9.79941
▁tespit	-9.79954
dığım	-9.80008
▁ediliyor	-9.80008
▁başladılar	-9.80027
muyor	-9.80042
ber	-9.8008
▁Bazıları	-9.80102
tım	-9.80137
▁ani	-9.80235
▁halka	-9.80249
▁bölümü	-9.80314
▁dokun	-9.80374
▁çiz	-9.80383
▁...	-9.80449
▁önem	-9.80507
layacak	-9.80507
▁gerekirse	-9.80555
lardaki	-9.80579
▁Y	-9.80592
miştim	-9.80655
diğinde	-9.80712
▁sessiz	-9.80777
yum	-9.80836
▁sistemleri	-9.80863
▁düşündük	-9.8088
▁hayata	-9.80906
ay	-9.81032
▁yemeği	-9.81037
▁yaptılar	-9.81068
▁öğretmen	-9.81096
▁arkasında	-9.81101
▁karşısında	-9.81188
men	-9.81204
▁getirme	-9.81218
▁çıkma	-9.81223
▁fa	-9.81269
▁analiz	-9.81378
▁Teknoloji	-9.81447
▁cinsel	-9.81454
▁nükleer	-9.81457
▁cinsiyet	-9.81464
▁Bil	-9.8151
▁koyu	-9.81538
▁nüfus	-9.81637
▁öldü	-9.81675
dy	-9.81698
▁doğum	-9.81804
▁toplam	-9.81806
▁sır	-9.81851
▁gerçeklik	-9.81887
▁tur	-9.81995
▁Ku	-9.82031
▁çıkarmak	-9.82036
▁Bak	-9.82118
▁yöntemi	-9.82172
▁koyar	-9.82197
▁ödül	-9.82239
▁içi	-9.82313
▁insanlardan	-9.82332
▁seni	-9.8236
▁özgür	-9.82449
▁taklit	-9.82455
▁kulak	-9.82458
▁mutluluk	-9.82504
▁istedi	-9.82507
▁ürünü	-9.82523
▁suçlu	-9.82583
▁kullanıyoruz	-9.82636
▁işleri	-9.82636
ster	-9.82638
diler	-9.82653
▁ko	-9.82722
▁yağ	-9.82738
R	-9.82753
▁çalıştığımız	-9.82756
ıyordu	-9.82759
▁bahsetmek	-9.82891
▁hakları	-9.82938
▁geçiş	-9.8306
▁saye	-9.83071
▁isterim	-9.83106
▁gelmiş	-9.83133
▁bitir	-9.83185
▁biyo	-9.83207
▁nda	-9.8321
▁dava	-9.83213
▁dokuz	-9.8323
▁istediğiniz	-9.83232
▁televizyon	-9.83361
▁birbirin	-9.83371
▁diğeri	-9.83379
▁nereden	-9.83379
luyor	-9.8339
▁suyun	-9.83402
▁görün	-9.83412
▁elimizde	-9.83442
▁0	-9.83442
▁tıbbi	-9.83507
▁geliştirme	-9.83562
▁yolculuk	-9.83567
▁Bakın	-9.83574
▁ihtiyacınız	-9.83735
▁istedik	-9.83756
▁girdi	-9.83791
ydim	-9.83835
▁hikayeler	-9.83896
▁adet	-9.83899
▁olmaktan	-9.83993
▁sal	-9.84181
▁büyüdü	-9.84224
▁katkı	-9.84239
▁istiyorlar	-9.84274
▁yazma	-9.84406
▁isim	-9.84453
▁şa	-9.8449
▁etmiş	-9.84525
▁duydu	-9.84569
j	-9.84643
▁yaşıyoruz	-9.84649
umuz	-9.84654
▁dışarıda	-9.8468
▁diyoruz	-9.84707
▁besin	-9.84757
niversitesi	-9.84775
▁artış	-9.84919
miyorum	-9.84959
▁marka	-9.85032
▁yollar	-9.85074
▁yılın	-9.85081
▁keşif	-9.85092
▁şeydi	-9.85121
▁yetiştir	-9.85127
▁Onların	-9.85143
▁terk	-9.85174
▁is	-9.85192
▁san	-9.85313
▁tutku	-9.85329
land	-9.85353
▁Ah	-9.85364
yordu	-9.85367
▁re	-9.85433
▁istediği	-9.85489
ll	-9.85517
▁misin	-9.85623
▁kopya	-9.85645
▁girme	-9.85682
▁ters	-9.85717
▁anlaşma	-9.85746
▁vermeye	-9.85758
▁yaşamak	-9.85784
iş	-9.85819
▁kullandığımız	-9.85833
▁uçak	-9.85845
▁ülkelerin	-9.85861
▁sev	-9.85868
şe	-9.85875
▁say	-9.85889
▁eylem	-9.86019
▁komik	-9.86073
▁anlamıyla	-9.86247
▁teknolojiyi	-9.86249
amaz	-9.86351
imin	-9.86359
▁giriş	-9.86408
▁pa	-9.86426
▁farkı	-9.86433
leşme	-9.86452
▁miyi	-9.86571
▁aktivite	-9.86598
▁Irak	-9.86604
▁sandalye	-9.86606
▁edebiliriz	-9.86684
▁musun	-9.86686
▁gittikç	-9.86688
kları	-9.86717
▁karşılaştır	-9.8679
▁taşı	-9.86842
▁yakında	-9.86931
▁kişiye	-9.87021
▁kullanıcı	-9.87069
▁yanıt	-9.87072
▁gösterir	-9.87242
▁mesafe	-9.87356
▁oluşturuyor	-9.87374
▁şansı	-9.87399
abileceği	-9.87412
▁toplantı	-9.87415
▁bilir	-9.8743
▁Mu	-9.87471
emez	-9.87537
▁tanım	-9.87565
▁sıkı	-9.87605
▁karşılık	-9.87611
▁sermaye	-9.8765
▁tablo	-9.87667
▁ekran	-9.87672
▁arkadaşları	-9.87698
▁değeri	-9.87773
▁fiyat	-9.87851
mesini	-9.87872
▁kendileri	-9.8792
▁ni	-9.87929
▁değiştirebilir	-9.88103
▁veriler	-9.88161
▁Tekrar	-9.88185
▁tuvalet	-9.8819
layıcı	-9.88203
▁kıta	-9.88247
▁galaksi	-9.88258
▁görüyorum	-9.88267
▁git	-9.88275
▁görüşme	-9.88289
▁farkın	-9.88326
id	-9.88336
▁lider	-9.88342
ji	-9.88352
▁taki	-9.88455
▁topluluk	-9.88487
mamız	-9.88629
▁Ses	-9.88659
▁Anne	-9.8867
lerdeki	-9.8869
▁degil	-9.88749
if	-9.88808
▁hız	-9.8885
▁bulmaya	-9.88865
▁uyar	-9.88895
▁hissetme	-9.8896
▁yarar	-9.88973
▁Ri	-9.88997
▁yerden	-9.8904
up	-9.89056
▁denen	-9.89067
nızın	-9.89096
▁yetişkin	-9.89188
▁İsrail	-9.89263
▁bahçe	-9.89281
▁çekme	-9.89338
▁ulaşmak	-9.89344
▁açtı	-9.89371
▁kullanan	-9.894
▁düşünüyoruz	-9.89403
▁özelliği	-9.8941
▁protein	-9.8944
▁tamamı	-9.89494
▁endüstri	-9.89522
leniyor	-9.89536
▁bakma	-9.89705
▁kum	-9.89728
▁uyum	-9.8977
▁berbat	-9.89807
▁serbest	-9.89807
▁mağara	-9.89807
▁2000	-9.89866
▁kayıp	-9.89873
▁kurmak	-9.89882
▁potansiyel	-9.89908
▁Sağ	-9.89994
▁değişiklik	-9.90018
▁öğrenciler	-9.90039
▁birleştir	-9.90064
▁gerçekleştir	-9.9009
▁Lo	-9.90178
▁bilgileri	-9.9019
▁çöz	-9.90198
pi	-9.90208
▁bölgede	-9.90273
▁dek	-9.90276
▁ci	-9.90282
▁imkan	-9.90312
larsa	-9.90322
▁pencere	-9.90353
▁parçalar	-9.90396
▁tarzı	-9.90413
▁olacaktı	-9.90506
▁dalga	-9.90532
▁b	-9.90599
▁anahtar	-9.90728
▁yarım	-9.90736
▁başlangıç	-9.90811
▁hukuk	-9.90903
▁bulun	-9.90925
sidir	-9.9095
▁evrensel	-9.90963
▁kullanıl	-9.90973
▁saf	-9.90985
▁firma	-9.90986
▁gurur	-9.91024
▁edersiniz	-9.91053
▁uçuş	-9.91055
▁adamları	-9.91058
▁sert	-9.91143
▁elinde	-9.91144
layarak	-9.9115
▁hikayesi	-9.91153
lerinizi	-9.91195
▁grubu	-9.912
▁yerlere	-9.91227
▁Kar	-9.9124
▁kaynakları	-9.91242
▁söyler	-9.9126
▁ruh	-9.91291
leyen	-9.91305
▁kendinizi	-9.91406
▁isterse	-9.91424
▁dizayn	-9.91456
▁kedi	-9.91463
▁bahsed	-9.91553
▁araçları	-9.91553
▁rakam	-9.91849
▁yaka	-9.9185
▁ihtiyacım	-9.91859
▁kriz	-9.91861
▁dile	-9.91917
▁seviyor	-9.91928
per	-9.9197
▁ticari	-9.92011
▁düşündü	-9.92077
▁be	-9.92171
▁askeri	-9.92188
▁itibar	-9.92241
▁Geri	-9.92334
▁ihtimalle	-9.92454
▁şehri	-9.92524
▁Biliyorsunuz	-9.92604
▁dünyasında	-9.92835
▁mercan	-9.93131
▁kredi	-9.93131
▁eğitimi	-9.93148
ger	-9.93151
▁miydi	-9.93203
diğiniz	-9.93236
▁ameliyat	-9.93245
▁Yaklaşı	-9.93257
lanması	-9.93258
larımı	-9.93316
▁davran	-9.9339
▁karşıya	-9.93482
iliyor	-9.93494
▁olmaması	-9.93589
▁robotlar	-9.93615
▁fizik	-9.93643
▁benden	-9.93646
▁tavsiye	-9.93696
▁zevk	-9.93696
▁ulusal	-9.93741
▁istiyorsanız	-9.93776
▁Ga	-9.93788
▁merkezinde	-9.93819
▁Sağlık	-9.93824
▁çalışmaları	-9.93844
▁yerini	-9.93899
▁görünür	-9.93911
▁dişi	-9.94019
▁tanıştı	-9.94051
▁çılgın	-9.94072
▁kültüre	-9.94086
▁İkincisi	-9.94095
▁gördü	-9.94257
▁Brezilya	-9.94264
▁sıvı	-9.94268
▁sap	-9.9429
▁dayalı	-9.9431
yacağım	-9.9441
ünün	-9.94452
▁yapılması	-9.94532
▁dik	-9.94548
aman	-9.94581
larım	-9.9459
ış	-9.94664
▁hassas	-9.94746
▁ihtiyaçları	-9.9479
lma	-9.94795
▁gelebilir	-9.94829
▁Facebook	-9.94836
▁oksijen	-9.94836
▁talep	-9.94837
▁sivil	-9.94838
lerim	-9.94843
▁gibiydi	-9.94879
▁görevi	-9.95058
▁durma	-9.95102
▁harcama	-9.95158
▁yüzey	-9.95201
▁sistemini	-9.9521
▁bomba	-9.95244
▁ata	-9.95273
ydım	-9.95399
I	-9.95403
▁deniyor	-9.95406
▁dönemde	-9.9541
▁gönüllü	-9.95413
▁inanç	-9.95413
▁Kimse	-9.95481
▁yazık	-9.95485
▁eminim	-9.95527
▁hastalıklar	-9.95591
▁değişti	-9.95609
▁bit	-9.9562
▁yorum	-9.95632
▁yapabiliyor	-9.95646
▁Ay	-9.9565
▁Pa	-9.95675
gun	-9.95704
▁çık	-9.95729
▁çatışma	-9.95763
▁kurallar	-9.95765
▁ismi	-9.95825
▁söyley	-9.95864
uyor	-9.95889
▁ettiğini	-9.9593
▁ibaret	-9.95989
▁bakıyor	-9.96075
▁lerde	-9.96086
▁zamanlı	-9.961
▁sevme	-9.96109
sen	-9.96127
▁tutu	-9.96129
▁edilebilir	-9.96156
▁edilmesi	-9.96165
▁düzen	-9.96171
▁çalıştığı	-9.96183
▁çalışmalar	-9.96231
▁sahiptir	-9.96242
▁kimin	-9.96385
▁indir	-9.96441
malısınız	-9.96542
▁AIDS	-9.9657
▁kahve	-9.9657
▁yolla	-9.96583
▁elektronik	-9.96591
▁çalıştık	-9.96592
▁toplumsal	-9.96645
ıyorlar	-9.96695
▁Almanya	-9.96707
▁Hayat	-9.96847
▁kullanım	-9.96939
▁barış	-9.96944
▁yoluyla	-9.96954
▁beden	-9.96985
▁koyuyor	-9.96986
▁gördüğüm	-9.97028
▁şifre	-9.97044
▁performans	-9.97124
▁türden	-9.97151
isi	-9.97178
▁Şunu	-9.97216
▁öte	-9.97236
▁oluşturan	-9.97243
▁durumunda	-9.97262
▁gruplar	-9.97403
▁çıkardı	-9.97413
▁fayda	-9.97449
▁daire	-9.97464
▁dergi	-9.97477
▁etmiyor	-9.9748
▁yeteneği	-9.97532
▁Pek	-9.97595
lerimi	-9.97653
ımızı	-9.97728
▁bütçe	-9.97743
▁hafıza	-9.97743
▁müdahale	-9.97743
▁müze	-9.97748
W	-9.9776
▁birinci	-9.97772
▁es	-9.97792
ılır	-9.9788
abilen	-9.97906
▁kaza	-9.97913
▁giriyor	-9.97917
op	-9.98005
▁etmesi	-9.98031
▁kadının	-9.9812
▁organ	-9.98135
▁Biri	-9.9828
▁evin	-9.98312
▁Yaşam	-9.98322
▁Uzun	-9.98345
▁kemik	-9.98346
yü	-9.9837
▁bol	-9.98389
▁diz	-9.98398
▁Japonya	-9.98436
▁filmi	-9.98438
▁servis	-9.9844
▁grafik	-9.98442
kan	-9.98512
▁inanıyor	-9.98526
▁nadir	-9.98539
▁sorunun	-9.98559
▁oranda	-9.98576
▁dal	-9.98675
▁diş	-9.98761
▁öğrendik	-9.9877
▁oluşuyor	-9.9879
▁peki	-9.98791
▁Dedi	-9.98855
leşti	-9.98857
seydi	-9.98875
fer	-9.98972
▁400	-9.98991
ılıyor	-9.99032
▁kır	-9.99036
▁başlayan	-9.99058
▁alabilir	-9.99076
▁Çocuklar	-9.99089
▁tarafında	-9.99092
▁hareketi	-9.99191
▁beceri	-9.9922
ladı	-9.99221
▁anlıyor	-9.99296
▁kurtar	-9.99313
▁ba	-9.99375
▁yaşamın	-9.99386
lenmesi	-9.99423
miştir	-9.99527
▁manzara	-9.99529
▁kendisini	-9.99641
▁kıyı	-9.99657
▁durumun	-9.99684
ss	-9.99686
▁Mi	-9.99713
▁alarak	-9.99761
▁vaka	-9.99817
▁patlama	-9.9988
leyici	-9.99955
▁duru	-10.0003
kte	-10.0003
▁sıtma	-10.0014
▁Kenya	-10.0022
▁oluşturur	-10.0024
▁problemleri	-10.0025
▁bende	-10.0026
▁Sizi	-10.0036
▁dolara	-10.0042
▁bırakma	-10.0044
▁do	-10.0048
▁koyma	-10.0049
▁çocuklara	-10.005
hu	-10.0051
▁sürece	-10.006
▁şiir	-10.0061
▁ulaşma	-10.0075
▁deyişle	-10.0076
▁ağı	-10.008
hr	-10.0082
▁uzman	-10.0091
▁ederken	-10.0094
▁olduğunuzu	-10.01
▁sonrası	-10.0117
▁değiş	-10.0125
nızda	-10.0128
rek	-10.0132
▁bağış	-10.0133
▁Du	-10.0133
▁alternatif	-10.0135
▁Yalnız	-10.0135
▁popüler	-10.0135
▁bireyler	-10.0136
▁konuşmaya	-10.0137
▁laboratuvar	-10.0138
▁yumurta	-10.0142
▁imkanı	-10.0143
meyen	-10.0147
▁ayar	-10.0156
▁okulda	-10.0156
▁tutmak	-10.016
▁nedeniyle	-10.0165
▁Hava	-10.0165
▁Si	-10.0168
▁istemiyoru	-10.0176
ore	-10.0179
▁v	-10.018
▁birinde	-10.0181
▁edebiliyor	-10.0193
▁vakit	-10.0196
▁kalmış	-10.0197
▁isimli	-10.0199
▁karışık	-10.0201
▁baktığınızda	-10.0204
▁Dünyada	-10.0204
▁sistemler	-10.0206
▁arkadaşı	-10.0213
▁çal	-10.0217
▁ölç	-10.022
▁gelişim	-10.0221
▁insanlık	-10.0223
▁getiren	-10.0223
müş	-10.0228
▁otur	-10.0231
▁çalışması	-10.0233
▁güney	-10.0233
umu	-10.0241
▁fikrini	-10.0242
▁arzu	-10.0248
▁kalite	-10.0249
▁kulağ	-10.0249
▁ahlaki	-10.0255
▁Ulusa	-10.0261
▁engelli	-10.0264
▁his	-10.0265
▁alalım	-10.0266
▁yaptıklarını	-10.0271
▁söylüyorum	-10.0271
▁bilimi	-10.0279
▁dönüyor	-10.028
▁girişim	-10.0288
▁yönet	-10.029
mem	-10.0299
▁bizimle	-10.0303
ebileceğimiz	-10.0303
nizde	-10.0311
▁profesyonel	-10.032
▁as	-10.032
▁Genç	-10.0321
ışı	-10.0322
▁Özellikle	-10.033
▁çalıştı	-10.0337
▁kullanır	-10.0338
▁çalıştığını	-10.0343
▁fil	-10.0347
▁kişiyi	-10.0348
▁haklı	-10.0349
tor	-10.0352
tra	-10.0362
mis	-10.0365
▁denedi	-10.0366
▁anlamlı	-10.0371
larınızı	-10.0375
mızdan	-10.0376
▁öz	-10.0378
▁dedik	-10.0379
▁getirir	-10.0388
▁önemi	-10.0389
▁ölçü	-10.0395
▁Fi	-10.0397
▁not	-10.0398
▁kurdu	-10.0398
▁Pi	-10.0399
▁düştü	-10.0402
▁maliyet	-10.0408
gen	-10.0412
▁bilgisayarlar	-10.0413
▁içerik	-10.0413
▁düzenleme	-10.0414
ut	-10.0415
▁krizi	-10.0429
▁bahsediyor	-10.043
▁gezegende	-10.0432
▁baktı	-10.0437
▁banka	-10.0439
▁belge	-10.0442
ilebilir	-10.0443
▁kaçır	-10.0444
▁rastgele	-10.0445
▁devasa	-10.0447
larımızda	-10.0448
▁hissediyorum	-10.0449
▁şüphe	-10.045
▁şehirler	-10.0453
▁konuya	-10.0456
▁odada	-10.046
▁yapacağım	-10.046
mıştır	-10.0463
▁verdiler	-10.0464
▁yapması	-10.047
▁Ja	-10.0471
▁alanları	-10.0471
ebilmek	-10.0472
▁fırsatı	-10.0476
▁anlatma	-10.0482
ıyorum	-10.0488
▁anlar	-10.0489
▁çözmek	-10.049
▁yerleştir	-10.0491
ümüz	-10.0493
larındaki	-10.0498
▁arkadaşlarım	-10.0498
▁çekmek	-10.05
▁sağlama	-10.0505
▁klinik	-10.0509
▁radikal	-10.0509
▁finansal	-10.051
makta	-10.051
▁mezun	-10.0511
▁milyarlarca	-10.0513
ad	-10.0515
▁yönelik	-10.0517
▁deneyimi	-10.0531
▁ederiz	-10.0532
▁Ara	-10.0539
▁zorundaydı	-10.0547
▁Göz	-10.0549
▁köy	-10.0551
▁eksik	-10.0553
lıyoruz	-10.0559
▁bildiği	-10.056
▁geliyordu	-10.0565
▁yavru	-10.0568
▁güvenilir	-10.0574
ebilen	-10.0576
ğin	-10.0577
▁yaşadı	-10.0577
lemek	-10.0584
▁Am	-10.0584
▁Neyse	-10.0585
▁işim	-10.0588
▁günümüzde	-10.0588
▁maliyeti	-10.0588
▁sürede	-10.0594
▁Öncelikle	-10.0595
▁Kadın	-10.0595
iği	-10.0599
▁yaparsa	-10.0608
▁havada	-10.0612
▁makina	-10.0614
lke	-10.0616
▁bo	-10.062
▁sonucunda	-10.062
▁Sanat	-10.0624
▁Doğa	-10.0629
▁yarattı	-10.0634
▁hâle	-10.0635
▁Değil	-10.0636
▁Yakın	-10.064
▁vergi	-10.0641
tür	-10.0641
▁yaşadığımız	-10.0643
abileceğimiz	-10.0646
▁Bizler	-10.0649
▁Hu	-10.065
▁şişe	-10.0652
▁uyku	-10.0655
ime	-10.0658
▁toplu	-10.0662
▁sınırlı	-10.0668
▁dönüşüm	-10.0675
kleri	-10.0678
▁gözüküyor	-10.0682
▁oluşturma	-10.0685
acaktır	-10.0692
▁kuvvet	-10.07
▁faaliyet	-10.0701
▁fosil	-10.0701
▁diyelim	-10.0702
▁Genel	-10.0702
▁yön	-10.0702
▁kilit	-10.0703
▁baktığımızda	-10.0708
▁seri	-10.071
▁Sorun	-10.071
▁içeren	-10.0711
ıyorsunuz	-10.0714
▁bakı	-10.0721
▁olayı	-10.0722
▁makinesi	-10.0723
▁yolda	-10.0725
▁üret	-10.0725
lerindeki	-10.0727
▁geçiriyor	-10.0734
▁düşme	-10.0741
▁anladım	-10.0742
▁olası	-10.0742
▁döndü	-10.0746
▁yıllarda	-10.0751
▁isteme	-10.0752
ğimiz	-10.0754
▁biliyordu	-10.0754
▁ulus	-10.0756
▁parayı	-10.0758
▁psikoloji	-10.0766
▁işleme	-10.0769
▁yenilik	-10.0775
▁Afrikalı	-10.0775
▁üçte	-10.0776
▁işçi	-10.0785
▁olabilirdi	-10.0794
▁girişimci	-10.08
lerse	-10.0801
▁Para	-10.0807
cılar	-10.0808
sunu	-10.081
▁ölme	-10.0811
▁takımı	-10.0811
▁yaşamı	-10.0812
▁dili	-10.0817
▁verdiğimiz	-10.082
ldukça	-10.082
üyor	-10.0823
nce	-10.0824
▁bildiğiniz	-10.0824
▁tanıma	-10.0825
mayan	-10.083
▁vahşi	-10.0831
▁ekip	-10.0834
▁almış	-10.0837
▁tatlı	-10.0839
manın	-10.0839
▁katıl	-10.0841
▁fabrika	-10.0843
▁yenilikçi	-10.0844
▁bilmiyoruz	-10.0845
▁bunlara	-10.085
▁ö	-10.0854
▁Har	-10.0856
▁ederse	-10.0858
gan	-10.086
muştu	-10.0865
▁soy	-10.0868
▁atom	-10.0873
aj	-10.0875
▁seviyede	-10.0876
▁organizasyon	-10.0885
▁teklif	-10.0898
▁hepiniz	-10.0898
▁alıcı	-10.09
laştır	-10.0906
▁150	-10.0909
▁taşıma	-10.0918
▁ediyordu	-10.0929
▁yapılıyor	-10.0933
▁çevir	-10.0945
▁dönüştü	-10.0952
▁kahraman	-10.096
ja	-10.096
▁yapabileceğimiz	-10.0961
▁etkin	-10.0961
▁Kesinlikle	-10.0963
▁Uzay	-10.0963
▁sebeple	-10.097
▁civarında	-10.097
let	-10.0985
▁etmemiz	-10.0987
▁dediğim	-10.0988
▁domuz	-10.099
diklerini	-10.099
melen	-10.0997
▁satış	-10.0999
▁arta	-10.1006
▁rapor	-10.1008
▁taşıyor	-10.1011
idir	-10.1012
▁özellikleri	-10.1015
▁düşündüğümüz	-10.1022
▁rekabet	-10.1023
mle	-10.1024
▁acil	-10.1026
▁dinleme	-10.1027
▁dürüst	-10.1028
▁Twitt	-10.103
▁kullandığı	-10.1035
▁çalışırken	-10.104
▁yüzyılın	-10.1042
▁kimya	-10.1052
▁istedikleri	-10.1053
▁resimler	-10.1057
▁başlamak	-10.1063
▁olmanız	-10.1068
arı	-10.1072
▁metal	-10.1085
▁Vi	-10.1085
dığınız	-10.1086
▁aklım	-10.1087
▁pat	-10.1087
▁bahsettiğim	-10.1088
▁deli	-10.1097
▁özgürlük	-10.1098
▁dönme	-10.1105
▁basitçe	-10.1108
▁söyleyen	-10.1111
▁bar	-10.1113
▁nöron	-10.1114
▁alıyoruz	-10.1129
▁katman	-10.1133
▁adalet	-10.1133
▁eğri	-10.1136
▁gözü	-10.1138
▁yazdı	-10.1149
▁örnekler	-10.1156
▁sağlayabilir	-10.1157
▁planı	-10.1157
▁Araştırma	-10.1162
▁Eğitim	-10.1165
▁edilme	-10.1165
▁kocaman	-10.1166
▁Paul	-10.1166
▁hayatlarını	-10.1166
▁Bay	-10.1169
sü	-10.1169
▁yaşındayken	-10.117
▁birer	-10.1172
▁sizler	-10.1176
▁kart	-10.1176
▁Jo	-10.1178
▁gelince	-10.118
cek	-10.1187
▁ar	-10.1191
▁salgın	-10.1195
▁geliştir	-10.1195
▁anlatacağım	-10.1198
▁zordur	-10.1209
▁Annem	-10.1212
▁çekiyor	-10.1214
▁ettir	-10.1216
▁çiftçi	-10.1221
▁kullanmaya	-10.1223
tro	-10.1223
▁Bill	-10.1229
▁Umarı	-10.1233
▁düzgün	-10.1233
▁etkileyici	-10.1234
▁kaba	-10.1242
▁Farklı	-10.1244
▁gazeteci	-10.1255
▁arttır	-10.1257
▁Kendisi	-10.1262
▁seçme	-10.1263
liyor	-10.1265
▁tasarımı	-10.1266
▁Time	-10.1268
▁sürdü	-10.1273
▁oyna	-10.1275
he	-10.1277
▁Nerede	-10.1278
ilir	-10.1281
ğını	-10.1284
▁tutma	-10.1285
▁imza	-10.1286
▁miktarı	-10.1287
▁çatı	-10.1289
▁Ön	-10.1289
▁sat	-10.1296
▁Po	-10.1299
▁değiştiriyor	-10.1301
▁cesur	-10.1301
▁heykel	-10.1301
▁blog	-10.1301
▁Basit	-10.1302
▁geliştirmek	-10.1304
▁kör	-10.1304
▁ahlak	-10.1305
▁yükselt	-10.1307
▁düşüş	-10.1308
rı	-10.1308
ic	-10.1319
▁Fo	-10.1319
melisiniz	-10.1323
mizden	-10.1324
▁çeken	-10.1324
tör	-10.1326
▁kızı	-10.1328
dıklarını	-10.133
▁ölçüm	-10.1333
lenen	-10.1335
▁dağıt	-10.1337
mıyoruz	-10.1339
▁çoğunuz	-10.134
▁şefkat	-10.1343
▁düşman	-10.1344
▁görmüş	-10.1348
▁İç	-10.1351
▁yapmıyor	-10.1352
ğü	-10.1356
▁aldığı	-10.1358
▁paylaşma	-10.1359
acağı	-10.136
▁yaşadığı	-10.1364
▁geldik	-10.1364
▁götürdü	-10.1366
▁hayvanların	-10.1366
▁mekan	-10.1369
▁felaket	-10.137
▁merhamet	-10.137
▁Savaşı	-10.1373
▁Bilgisayar	-10.1376
▁vereceğim	-10.1377
eği	-10.1386
▁sar	-10.1393
▁kıyasla	-10.1395
▁boyu	-10.1397
▁adamlar	-10.14
▁duy	-10.1405
▁kendiniz	-10.1405
▁harf	-10.1407
▁fikrim	-10.1424
▁mimar	-10.1425
▁zamana	-10.1433
▁ederler	-10.1434
▁ücret	-10.1435
▁seçenek	-10.1438
▁trilyon	-10.1439
▁sıklıkla	-10.1439
▁buradan	-10.1439
▁Meksika	-10.1439
▁depresyon	-10.1439
▁sahte	-10.1439
▁ziyade	-10.1439
▁kutsal	-10.1441
▁karınca	-10.1441
miyoruz	-10.145
▁uyan	-10.1452
▁kuralları	-10.1455
rt	-10.1456
▁yaptığınız	-10.1462
▁başlıyoruz	-10.1463
▁aktar	-10.1465
liyiz	-10.1467
▁Yer	-10.1467
▁zemin	-10.1473
▁eriş	-10.1474
lup	-10.1474
▁birbirlerin	-10.1478
▁falan	-10.1484
rak	-10.1485
▁kuzey	-10.149
▁başlayalı	-10.149
▁bitkiler	-10.1491
▁saatte	-10.1493
▁kelimeler	-10.1493
▁üretme	-10.15
ladık	-10.1501
oloji	-10.1504
nuzu	-10.1504
▁olamaz	-10.1507
▁zamanında	-10.1508
▁Müslüman	-10.1509
▁öğle	-10.1509
▁söyleyebilirim	-10.1514
▁ürünleri	-10.1515
▁sür	-10.1519
▁bırakıyor	-10.152
▁duran	-10.1523
ırken	-10.1529
▁diyorlar	-10.1538
▁bekleme	-10.1542
üm	-10.1554
madan	-10.1554
▁anlatıyor	-10.1555
▁böcek	-10.1555
tığını	-10.1558
mizle	-10.1565
▁kalır	-10.1568
▁boz	-10.1573
▁Sal	-10.1577
▁Açık	-10.1578
▁İslam	-10.158
▁idare	-10.158
▁Toplum	-10.158
▁nehir	-10.158
▁aracılığıyla	-10.1582
▁oyuncak	-10.1584
▁duyuyor	-10.1585
▁neyi	-10.1585
▁bulut	-10.1587
▁başar	-10.1588
▁bulur	-10.1589
▁teknolojiler	-10.1592
▁özgü	-10.1594
▁sormak	-10.1615
▁Sol	-10.1626
▁etrafta	-10.1636
ırsınız	-10.1638
▁savunma	-10.1641
▁zamanla	-10.1642
▁çiçek	-10.1645
▁biriydi	-10.165
▁kazandı	-10.1651
▁Muhte	-10.1651
▁olumlu	-10.1651
▁olaylar	-10.1651
▁geçmişte	-10.1652
memiz	-10.1652
▁üretmek	-10.1654
▁çağrı	-10.1654
▁bahsedeceğim	-10.1655
▁em	-10.1655
▁denilen	-10.1657
▁başı	-10.1661
▁hastalığın	-10.1661
▁Hey	-10.1665
ama	-10.1667
▁zihni	-10.1667
▁tren	-10.1669
▁hareketleri	-10.167
▁yalan	-10.1672
▁beslenme	-10.1676
▁sahipler	-10.1677
▁değerlendir	-10.1678
▁Adı	-10.168
▁sorma	-10.1682
mekte	-10.1683
▁çözümler	-10.1686
▁hastalar	-10.1689
▁koloni	-10.1703
▁Hala	-10.1716
▁George	-10.1722
▁kritik	-10.1722
▁uyuşturucu	-10.1722
▁otomatik	-10.1722
▁hizmeti	-10.1724
▁sıkıcı	-10.1729
▁değişken	-10.1729
▁kişilik	-10.1729
▁yolunda	-10.1734
▁ırk	-10.1737
dınız	-10.1739
▁toplama	-10.174
larınız	-10.1742
▁düşündüğüm	-10.1748
▁oran	-10.175
▁olacağız	-10.1753
▁bulundu	-10.1753
ilmesi	-10.1754
ırız	-10.1759
▁söylediğim	-10.1777
▁olmuyor	-10.1779
▁günün	-10.1779
▁değişiklikler	-10.178
▁yaşan	-10.1783
▁biliyordum	-10.1787
▁yaşar	-10.1788
▁Savaş	-10.1791
▁konuşmayı	-10.1792
ac	-10.1792
▁Nijerya	-10.1794
▁yuva	-10.1797
han	-10.1797
▁koymak	-10.1803
▁köşe	-10.1804
▁büyü	-10.1805
▁etiket	-10.1806
▁tersine	-10.1814
lılar	-10.1818
▁diğerleri	-10.1823
▁odaklan	-10.1833
▁ayında	-10.1833
for	-10.1836
dışı	-10.1836
▁söylen	-10.1837
▁um	-10.1843
biriyle	-10.1844
▁dünyası	-10.1853
▁müşteri	-10.1855
şa	-10.1867
▁şok	-10.1867
▁blok	-10.1867
▁nihayet	-10.1867
▁çoğunluğu	-10.1868
▁sakin	-10.1871
▁ısınma	-10.1872
▁testi	-10.1873
▁kapasite	-10.1877
▁projesi	-10.1879
ğini	-10.1882
▁ekmek	-10.1891
▁sok	-10.1912
▁35	-10.1913
▁izliyor	-10.1914
▁canlandır	-10.1917
▁As	-10.1919
▁çıkart	-10.1926
▁yazdım	-10.1929
▁Küresel	-10.1936
meyecek	-10.1936
çüncü	-10.1938
▁Yo	-10.1939
▁Eylül	-10.194
▁kontrolü	-10.1942
▁Araba	-10.1942
▁öne	-10.1945
düşünebilirsiniz	-10.1952
▁yapılar	-10.1952
▁mühendislik	-10.1964
▁yönde	-10.1966
▁kazanma	-10.197
line	-10.1972
▁moda	-10.1976
▁olmasa	-10.198
▁gid	-10.1981
▁çıkarma	-10.1983
▁buluyor	-10.1984
▁altındaki	-10.199
maz	-10.1992
▁artır	-10.1995
yorsunuz	-10.1998
▁baktım	-10.2004
▁kamp	-10.2006
▁sahipti	-10.2006
▁köprü	-10.2013
▁trafik	-10.2013
▁patent	-10.2014
▁organik	-10.2016
▁bireysel	-10.2018
dığında	-10.202
▁izleme	-10.2021
▁teknolojisi	-10.2022
▁Go	-10.2023
▁cesaret	-10.2037
▁başlay	-10.2037
▁tutar	-10.2045
▁görüşü	-10.2048
▁Kore	-10.2051
▁hatırla	-10.2051
▁şehirde	-10.2054
▁benze	-10.2056
▁geçirdim	-10.2058
▁görür	-10.2059
ciler	-10.2073
▁kullanılıyor	-10.2074
▁aylık	-10.2074
▁alanlarda	-10.2075
abileceğini	-10.2076
▁Pro	-10.2079
fen	-10.2083
▁yaratır	-10.2085
▁organizma	-10.2085
likten	-10.2086
▁saç	-10.2086
▁Sosyal	-10.2087
▁korkutucu	-10.2087
▁iğne	-10.2087
▁polen	-10.2087
▁ideal	-10.2087
▁sıradışı	-10.2089
▁ailem	-10.2089
▁kaynaklar	-10.2097
▁öğret	-10.2102
▁Bilgi	-10.2109
▁artıyor	-10.2111
▁hissettim	-10.2113
▁işletme	-10.2116
▁yarış	-10.2117
▁görünmez	-10.2118
▁tartış	-10.2118
▁eğlence	-10.2119
ğım	-10.2127
▁kapat	-10.2135
▁dinle	-10.2136
▁çekti	-10.2137
▁olmasıdır	-10.2146
▁hikayesini	-10.2148
▁bilinç	-10.2151
▁aşk	-10.2154
▁Avustralya	-10.2162
▁sağlam	-10.2164
▁onay	-10.2166
▁başlangıcı	-10.2168
▁kullanabiliriz	-10.2172
▁Kal	-10.2173
sıdır	-10.2175
▁kızlar	-10.2175
▁renkli	-10.2176
▁sunuyor	-10.2185
▁yasak	-10.2186
▁yolları	-10.2188
▁söyledim	-10.2198
▁hiçbiri	-10.2198
▁oradaki	-10.2205
▁İşin	-10.2216
▁değerlendirme	-10.2219
▁liderlik	-10.2219
▁oranında	-10.2223
ıldığında	-10.2225
▁ekosistem	-10.2225
▁hisseder	-10.2225
▁Had	-10.2228
▁oyuncu	-10.2229
▁geldim	-10.2232
▁meslek	-10.2237
▁Kaliforniya	-10.2237
▁organize	-10.2238
▁hamile	-10.2239
▁düzeyde	-10.2241
▁durdur	-10.2243
▁bağımlı	-10.2246
▁ilaçlar	-10.225
▁istemiyor	-10.2251
▁çalışıyorlar	-10.2253
▁Fa	-10.2255
▁sesini	-10.2257
▁Kanada	-10.2265
mez	-10.2265
▁yöne	-10.2268
ysanız	-10.2271
▁haberler	-10.2272
▁döngü	-10.2274
lanabilir	-10.2276
▁döner	-10.2276
▁başkanı	-10.2277
▁çerçeve	-10.2278
▁düşür	-10.2283
▁bekliyor	-10.2285
izm	-10.229
▁dakikada	-10.2299
▁bağlantılı	-10.2305
▁koku	-10.2311
▁aldığımız	-10.2312
▁Herhangi	-10.2313
▁İnanılmaz	-10.2313
▁hayret	-10.2313
▁oturup	-10.2313
▁kalmak	-10.2319
▁Deniz	-10.232
▁gezegenin	-10.2322
▁savaşı	-10.2326
▁istemez	-10.2328
▁Babam	-10.2336
▁erkeklerin	-10.2337
▁ağzı	-10.2342
lması	-10.2344
▁değiştiren	-10.2345
▁anlatı	-10.2346
▁ser	-10.2347
▁çeker	-10.2348
▁gelmişti	-10.2352
▁kalın	-10.236
▁kurumlar	-10.2369
▁ortamda	-10.2372
▁düzenli	-10.2374
larımıza	-10.2376
▁yapısı	-10.2377
▁bilin	-10.2377
▁To	-10.2377
▁kullanıyorlar	-10.2378
▁memnun	-10.2378
▁aksin	-10.238
▁kaybetti	-10.2386
▁Darwin	-10.2389
▁umarım	-10.2389
▁kategori	-10.2389
▁yürüyüş	-10.2389
▁bugünkü	-10.2392
▁düşen	-10.2401
▁kesi	-10.2402
▁se	-10.2402
▁farkettim	-10.2406
▁ordu	-10.2408
lerimizde	-10.2408
▁evrende	-10.2419
▁yasal	-10.2428
▁çıkarıyor	-10.2433
▁tasarımcı	-10.2434
▁ürünler	-10.2449
kti	-10.246
▁Los	-10.2461
▁eseri	-10.2464
▁Jam	-10.2465
▁sohbet	-10.2466
▁hediye	-10.2466
▁görülen	-10.2466
▁vakti	-10.2467
▁tarif	-10.2473
▁hücresi	-10.2474
▁günlerde	-10.2478
▁alıntı	-10.2479
▁kolu	-10.248
▁peşinde	-10.2483
▁geçmek	-10.2484
▁45	-10.2489
▁yaratan	-10.2491
▁şirketleri	-10.2494
abilirim	-10.2496
▁kampanya	-10.2497
ımda	-10.2501
▁ulaşım	-10.2506
▁ölçekte	-10.251
▁kullandık	-10.2511
▁Kan	-10.2512
▁girer	-10.2519
▁görü	-10.2524
▁tarama	-10.2529
▁şirketlerin	-10.2531
▁Hangi	-10.2544
▁gözleri	-10.2549
▁görmez	-10.2557
duğunu	-10.2558
▁faydalı	-10.2559
▁evi	-10.2565
▁etkileri	-10.2568
▁ölüyor	-10.2571
▁çıkış	-10.2572
▁yerleri	-10.2573
▁gezi	-10.2596
▁çözü	-10.26
▁gidecek	-10.2605
▁ofis	-10.2608
▁yaklaş	-10.2611
▁gelin	-10.2615
▁avcı	-10.2618
▁Einstein	-10.2622
▁mektup	-10.2622
▁benzeyen	-10.2622
▁lisans	-10.2622
▁şaka	-10.2622
▁Merkezi	-10.2623
▁h	-10.2624
▁noktalar	-10.2624
▁99	-10.2624
▁göçmen	-10.2629
50	-10.2632
▁mesajı	-10.2633
▁yörünge	-10.2634
▁süreçte	-10.2635
ılabilir	-10.2636
▁çıkmış	-10.2639
▁biçim	-10.2643
▁temelde	-10.2647
▁daim	-10.2648
▁Beş	-10.265
▁demokratik	-10.2654
▁Dan	-10.2657
▁teknolojik	-10.2659
▁düşünüyordum	-10.2661
▁ayakta	-10.2664
▁hızı	-10.2666
▁taşın	-10.2668
▁par	-10.2668
▁Konuşma	-10.2679
▁gösterdiği	-10.268
araya	-10.2683
▁çağı	-10.2684
▁ardı	-10.2685
▁doğu	-10.2692
▁sürüyor	-10.2698
▁gövde	-10.27
▁rüya	-10.27
▁teşhis	-10.2715
▁Sonuçta	-10.2719
▁tanıyor	-10.2719
malı	-10.2721
▁elle	-10.2725
▁ediyorsunuz	-10.2726
▁üstesinde	-10.2728
▁yaptır	-10.2731
▁75	-10.2732
▁In	-10.2735
landırma	-10.2738
▁şekillendir	-10.2738
▁açma	-10.2738
▁çoktan	-10.2739
▁siyahi	-10.274
▁olmam	-10.2747
▁bulduğumuz	-10.2747
▁kariyer	-10.2748
▁buluş	-10.2748
▁belirt	-10.275
▁söylediler	-10.2753
▁uğraş	-10.2754
▁erişim	-10.2755
▁lise	-10.276
ınca	-10.2776
▁aldığım	-10.2777
için	-10.2778
▁bakan	-10.2779
▁dinamik	-10.278
▁otobüs	-10.278
▁meşgul	-10.278
amayacak	-10.278
▁tarihinde	-10.2781
▁Biliyoru	-10.2783
▁süren	-10.2783
ğümüz	-10.2792
▁ekibi	-10.2793
▁detay	-10.28
▁fon	-10.2805
▁sun	-10.2808
layabilir	-10.2818
▁tanrı	-10.2818
▁Biliyor	-10.282
▁gelmek	-10.2823
▁eşi	-10.2824
▁İran	-10.2826
▁İlki	-10.2847
▁Alman	-10.2847
inizin	-10.2848
▁getirdiği	-10.2857
ğında	-10.2859
▁Ekonomi	-10.286
▁tasarlanmış	-10.2862
▁kırsal	-10.2862
▁mekanik	-10.2863
▁zorluk	-10.2868
nizle	-10.2873
▁bilimin	-10.2874
▁babası	-10.2874
▁teknolojileri	-10.2876
▁üreme	-10.2876
▁çağ	-10.2885
▁sıkıntı	-10.2891
▁İn	-10.2894
▁kişilerin	-10.29
▁edeceğim	-10.2902
▁alış	-10.2902
▁ticaret	-10.2902
▁projeler	-10.2906
▁düşüyor	-10.2912
▁Soru	-10.2912
▁kullandı	-10.2914
ğu	-10.2926
▁mekanizma	-10.2931
▁pozitif	-10.294
▁geçmişi	-10.294
▁kaybı	-10.2941
▁zamanın	-10.2941
▁yaşın	-10.2943
▁yapalım	-10.2945
yalım	-10.2949
▁kok	-10.2953
▁türleri	-10.2955
▁soruları	-10.2958
▁araştır	-10.2959
ebilirim	-10.296
ebileceğiniz	-10.2961
▁balon	-10.2963
▁bilgiler	-10.2972
▁oluşur	-10.2973
▁arttı	-10.2981
▁çabuk	-10.2984
▁Az	-10.2985
▁kahkahalar	-10.2986
▁ilişkiler	-10.2988
▁kendim	-10.2998
▁öfke	-10.3
▁varlığı	-10.3007
▁karikatür	-10.3016
▁Beyin	-10.302
▁meyve	-10.3022
▁mucize	-10.3022
▁edelim	-10.3022
▁yürüy	-10.3025
▁bahsediyorum	-10.3031
▁çeşitlilik	-10.3032
▁arıyor	-10.3032
landığı	-10.3033
lıkla	-10.3035
▁bıraktı	-10.3036
cik	-10.3038
▁ucunda	-10.3038
▁duyar	-10.3039
▁ulaş	-10.3043
▁hayatım	-10.3044
▁bölgesinde	-10.3048
▁Ge	-10.3055
madı	-10.3056
▁sağlay	-10.3057
▁tanımlama	-10.3058
▁uy	-10.3067
▁öğrendiğim	-10.3067
▁karşılaş	-10.3073
▁dini	-10.3074
▁çiftlik	-10.3083
▁yargı	-10.3085
ceği	-10.309
▁gidebilir	-10.3092
▁Eve	-10.3093
▁kıl	-10.3094
ırdı	-10.3097
▁oluyorlar	-10.3103
▁Richard	-10.3104
▁alışveriş	-10.3104
▁mahkum	-10.3104
▁bedava	-10.3104
▁sınırları	-10.3104
▁gölge	-10.3105
▁düzelt	-10.3106
▁Hasta	-10.3107
▁tümör	-10.3108
▁dolayısıyla	-10.3108
▁kazandır	-10.3109
▁oturuyor	-10.3111
▁cihazı	-10.3111
▁tatil	-10.3115
▁çalışarak	-10.3115
▁delik	-10.3119
▁sinek	-10.312
▁açıyor	-10.3122
▁Arap	-10.3123
▁başlat	-10.3125
▁yarattığı	-10.3126
▁ailesi	-10.3129
▁konuşacağım	-10.313
raf	-10.3132
▁Günümüzde	-10.3137
▁gördüğü	-10.3138
ft	-10.314
indeki	-10.3142
▁arabalar	-10.3143
▁kablo	-10.3146
▁bırakmak	-10.3148
▁inanma	-10.3151
▁duyarlı	-10.3151
▁koca	-10.3154
▁terim	-10.3158
dığınızda	-10.3162
▁Okul	-10.3163
▁boy	-10.3163
▁zorlu	-10.3171
▁komşu	-10.3176
▁aptal	-10.3178
▁soyut	-10.318
▁Aile	-10.3182
▁söyleyebilir	-10.3186
▁Hikaye	-10.3186
▁Yüksek	-10.3186
▁Anders	-10.3189
▁platform	-10.3194
▁göç	-10.3195
▁değişiyor	-10.3196
▁On	-10.3199
▁Or	-10.3199
▁Ana	-10.3199
▁çizim	-10.3201
▁diyordu	-10.3203
▁ettikleri	-10.3204
▁kapa	-10.3204
▁konuşan	-10.3216
▁ihtimali	-10.3226
leştirme	-10.3227
▁içer	-10.3228
▁üretiyor	-10.3238
▁takdir	-10.324
▁sonuçta	-10.324
▁yoksul	-10.3241
▁doktora	-10.3241
▁ettiğiniz	-10.3245
▁devrimi	-10.325
▁döndüm	-10.3253
▁Pe	-10.3253
▁saçma	-10.3253
yorlar	-10.3257
ard	-10.3261
▁büyüklüğünde	-10.3262
uantum	-10.3267
▁mutlak	-10.327
▁cadde	-10.327
▁prototip	-10.327
▁oranları	-10.3274
▁eşsiz	-10.3275
▁kalıp	-10.3278
▁dün	-10.3278
kal	-10.3282
mayacak	-10.3288
▁kısmında	-10.3291
▁kalacak	-10.3293
▁konferans	-10.3295
▁bölgelerde	-10.3296
▁sanayi	-10.3297
amazsınız	-10.33
▁yönlendir	-10.33
▁çeki	-10.3301
▁oynat	-10.3305
▁bazılarını	-10.331
▁anında	-10.3313
▁tipik	-10.3315
▁Ale	-10.3316
▁ağaçlar	-10.3316
▁sinyal	-10.3317
▁durumlarda	-10.3319
ınız	-10.332
U	-10.3326
▁konum	-10.3329
▁yapmanız	-10.3331
▁buzul	-10.3337
▁ekoloji	-10.3338
hane	-10.3338
▁atık	-10.3346
▁198	-10.3347
▁elimde	-10.3347
▁bakacak	-10.3347
▁düş	-10.3348
▁adlandır	-10.3351
ince	-10.3353
▁Washington	-10.3354
▁restoran	-10.3354
▁Fransa	-10.3356
şık	-10.3357
▁hasar	-10.3361
▁tahta	-10.3364
▁depo	-10.3366
▁yaşa	-10.3368
▁biçimi	-10.3377
▁unutma	-10.3377
▁zorundasınız	-10.3379
meli	-10.3383
▁tüketici	-10.3384
▁çalıştır	-10.3395
▁öğreniyor	-10.3396
▁yay	-10.34
▁paket	-10.34
▁hükümeti	-10.3402
ow	-10.3403
tar	-10.3405
ff	-10.3408
ov	-10.341
▁oyunları	-10.3412
▁giri	-10.3413
rma	-10.3413
▁gez	-10.3415
ladığı	-10.3419
ğim	-10.3419
▁zirve	-10.3422
rik	-10.3425
ktir	-10.3425
▁kültürü	-10.3425
▁oluyordu	-10.3426
çu	-10.3434
▁malzemeler	-10.3438
▁kömür	-10.3438
▁kütüphane	-10.3438
▁sigara	-10.3438
▁oynuyor	-10.3439
▁büyüyen	-10.3443
▁gibidir	-10.3446
▁yardımı	-10.3448
ana	-10.3449
▁kütle	-10.3452
▁uygulan	-10.3454
▁kurduk	-10.3454
iyordu	-10.3456
▁Car	-10.3459
▁Sonrasında	-10.3462
▁Mısır	-10.3466
görebiliyorsunuz	-10.3467
▁çalışmayı	-10.3468
▁Bi	-10.347
les	-10.3473
▁yarışma	-10.3475
▁birbirimize	-10.3475
▁asker	-10.3476
har	-10.3477
▁maru	-10.3477
▁hissed	-10.3478
▁saha	-10.3481
kinden	-10.349
▁tamir	-10.3494
▁birey	-10.3496
▁yararlı	-10.3501
▁kısaca	-10.3502
▁Mal	-10.3503
▁öğretti	-10.3504
▁müziği	-10.3506
▁algılama	-10.3506
medi	-10.3507
▁şekilleri	-10.3514
▁çıktığı	-10.3515
▁karıştır	-10.3518
▁belir	-10.3518
▁Francis	-10.3524
▁dehşet	-10.3524
▁düğme	-10.3524
▁macera	-10.3524
▁kurgu	-10.3525
▁içeriyor	-10.3526
lendirme	-10.3527
PS	-10.3527
▁2008	-10.3528
▁buyuk	-10.3529
▁okur	-10.3531
ite	-10.3532
bilir	-10.3532
▁başla	-10.3535
▁koru	-10.3535
▁kurum	-10.3536
▁olabiliriz	-10.3539
▁üreten	-10.354
▁duygusu	-10.3541
▁toplumda	-10.3548
▁tutuyor	-10.355
▁maymun	-10.3552
▁ayna	-10.3555
▁özellikler	-10.3557
▁oku	-10.3564
▁başardı	-10.3564
▁kalbi	-10.3565
▁dönüştür	-10.3569
▁Gör	-10.3571
▁sorumluluk	-10.3586
▁Gi	-10.3587
ımın	-10.3588
▁yeteri	-10.3589
▁çoğal	-10.3594
▁bulduğum	-10.3595
▁güzellik	-10.3595
▁olmasın	-10.3598
▁bakteriler	-10.3603
▁Doktor	-10.361
▁egzersiz	-10.361
▁fırtına	-10.361
▁senaryo	-10.361
▁İlginç	-10.361
▁Allah	-10.3611
▁kilise	-10.3612
▁bant	-10.3613
▁22	-10.3616
▁gösterdiğim	-10.3618
▁balina	-10.3632
▁uzan	-10.3637
▁iyisini	-10.3638
▁internette	-10.3648
▁23	-10.3648
▁çözme	-10.3649
▁doldur	-10.3649
▁yeti	-10.3652
▁düşünen	-10.3656
ara	-10.3658
▁kullanabilir	-10.3665
diğinizde	-10.3676
ımızın	-10.3676
▁Altı	-10.3677
▁1000	-10.368
▁çıkmak	-10.3681
▁oynama	-10.3684
▁sorduk	-10.3685
▁gitmeye	-10.3685
▁kurtul	-10.3686
▁yatak	-10.3686
▁Fransız	-10.369
▁yaşındaydı	-10.369
▁kanat	-10.3692
yecek	-10.3694
▁şeklini	-10.3695
▁sözü	-10.3696
▁MIT	-10.3697
▁görürüz	-10.3697
▁görülüyor	-10.3697
▁Oh	-10.3698
▁varlık	-10.3704
▁Temel	-10.3704
▁gittiğini	-10.3706
▁haritası	-10.3708
mezsiniz	-10.3709
▁konuşu	-10.3711
ral	-10.3714
▁konuşur	-10.3717
abiliyoruz	-10.3717
▁Bizi	-10.372
▁savaşın	-10.3725
▁şart	-10.3726
▁tohum	-10.3732
▁varsayım	-10.3732
▁uyarı	-10.3734
▁ah	-10.3739
▁gürültü	-10.374
▁tersi	-10.3741
▁Hayal	-10.3746
▁topluluğu	-10.3748
▁çağır	-10.3748
▁istiyordum	-10.3748
▁öykü	-10.3749
▁olabiliyor	-10.3749
▁gerekti	-10.3751
▁sorar	-10.3754
▁resme	-10.3762
▁rengi	-10.3764
▁herkesi	-10.3765
▁tabaka	-10.3771
▁şeyle	-10.3771
▁yapın	-10.3774
dunuz	-10.3775
▁Gu	-10.3781
larımdan	-10.3783
▁Merhaba	-10.3785
▁Angeles	-10.3785
▁obje	-10.3786
▁atmosfer	-10.3786
▁kalıcı	-10.3787
tme	-10.3787
▁ölen	-10.3791
▁halkı	-10.3798
▁örgüt	-10.3801
▁bağlan	-10.3802
▁deneyler	-10.3809
ly	-10.3813
▁yarıyor	-10.3814
▁Tanrım	-10.382
ırlar	-10.3822
▁saniyede	-10.3823
▁oturdu	-10.3827
▁ad	-10.3835
▁geçirmek	-10.3838
▁değerleri	-10.384
▁NAS	-10.3842
▁çevresinde	-10.3842
▁üstü	-10.3843
▁ağrı	-10.3843
▁seviyesi	-10.3847
saydı	-10.3848
▁Veri	-10.385
▁Rus	-10.3852
▁dua	-10.3852
▁anlattı	-10.3857
▁ayda	-10.3863
▁yapısını	-10.3864
▁Roma	-10.3866
▁Harvard	-10.3873
▁kova	-10.388
▁tarihte	-10.388
▁ceza	-10.3883
▁yığın	-10.3885
▁Web	-10.3885
▁yapmalıyız	-10.3887
▁ter	-10.3887
▁riski	-10.3898
▁anlayış	-10.3899
▁konular	-10.3901
▁bilmiyordum	-10.3901
▁Kaç	-10.3908
▁baktık	-10.3909
▁oldular	-10.3915
▁sona	-10.3925
▁tırman	-10.3929
▁konuşuyor	-10.3929
▁Fe	-10.3935
▁öngörü	-10.3938
Y	-10.394
▁basın	-10.3943
▁mantar	-10.3943
▁Ek	-10.3943
ev	-10.3945
▁düzey	-10.3949
▁yapabilmek	-10.3951
▁Tasarım	-10.3953
▁yönetimi	-10.3954
▁onda	-10.3955
▁iz	-10.3955
▁soruyor	-10.3958
▁Çevre	-10.3963
▁teslim	-10.3963
ıldığı	-10.397
▁matematiksel	-10.3971
duğu	-10.3978
▁doğdu	-10.3982
▁geleceğin	-10.3989
▁kaldım	-10.3991
▁inancı	-10.3992
▁veriyorlar	-10.3997
▁Gel	-10.3998
ebileceğini	-10.3998
▁uzaklaş	-10.3999
▁problemler	-10.4
▁kadınlara	-10.4002
▁kullanılabilir	-10.4005
▁yeme	-10.4008
▁avukat	-10.401
▁oluşturdu	-10.4013
manız	-10.4016
▁alanın	-10.402
▁bölgesi	-10.4021
meyeceğim	-10.405
▁bekler	-10.4052
▁Cevap	-10.4053
▁akciğer	-10.4053
▁elbise	-10.4053
▁ayağa	-10.4053
▁büyüleyici	-10.4053
leşiyor	-10.4055
▁kanun	-10.4056
ron	-10.4066
▁bilinçli	-10.4067
ümü	-10.4068
▁hile	-10.4069
▁hadi	-10.4072
▁600	-10.4074
▁sembol	-10.4074
▁okulu	-10.4077
▁ilgisi	-10.4081
▁halkın	-10.4082
▁değilse	-10.409
▁iyidir	-10.4098
▁işlerini	-10.4099
lerimize	-10.4103
liler	-10.4105
▁yaparlar	-10.4111
▁oluş	-10.412
▁kurtarma	-10.4127
▁le	-10.4128
▁bakmaya	-10.4132
▁yapabilecek	-10.4135
ulmuş	-10.4135
▁üretimi	-10.4137
▁borç	-10.4144
▁yunus	-10.4144
▁2010	-10.4144
▁Charles	-10.4144
▁küme	-10.4145
▁etkileyen	-10.4146
▁çarpıcı	-10.4146
▁atmosferi	-10.4147
▁Şey	-10.4147
▁uzmanı	-10.415
▁bayan	-10.4159
▁uça	-10.4161
▁duyduğumuz	-10.4166
▁klasik	-10.4168
▁tutan	-10.4168
▁teki	-10.4171
▁görüntüler	-10.4172
▁normalde	-10.4175
klerini	-10.4176
yacak	-10.4181
▁hikayeleri	-10.4183
▁değerler	-10.4184
irken	-10.4184
▁hastalıkları	-10.4185
▁gor	-10.4187
▁damla	-10.4191
▁maden	-10.4191
▁ham	-10.4193
▁hücrelerin	-10.4194
▁inşaat	-10.4199
▁fikirlerin	-10.4203
▁Bar	-10.4205
▁götür	-10.4208
▁boşluk	-10.4221
▁üyesi	-10.4222
▁anladı	-10.4229
▁mahkeme	-10.4235
▁Internet	-10.4235
▁empati	-10.4235
▁hidrojen	-10.4235
▁açar	-10.4236
▁onlarda	-10.4236
▁geride	-10.4237
▁gördünüz	-10.4238
▁tel	-10.424
▁kut	-10.4241
cilik	-10.4245
▁kurtulma	-10.4245
▁am	-10.4248
▁kardeşim	-10.4249
▁kay	-10.4251
▁kaldırı	-10.4256
▁açan	-10.4257
▁ayakkabı	-10.4261
▁lik	-10.4262
riyi	-10.4263
▁doktoru	-10.4265
▁hapishane	-10.4265
cılık	-10.4266
▁çekim	-10.4267
▁27	-10.4269
▁yaşamış	-10.4269
ry	-10.428
▁seçeneği	-10.4283
▁Kadınlar	-10.4284
▁yapmam	-10.4289
▁Cha	-10.429
▁araştırmacı	-10.4295
▁seyirci	-10.4295
ladım	-10.4296
meden	-10.4298
▁eli	-10.4301
▁gizem	-10.4303
▁İnsanları	-10.4309
▁inek	-10.4312
▁fotoğraflar	-10.4314
▁nüfusun	-10.4314
▁üstün	-10.4319
▁yayıl	-10.4323
▁Dört	-10.4328
▁anket	-10.4328
▁siyaset	-10.4328
▁197	-10.4329
▁TV	-10.433
▁gelenek	-10.4334
▁Birisi	-10.4338
▁çekildi	-10.4341
▁programları	-10.4344
▁vs	-10.4346
▁sız	-10.4346
▁tanıdık	-10.4348
▁Rusya	-10.4348
▁Veya	-10.4348
▁annesi	-10.4349
▁gönderme	-10.435
▁insani	-10.4351
▁şimdiki	-10.4353
▁karşılıklı	-10.4354
erken	-10.4362
▁boyutu	-10.4364
leştirilmiş	-10.4366
acaba	-10.4376
▁yerin	-10.4379
▁sokak	-10.438
▁Başkan	-10.4383
▁işini	-10.4391
▁enerjisi	-10.4391
▁etkiler	-10.4394
▁isteği	-10.4394
liydi	-10.4397
we	-10.4397
▁bekle	-10.4398
▁Konu	-10.4403
▁larda	-10.4406
▁Tom	-10.4407
sindeki	-10.4414
▁Senin	-10.4419
▁geçirme	-10.4421
▁kaçınılmaz	-10.4421
▁şahit	-10.4421
▁Obama	-10.4421
▁limit	-10.4422
▁pilot	-10.4422
▁adil	-10.4424
▁sesler	-10.4426
▁Böylelikle	-10.4429
▁kayded	-10.4431
▁olmama	-10.4433
▁güvenliği	-10.4435
▁iyimser	-10.4435
rin	-10.4435
ong	-10.444
▁parçasını	-10.4444
▁kuruyor	-10.4445
▁kızım	-10.4446
▁küre	-10.4447
▁sisteme	-10.4447
▁bildir	-10.4448
▁Sana	-10.445
▁kızın	-10.4455
▁öğretmenler	-10.4457
▁sıcaklık	-10.4458
▁başlamıştı	-10.4463
▁Film	-10.4464
tif	-10.4483
▁dosya	-10.4485
▁doktorlar	-10.4487
▁söyleyecek	-10.449
▁başlayacak	-10.449
▁üzeri	-10.4497
maları	-10.45
▁haftada	-10.4514
siydi	-10.4515
▁ötürü	-10.4516
▁market	-10.4516
▁yirmi	-10.4516
▁tarla	-10.4516
▁Açıkça	-10.4518
▁ücretsiz	-10.4518
▁yapılacak	-10.4519
▁bacak	-10.452
▁geçici	-10.452
▁istediğini	-10.4522
▁tü	-10.4526
▁istiyorsunuz	-10.4527
▁fotoğrafları	-10.453
▁bulunur	-10.4536
▁ikisini	-10.4538
▁slayt	-10.4548
▁köle	-10.4554
▁akım	-10.4557
▁kaynaklı	-10.4558
▁vücudun	-10.4558
▁deneyi	-10.4558
▁dost	-10.456
▁Yıl	-10.4561
▁iniş	-10.4561
▁fi	-10.4565
▁gören	-10.4566
▁içme	-10.4569
▁düşüncesi	-10.4575
▁ayrılma	-10.4578
▁resimde	-10.4581
▁pazarlama	-10.4587
▁öncesi	-10.4588
▁inceley	-10.4589
▁Kral	-10.4591
▁lı	-10.4603
ram	-10.4604
▁bal	-10.4605
leyerek	-10.4605
▁bırakır	-10.4605
▁kamyon	-10.4607
▁dördüncü	-10.4611
▁göğüs	-10.4611
▁geldiler	-10.4611
▁Amazon	-10.4611
▁kavram	-10.4611
▁öğrencisi	-10.4615
▁seferinde	-10.4617
▁resimleri	-10.4621
▁gelişen	-10.4622
▁çözümü	-10.4623
▁konuştuk	-10.4624
fik	-10.4626
zo	-10.4627
▁olunca	-10.4629
▁kitaplar	-10.4629
▁tavan	-10.463
▁çocuklarını	-10.4631
▁ilkel	-10.4631
▁direkt	-10.4633
▁fizikçi	-10.4635
▁liderler	-10.4643
▁tamamıyl	-10.4645
▁kutup	-10.4647
▁dersiniz	-10.465
▁mar	-10.4651
▁aldılar	-10.4663
rerek	-10.4664
▁zararlı	-10.4665
▁mıydı	-10.4665
▁çeşitliliği	-10.4665
▁ilacı	-10.4666
▁vermiş	-10.4671
▁doğrusu	-10.4673
▁eğit	-10.4681
▁gelmesi	-10.4682
▁hastaların	-10.4685
▁sınıfta	-10.4686
▁getiril	-10.4694
▁dokunma	-10.4698
▁yiy	-10.4703
▁Pakistan	-10.4707
▁1960	-10.4707
▁bulgu	-10.4707
▁iPhone	-10.4708
▁tatmin	-10.4709
▁CO	-10.4713
▁istiyordu	-10.4716
▁pe	-10.4717
▁düşünüyorsunuz	-10.4718
unuz	-10.4723
▁getirebilir	-10.4726
▁kasaba	-10.4731
▁bahsetme	-10.4733
▁sı	-10.4736
▁Fark	-10.4737
▁kimlik	-10.4743
▁ilgilen	-10.4745
▁yapabilme	-10.4745
▁keşfetmek	-10.4746
▁olgu	-10.475
▁aday	-10.4751
▁olursunuz	-10.4752
▁modeller	-10.4752
▁kararlar	-10.4754
▁çöl	-10.4754
▁özgün	-10.4764
lıydı	-10.4764
▁etik	-10.4765
mıyordu	-10.4769
▁öğrenir	-10.4773
uldu	-10.4777
▁açığ	-10.478
▁kullanabileceği	-10.4781
▁tekne	-10.4783
▁öneri	-10.4784
▁makineler	-10.4785
▁sürücü	-10.4787
▁durdu	-10.4788
▁sektör	-10.4789
▁sahnede	-10.4791
▁tanışma	-10.4795
▁araştırmalar	-10.4796
▁yapmaları	-10.4797
▁Yıllar	-10.4798
▁görüntüsü	-10.4801
▁Evren	-10.4802
▁etmez	-10.4804
▁Kötü	-10.4804
▁tecavüz	-10.4804
▁mülteci	-10.4805
▁Ardında	-10.4805
▁oğlu	-10.4811
▁istekli	-10.4811
▁oturan	-10.4815
▁çıkacak	-10.4822
▁etkisini	-10.4823
▁alıyorlar	-10.4825
▁planlama	-10.4825
▁giderken	-10.4826
▁olacaklar	-10.4828
▁versiyonu	-10.4831
▁Kendimi	-10.4834
▁genom	-10.4837
▁kendisinin	-10.484
▁topu	-10.4846
▁sanatı	-10.4847
▁eşim	-10.485
▁noktaları	-10.4855
▁önde	-10.4856
▁geçirdi	-10.4857
lüyor	-10.4857
▁keşfetme	-10.4864
▁modelleri	-10.4865
▁besle	-10.4869
▁duyuyoru	-10.4871
tıcı	-10.4872
likte	-10.4874
▁koyun	-10.4876
▁Wi	-10.4878
▁denklem	-10.488
▁izlemek	-10.4883
log	-10.4885
▁nota	-10.4885
▁yazarı	-10.4888
etti	-10.4891
▁meme	-10.4891
▁getirdik	-10.4892
▁ayn	-10.4895
abileceğiniz	-10.4896
▁ellerinde	-10.4899
▁garanti	-10.4902
▁kalabalık	-10.4902
▁metafor	-10.4902
▁1990	-10.4903
▁kadınları	-10.4904
sındaki	-10.4907
▁elektro	-10.4907
▁birileri	-10.4908
▁geliş	-10.4909
acağımız	-10.4909
▁balıkları	-10.4912
▁zinciri	-10.4913
▁nesli	-10.4913
mla	-10.4917
▁ilişkileri	-10.4918
▁alınan	-10.4918
▁simetri	-10.4919
▁operasyon	-10.4921
▁hayvanları	-10.4922
▁farklılık	-10.4923
▁Sır	-10.4925
▁edilir	-10.4929
oo	-10.4938
▁tanesini	-10.4945
▁ağırlık	-10.4946
▁hakim	-10.495
▁çocuğ	-10.4956
▁pi	-10.4959
▁yönel	-10.496
▁Amerikalılar	-10.4962
▁eser	-10.4968
▁avantaj	-10.497
tığımız	-10.4974
▁çocukken	-10.4975
▁yaşı	-10.4977
yet	-10.498
▁savaşta	-10.4986
▁You	-10.4989
▁it	-10.499
▁aileler	-10.4991
▁hayatımda	-10.4992
▁gri	-10.4993
▁kalem	-10.4996
sha	-10.4999
süz	-10.4999
▁Ed	-10.5
▁akraba	-10.5001
▁merdiven	-10.5001
▁medeniyet	-10.5001
▁belirgin	-10.5002
▁ayrıntı	-10.5002
▁kardeş	-10.5018
▁belirsiz	-10.5021
▁du	-10.5024
▁döneminde	-10.5024
▁stres	-10.5025
▁sayısını	-10.5034
▁nüfusunu	-10.5035
▁edebilme	-10.5037
▁Sta	-10.504
▁inceleme	-10.5055
▁yansı	-10.5057
▁insanlığın	-10.5062
▁özgürlüğü	-10.5071
▁bildiğim	-10.5072
▁mantık	-10.5076
▁kurulu	-10.5076
V	-10.5082
▁haberi	-10.5085
lıkları	-10.5086
▁bitirmek	-10.5086
▁gö	-10.5087
oz	-10.5087
tin	-10.5089
▁Ni	-10.509
▁keşfettik	-10.5101
▁Çalışma	-10.5101
▁Beyaz	-10.5101
▁BM	-10.5105
▁yoldan	-10.511
▁taşıyan	-10.511
▁görebileceğiniz	-10.5112
▁kılan	-10.5112
▁hizmetleri	-10.5112
▁yaşlanma	-10.512
▁demiş	-10.5122
sizlik	-10.5123
▁kazı	-10.5124
▁heyecanlı	-10.5129
▁ilgilidir	-10.513
▁Mü	-10.513
▁geçtiğimiz	-10.5134
▁kitapları	-10.5138
▁küçü	-10.5145
▁yüzünü	-10.5145
▁duymak	-10.5151
▁utan	-10.5151
▁iyisi	-10.5153
▁sırt	-10.5161
▁kaybetme	-10.5163
▁ötesin	-10.5168
▁Burda	-10.517
▁sorusu	-10.5171
▁zorla	-10.5174
▁vatandaş	-10.5177
lemeye	-10.518
▁başım	-10.5187
▁kazanmak	-10.5188
▁Devletleri	-10.5194
▁Kol	-10.5197
layabiliriz	-10.5198
manyetik	-10.5202
▁stüdyo	-10.5202
▁Michael	-10.5202
▁mağaza	-10.5202
lme	-10.5204
▁dinlemek	-10.5204
▁gerçekleşen	-10.5206
▁2007	-10.5208
▁ilerliyor	-10.521
▁elleri	-10.5217
▁uzağ	-10.5217
▁yönetme	-10.5222
▁yetersiz	-10.5225
▁At	-10.5228
▁Esas	-10.5235
▁büyüt	-10.5235
▁çalışanları	-10.5236
▁atmak	-10.5236
▁öncelikle	-10.5241
▁karşılaştı	-10.5242
▁saatler	-10.5246
▁kanal	-10.5249
▁yukarıda	-10.5252
▁kavramı	-10.5256
▁Ber	-10.5261
▁Hepiniz	-10.5262
larımın	-10.5268
▁İsveç	-10.5272
▁aralarında	-10.5272
▁Baba	-10.5273
▁seçimler	-10.5274
▁vuru	-10.5285
▁yansıt	-10.5285
▁söylemeye	-10.5289
▁çanta	-10.529
▁kuşlar	-10.5291
▁öğrencilerin	-10.5295
▁denir	-10.5299
▁potansiyeli	-10.5299
▁sokakta	-10.53
▁Es	-10.53
▁sera	-10.5303
▁Thomas	-10.5304
▁nasil	-10.5304
▁otorite	-10.5304
▁1980	-10.5305
▁animasyon	-10.5305
▁boru	-10.5308
▁gözle	-10.531
▁yaratıklar	-10.5313
sızın	-10.5322
▁otel	-10.5322
eceksiniz	-10.5329
▁don	-10.5334
▁sürdür	-10.5336
▁Devlet	-10.5343
unuzu	-10.5348
lıyım	-10.5348
▁sürecin	-10.5352
ris	-10.5353
lanacak	-10.536
müyor	-10.536
▁yarattık	-10.5362
▁çalışıyordum	-10.5363
▁gelmiyor	-10.5367
▁yazılmış	-10.5367
▁com	-10.5374
▁koyduk	-10.5375
▁göründüğü	-10.5375
▁açıklamak	-10.5377
▁özellik	-10.5379
▁etmesini	-10.538
▁şekillerde	-10.5382
▁katlan	-10.5382
▁orda	-10.5385
▁atıyor	-10.539
▁istey	-10.5391
ebildi	-10.5392
▁Per	-10.54
asyonu	-10.5402
▁tesis	-10.5406
▁Dikkat	-10.5407
▁protesto	-10.5407
▁ölümcül	-10.5407
▁vadede	-10.5407
▁tavuk	-10.5407
▁ödey	-10.5409
▁desteği	-10.5409
▁kral	-10.5409
▁akışı	-10.5409
▁içe	-10.5411
▁okyanusun	-10.5414
likleri	-10.5417
lıyordu	-10.5418
▁edilemez	-10.5419
▁değiştirecek	-10.5421
dor	-10.5422
ledi	-10.5423
▁grip	-10.5425
labilir	-10.5425
▁temin	-10.5429
▁amacıyla	-10.5432
▁tas	-10.5434
▁detaylı	-10.5436
▁olduğunun	-10.5439
acağımızı	-10.5439
▁Ye	-10.544
▁anlaşıl	-10.5441
▁beğen	-10.5441
▁rolü	-10.5442
▁doğada	-10.5442
▁uzunluğunda	-10.5445
▁Ab	-10.5447
▁düşünmemiz	-10.5448
▁Ak	-10.5454
▁gelmez	-10.5457
▁düşer	-10.546
syon	-10.5464
▁göze	-10.5472
▁sunum	-10.5476
▁noktasında	-10.5477
▁binalar	-10.5484
▁yazıcı	-10.549
▁tık	-10.5492
kta	-10.5499
▁dayanıklı	-10.55
▁okumak	-10.5502
▁kabile	-10.5503
▁çalışmanın	-10.5505
▁oldugu	-10.5508
▁kaldık	-10.5511
▁efsane	-10.5512
▁çamaşır	-10.5512
▁dunya	-10.5512
▁bayağı	-10.5512
▁yapıyordu	-10.5513
▁millet	-10.5514
ick	-10.5516
▁derdi	-10.5517
▁olmalıydı	-10.5523
▁uzat	-10.5527
▁başlayabilir	-10.5535
▁Wa	-10.5537
▁Hal	-10.5538
iyorsunuz	-10.554
▁hayatımızı	-10.554
▁istemedi	-10.5541
▁dön	-10.5547
▁türün	-10.5551
rsak	-10.5557
▁gençler	-10.5565
layın	-10.5565
▁niye	-10.5569
▁ulaştır	-10.5579
▁Kat	-10.5586
▁olasılığı	-10.5586
▁hi	-10.5589
▁demişti	-10.5595
▁yaratıcılık	-10.56
▁ölümün	-10.56
▁Con	-10.5602
▁çalışıyordu	-10.5603
▁teorisi	-10.5603
▁geleceğ	-10.5603
▁Kara	-10.5606
İ	-10.5609
▁Mc	-10.5611
▁İz	-10.5613
▁tüket	-10.5614
ood	-10.5615
▁futbol	-10.5617
▁karbondioksit	-10.5617
▁perspektif	-10.5617
▁pompa	-10.5617
▁röportaj	-10.5617
▁olumsuz	-10.5617
▁Kanser	-10.5617
▁söylemeliyim	-10.5618
▁oturur	-10.562
▁mühendisliği	-10.5621
mayız	-10.5621
lamaz	-10.5622
▁yaşta	-10.5624
▁Steve	-10.5624
mizdeki	-10.5625
düm	-10.5626
▁onlarca	-10.5636
▁Enstitüsü	-10.5637
▁toplumu	-10.5639
▁işle	-10.5641
▁hap	-10.5644
▁görünüş	-10.5648
▁üretken	-10.565
▁yetki	-10.5653
▁türde	-10.5662
▁gül	-10.5664
▁yapımı	-10.5666
jen	-10.5666
▁edebileceğiniz	-10.5667
▁puan	-10.5676
▁denk	-10.5677
▁grubun	-10.5678
▁üste	-10.5686
▁izle	-10.569
▁ruhu	-10.569
▁göl	-10.569
meleri	-10.5692
hur	-10.5695
ans	-10.5696
▁oynay	-10.5697
▁kaydı	-10.5699
ydü	-10.57
lediğimiz	-10.5701
ğine	-10.5704
imde	-10.5706
▁ayağı	-10.5707
▁genişlet	-10.5709
▁sayıları	-10.571
ılacak	-10.5714
▁Ter	-10.5715
▁verebilir	-10.5722
▁müzisyen	-10.5723
▁Alzheimer	-10.5723
▁felsefe	-10.5723
▁tiyatro	-10.5723
▁teleskop	-10.5723
▁filtre	-10.5723
▁otizm	-10.5724
▁prensip	-10.5724
▁dönelim	-10.5725
▁çelişki	-10.5728
▁terör	-10.5729
amayacağı	-10.5729
▁saldır	-10.573
▁çip	-10.5735
▁azı	-10.5738
▁to	-10.574
▁etmişti	-10.5744
▁kayda	-10.5745
▁yaşay	-10.5748
▁dersi	-10.5749
▁rastla	-10.5751
▁yo	-10.5752
mun	-10.5754
ucu	-10.5754
▁yor	-10.5754
▁okudum	-10.5757
▁söyleyeceğim	-10.5762
▁benimse	-10.5764
bur	-10.5765
▁kalanı	-10.5767
▁kullanmayı	-10.577
▁kü	-10.577
ligi	-10.5771
▁eğilim	-10.5773
▁edebileceği	-10.5774
▁olanları	-10.5778
▁Gor	-10.5778
▁erişimi	-10.5781
▁olmazdı	-10.5781
▁evinde	-10.5783
▁yapabileceği	-10.5788
▁65	-10.5788
▁Dur	-10.5789
▁değiştirir	-10.579
▁olabilirler	-10.5792
yacağız	-10.5799
muzu	-10.5804
gin	-10.5805
▁yetenek	-10.5805
▁işlemi	-10.5806
leştirmek	-10.5811
▁seçti	-10.5812
▁yönünde	-10.5822
▁istatistik	-10.5822
▁gezin	-10.5822
▁elektron	-10.5823
▁gerçekliği	-10.5824
lanmıştı	-10.5825
▁Birliği	-10.583
▁roket	-10.5831
▁Apple	-10.5831
▁bağışıklık	-10.5831
▁aktör	-10.5832
▁Latin	-10.5832
▁Robot	-10.5833
▁kalk	-10.5834
rayı	-10.5836
▁anti	-10.5837
▁gerçekleşiyor	-10.5837
▁uyumlu	-10.5838
▁toz	-10.5839
mışlardı	-10.584
▁faydalan	-10.584
▁maaş	-10.5842
▁çalışmıyor	-10.5842
ymış	-10.5842
▁bot	-10.5848
gar	-10.5849
ang	-10.5849
▁ilgileniyor	-10.585
▁katılma	-10.5855
▁bakıyoruz	-10.5863
▁kesim	-10.5863
▁yen	-10.5864
▁istiyorsak	-10.5864
▁Tahmin	-10.5865
berg	-10.5872
▁olurlar	-10.5876
▁oluşturu	-10.5877
▁diyecek	-10.5879
▁söyledikleri	-10.588
▁yerli	-10.5882
▁verdiğim	-10.5885
▁telefonları	-10.5892
ilecek	-10.5896
▁Gece	-10.59
isti	-10.5904
▁gerçekleşti	-10.5905
▁Pan	-10.5907
▁donanım	-10.591
▁yönü	-10.5911
▁sonun	-10.5915
▁konuşmalar	-10.5916
ebiliyoruz	-10.592
▁Oyun	-10.5925
▁pil	-10.5928
▁şirketin	-10.593
▁farketme	-10.593
▁artışı	-10.5931
▁öldürme	-10.5935
maktan	-10.5935
▁yaşlarında	-10.5937
▁Pazar	-10.594
▁kompleks	-10.5941
▁Paris	-10.5941
▁Ol	-10.5946
▁bitme	-10.5947
▁Mavi	-10.5947
▁bekleyen	-10.5948
▁konuşurken	-10.5948
▁geliyorlar	-10.5949
▁şiddetli	-10.5951
▁kimi	-10.5954
kür	-10.596
▁Top	-10.5963
▁biten	-10.5964
▁çıkarı	-10.5965
▁görülme	-10.5966
▁yaşadığım	-10.5976
▁yapabileceğiniz	-10.5976
▁Mary	-10.5977
luğun	-10.5978
menin	-10.598
▁kıyafet	-10.5982
▁Ölüm	-10.5982
rit	-10.5983
▁anlatmaya	-10.5985
▁ağın	-10.5987
▁ilişkin	-10.5988
▁kazanan	-10.599
so	-10.5992
▁saklan	-10.5995
▁sevdi	-10.5996
▁birbirlerini	-10.6001
▁yiyor	-10.6002
▁ülkeleri	-10.6003
▁Seni	-10.6003
▁gelmeye	-10.6004
imizde	-10.6004
▁çocuklarımız	-10.6005
▁Var	-10.6007
▁davranışları	-10.6007
▁sonuc	-10.6016
▁Japon	-10.6022
▁yarısını	-10.6026
▁söylüyorlar	-10.6027
▁oturma	-10.6036
▁oyunun	-10.6039
▁Higg	-10.6049
▁önyargı	-10.6049
▁kavga	-10.6049
▁pembe	-10.6049
▁Boston	-10.6049
▁194	-10.6052
▁vereyim	-10.6052
▁ekonomisi	-10.6059
▁seviyesinde	-10.6059
▁yaparsınız	-10.6061
▁Bende	-10.6064
▁ismini	-10.6067
▁iyileşme	-10.6072
▁yetiş	-10.6073
▁açlık	-10.6074
▁savaşa	-10.6076
▁umuyorum	-10.6078
▁yil	-10.6079
▁enfeksiyon	-10.6081
▁kardeşi	-10.6085
▁taşındı	-10.6087
▁atar	-10.6089
▁harcay	-10.609
▁yürüdü	-10.6093
▁tasarla	-10.6093
▁bez	-10.6096
▁yaklaşımı	-10.6097
ney	-10.6097
▁tamamını	-10.6099
labilirsiniz	-10.61
▁yıldızlar	-10.6101
▁vur	-10.6102
▁duyguları	-10.6103
▁görüntüleme	-10.6105
▁suda	-10.6105
ydık	-10.6111
▁Art	-10.6117
▁düşünebilir	-10.612
▁aletler	-10.6124
▁birçoğu	-10.6126
▁yollarını	-10.6126
▁kızların	-10.6128
▁Is	-10.6136
▁öğrenmeye	-10.6137
ban	-10.6138
▁Kur	-10.6142
▁zar	-10.6143
ire	-10.6143
▁oynar	-10.6147
▁başardık	-10.6149
▁kalmıyor	-10.6152
▁güvende	-10.6153
▁Pasifik	-10.616
▁şikayet	-10.616
▁görmüyor	-10.6161
▁göreceğiz	-10.6161
▁kablosuz	-10.6161
▁milli	-10.6162
▁davranışı	-10.6162
▁Kafa	-10.6163
cük	-10.6167
▁gök	-10.6169
▁yaparız	-10.6169
▁olacağım	-10.6171
▁poster	-10.6173
▁büyüklüğü	-10.6173
▁etrafı	-10.6174
▁benzin	-10.6175
▁gücüne	-10.6177
▁çiftçiler	-10.6178
12	-10.618
▁gittiği	-10.6184
▁bulunduğumuz	-10.6185
▁bilen	-10.6187
don	-10.6195
▁değiştirmeye	-10.6196
▁arkasındaki	-10.6198
▁haberleri	-10.6199
dığımızda	-10.62
▁düşünceleri	-10.6201
▁ilgilenme	-10.6202
▁Mart	-10.6204
▁saati	-10.6209
▁geçtik	-10.621
▁gidiyoruz	-10.6211
▁Der	-10.6211
▁odadaki	-10.6212
▁neşe	-10.6214
▁etrafındaki	-10.6214
▁getirecek	-10.6216
▁bölümünü	-10.6216
▁Ö	-10.6219
▁sola	-10.6219
▁pratik	-10.622
▁unsur	-10.6222
▁üye	-10.6223
▁süt	-10.6223
▁oldugunu	-10.6227
▁Wal	-10.6228
sıydı	-10.6228
▁öldür	-10.623
▁Yan	-10.623
▁Bildiğin	-10.6232
▁dalış	-10.6234
ymiş	-10.6236
▁güzelliği	-10.6239
▁Mark	-10.624
▁dönüm	-10.6241
▁genelinde	-10.6243
▁öngör	-10.6244
▁bat	-10.6245
▁tanış	-10.6247
▁direk	-10.6248
▁cerrah	-10.6249
▁odaklanma	-10.6249
▁kurban	-10.6249
▁açmak	-10.6253
▁durur	-10.6255
▁söylemişti	-10.6257
▁eyalet	-10.6261
▁organizmalar	-10.6264
▁ülkedeki	-10.627
alesef	-10.6272
▁Yeşil	-10.6273
▁disiplin	-10.6273
▁gübre	-10.6273
▁kılavuz	-10.6273
▁yumuşak	-10.6273
▁Önemli	-10.6273
▁çirkin	-10.6273
▁şarap	-10.6273
▁deprem	-10.6273
▁koruyucu	-10.6273
▁Lüt	-10.6273
▁cazibe	-10.6273
▁pasif	-10.6274
▁köpeği	-10.6278
▁görünüyordu	-10.628
▁çelik	-10.6281
▁gösterecek	-10.6282
▁varsay	-10.6282
▁çekilmiş	-10.6283
eceğimiz	-10.6283
▁bariz	-10.6284
dığımda	-10.6286
▁onur	-10.6286
lidir	-10.6286
▁fotoğrafçı	-10.629
▁karakteri	-10.6293
▁değişen	-10.6295
▁umudu	-10.6295
ih	-10.6296
▁açtığı	-10.6301
▁Birinci	-10.6303
▁koştu	-10.6306
ydik	-10.6306
▁Tarih	-10.6312
laşıyor	-10.6314
▁baz	-10.6314
▁Park	-10.6317
▁öğrencileri	-10.6317
müz	-10.6318
▁beklenti	-10.6321
▁dağıtım	-10.6324
▁bahseder	-10.6332
iyordum	-10.6335
▁ihtimal	-10.6336
altı	-10.6336
▁doğan	-10.6343
▁arabanın	-10.6343
▁bölgelerinde	-10.6344
▁Gelecek	-10.6348
▁aşağıda	-10.635
▁hayali	-10.6355
▁derken	-10.6355
bin	-10.6356
lıktan	-10.6358
▁Görüyorsun	-10.6359
▁işlerin	-10.6361
▁yolun	-10.6366
▁başladığı	-10.6367
nizden	-10.6367
cağı	-10.6368
▁of	-10.637
▁görüntüleri	-10.6377
riyoruz	-10.6378
keresinde	-10.6379
sıl	-10.6381
▁ağacı	-10.6383
▁yapılma	-10.6383
lenir	-10.6386
▁gülüşmeler	-10.6386
▁motivasyon	-10.6386
▁sürpriz	-10.6386
▁fotograf	-10.6386
▁protez	-10.6386
▁Milletler	-10.6387
▁geliştirdik	-10.6389
net	-10.6389
▁eti	-10.639
▁tutun	-10.6391
▁diyebiliriz	-10.6394
▁edeceğiz	-10.6395
▁görebiliyoruz	-10.6396
işi	-10.6397
▁biriktir	-10.6399
▁öncesinde	-10.6402
▁karşılaşma	-10.6404
▁edebilecek	-10.6406
ino	-10.6409
ty	-10.6409
▁gittiğimde	-10.641
▁olabildiğin	-10.6412
▁tasarımcılar	-10.6414
▁oluruz	-10.6416
redeyse	-10.6417
▁hücrelerini	-10.6421
0	-10.6423
▁uygulay	-10.6431
▁bü	-10.6434
▁görebil	-10.6435
▁dükkan	-10.6436
ladığımız	-10.6436
▁etkileme	-10.6443
▁devamlı	-10.6445
▁öğrenebilir	-10.6446
▁atma	-10.6447
▁etkiliyor	-10.645
▁cebi	-10.6455
mekten	-10.6455
▁sorum	-10.6456
▁dönmek	-10.6456
▁bilgisayarın	-10.6456
▁engeller	-10.6459
▁boyutta	-10.6461
▁zamanki	-10.6461
leyecek	-10.6462
▁hızlandır	-10.6463
▁davranma	-10.6465
▁geleceğini	-10.6472
▁geçirir	-10.6476
▁kültürün	-10.6478
▁sent	-10.6482
▁yoksulluk	-10.6482
▁hay	-10.6483
▁250	-10.6487
▁dışındaki	-10.6492
lıyorlar	-10.6493
▁fikrin	-10.6498
▁ilişkili	-10.6498
▁ajan	-10.6501
▁frekans	-10.6501
▁orkestra	-10.6501
▁Kongre	-10.6502
▁nano	-10.6503
▁korkusu	-10.6504
▁kartı	-10.6513
▁yerlerinde	-10.6515
▁c	-10.6515
▁ekipman	-10.6516
▁aşık	-10.6516
▁orası	-10.6521
▁Yaptığımız	-10.6522
digim	-10.6525
ras	-10.6528
▁nesneler	-10.6531
▁gizemli	-10.6533
▁lerin	-10.6533
lemiş	-10.6535
▁gönderiyor	-10.6536
▁kapak	-10.6536
▁ucu	-10.6536
▁biliyorlar	-10.6537
▁yetenekleri	-10.6539
var	-10.654
▁evlilik	-10.654
▁izledi	-10.6544
▁büyüyor	-10.6545
larıdır	-10.6547
▁izni	-10.6553
▁düşünüyordu	-10.6556
▁sevdikleri	-10.6562
▁havaya	-10.6563
tmak	-10.6564
woo	-10.657
▁öner	-10.657
▁üretici	-10.6571
▁zehir	-10.6571
▁the	-10.6571
▁problemin	-10.6576
▁uğraşıyor	-10.6577
▁oluştu	-10.6578
miyordu	-10.6578
▁yaşıyorlar	-10.658
ven	-10.6581
▁istediler	-10.6584
▁kuvvetli	-10.6585
▁oynamak	-10.6592
▁gay	-10.6592
▁Yapma	-10.6593
▁öğretme	-10.6596
▁meselesi	-10.6596
▁özü	-10.6602
ach	-10.6602
▁olayın	-10.6606
MA	-10.6609
▁Gülüş	-10.6612
▁Mor	-10.6614
▁uçağı	-10.6617
▁itiraf	-10.6618
▁çıplak	-10.6618
▁Kitap	-10.6618
▁hariç	-10.6618
▁sanmıyorum	-10.6618
▁keskin	-10.6618
▁mısır	-10.6618
▁şartlar	-10.6621
▁utanç	-10.6621
▁sınav	-10.6622
▁türler	-10.6625
▁dâhil	-10.6627
▁etraf	-10.6631
▁dönen	-10.6631
▁almayı	-10.6633
▁uyu	-10.6634
▁düşündüğü	-10.6634
▁çoklu	-10.6636
▁lif	-10.6638
▁şanslı	-10.6639
Tub	-10.664
acaksınız	-10.6642
▁dönüştürül	-10.6642
▁arayüz	-10.6647
▁Par	-10.6649
▁algoritma	-10.665
▁istersiniz	-10.6653
▁süreli	-10.6654
▁işareti	-10.6656
lus	-10.6666
▁kent	-10.6668
▁ekranda	-10.6672
mdeki	-10.6673
ksiyon	-10.6673
▁nüfusu	-10.6676
▁yazıyor	-10.668
▁günler	-10.6682
tti	-10.6683
▁Gar	-10.6685
▁32	-10.6692
▁Tak	-10.6692
abilirler	-10.6693
▁olmalıdır	-10.6694
▁kalmadı	-10.6694
▁oğlum	-10.6705
▁gücün	-10.6705
▁korkma	-10.6707
▁bulmuş	-10.6708
▁kira	-10.6709
gü	-10.671
bar	-10.6713
▁Kısa	-10.6728
üstü	-10.6729
▁eksen	-10.6732
▁çıktık	-10.6734
▁bilinci	-10.6735
▁beklenmedik	-10.6735
▁global	-10.6735
▁sebze	-10.6735
▁İklim	-10.6735
▁Süper	-10.6735
▁tedarik	-10.6735
▁endüstriyel	-10.6735
▁portre	-10.6735
▁etmeniz	-10.6735
▁sekil	-10.6736
▁baylar	-10.6736
lerimden	-10.6737
▁bebekler	-10.6737
▁mutasyon	-10.6737
▁Arka	-10.6738
▁St	-10.6739
▁esnek	-10.6739
▁gösterilen	-10.6741
▁DH	-10.6742
▁yapılabilir	-10.6744
▁varmış	-10.6745
▁sihirli	-10.6745
▁gerçekçi	-10.6746
▁taşımak	-10.6747
▁so	-10.6747
▁önemsiz	-10.675
▁yürüme	-10.6757
▁kitabın	-10.6764
▁yapmakta	-10.6765
olog	-10.6774
▁anlayışı	-10.6775
sair	-10.6776
▁gelişimi	-10.6784
niversite	-10.6786
▁ölçek	-10.6792
▁kazanıyor	-10.6795
▁yazmak	-10.6795
▁ülkeye	-10.6801
▁listesi	-10.6801
▁mühendis	-10.6807
▁sağladığı	-10.6808
▁yetenekli	-10.6808
▁insansız	-10.6814
▁eğ	-10.6815
▁değişimin	-10.6818
▁edemez	-10.682
▁kullandım	-10.6821
▁başlattı	-10.6822
▁ebeveyn	-10.6827
▁liderleri	-10.6829
▁ağlar	-10.6829
▁Av	-10.6831
emeyiz	-10.6837
▁tüp	-10.6838
▁tüketimi	-10.6839
▁danışman	-10.684
▁anlamamız	-10.6842
▁jenerasyon	-10.6854
▁orijinal	-10.6854
▁radyasyon	-10.6854
▁1970	-10.6855
▁gereği	-10.6855
▁196	-10.6855
▁bizde	-10.6856
▁derler	-10.6856
▁ödülü	-10.6856
▁kullanışlı	-10.6857
▁eksikliği	-10.6857
▁istediğimi	-10.6857
▁yapabiliri	-10.686
▁Peter	-10.6861
▁izleyen	-10.6862
▁Kısaca	-10.6863
ford	-10.6863
müştü	-10.6864
mıştık	-10.6864
▁cun	-10.6865
▁tara	-10.6865
▁anlatır	-10.6867
▁Birlikte	-10.6873
▁ların	-10.6873
▁başlangıçta	-10.6874
▁tuttu	-10.6875
▁varlığını	-10.6876
▁kaybediyor	-10.6878
gra	-10.6878
▁alabilirsiniz	-10.6879
▁kötüsü	-10.6879
▁şehirlerde	-10.6881
▁matematikçi	-10.6884
▁kalitesi	-10.6888
▁azalma	-10.6889
▁çoğumuz	-10.689
▁taşır	-10.6891
▁başkalarının	-10.6893
▁müziğin	-10.6895
▁tümü	-10.6895
leyebilir	-10.6896
bire	-10.6899
▁yapmıştı	-10.6905
▁çıkarıp	-10.6906
leyip	-10.6908
▁alkış	-10.6912
▁çözmeye	-10.6916
▁kurtarmak	-10.6923
▁Sam	-10.6923
▁amaçlı	-10.6929
▁Bin	-10.6932
▁ayırt	-10.6933
▁gelişti	-10.6934
▁Yaşa	-10.6934
▁sunmak	-10.6934
▁terörist	-10.6937
▁topluyor	-10.6941
▁oyunlar	-10.6944
▁işliyor	-10.6946
▁tat	-10.6947
▁gide	-10.6953
▁oluşturduk	-10.6955
ğiniz	-10.6958
▁sahil	-10.696
▁yakalan	-10.6961
▁usta	-10.6964
▁ispat	-10.6965
▁bulabilir	-10.6971
▁yayıldı	-10.6971
▁kaybetmiş	-10.6972
▁cömert	-10.6975
▁golf	-10.6975
▁kemiği	-10.6975
▁meşhur	-10.6975
▁simge	-10.6975
▁Fikir	-10.6975
▁lazer	-10.6975
▁Mar	-10.6976
▁co	-10.6978
▁hisse	-10.6981
▁hattı	-10.6982
laştı	-10.6982
▁Sha	-10.6983
▁kazanç	-10.6985
▁demir	-10.6988
ecekler	-10.6993
▁inanmak	-10.6995
▁özen	-10.6998
▁yaratabilir	-10.7001
▁adeta	-10.7004
▁çalışacak	-10.7007
▁korkuyor	-10.7009
dirler	-10.7009
▁büyür	-10.701
bay	-10.7011
▁entegr	-10.7012
▁Can	-10.7019
emezsiniz	-10.7019
lacak	-10.7023
▁Hint	-10.7023
ınızı	-10.7023
▁İçinde	-10.7025
▁maliyetli	-10.7026
▁yapıldığını	-10.7027
▁açıp	-10.7029
▁once	-10.7031
▁yarın	-10.7033
lıp	-10.704
▁hatırlama	-10.7041
▁yatan	-10.7045
art	-10.7046
▁şehirlerin	-10.7051
▁başladığımda	-10.7066
▁sıcaklığı	-10.7067
▁katil	-10.707
▁mor	-10.7072
▁odak	-10.7076
▁Don	-10.7078
▁mobil	-10.7078
▁koşu	-10.7081
▁ebeveynleri	-10.7082
▁gidin	-10.7082
car	-10.7083
▁Söyle	-10.7083
▁tasarlamak	-10.7083
▁hatırlıyor	-10.709
▁alması	-10.7091
▁benlik	-10.7094
▁istisna	-10.7097
▁intihar	-10.7097
▁yangın	-10.7097
▁Hep	-10.7097
▁okuyor	-10.7098
▁bileşen	-10.7099
▁kurumsal	-10.71
▁anki	-10.7103
▁yayınladı	-10.7105
▁Öğrenciler	-10.7107
▁toplan	-10.7107
▁dökü	-10.711
▁deneyimleri	-10.711
stan	-10.7111
▁yürüyor	-10.7118
▁hatırlay	-10.7118
▁dönemi	-10.7121
▁babamın	-10.7124
▁kağıdı	-10.7126
▁masraf	-10.7132
▁beynimiz	-10.7135
▁koşullar	-10.714
▁olacağına	-10.714
▁kalmayı	-10.7143
▁sitesi	-10.7145
▁zehirli	-10.7146
▁refah	-10.7148
▁nöro	-10.7154
▁soyle	-10.7158
tion	-10.7161
laşmış	-10.7163
▁değişir	-10.7165
ğın	-10.7167
▁çıkması	-10.7168
▁elini	-10.717
▁yaşıyordu	-10.717
▁kul	-10.7171
▁beyninin	-10.7178
▁duyduğunuz	-10.7178
▁görevli	-10.7179
▁kâr	-10.718
▁olasılık	-10.7182
▁okuy	-10.719
▁Şehir	-10.7201
▁kaybol	-10.7201
▁deme	-10.7202
ell	-10.7202
▁sürme	-10.7202
▁şurada	-10.7206
lduğu	-10.7206
▁yapmasını	-10.7207
▁öğrendi	-10.7218
▁yepyeni	-10.722
▁Söz	-10.722
▁tarayıcı	-10.722
▁optik	-10.7221
▁bilinmeyen	-10.7221
▁1950	-10.7221
▁ilan	-10.7223
▁böcekler	-10.7225
▁2005	-10.7227
▁tanımı	-10.7228
▁hayatları	-10.723
▁konuştuğumuz	-10.723
ecektir	-10.7233
▁Hareket	-10.7235
▁özür	-10.7235
▁örnekleri	-10.7235
▁alırsınız	-10.7235
▁roman	-10.7236
▁çılgınca	-10.7238
▁çarpma	-10.7238
▁yapacağını	-10.7243
▁kalktı	-10.7246
▁Dünyayı	-10.7246
▁olmasından	-10.725
▁etken	-10.7253
▁aşkın	-10.7253
▁sil	-10.7256
irler	-10.7256
▁yapıyorsunuz	-10.7257
▁aileleri	-10.7259
▁evrimin	-10.726
▁seçimi	-10.7263
▁bıraktığı	-10.7266
▁yazan	-10.7267
ebilmesi	-10.7267
▁insandan	-10.7267
▁Gerçekte	-10.7268
▁kimliği	-10.7269
▁vizyon	-10.7269
▁yaratmaya	-10.727
rat	-10.727
▁derinden	-10.7274
▁kısme	-10.7277
lıyorum	-10.7279
▁hedefi	-10.7283
▁sizde	-10.7286
▁sunu	-10.7289
▁ortamı	-10.7292
▁yaptığımı	-10.7293
▁mantığı	-10.7297
▁ilerley	-10.7297
▁dönüştürme	-10.7301
▁Günü	-10.7301
▁öğrendiğimiz	-10.7302
▁Asla	-10.7302
▁düşünmüyoru	-10.7303
▁hissediyor	-10.7313
▁Martin	-10.7315
▁Jim	-10.7315
▁verildi	-10.7329
▁boyut	-10.7331
▁sistemimiz	-10.7334
larımızla	-10.7334
imize	-10.7335
▁olmayabilir	-10.7338
▁ger	-10.7341
▁güçleri	-10.7343
▁Uluslararas	-10.7345
▁örümcek	-10.7345
▁şebeke	-10.7345
▁kabuk	-10.7345
▁gerektirir	-10.7345
▁rejim	-10.7345
▁ulaşılabilir	-10.7346
▁Holly	-10.7347
▁Eminim	-10.7347
▁destekleyen	-10.7348
▁sag	-10.7349
▁duygular	-10.735
▁aktivist	-10.735
▁kararı	-10.7351
▁metin	-10.7353
▁etmeliyiz	-10.7354
▁Sh	-10.736
▁bebeğin	-10.7361
▁düşünürken	-10.7362
▁Doğal	-10.7364
▁olmalısınız	-10.7367
▁yaşamaya	-10.7368
▁Col	-10.7372
▁çocukluk	-10.7374
vo	-10.7375
▁iskelet	-10.7376
▁elinizde	-10.7381
rseniz	-10.7381
ılmıştı	-10.7384
meme	-10.7387
▁İster	-10.7388
▁katılımcı	-10.7388
▁konularda	-10.7391
▁görebiliyor	-10.7393
▁hat	-10.7398
▁alındı	-10.7407
▁ağaçları	-10.7408
▁soyu	-10.741
emeyecek	-10.7414
▁yatağı	-10.7415
üş	-10.7415
mıyorum	-10.7417
▁başlık	-10.7419
▁Tim	-10.742
▁Alan	-10.742
iriz	-10.7425
▁minik	-10.7426
▁olabil	-10.7428
uru	-10.7429
▁y	-10.743
▁kabiliyeti	-10.7432
▁ilerledi	-10.7433
▁yakalay	-10.7433
▁yatır	-10.7438
▁sonuçlarını	-10.7438
▁içeriği	-10.7439
▁türlerin	-10.7439
çiler	-10.7439
▁keyif	-10.7444
▁alakası	-10.7444
▁çekimi	-10.7445
▁karmaşıklığı	-10.7446
▁Kor	-10.7446
▁gör	-10.7449
▁edebilmek	-10.7451
▁duyduğum	-10.7451
▁aramak	-10.7453
▁hesab	-10.7454
▁etmekte	-10.7455
▁boşluğu	-10.7458
rey	-10.7459
▁Birden	-10.746
▁sade	-10.7463
je	-10.7464
▁kapasitesi	-10.7466
▁sezgi	-10.7467
▁terapi	-10.7469
▁travma	-10.747
▁Mutlu	-10.747
▁dayanıyor	-10.7472
▁Hedef	-10.7472
▁Önümüzde	-10.7472
▁perde	-10.7472
▁gerektiren	-10.7473
▁alkol	-10.7473
abildi	-10.7474
▁mutsuz	-10.7474
▁Vadisi	-10.7475
▁dikey	-10.7475
▁harca	-10.7475
▁yapılır	-10.7477
▁İnan	-10.7477
▁geliştirdi	-10.7484
▁hastası	-10.7488
▁kendiliğin	-10.749
▁aklın	-10.7497
▁işlev	-10.7501
▁hatırlayın	-10.7504
▁korunma	-10.7506
▁Derek	-10.751
▁yatıyor	-10.751
▁çeviri	-10.751
▁isterdi	-10.751
▁raf	-10.7517
▁gerekecek	-10.7523
ınızda	-10.7523
▁duyduğu	-10.7526
▁sınırı	-10.7528
▁oradaydı	-10.753
▁şarkısı	-10.7534
▁huzur	-10.7534
▁vermiyor	-10.7544
▁yazılı	-10.7548
▁aleti	-10.7548
▁bölümünde	-10.7548
▁yüzeyi	-10.7551
▁karşılaştırma	-10.7555
düğü	-10.7556
▁endişelen	-10.756
▁ini	-10.7563
▁yanındaki	-10.7564
liğinde	-10.7564
▁öncü	-10.7569
▁kalmıştı	-10.7573
▁makineleri	-10.7575
emeyeceği	-10.7576
▁farklılıklar	-10.7577
▁hareketli	-10.7584
▁Gün	-10.7585
▁hayatında	-10.7593
▁hayati	-10.7595
▁yolcu	-10.7595
▁kaplı	-10.76
▁2011	-10.76
▁Geçtiğimiz	-10.76
▁figür	-10.76
▁çeşidi	-10.76
▁Modern	-10.76
▁torba	-10.76
▁Haiti	-10.76
▁nazik	-10.7601
wi	-10.7601
▁yazdığı	-10.7604
▁yapıları	-10.7604
▁rakamlar	-10.7606
▁geçecek	-10.7607
▁Okyanusu	-10.7612
▁götürüyor	-10.7614
15	-10.7617
▁Min	-10.7618
▁yanımda	-10.7627
▁Kalp	-10.7629
▁yerleşim	-10.763
▁neydi	-10.7637
ct	-10.7637
zun	-10.7641
▁uzayda	-10.7641
▁arar	-10.7643
cisi	-10.7643
▁muz	-10.7644
▁ayırma	-10.7649
▁bölgeleri	-10.765
▁tasarımın	-10.7653
▁temas	-10.7654
emedi	-10.7654
▁ticareti	-10.7661
▁ekley	-10.7664
▁Fl	-10.7664
▁çıkardık	-10.7665
▁izleyici	-10.7665
istan	-10.7667
▁gazı	-10.7667
▁bildikleri	-10.7668
▁içlerinde	-10.7675
▁aydınlat	-10.7677
▁arkadaşlar	-10.768
mus	-10.7682
▁yapmalı	-10.7684
▁Che	-10.7685
▁çıkaran	-10.7686
▁hatırlar	-10.769
▁uygulamalar	-10.7692
ıldığını	-10.7693
▁inandı	-10.7696
▁sivrisinek	-10.77
▁Lu	-10.7701
▁sorgulama	-10.7702
▁azaltma	-10.7707
sün	-10.771
laştırma	-10.771
▁verip	-10.771
▁ekonominin	-10.7711
▁gönderdi	-10.7712
▁müdür	-10.7713
lıkta	-10.7714
▁belirleme	-10.7716
▁çevirme	-10.7717
▁harcıyor	-10.7721
▁profesör	-10.7726
▁hüküm	-10.7728
lamıyor	-10.7728
▁adapt	-10.7728
▁Muhteşem	-10.773
▁maske	-10.773
▁sevimli	-10.773
▁kapsamlı	-10.773
▁Fizik	-10.773
▁şerit	-10.773
▁kaygı	-10.7731
▁Kırmızı	-10.7732
▁hayatımız	-10.7732
▁çağında	-10.7734
▁olayları	-10.7737
▁yaşanan	-10.7742
▁edildiği	-10.7744
▁Erkek	-10.7745
▁sigorta	-10.7748
▁grupları	-10.775
▁düşünmüştü	-10.775
▁sevdiği	-10.7754
leştiği	-10.7755
▁okyanusta	-10.7756
▁doğası	-10.7756
▁birbirimiz	-10.7758
▁böl	-10.7759
▁kenarında	-10.7764
▁dol	-10.7764
▁kuralı	-10.7769
▁ışığın	-10.7771
ografi	-10.7772
▁bilgisayarı	-10.7779
▁yapmadı	-10.7779
▁bahsetti	-10.7779
▁güçlendir	-10.7781
▁dakikalık	-10.7782
▁Frank	-10.779
▁ürünün	-10.7792
mızla	-10.7792
▁kuruluşları	-10.7793
fo	-10.7803
▁vermesi	-10.7803
BG	-10.7806
▁kafatası	-10.7808
▁No	-10.7817
▁sinyalleri	-10.7817
▁Tanı	-10.7827
▁Bina	-10.7828
ğünü	-10.7828
▁tekerlek	-10.7833
▁ilişkisi	-10.7835
▁aş	-10.7837
▁kolaylaştır	-10.7846
ürekli	-10.7848
▁Okyanus	-10.785
▁and	-10.7853
▁üyeleri	-10.7855
sinda	-10.7857
▁Yunan	-10.7858
▁başladığım	-10.7859
▁penguen	-10.786
▁girmek	-10.786
▁istek	-10.786
▁Californi	-10.7861
▁Kültür	-10.7861
▁akademi	-10.7861
▁cennet	-10.7861
▁ısrar	-10.7861
▁Uganda	-10.7861
▁durumunu	-10.7862
▁Whit	-10.7862
▁kırılgan	-10.7862
▁tören	-10.7862
▁mikroskop	-10.7862
▁sentez	-10.7862
▁element	-10.7863
▁gördüğümde	-10.7864
ladığını	-10.7865
▁kentsel	-10.7867
▁iyiydi	-10.7868
▁Bob	-10.7868
▁kısıt	-10.7869
▁odası	-10.7872
▁duyduk	-10.7873
mişlerdi	-10.7875
▁baktığımda	-10.788
▁yazılımı	-10.7882
gel	-10.7885
▁şekiller	-10.7888
▁başlamış	-10.7892
▁elma	-10.7892
▁büyüklükte	-10.7893
▁edebil	-10.7903
▁girdim	-10.7906
▁çıkarır	-10.7906
▁düşünmüyor	-10.7907
▁inanan	-10.7909
▁yolculuğ	-10.7917
▁silahlı	-10.7925
▁geçirdik	-10.7932
▁nedenini	-10.7935
▁bag	-10.7937
▁süresi	-10.794
▁koşul	-10.7941
▁pro	-10.7941
▁attı	-10.7943
AR	-10.7943
▁ulaştığı	-10.7948
▁programlama	-10.7948
▁gitmiş	-10.7948
ımıza	-10.795
▁oluşmuş	-10.7954
▁bağlıdır	-10.796
▁inci	-10.7963
▁söylemem	-10.7964
lüğ	-10.7967
▁büyükanne	-10.7972
▁yavaşlat	-10.7976
▁aksi	-10.7978
▁harcadı	-10.7978
▁soğu	-10.798
▁ciddiye	-10.7988
▁nitelik	-10.7989
▁ısır	-10.7993
▁mısın	-10.7993
▁dördü	-10.7995
▁otomobil	-10.7995
▁enstrüman	-10.7995
▁ekstra	-10.7995
▁ediyordum	-10.7995
▁hoca	-10.7995
▁Devam	-10.7995
▁mezar	-10.7995
▁Etrafı	-10.7997
ue	-10.7997
▁kusursuz	-10.8002
▁yaratı	-10.8008
emiyor	-10.8011
by	-10.8013
▁tarihin	-10.8015
▁memeli	-10.8017
▁vurma	-10.8017
▁verdikleri	-10.8017
▁kalırsa	-10.8017
▁kanı	-10.802
sch	-10.8023
▁cerrahi	-10.8024
▁aşamada	-10.8026
▁topluluklar	-10.8026
▁ölümü	-10.803
▁Halk	-10.8034
▁aramaya	-10.8035
▁keşfettim	-10.8042
▁eğitimin	-10.8043
▁materyal	-10.8043
▁varlıklar	-10.8047
▁gözlerini	-10.805
▁has	-10.805
▁birbirini	-10.8053
bor	-10.8055
▁yapıcı	-10.8055
▁molekülleri	-10.8056
▁korteks	-10.8056
▁Tur	-10.8063
▁giysi	-10.8067
▁dilim	-10.8068
▁çare	-10.8068
▁tedavisi	-10.8069
▁doz	-10.8073
ers	-10.8078
▁herşeyin	-10.8078
▁kurar	-10.8079
▁bozuk	-10.8081
lendiği	-10.8086
▁Çinli	-10.8087
▁kesme	-10.809
▁hissettir	-10.8095
▁fiyatı	-10.8097
▁davranışlar	-10.8097
▁devletin	-10.81
▁haklarını	-10.81
yacağını	-10.8105
▁alanını	-10.8106
▁bastır	-10.8108
▁gidiyordu	-10.8109
▁pozisyon	-10.8116
▁tesadüf	-10.8118
▁meraklı	-10.8119
▁eleman	-10.8121
▁yetiştirme	-10.8123
▁hakikat	-10.813
▁yetecek	-10.813
▁bilişsel	-10.813
▁ideoloji	-10.813
▁trans	-10.8131
▁ör	-10.8132
▁tekniği	-10.8132
▁PM	-10.8133
▁düşünürsek	-10.8135
▁diyebilirsiniz	-10.8136
▁hita	-10.8137
▁sözlük	-10.8138
▁koşulları	-10.814
▁yayılan	-10.8141
▁amca	-10.8143
▁ip	-10.8144
▁havalı	-10.8144
caba	-10.8146
▁Sistem	-10.8146
▁duyan	-10.8147
▁Ken	-10.8148
▁desen	-10.8148
▁yöntemleri	-10.815
▁formül	-10.8157
▁Rio	-10.8161
eceğiniz	-10.8162
▁tüketim	-10.8163
▁beyinde	-10.8163
▁birliği	-10.8166
▁şehr	-10.8167
▁Yol	-10.8176
▁bittiğini	-10.8176
▁görmedi	-10.8177
eceğimizi	-10.8179
▁alanların	-10.8181
▁ndan	-10.8182
▁atış	-10.8182
30	-10.8184
▁başladığını	-10.8188
luğ	-10.8189
▁göstermeye	-10.8197
▁çarpışma	-10.8197
▁bağır	-10.8198
▁Büyü	-10.8199
▁zorluklar	-10.8204
▁ağız	-10.8215
▁hastaları	-10.8215
yip	-10.8222
▁yönden	-10.8223
▁koltuk	-10.8224
▁hastalıkların	-10.8225
▁anladık	-10.8226
▁topluluğun	-10.8228
▁resmini	-10.8228
liyim	-10.8229
▁tanık	-10.823
▁Fu	-10.8234
▁sürecinde	-10.8239
mışlar	-10.8243
hattan	-10.8244
▁çizme	-10.8247
▁bitkilerin	-10.825
▁vermeyi	-10.825
▁foto	-10.8254
▁tasarlay	-10.8255
mezler	-10.8255
▁çıktım	-10.8256
▁değişiklikleri	-10.8259
▁Öte	-10.826
▁katılım	-10.826
rip	-10.826
▁renkler	-10.8261
▁silahları	-10.8263
▁süresin	-10.8265
▁Fotoğraf	-10.8266
▁dinozor	-10.8267
▁hipotez	-10.8267
▁kapitalizm	-10.8267
▁Enerji	-10.8267
▁Yahudi	-10.8267
▁inovasyon	-10.8267
▁CEO	-10.8268
▁taşıyıcı	-10.8268
▁Robert	-10.8268
▁rica	-10.8268
▁öğretmek	-10.8268
▁canlılar	-10.8269
▁İçeri	-10.8269
▁şiddetin	-10.827
▁vazgeçme	-10.8273
▁yüzeye	-10.8277
▁Rob	-10.8278
▁kalması	-10.8279
▁üretilen	-10.828
▁aptalca	-10.8281
▁kutusu	-10.8282
▁uğraşma	-10.8283
▁virüsü	-10.8283
▁ileride	-10.8284
▁anlıyorum	-10.8288
▁dolan	-10.8294
▁yapamayacağı	-10.8299
▁dokusu	-10.83
▁genomu	-10.8303
▁mo	-10.831
vet	-10.8312
BI	-10.8313
▁j	-10.832
▁Kuru	-10.8322
▁getirmeye	-10.8322
meyeceğini	-10.8322
▁bel	-10.8324
▁insanla	-10.8326
▁anlatan	-10.8329
▁ayakları	-10.8332
▁yollarla	-10.8336
▁kullanıldı	-10.8337
▁Orman	-10.834
iydi	-10.8342
dırlar	-10.8347
▁nı	-10.835
▁çıktığını	-10.8351
umun	-10.8352
ğr	-10.8356
▁konuşmamı	-10.8359
▁yarısında	-10.8359
▁Bey	-10.8361
▁kutlama	-10.8366
ua	-10.8368
▁Yoks	-10.8368
▁şeffaf	-10.837
▁yapıştır	-10.8371
▁kadını	-10.8373
▁konuşmaları	-10.8377
▁felci	-10.8378
▁benzediğini	-10.8382
▁ülkeyi	-10.8383
▁endüstrisi	-10.8385
▁yaratık	-10.8386
▁bacağı	-10.8388
▁bitti	-10.8388
çü	-10.8388
▁yılan	-10.8394
▁damar	-10.8394
▁hayran	-10.8397
▁emekli	-10.84
▁hastanede	-10.84
▁kuyruk	-10.8402
▁adama	-10.8406
▁Hollanda	-10.8406
▁antibiyotik	-10.8406
▁liberal	-10.8406
▁uğultu	-10.8406
▁vadeli	-10.8406
▁piyano	-10.8406
▁çubuk	-10.8406
▁Nobel	-10.8406
▁sopa	-10.8406
▁ulaştı	-10.8408
▁Merak	-10.8408
▁yakaladı	-10.8409
▁beton	-10.8409
ınıza	-10.8409
▁Korku	-10.841
▁kaos	-10.841
▁yararlan	-10.8411
▁gidiyorlar	-10.8411
▁yoksun	-10.8415
▁ağırlığı	-10.8421
▁çektiği	-10.8422
▁çizgiler	-10.8423
dığımı	-10.8425
▁etmeli	-10.8428
▁yapış	-10.8439
inize	-10.844
bon	-10.8442
▁vermişti	-10.8443
eğe	-10.8446
mezdi	-10.8449
acaklar	-10.8449
▁sinema	-10.845
▁internetin	-10.8451
▁seslerini	-10.8451
larınızın	-10.8453
▁fırsatlar	-10.8458
▁finanse	-10.8459
▁cins	-10.846
▁omuz	-10.8464
▁ilaçların	-10.8464
▁konuşmanın	-10.8465
▁ağacın	-10.8471
▁yaramaz	-10.8471
▁cidd	-10.8472
▁kule	-10.8472
▁trend	-10.8473
▁cihazları	-10.848
str	-10.8482
▁oluşturduğu	-10.8485
▁söyleyin	-10.8488
▁okumaya	-10.8491
▁zordu	-10.8498
▁uygulamaya	-10.8502
▁sorunumuz	-10.8504
▁ulaşı	-10.8506
▁bağla	-10.8506
▁yaşayacak	-10.8507
▁çalıyor	-10.851
▁harcan	-10.851
▁sorgu	-10.8511
▁denedik	-10.8514
▁Olay	-10.8515
▁başladığımız	-10.8517
▁hâlin	-10.8521
gün	-10.8522
▁toplumlar	-10.8525
▁anlattığı	-10.8532
▁çay	-10.8536
▁favori	-10.8537
▁ez	-10.8539
▁öldürdü	-10.8539
▁etmedi	-10.854
▁taban	-10.8544
gı	-10.8544
▁gösterebilir	-10.8544
▁ge	-10.8545
ünüzü	-10.8546
▁konser	-10.8546
▁Hristiyan	-10.8547
▁çukur	-10.8547
▁dizüstü	-10.8547
ğımız	-10.8547
▁195	-10.8549
▁anımsa	-10.855
▁karıncalar	-10.855
▁yıldızların	-10.8551
▁vb	-10.8551
▁çarpı	-10.8555
▁sırrı	-10.8555
▁tümüyle	-10.8555
▁çocuklarımızı	-10.8556
▁bakıyorsunuz	-10.856
▁düşünecek	-10.8562
▁çıkarak	-10.8562
▁satır	-10.8564
▁bırakıp	-10.8564
▁genleri	-10.8565
▁Pu	-10.8565
▁aralık	-10.8569
▁toplay	-10.857
▁Cas	-10.8573
▁Gö	-10.8576
▁26	-10.8577
▁kast	-10.8577
▁değerini	-10.8577
▁azal	-10.8585
riyorum	-10.8586
▁koş	-10.8587
▁giren	-10.8591
▁cevaplar	-10.8592
▁üretir	-10.8593
▁Ad	-10.8597
▁Oysa	-10.86
düğünü	-10.86
▁kararlı	-10.8605
▁motoru	-10.8606
▁üçü	-10.8607
▁sınıfı	-10.8607
▁birisini	-10.8609
lduğunu	-10.861
▁ekleme	-10.8621
▁eşya	-10.8621
▁taşıy	-10.8626
▁çevirdi	-10.8626
▁izlediği	-10.863
▁dönüşüyor	-10.8635
liydim	-10.8637
▁120	-10.8638
yl	-10.8641
▁ağları	-10.8641
▁yüzeyinde	-10.8642
▁iyice	-10.8645
▁İtalya	-10.8648
▁Sev	-10.8649
ğına	-10.8654
▁molekülü	-10.8655
▁düşünüyorlar	-10.8656
▁takma	-10.8657
▁kısıtlama	-10.8659
▁bireylerin	-10.8662
▁bitirdi	-10.8663
▁kanıtı	-10.8665
▁alınmış	-10.8666
▁kitapta	-10.8667
od	-10.8667
▁Güven	-10.8668
▁ürettiği	-10.8668
▁cihazlar	-10.8669
▁canlandırma	-10.8669
ayet	-10.867
▁MS	-10.8678
▁küçül	-10.8679
ıyorlardı	-10.8679
▁gerçekleşme	-10.8679
▁kozm	-10.8682
▁sinyali	-10.8682
abileceğim	-10.8683
▁istediklerini	-10.8683
▁uzaya	-10.8684
luyoruz	-10.8685
▁sıkıştır	-10.8688
▁başlığı	-10.8689
▁GSY	-10.8689
▁maddi	-10.8689
▁ressam	-10.8689
▁Kutbu	-10.8689
▁öğretiyor	-10.869
▁esnasında	-10.869
▁güce	-10.869
▁satıcı	-10.8691
▁metro	-10.8691
▁üretil	-10.8692
▁kuyruklu	-10.8693
▁düşünmeyi	-10.8694
▁Durum	-10.8695
▁Bas	-10.8698
▁konuştu	-10.8698
▁yaşadık	-10.8699
▁ışıkları	-10.8699
▁Karşı	-10.8699
▁hapse	-10.87
▁sayılar	-10.87
▁dusun	-10.8703
▁gerekmiyor	-10.8704
▁fonksiyon	-10.8705
rmak	-10.8706
▁teknolojilerin	-10.8708
▁tanıştığım	-10.871
▁yitir	-10.8711
▁almaz	-10.8713
▁başarısızlık	-10.8715
ildiği	-10.8718
▁miktarını	-10.8719
▁aklınız	-10.8722
▁yerdir	-10.8723
labilecek	-10.8723
▁durmak	-10.8724
▁eşitlik	-10.8725
▁Gand	-10.8725
▁temeli	-10.8726
▁fikrine	-10.8733
▁dönüştürmek	-10.8734
▁yüzme	-10.8736
▁yapama	-10.8738
▁Yarı	-10.8738
▁ölür	-10.8738
▁yapmaz	-10.8738
▁arttırma	-10.8741
▁bozu	-10.8742
▁gelişmeler	-10.8747
▁düşünmeniz	-10.8749
▁mühendisler	-10.8749
▁bağlaya	-10.8751
▁asit	-10.8751
▁çalma	-10.8754
▁adımı	-10.8758
▁sevgili	-10.8761
▁sundu	-10.8763
▁buzun	-10.8773
▁yapabilirler	-10.8776
▁kelimesini	-10.8776
▁ülkeden	-10.8779
▁Hintli	-10.8779
▁ilgimi	-10.878
▁yaprak	-10.878
▁desteklemek	-10.8784
▁Mil	-10.8784
▁kor	-10.8785
▁33	-10.8786
▁çıkmaya	-10.8787
gide	-10.8788
▁ümit	-10.8788
▁çıkardığı	-10.8792
▁bulamadı	-10.8793
▁asi	-10.8794
▁eğil	-10.8795
▁eğlen	-10.8801
▁boşa	-10.8802
▁bazılarınız	-10.8811
▁tepesinde	-10.8812
▁yakalanma	-10.8814
leştiriyor	-10.8814
▁fotoğrafını	-10.8829
▁zorunlu	-10.8834
zerinde	-10.8834
▁diyalog	-10.8834
▁enteresan	-10.8834
▁Street	-10.8834
▁referans	-10.8834
▁şablon	-10.8834
▁Problem	-10.8834
▁Bakanlığı	-10.8834
▁karmaşa	-10.8835
▁emisyon	-10.8835
▁dünyamızı	-10.8835
▁pound	-10.8835
▁kumanda	-10.8835
▁eşitsizlik	-10.8835
▁terörizm	-10.8835
▁tünel	-10.8836
▁arasından	-10.8836
▁düğüm	-10.8837
▁basamak	-10.8837
▁ilgiliydi	-10.8837
▁aygıt	-10.8838
▁Kongo	-10.8838
▁hızını	-10.8838
▁Yerel	-10.8839
▁hacker	-10.8842
▁dikkatini	-10.8842
▁şiddeti	-10.8843
▁yaratacak	-10.8844
▁sorduğu	-10.8845
▁İste	-10.8853
▁Deney	-10.8853
▁nöronlar	-10.8855
▁Güvenlik	-10.8856
▁kuram	-10.8857
▁hissetti	-10.8858
▁Hastane	-10.886
▁düzeltme	-10.886
▁gezegenler	-10.8868
▁redded	-10.8869
▁kelimesi	-10.887
▁bilinir	-10.8874
ülü	-10.8879
▁yosun	-10.8882
▁sisteminde	-10.8889
▁olmasaydı	-10.8891
▁700	-10.8893
▁yaya	-10.8893
▁fikrimiz	-10.8894
▁yenilikler	-10.8903
▁bağlantıları	-10.8905
▁komşuları	-10.8911
▁giderse	-10.8912
▁arabası	-10.8913
muzun	-10.8913
▁projede	-10.8916
▁faydası	-10.8917
▁okullar	-10.8918
▁finans	-10.892
▁açıldı	-10.892
▁anla	-10.8922
▁birimi	-10.8923
ledik	-10.8923
▁düzene	-10.8923
▁gideli	-10.8926
▁günümüz	-10.8926
▁800	-10.8927
▁95	-10.8931
▁Kay	-10.8933
▁bozukluğu	-10.8934
▁çalışmasını	-10.8934
▁dar	-10.8935
uel	-10.8935
▁pişirme	-10.8938
mediği	-10.8939
▁yaraya	-10.894
▁belirlen	-10.8941
▁yönetici	-10.8942
▁sığ	-10.8947
▁yayımla	-10.8947
▁birbirimizi	-10.895
▁bağlantısı	-10.8955
madığı	-10.8956
▁tasarlama	-10.8957
▁becer	-10.8961
▁savun	-10.8966
▁dizisi	-10.8967
▁somut	-10.8968
yüz	-10.8969
▁keşfetti	-10.897
▁parmağı	-10.8971
gram	-10.8972
▁değiştiğini	-10.8974
▁genlerin	-10.8976
inizde	-10.8976
▁oranını	-10.8977
▁sunduğu	-10.8978
▁alıyordu	-10.8978
▁verirse	-10.8979
▁çarp	-10.898
▁olağan	-10.8981
▁gecekondu	-10.8981
▁motive	-10.8981
▁pirinç	-10.8981
▁kalori	-10.8982
▁çöküş	-10.8982
▁Evrim	-10.8982
▁görünmüyor	-10.8982
▁tükenme	-10.8984
▁işgal	-10.8988
▁duvarı	-10.8988
▁bakımından	-10.8989
▁davranışlarını	-10.899
▁uğraşan	-10.8993
▁oynayan	-10.8993
▁başlarında	-10.9001
▁eleştiri	-10.9001
▁gereksiz	-10.9004
▁durumlar	-10.9012
▁fotoğrafta	-10.9012
▁Dav	-10.9012
▁düzenlen	-10.9018
▁Bankası	-10.9018
▁kirli	-10.902
▁geçtiği	-10.902
▁şaşır	-10.902
▁resmin	-10.9021
leyin	-10.9022
luğunu	-10.9025
başı	-10.9025
▁pişir	-10.9026
▁öden	-10.9033
▁uçtu	-10.9033
▁konuştum	-10.9035
▁sebebiyle	-10.9038
▁uçurum	-10.904
▁fiil	-10.904
▁korumaya	-10.9041
▁kullandıkları	-10.9041
▁fotoğraflarını	-10.9043
▁karşılaştığımız	-10.9043
▁verilerin	-10.9045
yal	-10.9045
ımızda	-10.9046
▁sistemlerin	-10.9046
▁hükümetin	-10.9046
▁geçin	-10.9046
▁bölgeler	-10.9046
▁yarışı	-10.9049
▁verdiğiniz	-10.9053
▁yöntemler	-10.9057
▁giyin	-10.9061
▁dersleri	-10.9061
▁fikr	-10.9064
▁toplamak	-10.9066
▁yazmaya	-10.9068
▁parçalarını	-10.9068
▁bekley	-10.907
▁çıktığında	-10.9071
ebileceğimizi	-10.9074
▁yetişkinler	-10.9078
eşke	-10.9078
▁dolaş	-10.9079
lmaz	-10.9082
▁kavrama	-10.9083
digi	-10.9088
▁bulan	-10.9092
ebildiği	-10.9095
▁balıkçı	-10.9098
üsü	-10.9099
▁takılı	-10.91
▁okun	-10.9101
▁şe	-10.9107
▁bakabilir	-10.9107
▁Özel	-10.9108
▁Erkekler	-10.9114
▁yaradı	-10.9119
▁gitmesi	-10.9128
▁Scott	-10.9131
▁hükumet	-10.9131
▁karaciğer	-10.9131
▁koridor	-10.9131
▁reçete	-10.9131
▁negatif	-10.9131
▁Müzesi	-10.9131
▁acımasız	-10.9131
▁çamur	-10.9131
▁ritim	-10.9131
▁paralel	-10.9131
▁aşina	-10.9131
▁Geleneksel	-10.9131
▁İzleyici	-10.9131
▁Yardım	-10.9133
▁Proje	-10.9133
▁söyleyeyim	-10.9133
▁basınç	-10.9136
▁haritasını	-10.9138
▁adlandırıla	-10.9139
▁anlamsız	-10.9139
▁Ortalama	-10.914
leşir	-10.9144
▁buluyorum	-10.9144
▁yuvarlak	-10.9146
▁kurul	-10.9146
▁Saat	-10.9148
▁zorundadır	-10.9149
▁çalışacağım	-10.9151
▁ilgilenen	-10.9152
▁kısıtlı	-10.9155
▁okuduğum	-10.9158
▁yıkıl	-10.916
▁farkındalık	-10.916
▁azaltmak	-10.9162
▁bahsettiği	-10.9163
▁boğul	-10.9164
▁iskeleti	-10.9165
emediği	-10.9166
▁akıllıca	-10.9166
▁söylenen	-10.9167
▁vatandaşları	-10.917
▁bardak	-10.9171
▁öğrencilerim	-10.9171
▁bozulma	-10.9171
evi	-10.9174
▁rota	-10.9178
▁kullanılması	-10.9179
▁geceleri	-10.918
▁beraberinde	-10.9182
▁ekledi	-10.9183
▁sorduğum	-10.9184
▁yetkili	-10.9185
▁geçiren	-10.9186
ble	-10.9186
▁solu	-10.9186
▁evre	-10.9188
▁keşfi	-10.9188
▁insanlarda	-10.9188
▁yoğunluğu	-10.9189
▁diğerlerinin	-10.919
bilirsin	-10.919
▁etmem	-10.9191
▁diken	-10.9193
▁formu	-10.9194
abilecekleri	-10.9197
▁birbiri	-10.9199
▁incelemek	-10.92
▁Tıp	-10.9202
▁seçimleri	-10.9205
▁iyileştir	-10.9206
▁Herşey	-10.9208
▁yapıldığı	-10.9208
▁gezegeni	-10.9208
▁uzmanları	-10.9212
likler	-10.9212
▁isterler	-10.9218
şim	-10.9218
▁halini	-10.9223
laması	-10.9228
▁şartları	-10.9229
▁hepinizi	-10.923
ero	-10.923
▁kurulmuş	-10.9233
▁kaz	-10.9234
▁hepimizi	-10.9236
▁yaşamını	-10.9238
▁kış	-10.9243
yer	-10.9245
▁zincir	-10.9246
▁dinliyor	-10.9247
▁İnanıyoru	-10.9247
▁sesle	-10.925
▁kullanılır	-10.925
▁Aslın	-10.9267
▁vazgeç	-10.9267
▁köşesinde	-10.9268
sünü	-10.9268
▁yüzleş	-10.927
▁ağaçların	-10.9273
▁veril	-10.9279
▁w	-10.9282
▁Chicago	-10.9282
▁belediye	-10.9282
▁bıçak	-10.9282
▁mevsim	-10.9282
▁Britanya	-10.9282
▁helikopter	-10.9282
▁Hâl	-10.9282
▁Ebola	-10.9282
▁şapka	-10.9282
▁gerektiriyor	-10.9283
▁Makine	-10.9283
▁transfer	-10.9283
▁gerçekleştirmek	-10.9283
▁dağınık	-10.9283
▁göreceğiniz	-10.9284
▁Noel	-10.9285
▁bayanlar	-10.9286
▁şüphesiz	-10.9287
▁il	-10.9288
▁hazırladı	-10.9289
▁aranızda	-10.9289
▁davranışsal	-10.9289
▁yenilenebilir	-10.9292
▁örnekte	-10.9295
▁güncel	-10.9296
▁yakalama	-10.9299
▁kaydetti	-10.9299
ander	-10.9301
▁titreşim	-10.9303
▁Bağ	-10.9307
▁şair	-10.931
▁miras	-10.931
▁anneler	-10.9314
▁öncülü	-10.9321
J	-10.9321
miyorlar	-10.9321
▁becerileri	-10.9322
▁aynısını	-10.9322
▁sanatın	-10.9324
▁sebepten	-10.9325
▁Hay	-10.9325
▁sağa	-10.9325
▁eğitimli	-10.9329
▁böcekleri	-10.933
▁istemediği	-10.9332
▁geçirmiş	-10.9336
▁fen	-10.9336
▁kurt	-10.9336
▁bildirim	-10.9338
▁ileti	-10.934
▁saklama	-10.9341
▁buluşma	-10.9342
▁Hepsini	-10.9351
▁Cam	-10.9355
▁Mac	-10.9358
▁ilaçları	-10.9362
▁aletleri	-10.9363
▁kanserin	-10.9363
▁köşede	-10.9364
▁sunma	-10.9367
▁geliri	-10.9367
▁okulun	-10.9368
▁olmalarını	-10.937
leşen	-10.9373
▁Sonraki	-10.9375
▁bacakları	-10.9375
ian	-10.9375
leridir	-10.9375
▁ailenin	-10.9376
▁sorunların	-10.9379
▁Normal	-10.9381
▁başlıyorlar	-10.9383
▁Niye	-10.9383
leştiren	-10.9384
▁lideri	-10.9387
▁olmasıydı	-10.9393
▁yoğunlaş	-10.9395
▁Masa	-10.9395
ebilirler	-10.9398
▁Fil	-10.9399
▁şehrinde	-10.9401
▁Hayatı	-10.9402
▁araştırmacılar	-10.9417
▁evim	-10.9421
▁tutum	-10.9421
▁kelimeleri	-10.9423
▁kişilere	-10.9423
▁vücudunu	-10.9426
▁riskli	-10.9426
▁elektriği	-10.9427
lebilir	-10.9428
▁varken	-10.9433
▁Bölge	-10.9436
▁dramatik	-10.9436
▁kurbağa	-10.9436
▁emniyet	-10.9436
▁nöroloji	-10.9436
▁partner	-10.9436
▁Sahip	-10.9436
▁anatomi	-10.9436
▁Mikro	-10.9436
▁fırın	-10.9436
▁cisim	-10.9437
▁ötesi	-10.9438
▁benzetme	-10.9438
▁siber	-10.9442
▁sanıyorum	-10.9443
▁yürüt	-10.9443
▁ikincisi	-10.9445
▁yoğunluk	-10.9445
▁tahrip	-10.9448
▁umur	-10.9449
▁robotik	-10.945
▁kullanılma	-10.945
▁diyet	-10.9452
▁etkinlik	-10.9454
chi	-10.9456
bilimci	-10.946
memiş	-10.9463
▁düşündüğünüzde	-10.9467
İH	-10.9472
▁Krallık	-10.9475
▁olayların	-10.9476
▁içimizde	-10.9484
▁hissettiğim	-10.9485
▁ayni	-10.9485
▁duman	-10.9489
▁aradı	-10.9494
giz	-10.9494
▁gideceği	-10.9499
▁almıştı	-10.9499
▁Yemek	-10.95
▁aslı	-10.9508
▁bağlantılar	-10.9508
▁diploma	-10.9509
▁yaptığımızı	-10.951
▁Yedi	-10.9511
▁inceliyor	-10.9513
▁gec	-10.9514
cıları	-10.9514
▁eserleri	-10.9514
▁mali	-10.9515
▁kaynaklarını	-10.9517
▁göndermek	-10.9521
▁bağımlılık	-10.9521
▁deneyimler	-10.9525
lalım	-10.9528
▁olasılıkla	-10.953
▁Çocukların	-10.9534
▁istemem	-10.9536
▁kaynaklanıyor	-10.9542
▁alanlarında	-10.9545
▁onar	-10.9545
▁politikacılar	-10.9546
▁fikirlerini	-10.955
▁donmuş	-10.9555
▁bela	-10.9558
larak	-10.9561
▁hızda	-10.9562
▁yararı	-10.9563
▁lu	-10.9574
▁gelmedi	-10.9575
▁Ham	-10.9575
▁dedikleri	-10.9577
▁Bali	-10.9578
diğimi	-10.9579
av	-10.958
▁uçuyor	-10.9583
▁çözümün	-10.9584
▁umutsuz	-10.9585
▁organizasyonu	-10.9586
▁For	-10.9588
▁kapsa	-10.9589
▁akışını	-10.9591
▁Matematik	-10.9592
▁dinazor	-10.9592
▁güvercin	-10.9592
▁kahverengi	-10.9592
▁reaksiyon	-10.9592
▁çikolata	-10.9592
▁İsviçre	-10.9592
▁Biyoloji	-10.9592
▁yıkıcı	-10.9592
▁akıntı	-10.9592
▁onemli	-10.9592
▁hakkinda	-10.9593
▁mizah	-10.9593
▁maalesef	-10.9593
▁telif	-10.9593
▁solucan	-10.9595
▁Işık	-10.9596
▁ödün	-10.9597
▁Ford	-10.9597
▁kalkıp	-10.9597
▁She	-10.9598
▁umursama	-10.9598
▁işlevsel	-10.9598
▁düşünceler	-10.9602
▁parası	-10.9604
▁performansı	-10.9606
▁eğiliminde	-10.9606
▁Gene	-10.9606
▁sever	-10.9607
BC	-10.9607
▁yolculuğun	-10.9608
▁genişleme	-10.9609
▁artı	-10.9609
▁eşyaları	-10.961
▁galeri	-10.9612
▁sesin	-10.9613
▁Aşağı	-10.9613
▁Eş	-10.9619
▁çocuğum	-10.9621
▁destekleme	-10.9625
RB	-10.9626
▁konuşmacı	-10.9627
▁fenomen	-10.9628
▁laboratuvarda	-10.963
▁alırken	-10.9631
rest	-10.9632
lanmamış	-10.9632
▁içten	-10.9632
▁hükümetler	-10.9635
▁verdiğini	-10.9635
▁türünü	-10.9636
▁akla	-10.964
▁Gana	-10.9645
▁kuruluş	-10.9646
▁tuttuğu	-10.9649
▁derim	-10.965
▁koltuğu	-10.9654
▁seti	-10.9657
▁hayatınızı	-10.9659
▁çalın	-10.966
▁böceği	-10.966
▁aklı	-10.9661
▁severi	-10.9664
▁aşamasında	-10.9665
▁çalışanlar	-10.9668
▁yuzde	-10.9672
▁yapacağımız	-10.9674
▁kullanmıyor	-10.9674
▁tipi	-10.9681
▁olacaksınız	-10.9684
▁diyen	-10.9687
▁bizleri	-10.9687
▁kıs	-10.9689
▁fena	-10.9689
▁sormaya	-10.9696
▁katkıd	-10.9696
▁odaklı	-10.9705
▁anlattım	-10.9705
▁sessizlik	-10.9708
▁korktu	-10.9709
▁grub	-10.9709
▁yapmaktan	-10.971
▁bazılarının	-10.971
▁calisma	-10.9712
▁inanır	-10.9714
▁Ger	-10.9719
▁etkilerini	-10.9719
▁antik	-10.9723
▁başladığımızda	-10.9728
▁döndük	-10.973
▁barındır	-10.9731
▁doları	-10.9734
▁fit	-10.9734
▁konuştuğum	-10.9734
▁değişme	-10.9742
▁bio	-10.9746
▁karşıtı	-10.9746
▁çıkmaz	-10.9749
▁devri	-10.975
abilmesi	-10.9751
▁Afgan	-10.9751
▁Silikon	-10.9751
▁hormon	-10.9751
▁paradigma	-10.9751
▁trajedi	-10.9751
▁rüşvet	-10.9751
▁Hızlı	-10.9751
▁Stanford	-10.9751
▁batarya	-10.9751
▁Smith	-10.9751
▁retina	-10.9751
▁varoluş	-10.9751
▁Eric	-10.9752
▁vadi	-10.9753
▁Bekle	-10.9754
▁yurt	-10.9754
▁akış	-10.9755
▁ilave	-10.9755
▁esinlen	-10.9755
▁ırkçı	-10.9755
▁MR	-10.9755
▁balıklar	-10.9756
▁Kır	-10.976
▁ikisinin	-10.9761
gal	-10.9762
▁yapmama	-10.9764
▁fırlat	-10.9766
ttığı	-10.9774
▁dinley	-10.9775
▁küp	-10.9776
▁hastalığ	-10.978
▁yardımıyla	-10.9781
▁duruş	-10.9786
▁bulunmakta	-10.9787
▁salgı	-10.9787
▁çalışmamız	-10.9788
bilirdi	-10.9793
▁hareketin	-10.9797
▁bağlamda	-10.9798
▁Hayatta	-10.9799
▁aldığını	-10.9801
▁görmüştü	-10.9802
▁elinizi	-10.9803
▁önemini	-10.9803
abiliyorlar	-10.9805
▁başladığında	-10.9811
▁kayıtları	-10.9819
▁Tu	-10.982
amazdı	-10.9822
▁çaresiz	-10.9824
▁sevin	-10.9826
▁tarafına	-10.9828
▁birşeyi	-10.9832
▁Beynin	-10.9834
acakları	-10.9835
▁sili	-10.9836
▁götürme	-10.9837
▁dersler	-10.9838
▁ormanın	-10.9842
▁biliniyor	-10.9845
▁etmekten	-10.9848
▁Wall	-10.985
▁azalıyor	-10.9851
▁tabiki	-10.9853
▁oluşum	-10.9856
▁sıradaki	-10.9857
tığınızda	-10.9861
▁götürür	-10.9861
▁28	-10.9861
▁denemek	-10.9862
▁toplumların	-10.9863
▁moleküller	-10.9865
▁hoşlanma	-10.9865
▁canavar	-10.9866
▁dönüşür	-10.9869
▁yıldızı	-10.9875
▁verilere	-10.9875
▁içeride	-10.9876
▁gezegenlerin	-10.9878
▁çekilme	-10.9879
▁aynısı	-10.9879
▁sınırlar	-10.988
▁doğma	-10.9881
▁görmeyi	-10.9881
▁Gülüşme	-10.9885
▁rahatsızlık	-10.9888
meniz	-10.9891
▁şansımız	-10.9891
▁kalitesini	-10.9892
dığımızı	-10.9892
▁söylerdi	-10.9893
▁araştırmaları	-10.9894
abilirdi	-10.9895
▁yiyeceği	-10.9895
▁konuşması	-10.9896
ebilecekleri	-10.9896
▁kazandığı	-10.9897
▁yapamıyor	-10.9898
▁oh	-10.9898
▁gelmesini	-10.9898
▁Hükümet	-10.9904
ydiler	-10.9905
▁Demokrasi	-10.9912
▁eşcinsel	-10.9912
▁Yavaş	-10.9912
▁çürü	-10.9912
▁çevrimiçi	-10.9912
▁sentetik	-10.9913
▁parazit	-10.9914
▁ünite	-10.9914
▁sesli	-10.9914
▁darbe	-10.9914
▁denizaltı	-10.9915
▁imaj	-10.9917
▁Kapı	-10.9917
▁kaçak	-10.9919
abildik	-10.9921
▁filmde	-10.9922
▁geldiğimde	-10.9923
▁Atlantik	-10.9923
▁tutkulu	-10.9924
▁sars	-10.9924
yarak	-10.9925
▁We	-10.9925
▁programcı	-10.9926
rsa	-10.9927
▁yeter	-10.9928
▁nerde	-10.9929
▁Iste	-10.993
▁üçgen	-10.9931
▁salın	-10.9932
▁izi	-10.9932
▁ölçekli	-10.9935
▁iletişimi	-10.9937
▁uydur	-10.9939
▁fo	-10.994
▁yabani	-10.994
▁konuşuyordu	-10.9941
▁oynadı	-10.9944
▁hani	-10.9946
star	-10.9946
▁organları	-10.9947
▁kurumların	-10.9949
▁İsa	-10.9951
▁alabiliyor	-10.9952
▁maymunlar	-10.9954
▁davranıyor	-10.9956
mazlar	-10.9959
▁Cit	-10.9959
▁kuramı	-10.9961
▁durduru	-10.9965
▁yüksel	-10.9968
ildiğinde	-10.9968
▁filmler	-10.9969
ald	-10.9973
▁görülmemiş	-10.9976
▁durdurma	-10.9981
▁uzmanlar	-10.9984
▁annemin	-10.9988
▁uçur	-10.9988
▁evreni	-10.999
▁ilacın	-10.999
▁düzeni	-10.9997
▁ormanları	-10.9997
▁renkleri	-11.0001
landığını	-11.0002
▁muyu	-11.0003
▁kaybeder	-11.0005
▁duydukları	-11.0007
▁yılını	-11.0008
▁faktör	-11.0011
duğumuz	-11.0012
▁katılıyor	-11.0017
▁fiyatları	-11.002
▁evcil	-11.0022
nizdeki	-11.0022
▁yapabileceğim	-11.0029
▁hikayem	-11.0031
▁malzemeleri	-11.0032
▁haz	-11.0032
▁öldürmek	-11.0033
▁evlen	-11.0038
▁kucak	-11.0039
▁ndaki	-11.0042
▁Sayı	-11.0042
▁arkadaşlarınız	-11.0043
iyeti	-11.0046
▁karşılaştık	-11.0051
▁Ali	-11.0054
▁kalkınma	-11.0054
▁vücudu	-11.0055
▁seçer	-11.0061
▁etkiledi	-11.0061
lmüş	-11.0063
▁zorlama	-11.0065
▁eksi	-11.0065
▁yaratıcılığı	-11.0066
ill	-11.0068
▁kaldılar	-11.0074
irim	-11.0076
ntarktik	-11.0076
▁Kontrol	-11.0076
▁enfekte	-11.0076
▁mıknatıs	-11.0076
▁tropik	-11.0076
▁öbür	-11.0076
▁üzücü	-11.0076
▁kumaş	-11.0076
▁Petrol	-11.0076
▁klip	-11.0077
▁hiçbirşey	-11.0077
▁mekaniği	-11.0078
▁alırsa	-11.0078
▁Hazır	-11.0078
▁Benzer	-11.0078
▁Genellikle	-11.0078
▁korsan	-11.0078
▁sunucu	-11.0079
ant	-11.008
▁sayılır	-11.008
▁baska	-11.0084
▁kafasını	-11.0085
▁mega	-11.0088
▁Ekim	-11.0091
▁işleyen	-11.0092
▁Res	-11.0093
ttiği	-11.0098
old	-11.0098
▁köyün	-11.0099
▁analizi	-11.0099
▁arılar	-11.0103
▁yaklaşıyor	-11.0106
▁kayak	-11.0111
▁dilin	-11.0113
▁inkar	-11.0113
▁deneysel	-11.0113
▁yöneten	-11.0118
▁goru	-11.012
▁fiber	-11.0122
▁Ray	-11.0123
▁Kah	-11.0123
▁kirliliği	-11.0126
▁dövme	-11.0127
▁anahtarı	-11.0129
▁kadına	-11.0132
kâr	-11.0134
▁gözler	-11.0136
▁birleştirme	-11.0136
▁icinde	-11.0137
▁ölecek	-11.014
▁formları	-11.0141
▁mühendisi	-11.0144
▁Öl	-11.0148
▁arkada	-11.016
rmal	-11.016
▁ederdi	-11.0162
▁aldatma	-11.0163
▁kolaylık	-11.0165
▁Seyirci	-11.0166
BA	-11.0169
▁özelliklerini	-11.0169
erry	-11.0172
▁kayna	-11.0172
▁götürü	-11.0173
mur	-11.0174
acağınız	-11.0174
▁toparla	-11.0175
umuzun	-11.0178
▁robotun	-11.0182
▁gun	-11.0184
▁yönlendirme	-11.0188
▁ulaştık	-11.0191
▁form	-11.0191
▁ot	-11.0193
▁yakı	-11.0195
▁çektim	-11.0196
▁gittiğimiz	-11.0197
▁şiş	-11.0199
▁bahsettiğimiz	-11.0201
hh	-11.0202
▁çalışı	-11.0204
▁yaşadıkları	-11.0205
▁eğim	-11.0205
▁kesti	-11.0208
▁görecek	-11.0208
▁anlamında	-11.0208
▁seçtik	-11.021
▁kodu	-11.0213
▁gercekte	-11.0214
▁Tah	-11.0223
▁döngüsü	-11.0225
▁alkışlar	-11.0226
▁teknolojisini	-11.0232
▁bölgenin	-11.0232
▁Bazılarınız	-11.0233
▁tanımlamak	-11.0233
▁başlattık	-11.0238
▁tuş	-11.0238
▁bilgisi	-11.0241
▁Dijital	-11.0243
▁aykırı	-11.0243
▁feminist	-11.0243
▁meclis	-11.0243
▁prensibi	-11.0243
▁sipariş	-11.0243
▁Örnek	-11.0243
▁çekirdek	-11.0243
▁Sabah	-11.0243
▁estetik	-11.0243
▁banyo	-11.0243
▁Yaşlı	-11.0243
▁zarif	-11.0244
▁taze	-11.0245
▁imalat	-11.0245
▁aldıkları	-11.0246
▁karşılığında	-11.0246
▁Kural	-11.0248
▁mutluyum	-11.0248
▁bulundur	-11.0249
▁AM	-11.0251
▁yeraltı	-11.0251
▁kolunu	-11.0253
▁düzine	-11.0253
▁yankı	-11.0258
▁King	-11.0258
▁hatırlatıyor	-11.0259
▁sayısal	-11.026
▁Ti	-11.0262
▁geçtim	-11.0262
▁alırlar	-11.0262
▁tamamiyl	-11.0263
▁kabin	-11.0263
▁kuşak	-11.0264
▁pop	-11.0265
▁havuz	-11.0266
▁tasarımcıları	-11.0268
▁nü	-11.0268
▁Şehirler	-11.027
▁reform	-11.027
▁inanı	-11.0271
▁geliştirmeye	-11.0272
▁sure	-11.0275
▁Yazı	-11.0275
▁gemisi	-11.0277
▁kaderi	-11.0279
▁Belli	-11.0282
▁söylüyordu	-11.0283
▁karışımı	-11.0286
▁teması	-11.0286
▁sahi	-11.0287
▁Pat	-11.0287
▁sorumluluğu	-11.0288
▁etmeleri	-11.0289
▁Aç	-11.0294
▁küreselleşme	-11.0296
▁Br	-11.0296
▁unuttu	-11.0308
ıvı	-11.031
▁Gezegen	-11.0311
▁zekice	-11.0311
ebiliyorlar	-11.0313
▁duymuş	-11.0314
▁eğilimi	-11.0314
▁köyde	-11.0317
▁tadını	-11.0327
▁grafiği	-11.0327
▁ölmüş	-11.0333
▁güneşin	-11.0338
▁sürecini	-11.0338
▁iyileştirme	-11.0339
▁doların	-11.034
▁felç	-11.0341
▁uyuma	-11.0343
▁kalanını	-11.0344
▁işimi	-11.0349
▁yayılması	-11.035
▁bıraktım	-11.0354
▁bedeli	-11.0355
▁büyümeye	-11.0359
▁cevabını	-11.036
▁filmini	-11.0361
▁yerlerin	-11.0366
▁satıl	-11.037
opi	-11.0372
▁örtüsü	-11.0372
▁Balık	-11.0373
▁indi	-11.0375
▁dilini	-11.0378
▁açıkladı	-11.0379
▁yerleştiril	-11.0388
▁seçmek	-11.039
leştirilmesi	-11.0397
mah	-11.0397
▁uğramış	-11.0399
▁Bra	-11.0401
▁izler	-11.0403
▁görebilme	-11.0406
▁uzaklaştır	-11.0409
▁hemşire	-11.0409
▁Projesi	-11.041
tre	-11.0412
▁muhafaza	-11.0412
▁mürekkep	-11.0412
▁Arjantin	-11.0412
▁Mükemmel	-11.0412
▁Wikipedia	-11.0412
▁Yukarı	-11.0412
▁rezerv	-11.0412
▁acayip	-11.0412
▁husus	-11.0412
▁sandviç	-11.0412
▁cinayet	-11.0412
▁Green	-11.0412
▁enjekt	-11.0413
▁bencil	-11.0413
▁tükenmiş	-11.0413
▁bulaşıcı	-11.0413
▁imge	-11.0413
▁goz	-11.0415
▁örtü	-11.0415
▁Bilmiyorum	-11.0417
▁Düşü	-11.0418
▁stil	-11.0418
▁kirlet	-11.0422
▁başlayı	-11.0422
▁isyan	-11.0423
▁katıldı	-11.0424
▁görebiliyorum	-11.0425
▁yükselen	-11.0425
▁lüks	-11.0426
▁zıpla	-11.0427
▁kopar	-11.0429
▁olanların	-11.043
amadığı	-11.0431
▁getirip	-11.0434
▁ihtiyac	-11.0436
▁hesabı	-11.0438
▁ömrü	-11.0439
▁anlamını	-11.044
▁karış	-11.0444
▁bekledi	-11.0445
▁36	-11.0449
▁yükselme	-11.0452
▁sahipsiniz	-11.0452
▁hangisi	-11.0456
▁tuz	-11.0456
▁sözleri	-11.0457
▁yakalamak	-11.0458
tta	-11.0462
ladılar	-11.0464
▁Bush	-11.0466
▁renkte	-11.0466
▁araçların	-11.0467
▁çit	-11.0467
▁boyle	-11.047
▁planla	-11.0478
▁beyniniz	-11.0478
lenebilir	-11.0481
▁bağlar	-11.0482
▁edildiğini	-11.0484
▁emek	-11.0487
▁çevrede	-11.0489
▁gerçeğ	-11.0491
▁patlaması	-11.0495
▁ülkelerdeki	-11.0502
▁Oradaki	-11.0502
▁parçacıklar	-11.0503
▁satmak	-11.0504
▁Doğrusu	-11.0506
▁ortamında	-11.0509
▁Far	-11.0518
▁diyebilir	-11.0519
▁kaybettiği	-11.0519
▁seviyesini	-11.0522
▁uğra	-11.0524
▁tarihini	-11.0527
dıklarında	-11.0529
▁şehirleri	-11.0529
▁hatırladı	-11.0531
rah	-11.0531
tığım	-11.0533
▁götürmek	-11.054
lur	-11.0542
▁Tri	-11.0547
▁uzaklıkta	-11.0552
▁uygulamaları	-11.0554
▁toprağı	-11.0559
▁firması	-11.056
▁gösterdik	-11.0565
▁hikayelerini	-11.0565
ırım	-11.0565
▁anten	-11.0566
▁Gü	-11.0571
▁geçirdiğim	-11.0575
▁geldiğimiz	-11.0576
istik	-11.0577
▁vermez	-11.0579
ER	-11.0579
▁Cambridge	-11.0585
▁Florida	-11.0585
▁Vietnam	-11.0585
▁interaktif	-11.0585
▁Yanlış	-11.0585
▁çapta	-11.0585
▁kızgın	-11.0585
▁psikolog	-11.0585
▁irade	-11.0585
▁ilgisini	-11.0586
▁netice	-11.0586
lamayı	-11.0587
▁direnci	-11.0588
▁Lider	-11.0589
▁yürürken	-11.0589
▁Brun	-11.0589
▁göstergesi	-11.0589
▁ertesi	-11.0589
▁Kişisel	-11.059
▁programlar	-11.059
▁pişmanlık	-11.0591
▁Model	-11.0592
▁ellerini	-11.0593
bit	-11.0597
▁kullanımını	-11.06
▁doğmuş	-11.06
bet	-11.0602
▁Plan	-11.0605
mekle	-11.0605
▁Kura	-11.0606
▁şempanzeler	-11.0607
▁Ailem	-11.0608
▁alıyorsunuz	-11.0609
▁Bol	-11.061
▁dönük	-11.0612
▁tutarlı	-11.0612
▁oluşu	-11.0616
▁mini	-11.0617
liğimiz	-11.0618
▁yaşıyorum	-11.0621
▁işimiz	-11.0622
nmeyen	-11.0623
abildiği	-11.0625
digimiz	-11.0627
▁savaşçı	-11.0628
▁bakıyorlar	-11.0631
▁filmleri	-11.0631
▁bilmiyorduk	-11.0632
▁içsel	-11.0632
lerimin	-11.0633
▁vurgu	-11.0634
▁İtalyan	-11.0635
▁bilmediği	-11.0636
▁kaybettik	-11.0636
▁dalgalanma	-11.0637
▁bağlanma	-11.064
▁boyun	-11.064
▁bulunabilir	-11.0641
▁sav	-11.0647
halde	-11.0648
ira	-11.0651
▁Dış	-11.0651
▁düşündüğümüzde	-11.0658
▁görüldüğü	-11.0659
▁çalar	-11.0662
▁elit	-11.0662
▁birleşi	-11.0665
▁öğreti	-11.0668
yorsun	-11.0671
▁anlayabilir	-11.0677
▁ilki	-11.068
▁mesafede	-11.0681
▁gözükme	-11.0683
ust	-11.0686
sinler	-11.0687
▁kaldığı	-11.0689
▁edilecek	-11.069
▁Hayvan	-11.0693
▁sizleri	-11.0696
▁arabaları	-11.0697
▁aklımız	-11.0699
▁odasında	-11.0708
▁pay	-11.071
▁değilsiniz	-11.0713
yabilirsiniz	-11.0719
▁alarm	-11.0719
▁kazanır	-11.0721
▁kendilerinin	-11.0721
▁gram	-11.0724
▁akımı	-11.0725
▁dönüşü	-11.0725
▁anları	-11.0728
▁oluşumu	-11.0734
yıllardır	-11.0737
▁çıkabilir	-11.074
ğum	-11.0741
▁görünme	-11.0742
▁oranla	-11.0743
▁dalgaları	-11.0746
ros	-11.0747
▁kusur	-11.0749
▁yayılmış	-11.075
▁elin	-11.0751
▁diren	-11.0751
▁seyred	-11.0752
▁binaların	-11.0752
▁Hatırla	-11.0752
▁Geliş	-11.0758
▁destekliyor	-11.076
▁psiko	-11.076
▁halihazırda	-11.076
▁paraşüt	-11.076
▁İspanya	-11.076
▁Haziran	-11.076
▁mağdur	-11.076
▁peynir	-11.076
▁goster	-11.076
▁ihlal	-11.076
▁Bebek	-11.076
▁evvel	-11.076
▁masum	-11.076
▁cihad	-11.0761
▁dürtü	-11.0761
▁inceledi	-11.0761
▁Nano	-11.0761
▁saldırgan	-11.0761
▁gereksinim	-11.0762
▁duymuşsunuz	-11.0763
▁parmakları	-11.0763
▁ayrılmış	-11.0764
ugh	-11.0764
▁tadı	-11.0764
▁başlıca	-11.0768
mıyorlar	-11.077
▁biliyorsun	-11.0771
▁bitirme	-11.0774
▁belgesel	-11.0774
▁taşıdı	-11.0775
▁devletler	-11.0775
▁haricinde	-11.0776
▁dışkı	-11.0777
▁yaparım	-11.0779
▁atlama	-11.0782
▁Pal	-11.0782
▁üretmeye	-11.0783
lacağını	-11.0784
▁yolculuğu	-11.0787
▁bebeği	-11.079
▁enstitü	-11.079
▁Okulu	-11.0791
▁dansçı	-11.0795
▁sara	-11.0798
▁bulmaca	-11.0799
▁düşünül	-11.0802
▁bilmez	-11.0803
▁dinleyici	-11.0804
cısı	-11.0805
▁biç	-11.0806
abiliyordu	-11.0808
ville	-11.0809
▁Carl	-11.0809
▁arayı	-11.081
▁Şirketler	-11.0812
▁sanatçılar	-11.0813
▁okudu	-11.0815
▁kabiliyet	-11.0816
▁alev	-11.0816
▁elimizdeki	-11.0817
▁çektik	-11.0821
▁koyduğu	-11.0822
▁sağladık	-11.0823
▁hissetmek	-11.0824
▁Telefon	-11.0827
▁genler	-11.0833
▁hayvanlarda	-11.0835
▁verilme	-11.0835
▁Alt	-11.0836
▁gününde	-11.0836
▁gelirler	-11.0839
fel	-11.0841
▁Seyirciler	-11.0842
▁gene	-11.0843
▁tabu	-11.0844
örü	-11.0846
▁alanlarını	-11.0848
▁çalışabilir	-11.085
▁Altın	-11.0851
▁açıklaması	-11.0852
▁açıklıyor	-11.0855
▁eşitliği	-11.0857
▁girdik	-11.0859
▁azaldı	-11.0862
▁konuları	-11.0866
maktır	-11.0869
▁pazarı	-11.0871
amanı	-11.0871
▁yapıyordum	-11.0872
mit	-11.0873
and	-11.0874
▁işlemci	-11.0877
irdi	-11.0882
▁toplumlarda	-11.0882
▁edeceğimiz	-11.0882
▁yaşımda	-11.0884
▁85	-11.0887
▁direnç	-11.0887
▁tartışmalar	-11.0889
▁izleyi	-11.089
ight	-11.0897
▁Oda	-11.0897
ith	-11.09
ladığım	-11.09
▁düşündüğünüz	-11.0901
▁bağı	-11.0902
rası	-11.0912
▁yüze	-11.0913
▁nu	-11.0914
▁duyur	-11.0915
▁bah	-11.0918
▁toprağın	-11.0919
▁kaçın	-11.0919
▁yaban	-11.0925
lamıştı	-11.0929
▁kül	-11.0934
▁sö	-11.0937
▁LED	-11.0939
▁dogru	-11.0939
▁muayene	-11.0939
▁İspanyol	-11.0939
▁Şehri	-11.0939
▁ampul	-11.0939
▁patates	-11.0939
▁Brown	-11.0939
▁ödüyor	-11.0939
▁sakat	-11.0939
▁Kullan	-11.0939
▁göğsü	-11.0939
▁görülebilir	-11.0939
▁silahlar	-11.0941
▁Nick	-11.0942
facık	-11.0943
▁bütünüy	-11.0948
▁aslin	-11.0948
▁Sıradaki	-11.0953
uşu	-11.0954
▁bulunmaktadır	-11.0954
▁yapıyorsun	-11.0954
▁ettiklerini	-11.0955
▁gözüken	-11.0956
▁lens	-11.0956
▁değiştirerek	-11.096
▁geni	-11.0963
larıydı	-11.0964
eb	-11.0967
▁aldığınız	-11.0969
▁haliyle	-11.097
▁evrimi	-11.0972
engin	-11.0974
▁bizimki	-11.0975
▁gerçekleştirdi	-11.0978
malısın	-11.0979
▁hatırlat	-11.0985
▁üniversitede	-11.0986
▁nehrin	-11.0989
▁parçaların	-11.099
▁aramızda	-11.0991
▁burun	-11.0992
▁Wo	-11.0993
▁kaplan	-11.0998
▁unutmayı	-11.0999
▁kom	-11.1004
▁çalan	-11.1004
irsiniz	-11.1008
▁istiyorsa	-11.1009
▁bilgisayarların	-11.1011
▁uygulaması	-11.1015
▁Evi	-11.1019
▁artması	-11.1019
▁hayatlarında	-11.1019
▁bugünün	-11.1021
▁inin	-11.1021
▁sayfası	-11.1021
▁çabu	-11.1024
▁kirlilik	-11.1025
▁ulaşır	-11.1025
▁Pen	-11.1033
▁gelirse	-11.1038
▁söylendi	-11.104
▁başkasının	-11.104
▁giyme	-11.1042
deydim	-11.1043
▁interneti	-11.1044
▁sensör	-11.1044
▁oluşma	-11.1045
▁ormanda	-11.1052
▁ölçme	-11.1052
vu	-11.1056
▁gidiş	-11.1057
▁gore	-11.1058
ling	-11.1058
▁aşma	-11.106
luş	-11.106
▁çim	-11.1062
skop	-11.1062
dr	-11.1063
▁Big	-11.1064
▁seçiyor	-11.1068
▁modelini	-11.1069
▁karşılaşıyor	-11.107
▁askerler	-11.107
bü	-11.107
▁çözdü	-11.1071
rebiliriz	-11.1075
▁yayılıyor	-11.1077
ımızdaki	-11.1078
▁Acı	-11.1083
▁mide	-11.1086
▁basladi	-11.1087
▁vücudunuz	-11.1095
▁farklılıkları	-11.1098
▁kalmaya	-11.1099
▁çoğunluk	-11.1102
▁dök	-11.1103
▁sattı	-11.1105
ardı	-11.1106
▁yapardı	-11.1107
▁rehber	-11.1111
▁deyin	-11.1114
▁almamız	-11.1116
ther	-11.1119
▁şuan	-11.1119
▁dönüştürdü	-11.1119
▁fırça	-11.1121
▁coğrafya	-11.1121
▁istihdam	-11.1121
▁kristal	-11.1121
▁vasıtası	-11.1121
▁arşiv	-11.1121
▁yozlaşma	-11.1121
▁Gates	-11.1121
▁hemfikir	-11.1121
▁Taliban	-11.1121
▁Binlerce	-11.1121
▁sistematik	-11.1121
▁Simdi	-11.1121
▁işkence	-11.1121
▁evlat	-11.1121
▁dünyasının	-11.1121
▁şahane	-11.1122
▁Vücudu	-11.1123
▁hareketini	-11.1123
▁Kişi	-11.1124
iv	-11.1124
▁hük	-11.1124
▁çağdaş	-11.1125
▁hayatımızda	-11.1125
▁salgını	-11.1126
▁Tony	-11.1128
awa	-11.1129
▁Bron	-11.1129
▁hekim	-11.113
lmak	-11.1131
▁evimiz	-11.1132
▁kızları	-11.1133
▁beyne	-11.1135
▁alabilme	-11.1136
▁çiçekler	-11.1136
▁kılı	-11.114
▁29	-11.1143
▁sanatsal	-11.1144
▁uzaylı	-11.1145
▁filmin	-11.1145
▁Seçim	-11.1148
▁konusunu	-11.1149
yorduk	-11.115
▁baktığımız	-11.1152
▁tanıştır	-11.1153
leşmesi	-11.1153
▁ülkesi	-11.1155
▁kg	-11.1156
▁atan	-11.1157
▁Ödülü	-11.1157
▁Tor	-11.1162
▁duvarları	-11.1164
▁niyet	-11.1166
ou	-11.1167
▁aracın	-11.1168
▁Bel	-11.117
▁kanalı	-11.117
▁kibar	-11.1171
▁suçlama	-11.1173
▁kuşu	-11.1176
▁Yapı	-11.1179
▁Medi	-11.1189
▁senede	-11.1192
▁arz	-11.1196
▁masada	-11.1197
▁bankacı	-11.1199
▁kaçınma	-11.1202
▁Hepimizi	-11.1202
▁hareketler	-11.1204
▁unutu	-11.1205
▁şeytan	-11.1206
▁kullanılmış	-11.1207
▁sürdürme	-11.1216
metre	-11.1216
▁başlayacağı	-11.1219
▁butun	-11.1219
▁sü	-11.1223
▁disk	-11.1224
▁hic	-11.1225
▁köken	-11.1225
▁attığı	-11.1226
umuzu	-11.1228
▁söylemiş	-11.1229
▁olmayacaktı	-11.1236
malıdır	-11.1237
▁Aklım	-11.1238
▁çarpış	-11.1243
▁değin	-11.1244
▁ettirme	-11.1246
▁gençlerin	-11.1246
▁paylaştı	-11.1251
▁Yok	-11.1251
▁kılıyor	-11.1252
▁fok	-11.126
▁harcadık	-11.1261
▁gömülü	-11.1261
▁yerleş	-11.1262
▁alabil	-11.1264
▁endişeli	-11.1265
▁hayvanı	-11.1265
▁torunları	-11.1266
▁örgü	-11.1268
▁temizlik	-11.1269
amadı	-11.1274
▁okyanuslar	-11.1274
▁getireceği	-11.1275
▁yapmalarını	-11.1279
▁şef	-11.128
▁atalarımız	-11.1281
▁salon	-11.1285
▁etmenizi	-11.1289
▁nakli	-11.1289
▁kafe	-11.1293
▁yapabilecekleri	-11.1298
▁Dil	-11.1299
▁inceler	-11.13
▁bıraktık	-11.1302
▁bakıcı	-11.1302
▁kurumları	-11.1303
▁Kendini	-11.1304
▁Hücre	-11.1306
▁bambaşka	-11.1306
▁coğrafi	-11.1306
▁istihbarat	-11.1306
▁istismar	-11.1306
▁timsah	-11.1306
▁Şarkı	-11.1306
▁Vakfı	-11.1306
▁Sahra	-11.1306
▁öldürücü	-11.1306
▁zafer	-11.1306
▁eşdeğer	-11.1306
▁zira	-11.1306
▁güdü	-11.1306
▁patern	-11.1307
▁anlaşılması	-11.1307
▁öğe	-11.1308
▁ipek	-11.1308
▁denetim	-11.1308
▁ikon	-11.1309
▁yolsuzluk	-11.1309
stik	-11.131
▁toplar	-11.1312
▁Şans	-11.1314
▁org	-11.1318
▁konuşuyorum	-11.1321
▁konuşuyoruz	-11.1326
▁edebilirim	-11.1328
▁paylaştığı	-11.1333
RIS	-11.1334
▁mobilya	-11.1335
▁edeceğiniz	-11.1339
▁Kendimizi	-11.1339
▁Boş	-11.134
▁bölün	-11.1342
▁yarasa	-11.1342
▁Bor	-11.1344
▁tümörü	-11.1346
▁Jane	-11.1349
▁ölüme	-11.1349
▁özünde	-11.1351
▁bakıyordu	-11.1354
▁içimde	-11.1356
▁mod	-11.1356
▁dinler	-11.136
▁salgının	-11.1363
ilmişti	-11.1363
cal	-11.1364
▁mes	-11.1365
▁pas	-11.1365
▁abart	-11.1366
▁Geçmiş	-11.1367
▁bey	-11.1368
▁Kon	-11.137
▁Fare	-11.1373
▁demo	-11.1374
▁tıka	-11.1375
▁Düş	-11.1375
▁oluşturacak	-11.1379
▁uçaklar	-11.1379
▁aklımda	-11.138
▁mana	-11.138
mişler	-11.1381
▁gerçekler	-11.1384
▁hoşum	-11.1392
larımla	-11.1393
▁ayrım	-11.1397
▁baktığınız	-11.1397
masından	-11.1403
spa	-11.1405
▁yerleştirdi	-11.1407
▁adamla	-11.1408
▁yüzen	-11.1408
▁yaklaştığı	-11.141
▁kümesi	-11.1412
▁bulacak	-11.1413
▁karmaşıklık	-11.1418
▁idam	-11.142
▁yerdeki	-11.1423
▁ailelerin	-11.1424
meliyim	-11.1426
tum	-11.1428
▁yetiştiril	-11.143
▁önerme	-11.1431
▁sistemde	-11.1433
▁baskın	-11.1433
▁Suriye	-11.1434
▁Bell	-11.1435
▁bölümleri	-11.1435
▁adamların	-11.1442
▁etmektir	-11.1443
▁etkileşimi	-11.1445
▁işçileri	-11.1446
▁açısını	-11.1446
▁doğdum	-11.1447
▁Boy	-11.1447
▁ordusu	-11.1449
▁Filistin	-11.1451
▁elli	-11.1456
▁edinme	-11.1461
▁havuzu	-11.1468
▁Eh	-11.1469
▁birsey	-11.1471
▁Gördü	-11.1472
işini	-11.1472
▁ayarlama	-11.1475
▁işitme	-11.1477
▁Jeff	-11.148
▁çektiğim	-11.1483
▁öğretmenleri	-11.1483
▁kültürler	-11.1488
labiliriz	-11.1488
▁çekili	-11.1488
▁hevesli	-11.1489
▁Inc	-11.1489
▁gülümse	-11.1489
▁kapatma	-11.1492
▁Microsoft	-11.1495
▁Nihayet	-11.1495
▁illüzyon	-11.1495
▁tahıl	-11.1495
▁şükür	-11.1495
▁statü	-11.1495
▁Değer	-11.1495
▁rakip	-11.1495
▁Yaratıcı	-11.1495
▁ilişkilendir	-11.15
▁gerçekliğin	-11.1501
▁resif	-11.1501
▁oluştuğunu	-11.1502
▁düşünmeliyiz	-11.1503
▁diyebilirim	-11.1503
▁gösterge	-11.1503
▁buluştu	-11.1504
▁kalça	-11.1505
▁dağın	-11.1505
▁kaybeden	-11.1506
▁Charl	-11.1507
larini	-11.151
▁oluşturmaya	-11.151
▁yerleştirme	-11.1514
▁Görev	-11.1515
▁sanıyor	-11.1516
▁rahatlık	-11.1516
▁istasyonu	-11.1517
larinda	-11.1517
▁Kev	-11.1519
▁belirtileri	-11.1525
cy	-11.1528
▁seksi	-11.1528
▁gelişiyor	-11.1531
▁erkeklere	-11.1531
▁yükseldi	-11.1532
▁bulmamız	-11.1533
▁Henr	-11.1534
▁Sanal	-11.1534
▁atlet	-11.1534
imdir	-11.1535
▁ayırdı	-11.1536
▁zenginlik	-11.1536
▁bölgesel	-11.1536
▁bilmiyordu	-11.1538
▁ima	-11.1538
▁duruyordu	-11.1542
▁görünmeyen	-11.1544
▁yıldızın	-11.1546
▁gittiler	-11.1546
ımdan	-11.1546
▁tanımlay	-11.1547
▁bulabil	-11.1547
▁dolaşma	-11.1548
▁tasarladı	-11.1551
nom	-11.1553
▁gördükleri	-11.1553
bilecek	-11.1553
▁Koruma	-11.1554
▁çözümleri	-11.1555
rke	-11.1555
laştırıyor	-11.1561
▁hayvanın	-11.1568
▁hatalar	-11.1573
▁uyanı	-11.1583
▁yapabildiği	-11.1584
bert	-11.1586
▁kültürünü	-11.1586
▁harfi	-11.1586
▁gitmiyor	-11.1587
▁insa	-11.1588
▁Dün	-11.1588
▁gördüğünde	-11.1588
liklerini	-11.1591
▁yoksulluğu	-11.1592
▁mikroplar	-11.1593
▁bakterilerin	-11.1599
▁ayrıla	-11.1601
▁etkileşime	-11.1608
▁ölçmek	-11.1609
▁lisede	-11.1611
▁bahsetmiyoru	-11.1612
▁örneğini	-11.1613
▁lamba	-11.1622
▁tasarrufu	-11.1623
▁proteinler	-11.1624
▁İleri	-11.1628
▁Mola	-11.1631
▁atı	-11.1633
▁ürünlerin	-11.1633
▁liman	-11.1635
▁evlerin	-11.1636
▁uza	-11.1637
▁meslektaşlarım	-11.1638
▁yakınında	-11.1638
▁Marc	-11.1639
▁doldurma	-11.1639
▁ço	-11.1641
▁çalışmalarını	-11.1643
▁kaydır	-11.1646
▁bilmeniz	-11.1646
▁aylar	-11.1646
▁çoğunda	-11.1649
▁Sor	-11.1649
▁yapacağınız	-11.165
▁boğu	-11.165
▁kaynakların	-11.1655
▁Siyah	-11.1655
▁olurken	-11.1655
▁inşaa	-11.1657
▁göremiyor	-11.1659
▁kavramını	-11.166
▁videoda	-11.166
▁bakımı	-11.1661
▁maddeler	-11.1661
▁ormanı	-11.1662
çılar	-11.1663
▁çaldı	-11.1664
ria	-11.1665
▁sunumu	-11.1666
▁Ch	-11.1667
▁göremedi	-11.1668
▁ömür	-11.1668
▁bulunmak	-11.1668
▁aktarıl	-11.167
▁Ayn	-11.1671
▁CD	-11.1675
▁açılma	-11.1676
bes	-11.1676
▁sorunlarını	-11.1679
▁cezası	-11.1683
▁hergün	-11.1684
▁çevirmek	-11.1686
▁Sırada	-11.1686
▁teşkil	-11.1687
▁filozof	-11.1687
▁origami	-11.1687
▁süpür	-11.1687
▁tweet	-11.1687
▁şarj	-11.1687
▁doğuştan	-11.1687
▁klavye	-11.1687
▁Yıldız	-11.1687
▁numune	-11.1687
▁Sokak	-11.1687
▁fatura	-11.1687
▁tasvir	-11.1687
▁izole	-11.1687
▁talebi	-11.1687
▁Medya	-11.1687
▁Virgin	-11.1687
▁Pekâl	-11.1687
▁Berlin	-11.1687
▁biyolog	-11.1688
▁çene	-11.1689
▁Kızıl	-11.169
▁mirası	-11.169
▁kavramsal	-11.1691
▁beklenen	-11.1691
▁193	-11.1691
▁hasat	-11.1692
▁gündüz	-11.1692
of	-11.1693
▁uzayın	-11.1694
▁Dev	-11.1699
▁çimen	-11.1702
▁Sir	-11.1703
▁tutuklan	-11.1704
▁başvuru	-11.1705
▁söyleyebiliriz	-11.1707
▁arkadaşlarımı	-11.1707
▁hey	-11.1708
▁kola	-11.171
▁kapanı	-11.1712
▁Öz	-11.1712
▁kitabını	-11.1713
▁anlattığım	-11.1713
▁çember	-11.1716
▁anlayabiliyor	-11.1718
▁hara	-11.1719
▁deneyleri	-11.1719
▁yürüyen	-11.172
▁benzersiz	-11.172
▁dayanan	-11.1721
▁birleşme	-11.1721
▁Öğretmen	-11.1721
▁durduğu	-11.1723
etmek	-11.1723
▁denizin	-11.1723
▁mühendisleri	-11.1724
▁yapısal	-11.1725
▁lezzetli	-11.1726
▁ortaklık	-11.1727
attle	-11.1727
▁organı	-11.1728
▁başlı	-11.173
▁bilerek	-11.173
▁yetiştirmek	-11.1731
▁modül	-11.1737
▁şeffaflık	-11.1737
▁göründüğünü	-11.1739
▁Nere	-11.174
▁öğretmeni	-11.1745
▁Nor	-11.1746
▁rahatlat	-11.1747
▁katılmak	-11.1748
tasyon	-11.1748
▁başarmak	-11.1751
▁kalbim	-11.1754
▁olmadıkları	-11.1756
▁altta	-11.1758
▁başkası	-11.1759
▁Et	-11.1761
▁eğitme	-11.1763
▁metod	-11.1769
▁uyuyor	-11.177
▁uyuş	-11.1774
▁Cal	-11.1774
▁gülme	-11.178
▁haftalık	-11.1781
▁özet	-11.1782
tıyor	-11.1785
▁araştırması	-11.179
▁tanımlar	-11.1792
▁durumları	-11.1792
▁bağlıyor	-11.1794
PR	-11.1794
▁gitmeyi	-11.1795
▁Gal	-11.1798
▁metan	-11.1799
▁savaşmak	-11.1799
▁gösteriyorum	-11.18
▁hedefler	-11.1802
▁araştırmak	-11.1803
▁basma	-11.1804
▁ifadesi	-11.1807
▁ışını	-11.1808
ydılar	-11.1808
biliyor	-11.1813
▁Star	-11.1819
▁memeliler	-11.1819
▁pu	-11.182
▁inceledik	-11.1821
kav	-11.1828
▁Matt	-11.1828
▁üzül	-11.183
▁Eşim	-11.183
▁başkaları	-11.183
▁işlediğini	-11.1833
▁değillerdi	-11.1833
▁balonu	-11.1834
▁girişimciler	-11.1834
▁etiketi	-11.1836
▁nesneleri	-11.1841
▁Ru	-11.1842
▁servisi	-11.1848
▁saklı	-11.185
▁umuyoru	-11.185
▁bilgisayarda	-11.1851
▁çalıştıkları	-11.1853
▁Sch	-11.1857
uğu	-11.1857
▁beyninde	-11.186
ny	-11.186
▁hayatınız	-11.1862
▁Dışarı	-11.1864
▁aklınızda	-11.1864
▁bahar	-11.1865
▁kaldırma	-11.1866
▁çocuklarım	-11.1867
biliriz	-11.1872
▁zamanımız	-11.1872
▁katlı	-11.1874
▁zıt	-11.1877
▁hissettikleri	-11.1877
olly	-11.1878
diğimizi	-11.1878
▁konsept	-11.1879
▁yaşlarda	-11.1879
▁teknikleri	-11.1879
▁Merkez	-11.188
liyordu	-11.1881
▁kromozom	-11.1882
▁önceydi	-11.1882
▁Anlaşıl	-11.1883
▁Duygu	-11.1883
▁beyefendi	-11.1883
▁laboratuar	-11.1883
▁ritüel	-11.1883
▁semptom	-11.1883
▁zekâ	-11.1883
▁Delhi	-11.1883
▁görülür	-11.1883
▁otoyol	-11.1883
▁Ruanda	-11.1883
▁avuç	-11.1883
▁mineral	-11.1883
▁pamuk	-11.1883
▁Kelime	-11.1883
▁küçümse	-11.1883
▁yatkın	-11.1883
▁kurşun	-11.1883
▁yırtıcı	-11.1883
▁primat	-11.1884
▁Düşünün	-11.1884
lenecek	-11.1886
▁ivme	-11.1886
▁fren	-11.1887
▁2020	-11.1887
▁Arapça	-11.1887
▁yatırımcılar	-11.1889
▁yıkım	-11.1889
▁topladığı	-11.1892
▁araştırdı	-11.1892
▁açıklamaya	-11.1894
▁Devrimi	-11.1895
▁yaşandı	-11.1899
▁riskleri	-11.1899
▁mail	-11.1901
▁yiyecekleri	-11.1903
▁gerçekleşmesi	-11.1903
▁olsalar	-11.1903
▁bayılıyoru	-11.1904
▁erkeğin	-11.1905
▁kavra	-11.1909
▁döndür	-11.191
▁pis	-11.191
▁Git	-11.191
▁enzim	-11.191
litik	-11.1911
▁yayılma	-11.1912
▁seçenekler	-11.1913
▁değişmesi	-11.1914
▁dikkatinizi	-11.1914
taşı	-11.1915
▁denemeye	-11.1918
▁olmayacağı	-11.1926
ille	-11.1933
fu	-11.1935
▁temizleme	-11.1938
▁mutluluğu	-11.1938
▁yapamaz	-11.1941
▁akan	-11.1943
▁günleri	-11.1945
▁işçiler	-11.1945
ınızın	-11.1945
dukları	-11.1946
▁avantajı	-11.1946
▁satıyor	-11.1947
▁çocukluğum	-11.1949
▁Adaları	-11.195
acağına	-11.1951
▁ışığ	-11.1953
▁devir	-11.1954
▁anlayabilmek	-11.196
▁görmekte	-11.1965
▁kabullen	-11.1968
▁karın	-11.1968
▁yetenekler	-11.1969
saydık	-11.1973
▁uçakları	-11.1973
▁koleksiyon	-11.1975
▁beklemek	-11.1975
▁kullandığım	-11.1978
▁gittiğinde	-11.198
▁Öğren	-11.1983
▁cm	-11.1983
▁kanıtlar	-11.1984
▁kanunları	-11.1985
▁askerleri	-11.1987
▁uçma	-11.1988
▁şempanze	-11.1991
▁değerinde	-11.1994
yuz	-11.1998
ılmasını	-11.2
▁kampanyası	-11.2003
▁Hayatımı	-11.2006
▁yıla	-11.2006
amam	-11.2009
▁gücümüz	-11.2009
▁kıza	-11.201
▁Başkanı	-11.2013
▁alınma	-11.2015
▁oynamaya	-11.2015
▁Avrupalı	-11.2016
▁içindeydi	-11.2021
▁öğrendikleri	-11.2022
▁kişileri	-11.2024
▁Bit	-11.2029
▁jeo	-11.2033
▁merkezleri	-11.2034
▁arayüzü	-11.2034
▁bunda	-11.2036
olojik	-11.2041
▁Pri	-11.2041
▁teker	-11.2042
▁yerleştirdik	-11.2043
▁tanımlıyor	-11.2044
diklerinde	-11.2048
▁kalmaz	-11.205
▁yükselişi	-11.205
▁dinleyiciler	-11.2051
▁tabanı	-11.2052
ümüzü	-11.2056
▁çalı	-11.2056
▁doğduğu	-11.2058
▁Sistemi	-11.206
▁ulaşıyor	-11.2061
▁girmiş	-11.2072
▁şema	-11.2073
▁müşterileri	-11.2074
▁buralarda	-11.2074
▁anıt	-11.2074
▁arkadaşlarımız	-11.2075
▁oluştuğu	-11.2075
▁Güç	-11.2078
▁hisleri	-11.2078
▁kemikleri	-11.2079
▁bilgeliğ	-11.2079
▁ödedi	-11.208
▁dolaştı	-11.2083
▁Etiyopya	-11.2083
▁Kitabı	-11.2083
▁National	-11.2083
▁Parkinson	-11.2083
▁gütmeye	-11.2083
▁manşet	-11.2083
▁mecbur	-11.2083
▁misafir	-11.2083
▁muhabir	-11.2083
▁oksitosin	-11.2083
▁omurga	-11.2083
▁sponsor	-11.2083
▁meslektaşım	-11.2083
▁Görünüş	-11.2083
▁doğaçlama	-11.2083
▁çırp	-11.2083
▁Silah	-11.2083
▁haberdar	-11.2083
▁taciz	-11.2083
▁Duvar	-11.2084
▁Nehri	-11.2084
▁solunum	-11.2084
▁düşünürsünüz	-11.2084
▁öldürüyor	-11.2084
▁Yemen	-11.2084
▁okuyucu	-11.2085
▁Michel	-11.2085
▁bağlılık	-11.2085
▁etnik	-11.2086
▁temelinde	-11.2086
▁yapabil	-11.2087
lendiğini	-11.2088
▁niha	-11.2088
▁açılış	-11.2088
▁durak	-11.2088
▁savunmasız	-11.2088
▁yayınlama	-11.209
rtesi	-11.209
▁sorabilirsiniz	-11.2091
▁videosu	-11.2091
▁heves	-11.2093
▁kırık	-11.2095
▁sinyaller	-11.2097
▁harcıyoruz	-11.2097
▁evlerinde	-11.2099
▁Etki	-11.2101
▁yatay	-11.2103
▁öldürül	-11.2106
▁Lise	-11.2106
▁ışın	-11.2106
▁verebil	-11.2108
▁Ph	-11.211
▁Herkesi	-11.211
▁giderseniz	-11.2113
▁Pas	-11.2115
▁oluşturabilir	-11.2118
▁müdürü	-11.2118
▁maç	-11.2124
▁hü	-11.2127
▁bölme	-11.2128
▁Din	-11.213
▁genişliğinde	-11.2131
▁mekanizması	-11.2133
▁bağlanmış	-11.2133
▁Yara	-11.2137
▁bırakın	-11.2138
▁iyiye	-11.2138
▁Kazan	-11.2139
▁kafamda	-11.214
▁maliyetini	-11.2141
▁odasına	-11.2142
▁çat	-11.2142
▁öteki	-11.2146
NSA	-11.2147
▁Gen	-11.2148
arası	-11.2148
▁büyülü	-11.2151
▁nesnelerin	-11.2154
▁kullanacağı	-11.2156
yabilir	-11.2158
cilerin	-11.2163
laştırmak	-11.2165
▁polisi	-11.2167
▁olanlardan	-11.2167
▁Bayanlar	-11.2168
amadım	-11.2169
▁sistemlerini	-11.217
▁payı	-11.217
▁Kurt	-11.2172
▁barışı	-11.2174
▁evsiz	-11.2176
SB	-11.2176
▁ayırmak	-11.2178
▁Gol	-11.2179
20	-11.2181
▁kolları	-11.2182
▁evlenme	-11.2184
▁belirtmek	-11.2185
▁içinizde	-11.2187
▁görüyordu	-11.2191
atif	-11.2192
▁seninle	-11.2193
▁anlayama	-11.2197
yacaksınız	-11.22
▁görüldü	-11.2201
▁tartışmaya	-11.2201
▁Körfezi	-11.2202
▁ekonomist	-11.2202
▁detayları	-11.2203
▁koyabilir	-11.2204
▁evliliği	-11.2207
▁çekin	-11.2207
suzluk	-11.2213
▁etmeme	-11.2214
▁döv	-11.2217
▁Dinle	-11.2217
▁topladık	-11.2218
▁kafası	-11.2218
▁olanağı	-11.2219
▁oturduğu	-11.2222
▁yaşamayı	-11.2222
▁halı	-11.2229
▁ebeveynler	-11.223
▁oğlunu	-11.223
▁uzerinde	-11.2231
▁bulunduğunu	-11.2231
▁sütun	-11.2234
▁paylaşım	-11.2234
▁başlaması	-11.2237
gras	-11.2241
▁kurtardı	-11.2248
the	-11.2251
▁geleni	-11.2252
▁olsam	-11.226
▁kayma	-11.2264
▁içerir	-11.2269
▁ödev	-11.2272
▁durdurmak	-11.2273
▁sürer	-11.2273
▁bakışı	-11.2274
eger	-11.2275
▁iyileştirmek	-11.2277
giniz	-11.228
layabilecek	-11.228
gre	-11.228
▁yiyecekler	-11.2281
▁teknikler	-11.2281
▁Ata	-11.2284
▁samimi	-11.2286
▁sokaklarda	-11.2286
▁internetten	-11.2286
▁Norveç	-11.2287
▁halüsinasyon	-11.2287
▁levha	-11.2287
▁pantolon	-11.2287
▁spesi	-11.2287
▁tsunami	-11.2287
▁Çocuğu	-11.2287
▁çorba	-11.2287
▁editör	-11.2287
▁talimat	-11.2287
▁Muhamm	-11.2287
▁Nelson	-11.2287
▁Arkadaşları	-11.2287
▁Şubat	-11.2287
▁oğlan	-11.2287
▁İsmi	-11.2287
▁düşünüp	-11.2287
▁obezite	-11.2287
▁Örgütü	-11.2287
▁ipucu	-11.2288
▁servet	-11.2288
▁eklem	-11.2289
▁GSM	-11.2289
▁dönüştürüyor	-11.2289
▁Polis	-11.229
▁Rock	-11.2291
▁format	-11.2292
▁görelim	-11.2292
▁gülümseme	-11.2293
▁besleme	-11.2293
▁profesörü	-11.2294
▁gerçekleşir	-11.2294
▁yüzeyde	-11.2303
▁bandı	-11.2303
▁verirler	-11.2305
▁istekleri	-11.2307
shi	-11.2308
▁bölü	-11.2308
▁yağı	-11.2309
▁geleneği	-11.2311
▁kullanıcıları	-11.2312
▁efekt	-11.2312
▁amaçlar	-11.2313
▁kullanacağım	-11.2316
yacaktır	-11.2317
landığında	-11.2319
▁ölçer	-11.232
▁baya	-11.2322
▁Kaçınız	-11.2323
▁öncelik	-11.2324
▁Fr	-11.2325
▁Yu	-11.2328
mazsınız	-11.233
▁kırıklığın	-11.2332
▁Tel	-11.2332
▁karakterler	-11.2334
▁oto	-11.2335
▁Yaptığım	-11.2336
▁destekçi	-11.2337
▁iyilik	-11.2339
▁sürüklen	-11.2339
▁niyetli	-11.234
laşır	-11.2341
▁koruyor	-11.2343
▁sağlığını	-11.2345
burg	-11.2351
▁karanlıkta	-11.2353
▁sağdaki	-11.2353
▁şov	-11.2356
▁önlemek	-11.2357
▁kolon	-11.2359
▁Normalde	-11.2361
▁ölmek	-11.2361
▁Cun	-11.2365
▁aktiv	-11.2365
▁okulları	-11.2366
▁Tar	-11.2367
▁koruy	-11.2369
▁politikacı	-11.2372
▁hissini	-11.2373
▁Aralık	-11.2374
▁dansı	-11.2374
▁engellemek	-11.2375
▁Gelin	-11.2376
▁seçilmiş	-11.2377
▁dediğini	-11.2378
oid	-11.2379
▁ormanlar	-11.2382
rsek	-11.2388
▁yayınlandı	-11.2388
▁söyledik	-11.2388
▁fabrikası	-11.2389
▁başarmış	-11.239
▁bilmediğimiz	-11.2393
▁duyulma	-11.2395
▁gerçeğin	-11.2396
▁güvenme	-11.2401
▁değiştiği	-11.2401
▁yaptığında	-11.2402
▁West	-11.2403
▁Brad	-11.2403
leştiril	-11.2405
▁çıkarın	-11.2407
▁isimlendir	-11.2407
▁hayatınızda	-11.2408
▁artar	-11.2409
▁kaplama	-11.2409
▁takdirde	-11.2409
▁düşünürdü	-11.2412
▁hapiste	-11.2413
▁gereklidir	-11.2414
▁yarıya	-11.2414
▁yazdığım	-11.2415
▁avlanma	-11.2416
▁arkadaşımı	-11.2422
▁anlamayı	-11.2425
▁Pra	-11.2427
▁ilgilenmeye	-11.2427
▁saklay	-11.2428
▁Eg	-11.2429
▁odaklanmak	-11.2431
▁aşkı	-11.2432
▁depolama	-11.2432
▁alışkanlık	-11.2433
▁bozukluk	-11.2439
▁uzana	-11.2443
▁edilmişti	-11.2444
ulu	-11.2447
▁deneyin	-11.2451
▁yolladı	-11.2452
▁paraya	-11.2453
▁Bayan	-11.2454
▁kader	-11.2454
▁durumla	-11.2456
▁belirsizlik	-11.2459
▁Çift	-11.2461
▁Hav	-11.2464
tis	-11.2466
lduğunda	-11.2467
▁Joe	-11.2468
▁lobi	-11.2473
▁kameralar	-11.2477
▁tahri	-11.2479
▁eğitil	-11.248
▁bağlam	-11.2484
▁kartları	-11.2488
▁hayalim	-11.2491
▁Cola	-11.2492
melerini	-11.2493
▁hayattaki	-11.2495
▁Demokrat	-11.2495
▁Dördüncü	-11.2495
▁Grön	-11.2495
▁Profesör	-11.2495
▁Singapur	-11.2495
▁argüman	-11.2495
▁asteroid	-11.2495
▁federal	-11.2495
▁festival	-11.2495
▁kulübe	-11.2495
▁Sekoya	-11.2495
▁bayrak	-11.2495
▁garaj	-11.2495
▁uyguluyor	-11.2495
▁tercüme	-11.2495
▁mühim	-11.2495
▁İlgi	-11.2495
▁Life	-11.2495
▁Şili	-11.2496
▁Brian	-11.2496
▁Politik	-11.2496
▁Köy	-11.2496
▁borsa	-11.2496
▁Ticaret	-11.2496
▁kuyu	-11.2497
▁kası	-11.2497
▁Josh	-11.2498
▁Lester	-11.2498
▁etkileyecek	-11.2498
▁Parça	-11.2499
▁cikar	-11.2499
▁uygulanabilir	-11.2499
▁Çince	-11.25
▁yönlü	-11.25
▁Aşk	-11.2501
▁gayri	-11.2501
▁II	-11.2502
▁sezgisel	-11.2503
▁donat	-11.2504
▁bilincin	-11.2504
▁Derin	-11.2505
▁Anlat	-11.2505
▁tanımlayan	-11.2508
▁düşünürüz	-11.251
▁çayır	-11.2511
▁SW	-11.2513
▁taşları	-11.2513
leşmeye	-11.2517
▁Bilme	-11.252
▁edebileceğimiz	-11.252
▁ilerler	-11.252
▁ilerleye	-11.2521
▁sarf	-11.2522
▁götüren	-11.2522
▁diyorsunuz	-11.2523
dayken	-11.2526
▁ayıran	-11.2527
▁hassasiyet	-11.2529
▁Ani	-11.2532
▁sonlarında	-11.2533
list	-11.2533
▁yerdi	-11.2535
▁Diğeri	-11.2536
▁tabiat	-11.2538
▁etse	-11.2538
▁oyuncuları	-11.2542
▁çapl	-11.2544
▁seven	-11.2545
▁ulaşan	-11.255
irsek	-11.2551
▁kaldırım	-11.2551
▁sıçrama	-11.2553
▁sektörü	-11.2553
▁duymaya	-11.2555
▁edeceksiniz	-11.2556
▁geldiklerinde	-11.2558
▁Dahası	-11.2559
▁kalkış	-11.256
▁kullandığınız	-11.2566
▁versiyonunu	-11.257
▁Pla	-11.257
▁gökyüzü	-11.2572
▁toplamı	-11.2572
▁yerleştirmek	-11.2573
▁My	-11.2575
▁çocuğunu	-11.2575
▁kodlama	-11.2576
▁üzgünü	-11.2579
▁Au	-11.258
▁aradım	-11.2587
▁bakmayı	-11.2587
▁yaramıyor	-11.2593
laştığı	-11.2594
▁maddeleri	-11.2599
▁olmazsa	-11.2601
bb	-11.2603
▁asal	-11.2606
▁çalışmış	-11.2607
▁yürümek	-11.2608
▁kaçırma	-11.2609
▁br	-11.2612
▁hareketlerini	-11.2613
▁no	-11.2613
emedik	-11.2613
▁görüştü	-11.2616
▁olgun	-11.2619
▁ikili	-11.262
▁zorlukları	-11.2621
▁Jack	-11.2623
▁düşünmenin	-11.2623
▁Yaptığı	-11.2623
▁doğrusal	-11.2625
ment	-11.2626
▁insanoğlunu	-11.2627
▁konuşmasını	-11.2627
laşan	-11.263
▁Dağı	-11.263
▁asılı	-11.2634
▁çiftleşme	-11.2641
▁maka	-11.2642
▁telefonlar	-11.2643
▁düzensiz	-11.2644
▁çeviriyor	-11.2645
▁edeceğini	-11.2646
▁saçı	-11.265
▁gitmişti	-11.2656
▁sözcük	-11.2658
lenmişti	-11.2659
▁gökyüzünde	-11.266
▁sıralarda	-11.2661
▁Hill	-11.2664
▁bilimci	-11.2665
▁eğitmek	-11.2665
▁kaybolma	-11.2665
▁Dediğim	-11.2666
▁hayranı	-11.2668
▁edemiyor	-11.267
▁ekliyor	-11.2671
▁anlatacak	-11.2673
▁komut	-11.2679
▁üretimin	-11.2679
▁okullarda	-11.2682
▁güldü	-11.2685
▁titre	-11.2685
▁elimi	-11.2686
▁kablolar	-11.2687
▁mikrofon	-11.2687
miyorsunuz	-11.2687
▁geliştiril	-11.269
▁ilgilenir	-11.2691
▁fırsatları	-11.2693
▁Batılı	-11.2697
▁medyada	-11.2699
▁öl	-11.2705
▁Hayatın	-11.2706
relim	-11.2707
▁sizlerin	-11.2708
▁Bangladeş	-11.2708
▁Detroit	-11.2708
▁Elektrik	-11.2708
▁astronot	-11.2708
▁hiyerarşi	-11.2708
▁örüntü	-11.2708
▁Aristo	-11.2708
▁Watson	-11.2708
▁sansür	-11.2708
▁çizelge	-11.2708
▁Soğuk	-11.2708
▁afet	-11.2708
▁gereç	-11.2708
▁Olimpiyat	-11.2708
▁opera	-11.2708
▁baloncuk	-11.2708
▁anlayabil	-11.2708
▁makul	-11.2708
▁keçi	-11.2708
▁dindar	-11.2708
▁Sekiz	-11.2709
▁ritmi	-11.2709
▁190	-11.2709
▁vaad	-11.2709
▁gerçekleri	-11.2709
▁logo	-11.271
▁Mayıs	-11.271
▁seferde	-11.271
▁yedek	-11.271
▁ellerim	-11.2711
▁bozucu	-11.2711
▁zihniyet	-11.2711
▁konuşmuyor	-11.2711
▁belirley	-11.2711
▁azınlık	-11.2712
▁Motor	-11.2712
▁Program	-11.2712
▁lanet	-11.2714
▁Hel	-11.2715
▁televizyonda	-11.2715
▁köpekler	-11.2716
▁kapsaya	-11.2716
▁madenci	-11.2716
▁gayret	-11.2717
▁kuvvetleri	-11.2719
▁Titan	-11.272
ebileceğim	-11.2722
▁yanınızda	-11.2722
dra	-11.2724
▁gerçeğini	-11.2727
cileri	-11.2728
▁çıkışı	-11.2728
meyiz	-11.2732
▁getirerek	-11.2733
▁uçar	-11.2738
▁Taş	-11.2741
▁yenme	-11.2743
▁anlayan	-11.275
▁yönelt	-11.275
▁boyutunda	-11.2752
▁güzeldi	-11.2753
digini	-11.2754
▁olmamızı	-11.276
▁Yapa	-11.2762
▁ateşi	-11.2762
▁arayan	-11.2763
▁bulmayı	-11.2765
▁eşitsizliği	-11.2765
▁kuşların	-11.2769
▁çizgisi	-11.2772
illa	-11.2772
▁büyümüş	-11.2774
▁katıldım	-11.278
▁nesiller	-11.2783
▁42	-11.2785
▁yaptığımızda	-11.2786
lacağı	-11.2787
▁koro	-11.2788
▁almıyor	-11.2793
▁Air	-11.2793
▁dönecek	-11.2795
▁hapis	-11.2798
▁paylaşacağım	-11.28
dilerim	-11.2802
▁gösterdim	-11.2803
▁emeklilik	-11.2804
▁olacağımız	-11.2805
▁paketi	-11.2806
▁ettiğinde	-11.2809
▁oğlumu	-11.2809
▁yapsa	-11.2811
▁Gözleri	-11.2814
▁varmak	-11.2814
▁Yü	-11.2817
▁koyuldu	-11.2817
▁Mat	-11.2818
▁cevapları	-11.2819
▁teknolojimiz	-11.2822
▁hakkını	-11.2826
▁bireyin	-11.2829
▁yarattığımız	-11.2829
▁Ortak	-11.2832
▁vatandaşlar	-11.2834
▁kazandık	-11.2837
landırıyor	-11.2837
▁yaşları	-11.2837
▁etmediği	-11.2839
sinizdir	-11.2848
▁fikirle	-11.2854
▁hazırlama	-11.2855
▁48	-11.286
▁görünüşü	-11.2862
▁astronomi	-11.2863
▁bileşeni	-11.2864
▁bilge	-11.2868
▁Görme	-11.2869
▁ulaşması	-11.287
▁düzeyinde	-11.2872
▁araştırmayı	-11.2877
▁büyüy	-11.2877
▁engelleri	-11.2879
▁kölelik	-11.2879
▁ameliyatı	-11.2881
▁unut	-11.2883
▁soracak	-11.2885
▁söylemedi	-11.2891
▁sözleşme	-11.2891
lendirdi	-11.2892
▁çalışmakta	-11.2892
▁koşullarda	-11.2892
▁gergin	-11.2893
▁öğrenmiş	-11.2895
▁yeteneklerini	-11.2895
▁sıralama	-11.2896
▁makinası	-11.2896
▁seçenekleri	-11.2897
▁önlem	-11.2899
▁yaralanma	-11.29
▁amacım	-11.2901
▁maya	-11.2901
▁ağlama	-11.2903
▁yazısı	-11.2904
▁sihir	-11.2907
▁kürek	-11.2907
▁Steven	-11.2911
▁Bre	-11.2917
▁geçirdiği	-11.2917
▁kırıklığı	-11.2917
▁giyiyor	-11.2918
▁beklediği	-11.2922
▁yüzeyin	-11.2923
▁mülteciler	-11.2924
▁olmamalı	-11.2925
▁iPod	-11.2926
▁İrlanda	-11.2926
▁şampiyon	-11.2926
▁röntgen	-11.2926
▁tişört	-11.2926
▁Bilinç	-11.2926
▁klişe	-11.2926
▁Somali	-11.2926
▁manevi	-11.2926
▁meyilli	-11.2926
▁öğüt	-11.2926
▁sızıntı	-11.2926
▁Mühendis	-11.2926
▁Kaide	-11.2926
▁istiyorsun	-11.2926
▁yürü	-11.2927
▁Karanlık	-11.2927
▁boyutları	-11.2928
▁gittiğinizde	-11.2928
▁Kök	-11.2928
▁kavuştu	-11.2929
▁düşündüğünü	-11.2932
▁başlamalıyız	-11.2932
▁Akıllı	-11.2933
▁hiper	-11.2934
▁Port	-11.2934
tiğini	-11.2935
▁parçasıdır	-11.2935
▁Kolay	-11.2937
▁etkilen	-11.2938
▁tarzda	-11.2938
▁duyulan	-11.2939
▁adaptasyon	-11.294
▁kafes	-11.294
▁44	-11.294
laşması	-11.2941
▁İncil	-11.2942
layabilirsiniz	-11.2943
▁yapacaklarını	-11.2943
▁modelleme	-11.2946
▁AB	-11.2947
▁Çek	-11.2948
▁hesapla	-11.2949
▁atın	-11.2949
▁Kas	-11.2952
▁gittiğim	-11.2955
tesi	-11.2956
▁şekl	-11.2965
▁sahibim	-11.2969
▁Olan	-11.2971
▁enerjisini	-11.2983
▁matematiğin	-11.2983
▁Amerikalıları	-11.299
▁gitmedi	-11.2993
acaklarını	-11.2994
▁politikası	-11.2996
▁delil	-11.2998
▁kullanacak	-11.2998
▁tart	-11.3002
▁yaşayabilir	-11.3006
▁birkaçı	-11.3006
▁şarkıcı	-11.3007
▁versiyon	-11.3008
▁hissettiği	-11.3009
▁buhar	-11.3011
▁merkezli	-11.3013
▁sorusunu	-11.3016
▁kaynaş	-11.3016
▁çıkmıştı	-11.3016
bel	-11.302
▁sizce	-11.3028
▁ilginçtir	-11.303
▁Arkadaş	-11.3032
▁panel	-11.3041
▁kavramlar	-11.3041
▁tema	-11.3041
▁beklentisi	-11.3042
▁duvarın	-11.3045
▁olsak	-11.3048
▁arkadaşlarını	-11.3048
▁katıldığı	-11.305
▁mat	-11.3052
▁dörtte	-11.3053
▁kanıtlama	-11.3055
▁belirlemek	-11.3056
▁bulunması	-11.3057
▁üzgün	-11.306
dığınızı	-11.3061
▁evleri	-11.3067
▁tüketiciler	-11.307
▁başarma	-11.3073
▁benliğin	-11.3074
▁yöneticileri	-11.3075
▁yerindeki	-11.3076
▁olduklarından	-11.3077
▁İkisi	-11.3081
▁taraftaki	-11.3083
▁şanslıydı	-11.3084
▁ayaklanma	-11.3085
▁bilgilerini	-11.3087
▁War	-11.3088
▁Dar	-11.3089
▁sembolü	-11.309
daydım	-11.3093
▁uçuşu	-11.3094
▁kısmının	-11.3102
▁gelişimin	-11.3102
▁parçacık	-11.3103
▁yolumuz	-11.3103
▁hataları	-11.3107
▁buldukları	-11.3107
▁sağda	-11.3111
▁sınıfın	-11.3118
▁çevrili	-11.312
▁kadınla	-11.3121
▁kitab	-11.3122
▁kabar	-11.3128
▁başlangıcında	-11.3128
▁dilinde	-11.3132
▁itme	-11.3136
▁imkân	-11.3136
▁Ağ	-11.3138
▁arkasın	-11.3141
▁neresi	-11.3142
▁İskoç	-11.3148
▁Sıfır	-11.3148
▁fevkalade	-11.3148
▁müslüman	-11.3148
▁omurilik	-11.3148
▁soykırım	-11.3148
▁tansiyon	-11.3148
▁çekirdeği	-11.3148
▁ürkütücü	-11.3148
▁Kulağa	-11.3148
▁coşku	-11.3148
▁ipuçları	-11.3148
▁nötr	-11.3148
▁Homo	-11.3148
▁Leonardo	-11.3148
▁Türkiye	-11.3148
▁Fazla	-11.3148
▁enkaz	-11.3148
▁mucit	-11.3148
▁gökada	-11.3148
▁Sınır	-11.3148
▁israf	-11.3149
▁nerdeyse	-11.315
▁düşündükleri	-11.315
▁kuruldu	-11.315
▁sayılmaz	-11.315
▁diger	-11.3151
▁ölçtü	-11.3151
▁safha	-11.3152
▁Şurada	-11.3154
▁hı	-11.3155
DR	-11.3155
▁tuttur	-11.3155
▁kurumu	-11.3155
▁döneceği	-11.3155
▁detaylar	-11.3156
elanda	-11.3156
▁yaradığını	-11.3158
▁bakılır	-11.3159
▁beklentileri	-11.3159
abileceğimizi	-11.3163
▁yansıtma	-11.3163
▁EM	-11.3163
▁görüyorlar	-11.3164
▁okuyan	-11.3165
▁düzenley	-11.3166
▁otuz	-11.3166
▁2002	-11.3166
▁birleşimi	-11.3169
▁satan	-11.3171
▁Tesl	-11.3171
▁yasalar	-11.3173
▁bilgisayarları	-11.3176
▁eyaletler	-11.3179
▁memnuniyet	-11.3179
▁amaçları	-11.3181
▁alacağım	-11.3183
▁yüklü	-11.3184
▁işaretleri	-11.3184
▁mutluluğun	-11.3187
▁robotu	-11.3188
▁Afrikalılar	-11.3189
▁patron	-11.3189
▁Gri	-11.3191
▁çevresindeki	-11.3192
▁soldaki	-11.3194
▁körü	-11.3198
▁gözünde	-11.3198
▁alabiliriz	-11.3201
▁gezegenimiz	-11.3201
▁arkamda	-11.3202
▁kuvveti	-11.3203
▁katılan	-11.3205
leştirmeye	-11.3205
▁virüsün	-11.3207
▁anlaşılır	-11.3208
▁insanlığı	-11.321
▁isimlerini	-11.3211
▁yapıda	-11.3212
leştirir	-11.322
gini	-11.3223
▁süpermarket	-11.3223
▁laf	-11.3225
▁sağır	-11.3226
▁seyirciler	-11.3227
unuzda	-11.3228
▁toplulukları	-11.3229
▁Gelecekte	-11.3229
▁heyecanlandır	-11.3229
▁Değiş	-11.323
▁engelleye	-11.3232
▁verebilecek	-11.3232
▁set	-11.3232
▁Mimar	-11.3234
▁tele	-11.3236
▁Cok	-11.3236
▁konuştuğu	-11.3239
▁indirme	-11.3241
▁değiştirebil	-11.3241
▁hikâyeler	-11.3242
▁rolünü	-11.3243
▁bağları	-11.3248
▁silahı	-11.325
▁petrolün	-11.3251
▁bedenim	-11.3253
MS	-11.3256
▁gönderir	-11.3256
▁arayışı	-11.3259
▁350	-11.326
▁geçmeye	-11.3262
▁eviniz	-11.3265
▁dikil	-11.3271
▁kala	-11.3273
ung	-11.3276
▁üretti	-11.3277
▁gitmemiz	-11.3279
▁Fran	-11.3279
▁Çocukları	-11.328
▁isimleri	-11.3284
▁vizyonu	-11.3285
▁hayalini	-11.3286
▁üstündeki	-11.3286
▁Hans	-11.3288
▁dilde	-11.3289
▁tamamlama	-11.3291
▁maliyetleri	-11.3297
▁kaldığını	-11.3298
▁Sonsuz	-11.3299
▁kapattı	-11.3299
▁Mısırlı	-11.3302
▁55	-11.3304
▁iplik	-11.3307
▁filan	-11.331
▁yıldızları	-11.3316
▁santral	-11.3317
▁kıyafetleri	-11.3317
▁bilirsin	-11.3319
▁çarptı	-11.3319
▁aydınlatma	-11.3323
▁şüpheci	-11.3324
▁almaları	-11.333
▁ölçeği	-11.3335
▁çök	-11.3335
▁sınırların	-11.3337
▁görünebilir	-11.3339
▁edeceği	-11.3341
layalım	-11.3341
▁endişelenme	-11.3342
▁keşifler	-11.3343
▁aya	-11.3346
▁düşünmüş	-11.3346
▁iniyor	-11.3349
lemez	-11.335
▁karşıt	-11.3354
▁sokağ	-11.3359
▁erkekleri	-11.336
▁taksi	-11.3366
▁öğretir	-11.3367
ılmaya	-11.3367
▁döndüğüm	-11.3368
▁gündem	-11.3369
80	-11.3372
larınızda	-11.3373
eographic	-11.3375
▁Hawaii	-11.3375
▁Köpek	-11.3375
▁asansör	-11.3375
▁entropi	-11.3375
▁hoparlör	-11.3375
▁çeyrek	-11.3375
▁fizyoloji	-11.3375
▁implant	-11.3375
▁mektubu	-11.3375
▁kraliçe	-11.3375
▁Nefes	-11.3375
▁İlaç	-11.3375
▁Hukuk	-11.3375
▁sıçan	-11.3375
▁alıştırma	-11.3375
▁hatıra	-11.3375
çüncüsü	-11.3376
▁Yaptıkları	-11.3376
▁çıkartma	-11.3376
▁Yeteri	-11.3376
▁komedi	-11.3377
▁dağılımı	-11.3377
▁kabullenme	-11.3377
▁cephe	-11.3378
▁bilmeyen	-11.3378
▁fırla	-11.3379
▁sistemimizi	-11.3379
▁başımıza	-11.3381
▁kurucu	-11.3381
▁sorununu	-11.3381
▁olaya	-11.3381
▁çıktılar	-11.3383
▁solda	-11.3385
▁görüşlü	-11.3385
ılmamış	-11.3385
▁bükül	-11.3386
▁etrafımızdaki	-11.3386
▁kalıntıları	-11.3387
▁tavır	-11.3387
▁kontrolünü	-11.3388
▁Mah	-11.3388
yahut	-11.339
▁dolaşım	-11.3391
▁Başlangıçta	-11.3395
▁gerekçe	-11.3398
▁tabir	-11.3401
▁Patlama	-11.3404
▁Linu	-11.3404
▁bulaş	-11.3405
▁yönünü	-11.3406
▁oynadığı	-11.3409
▁verilmiş	-11.3412
larınıza	-11.3415
▁televizyonu	-11.3417
▁açabilir	-11.3417
▁kaldırmak	-11.3428
▁bitiyor	-11.3428
▁amatör	-11.3429
▁emir	-11.3431
▁bileşenleri	-11.3439
▁almadı	-11.3441
▁dağlar	-11.3442
▁dirençli	-11.3445
▁sektörün	-11.3445
▁denetle	-11.3446
▁dersin	-11.3446
▁karıştırma	-11.3449
▁yöntemle	-11.3451
▁Juli	-11.3453
ebiliyordu	-11.3454
lmasını	-11.3454
▁harcadığı	-11.3456
▁harcar	-11.3457
▁gökyüzün	-11.3459
amıyorum	-11.346
▁basar	-11.3461
▁vuruş	-11.3462
▁izley	-11.3462
▁işsiz	-11.3466
▁derse	-11.3471
▁sarma	-11.3478
▁edemeyeceği	-11.3479
▁İnsanlık	-11.3481
▁itti	-11.3484
▁yaşamlarını	-11.3485
▁cesareti	-11.3486
▁geçişi	-11.3488
▁makinalar	-11.3488
ham	-11.3496
▁söylediğini	-11.3497
▁tutmaya	-11.3498
akın	-11.3498
▁çıkarmaya	-11.3499
▁koleksiyonu	-11.35
▁farketti	-11.35
▁inandığım	-11.3505
▁ruhunu	-11.3506
▁taraflı	-11.3507
▁yayma	-11.3509
▁sezon	-11.3509
▁çıkardığımız	-11.3509
▁Nik	-11.3511
▁sayma	-11.3514
▁baktığı	-11.3518
▁hareketsiz	-11.3519
▁çağda	-11.3522
▁işinde	-11.3524
▁Kendinizi	-11.3524
▁eyaleti	-11.3527
▁görevlisi	-11.3527
▁olmamış	-11.3529
▁Julia	-11.3529
▁dinin	-11.353
▁bağlamak	-11.3533
▁beceriler	-11.3535
▁uğraşmak	-11.3537
▁becerisi	-11.3538
▁atlat	-11.354
▁yaşayacağı	-11.3541
▁yönleri	-11.3541
▁ekonomistler	-11.3542
▁sıçra	-11.3544
zdan	-11.3547
▁Pop	-11.3549
▁ofisim	-11.3552
amıyorlar	-11.3555
▁Günde	-11.3556
▁bilimciler	-11.3557
▁karşılaştığı	-11.356
▁çekmeye	-11.3561
▁genişletme	-11.3565
▁sıkışı	-11.3567
▁fonksiyonu	-11.3568
▁arabaların	-11.357
▁kurtulu	-11.3573
▁objeler	-11.3577
▁yöneticisi	-11.3578
▁duvarlar	-11.3581
▁gördüğünüzde	-11.3581
rdım	-11.3582
▁mikrop	-11.3591
▁resimlerini	-11.3591
▁organlar	-11.3592
▁kapatmak	-11.3593
sünüz	-11.3594
▁mülk	-11.3595
▁toplandı	-11.3597
▁Devri	-11.3597
▁SS	-11.3598
▁yığını	-11.3599
▁ettirmek	-11.36
▁giderler	-11.3601
▁içgüdü	-11.3603
DI	-11.3605
▁çiğ	-11.3607
▁Rüzgar	-11.3608
▁Tanzanya	-11.3608
▁World	-11.3608
▁montaj	-11.3608
▁müfredat	-11.3608
▁reaktör	-11.3608
▁santimetre	-11.3608
▁transistör	-11.3608
▁turuncu	-11.3608
▁yelpaze	-11.3608
▁şizofreni	-11.3608
▁veritabanı	-11.3608
▁hırsız	-11.3608
▁karides	-11.3608
▁kucuk	-11.3608
▁milimetre	-11.3608
▁Ağaç	-11.3608
▁ihmal	-11.3608
▁Teksas	-11.3608
▁Tunus	-11.3608
▁genetiği	-11.3608
▁feet	-11.3608
▁Şiir	-11.3608
▁Yüzlerce	-11.3608
▁edebiyat	-11.3608
▁simdi	-11.3608
▁bizzat	-11.3608
▁feda	-11.3608
▁Diyelim	-11.3608
▁iğrenç	-11.3608
▁kelimelerin	-11.3608
▁Birbirimiz	-11.3608
▁kayboluyor	-11.3609
▁muhafazakar	-11.3609
▁1930	-11.3609
▁seçkin	-11.3609
▁icadı	-11.3609
▁kademe	-11.361
▁Tre	-11.361
▁tav	-11.361
▁selam	-11.361
▁damga	-11.361
▁romantik	-11.3611
▁dibinde	-11.3612
▁etrafınızda	-11.3612
▁Renk	-11.3612
▁ortağı	-11.3613
▁dönersek	-11.3613
▁hissediyorsunuz	-11.3614
▁degis	-11.3615
gas	-11.3616
▁konuşalım	-11.3616
▁sığır	-11.3618
▁surat	-11.3621
▁64	-11.3622
▁Ordu	-11.3623
▁Bugünkü	-11.3625
▁sınırlarını	-11.3626
▁adlandırdığımız	-11.3626
▁bazlı	-11.3626
abilsin	-11.3627
▁verilerini	-11.3628
▁başlarsınız	-11.363
▁yemeğ	-11.3631
▁eşittir	-11.3631
▁tarafinda	-11.3632
itler	-11.364
▁sark	-11.3643
▁ekledik	-11.3645
▁Birbirleri	-11.3646
▁Kuş	-11.3649
▁kayı	-11.365
▁bulundukları	-11.3651
▁doğasını	-11.3652
▁şunlar	-11.3654
liyorlar	-11.3655
▁tüy	-11.366
▁gerçekleştirme	-11.3663
rün	-11.3663
▁Rose	-11.3663
▁dilek	-11.3665
▁toprağ	-11.3669
▁izlemeye	-11.3672
▁yorumlama	-11.3672
▁koyan	-11.3673
▁engelle	-11.3677
EC	-11.3678
▁yürütme	-11.3678
▁yapmazsa	-11.368
▁öğrenim	-11.3682
labileceği	-11.3689
▁eklemek	-11.369
▁temsili	-11.369
▁tasarlandı	-11.369
▁seyler	-11.3692
▁boyutlar	-11.3695
▁tabakası	-11.3695
▁sözünü	-11.3702
▁bırakan	-11.3702
astro	-11.3704
▁belirler	-11.3707
▁uzunluğu	-11.3708
▁kahkaha	-11.371
▁ekranın	-11.3717
▁hazırlık	-11.3717
▁yazmıştı	-11.3719
▁keşfettiğimiz	-11.372
▁olmadığımız	-11.3723
▁duyacağı	-11.3726
▁IM	-11.3727
▁Pre	-11.3732
▁kastediyoru	-11.3737
▁görmediği	-11.3737
▁ailesini	-11.3737
duğunda	-11.374
▁eylemi	-11.3741
▁kullanıldığını	-11.3741
▁itibari	-11.3747
▁biçimleri	-11.3749
▁Diş	-11.3749
▁sosyo	-11.3749
▁yollarda	-11.375
▁teorik	-11.3751
▁har	-11.3751
▁dergisinde	-11.3756
▁ormanların	-11.3763
▁robotların	-11.3763
▁sağlamaya	-11.3764
▁kesimi	-11.3766
▁Saray	-11.3768
▁kaldırdı	-11.3768
kül	-11.377
▁problemini	-11.3771
▁babaları	-11.3773
▁arkadaşlık	-11.3773
zyon	-11.3775
▁değiştirmemiz	-11.3784
▁çalışanı	-11.3787
ilip	-11.3791
▁evli	-11.3792
▁kurallarını	-11.3792
▁ofisin	-11.3798
▁haklar	-11.3802
ildiğini	-11.3806
▁okuyu	-11.3808
▁gerçekleştiği	-11.3814
▁pist	-11.3816
▁edemedi	-11.3817
▁Mill	-11.3817
▁koç	-11.382
▁uğraştığı	-11.3821
▁gördükleriniz	-11.3821
▁başlayacağım	-11.3822
▁uğraştı	-11.3823
▁farkli	-11.3823
▁yapabileceğini	-11.3823
mazdı	-11.3825
▁açım	-11.383
▁doğduğum	-11.3832
▁Hakları	-11.3835
▁ikimiz	-11.3836
▁şansınız	-11.3842
lendiriyor	-11.3842
▁çevrim	-11.3846
▁Apollo	-11.3846
▁Danimarka	-11.3846
▁döşe	-11.3846
▁kaplumbağa	-11.3846
▁mahremiyet	-11.3846
▁mahrum	-11.3846
▁teyze	-11.3846
▁trajik	-11.3846
▁tuğla	-11.3846
▁Çoğunlukla	-11.3846
▁Görüntü	-11.3846
▁kriter	-11.3846
▁sağduyu	-11.3846
▁pekço	-11.3846
▁Sıcak	-11.3846
▁piksel	-11.3846
▁rutin	-11.3846
▁tokuş	-11.3846
▁Aşama	-11.3846
▁Milyonlar	-11.3846
▁tasarlıyor	-11.3846
▁panik	-11.3846
▁Fakir	-11.3846
▁Görünen	-11.3846
▁Dunya	-11.3847
▁Uzak	-11.3847
▁Mike	-11.3847
▁dileğim	-11.3847
▁yelken	-11.3847
▁Albert	-11.3848
▁yaşlandık	-11.3848
▁Cap	-11.3849
▁vali	-11.385
▁mantıksız	-11.385
▁LG	-11.3851
▁gürültülü	-11.3851
▁yapılabilecek	-11.3852
▁mesajlar	-11.3852
▁ulke	-11.3853
▁beslemek	-11.3853
▁söylemiyorum	-11.3853
layayım	-11.3853
▁kadin	-11.3854
▁alışkın	-11.3854
▁girişi	-11.3854
▁kullanmış	-11.3855
▁tersini	-11.3855
▁ücreti	-11.3857
▁konumu	-11.3859
▁Düzen	-11.386
▁alabilecek	-11.3861
▁açılı	-11.3864
▁Mesele	-11.3865
▁doluydu	-11.3868
emeyen	-11.3869
▁sakın	-11.3872
▁ayakkabıları	-11.3872
▁parçacıkları	-11.3878
▁geldiğimizde	-11.3879
▁ekonomimiz	-11.3879
ebiliyorsunuz	-11.388
▁keşfediyor	-11.3882
▁Mas	-11.3883
▁isteyecek	-11.3883
▁arıyoruz	-11.3883
▁neresinde	-11.3884
▁Deneyim	-11.3885
▁binaları	-11.3886
▁birikim	-11.3886
▁şekillendirme	-11.3888
▁gercek	-11.3889
▁Asli	-11.3889
▁çıkarabilir	-11.3891
▁Ateş	-11.3893
▁yapılandır	-11.3898
▁dolaşıyor	-11.3902
gat	-11.3902
▁geliştirdiği	-11.3903
▁tablosu	-11.3907
▁delikler	-11.3914
▁Barış	-11.3914
▁ediyorlardı	-11.3916
ooh	-11.3916
▁büyüdük	-11.3918
▁oluşması	-11.392
▁dostu	-11.3922
▁Yapmak	-11.3926
leyebilirsiniz	-11.3928
▁ihtiyaçlarını	-11.3928
lüğünü	-11.3931
▁hissettiğiniz	-11.3931
▁işleyişi	-11.3932
▁paylaşıyor	-11.3934
▁Test	-11.3934
▁anladığım	-11.3937
▁laboratuvarı	-11.3938
ligin	-11.3938
▁aktarma	-11.3938
▁Hayvanlar	-11.3939
▁keser	-11.3939
▁dayanır	-11.394
▁boyunda	-11.394
▁toplayı	-11.395
▁bulduğu	-11.3955
▁öldürüldü	-11.3956
▁izledik	-11.3958
ju	-11.3961
▁Str	-11.3964
loğu	-11.3964
▁William	-11.3965
▁uçakta	-11.3968
▁kardeşleri	-11.397
▁planlıyor	-11.3973
▁Hastalık	-11.3975
▁Aksi	-11.3975
abildiğini	-11.3977
bro	-11.3978
▁açıklık	-11.3978
▁sektöründe	-11.398
BM	-11.3982
▁mutfak	-11.3985
▁taşınabilir	-11.3987
▁yükseliyor	-11.3988
▁aracını	-11.3988
▁şehirlerimiz	-11.3989
▁bitkileri	-11.3991
▁bahsettim	-11.3993
labildiği	-11.3993
▁görüntülerin	-11.3994
abiliyorum	-11.3995
▁verimlilik	-11.3995
▁72	-11.3995
▁şaşırt	-11.4
▁şaşkın	-11.4002
▁çizer	-11.4002
▁riskini	-11.4003
sever	-11.4004
▁dilimi	-11.4004
▁şehirdeki	-11.4005
▁ayrımı	-11.4008
▁geleceğimiz	-11.4011
▁alay	-11.4011
▁dalgalar	-11.4011
▁Başta	-11.4013
▁uzlaşma	-11.4018
arth	-11.4019
▁grafikler	-11.4025
▁istemişti	-11.4025
▁hatası	-11.4026
amadık	-11.4027
▁yerleştiriyor	-11.4031
▁zamanım	-11.4035
▁istemey	-11.4035
▁ayrıldı	-11.4036
▁sınırlama	-11.4043
▁Şirketi	-11.4046
▁olduğuyla	-11.4046
▁beste	-11.4047
▁bakıyoru	-11.4049
▁sevmiyor	-11.405
▁objeleri	-11.4055
▁olduklarında	-11.4056
lamazsınız	-11.4061
▁gerekmez	-11.4061
▁karalama	-11.4062
▁bulunduğum	-11.4065
▁karşılaşır	-11.4066
▁kitabında	-11.4068
HC	-11.407
▁midir	-11.4072
▁sağlayabil	-11.4073
▁istatistikler	-11.4075
▁kelimesinin	-11.4076
▁çalmak	-11.4078
ilmis	-11.408
hol	-11.4081
▁karşılaştığım	-11.4082
▁sağlıyorlar	-11.4084
▁atladı	-11.4085
▁sürecek	-11.4086
▁tırmanma	-11.4087
▁paylaştığımız	-11.4088
▁döl	-11.409
▁zahmet	-11.409
▁Şüphe	-11.409
▁Ağustos	-11.409
▁Disney	-11.409
▁Ebeveynler	-11.409
▁Nüfus	-11.409
▁apartman	-11.409
▁buzdolabı	-11.409
▁kıvrıl	-11.409
▁nispet	-11.409
▁randevu	-11.409
▁sadakat	-11.409
▁senkroniz	-11.409
▁böbrek	-11.409
▁pizza	-11.409
▁gümüş	-11.409
▁borcu	-11.409
▁buğday	-11.409
▁Umut	-11.409
▁icra	-11.409
▁nazar	-11.409
▁stok	-11.409
▁yaptigi	-11.409
▁köpekbalığı	-11.409
▁çıkıntı	-11.409
▁telefonunuz	-11.409
▁olağandışı	-11.409
▁Dinleyici	-11.409
▁varolan	-11.409
▁metabolizma	-11.409
▁Göster	-11.4091
▁çete	-11.4091
▁Dön	-11.4091
▁Clint	-11.4091
▁Long	-11.4093
▁31	-11.4093
▁1900	-11.4093
▁ölümsüz	-11.4093
▁hemşireler	-11.4095
▁çekilen	-11.4095
▁havalandırma	-11.4097
▁tuna	-11.4098
▁aksiyon	-11.4102
▁sorarsanız	-11.4102
▁Bildiğimiz	-11.4104
▁öğrenecek	-11.4104
▁deneyelim	-11.4106
▁birincisi	-11.4106
▁açılan	-11.4107
▁anlayı	-11.411
off	-11.411
▁bağlama	-11.4111
▁tutkum	-11.4112
▁Ted	-11.4113
▁Dışarıda	-11.4114
▁açacak	-11.4116
▁yapılmıştı	-11.4117
▁amacımız	-11.4118
▁üstte	-11.4119
▁gezdir	-11.4121
▁Rand	-11.4121
▁düzeltmek	-11.4122
▁büyükbabam	-11.4123
▁üstel	-11.4124
▁Parti	-11.4124
▁hatırlattı	-11.4124
▁inançları	-11.4125
lmesi	-11.4134
▁Saç	-11.4135
▁verimliliği	-11.4139
▁Carolin	-11.4142
▁organizasyonlar	-11.4143
▁işlet	-11.4146
▁hidro	-11.4147
▁yemin	-11.4151
▁yapmadığı	-11.4154
▁götürecek	-11.4156
▁ped	-11.4157
▁söyleyeme	-11.4157
▁karışma	-11.4157
▁RNA	-11.4159
liyoruz	-11.4159
▁grupların	-11.4159
▁soya	-11.416
diğinizi	-11.4161
▁konferansın	-11.4161
▁diğerinin	-11.4162
▁anlaş	-11.4162
üydü	-11.4163
tansa	-11.4163
▁eleştir	-11.4163
▁duyacak	-11.4165
düz	-11.4165
tay	-11.4166
▁bölgelerin	-11.4167
▁gelecektir	-11.4168
▁yönetiyor	-11.4168
▁çözer	-11.4172
▁değiştirdiği	-11.4174
▁oluşturduğumuz	-11.4175
OL	-11.4176
▁dönemin	-11.4176
▁lob	-11.4181
▁düşünürü	-11.4186
▁sorgula	-11.4186
▁heyecanlıyı	-11.4187
▁adamdı	-11.4188
▁kampı	-11.419
▁biriyim	-11.419
▁Kom	-11.4194
all	-11.4199
▁açtık	-11.4204
▁tanıdığım	-11.4206
abiliyorsunuz	-11.4206
ilmesini	-11.4207
▁bilmem	-11.4213
amayacağını	-11.4214
▁duygusunu	-11.4214
▁sos	-11.4215
▁öğrendiği	-11.4216
▁hip	-11.4227
▁alem	-11.4227
▁adresi	-11.4228
▁yapmanızı	-11.4229
▁saçmalık	-11.4231
▁kırıl	-11.4232
▁Gezegeni	-11.4239
▁yetisi	-11.424
▁yarasalar	-11.4241
▁ailemi	-11.4242
▁hatalı	-11.4242
▁döndüğünü	-11.4243
▁geçebilir	-11.4244
▁başını	-11.4244
▁çocuklardan	-11.4246
▁yanılma	-11.4246
▁kıyısında	-11.4247
▁kopyalama	-11.4248
▁gözlemledi	-11.4249
▁paylaşımı	-11.425
▁ortama	-11.4255
▁döndürü	-11.4257
▁yakma	-11.426
▁Geçmişte	-11.4261
▁beslen	-11.4261
ilmemiş	-11.4261
▁olabilirim	-11.4261
layacağını	-11.4266
▁Mes	-11.4268
▁masrafları	-11.4268
▁geçim	-11.427
meyeceğiz	-11.4273
▁kimseyi	-11.4274
▁yaşadığınız	-11.4276
▁öğretim	-11.4278
▁okyanusu	-11.4278
▁zenginliği	-11.4279
▁ulaşacak	-11.4281
▁Sudan	-11.4282
▁Haber	-11.4282
▁fenomeni	-11.4283
▁değişikliğini	-11.4285
▁Gitti	-11.4291
▁geometri	-11.4291
▁isteyeceği	-11.4293
▁görevler	-11.4296
▁ulaşama	-11.4296
▁Ortada	-11.4297
▁geçtiğini	-11.4301
▁Lab	-11.4301
▁yaptığınızı	-11.4301
▁savaştı	-11.4302
▁oturmak	-11.4317
▁ölçüsü	-11.432
▁kesit	-11.4323
▁geliştirir	-11.4325
▁düzel	-11.4325
▁getirdiler	-11.4326
▁kaydetme	-11.4327
▁Elimizde	-11.4328
way	-11.4335
▁kuruluşlar	-11.4336
▁keşfetmeye	-11.4336
▁öğretmenlerin	-11.4338
▁Karmaşık	-11.434
▁demografik	-11.434
▁dublör	-11.434
▁embriyo	-11.434
▁füzyon	-11.434
▁orjinal	-11.434
▁yerçekimi	-11.434
▁isabet	-11.434
▁Konseyi	-11.434
▁berber	-11.434
▁Brooklyn	-11.434
▁Şaşırtıcı	-11.434
▁sperm	-11.434
▁albüm	-11.434
▁Bakanı	-11.434
▁yorucu	-11.434
▁imha	-11.434
▁ezber	-11.4341
▁bakmamız	-11.4341
▁bulanık	-11.4341
▁leke	-11.4341
▁Selam	-11.4342
▁dışarda	-11.4342
▁izlenim	-11.4342
▁uçağ	-11.4343
▁doğuşu	-11.4343
▁evrimleşme	-11.4344
▁Johnson	-11.4345
▁kütlesi	-11.4345
▁Mich	-11.4345
▁Laboratuvarı	-11.4346
▁Bat	-11.4347
▁basıncı	-11.4347
▁tutucu	-11.4347
▁koyacağı	-11.4348
▁bitiş	-11.4349
▁gezegenimizi	-11.4351
▁dolaşan	-11.4353
▁Görsel	-11.4354
▁balta	-11.4354
▁Cent	-11.4355
▁istediğinizi	-11.4355
▁mülkiyet	-11.4356
▁işlevi	-11.4357
▁Suud	-11.4363
▁çeşitliliğin	-11.4363
▁uzmanlık	-11.4363
▁denekler	-11.4364
▁edemeyi	-11.4365
▁duş	-11.4366
▁pul	-11.4367
▁girmeye	-11.4369
▁şüpheli	-11.4369
▁ödemek	-11.437
▁bahçesinde	-11.437
▁şuradaki	-11.4373
▁İşim	-11.4374
▁görmesi	-11.4374
▁paylaşan	-11.4376
▁çalışırlar	-11.4377
▁koymaya	-11.4378
▁üretilmiş	-11.4381
▁erişme	-11.4383
▁tabanlı	-11.4383
▁00	-11.4385
▁ulaşabilir	-11.4385
▁söylediğimde	-11.4386
▁yorumlar	-11.4389
ciliği	-11.4389
▁hayl	-11.439
▁başlıyorum	-11.4401
▁düzlem	-11.4401
▁edindi	-11.4402
▁birçoğunuz	-11.4402
▁koruna	-11.4409
▁uret	-11.4409
▁cami	-11.4411
▁etkinliği	-11.4413
▁atıp	-11.4414
▁erime	-11.4416
leştirici	-11.4419
▁yaymak	-11.4422
▁yapamadığı	-11.4423
▁raporu	-11.4424
▁kariyerim	-11.4425
▁verilir	-11.443
▁yapacağımı	-11.443
▁tamamladı	-11.4432
▁Resmi	-11.4433
▁çocuğunuz	-11.4437
▁simülasyon	-11.4438
▁olduğunuzda	-11.4438
▁anladığımız	-11.4439
▁düzeyi	-11.4442
▁yapacağımızı	-11.4446
malıyım	-11.4446
▁pili	-11.445
▁gelirli	-11.445
▁parkı	-11.445
▁hedefleri	-11.4451
▁eylemleri	-11.4453
▁gözlerinizi	-11.4456
bül	-11.4457
▁Oğlum	-11.4458
▁vurdu	-11.4461
▁kahramanı	-11.4463
▁Mur	-11.4463
▁şanslıyı	-11.4465
▁dert	-11.4468
▁görevleri	-11.4473
▁burs	-11.4475
ront	-11.4477
▁kurtarıl	-11.4478
▁robotları	-11.4482
▁öğretmenin	-11.4487
miyordum	-11.4495
▁konuşuyorlar	-11.4496
▁çıkarsa	-11.4496
şer	-11.4497
▁hatırlamak	-11.4497
▁vermedi	-11.4501
abildiğimiz	-11.4502
▁veriliyor	-11.4502
▁sebebini	-11.4502
▁izleyiciler	-11.4503
▁saldırısı	-11.4504
▁Radyo	-11.4504
▁sürmek	-11.4506
▁girecek	-11.4506
▁yaklaşma	-11.4507
▁balinalar	-11.4508
▁heyecanlıydı	-11.451
▁grubunu	-11.4512
▁olabilmek	-11.4513
▁Ladin	-11.4518
▁CR	-11.4519
▁ayakkabılar	-11.4519
▁izleri	-11.452
üzün	-11.4521
▁dişleri	-11.4522
▁kökeni	-11.4523
▁dünyamızda	-11.4529
▁toplulukta	-11.453
▁Diyor	-11.4535
▁uzmanlaş	-11.4536
▁etkilendi	-11.4536
▁dalgası	-11.4537
▁görebileceği	-11.4538
▁güvence	-11.4539
▁yazmış	-11.454
ano	-11.4542
▁lezzet	-11.4544
▁sevdiğimiz	-11.4545
▁başarama	-11.4545
▁turist	-11.4546
▁öğreniyorlar	-11.4546
▁yüzeyini	-11.4547
▁dünyamız	-11.4549
▁sis	-11.4549
row	-11.455
▁inanmayı	-11.455
▁yuz	-11.4551
▁bittiği	-11.4552
▁kaçış	-11.4555
▁karışım	-11.4556
▁anlatıcı	-11.4558
▁potansiyelini	-11.456
▁salonda	-11.456
▁altını	-11.4562
▁gönderildi	-11.4562
▁planda	-11.4562
▁temelini	-11.4565
▁başlatma	-11.4566
▁suçu	-11.457
▁seçtiği	-11.457
▁Bilgisayarlar	-11.4574
▁Kad	-11.4575
▁titreş	-11.4575
▁Ders	-11.4576
▁içeriğin	-11.4579
▁derinliklerin	-11.458
▁katmanı	-11.4588
▁Akıl	-11.4589
▁yırt	-11.4589
▁alınması	-11.4591
▁sömür	-11.4596
▁Atlanta	-11.4596
▁Yağmur	-11.4596
▁beyzbol	-11.4596
▁dolaylı	-11.4596
▁domates	-11.4596
▁dönüştürücü	-11.4596
▁kıvrım	-11.4596
▁çığlık	-11.4596
▁Ciddi	-11.4596
▁kopuk	-11.4596
▁Libya	-11.4596
▁protokol	-11.4596
▁kostüm	-11.4596
▁tasarim	-11.4596
▁melodi	-11.4596
▁obez	-11.4596
▁Büyükanne	-11.4596
▁ihtiyar	-11.4596
▁Sınıf	-11.4596
▁hacim	-11.4596
▁tayf	-11.4596
▁ıslık	-11.4597
▁dönmeye	-11.4597
▁ziyan	-11.4597
▁tapir	-11.4597
▁yapışkan	-11.4597
▁Uçak	-11.4597
▁Şef	-11.4597
▁kabus	-11.4598
▁oluşturulmuş	-11.4598
▁alışık	-11.4598
▁çadır	-11.4599
▁bulunmuyor	-11.4599
▁dizileri	-11.4599
▁döneme	-11.4599
▁gözetim	-11.46
▁açıklayacağım	-11.46
▁Kong	-11.46
▁Lego	-11.4601
▁katılımı	-11.4601
▁güçsüz	-11.4602
▁söylenir	-11.4603
▁yapamazsınız	-11.4604
▁yaramadı	-11.4605
▁ortalıkta	-11.4605
▁aydınlanma	-11.4607
▁çöktü	-11.4607
▁haksız	-11.4609
▁ettiğimizde	-11.461
▁Kendimiz	-11.4612
ebildiğimiz	-11.4613
▁oluşturabiliriz	-11.4613
▁Soldaki	-11.4613
▁memur	-11.4617
▁bebeklerin	-11.4618
▁koruyan	-11.4621
▁Şimdilerde	-11.4622
▁başlıyorsunuz	-11.4623
▁yapabilirdi	-11.4623
▁Seks	-11.4625
▁alttaki	-11.4625
rizon	-11.4626
▁oluşturuyorlar	-11.4626
▁Ofis	-11.4627
▁öldüren	-11.4628
▁deneyde	-11.463
uğun	-11.4631
▁kuralların	-11.4632
▁Okulda	-11.4633
▁bekliyordu	-11.4636
▁tesisi	-11.4636
layacağım	-11.4636
▁kurduğumuz	-11.4638
▁Koca	-11.464
▁şahs	-11.4641
▁yatakta	-11.4643
▁tümünü	-11.4645
ustu	-11.4646
▁daral	-11.4646
▁denizde	-11.4647
▁şefi	-11.4648
cılığı	-11.4648
▁değiştirilmiş	-11.4649
▁odun	-11.4649
▁Temiz	-11.465
▁diyeceğim	-11.4651
▁ekonomisini	-11.4652
▁yayınlana	-11.4653
▁faktörler	-11.4654
ebilseydi	-11.4656
right	-11.4658
▁anlattıkları	-11.4659
yacağımız	-11.466
yelim	-11.4661
▁Gid	-11.4663
matik	-11.4664
▁Anti	-11.4664
▁yazıyordu	-11.4664
▁çoğumuzun	-11.4667
▁girdiğim	-11.4667
▁vücud	-11.4669
▁evlendi	-11.4676
▁ayrıldığı	-11.4678
▁çiftliği	-11.4683
▁kuşa	-11.4684
▁Nata	-11.4685
▁verirken	-11.4686
▁verildiği	-11.4688
▁gözünüz	-11.4693
▁bağımlılığı	-11.4693
▁kanunu	-11.4695
▁ulaştım	-11.4695
▁gücümüzü	-11.4697
▁paylaşır	-11.4697
▁trafiği	-11.4698
▁yaprakları	-11.4698
▁bazi	-11.4698
▁Ağı	-11.47
▁Kop	-11.47
▁Tür	-11.4702
▁Geç	-11.4704
▁babalar	-11.4704
▁maçı	-11.4705
▁İranlı	-11.4707
ograf	-11.4707
▁Kür	-11.4707
▁getirebil	-11.4709
▁bulutu	-11.471
▁doğumu	-11.4714
▁bük	-11.4715
▁grupta	-11.4716
umuza	-11.4718
▁hazırlamak	-11.472
▁aktarmak	-11.472
▁çalıştırma	-11.4722
▁edebilirdi	-11.4723
▁işiniz	-11.4723
▁farkettik	-11.4724
▁çevreci	-11.4731
▁oranına	-11.4732
▁öp	-11.4732
gg	-11.4732
▁Tra	-11.4735
▁iskele	-11.4736
▁yansıma	-11.4737
▁eşiğinde	-11.4737
▁başlattığı	-11.4737
▁görmemişti	-11.4739
▁doğruluk	-11.4744
▁odaklandı	-11.4745
▁arayış	-11.4746
aktif	-11.4748
▁por	-11.4749
▁47	-11.4753
▁yapabilirse	-11.4755
▁mahallede	-11.4757
▁edecekler	-11.4758
liğimizi	-11.4758
▁parçacıkların	-11.4759
▁kullanıyoru	-11.4767
▁istemek	-11.4768
▁sesimi	-11.4769
▁yaşını	-11.4769
▁yakıtlar	-11.477
▁anlaşıldı	-11.4771
▁etkisiz	-11.4776
▁96	-11.4778
▁doktorların	-11.478
alıyorum	-11.4781
▁gününü	-11.4782
▁bilmemiz	-11.4782
▁sevdiğiniz	-11.4784
▁okumayı	-11.4785
lenmeye	-11.4788
▁tüketiyor	-11.4788
▁deneyimleme	-11.4791
▁farklıydı	-11.4794
▁yapil	-11.4795
▁zorladı	-11.4796
▁900	-11.4804
▁fakirlik	-11.4807
▁Biyo	-11.4807
anlayabilirsiniz	-11.4808
▁geliştirilmiş	-11.4809
jo	-11.4811
▁inç	-11.4811
▁hissettiriyor	-11.4813
▁çözmemiz	-11.4822
▁verilmesi	-11.4824
▁ogren	-11.4824
▁etkiye	-11.4825
▁dokusunu	-11.4826
▁Doku	-11.4828
▁hamur	-11.4829
▁kasları	-11.4829
▁paha	-11.4832
▁platformu	-11.4835
▁konunu	-11.4836
▁davranışını	-11.4841
▁görebilecek	-11.4841
saydım	-11.4846
▁patlat	-11.4849
▁bugünlerde	-11.4855
▁sandığı	-11.4859
lışılmadık	-11.4859
▁Davranış	-11.4859
▁Endonezya	-11.4859
▁Stephen	-11.4859
▁Vatandaş	-11.4859
▁alfabe	-11.4859
▁bayrağı	-11.4859
▁cenaze	-11.4859
▁diktatör	-11.4859
▁diyabet	-11.4859
▁rüzgâr	-11.4859
▁sarhoş	-11.4859
▁Şiddet	-11.4859
▁Mahkeme	-11.4859
▁Maymun	-11.4859
▁atölye	-11.4859
▁saplantı	-11.4859
▁kondom	-11.4859
▁Yabancı	-11.4859
▁Temmuz	-11.4859
▁zavallı	-11.4859
▁monte	-11.4859
▁Snow	-11.4859
▁Hous	-11.4859
▁ayrımcılık	-11.486
▁kaşif	-11.486
▁beşinci	-11.486
▁istila	-11.486
▁bloğu	-11.486
▁ilgilendiren	-11.486
▁motif	-11.486
▁Sinir	-11.486
▁Insanlar	-11.486
▁kullanabiliyor	-11.486
▁Kapa	-11.4861
▁acele	-11.4861
▁Sky	-11.4861
▁masaüstü	-11.4861
▁yaşımdayken	-11.4861
▁Cep	-11.4862
▁attık	-11.4863
▁yapılacağın	-11.4864
▁penis	-11.4865
▁bağlamında	-11.4865
fra	-11.4866
▁1999	-11.4866
▁önemsiyor	-11.4866
▁Adem	-11.4868
▁veriyordu	-11.4868
▁sağlayıcı	-11.4869
▁ruhsal	-11.4869
▁sabırsız	-11.4869
▁Kutup	-11.4871
▁üzüm	-11.4872
▁aracılığı	-11.4872
▁canına	-11.4874
▁duydun	-11.4877
▁moral	-11.4877
▁zararsız	-11.4877
▁kaşı	-11.4878
▁görüntüsünü	-11.4879
▁anayasa	-11.488
olo	-11.4881
▁Çoğunuz	-11.4883
▁Fransızca	-11.4884
▁balıkların	-11.4885
▁Buzul	-11.4888
▁organizmaların	-11.4889
▁kuran	-11.4891
▁Adası	-11.4892
seksüel	-11.4895
▁yeryüzünde	-11.4895
sky	-11.4897
lursunuz	-11.4898
▁yüklen	-11.49
▁yazarken	-11.4901
▁Bab	-11.4901
▁matematiği	-11.4901
▁oranlarını	-11.4902
▁kilolu	-11.4902
▁soruların	-11.4904
▁yiyen	-11.4905
▁değişmeye	-11.4906
▁büyümesini	-11.4908
▁civa	-11.4909
▁etmektedir	-11.4911
▁almanız	-11.4911
▁deliğin	-11.4912
▁çağın	-11.4913
▁şiiri	-11.4915
▁kaynaklana	-11.4917
▁Nöro	-11.4918
▁kurula	-11.4918
▁paylaşmaya	-11.4919
neyse	-11.4923
▁derdim	-11.4923
▁Gay	-11.4924
larınızla	-11.4931
▁keşfettiği	-11.4933
▁karma	-11.4935
▁düşündüklerini	-11.4938
▁olmamıştı	-11.4938
▁hepsinden	-11.4942
▁And	-11.4942
▁dekor	-11.4946
▁yerleştirilmiş	-11.4948
▁aklında	-11.495
▁kurtarabilir	-11.495
▁yükseliş	-11.495
▁öleceği	-11.4954
leyebiliriz	-11.4956
▁öğrenen	-11.4957
▁Maria	-11.4958
▁geçirecek	-11.4962
▁esneklik	-11.4962
▁işit	-11.4963
▁şefkatli	-11.4964
▁sorulan	-11.4968
▁Hayatım	-11.4971
▁yuvarlan	-11.4975
▁muydu	-11.4978
▁sahipliği	-11.4978
ranın	-11.4981
▁180	-11.4982
▁aşağıdaki	-11.4982
▁planları	-11.4983
▁anlatabilir	-11.4985
▁önemseme	-11.4987
▁Yarın	-11.4992
▁sonunu	-11.4993
▁topluluğ	-11.4995
▁terimi	-11.4996
▁Hy	-11.4996
▁görevini	-11.4996
▁uzanıyor	-11.5001
▁gökyüzünü	-11.5003
▁poli	-11.5003
gor	-11.5005
ring	-11.5006
▁rekor	-11.5006
▁buluşu	-11.5008
▁tutacak	-11.5009
▁olmamı	-11.501
▁tartışmalı	-11.5012
▁biziz	-11.5015
▁keşfedildi	-11.5016
▁zorluyor	-11.502
▁sevil	-11.502
▁bulutlar	-11.5024
▁şansını	-11.5024
▁ölçebil	-11.5025
▁Tez	-11.5032
duğunuzda	-11.5034
▁çatışmalar	-11.5034
▁benziyordu	-11.5035
▁Gidi	-11.5041
▁hissettiğimiz	-11.5042
lugu	-11.5044
▁görüşleri	-11.5045
▁tanımladı	-11.5047
▁varlığın	-11.505
▁Vo	-11.5051
▁soluk	-11.5051
▁ağların	-11.5055
▁korkar	-11.5056
▁bilgimiz	-11.5061
▁algılaya	-11.5065
▁endüstrisinde	-11.5068
▁evrenimiz	-11.5068
▁arttırıyor	-11.5074
▁gönderdiği	-11.5075
▁ağını	-11.5079
▁programını	-11.508
▁kitapların	-11.508
▁teşhisi	-11.5081
▁yıkama	-11.5082
▁kalabilir	-11.5086
▁atıldı	-11.5087
▁genc	-11.5088
takım	-11.5088
▁Arı	-11.509
▁görünecek	-11.5092
▁Gülme	-11.5095
▁düşmüş	-11.5095
▁sözde	-11.51
▁burnu	-11.51
▁sabahı	-11.51
▁içki	-11.5101
▁zorundayı	-11.5101
▁malzemelerin	-11.5102
▁profil	-11.5103
▁uçu	-11.5104
▁oturuyordu	-11.5109
▁oturum	-11.5111
well	-11.5113
▁uyumsuz	-11.5113
▁gençlik	-11.5114
▁gördüler	-11.5114
▁gördüğünü	-11.5115
uke	-11.5115
▁çevreleye	-11.5116
▁ray	-11.5116
▁hack	-11.512
▁Başarı	-11.512
▁kalkma	-11.5125
layabilirim	-11.5125
▁ekin	-11.5125
▁aktiviteler	-11.5126
▁kavuş	-11.5126
▁incelemeye	-11.5127
▁pigment	-11.5129
▁Craig	-11.5129
▁Edward	-11.5129
▁Kolombiya	-11.5129
▁Müşteri	-11.5129
▁egemen	-11.5129
▁entellektüel	-11.5129
▁harikulade	-11.5129
▁işgücü	-11.5129
▁müttefik	-11.5129
▁patojen	-11.5129
▁piyango	-11.5129
▁püskürt	-11.5129
▁sihirbaz	-11.5129
▁tezgah	-11.5129
▁2014	-11.5129
▁Yiyecek	-11.5129
▁ayrıştır	-11.5129
▁kukla	-11.5129
▁plaj	-11.5129
▁sörf	-11.5129
▁şeridi	-11.5129
▁Alaska	-11.5129
▁Sıtma	-11.5129
▁Yunus	-11.5129
▁havaalanı	-11.5129
angelo	-11.5129
▁Wolf	-11.513
▁Aşırı	-11.513
▁erdem	-11.513
▁Yunanistan	-11.513
▁Nokta	-11.513
▁Kamera	-11.513
▁Düşünce	-11.513
▁seyretti	-11.5131
▁karadelik	-11.5131
▁yorgun	-11.5131
▁İnşa	-11.5131
▁alçak	-11.5131
▁huylu	-11.5131
▁Prens	-11.5132
▁belirleyici	-11.5132
▁dönüşme	-11.5132
▁istenen	-11.5133
▁güçlerini	-11.5134
▁pekala	-11.5134
▁Sanıyorum	-11.5134
▁boşaltı	-11.5136
▁benzemiyor	-11.5137
▁Tav	-11.5141
▁Bhu	-11.5142
▁izlerken	-11.5142
amanla	-11.5142
▁kaydedil	-11.5143
▁gidişatı	-11.5143
▁Satur	-11.5143
▁uğradı	-11.5144
▁girişimi	-11.5147
▁suyunu	-11.5147
▁Yüzey	-11.5148
▁acik	-11.5149
▁kullanırlar	-11.5149
▁işletmeler	-11.5152
▁yapıyorlardı	-11.5153
▁yaratabiliriz	-11.5153
▁AG	-11.5154
▁aradığımız	-11.5157
▁bölünmüş	-11.5159
▁koyduğumuz	-11.5159
▁Genom	-11.5159
▁formda	-11.516
bilim	-11.5161
▁anlatıyorum	-11.5162
▁hastayı	-11.5162
▁dinleyen	-11.5166
▁mesajları	-11.5167
▁kökten	-11.5167
▁Cuma	-11.5169
▁Sanatçı	-11.5173
▁çıkarıyorlar	-11.5175
▁yaptığınızda	-11.5177
▁eğilimli	-11.5177
▁kuruluşu	-11.5177
▁hikayemi	-11.518
▁Öğrenme	-11.5182
▁geçmesi	-11.5186
▁yapabildiğimiz	-11.5188
▁Mont	-11.5189
▁başlatmak	-11.5189
▁gözlerim	-11.519
▁kek	-11.519
▁önerdi	-11.519
▁sevk	-11.5193
▁genişliği	-11.5194
▁yazmayı	-11.5194
▁geçiyoruz	-11.5195
▁büyüktür	-11.5196
▁uydular	-11.52
▁bahsettik	-11.52
▁büyüklük	-11.5202
▁kırp	-11.5203
lacaksınız	-11.5204
▁kayboldu	-11.5205
▁Tarım	-11.5207
▁gözlü	-11.521
▁ulaşabil	-11.5211
▁uydurma	-11.5211
▁benzediği	-11.5216
▁Parkı	-11.5217
▁kampüs	-11.5221
▁taşıdığı	-11.5228
▁insanoğlu	-11.5234
▁deneyimim	-11.5236
▁ötede	-11.5236
▁karbonu	-11.5237
▁Isa	-11.5243
col	-11.5243
▁göstermiş	-11.5248
▁pazarlık	-11.5254
▁erişti	-11.5254
▁Hayatımda	-11.5255
▁şiddetle	-11.5258
▁fiziğin	-11.526
▁dağıtma	-11.5262
▁dis	-11.5265
▁acıyı	-11.5265
▁koşar	-11.5266
▁çalıştığınız	-11.5269
▁sahası	-11.527
▁vermeme	-11.5272
▁Gelişim	-11.5272
eceğinizi	-11.5273
▁bilgisini	-11.5273
▁tanrım	-11.5276
▁ağırlığında	-11.5277
▁anlayacağı	-11.5281
▁Red	-11.5283
▁içecek	-11.5286
▁dükkanı	-11.5287
▁istese	-11.5287
▁isteyeceğim	-11.5295
▁gezegenimizde	-11.5296
▁bölünme	-11.5299
▁biter	-11.5299
▁uyguladığı	-11.5301
▁istemiyordu	-11.5301
▁uğrat	-11.5302
▁anlayacak	-11.531
▁yeteneğini	-11.5311
▁Bang	-11.5316
tici	-11.5318
▁ayrılıyor	-11.5319
▁bölgelere	-11.5321
▁hane	-11.5322
landırılmış	-11.5323
▁yoğunluğunu	-11.5323
SA	-11.5325
okyo	-11.5326
▁mimarlık	-11.533
▁Kanun	-11.5331
▁yönetmek	-11.5332
▁bakmanız	-11.5339
▁bulundum	-11.534
▁uygulamak	-11.534
▁ülkesinde	-11.5344
▁bildi	-11.5344
▁Akademi	-11.5345
ladığınız	-11.5346
▁inanmaya	-11.5346
▁kullanıyordu	-11.5347
▁alamıyor	-11.5348
▁ayrıcalık	-11.5349
▁Tit	-11.536
▁simetrik	-11.536
▁ulaşabilme	-11.5363
▁uyandıra	-11.5366
▁bahçesi	-11.5366
▁algoritmalar	-11.5368
▁kalmayacak	-11.5369
▁odaklanmış	-11.5369
▁dönmüş	-11.5369
▁tasarladık	-11.537
syonu	-11.5372
▁şirkette	-11.5373
▁civarı	-11.5377
▁bedenin	-11.5382
▁kapağı	-11.539
▁gelirdi	-11.5391
▁Ekranda	-11.5393
▁açıları	-11.5403
▁yaklaşır	-11.5405
▁kaldığımız	-11.5407
zgünü	-11.5407
▁Avusturya	-11.5407
▁Cumhuriyetçi	-11.5407
▁Portekiz	-11.5407
▁STK	-11.5407
▁dezavantaj	-11.5407
▁elverişli	-11.5407
▁istiridye	-11.5407
▁kolektif	-11.5407
▁papaz	-11.5407
▁sofistike	-11.5407
▁şırınga	-11.5407
▁habitat	-11.5407
▁paradoks	-11.5407
▁kopru	-11.5407
▁Kilise	-11.5407
▁vaaz	-11.5407
▁Harita	-11.5407
▁çatlaklar	-11.5407
▁Bahse	-11.5407
▁espri	-11.5407
▁hasıla	-11.5408
▁vaat	-11.5408
▁kapsül	-11.5408
▁klon	-11.5408
▁sicim	-11.5408
▁jeoloji	-11.5408
▁nakit	-11.5408
▁Prince	-11.5408
▁mitoloji	-11.5408
▁düşü	-11.5409
▁buluşlar	-11.541
▁kabı	-11.5411
▁Emma	-11.5413
▁sunulan	-11.5413
▁içgüdüsel	-11.5413
▁olabilme	-11.5414
▁süregel	-11.5414
▁bahsedelim	-11.5414
▁itici	-11.5414
▁ayrılır	-11.5415
▁kesilmiş	-11.5416
▁göstermektedir	-11.5416
▁doyur	-11.5417
statik	-11.5418
▁öldüğü	-11.5418
▁çarpan	-11.5421
▁ekranı	-11.5421
▁yapmamı	-11.5421
▁adlandırılır	-11.5423
▁uyarlama	-11.5425
▁işletim	-11.5426
▁etrafımda	-11.5426
▁diğerini	-11.5426
▁konuşabilir	-11.5428
▁toplayan	-11.5429
▁dokuyu	-11.5429
▁Çalı	-11.543
▁atıkları	-11.543
▁soktu	-11.5432
▁direniş	-11.5433
▁söyleyemez	-11.5433
▁mutluydu	-11.5433
▁koşma	-11.5434
▁Monter	-11.5435
▁karım	-11.5435
▁yapmıyorum	-11.5436
▁kuşku	-11.5438
▁kodun	-11.5439
▁getirmiş	-11.5439
▁gösteriliyor	-11.5439
▁kılar	-11.544
▁peri	-11.544
▁kaptır	-11.5443
▁ekibin	-11.5443
▁dünyasını	-11.5444
▁asır	-11.5445
▁Sanayi	-11.5447
▁komuta	-11.5447
▁edemediği	-11.5448
▁başlamamız	-11.5448
▁bittiğinde	-11.5451
▁sırtında	-11.5455
bilirim	-11.5456
▁oysa	-11.5458
▁hatırlatmak	-11.5459
▁yayınlanma	-11.5459
▁uluslar	-11.5461
▁yasası	-11.5461
▁ayırıyor	-11.5462
▁etkileş	-11.5463
▁canlıları	-11.5466
▁edinmek	-11.5469
▁haberleşme	-11.5469
▁gitar	-11.5472
▁kanunlar	-11.5476
▁Milo	-11.5476
▁söylerler	-11.5477
▁SE	-11.5481
▁yazdıkları	-11.5481
▁gözlük	-11.5482
▁isteğim	-11.5484
▁dostum	-11.5486
▁Evde	-11.5491
▁alışkanlıkları	-11.5491
▁oralarda	-11.5495
▁Milli	-11.5497
▁Kes	-11.5497
▁tutabilir	-11.5498
▁çizmek	-11.5498
▁kaçtı	-11.5499
▁vücudumuz	-11.5504
▁hazırladık	-11.5504
▁donu	-11.5507
▁oyuncağı	-11.5511
▁damarları	-11.5514
maması	-11.5515
rebilirim	-11.552
▁zanned	-11.5524
▁cesaretlendir	-11.5525
▁Ram	-11.5526
emiyorlar	-11.5526
▁parasını	-11.5527
▁andı	-11.5529
▁büyüdüğü	-11.5537
▁ağac	-11.5538
▁hissetmeye	-11.5539
▁olasılıkları	-11.5544
▁şunları	-11.5544
▁ayrılık	-11.5545
▁Gold	-11.5545
▁çalışıyorduk	-11.5547
▁kafamı	-11.555
niversitesinde	-11.5551
▁belirleye	-11.5556
▁Ölü	-11.5557
▁artırma	-11.5558
▁kokusu	-11.5559
▁değersiz	-11.5561
▁belirttiği	-11.5569
▁tanımak	-11.557
▁ürettiğimiz	-11.5575
▁gösterim	-11.5576
▁yapacaklar	-11.5577
▁göstermeme	-11.5579
▁katlama	-11.5582
▁koruyacak	-11.5588
▁yakınlaştır	-11.559
▁üz	-11.559
▁Söylediğim	-11.5592
▁Sür	-11.5593
▁İst	-11.5596
▁zamanımızı	-11.5596
▁olmadığınız	-11.5597
▁oylama	-11.5597
ska	-11.56
leştirdi	-11.5602
leyeceğim	-11.5605
▁bağlanıyor	-11.5605
dol	-11.5605
port	-11.5609
▁Aşı	-11.5613
▁tıkla	-11.5619
▁yapılabil	-11.5623
▁Kaza	-11.5626
▁salonu	-11.5627
▁kurumun	-11.5627
▁çalışmalarım	-11.5628
▁ulaşmış	-11.5628
▁takıl	-11.5629
▁rengini	-11.5629
▁derinliği	-11.5632
▁istediğinde	-11.5634
▁Ödül	-11.5636
▁görüşüm	-11.564
▁azalması	-11.564
▁düşünüyorlardı	-11.5641
▁söylerse	-11.5644
▁harcamaları	-11.5644
▁imkanları	-11.5644
▁karşılığı	-11.5645
RA	-11.5656
▁barın	-11.5656
▁basari	-11.5657
▁yapabildi	-11.5658
13	-11.5661
▁büyümesi	-11.5661
▁çizimler	-11.5662
▁endüstrisini	-11.5664
▁gecede	-11.5665
rmeliyiz	-11.5665
▁özlem	-11.5669
▁kask	-11.5677
▁yargılama	-11.5678
▁üstlen	-11.568
▁43	-11.568
▁tarafını	-11.5681
▁tonu	-11.5684
▁gizlilik	-11.5684
▁metaboli	-11.5692
▁Bağımsız	-11.5693
▁Elizabeth	-11.5693
▁basketbol	-11.5693
▁durağan	-11.5693
▁fantastik	-11.5693
▁kronik	-11.5693
▁kıvılcım	-11.5693
▁meşru	-11.5693
▁prostat	-11.5693
▁çapraz	-11.5693
▁İhtiyacı	-11.5693
▁Benjamin	-11.5693
▁başbakan	-11.5693
▁kahvaltı	-11.5693
▁kasırga	-11.5693
▁mevzu	-11.5693
▁pervane	-11.5693
▁reddetti	-11.5693
▁asfalt	-11.5693
▁bayılır	-11.5693
▁ciğer	-11.5693
▁kuzeni	-11.5693
▁İzlanda	-11.5693
▁tırnak	-11.5693
▁metrekare	-11.5693
▁rahip	-11.5693
▁Hesap	-11.5693
▁kainat	-11.5693
▁anonim	-11.5693
▁tempo	-11.5693
▁Tayland	-11.5693
▁Philip	-11.5693
▁Tibet	-11.5693
▁mesleği	-11.5693
▁Mandela	-11.5693
▁taslak	-11.5693
▁torunu	-11.5693
▁ekmeği	-11.5694
▁Karbon	-11.5694
▁aksanı	-11.5694
▁partikül	-11.5694
▁günümüzü	-11.5695
▁duymuyor	-11.5695
▁hissetmiyor	-11.5695
▁olabilmesi	-11.5696
▁numarası	-11.5696
▁Değişik	-11.5696
▁Oyuncu	-11.5697
▁astım	-11.5697
vey	-11.5697
▁kısımları	-11.5697
▁barışçı	-11.5699
▁taktı	-11.57
▁Pete	-11.5701
▁sembolik	-11.5701
▁JF	-11.5702
▁farz	-11.5703
yüm	-11.5703
emeyeceğimiz	-11.5705
▁sınırsız	-11.5705
▁Yasası	-11.5706
▁sualtı	-11.5706
▁kullanırız	-11.5707
▁inanıyorlar	-11.5707
ivil	-11.5711
▁problemlere	-11.5713
▁yürüttü	-11.5713
llah	-11.5713
▁düzenleyen	-11.5714
▁paylaşıla	-11.5716
▁uygarlık	-11.5716
▁geçelim	-11.5717
▁soruyorlar	-11.5717
▁Verme	-11.5719
▁edebilen	-11.5719
▁kalir	-11.572
▁192	-11.5721
lyn	-11.5722
▁kuraklık	-11.5726
▁düşündüğümü	-11.5727
▁34	-11.5727
▁istifa	-11.5728
▁AK	-11.5728
▁gelebilecek	-11.5728
▁çekecek	-11.5729
▁Dağ	-11.5731
▁karşılamak	-11.5732
▁Sarı	-11.5732
▁hamuru	-11.5733
▁Venüs	-11.5733
▁materyaller	-11.5733
▁tasarlamaya	-11.5735
▁tuzlu	-11.5735
▁başlarlar	-11.5738
▁uzaklık	-11.5739
▁işlenmiş	-11.5739
▁genin	-11.574
malıydım	-11.5744
▁Post	-11.5745
LA	-11.5745
▁karo	-11.5746
lendirici	-11.5749
▁Hol	-11.5749
▁önleme	-11.575
▁taşınma	-11.5754
▁üzerimde	-11.576
▁sürücüsü	-11.576
▁karakterleri	-11.5761
▁görebildiği	-11.5762
▁dolaşır	-11.5762
▁ES	-11.5763
▁Yüzyıl	-11.5763
▁öyküler	-11.5763
▁kaçınız	-11.5764
▁yükü	-11.5765
▁kazanacak	-11.5767
▁geçerlidir	-11.5768
▁kızıl	-11.5769
▁düştüğünü	-11.577
▁barındırıyor	-11.5771
▁tarafındaki	-11.5773
▁Chi	-11.5773
▁kutunu	-11.5773
▁rakamları	-11.5775
▁söylüyoruz	-11.5784
▁öldüğünü	-11.5786
▁olmadığından	-11.5789
▁Mad	-11.5794
▁beynimizi	-11.5798
arry	-11.5798
▁öğrettiği	-11.5799
▁Sessiz	-11.5802
▁düşürdü	-11.5807
▁sürükley	-11.5808
likli	-11.5808
▁vatandaşı	-11.581
▁karnı	-11.5811
ray	-11.5812
▁Düz	-11.5813
▁konferansta	-11.5813
çilik	-11.5817
▁büyüklüğünü	-11.582
abileceklerini	-11.5824
üldüğü	-11.5829
▁İnternette	-11.5831
▁istasyonları	-11.5832
▁düşmanı	-11.5834
şte	-11.5839
abilseydi	-11.5842
▁hazırlıyor	-11.5846
▁fiziği	-11.5847
atılan	-11.5847
▁130	-11.5848
▁ilginçti	-11.5849
▁yapmamızı	-11.5849
▁hikâyesi	-11.5853
▁yolculuğum	-11.5857
▁paylaştık	-11.5857
▁parlaya	-11.5862
bot	-11.5862
▁dahilinde	-11.5862
▁kemer	-11.5866
▁deneyimini	-11.5867
▁Harr	-11.5867
▁bahsetmişti	-11.5868
▁koyacak	-11.587
▁çizdi	-11.5871
▁olmanızı	-11.5871
▁Değişim	-11.5876
mazsanız	-11.5878
▁duymadığı	-11.5879
▁düşünse	-11.5883
▁çözecek	-11.5883
▁Mag	-11.5887
mazsa	-11.5888
▁uygular	-11.589
▁çıkacağı	-11.589
▁yatırımı	-11.589
▁baca	-11.5891
▁olmakta	-11.5893
▁kısma	-11.5895
▁Tip	-11.5898
▁bağladı	-11.59
▁muydun	-11.5904
▁Resim	-11.5906
kalı	-11.5908
▁yemeğinde	-11.591
▁atılmış	-11.591
▁Cor	-11.5915
▁dökme	-11.5919
▁SP	-11.592
▁üretebilir	-11.592
▁tabak	-11.5924
fil	-11.5924
▁parçasıydı	-11.5927
▁Leo	-11.5928
▁edebilirler	-11.5929
▁kaldırıyor	-11.593
▁buralar	-11.593
▁takıyor	-11.5932
▁kullanmamız	-11.5935
▁bakanı	-11.5936
▁yörüngesinde	-11.5939
▁olduğumdan	-11.594
▁adamış	-11.5942
▁boşluklar	-11.5942
▁karıştı	-11.5944
▁kıyafeti	-11.5946
bileceği	-11.5947
ics	-11.5948
▁yetiştiriyor	-11.5948
▁aşaması	-11.5953
▁gidebileceği	-11.5954
▁neslin	-11.596
▁kökleri	-11.5961
▁konumda	-11.597
▁olmamak	-11.5971
▁çevirir	-11.5973
▁faktörü	-11.5973
▁sabır	-11.5976
▁gösteriş	-11.5977
▁hayatlarımızı	-11.5979
▁ihtimalleri	-11.5981
abildiğim	-11.5986
▁Cevabı	-11.5987
▁Kariyer	-11.5987
▁Kosova	-11.5987
▁Mevcu	-11.5987
▁Neandertal	-11.5987
▁Televizyon	-11.5987
▁ansiklopedi	-11.5987
▁dikdörtgen	-11.5987
▁müzakere	-11.5987
▁palmiye	-11.5987
▁prosedür	-11.5987
▁puzzle	-11.5987
▁sendromu	-11.5987
▁Nathan	-11.5987
▁hakaret	-11.5987
▁Sihir	-11.5987
▁insülin	-11.5987
▁komplik	-11.5987
▁şirin	-11.5987
▁Black	-11.5987
▁hektar	-11.5987
▁ufuk	-11.5987
▁Hoş	-11.5987
▁Hafta	-11.5987
▁dayanışma	-11.5987
▁metropol	-11.5987
▁Plastik	-11.5987
▁Mesaj	-11.5988
▁esrar	-11.5988
▁anlaşmazlık	-11.5988
▁tuzak	-11.5988
▁Nesne	-11.5988
▁sadık	-11.5988
▁heryerde	-11.5988
▁besliyor	-11.5988
▁litre	-11.5988
▁çöker	-11.5989
▁maksim	-11.5989
▁kestirme	-11.5989
▁olamadı	-11.599
▁davul	-11.5991
▁Ross	-11.5991
▁şişir	-11.5991
▁Kamu	-11.5994
▁Arşi	-11.5995
▁inanmıyorum	-11.5995
▁97	-11.5995
▁bilinçsiz	-11.5995
▁birebir	-11.5996
▁kardiy	-11.5997
▁Garip	-11.5998
▁uygula	-11.5998
▁sürüş	-11.5998
▁çocuklarınız	-11.5999
▁farkındayım	-11.5999
▁kalanında	-11.6
▁cansız	-11.6002
▁soğutma	-11.6002
▁fonksiyonları	-11.6003
▁tarafsız	-11.6003
▁çevremizdeki	-11.6004
▁kazanmış	-11.6005
▁Lew	-11.6006
▁vefat	-11.6006
▁oynayabilir	-11.6011
▁yatar	-11.6015
▁Lak	-11.6018
▁düşünülen	-11.6019
▁açılır	-11.6019
▁ödülünü	-11.602
TI	-11.6021
▁kökenli	-11.6021
▁görürdü	-11.6022
▁Konuşmamı	-11.6022
▁bekliyoruz	-11.6024
▁toplulukların	-11.6025
▁plaka	-11.6027
▁umduğum	-11.6029
receğiz	-11.6029
▁anlamış	-11.603
▁gizlen	-11.6032
▁yararına	-11.6032
▁liderlerin	-11.6035
lanıyordu	-11.6036
▁kırdı	-11.6038
▁büyükannem	-11.604
▁sürdüğü	-11.6041
▁Çoğumuz	-11.6042
▁şifreleme	-11.6043
▁istiyorlardı	-11.6044
müzü	-11.6047
▁öncelikli	-11.6047
reti	-11.6048
▁epi	-11.605
▁çalışın	-11.6051
▁sakal	-11.6051
▁etmişler	-11.6051
ock	-11.6052
▁yağış	-11.6055
▁yaşamakta	-11.6057
▁galib	-11.606
▁Will	-11.6065
▁yönlerde	-11.6065
▁köyü	-11.6066
▁fili	-11.6069
▁Peru	-11.6072
▁karşımız	-11.6075
▁dolaşı	-11.6078
LP	-11.6079
layabileceği	-11.6083
laştırılmış	-11.6085
▁tum	-11.6085
▁teorisini	-11.6085
▁balıkçılık	-11.6088
ella	-11.609
▁kullanıldığı	-11.6092
▁hissettiğini	-11.6093
▁yapardım	-11.6095
▁mantarlar	-11.6096
▁karsi	-11.6098
▁niyeti	-11.6098
ington	-11.61
▁Yolu	-11.6102
▁tepkisi	-11.6104
▁yakınlarında	-11.6105
▁proto	-11.6105
▁babasını	-11.6106
▁bastı	-11.6107
▁yediğimiz	-11.6112
▁olamayacağı	-11.6112
▁uyuya	-11.6113
▁uzaklaştı	-11.6115
▁kurbanları	-11.6115
▁maddelerin	-11.612
▁inanılmazdı	-11.6121
▁işlediği	-11.6123
▁kaçırıyor	-11.6123
▁ipi	-11.6123
▁gelse	-11.6126
▁kalbiniz	-11.6127
▁Sesi	-11.6129
▁Herşeyi	-11.6136
▁boyutların	-11.614
ışını	-11.614
▁toplumumuzu	-11.6142
▁ilişkilerini	-11.6142
▁duyuyordu	-11.6142
▁atıl	-11.6146
▁büyüle	-11.6147
▁yemeye	-11.6148
▁Liste	-11.6149
▁stratejisi	-11.6149
▁sınıflandır	-11.615
▁engelleme	-11.6155
▁çıkarken	-11.6155
▁tarihçi	-11.6155
▁gönderdik	-11.616
▁biçimini	-11.6161
▁Pho	-11.6163
▁refahı	-11.6164
▁sokmak	-11.6164
▁önündeki	-11.6165
▁MT	-11.6167
▁giydiği	-11.6169
▁Beden	-11.617
▁kaldırır	-11.6171
▁38	-11.6174
▁çağırdı	-11.6176
verdi	-11.6176
▁boyutunu	-11.6177
▁uçurma	-11.6178
▁haberlerde	-11.618
▁kapatı	-11.6183
▁kaplanmış	-11.6185
▁Hall	-11.6187
▁140	-11.6189
lanmıyor	-11.619
▁akıyor	-11.6191
▁kurtarmaya	-11.6193
▁sabahın	-11.6193
▁Asker	-11.6194
▁boyama	-11.6197
▁zorluğu	-11.6198
▁geliştirildi	-11.6199
▁temizlemek	-11.6201
▁oturmuş	-11.6202
▁kaçan	-11.6203
▁ışığında	-11.6203
ddin	-11.6206
▁ışınları	-11.6207
▁uçmak	-11.6211
▁yapacaktı	-11.6213
▁tanıyabil	-11.6219
▁kurtaracak	-11.6223
▁kafasında	-11.6223
▁kaybed	-11.6225
▁sağlamış	-11.6225
▁göründü	-11.6227
▁ilerlet	-11.6228
▁inanıyordu	-11.6229
▁sokakları	-11.6231
▁gözlerimi	-11.6235
▁gelebil	-11.6236
▁saçları	-11.624
▁37	-11.6245
▁iyimserlik	-11.6246
▁olurum	-11.625
▁beyninizi	-11.6258
▁notlar	-11.6258
zerine	-11.6259
▁Görü	-11.6259
▁kapasitesini	-11.626
▁alacağı	-11.6261
▁döndürme	-11.6262
▁dönüştürebilir	-11.6263
retim	-11.6266
▁dinledi	-11.6266
▁5000	-11.6266
▁hedefimiz	-11.6267
▁Kimin	-11.6268
▁yazıldı	-11.6269
▁arabanız	-11.6272
▁üretebil	-11.6273
sari	-11.6277
▁eylemci	-11.6278
▁bebeğim	-11.628
rinlemesin	-11.6281
▁Laboratuvar	-11.6282
▁korkuyordu	-11.6283
▁volkan	-11.6287
▁takıntılı	-11.6289
▁biyologlar	-11.6289
▁Tıbb	-11.629
▁Andrew	-11.629
▁DVD	-11.629
▁Lübnan	-11.629
▁Tazmanya	-11.629
▁bağdaştır	-11.629
▁bodrum	-11.629
▁cehennem	-11.629
▁floresan	-11.629
▁hırslı	-11.629
▁itiraz	-11.629
▁kemoterapi	-11.629
▁satranç	-11.629
▁sempati	-11.629
▁uğruna	-11.629
▁zırh	-11.629
▁şeref	-11.629
▁Meydanı	-11.629
▁kalabalığı	-11.629
▁nakled	-11.629
▁sinaps	-11.629
▁Adalet	-11.629
▁Eğlence	-11.629
▁nitelendir	-11.629
▁mamut	-11.629
▁üzüntü	-11.629
▁sivri	-11.629
▁ithal	-11.629
▁yaratılış	-11.629
▁bişey	-11.629
▁Geniş	-11.6291
▁melek	-11.6291
▁Galap	-11.6292
▁asistan	-11.6292
▁erişilebilir	-11.6292
ebilmemiz	-11.6292
▁kılmak	-11.6292
▁becerikli	-11.6293
▁başlayınca	-11.6293
▁Blue	-11.6293
▁Algı	-11.6293
▁alıkoya	-11.6293
▁hiza	-11.6293
▁Birçoğunuz	-11.6293
▁ettiğimde	-11.6294
▁Gücü	-11.6294
▁karavan	-11.6295
▁süzül	-11.6295
▁Okuma	-11.6296
▁korunmuş	-11.6296
▁konsepti	-11.6296
▁santim	-11.6296
▁düşünüyorsun	-11.6297
▁PC	-11.6298
agos	-11.6299
▁pasta	-11.6301
▁geliştiriyoruz	-11.6304
▁listesinde	-11.6305
▁vat	-11.6307
▁imkânsız	-11.6307
▁olmaktadır	-11.6308
▁hanım	-11.6309
▁gelmektedir	-11.6309
▁kullanabilme	-11.6313
▁kuyruğu	-11.6314
▁kaybolan	-11.6314
utube	-11.6315
▁kabileler	-11.6315
▁zorluklarla	-11.6316
▁yaşındayım	-11.6317
▁Sevgili	-11.6319
▁sözcükler	-11.6321
▁değişmez	-11.6326
▁büyüğü	-11.6327
▁kaynağını	-11.6331
▁salonun	-11.6332
▁istatistikleri	-11.6332
ilmek	-11.6334
▁tükettiği	-11.6335
▁düşüncelerini	-11.6335
▁öğrenmemiz	-11.6335
▁semt	-11.6337
▁yürümeye	-11.6338
lenmesini	-11.6339
▁geçirmeye	-11.634
▁eko	-11.6343
▁arazide	-11.6343
▁günah	-11.6343
▁sıkıca	-11.6344
▁vücudumuzu	-11.6347
▁ışıkta	-11.6349
ttiğim	-11.6349
lendirilme	-11.6349
▁kırılma	-11.6352
dikal	-11.6354
▁gideceğim	-11.6358
▁savaşıyor	-11.6359
▁gerektiğinde	-11.636
▁haklıydı	-11.6364
▁Dene	-11.6365
▁ironik	-11.6368
▁takas	-11.637
▁kazma	-11.6371
[...]
