<unk>	0
<s>	0
</s>	0
▁.	-2.73474
▁,	-3.12476
▁bir	-3.73737
▁"	-4.017
▁ve	-4.04815
n	-4.4749
▁bu	-4.49022
▁	-4.52505
▁'	-4.63099
a	-4.97381
e	-5.0672
▁Bu	-5.08012
▁için	-5.0892
▁da	-5.12971
▁Ve	-5.31533
m	-5.33061
▁çok	-5.34181
▁de	-5.37313
▁?	-5.38401
▁daha	-5.47168
k	-5.52642
lar	-5.71239
▁ki	-5.74002
▁)	-5.75073
(	-5.75173
▁var	-5.77289
▁:	-5.78081
▁gibi	-5.81878
▁olarak	-5.84194
▁şey	-5.92157
▁—	-5.95699
▁ne	-6.0233
▁olan	-6.02734
i	-6.05954
den	-6.06979
▁kadar	-6.07767
ler	-6.09966
▁o	-6.14827
▁en	-6.15495
nin	-6.1716
▁her	-6.17959
▁değil	-6.26319
▁ile	-6.26671
dan	-6.27196
▁ya	-6.29106
▁-	-6.31494
nın	-6.31783
▁ama	-6.39749
▁olduğunu	-6.39903
ya	-6.40443
ye	-6.4302
▁iyi	-6.43169
▁zaman	-6.43667
▁büyük	-6.43904
▁Ama	-6.43925
t	-6.4438
▁bunu	-6.44389
▁sonra	-6.45568
▁nasıl	-6.46663
▁Bir	-6.47059
z	-6.47529
ki	-6.47933
p	-6.48801
na	-6.50924
da	-6.51522
ce	-6.52482
la	-6.52832
▁sadece	-6.53334
le	-6.53756
de	-6.59543
▁çünkü	-6.61746
▁şekilde	-6.64743
▁şu	-6.6831
▁önce	-6.69268
yi	-6.69929
▁fazla	-6.71742
er	-6.72271
▁iki	-6.7675
▁yıl	-6.78593
ne	-6.78623
dir	-6.7874
▁;	-6.78768
▁gerçekten	-6.80787
▁aynı	-6.8198
leri	-6.82481
▁O	-6.83285
▁yeni	-6.83515
▁Yani	-6.84463
ları	-6.85564
▁hakkında	-6.85816
▁kendi	-6.85931
▁Şimdi	-6.86284
▁benim	-6.91327
in	-6.91359
▁olduğu	-6.92527
▁ben	-6.9407
▁insan	-6.94256
dır	-6.95631
uz	-6.95654
▁tüm	-6.96165
▁Ben	-6.96734
ü	-6.9683
yı	-6.97806
▁farklı	-6.98482
yla	-6.99146
▁ilk	-6.99926
▁diğer	-7.02671
▁içinde	-7.03142
li	-7.03245
▁mi	-7.03393
ı	-7.03397
▁aslında	-7.0443
▁insanlar	-7.04824
▁böyle	-7.05585
▁ilgili	-7.05924
▁bunun	-7.07372
▁yok	-7.07486
en	-7.07623
▁küçük	-7.07802
▁doğru	-7.08994
▁♫	-7.09107
▁sahip	-7.0992
▁başka	-7.1005
▁burada	-7.10607
iz	-7.10823
▁veya	-7.11936
▁Gülüşmeler	-7.12036
yle	-7.12849
▁ise	-7.15303
▁bile	-7.16519
▁önemli	-7.18013
▁eğer	-7.18196
▁şeyler	-7.18354
▁biz	-7.20993
▁Faka	-7.2108
▁bana	-7.2124
r	-7.22212
ca	-7.22395
▁biri	-7.24149
▁size	-7.24626
si	-7.2545
▁bizim	-7.25619
ken	-7.26748
▁in	-7.27185
▁biraz	-7.28288
▁Eğ	-7.2872
s	-7.30144
▁tek	-7.31136
▁üzerinde	-7.3201
▁oldu	-7.33269
▁hiç	-7.33479
▁insanların	-7.34712
▁son	-7.35144
▁bütün	-7.36678
▁gün	-7.37268
▁Bunu	-7.37594
siniz	-7.38245
▁geri	-7.39405
▁şimdi	-7.395
▁vardı	-7.3976
▁yüzden	-7.41468
▁zamanda	-7.42351
▁neden	-7.43457
larını	-7.44985
▁onu	-7.4628
lerin	-7.46308
▁diye	-7.4633
▁Çünk	-7.46497
di	-7.46534
lı	-7.47519
▁az	-7.48333
▁tam	-7.48879
▁tarafından	-7.48977
lerini	-7.49447
▁Kahkaha	-7.49958
▁göre	-7.50658
▁üç	-7.50902
▁bazı	-7.51046
▁İşte	-7.51651
▁istiyorum	-7.52344
▁gerçek	-7.53528
um	-7.53575
▁yapmak	-7.53911
▁olmak	-7.54412
▁mı	-7.54531
▁Çok	-7.5482
▁yer	-7.55103
lik	-7.55221
▁nın	-7.55675
▁bilgi	-7.55885
arak	-7.56455
l	-7.56842
ların	-7.58514
▁ortaya	-7.59234
▁Peki	-7.59591
▁karşı	-7.59617
ndan	-7.60154
y	-7.60221
▁oldukça	-7.60671
▁iş	-7.60749
▁bize	-7.60962
▁olması	-7.61937
sı	-7.62511
▁olacak	-7.62852
▁Bunun	-7.63058
▁şeyi	-7.63292
▁fakat	-7.63412
▁an	-7.63821
▁yani	-7.64191
lara	-7.64762
▁dünya	-7.64962
▁beni	-7.65314
▁oluyor	-7.65679
▁Burada	-7.65849
▁Her	-7.66441
▁10	-7.6664
ın	-7.67725
▁Aslında	-7.67816
▁birkaç	-7.67946
niz	-7.68014
sanız	-7.68016
lere	-7.68519
▁güzel	-7.68951
▁ın	-7.69411
▁onları	-7.69652
▁anda	-7.69913
▁Alkış	-7.70127
▁soru	-7.70811
▁bunlar	-7.71298
▁etmek	-7.71301
▁Dünya	-7.71343
▁tekrar	-7.71621
▁kişi	-7.71831
▁su	-7.71911
▁20	-7.71917
sel	-7.72127
▁uzun	-7.72461
▁boyunca	-7.72544
▁Alkışlar	-7.72824
▁hareket	-7.72933
▁onun	-7.73873
sine	-7.74207
▁olabilir	-7.75159
▁devam	-7.75471
ydi	-7.75964
▁kötü	-7.76564
▁yüzde	-7.77577
nız	-7.77928
▁birçok	-7.77938
u	-7.78341
▁Ne	-7.79033
▁a	-7.79198
▁!	-7.79662
▁zor	-7.7976
▁Anca	-7.79812
▁teknoloji	-7.80232
sa	-7.80278
▁Evet	-7.80453
▁geliyor	-7.80829
▁Daha	-7.80961
▁000	-7.81505
lerine	-7.81596
ni	-7.82015
tan	-7.82187
▁milyon	-7.82696
▁belki	-7.83103
▁A	-7.83683
▁orada	-7.85059
▁tamamen	-7.85252
▁fark	-7.85522
ydı	-7.85915
▁onlar	-7.86502
daki	-7.86775
▁arasında	-7.86908
▁birlikte	-7.86975
lık	-7.87034
tir	-7.87228
▁S	-7.87508
▁olur	-7.87556
▁Siz	-7.87669
▁harika	-7.88475
▁öyle	-7.88773
▁Biz	-7.88891
▁tür	-7.89871
▁dedi	-7.89979
▁karar	-7.90272
▁yerine	-7.90911
▁Bunlar	-7.91358
▁i	-7.91467
▁işte	-7.91492
▁yol	-7.91727
▁yüksek	-7.92029
lerle	-7.92331
▁gereken	-7.92656
▁buna	-7.92727
tır	-7.92835
▁dünyanın	-7.93753
▁para	-7.93805
dı	-7.93876
▁pek	-7.94179
▁bugün	-7.94308
▁Afrika	-7.94527
▁basit	-7.94533
▁üzerine	-7.94736
▁e	-7.94843
▁artık	-7.95172
dur	-7.95193
miz	-7.95267
ma	-7.95306
▁açık	-7.95551
▁enerji	-7.96659
erek	-7.96703
▁daki	-7.96731
▁şöyle	-7.97547
ti	-7.97794
▁gelen	-7.98016
▁ederim	-7.98248
▁hayal	-7.98489
▁yardım	-7.98795
ten	-7.98997
▁3	-7.9919
larına	-7.99437
▁nin	-7.99744
▁hiçbir	-8.00203
▁Böylece	-8.00412
▁vardır	-8.01665
▁konusunda	-8.02451
▁hızlı	-8.03187
▁eden	-8.03426
▁geldi	-8.03817
lardan	-8.04043
lerden	-8.04728
du	-8.04973
o	-8.05168
▁dolar	-8.0519
▁Amerika	-8.05406
▁onların	-8.05588
im	-8.06119
te	-8.06155
▁Sade	-8.06545
▁ediyor	-8.06674
▁çocuk	-8.06843
▁durum	-8.07162
▁Tamam	-8.07442
yu	-8.08493
▁yakın	-8.08578
▁yeniden	-8.08722
▁2	-8.08799
▁işe	-8.08832
▁bizi	-8.09149
▁hikaye	-8.09263
▁yaklaşık	-8.09606
larla	-8.09813
▁ancak	-8.09899
▁çoğu	-8.09968
▁sonunda	-8.09976
▁hale	-8.10501
lardı	-8.10554
▁sosyal	-8.10594
▁Şu	-8.10627
▁sene	-8.10863
▁Sonra	-8.1094
▁tane	-8.11291
sınız	-8.11392
seniz	-8.11781
▁yerde	-8.11866
sunuz	-8.12325
▁kaç	-8.12461
▁konu	-8.12465
▁herkes	-8.12576
mız	-8.12594
▁elde	-8.1294
▁alan	-8.13203
▁onlara	-8.1364
▁sizin	-8.14578
deki	-8.15155
▁temel	-8.15561
▁süre	-8.15565
▁hem	-8.15609
▁ilginç	-8.15684
▁dört	-8.15718
▁ona	-8.15869
nda	-8.16404
▁Benim	-8.16555
▁Teşekkürler	-8.16841
▁zorunda	-8.16965
▁herhangi	-8.16975
▁hemen	-8.17069
▁şeyleri	-8.17692
sına	-8.17804
se	-8.1827
▁Onlar	-8.18714
▁olmayan	-8.19292
▁insanları	-8.19358
▁özel	-8.19483
ta	-8.19657
▁eski	-8.1972
▁demek	-8.20554
▁kadın	-8.20647
▁hala	-8.20922
▁kolay	-8.21014
▁milyar	-8.21455
▁istediğim	-8.21497
▁1	-8.215
▁inanılmaz	-8.21535
▁nokta	-8.21824
▁dünyada	-8.21932
▁altında	-8.22178
▁siz	-8.2234
▁fikir	-8.23841
▁ay	-8.24305
tı	-8.24623
▁sorun	-8.24783
▁ta	-8.25169
▁durumda	-8.25361
▁izin	-8.25873
▁kontrol	-8.26256
nı	-8.26268
▁etti	-8.2658
▁dair	-8.26716
▁adam	-8.268
mi	-8.26807
▁bilim	-8.27042
▁güçlü	-8.27112
▁örnek	-8.28346
▁dan	-8.28457
▁başladı	-8.28528
an	-8.28567
d	-8.28876
▁bilgisayar	-8.28953
▁yine	-8.29227
▁hatta	-8.29252
▁En	-8.29568
larının	-8.29969
▁birşey	-8.30256
▁mümkün	-8.30298
▁Bugün	-8.30653
▁yaşam	-8.30767
▁veri	-8.31307
▁un	-8.31462
sini	-8.31904
ip	-8.32027
lerinden	-8.32627
▁bunları	-8.3277
▁B	-8.32828
▁30	-8.32886
▁Neden	-8.32964
▁5	-8.3314
▁parçası	-8.33175
▁genç	-8.33289
▁hepsi	-8.3416
lerde	-8.34389
▁saat	-8.34475
▁Ya	-8.34828
▁şunu	-8.34997
▁inşa	-8.35177
▁kabul	-8.35706
▁parça	-8.36159
▁gelir	-8.36614
mış	-8.36672
▁den	-8.36829
▁bence	-8.37272
▁hafta	-8.37383
▁göz	-8.37459
▁New	-8.3746
▁değildir	-8.37479
▁beyin	-8.37565
▁yalnız	-8.37868
▁100	-8.38295
▁E	-8.38428
▁değildi	-8.38597
▁kimse	-8.38665
▁kez	-8.38667
▁insanlara	-8.38996
▁yolu	-8.39218
▁neredeyse	-8.39595
▁İlk	-8.39618
▁proje	-8.39999
▁araba	-8.40299
▁sürü	-8.40986
▁çalışma	-8.41092
▁yapı	-8.4121
▁dedim	-8.41307
▁eğitim	-8.41505
▁beş	-8.41912
▁yanlış	-8.41983
me	-8.42135
▁benzer	-8.42136
▁yapmaya	-8.42212
lu	-8.42647
▁neler	-8.42698
▁sizi	-8.42966
▁hava	-8.43023
▁50	-8.4303
▁araya	-8.43281
▁özellikle	-8.4416
▁gerekiyor	-8.44201
lerinin	-8.44269
▁kısa	-8.44664
ini	-8.4483
▁yere	-8.45055
▁gördüğünüz	-8.45146
▁birisi	-8.45405
▁kat	-8.46159
ız	-8.46337
▁te	-8.46385
▁olduğuna	-8.46768
▁gösteriyor	-8.46834
ıp	-8.46934
▁çevre	-8.47103
▁hayat	-8.47106
▁doğal	-8.47567
▁sistemi	-8.48192
sını	-8.48337
▁yapan	-8.48405
▁verici	-8.48442
▁üzere	-8.48874
▁düşünün	-8.48971
▁etme	-8.49076
▁bakın	-8.49122
▁bak	-8.49126
dim	-8.49302
▁TED	-8.49506
▁tahmin	-8.49544
▁edin	-8.49803
▁çalışan	-8.50086
▁gerek	-8.5079
▁D	-8.51358
▁Aynı	-8.51381
▁muhtemel	-8.51465
▁kullanarak	-8.51665
▁mu	-8.5168
▁Hindistan	-8.51692
nden	-8.51695
▁bundan	-8.52057
▁Tüm	-8.5254
▁yaptığı	-8.52635
▁kız	-8.52727
▁şeyin	-8.52808
▁geçen	-8.52886
▁yoktu	-8.52922
▁başladım	-8.53
ine	-8.53006
▁derece	-8.5315
ç	-8.53202
▁cevap	-8.53451
un	-8.53451
▁altı	-8.53632
▁15	-8.53645
▁G	-8.5379
yız	-8.53804
▁arasındaki	-8.54037
▁ses	-8.54199
▁güç	-8.54307
▁bunların	-8.54534
sin	-8.54566
▁sonraki	-8.54793
larından	-8.54885
▁ihtiyacımız	-8.55348
▁Son	-8.55447
▁araştırma	-8.55571
▁Çin	-8.55715
▁olmadığını	-8.56399
▁biliyoruz	-8.56489
▁İnsanlar	-8.56627
▁gelecek	-8.56729
▁yılda	-8.56856
▁200	-8.56872
▁Belki	-8.56999
larda	-8.57064
▁olsa	-8.5739
▁görüyorsunuz	-8.57766
▁rağmen	-8.58213
nüz	-8.58331
▁Ban	-8.58392
▁olma	-8.58494
▁4	-8.58735
▁yapıyor	-8.58743
▁dakika	-8.58813
▁düşünüyorum	-8.58855
▁yüz	-8.58958
▁teşekkür	-8.58978
▁görebilirsiniz	-8.59164
▁alıp	-8.59315
▁K	-8.59584
mı	-8.59727
ş	-8.60011
▁dolayı	-8.60235
▁insanın	-8.60579
▁sağlık	-8.60698
▁ı	-8.6071
ım	-8.60864
▁olursa	-8.61026
▁aşağı	-8.61221
▁grup	-8.61397
▁beraber	-8.61479
▁ifade	-8.61506
▁ikinci	-8.61525
▁nedir	-8.61592
▁hasta	-8.62257
▁ana	-8.62497
▁T	-8.62544
▁çeşit	-8.62597
nde	-8.62992
▁on	-8.62997
▁ye	-8.63001
▁iletişim	-8.63063
▁yaptığımız	-8.63124
▁ettim	-8.63238
▁York	-8.63436
▁bağlı	-8.63517
▁yardımcı	-8.63549
miş	-8.63558
inde	-8.64077
▁kim	-8.64158
▁ülke	-8.64292
▁ele	-8.64377
▁tedavi	-8.64462
▁bazen	-8.64757
▁yaptık	-8.64982
▁ister	-8.65243
▁olduğumuz	-8.65329
▁düşündüm	-8.65534
▁başına	-8.65773
▁yılında	-8.65865
▁Ayrıca	-8.65904
▁olsun	-8.65906
▁görmek	-8.66008
▁içine	-8.66185
▁yapma	-8.66397
▁aile	-8.6652
▁erkek	-8.6654
▁olup	-8.66619
▁etmeye	-8.66875
sal	-8.66972
▁adı	-8.67226
▁dışında	-8.67528
▁kendini	-8.67576
▁karmaşık	-8.6773
larında	-8.67739
▁dünyayı	-8.68013
▁değer	-8.68516
▁anlama	-8.68729
▁gece	-8.69458
▁ekonomik	-8.69526
▁küresel	-8.69907
▁hep	-8.70144
▁çocuklar	-8.70204
▁konuda	-8.70268
▁işi	-8.70328
▁sürekli	-8.70331
▁yapılan	-8.707
▁kesinlikle	-8.70814
▁Avrupa	-8.71058
▁beri	-8.71207
▁görüyoruz	-8.71417
nızı	-8.71571
▁kısmı	-8.72091
▁yaşayan	-8.72498
▁çıktı	-8.7271
▁kelime	-8.72754
▁derin	-8.72775
▁ortak	-8.72855
▁bin	-8.72875
▁bakış	-8.73087
▁gerektiğini	-8.73088
▁hücre	-8.73232
on	-8.73435
▁Büyük	-8.73699
▁içerisinde	-8.73709
▁fikri	-8.73896
▁Bütün	-8.74234
▁asla	-8.74311
▁söz	-8.74619
▁arada	-8.74641
▁haline	-8.74645
yım	-8.74739
▁Bizim	-8.74798
▁olurdu	-8.74828
▁almak	-8.74944
▁takip	-8.75016
▁Teşekkür	-8.75017
▁genel	-8.75106
al	-8.75346
▁vermek	-8.75533
▁olmadığı	-8.75739
▁tasarım	-8.75804
▁bulunan	-8.76069
▁nedenle	-8.76143
▁biliyor	-8.76301
▁sebebi	-8.76476
▁binlerce	-8.76494
nizi	-8.76813
▁Buna	-8.76918
▁Yeni	-8.77046
▁evet	-8.77137
▁Gerçekten	-8.77184
▁toplum	-8.77292
mizi	-8.77468
▁yaşında	-8.77659
▁40	-8.77664
▁Hayır	-8.77734
▁konuşma	-8.77925
lerinde	-8.78256
▁dolu	-8.78378
▁dünyadaki	-8.78445
▁hayatta	-8.7867
▁sistem	-8.78745
▁yaptım	-8.78766
▁video	-8.78772
▁meydan	-8.78779
▁ediyorum	-8.78783
▁çıkar	-8.78908
▁başarılı	-8.78966
yiz	-8.79168
▁C	-8.79285
▁defa	-8.79348
▁varsa	-8.79491
ydu	-8.7955
▁gidip	-8.79631
▁eder	-8.79661
sek	-8.79706
ci	-8.79744
▁hepimiz	-8.7978
▁ileri	-8.79898
▁uygun	-8.799
siz	-8.79986
▁savaş	-8.80007
▁ışık	-8.80122
▁he	-8.80207
▁İki	-8.80498
ik	-8.80847
alım	-8.81114
▁sayesinde	-8.81168
▁deniz	-8.81365
▁metre	-8.81395
▁sebep	-8.8152
▁deki	-8.81806
▁ait	-8.81902
▁problem	-8.81931
▁elektrik	-8.81945
▁ihtiyaç	-8.81954
▁el	-8.82034
▁mükemmel	-8.82093
▁tabii	-8.82334
▁DNA	-8.82336
sak	-8.82445
▁u	-8.82611
▁M	-8.82635
▁gerekir	-8.82738
▁musunuz	-8.82831
▁ev	-8.82933
▁geniş	-8.82984
▁mutlu	-8.83078
▁Diğer	-8.83276
▁olmalı	-8.83493
ını	-8.83797
▁canlı	-8.83917
ça	-8.84486
▁düşünce	-8.84712
▁zamanlar	-8.84736
▁resim	-8.84805
▁dikkat	-8.84891
yken	-8.85008
▁6	-8.85037
▁düşük	-8.8518
▁I	-8.85267
▁ayrıca	-8.85429
▁veren	-8.8567
▁güneş	-8.85685
â	-8.85851
▁hangi	-8.86078
▁oyun	-8.86175
▁kadınlar	-8.86232
g	-8.86237
▁sanat	-8.86783
▁olmadan	-8.868
mızı	-8.86857
▁yaptı	-8.87186
▁değişim	-8.87291
▁başladık	-8.87398
▁biliyorum	-8.87472
▁yıldır	-8.87934
▁merak	-8.87955
▁ABD	-8.88197
▁nerede	-8.88261
▁ciddi	-8.88636
▁muhteşem	-8.88719
▁şeye	-8.88809
▁normal	-8.89084
h	-8.89215
▁internet	-8.8943
▁kendisi	-8.89518
▁mevcut	-8.89579
▁sonuç	-8.89768
▁adım	-8.90135
▁yukarı	-8.90473
▁söyledi	-8.90835
▁iç	-8.91022
▁anlamak	-8.91319
▁beyaz	-8.91368
▁Kendi	-8.91404
▁anlamın	-8.9142
▁madde	-8.91475
▁gidiyor	-8.91597
▁çıkan	-8.91807
sın	-8.91911
▁göstermek	-8.91922
▁yavaş	-8.91928
▁dahil	-8.91944
f	-8.92075
▁bina	-8.92115
▁olacağını	-8.92163
▁haber	-8.92204
▁anne	-8.92216
dım	-8.92299
elim	-8.92327
▁bakar	-8.92491
▁gücü	-8.92531
▁ettik	-8.92599
▁film	-8.92848
▁olay	-8.92884
▁fotoğraf	-8.93388
▁başarı	-8.93493
▁kendimi	-8.9356
▁veriyor	-8.93671
▁verdi	-8.93745
▁acı	-8.93833
▁bilirsiniz	-8.94097
▁sık	-8.94174
▁gerekli	-8.94305
▁12	-8.94435
▁yemek	-8.9454
▁şehir	-8.94588
▁oluşan	-8.94649
▁herkesin	-8.94948
▁asıl	-8.95059
nun	-8.95125
▁test	-8.95325
▁birinin	-8.95495
liği	-8.95533
▁aldı	-8.9595
▁yanında	-8.96053
▁yerlerde	-8.96071
▁mavi	-8.9621
▁kişisel	-8.96234
▁müzik	-8.96265
dik	-8.96426
▁yaptığım	-8.96438
▁Müzik	-8.96662
▁zaten	-8.96662
▁uzak	-8.96828
▁nun	-8.96866
yse	-8.97066
el	-8.97146
▁ölüm	-8.97278
▁buraya	-8.97605
▁60	-8.9761
▁Amerikan	-8.97803
▁birini	-8.9789
▁Artık	-8.98031
▁emin	-8.98074
▁yı	-8.98451
çe	-8.98551
▁olmasını	-8.98657
▁H	-8.98739
▁görünüyor	-8.98904
▁bakalım	-8.98977
larımız	-8.99399
sun	-8.99417
▁fiziksel	-8.99431
▁Onun	-8.99875
▁olsaydı	-9.00134
▁Birleşi	-9.00363
▁ufak	-9.00371
▁çocukların	-9.00424
▁makine	-9.0054
▁olmaya	-9.00644
▁olduğum	-9.00876
▁çözüm	-9.00933
▁Örneğin	-9.0106
▁nedeni	-9.01192
▁şeylerden	-9.01201
▁sen	-9.01203
▁model	-9.01502
▁idi	-9.01651
▁yıllık	-9.01653
▁yedi	-9.01671
▁Bunları	-9.01773
▁ortalama	-9.01809
▁sesi	-9.01997
▁etki	-9.02035
▁belli	-9.02037
▁resmi	-9.02118
▁söylemek	-9.0216
▁noktada	-9.02327
▁Mars	-9.02338
▁alanı	-9.02348
su	-9.02493
▁CA	-9.02542
▁aldım	-9.02547
▁yeterli	-9.02759
▁verdim	-9.02795
▁çalışıyor	-9.03116
lığı	-9.03166
▁geli	-9.03178
▁tabi	-9.03197
sinin	-9.03436
▁okul	-9.03471
▁ilişki	-9.03487
▁bulmak	-9.03489
▁doğa	-9.03509
▁kitap	-9.03708
▁bölge	-9.03842
▁yeşil	-9.04186
▁katı	-9.04274
▁buradaki	-9.04369
▁gördüm	-9.04378
▁bağlantı	-9.04488
▁baş	-9.04592
es	-9.04763
▁sahibi	-9.04857
▁lazım	-9.05074
▁sanırım	-9.05177
yim	-9.0555
▁hazır	-9.05646
▁biçimde	-9.05693
▁çizgi	-9.05903
▁Google	-9.0591
▁ediyoruz	-9.05918
▁hayvan	-9.06197
▁San	-9.06227
▁araç	-9.06278
▁Bazı	-9.06298
▁tanesi	-9.06312
▁yapıyoruz	-9.06326
▁Nasıl	-9.06415
sız	-9.06432
tik	-9.06515
▁derecede	-9.06538
▁sayıda	-9.06744
▁at	-9.06827
▁şeylerin	-9.06832
▁dışarı	-9.06844
▁edecek	-9.06867
▁kalan	-9.06883
▁diyor	-9.07001
▁dünyaya	-9.07087
▁Başka	-9.07135
▁işin	-9.07196
leriyle	-9.07263
▁yatırım	-9.07279
▁tarafta	-9.07458
▁gittim	-9.07479
▁sıra	-9.07879
us	-9.07948
▁halde	-9.08106
▁kan	-9.08122
▁yerel	-9.08431
▁aşırı	-9.08488
▁korku	-9.08516
ına	-9.08554
▁18	-9.08668
▁Güney	-9.08682
▁11	-9.08685
▁şekli	-9.08789
▁Hatt	-9.08797
▁sağlıyor	-9.0885
▁dijital	-9.09193
▁sayı	-9.09322
▁azında	-9.09416
▁zamanlarda	-9.09596
▁ön	-9.09611
▁Tanrı	-9.09627
▁kanser	-9.09714
▁olduklarını	-9.09893
▁Kuzey	-9.09954
▁biliyorsunuz	-9.10062
▁olacaktır	-9.10172
▁sağ	-9.10207
▁hayır	-9.10487
▁günde	-9.10541
▁şaşırtıcı	-9.10746
▁etkili	-9.10781
▁ilgi	-9.10824
▁üst	-9.10901
▁medya	-9.11284
▁bazıları	-9.11351
anırım	-9.11546
▁anlamı	-9.11706
▁milyonlarca	-9.11812
▁25	-9.11841
▁üstünde	-9.12131
ktan	-9.12163
dür	-9.12214
▁oldukları	-9.12237
▁kalp	-9.12481
▁konusu	-9.12517
▁Böyle	-9.12683
▁sinir	-9.12761
cı	-9.12876
▁sağlayan	-9.13132
▁yerinde	-9.13183
▁kişinin	-9.13186
▁gösteren	-9.13212
▁ilaç	-9.1323
▁zengin	-9.1324
▁alt	-9.13524
▁istedim	-9.13645
▁düşün	-9.13947
▁Herkes	-9.14069
▁hastalık	-9.14202
▁açısından	-9.14259
▁ortada	-9.14425
▁verir	-9.14479
▁tamam	-9.14561
▁bununla	-9.14573
▁adında	-9.14751
▁altın	-9.14818
▁yüzünden	-9.14874
lerimiz	-9.15194
▁işler	-9.15243
▁uzay	-9.15269
▁nde	-9.15276
▁teşekkürler	-9.15296
▁orta	-9.15358
▁Mesel	-9.15471
▁mücadele	-9.15475
▁alıyor	-9.15496
▁devlet	-9.1573
▁olmuş	-9.15771
2	-9.1585
▁7	-9.15916
▁heyecan	-9.15933
▁mesela	-9.16102
▁Birkaç	-9.16106
▁kırmızı	-9.16117
▁ilham	-9.16377
▁başında	-9.16555
▁yaratmak	-9.1659
▁tepki	-9.16952
▁al	-9.16995
▁Onu	-9.17268
▁insanlarla	-9.17325
▁görme	-9.17402
▁80	-9.17539
▁sonucu	-9.17603
▁arka	-9.17663
▁çıkıyor	-9.17781
▁sayısı	-9.17819
▁icin	-9.17846
▁değilim	-9.18205
▁öğrenme	-9.1826
▁anlamda	-9.18272
▁görsel	-9.18303
▁görüntü	-9.18389
▁olmuştu	-9.18401
▁ihtiyacı	-9.18774
▁zamanı	-9.18838
▁der	-9.18987
c	-9.19027
▁büyüme	-9.19209
▁deney	-9.19393
▁istiyoruz	-9.19526
▁sanki	-9.19764
▁yıllar	-9.19829
▁hâl	-9.19836
▁durumu	-9.19881
▁yanı	-9.19899
▁çeşitli	-9.1996
▁iklim	-9.20179
▁oray	-9.20187
muş	-9.20211
▁yapar	-9.20219
▁yapabiliriz	-9.20428
inden	-9.20503
▁petrol	-9.20526
▁çalışmak	-9.20558
▁robot	-9.20605
▁göstereceğim	-9.20613
▁geç	-9.2073
▁şirket	-9.20745
▁yoksa	-9.20924
▁oda	-9.21173
▁Hiç	-9.21177
▁Dolayısı	-9.2118
▁olanlar	-9.21323
▁göster	-9.21366
imiz	-9.21413
▁örneğin	-9.21463
▁etkisi	-9.21509
ıpkı	-9.21579
▁Orada	-9.21598
▁destek	-9.2169
▁içindeki	-9.21704
▁alır	-9.21725
▁J	-9.21778
▁önceki	-9.21898
▁8	-9.21945
▁kaynak	-9.22101
▁gerçekte	-9.22181
▁inanıyorum	-9.22375
▁yaşlı	-9.22575
▁ara	-9.2267
▁ucuz	-9.22699
▁yaz	-9.23341
▁bilimsel	-9.23343
ir	-9.23705
▁t	-9.23807
▁İkinci	-9.24052
lerdi	-9.24116
▁satın	-9.24134
▁İyi	-9.24144
cak	-9.24392
▁gelecekte	-9.24524
▁seçim	-9.24656
▁garip	-9.24715
liğe	-9.24825
▁yüzlerce	-9.25024
il	-9.25058
or	-9.25172
▁sağlıklı	-9.25183
luk	-9.25298
▁elbette	-9.25317
▁seviyorum	-9.25339
▁cep	-9.25641
▁günlük	-9.25643
▁ağ	-9.25661
▁tercih	-9.25686
▁zarar	-9.25834
▁kullanmak	-9.25866
▁Biraz	-9.25945
dum	-9.25954
▁konuşmak	-9.26011
▁saniye	-9.26098
▁yapılmış	-9.26164
mak	-9.26218
▁Video	-9.26226
▁bilmiyorum	-9.26255
▁nerey	-9.26303
▁temsil	-9.26303
▁yoktur	-9.26442
▁hoş	-9.26466
▁takım	-9.26545
▁tip	-9.26654
▁önünde	-9.2667
▁Tabii	-9.26702
▁ülkeler	-9.26759
dığını	-9.2678
▁fazlası	-9.26852
▁telefon	-9.26853
▁yaratıcı	-9.26904
▁dışı	-9.26933
▁gerektiği	-9.27085
▁giden	-9.27115
▁gizli	-9.27503
▁gördüğümüz	-9.27895
▁başlıyor	-9.27918
▁fikirler	-9.27948
▁şarkı	-9.27954
▁açıdan	-9.28121
ra	-9.28148
▁alakalı	-9.28403
▁F	-9.28433
▁korkunç	-9.28528
▁demokrasi	-9.28807
▁umut	-9.28819
▁Gerçek	-9.28892
▁beynin	-9.29007
▁güvenli	-9.29387
▁alma	-9.29391
▁üçüncü	-9.29448
▁olduğundan	-9.29455
▁kamera	-9.29501
▁üzerindeki	-9.29508
▁edilen	-9.29684
▁yapıyorlar	-9.29737
▁eve	-9.29868
▁getirmek	-9.29976
▁hücreleri	-9.29983
▁önemlisi	-9.30096
▁kendimizi	-9.30133
▁etrafında	-9.30258
▁koruma	-9.30271
▁buldum	-9.30324
larımızı	-9.30332
▁kendilerini	-9.30373
▁olduğunda	-9.30472
sinden	-9.30473
▁ders	-9.30552
man	-9.30553
▁icat	-9.30582
▁geleneksel	-9.30588
▁bunlardan	-9.30619
▁Onları	-9.30716
▁söylüyor	-9.3093
▁edilmiş	-9.30981
min	-9.31073
▁İnsan	-9.31241
▁ayrı	-9.31278
▁merkezi	-9.31538
▁gitmek	-9.31555
▁türlü	-9.31589
▁ekonomi	-9.31838
iyor	-9.31887
▁gördük	-9.32294
▁sabah	-9.32369
▁Pekala	-9.32508
▁bitki	-9.32597
▁üniversite	-9.32917
▁yaptıkları	-9.33264
▁hayatın	-9.33455
▁mesaj	-9.33476
▁9	-9.33538
▁kaynağı	-9.33541
▁değişik	-9.33627
▁oldum	-9.33693
▁anlamaya	-9.337
▁kere	-9.33776
▁Birçok	-9.33818
▁Burası	-9.33886
is	-9.33944
▁yan	-9.33982
▁sorunu	-9.33998
▁L	-9.34082
ecek	-9.34094
▁bizler	-9.34106
▁insanı	-9.34109
▁yapmayı	-9.34116
▁gider	-9.3414
▁esas	-9.34268
▁ürün	-9.34348
▁dizi	-9.34368
▁s	-9.3443
▁çocukları	-9.34437
▁kişiler	-9.3444
▁değiştirmek	-9.34639
kten	-9.34853
▁yaparken	-9.34885
▁evrim	-9.34913
▁genellik	-9.34947
▁70	-9.34979
adlı	-9.34981
▁risk	-9.3502
▁herşey	-9.35075
acak	-9.35117
▁kafa	-9.35118
yorum	-9.35122
▁verme	-9.35208
▁kapı	-9.35259
▁aracı	-9.35445
▁geldiğini	-9.35459
▁tarih	-9.3552
kçe	-9.35553
▁çalışıyoruz	-9.35602
▁sorular	-9.35623
▁budur	-9.35702
▁fakir	-9.35713
lama	-9.35743
▁politik	-9.35855
▁erkekler	-9.35922
▁yazı	-9.35952
▁Beni	-9.35978
mek	-9.36132
▁uzakta	-9.36168
▁düşünmeye	-9.36192
▁İnsanların	-9.36218
▁sahibiz	-9.36351
▁olağanüstü	-9.36475
▁ettiği	-9.36514
▁güven	-9.36557
▁kara	-9.36703
▁halinde	-9.3671
▁belirli	-9.36752
▁genetik	-9.36815
▁sırasında	-9.36864
▁balık	-9.36864
▁dahi	-9.37051
▁et	-9.37101
▁verin	-9.37103
tu	-9.37153
ar	-9.37252
▁dil	-9.3729
▁Batı	-9.37444
▁modern	-9.37488
▁sekiz	-9.37493
▁bakarsa	-9.37625
son	-9.3764
▁90	-9.37969
▁bulduk	-9.38111
▁işaret	-9.38125
▁yiyecek	-9.38211
▁ardında	-9.38257
▁Tam	-9.38264
▁ikna	-9.38525
▁yoğun	-9.38794
ysa	-9.3882
▁yaparak	-9.39253
▁sonsuz	-9.39314
▁ediyorlar	-9.39418
▁senin	-9.3945
▁ikisi	-9.39507
▁arkadaşım	-9.39513
▁yeterin	-9.39688
▁geriye	-9.39704
▁harita	-9.39725
▁hedef	-9.39888
raya	-9.40002
▁ortasında	-9.40038
▁yarısı	-9.40067
mizin	-9.40097
▁hata	-9.40169
ri	-9.40301
▁hastalığı	-9.40417
▁demektir	-9.40426
▁boyutlu	-9.4062
▁yi	-9.408
▁erken	-9.40826
▁akıllı	-9.40866
▁hepsini	-9.40986
▁karanlık	-9.40991
▁şiddet	-9.40995
▁geçmiş	-9.41024
▁çift	-9.41203
▁fırsat	-9.41212
▁siyah	-9.41278
▁Geçen	-9.41321
▁sonuçlar	-9.41623
▁Demek	-9.41681
eyim	-9.41773
▁yapacak	-9.41787
▁hayatı	-9.41942
▁başta	-9.41951
▁Sen	-9.41962
▁baskı	-9.41971
▁El	-9.42034
▁açıkça	-9.42087
1	-9.42092
▁düşünüyor	-9.42144
▁kendime	-9.42261
lan	-9.42359
▁verdik	-9.42382
▁dış	-9.42401
▁mü	-9.42458
▁hayatını	-9.42523
▁Tek	-9.42588
▁bakım	-9.42692
▁Öyle	-9.42744
▁sınıf	-9.42767
▁çalışıyorum	-9.42818
▁mil	-9.42912
larıyla	-9.42921
▁eş	-9.43003
▁düşünme	-9.431
▁kadınların	-9.43119
▁onunla	-9.43173
▁sonrasında	-9.43345
▁aldık	-9.43398
▁sağlamak	-9.43443
▁çalışmaya	-9.43627
liğin	-9.4371
▁ülkede	-9.43743
▁sayfa	-9.43772
▁öğrenci	-9.43831
▁N	-9.43848
▁ziyaret	-9.44095
▁Orta	-9.44116
4	-9.44158
▁ince	-9.44161
▁uygulama	-9.44287
▁güvenlik	-9.44305
▁şirketler	-9.44694
▁yaşıyor	-9.44718
▁hayvanlar	-9.44746
et	-9.44838
▁karbon	-9.44858
▁500	-9.45088
▁çekici	-9.451
▁miktarda	-9.45163
▁yapmamız	-9.45176
lerimizi	-9.4521
▁deneyim	-9.45282
▁ışığı	-9.45385
▁sırada	-9.45396
malıyız	-9.45486
sinde	-9.45511
▁olduğumu	-9.45769
▁alanda	-9.45886
▁yapabilir	-9.45932
▁adını	-9.45974
ması	-9.45979
▁16	-9.45982
inin	-9.46037
▁davet	-9.46146
▁sıcak	-9.46149
ing	-9.46151
▁koy	-9.4622
▁ek	-9.46385
ton	-9.46434
▁boş	-9.4644
▁ayak	-9.46515
maya	-9.46601
▁kesin	-9.46627
▁Buradaki	-9.46667
▁başlar	-9.46729
▁numara	-9.4674
3	-9.46752
▁Öyleyse	-9.4678
dığı	-9.46846
▁zeki	-9.46994
▁R	-9.46996
▁birine	-9.47234
▁ten	-9.47284
▁adına	-9.47482
▁noktası	-9.47634
▁cok	-9.47739
▁olmayacak	-9.47764
▁anlat	-9.47908
acağız	-9.47921
▁hücreler	-9.4797
▁getirdi	-9.4798
▁teşvik	-9.47998
ında	-9.48043
▁edici	-9.48276
birine	-9.48288
▁Hepimiz	-9.48315
▁gaye	-9.48613
▁muazzam	-9.48655
▁bebek	-9.48834
b	-9.48961
larımızın	-9.49047
unu	-9.49115
ayım	-9.49145
▁yaygın	-9.49173
▁nesil	-9.49204
▁akıl	-9.49308
▁ağır	-9.49331
▁gerekiyordu	-9.49354
▁mal	-9.49362
▁kullanma	-9.49446
▁çapında	-9.49467
▁gıda	-9.49496
▁aşı	-9.49576
▁istediğimiz	-9.49623
▁olmaları	-9.49785
▁Bazen	-9.49804
▁sol	-9.49914
▁amacı	-9.50043
▁getiriyor	-9.50104
▁Su	-9.50175
▁birşeyler	-9.50315
▁öğrendim	-9.50356
▁olduğumuzu	-9.50361
▁süreci	-9.50464
nca	-9.50487
▁Al	-9.50509
▁hizmet	-9.50511
▁ettiler	-9.50573
▁geçti	-9.50633
▁şekil	-9.50658
▁olmayı	-9.50682
▁gitti	-9.50765
▁okula	-9.50795
▁temiz	-9.5081
▁anlatmak	-9.50811
▁pahalı	-9.50853
▁örneği	-9.50878
▁ederek	-9.50974
▁Sizin	-9.50983
▁sanal	-9.51024
▁sana	-9.5114
abilirsiniz	-9.51141
▁yöntem	-9.51248
▁kullanıyor	-9.51291
▁Güneş	-9.51357
▁Yine	-9.51369
▁yağmur	-9.51406
sının	-9.51441
▁sağladı	-9.51583
▁sahne	-9.51593
▁sıfır	-9.51613
▁İnternet	-9.51627
▁tarz	-9.5165
▁hızla	-9.5165
▁burası	-9.51907
co	-9.51923
▁rol	-9.51931
▁edildi	-9.51941
▁dans	-9.51984
▁duruyor	-9.52046
▁çoğunu	-9.52057
▁la	-9.52172
lerdir	-9.52225
lıyız	-9.52236
9	-9.52278
at	-9.525
▁plan	-9.5261
▁almaya	-9.52661
▁19	-9.52689
▁neyse	-9.52744
▁biyolojik	-9.52847
cık	-9.52966
▁13	-9.53227
▁suç	-9.53234
▁tehlikeli	-9.53235
ed	-9.53269
▁burda	-9.53361
▁istiyor	-9.53406
▁mesele	-9.53494
▁zihin	-9.53631
▁U	-9.53687
▁müthiş	-9.53733
mızın	-9.53793
▁Çoğu	-9.53811
▁yada	-9.53866
▁çalıştığım	-9.53894
▁süreç	-9.53913
▁Ona	-9.54077
▁teknik	-9.54122
▁benzeri	-9.54145
▁21	-9.54237
▁Hem	-9.54352
▁İş	-9.54356
ır	-9.54366
▁süper	-9.54456
▁kar	-9.54496
▁arası	-9.54528
▁gezegen	-9.5454
▁öğrenmek	-9.54559
▁görürsünüz	-9.54943
▁göreceksiniz	-9.5496
▁kendimiz	-9.54965
▁onlarla	-9.54997
▁gösterdi	-9.55069
▁oranı	-9.55118
▁sordu	-9.55184
▁benimle	-9.55187
▁olmaz	-9.55215
▁düşünmek	-9.55348
▁uç	-9.55419
imi	-9.55465
▁eğlenceli	-9.55631
ımız	-9.55657
mın	-9.55765
▁buçuk	-9.55779
▁yarı	-9.55887
▁babam	-9.56114
▁gelişme	-9.56123
▁Küçük	-9.5618
▁ülkelerde	-9.56233
dık	-9.56288
▁hepimizin	-9.56306
▁P	-9.56363
▁araçlar	-9.56469
▁İngiltere	-9.56579
▁suyu	-9.56735
▁okuma	-9.56894
▁çalıştım	-9.56909
▁pazar	-9.56937
▁buydu	-9.56953
▁HIV	-9.56992
▁yeri	-9.56997
▁14	-9.57006
▁olmamız	-9.57075
▁Doğu	-9.57257
▁ton	-9.5726
▁kök	-9.57371
▁söylediği	-9.57445
▁buldu	-9.5746
▁sonu	-9.5753
▁problemi	-9.57537
▁oy	-9.57621
tur	-9.57685
▁gel	-9.57711
▁şeklinde	-9.57752
▁Çocuk	-9.57805
▁nefret	-9.57833
▁nefes	-9.57847
▁verilen	-9.57943
▁günü	-9.57948
▁benziyor	-9.58266
▁sordum	-9.58334
▁Sonuç	-9.58371
▁dediler	-9.58446
▁bildiğimiz	-9.58601
▁kutu	-9.58606
▁görünen	-9.58735
▁net	-9.58738
▁24	-9.58881
▁yaşındaki	-9.59013
▁bırak	-9.59068
▁tarihi	-9.59075
▁kullanılan	-9.59104
▁işbirliği	-9.59171
▁Dr	-9.59188
▁İngilizce	-9.59201
▁tuhaf	-9.59376
▁Adam	-9.59423
▁saygı	-9.59474
▁yapabilirsiniz	-9.59596
▁yapmış	-9.59633
▁Ha	-9.59699
▁sıradan	-9.59868
▁Elbette	-9.59934
▁Şöyle	-9.59934
▁Tabi	-9.59944
▁malzeme	-9.60091
▁olduğunuz	-9.60203
abiliriz	-9.60264
▁rahat	-9.60306
ku	-9.60336
▁sürdürülebilir	-9.60361
sam	-9.60548
A	-9.6057
▁sorunlar	-9.60583
ğı	-9.60652
st	-9.60654
▁okyanus	-9.60655
▁isteyen	-9.60676
▁halk	-9.60738
ge	-9.60771
▁kamu	-9.60791
iyle	-9.60839
▁edebilir	-9.60933
▁rahatsız	-9.6095
▁sizinle	-9.60994
▁gücünü	-9.61006
▁Mo	-9.61097
▁Chris	-9.61209
▁kilometre	-9.61222
▁anlam	-9.61254
lanmış	-9.61291
▁zorundayız	-9.6133
▁din	-9.61376
▁modeli	-9.61565
▁annem	-9.61577
mize	-9.61581
▁duygusal	-9.6167
▁k	-9.61703
▁Kim	-9.61789
▁Sonun	-9.61831
▁önemlidir	-9.6184
▁geldiği	-9.61878
lığ	-9.61949
▁olmadı	-9.62096
▁geçerli	-9.62123
▁ünlü	-9.62125
▁görev	-9.6214
▁olanı	-9.62154
▁yana	-9.62189
▁17	-9.62221
▁sevgi	-9.62237
▁değiller	-9.62302
▁soğuk	-9.62378
▁üstüne	-9.62398
▁kültür	-9.62508
▁giderek	-9.62536
yor	-9.62548
D	-9.62731
▁Had	-9.62735
▁duvar	-9.62784
▁sistemin	-9.62788
▁sefer	-9.62821
▁Afganistan	-9.62965
▁üretim	-9.63069
▁başa	-9.63097
▁seyahat	-9.63183
diği	-9.63218
▁kullan	-9.63259
▁ettiğimiz	-9.6329
▁sağlayacak	-9.63306
▁renk	-9.63309
▁eşit	-9.63439
▁evde	-9.63515
▁kilo	-9.63535
▁yaş	-9.63581
▁kalma	-9.63653
▁bulunduğu	-9.63685
▁değiliz	-9.63723
▁yasa	-9.63754
▁içeri	-9.63762
▁yapıldı	-9.63777
▁km	-9.63779
▁alanlar	-9.6382
▁çocuğun	-9.63862
▁kısmını	-9.63935
▁gelişmiş	-9.63941
▁adamı	-9.63946
lardır	-9.63968
▁yapıyorum	-9.64031
▁aç	-9.64205
lü	-9.64289
▁çocuğu	-9.6436
▁verimli	-9.64386
▁si	-9.64426
▁yaptığını	-9.64442
▁Bilim	-9.64592
▁199	-9.64641
▁köpek	-9.64691
vi	-9.64694
▁paylaşmak	-9.6475
▁miyi	-9.64806
▁yabancı	-9.64816
▁yüzyıl	-9.64842
▁kare	-9.64904
▁ölü	-9.64912
▁tıp	-9.64945
▁Bilirsin	-9.65186
B	-9.65209
▁The	-9.65229
▁görmeye	-9.65252
mde	-9.65319
▁nevi	-9.6543
▁olduk	-9.65527
▁hafif	-9.65631
▁oluşturmak	-9.65742
▁ila	-9.65771
▁Harika	-9.6592
▁şehrin	-9.65948
lığın	-9.66009
▁imkansız	-9.66015
▁bas	-9.66041
▁bakmak	-9.66084
▁Gördüğünüz	-9.6609
▁edip	-9.66106
▁posta	-9.66168
▁şeyden	-9.66232
▁yüzyılda	-9.66285
▁dönü	-9.66294
▁görüyor	-9.66465
leme	-9.66488
▁çıkı	-9.66576
▁Doğru	-9.66624
▁Bize	-9.66705
▁tehdit	-9.66714
▁mimari	-9.66719
yoruz	-9.66757
▁hikâye	-9.66791
▁programı	-9.66815
▁Devletler	-9.6691
▁uluslararası	-9.67001
▁mantıklı	-9.67062
▁önümüzde	-9.67155
meye	-9.67207
▁sorunları	-9.6732
▁zeka	-9.67355
▁akşam	-9.67597
likle	-9.6767
▁gen	-9.67919
kça	-9.67991
▁sonuçları	-9.67991
▁dediği	-9.68075
ıyla	-9.68083
▁yerler	-9.6809
ba	-9.68181
▁oyunu	-9.68247
▁farkın	-9.68256
▁cevabı	-9.68277
▁arama	-9.68283
▁İ	-9.68334
▁fazlasını	-9.68363
▁değerli	-9.68413
▁sağlar	-9.68491
▁hayatımı	-9.68597
▁kağıt	-9.68613
▁gerçeği	-9.68656
▁türü	-9.68702
▁Asya	-9.68729
▁evrenin	-9.68753
▁Eski	-9.68881
▁çoğunlukla	-9.68886
▁yap	-9.69027
mıştı	-9.69059
▁can	-9.69153
▁Ma	-9.694
▁duygu	-9.69499
▁yapay	-9.69513
▁tecrübe	-9.69625
▁fare	-9.69699
▁yıldız	-9.69734
▁bulunuyor	-9.69758
▁kimyasal	-9.6979
▁hatırlıyorum	-9.69803
▁bilinen	-9.69827
ebilirsiniz	-9.6988
▁vücut	-9.6992
▁kurma	-9.70023
▁verdiği	-9.7007
▁geldiğinde	-9.70088
▁edebilirsiniz	-9.70332
▁diyorum	-9.70364
▁parçaları	-9.7049
▁doktor	-9.70518
▁tartışma	-9.7058
▁adamın	-9.7061
▁Hiçbir	-9.70641
▁verileri	-9.70719
▁epey	-9.70731
S	-9.70732
sıyla	-9.70763
▁geleceği	-9.70812
▁sizlere	-9.70915
▁bilmek	-9.7094
gi	-9.70975
▁şeydir	-9.71046
▁tasarruf	-9.71171
▁John	-9.71196
▁Londra	-9.71208
▁yola	-9.7121
▁alet	-9.71524
▁300	-9.71593
▁yaratıyor	-9.71622
▁ilerleme	-9.71843
▁yılı	-9.7188
▁dikkatli	-9.71931
▁Birincisi	-9.71938
▁program	-9.72019
▁parmak	-9.72059
▁alanında	-9.72079
▁sabit	-9.72129
▁kapalı	-9.72205
diğini	-9.72303
▁neyin	-9.72342
▁değiştirebilir	-9.72366
▁taraf	-9.72382
▁kanseri	-9.72405
▁koydu	-9.72497
▁bakteri	-9.72513
▁herşeyi	-9.72519
▁De	-9.72519
leşmiş	-9.72523
va	-9.72552
▁olun	-9.72613
▁parlak	-9.72649
▁yapacağı	-9.72652
▁spor	-9.72676
▁farkında	-9.72816
▁Va	-9.72912
▁web	-9.72975
sem	-9.72979
▁sesleri	-9.73042
▁açısı	-9.73055
▁lütfe	-9.73135
▁gelişmekte	-9.73142
▁siyasi	-9.73151
▁ötesinde	-9.73211
▁endişe	-9.73261
▁parçalar	-9.73269
▁aktif	-9.73338
▁virüs	-9.73587
▁nda	-9.73629
▁Hepsi	-9.73645
▁liste	-9.73651
▁tepe	-9.73695
▁olabilirsiniz	-9.73696
▁kural	-9.73713
▁olabileceğini	-9.73714
▁dediğimiz	-9.73755
▁korumak	-9.73774
▁ölçüde	-9.73782
sında	-9.7388
▁önün	-9.73937
▁sevdiğim	-9.73977
▁yakında	-9.73984
▁değiştirdi	-9.74029
▁Se	-9.74038
▁başladılar	-9.74053
▁değişimi	-9.74055
▁silah	-9.74146
▁görüş	-9.74274
▁yılın	-9.74326
▁bölümü	-9.74383
▁matematik	-9.74461
▁li	-9.74477
▁kaldı	-9.74488
▁tespit	-9.74605
▁bağımsız	-9.74629
▁makale	-9.74732
▁telefonu	-9.74765
mıza	-9.7495
▁buz	-9.74953
▁halka	-9.74989
▁...	-9.751
▁hükümet	-9.75115
▁başarısız	-9.75135
▁gerekirse	-9.75171
▁yaptılar	-9.75252
▁diğeri	-9.75321
▁ateş	-9.75349
re	-9.75371
ebilir	-9.75371
ının	-9.754
▁molekül	-9.75516
▁yönetim	-9.75529
▁etkileşim	-9.75585
▁arkasında	-9.75586
▁hayata	-9.75663
▁Amerikalı	-9.7569
▁çıkarmak	-9.75779
▁kitabı	-9.75902
▁ödeme	-9.7595
ize	-9.75954
▁işlem	-9.76065
▁Teknoloji	-9.76098
▁nükleer	-9.76129
nize	-9.76153
abilir	-9.76191
▁hikayeler	-9.76237
▁birbirin	-9.76259
▁tan	-9.7627
▁alın	-9.76379
▁zayıf	-9.76381
▁işleri	-9.76388
▁sessiz	-9.765
▁seni	-9.76519
5	-9.76631
▁davranış	-9.7674
mesi	-9.76896
▁insanlardan	-9.76928
diniz	-9.76989
rken	-9.77135
▁tarım	-9.77231
▁çalıştığımız	-9.77255
▁kullanıyoruz	-9.77271
▁bahsetmek	-9.77276
▁ağaç	-9.77303
imizin	-9.774
▁Yüz	-9.77459
▁dek	-9.77478
▁saye	-9.77489
▁dev	-9.77553
▁suyun	-9.77678
▁hali	-9.77697
▁isterim	-9.77713
▁anı	-9.77742
▁dışarıda	-9.77746
▁ani	-9.77796
▁elimizde	-9.77856
▁büyüdü	-9.78108
▁tıbbi	-9.78139
▁olabilecek	-9.78166
▁şeydi	-9.7817
▁Bakın	-9.78176
▁yazılım	-9.78294
mda	-9.7831
▁ihtiyacınız	-9.78357
▁nesne	-9.78386
▁nereden	-9.78434
▁adet	-9.78446
▁Bazıları	-9.78452
▁hak	-9.78608
▁cihaz	-9.78735
▁olmaktan	-9.78778
8	-9.78855
▁istiyorlar	-9.78933
iyoruz	-9.79115
▁yaşıyoruz	-9.79291
▁diyoruz	-9.79356
▁ısı	-9.79591
▁ettiğim	-9.79729
▁plastik	-9.79735
▁sanatçı	-9.79786
▁Onların	-9.79913
▁düşündük	-9.79917
▁hakları	-9.79952
▁gittikç	-9.79975
K	-9.79999
▁ürünü	-9.80051
▁misin	-9.80097
▁önem	-9.80124
▁gelmiş	-9.80156
▁fotoğrafı	-9.80182
▁yaşamak	-9.80186
bi	-9.8022
to	-9.8022
▁kullandığımız	-9.80282
▁kendileri	-9.80284
▁ters	-9.80288
▁etmeyi	-9.80299
▁strateji	-9.80313
▁duydu	-9.8044
▁televizyon	-9.8047
be	-9.80496
▁devrim	-9.80585
▁çalışır	-9.806
▁komik	-9.80717
▁rüzgar	-9.80718
▁yaratma	-9.8073
▁yaşama	-9.80741
▁miktar	-9.80762
▁teknolojiyi	-9.80796
▁anlamıyla	-9.80904
▁cam	-9.80982
▁V	-9.81196
▁toplam	-9.81237
▁musun	-9.8129
▁edebiliriz	-9.81344
▁arazi	-9.81374
▁veriler	-9.81464
▁kişiye	-9.81491
▁taki	-9.81523
▁orman	-9.81531
ley	-9.81574
▁hissi	-9.81606
▁biyoloji	-9.81745
▁çaba	-9.81822
▁teori	-9.81827
▁toplumun	-9.81854
▁inan	-9.81871
▁taklit	-9.8195
▁doğum	-9.82019
▁amaç	-9.82061
▁karşılık	-9.82061
▁İngiliz	-9.82071
▁na	-9.82072
▁artış	-9.8211
▁bi	-9.82111
▁karşısında	-9.82167
ndeki	-9.82217
▁öğrenciler	-9.82341
▁denge	-9.82354
ur	-9.82366
▁öldü	-9.82542
▁kullanımı	-9.82739
▁arkadaş	-9.82833
▁Tekrar	-9.82836
▁görüyorum	-9.82902
H	-9.82911
▁duyu	-9.8292
▁gerçeklik	-9.83001
ter	-9.83157
ch	-9.8319
▁bulmaya	-9.83328
▁polis	-9.83366
▁denen	-9.83554
▁boya	-9.83615
▁dokuz	-9.83747
▁ulaşmak	-9.83753
▁He	-9.83848
▁özgür	-9.83849
F	-9.83856
▁tarafı	-9.83915
▁kullanan	-9.83966
▁düşünüyoruz	-9.84059
niversitesi	-9.84084
▁açtı	-9.84085
▁0	-9.84131
▁yolunu	-9.84141
▁sistemleri	-9.84142
▁Ah	-9.84221
▁hastalıklar	-9.84251
6	-9.84445
▁serbest	-9.84458
▁olacaktı	-9.84464
▁2000	-9.84497
▁değişikliği	-9.8458
▁yerden	-9.84637
▁hikayesi	-9.84723
▁iddia	-9.84772
▁gemi	-9.8485
▁Geri	-9.84873
▁geçer	-9.84875
▁koyu	-9.8489
▁Man	-9.84896
▁lerde	-9.84937
land	-9.84954
▁hesap	-9.84962
▁birbirleri	-9.84988
7	-9.84992
▁hakkı	-9.85148
▁endüstri	-9.85186
▁düz	-9.8523
ver	-9.85292
▁yolculuk	-9.85297
▁terk	-9.8534
▁Ba	-9.85405
▁mutluluk	-9.85468
▁evrensel	-9.85598
▁dünyasında	-9.85627
▁sert	-9.8563
▁yerlere	-9.85674
▁Önce	-9.85688
▁edersiniz	-9.85746
▁Ses	-9.85796
▁yaklaşım	-9.85833
▁başlangıç	-9.85924
▁kuş	-9.86011
▁fikirleri	-9.86031
▁W	-9.86082
▁balığı	-9.86121
▁istedi	-9.86128
▁robotlar	-9.86159
it	-9.86206
▁ihtiyacım	-9.8627
▁evren	-9.86344
nu	-9.86358
▁potansiyel	-9.86376
▁seks	-9.86376
duk	-9.86473
▁yollar	-9.86501
▁yetişkin	-9.86545
▁sey	-9.86568
▁öğretmen	-9.86637
▁ticari	-9.86662
▁adamları	-9.8667
▁istedik	-9.86709
▁dur	-9.86767
nün	-9.8694
▁olmaması	-9.87035
▁politika	-9.87102
▁deneme	-9.87129
▁etmiş	-9.87135
▁Biliyorsunuz	-9.87253
▁miydi	-9.87267
siyle	-9.87335
▁bisiklet	-9.87424
lanan	-9.87599
▁karşıya	-9.87705
▁Yaklaşı	-9.87806
▁inanıyor	-9.87831
▁farkı	-9.87832
▁değişti	-9.87927
▁Davi	-9.87931
▁mikro	-9.87943
▁yerini	-9.88012
▁dönüş	-9.88099
▁altyapı	-9.88114
T	-9.88136
▁geçiş	-9.88162
▁Güzel	-9.88216
▁yarım	-9.88289
▁zevk	-9.88347
▁şeker	-9.88363
▁ulusal	-9.8837
▁sistemini	-9.88393
▁istiyorsanız	-9.88423
▁birinde	-9.8845
▁görünür	-9.88467
▁İkincisi	-9.88473
▁çıkardı	-9.88473
▁gruplar	-9.88477
▁dönemde	-9.8851
▁oluşturuyor	-9.88542
▁yapılması	-9.88545
zi	-9.88546
▁merkezinde	-9.8857
ıyor	-9.88596
▁değişiklik	-9.8866
▁benden	-9.88675
▁çılgın	-9.88764
▁anahtar	-9.88854
tim	-9.8886
▁kenar	-9.88897
▁kurmak	-9.88914
▁sıvı	-9.88916
▁dayalı	-9.88946
▁gibiydi	-9.8913
▁nüfus	-9.89153
landı	-9.8932
▁hassas	-9.89456
ün	-9.89465
▁Facebook	-9.89487
▁yazık	-9.89599
▁değeri	-9.89603
▁Irak	-9.89726
▁zamanlı	-9.89749
▁verecek	-9.89761
ro	-9.89826
▁kimin	-9.89839
▁kurallar	-9.89883
dığımız	-9.89887
▁ihtimalle	-9.89907
▁bölüm	-9.90049
▁Kimse	-9.90107
▁beyni	-9.90129
▁eminim	-9.90143
▁sarı	-9.90209
▁dalga	-9.90238
masını	-9.9027
▁gaz	-9.90307
▁açıklama	-9.90349
▁içi	-9.90481
▁istemiyoru	-9.90543
▁şehri	-9.90547
▁ismi	-9.90583
▁çek	-9.90644
▁edilebilir	-9.9067
▁şirketi	-9.90678
▁engel	-9.90715
▁sahiptir	-9.90744
▁ettiğini	-9.90809
▁durumun	-9.90872
▁berbat	-9.90877
liğini	-9.90906
▁olacağı	-9.90953
as	-9.91026
▁kısım	-9.9105
▁deri	-9.91098
▁uyum	-9.91229
▁elektronik	-9.91231
▁AIDS	-9.91269
▁toplumsal	-9.91275
▁Almanya	-9.9131
▁gitme	-9.91328
▁Dünyada	-9.91376
▁bilgileri	-9.91486
▁Şunu	-9.9157
▁yoluyla	-9.91645
▁kuru	-9.91695
▁geçiyor	-9.917
▁etmesi	-9.91818
▁girdi	-9.91832
▁oluşturan	-9.91832
▁türden	-9.9189
▁kayıt	-9.91932
▁bilmiyor	-9.91971
ndaki	-9.91993
▁çöp	-9.92137
▁çalıştık	-9.92154
▁Pek	-9.9218
▁kadının	-9.92377
▁müdahale	-9.92394
▁vermeye	-9.92402
▁filmi	-9.92433
▁hareketi	-9.92441
▁bağ	-9.92476
▁cinsel	-9.92589
muz	-9.92611
▁sorunun	-9.92625
▁topluluk	-9.92634
▁ülkelerin	-9.92754
▁kaynakları	-9.92817
▁sivil	-9.92863
▁radyo	-9.9293
▁doku	-9.92935
▁Uzun	-9.92987
▁kültüre	-9.9299
▁Japonya	-9.93058
▁alacak	-9.93073
▁kazan	-9.93099
▁peki	-9.93109
▁oranda	-9.93149
▁nadir	-9.93153
▁arta	-9.9325
lenmiş	-9.93308
▁kalıyor	-9.93308
▁sonrası	-9.93316
▁özelliği	-9.9339
▁bende	-9.93419
▁istediğiniz	-9.93485
▁grubu	-9.93488
▁tarafında	-9.935
▁kendinizi	-9.9355
▁toprak	-9.9358
▁ediliyor	-9.9361
acağını	-9.93612
▁başlayan	-9.93627
▁kendisini	-9.93637
▁Bak	-9.93703
▁kredi	-9.93703
▁yakıt	-9.93713
▁Re	-9.93801
▁400	-9.93903
▁hal	-9.93945
▁ekran	-9.9401
▁elinde	-9.94053
▁barış	-9.9415
imizi	-9.94195
▁Sizi	-9.94205
▁oluşturur	-9.9425
▁söyler	-9.94267
▁alarak	-9.94312
▁çalışması	-9.94448
▁keşif	-9.94454
▁gelebilir	-9.94505
larsa	-9.94519
▁park	-9.94548
larca	-9.94695
▁bakı	-9.94709
▁Çocuklar	-9.94756
▁araçları	-9.94769
▁sıtma	-9.94784
▁ihtiyaçları	-9.94805
▁tamamı	-9.94828
▁baba	-9.94829
▁deniyor	-9.94841
▁batı	-9.94846
▁sorumlu	-9.9494
layan	-9.94991
nizin	-9.95012
▁çocuklara	-9.95152
▁şans	-9.95208
▁konuşmaya	-9.95286
▁bölgede	-9.95304
▁masa	-9.95313
▁rakam	-9.95342
▁gezegende	-9.95358
▁dolara	-9.95362
▁olduğunuzu	-9.95457
▁çalışmalar	-9.95511
san	-9.95579
▁ederken	-9.95613
▁yapması	-9.95646
▁askeri	-9.95658
▁kod	-9.9576
▁degil	-9.95765
▁uydu	-9.95769
nuz	-9.95772
▁sıkı	-9.95832
▁besin	-9.95842
▁Brezilya	-9.95938
▁fikrini	-9.95972
▁Yalnız	-9.95998
▁popüler	-9.95998
▁kanıt	-9.96032
▁kum	-9.9608
▁analiz	-9.96169
▁tavsiye	-9.96193
▁deyişle	-9.96263
▁nedeniyle	-9.96294
▁görebilir	-9.96316
▁La	-9.96509
▁isimli	-9.96522
▁insanlık	-9.96546
mıyor	-9.96604
▁vakit	-9.96612
▁baktığınızda	-9.96666
▁getiren	-9.96677
▁evin	-9.96728
▁geneld	-9.96774
▁kap	-9.96829
▁ün	-9.96894
▁ahlaki	-9.9694
▁kurdu	-9.97045
▁bizimle	-9.97084
▁değiştirme	-9.97094
layarak	-9.97105
▁alalım	-9.97283
▁söylüyorum	-9.97331
▁odada	-9.97408
▁Dedi	-9.97425
▁çalıştı	-9.97628
▁ağı	-9.97645
▁git	-9.97768
▁karakter	-9.97772
▁gelişim	-9.97793
▁kayıp	-9.97826
▁baktı	-9.97827
▁kahve	-9.97848
yan	-9.97859
▁önemi	-9.9787
▁çalıştığını	-9.97877
▁olabileceği	-9.97911
lo	-9.97945
▁havada	-9.97958
▁olanak	-9.97962
▁Özellikle	-9.9798
▁birer	-9.9803
▁kol	-9.98065
▁sağlığı	-9.98124
▁dili	-9.9818
▁gördü	-9.98199
▁gittik	-9.98229
▁şehirler	-9.98278
▁anlamlı	-9.98298
▁kaya	-9.98352
▁alanları	-9.98435
▁yazar	-9.98564
yıp	-9.98593
dü	-9.98709
▁verdiler	-9.98839
▁Bizler	-9.9886
iniz	-9.98883
▁bakıyor	-9.98892
▁konuya	-9.98905
▁yaşadı	-9.98999
▁yapacağım	-9.99066
▁devasa	-9.99117
▁hissediyorum	-9.99124
rek	-9.99151
▁çözmek	-9.99152
▁Ç	-9.99296
▁motor	-9.99321
▁sermaye	-9.99511
▁Ulusa	-9.9952
iyorum	-9.99571
▁yaşamın	-9.99584
▁aksin	-9.99665
▁dizayn	-9.99679
ebiliriz	-9.99725
▁radikal	-9.99737
▁finansal	-9.99742
▁kalmış	-9.99752
▁milyarlarca	-9.99766
▁yönelik	-9.99786
▁yıllarda	-9.99806
▁geliyordu	-9.99897
▁hız	-9.99968
▁yarattı	-9.99971
▁Ay	-9.9999
▁ederiz	-10.0002
▁sürede	-10.001
▁laboratuvar	-10.001
▁sınırlı	-10.0017
▁arkadaşlarım	-10.0024
▁hastane	-10.0025
▁yazma	-10.0033
▁devre	-10.0039
▁hâle	-10.0039
▁güvenilir	-10.004
▁yağ	-10.0042
ydım	-10.0045
N	-10.0046
▁günümüzde	-10.0047
▁Neyse	-10.0049
▁gösterir	-10.005
▁birbirlerin	-10.0065
▁sonucunda	-10.0071
▁olabilirdi	-10.0075
▁geliştirme	-10.0075
▁dedik	-10.009
nıza	-10.0091
ve	-10.0092
▁Değil	-10.0101
ga	-10.0107
meliyiz	-10.0112
W	-10.0118
▁kullanır	-10.0127
▁yemeği	-10.0127
▁istediği	-10.0133
▁yarar	-10.0134
▁öte	-10.0135
▁çalıştığı	-10.0138
ydim	-10.0148
▁kendiniz	-10.0153
▁gözüküyor	-10.0155
▁edilmesi	-10.0155
▁Genel	-10.0166
▁tutmak	-10.0167
▁diyelim	-10.0168
▁içeren	-10.0169
▁baktığımızda	-10.0171
▁standart	-10.0175
ilmiş	-10.0175
▁kitle	-10.0176
▁ödül	-10.0176
za	-10.0182
▁üçte	-10.0192
▁anladım	-10.0194
▁çekmek	-10.0201
▁parayı	-10.0203
▁tut	-10.0222
▁Öncelikle	-10.0225
▁psikoloji	-10.0231
▁Sağlık	-10.0232
▁uçak	-10.0232
çi	-10.0236
▁Sorun	-10.0241
▁ederse	-10.025
▁yolla	-10.0252
▁dönüşüm	-10.0256
▁okulda	-10.0263
abilecek	-10.0265
▁biliyordu	-10.0271
▁sürece	-10.0271
▁tehlike	-10.0272
▁Ş	-10.0279
▁bildiğiniz	-10.0279
▁oksijen	-10.0284
▁sınır	-10.0292
▁hafıza	-10.0296
▁vahşi	-10.0296
▁tatlı	-10.03
▁maliyeti	-10.03
▁şansı	-10.0306
▁bilmiyoruz	-10.0308
▁geçme	-10.0311
▁hayatlarını	-10.0312
▁toplu	-10.0312
▁yaparsa	-10.0315
▁cinsiyet	-10.0318
▁Sa	-10.0328
▁sistemler	-10.033
▁aklım	-10.0331
▁düştü	-10.0341
▁olmanı	-10.0343
▁etmemiz	-10.0348
▁eğitimi	-10.0349
▁hesaplama	-10.0354
os	-10.037
▁yüzü	-10.0376
▁sağlayabilir	-10.0378
▁bunlara	-10.0379
▁bilir	-10.0382
▁cümle	-10.0382
mizde	-10.0386
ğ	-10.0392
▁düşündü	-10.0396
▁itibar	-10.0411
▁İsrail	-10.0412
▁Biri	-10.0418
▁resimler	-10.042
▁talep	-10.0427
▁Kesinlikle	-10.0428
▁civarında	-10.0433
ici	-10.0436
ol	-10.0436
▁150	-10.0443
▁bil	-10.0451
▁başlamak	-10.0457
▁dava	-10.0466
ldukça	-10.0466
lerimizin	-10.047
▁bilimi	-10.0472
▁saf	-10.0477
ği	-10.0479
▁gördüğüm	-10.048
▁acil	-10.0481
▁durumunda	-10.0484
▁teknolojiler	-10.0486
▁rekabet	-10.0489
▁dürüst	-10.0493
▁ol	-10.0494
▁Twitt	-10.0495
▁yüzyılın	-10.0498
▁dayan	-10.0503
▁çalışırken	-10.0504
▁giriş	-10.0507
▁sizler	-10.0513
▁olmanız	-10.0528
▁rastgele	-10.0529
aman	-10.0529
▁bahsettiğim	-10.053
▁yaptıklarını	-10.0536
▁olmasın	-10.054
▁saldırı	-10.0541
▁çekme	-10.0542
▁Kadın	-10.0544
▁Kenya	-10.0551
▁ibaret	-10.0555
▁isterse	-10.0555
▁isim	-10.0555
▁oluşuyor	-10.0556
▁söyleyen	-10.0568
▁kişiyi	-10.0572
▁basitçe	-10.0572
▁grafik	-10.0573
▁olaylar	-10.0581
▁yöntemi	-10.0581
▁alıyoruz	-10.0589
bo	-10.0589
▁sebeple	-10.0599
ğine	-10.0603
lığını	-10.0603
▁site	-10.0606
▁giriyor	-10.0606
▁adamlar	-10.061
cu	-10.0616
▁Anne	-10.0617
▁di	-10.0623
▁birinci	-10.0623
▁taş	-10.0624
▁ü	-10.0627
▁Eğitim	-10.063
▁kullanmaya	-10.063
▁kocaman	-10.0631
▁bildiği	-10.0632
▁yaşındayken	-10.0635
▁gelince	-10.0643
dikleri	-10.0643
▁Be	-10.0644
▁piyasa	-10.0644
▁anlatacağım	-10.0646
▁tutku	-10.065
▁arkadaşları	-10.0657
▁gönüllü	-10.0657
▁zordur	-10.0667
▁bitkiler	-10.0671
▁parti	-10.0673
bu	-10.0678
▁geliştirmek	-10.0678
▁fosil	-10.0697
▁düzgün	-10.0698
▁etkileyici	-10.0698
▁değiştir	-10.0706
▁görüşme	-10.0708
malısınız	-10.0709
▁hepiniz	-10.0716
▁Umarı	-10.0726
▁Me	-10.0732
▁saatte	-10.0744
▁öğrendik	-10.0758
▁dişi	-10.0768
▁çeken	-10.0779
▁döndü	-10.0782
▁imkan	-10.0792
▁yu	-10.0793
▁profesyonel	-10.0796
▁duyma	-10.0801
melen	-10.0821
▁başlayalı	-10.0823
abilmek	-10.0823
▁çoğunuz	-10.0825
▁dönüştü	-10.0826
▁Do	-10.0835
ah	-10.0836
▁zamanında	-10.0837
▁Time	-10.0842
▁yolda	-10.0844
▁kelimeler	-10.0859
▁seviyede	-10.0862
▁Y	-10.0866
▁zorundaydı	-10.0883
▁Farklı	-10.0898
▁sandalye	-10.0901
▁sıklıkla	-10.0902
▁b	-10.0904
▁trilyon	-10.0904
▁ziyade	-10.0905
▁getirme	-10.0905
▁falan	-10.0916
▁seçme	-10.0922
ysanız	-10.0923
▁imkanı	-10.0927
▁başlıyoruz	-10.0927
eceğini	-10.0932
▁ameliyat	-10.0933
▁yaptığınız	-10.0935
▁Annem	-10.0939
▁boyu	-10.0945
▁organ	-10.0949
▁kullandığı	-10.0953
▁diyorlar	-10.0957
▁şüphe	-10.0973
▁kızlar	-10.0976
▁söyleyebilirim	-10.0977
▁duran	-10.0979
▁mesafe	-10.0982
▁makinesi	-10.0984
▁kaynaklar	-10.0985
▁sormak	-10.0987
▁Ta	-10.099
▁neyi	-10.099
▁Nerede	-10.0993
▁kuzey	-10.0995
▁tasarımı	-10.0998
▁çalış	-10.0998
▁olası	-10.0999
▁yara	-10.1003
▁koyar	-10.1009
▁dünyası	-10.1012
lerse	-10.1015
▁biriydi	-10.1018
▁yaşadığı	-10.1019
ğa	-10.103
▁organizasyon	-10.1035
▁özgü	-10.1041
▁almış	-10.1042
mızda	-10.1045
▁aracılığıyla	-10.1047
▁güney	-10.1059
▁yapılıyor	-10.1062
▁etrafta	-10.1069
▁aldığı	-10.1072
▁dönem	-10.1073
▁işim	-10.1075
▁hayvanların	-10.1075
▁diğerleri	-10.1077
taki	-10.1078
▁marka	-10.1082
▁sahipler	-10.1089
▁yolunda	-10.1092
▁tanıştı	-10.1095
▁Hala	-10.1099
▁zamanla	-10.11
mayı	-10.1102
▁algı	-10.1102
▁Hey	-10.1102
▁bulma	-10.1102
▁Muhte	-10.1116
▁olumlu	-10.1117
▁denilen	-10.1118
▁bahsedeceğim	-10.112
▁çözümler	-10.1129
▁verdiğimiz	-10.1134
teki	-10.1135
▁denedi	-10.1137
▁görevi	-10.1147
▁Te	-10.1167
▁vereceğim	-10.1171
▁gurur	-10.1173
suz	-10.1174
▁zamana	-10.1175
▁toplama	-10.1179
▁kritik	-10.1187
▁uyuşturucu	-10.1187
▁otomatik	-10.1187
▁George	-10.119
▁sıkıcı	-10.119
M	-10.1192
▁koymak	-10.1193
▁teknolojisi	-10.1193
▁miktarı	-10.12
▁karşılaştır	-10.12
▁yaratır	-10.1202
▁öne	-10.1205
▁arzu	-10.1207
▁olacağız	-10.1212
▁yayın	-10.1214
▁yaşadığımız	-10.1217
▁konuşmayı	-10.1222
▁Kendisi	-10.1223
▁Di	-10.1229
▁günün	-10.1234
▁düşündüğüm	-10.1235
▁örnekler	-10.1243
▁biliyordum	-10.1245
▁kuralları	-10.1247
mişti	-10.1252
inizi	-10.1253
▁ürünleri	-10.1254
▁şiir	-10.126
▁hukuk	-10.1264
▁tersine	-10.1274
▁kaba	-10.1276
▁ayında	-10.1279
▁Sanat	-10.128
sından	-10.1285
▁buradan	-10.1288
▁düşünür	-10.1291
▁katkı	-10.1291
▁engelli	-10.1295
yo	-10.1304
▁fizik	-10.1305
▁kullanım	-10.1307
▁etmiyor	-10.1308
▁kedi	-10.1309
▁anlıyor	-10.1315
▁ekmek	-10.1318
▁hastalar	-10.1322
▁tarzı	-10.1322
▁Doğa	-10.1326
▁aşama	-10.1326
▁Ki	-10.133
▁nihayet	-10.1332
▁getirir	-10.1336
▁bahsediyor	-10.1347
▁35	-10.1348
▁dik	-10.1358
▁Bill	-10.1371
▁sır	-10.1377
▁yazdım	-10.1379
▁olmasa	-10.1384
biriyle	-10.1385
ımı	-10.139
▁yönde	-10.139
▁olmuyor	-10.14
ko	-10.14
▁Küresel	-10.1401
▁kullanılıyor	-10.1401
▁Eylül	-10.1405
çüncü	-10.1408
▁şehirde	-10.1417
▁çıkma	-10.1417
▁olayı	-10.142
▁uzman	-10.1423
▁çalışmaları	-10.1425
▁üretmek	-10.1427
▁mühendislik	-10.143
C	-10.1434
▁Basit	-10.1435
düşünebilirsiniz	-10.1436
▁be	-10.144
G	-10.1444
▁hikayesini	-10.1447
▁klinik	-10.1449
▁yenilik	-10.1455
▁görün	-10.1458
▁ha	-10.1463
▁baktım	-10.1465
▁Ar	-10.1466
▁değişiklikler	-10.1472
▁ilaçlar	-10.1473
▁böcek	-10.1475
▁altındaki	-10.1476
▁organik	-10.1482
▁ederler	-10.1483
eceğiz	-10.1492
▁seviye	-10.1495
▁çıkarıyor	-10.1499
ö	-10.1499
▁top	-10.1503
▁sağlama	-10.1506
▁kriz	-10.1506
▁seçenek	-10.1509
▁geçirdim	-10.1511
▁İşin	-10.1514
▁artıyor	-10.1515
▁aylık	-10.152
▁Kız	-10.1525
▁seviyor	-10.1526
▁daim	-10.1532
▁olamaz	-10.1533
▁Afrikalı	-10.1535
▁evrende	-10.1542
▁bomba	-10.1545
▁fırsatı	-10.1548
▁Sosyal	-10.1552
▁iğne	-10.1552
▁korkutucu	-10.1552
▁sıradışı	-10.1553
▁kutsal	-10.1554
▁düzenleme	-10.1556
▁kemik	-10.1567
▁hissettim	-10.1569
▁görünmez	-10.1571
▁Bilgi	-10.1571
▁yaşın	-10.1572
v	-10.1572
▁alternatif	-10.1575
▁ortamda	-10.1594
▁olmasıdır	-10.1599
▁yanıt	-10.1603
▁mağara	-10.1605
seydi	-10.1609
▁f	-10.1613
mis	-10.1628
▁renkli	-10.1629
▁bol	-10.163
▁kullanabiliriz	-10.1634
▁haberler	-10.1635
▁dakikada	-10.1639
▁gösteri	-10.1639
▁eğlence	-10.1641
▁karışık	-10.1648
▁söyledim	-10.1651
▁tablo	-10.1654
▁fikrim	-10.1655
▁suçlu	-10.166
▁düzeyde	-10.1661
▁savaşı	-10.1662
▁krizi	-10.1664
▁liderlik	-10.1667
▁geldim	-10.1668
▁çalışıyorlar	-10.1671
▁hareketleri	-10.1671
▁dile	-10.1675
▁yük	-10.1679
▁oranında	-10.1682
▁fabrika	-10.1683
▁bilgiler	-10.1686
miyorum	-10.1689
▁oradaki	-10.1691
▁sesini	-10.1691
▁Si	-10.1703
▁organize	-10.1703
▁Kaliforniya	-10.1703
ey	-10.1703
▁değiştiriyor	-10.1704
▁projesi	-10.1704
▁etkin	-10.1709
▁bakma	-10.1715
▁Para	-10.1716
▁işletme	-10.172
▁gezegenin	-10.1724
▁ürünler	-10.1726
▁sergi	-10.1729
dy	-10.1735
▁düzenli	-10.1739
▁Kanada	-10.1739
▁bağlantılı	-10.1741
ha	-10.1742
▁iste	-10.1749
▁yenilikçi	-10.1751
▁performans	-10.1756
der	-10.1765
▁erkeklerin	-10.1766
▁bireysel	-10.1767
▁günlerde	-10.1768
▁Herhangi	-10.1778
▁hayret	-10.1778
▁İnanılmaz	-10.1778
▁oturup	-10.178
tım	-10.1789
▁değiştiren	-10.1791
▁kaldır	-10.1794
▁Biliyoru	-10.1797
▁aşk	-10.18
▁düşündüğümüz	-10.1803
▁Hava	-10.1806
lke	-10.1812
▁geçmek	-10.1812
▁açıyor	-10.1819
▁bireyler	-10.1824
▁Hayat	-10.1824
00	-10.1825
▁özellikleri	-10.1827
▁kilit	-10.1839
▁kal	-10.1841
diler	-10.1842
▁çekiyor	-10.1846
▁umarım	-10.1854
▁yasal	-10.1862
▁düşen	-10.1863
▁bugünkü	-10.1867
▁farkettim	-10.187
▁Los	-10.1873
▁idare	-10.1887
▁kör	-10.1888
▁45	-10.189
eceğim	-10.1892
▁yapılar	-10.1912
▁taşıyor	-10.1916
▁ortam	-10.1919
▁çiz	-10.1927
▁onda	-10.193
▁görülen	-10.1931
▁alıntı	-10.1939
▁yaratan	-10.194
▁fiyat	-10.194
▁gelmişti	-10.194
▁peşinde	-10.1941
▁yöne	-10.1942
▁problemleri	-10.1944
▁aktivite	-10.1955
▁ölçekte	-10.1955
▁bilgisayarlar	-10.1959
▁etkileri	-10.1969
▁kulak	-10.1971
▁deli	-10.1971
▁salgın	-10.1973
larımı	-10.1974
▁yapısı	-10.1982
▁görmez	-10.1983
▁kullanıcı	-10.1986
gu	-10.1999
▁Babam	-10.1999
▁teknolojik	-10.2002
lup	-10.2003
▁merkez	-10.2012
▁uçuş	-10.2015
▁Dan	-10.2016
▁faydalı	-10.2018
▁süreçte	-10.2019
▁tutar	-10.2022
▁temelde	-10.2025
▁testi	-10.2034
▁kızı	-10.2041
▁alabilir	-10.2046
▁ayı	-10.2054
▁söylediğim	-10.2054
▁kullandık	-10.2055
▁çoktan	-10.2058
mektedir	-10.2059
▁şişe	-10.2065
▁tarihinde	-10.2067
▁duru	-10.207
▁anlar	-10.207
▁yalan	-10.2071
mıştım	-10.2072
▁tarif	-10.2079
▁Einstein	-10.2087
▁benzeyen	-10.2087
▁99	-10.2088
▁ailesi	-10.2092
▁Beş	-10.2099
▁söyleme	-10.21
▁ayakta	-10.2104
▁arı	-10.2105
lük	-10.2106
lıyor	-10.2107
diğimiz	-10.2109
▁konuş	-10.211
▁anlatıyor	-10.2111
▁yerleri	-10.2112
▁düşünüyordum	-10.2122
▁paylaşma	-10.2123
▁şok	-10.2129
▁koku	-10.2129
için	-10.2139
▁Ev	-10.2142
▁patlama	-10.2144
▁üstesinde	-10.2145
▁arabalar	-10.2145
▁ulaşma	-10.2151
▁yolları	-10.2159
▁kullandı	-10.2161
▁elle	-10.2162
lerimi	-10.2168
▁söylediler	-10.2169
▁siyahi	-10.2173
▁alanlarda	-10.2173
▁soruları	-10.2173
▁gelmek	-10.2175
▁Sonuçta	-10.2176
▁oluşturma	-10.2187
▁dağ	-10.2191
▁ediyorsunuz	-10.2195
▁oluştur	-10.2198
▁teklif	-10.2199
▁inanç	-10.2201
▁babası	-10.2207
▁maru	-10.2214
▁yorum	-10.2215
▁Bay	-10.2224
▁ardı	-10.2232
▁cesur	-10.2237
bil	-10.2245
ime	-10.2247
nızın	-10.2249
ut	-10.225
▁girme	-10.2254
▁teknolojileri	-10.226
▁teşhis	-10.2262
▁şirketleri	-10.2268
▁bakan	-10.227
çı	-10.2272
▁vergi	-10.2275
▁demokratik	-10.2282
▁İlki	-10.2289
▁arttı	-10.2296
▁sürdü	-10.2304
▁kişilerin	-10.2307
▁vaka	-10.2312
▁uyku	-10.2313
leşme	-10.2317
yalım	-10.2318
▁İran	-10.2319
▁geldik	-10.2319
▁görmüş	-10.232
▁kullanıyorlar	-10.2323
▁kırsal	-10.2326
▁mekanik	-10.2329
▁ediyordu	-10.233
▁75	-10.2333
▁edeceğim	-10.2333
araya	-10.2362
umuz	-10.2364
▁kalite	-10.237
▁seri	-10.2371
L	-10.2372
miştim	-10.2373
▁kendim	-10.2379
▁Avustralya	-10.2386
▁beceri	-10.2397
▁süren	-10.2399
▁pozitif	-10.2406
▁bölgesinde	-10.2406
▁yapalım	-10.2408
▁oluyorlar	-10.2409
▁Yaşam	-10.2409
▁getirebilir	-10.2421
▁özellikler	-10.2422
larınızı	-10.2424
▁oluşur	-10.2424
▁başkanı	-10.2425
▁kahkahalar	-10.2439
ru	-10.2442
▁ucunda	-10.2449
▁çabuk	-10.245
▁onlarda	-10.245
▁geçmişte	-10.2458
▁not	-10.2459
▁sahte	-10.2459
▁gir	-10.246
▁tasarımcı	-10.2461
▁deneyimi	-10.2464
▁uyar	-10.247
▁gazete	-10.2477
ilebilir	-10.2484
▁edelim	-10.2487
▁dini	-10.2487
▁şirketlerin	-10.2487
bilme	-10.2491
▁bahsediyorum	-10.2493
mu	-10.2496
▁öğrendiğim	-10.2498
▁ısınma	-10.2499
▁kulağ	-10.2503
ber	-10.2508
▁galaksi	-10.2508
▁makina	-10.2513
▁toplumda	-10.2517
▁sağlam	-10.2519
▁Genç	-10.2522
▁koyuyor	-10.2534
▁uça	-10.2536
▁çıkarma	-10.2545
▁hızı	-10.2545
▁Meksika	-10.2549
▁hayatım	-10.2551
▁yazdı	-10.2556
▁beslenme	-10.2557
una	-10.2563
▁türleri	-10.2564
▁bırakmak	-10.2568
▁bedava	-10.2569
▁Richard	-10.2569
▁kısmında	-10.257
▁lise	-10.2572
▁dolayısıyla	-10.2572
▁zamanın	-10.2572
▁çalışarak	-10.2575
▁gözlem	-10.2575
▁Arap	-10.2575
▁ülkeni	-10.2575
▁Merkezi	-10.2577
▁diyordu	-10.2586
▁bıraktı	-10.259
▁Günümüzde	-10.2597
▁durumlarda	-10.2599
▁is	-10.2601
▁bölgelerde	-10.2615
▁sonuçta	-10.2618
▁zemin	-10.2618
▁adalet	-10.2624
▁ihtimali	-10.2624
kar	-10.2628
▁biçimi	-10.2629
▁eylem	-10.2632
▁haklı	-10.2635
▁yapabiliyor	-10.2635
▁Yakın	-10.2639
▁Paul	-10.2647
▁Yüksek	-10.2651
▁ailem	-10.2652
▁Anders	-10.2653
hi	-10.2655
▁tanı	-10.2656
▁istedikleri	-10.2658
▁doğu	-10.2667
▁konuşan	-10.2672
acağım	-10.2673
▁hissetme	-10.2688
▁hücresi	-10.2689
ck	-10.2692
▁blog	-10.2696
▁edebiliyor	-10.2696
▁bazılarını	-10.2697
▁oluyordu	-10.2697
▁Adı	-10.2698
▁takdir	-10.2703
▁servis	-10.2704
▁malzemeler	-10.2711
▁döndüm	-10.2712
▁doktora	-10.2715
▁öğren	-10.2715
line	-10.2717
▁noktalar	-10.2719
▁saçma	-10.2724
▁lider	-10.2728
▁çiçek	-10.2729
uantum	-10.2733
▁kaldırı	-10.2734
▁mutlak	-10.2735
▁eşsiz	-10.2738
▁koyma	-10.2739
▁bilinç	-10.2744
▁reklam	-10.2745
ebilecek	-10.2747
▁öğle	-10.2751
▁anında	-10.2752
▁Araştırma	-10.2754
ilen	-10.2756
▁bakacak	-10.2758
▁bütçe	-10.2759
▁çatı	-10.2763
▁değerlendir	-10.2765
▁tipik	-10.2769
▁alanın	-10.2772
ımızı	-10.2773
▁yapmanız	-10.2776
▁hastalığın	-10.2794
▁çıkmış	-10.2801
▁kişilik	-10.2801
▁kas	-10.2801
kinden	-10.2805
▁Ale	-10.2809
▁yumurta	-10.2816
▁Washington	-10.2819
▁Fransa	-10.282
▁protein	-10.2828
lerdeki	-10.2828
▁karınca	-10.2832
▁Deniz	-10.2837
▁zorundasınız	-10.2844
ay	-10.2864
▁duyuyor	-10.2877
▁düşman	-10.2879
▁memnun	-10.288
▁çalışmayı	-10.2885
▁Savaşı	-10.2887
▁tutuyor	-10.2889
▁soyut	-10.2899
▁hizmeti	-10.2899
▁sigara	-10.2904
▁büyüyen	-10.2905
▁kontrolü	-10.2915
▁Sonrasında	-10.2915
▁tur	-10.292
▁çekti	-10.2922
▁cihazı	-10.2922
▁bırakma	-10.2924
▁şeyle	-10.2928
lanması	-10.293
▁diş	-10.2933
▁Mısır	-10.2937
▁oran	-10.2939
▁kur	-10.294
▁Eve	-10.2944
▁birbirimize	-10.2945
▁kalmak	-10.2947
▁haritası	-10.295
▁Darwin	-10.2951
▁dediğim	-10.2953
▁yeteneği	-10.2954
görebiliyorsunuz	-10.2954
▁çıkış	-10.2957
▁kısaca	-10.296
▁cesaret	-10.2961
▁iyisini	-10.2963
▁Bilgisayar	-10.2963
▁Co	-10.2966
▁dinamik	-10.2966
▁yararlı	-10.2968
▁ettikleri	-10.2968
▁ekip	-10.2972
▁delik	-10.2977
▁aldığımız	-10.2982
▁konular	-10.2986
▁dehşet	-10.2989
▁Francis	-10.2989
▁kurgu	-10.2989
▁2008	-10.2992
▁buyuk	-10.2993
▁üreten	-10.2996
▁duygusu	-10.2998
▁çoğunluğu	-10.3
▁moda	-10.301
▁yapabileceğimiz	-10.3011
▁atık	-10.3014
ünü	-10.3014
▁konuşacağım	-10.3015
▁ruh	-10.3016
▁kütle	-10.302
▁olabiliriz	-10.3022
▁gibidir	-10.3025
go	-10.3026
▁organizma	-10.3033
▁sürüyor	-10.3033
▁gerekti	-10.3033
▁elimde	-10.3035
▁arkadaşı	-10.3036
ore	-10.3041
▁yapısını	-10.3043
▁bulundu	-10.3048
dılar	-10.3058
▁kazandı	-10.3059
▁döner	-10.306
▁Nijerya	-10.3062
▁kalır	-10.3068
▁On	-10.307
tür	-10.3074
▁çocuklarını	-10.3075
▁İlginç	-10.3075
▁Allah	-10.3076
▁bant	-10.3076
ıldığında	-10.3077
▁şaka	-10.3082
nuzu	-10.3082
▁oldular	-10.3084
▁yapın	-10.309
▁okur	-10.3099
▁şeklini	-10.31
▁gezi	-10.3101
▁larda	-10.311
▁Bizi	-10.311
▁Oh	-10.3113
▁trafik	-10.3122
▁gidecek	-10.3123
▁Uzay	-10.3123
▁yeteri	-10.3126
▁öfke	-10.3127
▁çıkmak	-10.3133
▁ayda	-10.3136
▁tersi	-10.3139
▁NAS	-10.3143
▁dönme	-10.3149
▁herkesi	-10.3154
PS	-10.3158
▁tarihte	-10.3158
▁görürüz	-10.3162
▁MIT	-10.3162
▁yaşındaydı	-10.3164
▁Temel	-10.3165
▁sorumluluk	-10.3169
▁tanıma	-10.3172
▁zorlu	-10.3176
▁düşüyor	-10.3178
▁sınırları	-10.3184
▁başlayabilir	-10.3185
▁bulur	-10.3188
dıkları	-10.319
▁23	-10.319
▁meşgul	-10.319
▁satış	-10.3196
▁daire	-10.3197
ğını	-10.3198
▁saniyede	-10.32
▁lı	-10.3201
▁başlangıcı	-10.3201
▁içerik	-10.3207
▁Altı	-10.3207
rerek	-10.3208
▁istiyordum	-10.3209
▁anlattı	-10.321
▁yarıyor	-10.3213
▁yatak	-10.3215
▁kültürü	-10.3219
▁Açık	-10.3221
yü	-10.3221
▁çevresinde	-10.3223
▁kıyasla	-10.3226
▁gelin	-10.3227
▁enerjisi	-10.323
unun	-10.3231
▁bağımlı	-10.3234
iyorlar	-10.325
▁Merhaba	-10.325
▁Angeles	-10.325
▁kalıcı	-10.325
▁yarattığı	-10.3255
▁aptal	-10.3257
▁paylaş	-10.3258
▁işlerini	-10.3266
▁kurtulma	-10.3271
▁seç	-10.3272
▁Tanrım	-10.3277
idir	-10.3283
▁dua	-10.3284
sen	-10.3284
▁başı	-10.3287
▁22	-10.3287
▁maymun	-10.3287
▁1000	-10.3289
▁değerler	-10.3291
▁kaybı	-10.3293
▁kurtarma	-10.3294
▁geleceğin	-10.3296
▁hükümeti	-10.3307
▁geçirmek	-10.331
▁tanıyor	-10.3319
mle	-10.3324
ebileceğimiz	-10.3336
▁biyo	-10.3337
▁Kore	-10.3338
▁Harvard	-10.3338
▁hücrelerin	-10.3343
▁topluluğu	-10.3343
▁yapmalıyız	-10.3347
▁değişiyor	-10.3354
▁evi	-10.3359
▁bilmiyordum	-10.3363
▁değilse	-10.3365
▁kıyı	-10.3366
▁Biliyor	-10.3371
▁Sağ	-10.3376
▁mesajı	-10.3376
▁özgürlük	-10.3383
▁istemez	-10.3386
▁bölgesi	-10.3387
▁domuz	-10.339
if	-10.3391
▁gerçekleştir	-10.3394
▁köy	-10.3395
▁gidebilir	-10.3399
w	-10.34
▁Veya	-10.3401
▁projeler	-10.341
▁mezun	-10.3411
▁problemler	-10.3411
miyor	-10.3415
▁sona	-10.3416
▁kolu	-10.3417
▁lik	-10.342
▁durma	-10.342
▁fotoğraflar	-10.3424
▁ulaşım	-10.343
met	-10.3433
▁Hikaye	-10.3435
▁matematiksel	-10.3436
▁giri	-10.3439
▁fikirlerin	-10.3441
▁asker	-10.3442
▁Bil	-10.3442
▁kullanılabilir	-10.3443
▁kaldım	-10.3443
▁halkı	-10.3445
▁annesi	-10.3446
▁yaşamı	-10.3447
▁metal	-10.3449
likten	-10.3451
▁kadınlara	-10.3452
▁ekoloji	-10.3455
abiliyor	-10.3459
fen	-10.3462
▁getirdiği	-10.3465
▁veriyorlar	-10.3466
▁fon	-10.3469
lenen	-10.3471
lerinizi	-10.3473
▁ilgisi	-10.3475
diğinde	-10.3476
▁insani	-10.3478
▁ırk	-10.3482
▁uzmanı	-10.3485
▁Konu	-10.3485
▁yön	-10.3485
▁merhamet	-10.3488
▁kuvvet	-10.3489
▁ver	-10.349
kları	-10.349
▁meyve	-10.3493
▁his	-10.3497
▁bilinçli	-10.3508
▁gitmeye	-10.351
▁yapmam	-10.3518
▁Cevap	-10.3518
▁akciğer	-10.3518
▁ayağa	-10.3518
▁büyüleyici	-10.3518
▁görüntüler	-10.352
▁yapabilmek	-10.3529
▁oranları	-10.3546
maktadır	-10.3547
lerim	-10.3555
▁geride	-10.3556
▁oynama	-10.3568
imin	-10.3569
▁girişimci	-10.357
▁bakmaya	-10.3571
▁kullanabileceği	-10.3572
▁yapabilecek	-10.3582
▁normalde	-10.3587
▁üyesi	-10.3591
▁işini	-10.3595
▁öncesi	-10.3596
▁Soru	-10.3601
▁işleme	-10.3607
▁Charles	-10.3609
▁2010	-10.3609
▁göç	-10.361
▁etkileyen	-10.361
▁çarpıcı	-10.361
▁iyidir	-10.3613
▁çiftçi	-10.3616
▁yaparlar	-10.3617
▁tutan	-10.3618
▁An	-10.3622
▁gösterdiğim	-10.3622
▁ilişkiler	-10.3626
ist	-10.3628
▁etkiler	-10.3631
▁imza	-10.3632
▁klasik	-10.3633
▁duyduğumuz	-10.3634
▁eksik	-10.3636
▁Birisi	-10.3646
▁ak	-10.3647
▁girer	-10.3649
▁tamamıyl	-10.3659
▁balon	-10.3661
▁parçasını	-10.3662
▁Araba	-10.3671
▁kimya	-10.3672
▁düşünebilir	-10.3673
▁güzellik	-10.3674
▁600	-10.3676
▁sesler	-10.3679
▁çatışma	-10.3679
▁halkın	-10.368
▁Jam	-10.3687
▁obje	-10.3687
▁anlaşma	-10.3692
▁İnsanları	-10.3699
▁empati	-10.37
▁gördünüz	-10.3703
▁uyarı	-10.3707
▁açan	-10.3708
▁duyuyoru	-10.3709
▁saç	-10.3709
▁polen	-10.3711
▁yüzey	-10.3731
▁tutma	-10.3733
▁ücret	-10.3734
▁tasarlanmış	-10.3735
nizde	-10.3739
▁hiçbiri	-10.3741
▁açar	-10.3743
▁pencere	-10.3746
▁çözme	-10.3749
▁modeller	-10.3753
▁tuvalet	-10.3762
▁bakteriler	-10.3769
▁kes	-10.3776
▁savaşta	-10.379
▁Dört	-10.3793
▁197	-10.3794
abileceğimiz	-10.3796
▁vs	-10.3798
▁kardeşim	-10.3801
▁TV	-10.3801
ji	-10.3805
▁Rusya	-10.3806
▁hisseder	-10.3806
▁ağaçlar	-10.3813
▁yerin	-10.3815
▁çekildi	-10.3816
▁yuva	-10.3816
▁kampanya	-10.3821
acaba	-10.3823
▁unutma	-10.3824
larımızda	-10.3825
▁tanıdık	-10.3827
▁Tom	-10.383
ger	-10.3833
▁Ön	-10.3838
▁haftada	-10.3847
▁çeşitlilik	-10.385
▁Kadınlar	-10.385
lerindeki	-10.3851
▁oyuncak	-10.3852
ildi	-10.386
▁düşüncesi	-10.386
▁Az	-10.3861
▁27	-10.3862
▁Senin	-10.3868
▁aldığım	-10.3874
▁gelmesi	-10.3879
▁nüfusun	-10.3881
▁kurduk	-10.3882
▁re	-10.3883
▁şahit	-10.3886
▁Obama	-10.3886
▁kaçınılmaz	-10.3886
▁hidrojen	-10.3886
▁duyarlı	-10.3888
▁banka	-10.3888
▁adil	-10.3891
▁şimdiki	-10.3893
▁kıta	-10.3894
▁Böylelikle	-10.3895
▁öğreniyor	-10.3899
▁yapmaları	-10.39
▁nöron	-10.3901
▁değiş	-10.3904
▁sat	-10.3912
▁ikisini	-10.3914
▁bayan	-10.3915
▁hediye	-10.3915
▁konuşuyor	-10.3917
▁Başkan	-10.3924
▁sisteme	-10.3925
▁modelleri	-10.3931
▁olabiliyor	-10.3932
▁başlamıştı	-10.3932
▁alıcı	-10.3932
▁geldiler	-10.3934
▁ada	-10.3934
▁erişim	-10.3934
▁teki	-10.3934
▁sahnede	-10.3935
▁Müslüman	-10.394
▁resimde	-10.3949
▁kitaplar	-10.3952
▁istediğini	-10.397
ul	-10.3972
▁ticaret	-10.3975
▁sinyal	-10.3977
▁ötürü	-10.3981
▁mahalle	-10.3981
▁bakabilir	-10.3981
▁ücretsiz	-10.3982
▁Açıkça	-10.3983
▁yapılacak	-10.3983
▁tahta	-10.3988
▁Web	-10.3989
▁geçici	-10.399
▁istiyorsunuz	-10.3992
▁ceza	-10.3993
P	-10.3994
▁bulunur	-10.3997
▁olacaklar	-10.3998
leştirilmiş	-10.3998
▁Savaş	-10.3999
▁kaynaklı	-10.4002
▁üretimi	-10.4007
▁yardımı	-10.401
dunuz	-10.401
▁kararlar	-10.4015
fi	-10.4016
amazsınız	-10.402
amaz	-10.4024
▁manzara	-10.4027
▁lerin	-10.4028
▁hastaların	-10.4032
▁Sol	-10.4032
▁İslam	-10.4033
▁bulduğumuz	-10.4036
▁Yıllar	-10.4037
▁maliyet	-10.4039
▁dün	-10.4053
▁aileler	-10.4055
▁aldılar	-10.4058
▁doktorlar	-10.4069
▁sahipti	-10.4071
▁savunma	-10.4072
▁felaket	-10.4072
▁Ekonomi	-10.4075
▁öğretmenler	-10.4076
▁iyisi	-10.4076
▁Amazon	-10.4076
▁dördüncü	-10.4077
▁göğüs	-10.4078
riyi	-10.4079
▁seferinde	-10.408
▁çeker	-10.408
▁gelişen	-10.4081
▁ların	-10.4085
▁olunca	-10.4091
▁balina	-10.4094
ho	-10.4096
▁mercan	-10.4097
▁etkisini	-10.4101
▁ilacı	-10.4104
▁Kar	-10.4107
lıkla	-10.4113
▁gözleri	-10.4116
▁zararlı	-10.4116
▁dersiniz	-10.4118
▁sohbet	-10.4122
▁beden	-10.4122
▁olmam	-10.4123
▁zorluk	-10.4126
▁ölen	-10.4133
▁Sana	-10.4135
▁vücudun	-10.414
cek	-10.4145
▁çıkacak	-10.4151
▁riski	-10.4154
▁resme	-10.4156
▁tanesini	-10.4157
▁deneyi	-10.4165
▁istiyordu	-10.4166
▁1960	-10.4172
▁iPhone	-10.4173
▁tatmin	-10.4173
▁tekne	-10.4174
▁söyleyebilir	-10.4181
▁müziği	-10.4185
▁düşünüyorsunuz	-10.4186
▁sayısını	-10.4191
▁keşfetmek	-10.4191
▁etik	-10.4191
liyor	-10.4193
▁alışveriş	-10.4193
▁balıkları	-10.4196
tık	-10.4202
▁liderler	-10.4203
▁eğri	-10.4207
▁sor	-10.421
▁kazanma	-10.4216
▁olursunuz	-10.4219
▁kadınları	-10.4221
bilir	-10.4223
▁nüfusunu	-10.4226
▁doğada	-10.4228
▁gören	-10.4229
▁sıkıntı	-10.4233
dığım	-10.4234
▁yürüyüş	-10.4245
▁inanma	-10.4246
▁kaza	-10.426
▁tamir	-10.4263
▁teslim	-10.4264
▁görüntüsü	-10.4266
▁sözü	-10.4267
▁bahçe	-10.4267
▁öğretti	-10.4268
ıldı	-10.4268
▁gördüğü	-10.4269
▁Kötü	-10.4269
▁Ardında	-10.4269
▁ayna	-10.4271
▁alıyorlar	-10.4271
▁oturan	-10.4272
▁izleme	-10.4273
▁yarat	-10.4274
▁versiyonu	-10.4274
▁bulduğum	-10.4275
▁olanları	-10.428
▁karşılaştı	-10.4282
▁Kendimi	-10.429
▁giderken	-10.429
▁gürültü	-10.4294
▁firma	-10.4297
▁doğrusu	-10.4299
▁edilir	-10.4302
▁kendisinin	-10.4307
▁koyun	-10.4308
▁savaşın	-10.431
▁içeriyor	-10.431
eceği	-10.4315
▁taşıma	-10.4318
▁şekilleri	-10.432
▁hastalıkları	-10.4322
▁Yo	-10.4332
▁yeme	-10.4332
▁yapmıyor	-10.4336
dınız	-10.4339
▁Mi	-10.4343
▁bitir	-10.4344
▁taşı	-10.4345
▁eseri	-10.4349
▁hayatımda	-10.4358
▁meme	-10.436
▁hakim	-10.4361
▁sorduk	-10.4365
▁zinciri	-10.4367
▁kalabalık	-10.4367
▁1990	-10.4367
▁CO	-10.4368
▁makineler	-10.4371
▁alınan	-10.4374
▁şifre	-10.4376
▁deneyler	-10.4377
lanıyor	-10.4382
▁şefkat	-10.4389
▁kızın	-10.4402
mıştır	-10.4403
▁dinleme	-10.4404
▁simetri	-10.4408
▁aralarında	-10.4419
▁Okul	-10.4419
▁You	-10.4421
▁gösterdiği	-10.4422
▁araştırmalar	-10.4428
liyiz	-10.4436
▁hayvanları	-10.4437
▁çocukken	-10.4443
▁Fransız	-10.445
▁girişim	-10.4454
▁bulun	-10.4454
▁yüzünü	-10.4462
▁yirmi	-10.4466
▁belirgin	-10.4466
▁mucize	-10.447
▁bildiğim	-10.447
▁birileri	-10.4471
▁macera	-10.4473
▁inşaat	-10.4474
▁binalar	-10.4474
▁Hayal	-10.4476
▁Ku	-10.4478
▁kariyer	-10.4479
sıl	-10.448
▁açığ	-10.448
▁Amerikalılar	-10.4481
▁insanlığın	-10.4486
yum	-10.4491
▁Tasarım	-10.4493
unda	-10.4496
▁müze	-10.4498
▁birey	-10.4501
▁geçiriyor	-10.4501
▁anlayış	-10.4502
▁üstü	-10.4509
luğu	-10.4512
▁Kaç	-10.4514
▁ka	-10.4514
tra	-10.4518
▁kitapları	-10.4518
▁öz	-10.4518
▁Beyin	-10.4519
▁Ja	-10.452
▁rapor	-10.4524
▁kaybetti	-10.4529
▁heyecanlı	-10.4535
▁ayn	-10.4536
▁kalem	-10.4536
▁Na	-10.4537
▁çal	-10.4545
leşti	-10.4546
▁yukarıda	-10.455
▁mıydı	-10.4551
ılmış	-10.4552
▁sanayi	-10.4557
▁kömür	-10.4557
meyi	-10.4559
▁oğlu	-10.4565
▁Beyaz	-10.4566
▁dinlemek	-10.4569
▁kılan	-10.457
▁taşıyan	-10.457
▁görülüyor	-10.4575
▁görebileceğiniz	-10.4575
▁keşfettik	-10.4576
▁yoldan	-10.4578
▁öğrenebilir	-10.4579
▁konuşmalar	-10.4582
▁çağ	-10.4585
▁çözümü	-10.4585
▁dönüyor	-10.4586
▁çağı	-10.4591
lanabilir	-10.4592
▁geçtiğimiz	-10.4594
dışı	-10.4594
▁kazanmak	-10.4596
po	-10.4599
▁198	-10.4605
▁ilgilidir	-10.4606
▁ölüyor	-10.4609
▁bitirmek	-10.461
nızda	-10.4613
▁gittiğini	-10.4614
▁Bildiğin	-10.4626
▁doğdu	-10.4626
▁müşteri	-10.4635
▁Çevre	-10.4636
▁sürecin	-10.4637
▁do	-10.4638
▁Devletleri	-10.4638
▁gençler	-10.464
▁düşünen	-10.4641
▁üretiyor	-10.4644
▁Le	-10.4646
bir	-10.465
▁işçi	-10.4652
▁varlığı	-10.4653
▁Bo	-10.4661
manyetik	-10.4667
▁Michael	-10.4667
▁le	-10.4667
▁yarışma	-10.467
▁2007	-10.4671
▁gerçekleşen	-10.4671
▁yetersiz	-10.4682
▁demiş	-10.4682
▁Esas	-10.4683
▁genom	-10.4685
▁lisans	-10.4686
▁gerçekleşti	-10.4687
▁ordu	-10.4693
▁internette	-10.4698
▁çocuğ	-10.4698
▁oturuyor	-10.4698
lanma	-10.4698
ğe	-10.4704
▁denir	-10.4706
▁yazarı	-10.4707
▁sokak	-10.4711
▁direkt	-10.4712
▁duy	-10.4714
▁seviyesi	-10.4717
▁küre	-10.4717
sızın	-10.4718
fa	-10.4718
▁atom	-10.4721
▁Fi	-10.4722
▁tüketici	-10.4724
▁etmesini	-10.4725
▁getir	-10.4727
▁Evren	-10.4734
▁izlemek	-10.4735
▁planlama	-10.4739
▁İsveç	-10.475
▁değiştirecek	-10.4751
▁önde	-10.4757
▁oyuncu	-10.4762
▁av	-10.4765
mesini	-10.4769
▁nasil	-10.4769
▁Thomas	-10.4769
▁otorite	-10.4769
▁savaşa	-10.4769
▁1980	-10.477
j	-10.477
▁okyanusun	-10.4773
▁gelmiyor	-10.4773
▁hayatımızı	-10.4791
▁köprü	-10.4794
▁öğrencisi	-10.4795
▁hile	-10.4806
▁orda	-10.4808
▁noktasında	-10.4811
▁bulut	-10.4813
▁kopya	-10.4813
▁Konuşma	-10.4816
▁ilkel	-10.4816
▁sonuc	-10.4821
▁çalışıyordum	-10.4821
▁şekillerde	-10.4824
▁kaydı	-10.4827
▁Kan	-10.4827
▁oyunları	-10.483
mezsiniz	-10.4834
▁toplantı	-10.4834
▁çıktığı	-10.4835
▁gelmez	-10.484
inizin	-10.4843
▁sı	-10.4845
▁ni	-10.4845
▁yapıyordu	-10.4846
ından	-10.4855
▁bağış	-10.4857
▁hasar	-10.4858
▁başım	-10.4859
▁dergi	-10.4861
▁diz	-10.4862
▁baktık	-10.4864
▁kalın	-10.4864
▁fayda	-10.4866
▁istemiyor	-10.487
▁ölümcül	-10.4873
▁büyüklüğünde	-10.4873
▁bilimin	-10.4874
▁edilemez	-10.4874
▁kutup	-10.4876
▁söylemeye	-10.4877
▁nehir	-10.4881
▁detaylı	-10.4885
▁öncelikle	-10.4887
▁grip	-10.4887
▁birleştir	-10.4888
▁uzunluğunda	-10.4892
▁amacıyla	-10.4897
lendi	-10.4899
▁vadede	-10.4901
▁kart	-10.4902
▁Toplum	-10.4904
▁hikayeleri	-10.4904
▁com	-10.491
▁tren	-10.4913
▁açıklamak	-10.4913
▁çalışmanın	-10.4914
▁sera	-10.492
▁Yap	-10.492
larım	-10.4921
▁türde	-10.4922
▁istekli	-10.4925
▁grubun	-10.4927
▁okumak	-10.4933
nce	-10.4938
▁kavram	-10.4942
▁üretme	-10.4946
▁sıcaklık	-10.4946
▁seçimler	-10.4952
▁erişimi	-10.4956
▁kilise	-10.4957
▁ahlak	-10.4958
▁efsane	-10.4977
▁dunya	-10.4977
▁bayağı	-10.4977
▁derdi	-10.4979
▁Ra	-10.4981
fik	-10.4981
▁evinde	-10.4982
▁kahraman	-10.4982
▁suda	-10.4986
▁denk	-10.4989
▁sakin	-10.4996
▁mekanizma	-10.5005
▁etmez	-10.5011
cılar	-10.5012
▁sevdi	-10.5014
▁olmalıydı	-10.5016
▁kavramı	-10.5021
mıyoruz	-10.5022
▁say	-10.5022
ab	-10.5024
▁garanti	-10.5029
▁başlay	-10.5029
▁yaşamış	-10.5032
tü	-10.5035
▁söyle	-10.5047
▁kıl	-10.5048
▁niye	-10.5048
▁öğrencilerin	-10.5049
▁yaratıcılık	-10.5057
▁gönder	-10.506
larındaki	-10.506
leyen	-10.5061
▁tecavüz	-10.5061
▁tarama	-10.5066
▁gösterme	-10.5068
▁Steve	-10.507
▁ötesin	-10.5073
▁çalışıyordu	-10.5078
▁Şey	-10.5079
▁seçti	-10.5081
▁röportaj	-10.5082
▁söylemeliyim	-10.5082
▁onlarca	-10.5083
▁konferans	-10.5085
▁kanun	-10.5094
▁atmak	-10.5096
▁gazeteci	-10.5098
▁geleceğ	-10.5098
▁olabilirler	-10.5099
▁öncesinde	-10.5099
▁oynar	-10.51
▁blok	-10.5104
leyerek	-10.5111
ğini	-10.5112
▁teorisi	-10.5112
▁edebileceğiniz	-10.5115
▁yıldızlar	-10.5117
▁soruyor	-10.5118
yorsunuz	-10.5119
▁olasılığı	-10.5132
▁etmişti	-10.5137
malı	-10.5138
▁kuşlar	-10.5141
larımdan	-10.5141
▁üreme	-10.5143
▁çağrı	-10.5143
ong	-10.5148
▁kon	-10.5152
▁meslek	-10.5155
▁üste	-10.5157
▁indir	-10.5158
▁yoksul	-10.5161
▁çerçeve	-10.5162
layacak	-10.5162
mizden	-10.5166
▁takımı	-10.5167
▁oturur	-10.5168
▁Hepiniz	-10.5172
▁Ka	-10.5175
miştir	-10.5186
▁Alzheimer	-10.5188
▁dönelim	-10.5189
▁çelişki	-10.5192
▁atmosfer	-10.5193
▁verebilir	-10.5194
▁kayda	-10.5194
▁hadi	-10.5196
lerimizde	-10.5196
▁Gor	-10.5198
▁bekler	-10.5199
▁olmazdı	-10.5202
▁yarısını	-10.521
▁So	-10.5214
▁kullanmayı	-10.5215
▁ayakkabı	-10.5215
▁söyleyeceğim	-10.5216
▁giy	-10.5217
▁okudum	-10.5217
▁köşe	-10.5224
▁geliyorlar	-10.5229
▁Birliği	-10.523
ılabilir	-10.5233
▁Bende	-10.5237
▁seyirci	-10.5251
▁BM	-10.5253
▁yönünde	-10.5259
▁yerli	-10.5259
yacağım	-10.5268
▁süreli	-10.5271
riyoruz	-10.5272
ımızın	-10.5275
▁başlayacak	-10.5286
▁gözle	-10.529
kı	-10.5293
▁demişti	-10.5293
50	-10.5295
▁Apple	-10.5296
▁Latin	-10.5296
▁bağışıklık	-10.5297
▁ölme	-10.5299
▁uyumlu	-10.53
▁gerçekleşiyor	-10.5301
▁Alman	-10.5303
▁duymak	-10.5303
▁kategori	-10.5306
▁durur	-10.531
▁istiyorsak	-10.5312
▁Ga	-10.5321
▁depresyon	-10.5322
▁çocuklarımız	-10.5323
▁bakıyoruz	-10.5323
▁geçir	-10.5326
▁katkıd	-10.5327
▁çizim	-10.533
▁farklılık	-10.533
▁gerçekliği	-10.5332
melisiniz	-10.5335
▁kullanabilir	-10.5336
▁okulu	-10.5337
mamız	-10.5338
▁olurlar	-10.5339
▁vakti	-10.5341
▁bahseder	-10.5352
▁kalanı	-10.5353
▁hamile	-10.5356
▁yollarını	-10.5357
▁Çalışma	-10.5358
▁par	-10.5361
▁Tahmin	-10.5364
▁toplumu	-10.5365
▁özellik	-10.5366
▁Pakistan	-10.5368
▁aletler	-10.5368
▁onur	-10.537
▁yapabiliri	-10.5371
▁Hangi	-10.5371
▁açlık	-10.5371
▁şiddetli	-10.5374
mo	-10.5375
▁yapabileceğiniz	-10.5381
▁yapımı	-10.5388
▁buluyor	-10.539
▁anlatmaya	-10.5395
▁Seni	-10.5403
▁Paris	-10.5405
▁Mavi	-10.5406
▁bilme	-10.5407
▁bekleyen	-10.5407
▁65	-10.5408
▁konuşurken	-10.541
▁komşu	-10.5411
▁görüşü	-10.542
▁yaşadığım	-10.5422
sunu	-10.543
▁üstün	-10.5432
▁rengi	-10.5433
▁kazanan	-10.544
▁Mary	-10.5442
▁ideal	-10.5442
▁kızların	-10.5442
▁ilişkin	-10.5446
▁güvende	-10.5449
▁yaşa	-10.5452
ymış	-10.5455
▁hizmetleri	-10.5456
▁Hasta	-10.5457
redeyse	-10.5462
▁yönü	-10.5467
▁sonun	-10.5467
▁genelinde	-10.547
▁olmama	-10.5472
▁çekim	-10.5473
▁kalmıyor	-10.5475
▁maaş	-10.5485
▁Ri	-10.5488
▁ayar	-10.5494
▁bulunma	-10.5495
▁milli	-10.5496
▁saatler	-10.5504
▁fotoğrafları	-10.551
▁Higg	-10.5514
▁kavga	-10.5514
▁pembe	-10.5514
▁Boston	-10.5514
▁vereyim	-10.5516
▁katman	-10.5522
▁çeşitliliği	-10.5524
▁noktaları	-10.5524
tor	-10.5526
keresinde	-10.5526
▁yaparsınız	-10.5527
▁ismini	-10.5533
▁umuyorum	-10.5535
▁kartı	-10.5537
▁stres	-10.5539
▁mantar	-10.5542
▁yazıyor	-10.5544
leyici	-10.5556
labilir	-10.5558
▁getirecek	-10.5563
▁dersi	-10.5564
▁türler	-10.5565
▁getirdik	-10.5566
▁görüntüleme	-10.5568
▁düzey	-10.557
▁bilgisayarın	-10.5577
▁bekleme	-10.5578
▁öğrenmeye	-10.5579
▁başardık	-10.5581
▁değerleri	-10.5583
ılıyor	-10.5589
▁aşağıda	-10.5591
▁basın	-10.5592
▁ekonomisi	-10.5593
▁seviyesinde	-10.5595
▁ini	-10.5599
▁nesneler	-10.561
▁ülkeleri	-10.5614
▁ayrıntı	-10.5615
▁dayanıklı	-10.5615
▁karşılıklı	-10.5624
▁Pasifik	-10.5626
▁göreceğiz	-10.5627
▁kablosuz	-10.5628
ama	-10.563
▁gücüne	-10.5634
▁yaparız	-10.5634
▁benzin	-10.5635
▁algılama	-10.5635
müş	-10.5639
▁of	-10.5649
▁yolun	-10.5649
12	-10.565
▁bölümünü	-10.565
▁Baba	-10.5654
▁bölgelerinde	-10.5656
▁bulunduğumuz	-10.566
▁değiştirmeye	-10.5661
▁arkasındaki	-10.567
▁odadaki	-10.5672
▁sev	-10.5672
pi	-10.5674
▁gidiyoruz	-10.5676
▁etrafındaki	-10.5684
▁görünüyordu	-10.5687
▁mülteci	-10.5688
▁dönüm	-10.569
▁patent	-10.5696
▁pratik	-10.5705
▁yavru	-10.5706
▁yazılmış	-10.5707
let	-10.5719
▁görür	-10.572
▁gövde	-10.5723
▁koloni	-10.5725
ard	-10.5725
▁kullanıl	-10.5725
▁göze	-10.5733
▁ülkedeki	-10.5734
▁Yeşil	-10.5738
▁yumuşak	-10.5738
▁Önemli	-10.5738
▁çirkin	-10.5738
▁şarap	-10.5738
▁Lüt	-10.5738
▁pasif	-10.5738
▁Park	-10.5742
▁değerlendirme	-10.5743
▁çekilmiş	-10.5743
▁Mart	-10.5745
▁başardı	-10.5746
▁bariz	-10.5747
▁Ber	-10.5748
▁değişen	-10.5749
▁problemin	-10.5752
dığında	-10.5754
▁iniş	-10.576
▁derken	-10.5762
▁Görüyorsun	-10.5763
▁oturdu	-10.5765
▁Har	-10.5768
cük	-10.5772
▁potansiyeli	-10.5774
ste	-10.5777
▁mektup	-10.5782
▁arabanın	-10.5783
▁bizde	-10.5788
▁Birinci	-10.5792
lamak	-10.5801
▁baz	-10.5803
▁günler	-10.5805
▁kablo	-10.5811
ja	-10.5815
▁durdu	-10.5815
▁konuştuk	-10.5818
▁yazıcı	-10.5822
▁kazı	-10.5823
▁hap	-10.5825
▁çeki	-10.5826
▁gölge	-10.5826
▁ilerliyor	-10.5829
▁yetenek	-10.5829
▁pazarlama	-10.5831
lenme	-10.5834
▁geleceğini	-10.5836
▁At	-10.5836
▁çöl	-10.584
▁mimar	-10.584
sair	-10.5842
▁sanatı	-10.5848
▁olumsuz	-10.585
▁ilişkili	-10.5851
▁gülüşmeler	-10.5851
▁sürpriz	-10.5851
▁protez	-10.5851
▁edeceğiz	-10.5857
▁Pi	-10.5857
▁diyebiliriz	-10.5859
▁yanda	-10.5859
▁aşık	-10.586
▁görebiliyoruz	-10.5861
▁dönmek	-10.5861
▁eşim	-10.5862
▁Gel	-10.5865
▁çoklu	-10.5865
▁gittiğimde	-10.5867
lardaki	-10.5869
▁ekranda	-10.5876
▁bilin	-10.5877
▁otel	-10.5881
▁boyutta	-10.5884
▁etkiliyor	-10.5885
▁gri	-10.5888
▁oluruz	-10.5889
▁şanslı	-10.5889
▁Bar	-10.5889
▁yönetimi	-10.5891
▁döneminde	-10.5894
▁rüya	-10.5895
▁ölümün	-10.5895
▁çözmeye	-10.5896
▁nesli	-10.5896
▁haberi	-10.5903
▁tutun	-10.5906
▁geçtik	-10.5909
▁art	-10.5917
▁büyüyor	-10.5917
▁resimleri	-10.5921
▁sorusu	-10.5931
▁Enstitüsü	-10.5934
labilirsiniz	-10.5936
▁Roma	-10.5937
▁kalmadı	-10.5945
▁engeller	-10.5947
ymiş	-10.595
▁Milletler	-10.5951
yordu	-10.5951
▁ettiğiniz	-10.5951
▁Gelecek	-10.5957
▁görü	-10.596
▁istatistik	-10.5964
▁yapmanı	-10.5966
▁hücrelerini	-10.5966
▁dışındaki	-10.5968
▁düşünmüyoru	-10.5969
▁Hayd	-10.5971
▁rolü	-10.5975
▁olabildiğin	-10.5977
▁orası	-10.5977
▁mühendisliği	-10.5979
▁yığın	-10.598
▁tasarımcılar	-10.5981
▁gizemli	-10.5982
▁değiştirir	-10.5984
▁araştırmacı	-10.5987
▁akım	-10.5987
▁Yaptığımız	-10.5988
▁kalmayı	-10.5991
▁bilen	-10.5991
▁zamanki	-10.5992
▁Am	-10.5993
▁programları	-10.5996
▁koca	-10.5997
▁göçmen	-10.5997
▁kızım	-10.6
▁tümör	-10.6002
▁kalıp	-10.6003
▁kuvvetli	-10.6006
▁boşluk	-10.6006
▁ağın	-10.6007
▁Hu	-10.6009
▁açmak	-10.6011
▁ellerinde	-10.6011
▁istediler	-10.6014
dıklarını	-10.6016
ren	-10.6023
▁açı	-10.6025
▁düşünüyordu	-10.6025
▁oluşturdu	-10.6026
▁düşünmemiz	-10.6029
▁Yapma	-10.6029
▁ölçü	-10.603
Tub	-10.6035
▁araştır	-10.604
▁oluştu	-10.6046
emez	-10.6049
▁mantık	-10.6049
▁sektör	-10.6051
▁the	-10.6052
▁bırakıyor	-10.6052
▁almayı	-10.6052
ör	-10.6054
▁zirve	-10.6055
▁görüntüleri	-10.6057
▁planı	-10.606
▁azaltma	-10.6062
▁olduğunun	-10.6062
▁keşfetme	-10.607
▁Sta	-10.6071
▁Gülüş	-10.608
▁amaçlı	-10.6082
▁hariç	-10.6083
▁sanmıyorum	-10.6083
▁keskin	-10.6083
▁yaşıyorlar	-10.6083
▁itiraf	-10.6083
▁utanç	-10.6084
▁çıplak	-10.6086
▁isterdi	-10.6089
▁dâhil	-10.609
▁varmış	-10.6091
▁alması	-10.6091
▁dönen	-10.6094
▁Gece	-10.6097
▁etmeniz	-10.6102
▁düşüş	-10.6102
▁yaşlanma	-10.6105
▁söylüyorlar	-10.6117
▁yoksulluk	-10.6118
▁fikrin	-10.6121
▁şehirlerde	-10.6122
▁sizde	-10.6123
▁boyutu	-10.6129
▁istersiniz	-10.6129
▁geçirdi	-10.6137
▁kitabın	-10.6142
▁borç	-10.6145
▁devamlı	-10.6147
▁direk	-10.6148
▁düş	-10.6149
▁olmalıdır	-10.6154
▁194	-10.6157
▁sola	-10.6157
woo	-10.6162
▁tanımlama	-10.6164
▁pilot	-10.6169
ral	-10.617
▁neşe	-10.6171
▁çiftçiler	-10.6172
▁esnek	-10.6173
▁gerçekçi	-10.618
▁varlığını	-10.6185
▁biliyorlar	-10.6187
ster	-10.619
ac	-10.6191
▁Kısa	-10.6194
▁ülkeye	-10.6197
R	-10.6198
▁tanımı	-10.6199
▁yapmıştı	-10.6199
▁global	-10.62
▁İklim	-10.62
▁endüstriyel	-10.62
▁beklenmedik	-10.62
▁sekil	-10.62
▁baylar	-10.6201
▁gösterilen	-10.6202
▁yapılabilir	-10.6205
▁DH	-10.6205
▁sihirli	-10.6207
▁temin	-10.6209
▁Internet	-10.6213
▁operasyon	-10.6213
▁önemsiz	-10.6214
▁ödülü	-10.6216
ür	-10.6217
▁anlayışı	-10.6218
▁kabile	-10.6218
▁mekan	-10.6224
▁250	-10.6227
▁tabaka	-10.6232
▁doğan	-10.6239
▁başlangıçta	-10.6239
▁düşer	-10.6243
▁Aile	-10.6245
▁yetenekli	-10.6248
▁insansız	-10.6253
dığınız	-10.6257
▁konularda	-10.6257
▁gönderme	-10.6257
▁işlerin	-10.6261
▁yaşar	-10.6263
▁çalışacak	-10.6264
▁tanrı	-10.6266
ire	-10.6271
▁ayır	-10.6274
▁istediğimi	-10.6275
▁dalış	-10.6275
▁organizmalar	-10.6278
▁kullandım	-10.6278
▁Ana	-10.6282
bire	-10.6282
▁St	-10.6285
▁başladığı	-10.6289
▁hayali	-10.6292
cik	-10.6293
▁fil	-10.6298
▁32	-10.6302
▁Art	-10.6309
leşiyor	-10.6314
▁kurulu	-10.6315
▁Bin	-10.6317
▁özgün	-10.6317
▁orijinal	-10.6319
▁1970	-10.632
▁gereği	-10.632
▁kullanışlı	-10.6322
▁cun	-10.6324
▁izleyen	-10.6324
▁dosya	-10.6327
▁Kısaca	-10.6327
▁işliyor	-10.6327
▁anladı	-10.6328
▁Peter	-10.6329
▁başkalarının	-10.6331
mızdan	-10.6332
▁Birlikte	-10.6334
▁gücün	-10.6334
▁kalacak	-10.6335
▁çıkarıp	-10.6336
▁alabilirsiniz	-10.6338
▁aileleri	-10.634
▁ağrı	-10.6342
▁çamaşır	-10.6345
acağı	-10.6348
▁sunmak	-10.6348
▁Burda	-10.6349
▁örnekleri	-10.6349
▁ayırt	-10.6349
▁havaya	-10.6349
▁sal	-10.635
▁işareti	-10.6358
yon	-10.6358
▁meselesi	-10.6363
▁çoğumuz	-10.6364
▁telefonları	-10.6366
▁inanmak	-10.6369
larımıza	-10.6369
▁market	-10.6371
▁kurtarmak	-10.6371
▁nüfusu	-10.6377
▁birliği	-10.6378
▁oturma	-10.6387
lacak	-10.6389
▁yaşıyordu	-10.639
▁vermiş	-10.6395
ebileceği	-10.6395
▁kötüsü	-10.6398
▁yatan	-10.6401
luyor	-10.6401
sidir	-10.6405
▁belirsiz	-10.6413
▁bar	-10.6415
▁yarın	-10.6424
▁edemez	-10.6426
▁kararı	-10.6436
▁ofis	-10.6436
dığınızda	-10.6437
▁depo	-10.6438
▁meşhur	-10.644
▁lazer	-10.644
▁şart	-10.6441
▁arttır	-10.6443
▁demir	-10.6448
▁oyunun	-10.645
▁prototip	-10.6454
ford	-10.6456
▁gelişimi	-10.6456
▁Pa	-10.6457
▁verdiğim	-10.6458
▁öğrendi	-10.6461
▁koyduk	-10.6461
▁maliyetli	-10.6461
▁açıp	-10.6462
▁ağlar	-10.6466
mizle	-10.6466
▁once	-10.6472
▁Rus	-10.6474
▁öğrencileri	-10.648
▁As	-10.648
▁karşılaşma	-10.6481
▁oyna	-10.6482
▁gidin	-10.6483
▁yapıldığını	-10.6484
▁izliyor	-10.6485
▁derler	-10.6485
▁adeta	-10.6488
▁hayatları	-10.6494
▁yaratabilir	-10.6494
leniyor	-10.6496
▁alanını	-10.6497
▁aşkın	-10.65
▁tavan	-10.6507
▁konum	-10.6507
▁yapmasını	-10.6508
▁Hint	-10.6508
▁dokunma	-10.6512
▁başladığımda	-10.652
▁ağacı	-10.6522
▁İçinde	-10.6524
lıyoruz	-10.6524
▁yörünge	-10.6525
▁uyan	-10.6541
klarını	-10.6541
▁içme	-10.6544
▁mobil	-10.6551
▁oynamak	-10.6553
landığı	-10.6555
▁egzersiz	-10.6555
▁yetenekleri	-10.6555
▁zehirli	-10.6556
▁şikayet	-10.6561
▁içe	-10.6561
dirler	-10.6561
▁intihar	-10.6562
▁istisna	-10.6562
▁yangın	-10.6562
▁entegr	-10.6562
▁kurumsal	-10.6563
▁kalitesi	-10.6567
▁olgu	-10.6572
▁genişlet	-10.6572
▁avukat	-10.6573
mekte	-10.6573
▁anki	-10.6575
ydü	-10.6578
▁harcama	-10.658
▁değişir	-10.6583
▁Ge	-10.6584
▁güvenliği	-10.659
ılır	-10.6592
▁olacağına	-10.6594
▁babamın	-10.6603
▁yaratmaya	-10.6605
▁kuruyor	-10.6606
▁haberleri	-10.6611
▁dost	-10.6617
▁yaşı	-10.6618
iyet	-10.6619
▁sağladığı	-10.6622
kleri	-10.6628
▁desteği	-10.6635
▁beyinde	-10.6635
▁gübre	-10.6639
▁bo	-10.6641
▁elbise	-10.6643
▁özü	-10.6648
nizle	-10.6648
▁kalk	-10.665
▁olayın	-10.6652
▁eti	-10.6654
▁detay	-10.6657
do	-10.6662
▁yürüyor	-10.6664
▁duygular	-10.6664
▁metafor	-10.6668
▁şurada	-10.6669
▁küçü	-10.6669
▁Lo	-10.667
▁c	-10.6676
ebiliyor	-10.6678
▁olmayabilir	-10.6679
▁beyninin	-10.6681
hu	-10.6681
▁yepyeni	-10.6685
▁bilinmeyen	-10.6685
▁optik	-10.6685
▁1950	-10.6686
▁yaptığımı	-10.6687
iş	-10.6688
▁2005	-10.669
gen	-10.6695
▁alırsınız	-10.6699
▁çılgınca	-10.6701
▁Gerçekte	-10.6704
▁Dünyayı	-10.6705
▁tatil	-10.6705
▁yazan	-10.6706
▁yapacağını	-10.6706
▁yarattık	-10.6708
I	-10.671
▁olmasından	-10.6713
▁Ölüm	-10.6716
▁kurumlar	-10.6717
▁refah	-10.6718
▁yapıyorsunuz	-10.6719
th	-10.6719
▁Asla	-10.673
▁sunuyor	-10.6734
▁derinden	-10.6735
▁korkma	-10.6736
▁devrimi	-10.6737
▁aramak	-10.6739
▁dışın	-10.6743
▁Martin	-10.6744
▁insandan	-10.6745
▁söyley	-10.6746
▁uzayda	-10.6747
ırken	-10.675
▁geliştirdi	-10.6753
▁gizem	-10.6756
▁Jim	-10.6756
▁çanta	-10.6757
▁şarkısı	-10.6758
▁anlatma	-10.6758
▁taşımak	-10.6758
▁yasak	-10.6761
▁Ko	-10.6764
▁anlatır	-10.6766
▁Hareket	-10.6766
▁otobüs	-10.6771
▁iyileşme	-10.6774
▁döngü	-10.6776
▁yaşta	-10.6778
▁evlilik	-10.6781
▁hayatında	-10.6781
▁gazı	-10.6783
▁animasyon	-10.6784
larınız	-10.6786
▁İster	-10.6786
▁Hep	-10.6788
▁oldugunu	-10.6797
▁puan	-10.6799
▁ortamı	-10.6802
▁içlerinde	-10.6805
▁hayati	-10.6806
▁damla	-10.681
▁gerektirir	-10.681
▁ulaşılabilir	-10.6811
▁Eminim	-10.6812
▁destekleyen	-10.6813
▁etmeliyiz	-10.6816
▁Doğal	-10.6818
▁verildi	-10.6822
▁düşünürken	-10.6822
▁etmekte	-10.6824
▁Uluslararas	-10.6826
▁mahkum	-10.6826
▁hapishane	-10.683
▁olmalısınız	-10.6831
acaktır	-10.6832
ış	-10.6839
iliyor	-10.684
▁uygulamalar	-10.6841
ınız	-10.6844
▁tak	-10.6846
▁gösterecek	-10.6846
▁gelme	-10.6847
▁çalışanları	-10.6848
▁aklın	-10.6849
riyorum	-10.6851
ly	-10.6852
▁edebilmek	-10.6853
▁Or	-10.6855
▁metin	-10.6857
▁böcekler	-10.6857
▁geliştirdik	-10.6862
▁duyduğum	-10.6863
lanır	-10.6864
▁İç	-10.6865
memiz	-10.6866
▁mağaza	-10.6867
▁uğraş	-10.687
▁yetiştirme	-10.687
▁tutu	-10.6874
lenir	-10.6876
▁minik	-10.6879
▁topu	-10.6888
diğiniz	-10.689
▁kendiliğin	-10.69
▁Fark	-10.6904
▁geçecek	-10.6908
▁rakamlar	-10.6912
15	-10.6912
▁elini	-10.6914
▁yarış	-10.6917
▁keyif	-10.6918
▁kısme	-10.6922
▁filtre	-10.6922
▁doğası	-10.6923
▁kaplı	-10.6925
laşma	-10.6933
▁Önümüzde	-10.6937
▁Baş	-10.6937
▁alkol	-10.6937
▁gerektiren	-10.6937
▁dikey	-10.6939
▁anlamamız	-10.6941
▁perde	-10.6941
▁hatırlayın	-10.6946
▁maden	-10.6948
▁vermesi	-10.6953
▁yazmak	-10.6954
▁bölümünde	-10.6954
▁görebiliyor	-10.6958
▁çıkması	-10.6959
▁bebekler	-10.696
▁odaklan	-10.6965
lılar	-10.6966
▁Derek	-10.697
diğim	-10.6971
▁kuralı	-10.6971
▁olayları	-10.6981
▁yapılır	-10.6989
▁yaratıklar	-10.6989
▁oradaydı	-10.6991
ic	-10.6997
▁gay	-10.7001
ımda	-10.7002
▁etiket	-10.7006
▁tiyatro	-10.7008
▁gerekecek	-10.7013
ff	-10.7013
cü	-10.7013
▁Birden	-10.7025
▁Ni	-10.7029
▁yanındaki	-10.7038
▁öngörü	-10.7039
▁Bi	-10.7042
▁yaşamaya	-10.7043
▁verip	-10.7044
▁Kongre	-10.7045
▁ağaçları	-10.7049
▁ata	-10.705
▁mühendis	-10.7056
▁çıkardık	-10.7057
▁açma	-10.7062
▁çelik	-10.7063
▁Pazar	-10.7064
▁Modern	-10.7065
▁Geçtiğimiz	-10.7065
▁Haiti	-10.7065
▁zar	-10.7065
▁nazik	-10.7066
▁2011	-10.7066
▁neydi	-10.7072
▁inanı	-10.7074
▁ihtimal	-10.7078
▁Kalp	-10.7079
▁izledi	-10.7082
▁ekibi	-10.7082
▁ulus	-10.7084
▁koruyucu	-10.7085
imize	-10.7085
▁ham	-10.7088
▁elma	-10.7089
▁roman	-10.709
ll	-10.7092
▁çıkaran	-10.7092
▁orkestra	-10.7093
▁karikatür	-10.7096
cilik	-10.7097
▁aday	-10.7098
▁çıktık	-10.7107
▁koşullar	-10.7113
▁terör	-10.7114
▁Can	-10.7119
▁kompleks	-10.712
▁odaklanma	-10.7122
▁heykel	-10.7126
▁edildiği	-10.7135
▁Sam	-10.7137
▁alındı	-10.7139
▁arkadaşlar	-10.7139
▁birisini	-10.7139
▁oğlum	-10.7141
▁temas	-10.7142
▁canlılar	-10.7143
▁büyür	-10.7148
▁ekonominin	-10.715
ad	-10.7158
O	-10.7158
▁sayıları	-10.7166
▁dön	-10.7166
▁nedenini	-10.7166
▁as	-10.7169
▁nı	-10.7169
▁ışığın	-10.718
▁üretken	-10.7184
▁Gu	-10.7187
▁çiftlik	-10.7189
▁adapt	-10.719
▁içeriği	-10.7192
▁oluş	-10.7194
▁girmek	-10.7194
▁Muhteşem	-10.7195
▁sevimli	-10.7195
▁kapsamlı	-10.7195
▁Kırmızı	-10.7196
▁dayanıyor	-10.7197
▁grupları	-10.7197
müz	-10.72
▁süresi	-10.7213
▁yazılı	-10.7216
▁kanı	-10.7218
▁v	-10.7221
▁durumlar	-10.7222
sıdır	-10.7224
▁yanımda	-10.7225
▁oyunlar	-10.7225
▁dakikalık	-10.7227
▁üyeleri	-10.7228
▁istemedi	-10.7231
ciler	-10.7234
▁tarihin	-10.7235
▁durumunu	-10.7235
▁çıkarır	-10.7237
▁ilişkileri	-10.724
▁Gi	-10.7244
▁yay	-10.7244
▁türlerin	-10.7248
▁öğretme	-10.7251
▁özgürlüğü	-10.7252
▁belge	-10.7253
▁buluş	-10.7255
▁hâlin	-10.7256
▁gidiyordu	-10.7258
▁attı	-10.7258
▁sokakta	-10.7259
▁birbirlerini	-10.7263
▁şehirlerin	-10.7265
▁Tim	-10.7267
▁fiyatı	-10.7269
diklerini	-10.727
▁gördüğümde	-10.7278
han	-10.7279
▁değişimin	-10.728
▁haklarını	-10.7281
lanacak	-10.7281
▁davranışı	-10.7284
ydık	-10.7284
▁sayılar	-10.7285
▁iyiydi	-10.7286
▁yargı	-10.7288
▁sevdiği	-10.7288
▁bahsetti	-10.7289
▁mısır	-10.729
▁duyar	-10.7292
ürekli	-10.7293
▁hastanede	-10.7293
▁inceleme	-10.7294
▁listesi	-10.7296
▁yüzeyi	-10.7298
▁ndan	-10.7298
▁olacağım	-10.73
▁harcadı	-10.7301
▁programlama	-10.7301
▁Mark	-10.7303
▁girdim	-10.7303
▁farklılıklar	-10.731
▁bal	-10.7311
▁hayatımız	-10.7311
▁başladığım	-10.7317
▁futbol	-10.7318
▁akademi	-10.7327
▁Californi	-10.7327
▁Uganda	-10.7327
▁golf	-10.7327
▁196	-10.7327
▁nano	-10.7327
▁Bob	-10.7328
▁aşamada	-10.7329
▁kentsel	-10.733
▁öykü	-10.733
▁sistemimiz	-10.733
likte	-10.7334
▁baktığımda	-10.7337
▁tasarımın	-10.7339
▁büyüklükte	-10.7341
▁birbirimiz	-10.7342
leyip	-10.7343
▁şekiller	-10.7347
▁alanların	-10.7353
▁kütüphane	-10.7353
▁kapat	-10.7355
▁kasaba	-10.7356
▁birbirini	-10.7357
▁ilan	-10.7358
E	-10.736
▁silahlı	-10.7361
▁davran	-10.7366
▁öğrenir	-10.7368
▁gittiği	-10.7374
▁yayıldı	-10.7381
▁birçoğu	-10.7381
▁uzağ	-10.7385
▁geliştir	-10.7402
▁iyimser	-10.7403
▁Kara	-10.7404
▁gitmiş	-10.7405
▁Kanser	-10.7408
▁boşluğu	-10.7409
▁inek	-10.7411
▁kaldık	-10.7412
▁bağlıdır	-10.7416
▁To	-10.7416
▁otizm	-10.7419
▁ediyordum	-10.7422
▁Ed	-10.7435
▁aramaya	-10.7435
▁süresin	-10.7439
▁hastası	-10.7441
don	-10.7442
▁Holly	-10.7446
▁mısın	-10.7448
BG	-10.7454
▁terörist	-10.7456
▁fırsatlar	-10.7458
▁Devam	-10.746
▁yapıcı	-10.7463
▁kusursuz	-10.7464
▁kalırsa	-10.7467
▁ışıkları	-10.7467
▁oluşturu	-10.7468
sizlik	-10.747
madan	-10.7475
▁tuttu	-10.7478
▁öncü	-10.7483
▁slayt	-10.7485
▁göstermeye	-10.7487
▁yarısında	-10.749
▁Pan	-10.7497
▁gelişti	-10.7498
rak	-10.7501
▁keşfettim	-10.7505
▁yapmakta	-10.7506
▁Film	-10.7507
▁eyalet	-10.7508
▁düşünmeniz	-10.751
▁kurar	-10.7519
▁ba	-10.752
▁akışı	-10.7522
▁herşeyin	-10.7525
▁paket	-10.753
▁kapasitesi	-10.7533
▁fizikçi	-10.7538
▁havalı	-10.7538
▁devletin	-10.7539
▁köle	-10.7542
▁Japon	-10.7542
▁çocuklarımızı	-10.7543
▁çarpışma	-10.7543
▁sorum	-10.7547
▁kazanıyor	-10.7548
▁toz	-10.755
▁Da	-10.7552
▁yapabileceği	-10.7552
▁bölgeleri	-10.7559
by	-10.7563
▁sürecinde	-10.7566
▁insanla	-10.7567
ot	-10.7569
har	-10.757
▁benlik	-10.7571
▁arar	-10.7573
▁tasarlamak	-10.7574
▁işlemi	-10.7574
layıcı	-10.7576
▁oluşturduk	-10.7577
▁varsayım	-10.758
abileceğini	-10.7582
rayı	-10.7582
▁vermeyi	-10.7582
caba	-10.7584
▁tanım	-10.7585
▁Yoks	-10.759
▁hatırlıyor	-10.7591
ıyoruz	-10.7593
▁uyu	-10.7594
▁yetecek	-10.7595
▁bilişsel	-10.7596
▁PM	-10.7596
▁yayılan	-10.7597
▁topluluğun	-10.76
▁duyan	-10.7601
▁azalma	-10.7602
▁diyebilirsiniz	-10.7603
▁çık	-10.7603
▁yaraya	-10.7603
saydı	-10.7605
▁düşünürsek	-10.7607
▁bekliyor	-10.7609
▁Rio	-10.7609
▁kullanıldı	-10.761
▁bozuk	-10.7611
▁Mu	-10.762
▁resmini	-10.7624
▁artışı	-10.7626
▁hakikat	-10.7627
▁üye	-10.7628
▁bittiğini	-10.7635
30	-10.7636
▁kapasite	-10.7643
▁bitkilerin	-10.7643
▁öğretmek	-10.7646
▁yerlerinde	-10.7647
▁sigorta	-10.7647
▁tümü	-10.7652
▁avcı	-10.7654
▁getirmeye	-10.7654
▁gözü	-10.7656
▁eli	-10.7658
▁saati	-10.7663
▁hesab	-10.7663
▁cevaplar	-10.7666
▁ölçek	-10.7668
▁ileride	-10.7669
klerini	-10.767
▁tüketimi	-10.7689
▁tanık	-10.7696
▁Devlet	-10.7698
▁pozisyon	-10.7698
▁ilgileniyor	-10.7699
▁çıktım	-10.7701
▁yüzeye	-10.7703
▁büyüklüğü	-10.7706
▁yönden	-10.7713
hattan	-10.7714
ladığı	-10.7716
▁keşfed	-10.7717
▁atmosferi	-10.772
▁liderleri	-10.7722
▁yöntemleri	-10.7722
▁götürdü	-10.7725
▁tedavisi	-10.7726
▁Pe	-10.7731
▁davranışlar	-10.7732
▁Enerji	-10.7732
▁ekstra	-10.7732
▁rica	-10.7732
▁CEO	-10.7732
▁söyledikleri	-10.7733
▁üretilen	-10.7735
▁anladık	-10.7735
ow	-10.7737
▁Robert	-10.7737
▁taşındı	-10.7738
▁başlattı	-10.7738
▁taşır	-10.7739
▁ülkeyi	-10.7743
▁aptalca	-10.7743
▁anlıyorum	-10.7744
▁edebilecek	-10.7745
▁düşme	-10.7749
▁iskelet	-10.7749
▁gözlerini	-10.7751
▁şehr	-10.7752
▁virüsü	-10.7757
▁duyduğunuz	-10.7758
▁ucu	-10.7763
▁çıktığını	-10.7769
▁olasılık	-10.7771
▁seslerini	-10.7772
▁protesto	-10.7774
▁anlatan	-10.7775
▁yollarla	-10.7776
▁y	-10.7777
▁düşünecek	-10.7778
▁oldugu	-10.7778
ılması	-10.778
▁bitti	-10.7793
▁cihazlar	-10.7794
▁Yer	-10.7804
yecek	-10.781
▁Ro	-10.7815
▁gidiyorlar	-10.7815
▁üret	-10.7816
lamaz	-10.7819
▁benzediğini	-10.782
▁ilişkisi	-10.782
▁verdikleri	-10.7829
▁renkler	-10.7842
abilen	-10.7846
▁yaşayacak	-10.7846
▁temeli	-10.7846
mla	-10.7848
▁sorar	-10.7849
▁kutusu	-10.7853
▁emekli	-10.7857
▁konuşmanın	-10.7865
▁ölümü	-10.7866
▁internetin	-10.7866
▁hepinizi	-10.7867
▁Nobel	-10.7871
▁yolculuğ	-10.7871
▁motivasyon	-10.7871
▁Merak	-10.7871
▁vadeli	-10.7873
▁atma	-10.7873
▁atar	-10.7875
▁sonuçlarını	-10.7877
▁sinyali	-10.788
▁oluşturduğu	-10.7881
▁harf	-10.7889
▁Kal	-10.7893
▁değerini	-10.7893
▁sinema	-10.7893
▁adlandırıla	-10.7894
▁um	-10.7894
ımın	-10.7894
▁sınıfta	-10.7895
lerimize	-10.7898
▁Frank	-10.7898
▁kurum	-10.7901
▁dünyamızı	-10.7904
▁yaramaz	-10.7905
▁sorma	-10.7907
iyordu	-10.7907
▁yakalanma	-10.791
▁uygulamaya	-10.7913
kte	-10.7918
▁finanse	-10.7922
▁geçirme	-10.7922
▁düşünmeyi	-10.7922
▁and	-10.7926
▁konuştu	-10.7926
▁zordu	-10.7928
▁okumaya	-10.7931
▁söyleyin	-10.7935
▁yapmadı	-10.7935
muzu	-10.7937
üm	-10.7939
▁profesör	-10.7945
▁zehir	-10.7955
▁cidd	-10.7958
▁yıldızların	-10.7964
▁denedik	-10.7966
▁zorla	-10.7967
maları	-10.7968
▁anti	-10.797
▁tarayıcı	-10.7971
▁dokun	-10.7973
▁katılım	-10.7975
▁ağırlığı	-10.7976
▁karbondioksit	-10.7976
▁büyü	-10.798
▁yetişkinler	-10.7982
▁endüstrisi	-10.7985
▁felci	-10.7989
▁ulaştı	-10.7992
▁güçleri	-10.7992
lıyım	-10.7994
les	-10.8008
▁uzaya	-10.8009
▁dizüstü	-10.8012
▁vb	-10.8013
▁projede	-10.8013
amayacak	-10.8013
▁195	-10.8014
▁faydası	-10.8015
▁başladığımız	-10.8015
▁oranını	-10.8018
▁bırakıp	-10.8018
▁çıkarak	-10.8019
▁tümüyle	-10.8021
▁bakıyorsunuz	-10.8021
▁hayran	-10.8022
▁kültürün	-10.8022
▁deprem	-10.8025
▁giren	-10.803
▁yaratacak	-10.8032
▁sorunumuz	-10.8032
▁hızını	-10.8036
▁platform	-10.8036
▁Kral	-10.8039
▁iyice	-10.8044
▁gideli	-10.8044
▁gezegenler	-10.8045
▁düşünüyorlar	-10.8053
▁istediklerini	-10.8054
▁bağlaya	-10.8054
▁odası	-10.8056
▁Oysa	-10.8059
▁düşündüğü	-10.8059
▁parçalarını	-10.806
▁favori	-10.8063
▁algoritma	-10.8065
▁sebze	-10.8072
▁anlatı	-10.8073
▁dönüşüyor	-10.8074
▁çıkmaya	-10.8079
▁fotoğrafta	-10.808
▁İtalya	-10.808
▁Mar	-10.8082
▁verirse	-10.8083
▁adımı	-10.8087
▁verilerin	-10.8091
▁miktarını	-10.8091
▁etraf	-10.8091
hur	-10.8097
ach	-10.8097
▁biçim	-10.8097
▁buzun	-10.8103
eri	-10.8105
▁sinyalleri	-10.8106
▁dönüştürmek	-10.8107
▁öğrendiğimiz	-10.8107
ven	-10.8112
▁MS	-10.8115
▁değişken	-10.8115
maz	-10.8116
▁ağları	-10.812
▁gerekmiyor	-10.812
ian	-10.8124
▁Ak	-10.8126
▁ç	-10.8127
▁onay	-10.8128
▁ürettiği	-10.8131
▁bel	-10.8133
▁tüketim	-10.814
▁sezgi	-10.8141
▁düzen	-10.8143
▁önyargı	-10.8143
▁tamamını	-10.815
▁Gand	-10.8152
▁26	-10.8153
▁maddi	-10.8155
▁GSY	-10.8155
▁birimi	-10.8156
▁esnasında	-10.8156
▁kurban	-10.8156
▁kuyruklu	-10.8156
▁başarısızlık	-10.8159
▁hapse	-10.8161
▁güce	-10.8162
▁bireylerin	-10.8162
▁Cha	-10.8168
▁yerdir	-10.817
▁çalışmasını	-10.8175
▁alıyordu	-10.818
▁gelmeye	-10.8181
▁desteklemek	-10.8183
▁Kutbu	-10.8184
▁fikrine	-10.8185
▁ah	-10.8187
▁sent	-10.8188
▁Sistem	-10.819
yet	-10.8192
▁belirleme	-10.82
▁birbirimizi	-10.8201
▁Vadisi	-10.8202
▁kelimesini	-10.8205
▁giderse	-10.8205
▁etmeli	-10.8211
▁istey	-10.8212
▁evrimin	-10.8212
▁donanım	-10.8213
lerimden	-10.8216
▁ilaçların	-10.8219
▁çalışmıyor	-10.822
▁sitesi	-10.8222
▁Fo	-10.8223
▁başlamış	-10.8224
▁buzul	-10.8227
▁fotoğrafını	-10.8232
▁davranışlarını	-10.8239
▁artı	-10.8244
▁travma	-10.8248
▁ülkeden	-10.8249
▁ümit	-10.8251
▁hatırlar	-10.8251
▁sade	-10.8253
▁somut	-10.8253
▁yöntemler	-10.8255
▁dikkatini	-10.8257
lalım	-10.8258
▁g	-10.8262
▁azı	-10.8263
▁duvarı	-10.8263
ney	-10.8263
▁sinek	-10.8265
▁adama	-10.8273
▁sunma	-10.8277
siydi	-10.8278
▁Kültür	-10.8291
▁örnekte	-10.8291
▁ilgiliydi	-10.8295
zerinde	-10.8298
▁Süper	-10.8299
▁diyalog	-10.83
▁referans	-10.83
▁pound	-10.83
▁enteresan	-10.83
▁kumanda	-10.83
▁eşitsizlik	-10.83
▁Yerel	-10.8301
▁şirketin	-10.8303
▁Street	-10.8304
▁Bakanlığı	-10.8304
▁pompa	-10.8307
▁33	-10.8308
▁özür	-10.8309
men	-10.831
▁kâr	-10.8311
ğım	-10.8313
▁Erkek	-10.8314
▁eksikliği	-10.8315
▁fotoğraflarını	-10.8315
▁kelimesi	-10.8316
▁bilinir	-10.8318
▁kanat	-10.8321
▁çarpma	-10.8322
▁okullar	-10.8325
▁gelişmeler	-10.8325
▁fikrimiz	-10.8325
▁Güvenlik	-10.8331
▁Hepimizi	-10.8338
ladık	-10.8338
ry	-10.8339
▁bebeğin	-10.8342
▁ekosistem	-10.8343
▁Wi	-10.8343
▁alkış	-10.8344
▁120	-10.8349
▁dar	-10.8349
▁ilgimi	-10.835
▁resmin	-10.835
▁tüket	-10.8351
▁olmasaydı	-10.8352
▁yapabilirler	-10.8355
▁uzmanları	-10.8359
▁eğit	-10.8363
▁sorunların	-10.8363
▁şebeke	-10.8363
▁duyguları	-10.8363
indeki	-10.8364
▁seçimi	-10.8365
▁konuşmamı	-10.8367
▁isteği	-10.8367
▁kanserin	-10.837
▁kalktı	-10.837
▁götürüyor	-10.8371
ıcı	-10.8378
▁kısıtlı	-10.838
ışı	-10.8382
ev	-10.8389
▁senaryo	-10.8391
▁tavuk	-10.8391
BI	-10.8396
▁kullandıkları	-10.8397
▁başlarında	-10.8397
ilecek	-10.8399
▁bizleri	-10.8405
▁arabası	-10.8405
▁olmalarını	-10.8405
▁kaynaklarını	-10.8405
meyeceğim	-10.8409
▁radyasyon	-10.8411
▁dağıtım	-10.8411
ceği	-10.8416
▁uy	-10.8418
gide	-10.8428
▁oynuyor	-10.843
▁teknolojilerin	-10.843
▁Bankası	-10.8436
▁değiştiğini	-10.8436
▁Sal	-10.8439
▁terim	-10.844
▁700	-10.844
▁hastalıkların	-10.8441
▁çizgiler	-10.8442
▁95	-10.8443
▁hükümetin	-10.8445
▁nöronlar	-10.8445
▁bit	-10.8446
▁olağan	-10.8446
▁Korku	-10.8446
▁Fizik	-10.8446
▁gecekondu	-10.8447
▁motive	-10.8447
▁pirinç	-10.8447
▁kalori	-10.8447
▁görünmüyor	-10.8447
▁Evrim	-10.8447
▁uğraşan	-10.845
▁oynayan	-10.845
▁bakımından	-10.8452
▁elleri	-10.8452
▁yaklaşımı	-10.8452
▁mühendisler	-10.8453
▁dersleri	-10.8455
▁sok	-10.8459
▁alanlarında	-10.8461
▁insanlarda	-10.8461
▁sorduğum	-10.8462
▁Alan	-10.8462
▁gereksiz	-10.8462
▁yazdığı	-10.8463
▁toplumlar	-10.8464
▁keşfetti	-10.8467
▁işgal	-10.847
ırsınız	-10.8471
▁çöküş	-10.8471
▁sığ	-10.8473
▁korumaya	-10.8475
▁formu	-10.8486
abileceği	-10.849
▁karşılaştığımız	-10.8492
▁müziğin	-10.8493
▁yazmaya	-10.8493
▁günümüz	-10.8497
▁Fikir	-10.8499
▁konuştum	-10.8499
▁İz	-10.85
▁haritasını	-10.8501
▁kirli	-10.8503
▁çalışanlar	-10.8505
▁çıktığında	-10.8506
layabilir	-10.8509
▁sebebiyle	-10.8512
▁edil	-10.8517
▁geceleri	-10.8522
▁yatıyor	-10.8526
liler	-10.853
▁yapıları	-10.8532
▁yönet	-10.8533
▁In	-10.8537
▁800	-10.8538
▁şiddeti	-10.8544
muzun	-10.8544
▁Ö	-10.8547
▁yaptığımızı	-10.8549
▁Dur	-10.855
ilir	-10.8553
leştirme	-10.8555
we	-10.8556
▁izleyici	-10.8562
▁saha	-10.8563
▁Özel	-10.8565
▁kaybetmiş	-10.8567
lüğü	-10.8567
▁halini	-10.8569
▁azaltmak	-10.8573
▁başla	-10.8577
▁soy	-10.8581
▁deneyimler	-10.8584
▁türünü	-10.8584
▁ruhu	-10.8584
▁fikr	-10.8585
▁tedarik	-10.8585
▁kurtar	-10.8588
▁anket	-10.8588
▁Gün	-10.8589
eşke	-10.859
▁bayanlar	-10.8595
▁huzur	-10.8595
▁karaciğer	-10.8596
▁negatif	-10.8596
▁reçete	-10.8596
▁acımasız	-10.8596
▁ritim	-10.8596
▁paralel	-10.8596
▁Scott	-10.8596
▁Geleneksel	-10.8596
▁söyleyeyim	-10.8597
▁basınç	-10.8599
▁Ortalama	-10.8599
▁aynısını	-10.86
▁anlamsız	-10.86
▁bölgeler	-10.8603
▁buluyorum	-10.8603
▁toplamak	-10.8603
▁söylenen	-10.8606
▁çalışabilir	-10.8608
▁yuvarlak	-10.8609
▁ilgilenen	-10.8609
▁yaklaş	-10.861
▁öğret	-10.861
▁karşılaştırma	-10.861
oloji	-10.8612
▁kış	-10.8612
▁yılını	-10.8613
▁bağlantılar	-10.8615
▁geçiren	-10.8615
▁Hepsini	-10.8616
▁farkındalık	-10.8617
▁okuduğum	-10.8626
süz	-10.8626
▁olayların	-10.8626
▁çıkart	-10.8627
▁akıllıca	-10.8627
▁beraberinde	-10.8628
▁Go	-10.8629
▁diyet	-10.8631
▁geçmişi	-10.8633
▁kamp	-10.8634
▁Proje	-10.8634
rseniz	-10.8641
▁hepimizi	-10.8642
▁durmak	-10.8643
▁vücudunu	-10.8646
▁diken	-10.8647
ince	-10.8649
▁diğerlerinin	-10.865
▁süt	-10.865
▁duyduğu	-10.8653
sha	-10.8654
▁söyleyecek	-10.8656
▁kullanılır	-10.8656
▁kaybetme	-10.8657
▁çeviri	-10.8669
▁arasından	-10.867
▁yapıldığı	-10.8672
▁İnanıyoru	-10.8673
▁bardak	-10.868
▁Göz	-10.8686
▁tipi	-10.8688
▁gezegeni	-10.869
▁kadını	-10.8691
▁Tarih	-10.8695
▁eğitimli	-10.87
▁biten	-10.8701
▁atıyor	-10.8701
lıkta	-10.8705
▁şehrinde	-10.8706
▁gerçekleştirmek	-10.8713
▁öğretiyor	-10.8718
▁incelemek	-10.8719
▁se	-10.8721
▁çağında	-10.8726
▁şartlar	-10.8728
ero	-10.8729
ood	-10.8731
▁sınırlar	-10.8733
▁ikincisi	-10.8733
▁çocukluk	-10.8737
▁göndermek	-10.8737
▁gelmedi	-10.8738
▁millet	-10.8738
niversite	-10.8739
▁işle	-10.8743
▁Chicago	-10.8747
▁belediye	-10.8747
▁bıçak	-10.8747
▁Ebola	-10.8747
▁gerektiriyor	-10.8748
▁Hâl	-10.8748
▁göreceğiniz	-10.8748
▁aynısı	-10.8748
▁Noel	-10.8749
▁Britanya	-10.8749
▁aranızda	-10.875
▁şüphesiz	-10.8751
▁davranışsal	-10.8753
▁oynay	-10.8753
▁riskli	-10.8753
▁lu	-10.8753
up	-10.8754
▁almıştı	-10.8754
▁titreşim	-10.8757
▁yenilenebilir	-10.8757
▁yürüdü	-10.876
ydik	-10.8764
▁faaliyet	-10.8765
▁fi	-10.8765
▁materyal	-10.8766
▁Veri	-10.8769
▁fikirlerini	-10.8769
▁politikacılar	-10.8773
▁Aslın	-10.8774
▁sebepten	-10.8774
▁isterler	-10.8777
▁keşfi	-10.8781
şık	-10.8782
▁ailenin	-10.8788
▁başlıyorlar	-10.8794
▁güncel	-10.8796
▁mahkeme	-10.8797
▁Niye	-10.8803
▁Fa	-10.8807
▁hareketin	-10.8807
▁bildirim	-10.8811
▁ter	-10.8815
▁muyu	-10.8823
▁yaşanan	-10.8826
▁elinizde	-10.8833
▁şiddetin	-10.8834
▁sürücü	-10.8835
▁maske	-10.8838
▁araştırmacılar	-10.8843
gun	-10.8847
▁kişilere	-10.8848
▁olmasıydı	-10.8849
▁Normal	-10.8855
RB	-10.8856
▁Herşey	-10.886
sindeki	-10.8861
▁hızda	-10.8863
▁elin	-10.8864
▁teknolojisini	-10.8869
▁ayni	-10.8872
▁dönemi	-10.8873
lıydı	-10.8873
▁es	-10.888
▁mali	-10.888
▁severi	-10.8883
▁kimlik	-10.8886
▁köşesinde	-10.8889
yıllardır	-10.889
▁içimizde	-10.8892
▁Sonraki	-10.8892
▁akışını	-10.8894
▁balıklar	-10.8895
▁ilerleye	-10.8897
▁düşündüğünüzde	-10.8899
▁emniyet	-10.8901
▁anatomi	-10.8901
▁dramatik	-10.8901
▁beton	-10.8901
▁trans	-10.8902
▁benzetme	-10.8902
▁Sahip	-10.8903
▁has	-10.8905
▁sanıyorum	-10.8905
▁tahrip	-10.8907
▁nöroloji	-10.8908
▁Yan	-10.8908
mayan	-10.891
▁robotik	-10.891
▁sesin	-10.8911
▁yil	-10.8911
ron	-10.8914
ğında	-10.8919
▁ayakları	-10.892
▁Yemek	-10.8921
▁hedefi	-10.8922
▁umudu	-10.8923
▁Oyun	-10.8929
▁Krallık	-10.8934
▁vermişti	-10.8934
▁fırtına	-10.8934
▁Li	-10.8935
▁etkilerini	-10.8937
▁sar	-10.8939
▁doları	-10.8943
▁okyanusta	-10.8948
▁başladığını	-10.8948
Y	-10.8952
▁maymunlar	-10.8961
▁otur	-10.8963
▁hayatınızı	-10.8965
▁koru	-10.8965
▁kelimeleri	-10.8967
▁bağımlılık	-10.8969
ligi	-10.8972
▁doz	-10.8976
▁küme	-10.8985
ğin	-10.8986
ram	-10.8986
▁yuzde	-10.8986
acağımızı	-10.8989
▁kullanılması	-10.8993
▁denemek	-10.8993
▁varken	-10.8997
▁kaynaklanıyor	-10.9001
sh	-10.9002
▁ilaçları	-10.9002
▁kalması	-10.9003
▁derim	-10.9006
▁laboratuvarda	-10.9012
leşen	-10.9016
▁arayı	-10.9025
▁cerrahi	-10.9026
▁katılma	-10.9026
▁karıncalar	-10.9029
▁çalıştır	-10.903
▁olasılıkla	-10.903
▁ağaçların	-10.9034
▁hastaları	-10.9036
▁roket	-10.9037
▁uzmanlar	-10.9037
▁konuşması	-10.9038
diğinizde	-10.9038
▁aralık	-10.9044
▁mutsuz	-10.9044
▁vatandaş	-10.9049
▁hareketli	-10.9051
▁piyano	-10.9052
▁ürünün	-10.9053
▁düşünceler	-10.9054
▁gitmesi	-10.9055
▁çikolata	-10.9057
▁İsviçre	-10.9057
▁onemli	-10.9057
▁kahverengi	-10.9057
▁hakkinda	-10.9058
▁Biyoloji	-10.9058
▁maalesef	-10.9058
▁telif	-10.9059
▁Ford	-10.9059
▁kalkıp	-10.906
▁yıkıcı	-10.9062
▁galeri	-10.9063
▁davranıyor	-10.9065
▁eğitimin	-10.9065
▁meraklı	-10.9065
▁etmedi	-10.9068
ınızı	-10.9068
lemek	-10.9069
▁hükümetler	-10.907
▁göründüğü	-10.9071
ua	-10.9072
▁yoksun	-10.9072
uel	-10.9075
▁ederdi	-10.9076
▁Mü	-10.9078
▁içten	-10.9083
▁odaklı	-10.9088
▁ormanın	-10.9089
▁aşamasında	-10.9091
▁fit	-10.9093
lıp	-10.9094
▁verdiğini	-10.9094
▁hisse	-10.9095
▁alırken	-10.9097
▁çalışacağım	-10.9099
▁yapacağımız	-10.9111
▁Ara	-10.9113
manız	-10.9115
▁sormaya	-10.912
▁fena	-10.9123
▁gözler	-10.9123
▁çıkmaz	-10.9124
▁görülme	-10.9128
▁eşi	-10.9129
▁kafatası	-10.9129
▁inanan	-10.913
▁Herkesi	-10.9131
▁anlattığı	-10.9131
▁antik	-10.9134
▁enfeksiyon	-10.9135
▁söylerdi	-10.9138
▁üretir	-10.914
▁karşıtı	-10.9141
▁konuşmaları	-10.9146
▁çalışı	-10.9147
▁ekledi	-10.9147
▁bazılarının	-10.9148
▁olacaksınız	-10.9149
gin	-10.915
▁Hayatta	-10.915
lamaya	-10.9154
▁muz	-10.9154
▁tarihini	-10.9156
▁anlattım	-10.9159
▁hissed	-10.9159
▁görmeyi	-10.9159
▁yaklaşıyor	-10.9163
▁izni	-10.9163
ıyordu	-10.9163
▁tamamiyl	-10.9168
▁açıldı	-10.9169
▁nota	-10.9174
▁başladığımızda	-10.9175
▁oh	-10.9175
▁yarışı	-10.9175
▁koşu	-10.9175
▁bırakır	-10.9176
▁Doktor	-10.9177
▁vizyon	-10.918
▁Arka	-10.918
▁tekniği	-10.9185
▁kafasını	-10.9187
laşıyor	-10.9187
▁Yunan	-10.9187
▁hita	-10.9191
▁kuyruk	-10.9192
▁ikisinin	-10.9193
▁Wall	-10.9194
▁eğilimi	-10.9195
▁Sizler	-10.9195
▁fotograf	-10.9198
▁kaygı	-10.9201
▁yapmaktan	-10.9201
▁önemini	-10.9204
alesef	-10.9205
▁olanların	-10.921
▁gelmesini	-10.921
▁Yıl	-10.9213
▁Afgan	-10.9216
▁Smith	-10.9216
▁rüşvet	-10.9216
▁trajedi	-10.9216
▁Silikon	-10.9216
▁paradigma	-10.9216
▁Stanford	-10.9216
▁Hızlı	-10.9218
▁istemem	-10.9218
▁batarya	-10.9219
▁ilave	-10.922
od	-10.922
▁sürecini	-10.9223
▁iz	-10.9224
▁ödün	-10.9225
▁topluluklar	-10.9225
▁giysi	-10.9226
▁dersler	-10.9229
▁Aşağı	-10.9231
▁konuşur	-10.9234
▁ciddiye	-10.9234
▁okulun	-10.9235
▁bulunmakta	-10.9235
▁kalitesini	-10.9236
▁konuşuyordu	-10.9237
ayet	-10.9239
▁malzemeleri	-10.9239
▁sopa	-10.9239
▁hattı	-10.924
▁azalıyor	-10.924
▁bağlamda	-10.9241
▁yardımıyla	-10.9244
▁arıyor	-10.9245
istan	-10.9248
▁ndaki	-10.925
▁çalışmamız	-10.9251
▁sun	-10.9252
▁aldığını	-10.9253
▁geçi	-10.9253
imizde	-10.9254
▁yıldızı	-10.9255
▁gönderdi	-10.9256
ımıza	-10.9257
▁alanlarını	-10.9258
▁bulabilir	-10.9259
▁Eric	-10.9259
▁başladığında	-10.926
▁boru	-10.9263
▁öncülü	-10.9268
▁yürüme	-10.927
liğinde	-10.927
▁gezegenlerin	-10.9271
leyecek	-10.9271
▁programcı	-10.9273
▁çevrede	-10.9276
▁bulan	-10.9277
▁elinizi	-10.9279
▁bulunabilir	-10.9284
▁yaradı	-10.9287
▁kırılgan	-10.9293
▁avantaj	-10.9296
▁köyde	-10.9296
▁miras	-10.9297
▁MR	-10.9298
▁belirt	-10.9298
▁kimi	-10.9305
▁tarafına	-10.9305
▁aleti	-10.9306
makta	-10.9307
▁dönüşür	-10.9307
▁katıldı	-10.931
▁nerde	-10.9317
▁verilere	-10.9321
▁memeli	-10.9321
▁tabiki	-10.9322
▁sesli	-10.9323
▁ayırma	-10.9323
▁Car	-10.9325
▁sıradaki	-10.9325
▁görülmemiş	-10.9337
▁anları	-10.9339
▁pi	-10.9342
▁geçirir	-10.9343
▁aradı	-10.9343
▁dilin	-10.9345
▁örgüt	-10.9346
▁ebeveyn	-10.9349
ıldığı	-10.9351
▁izi	-10.9352
▁Gülüşme	-10.9359
▁geçirdik	-10.9359
▁öldürmek	-10.9363
▁Çocukların	-10.9366
▁hikayem	-10.9367
▁genleri	-10.9371
▁moleküller	-10.9371
▁uçağı	-10.9375
▁Demokrasi	-10.9377
▁Yavaş	-10.9377
▁eşcinsel	-10.9377
▁çevrimiçi	-10.9378
▁sentetik	-10.9378
▁denizaltı	-10.9379
▁jenerasyon	-10.9379
▁kazanç	-10.938
▁boyut	-10.938
▁Iste	-10.9381
▁d	-10.9382
▁dedikleri	-10.9383
▁görmedi	-10.9384
▁Atlantik	-10.9386
▁sever	-10.9387
▁Ray	-10.9388
ınca	-10.9388
▁hani	-10.939
▁ölçekli	-10.939
▁diyecek	-10.9393
▁İsa	-10.9394
▁söylemişti	-10.9397
▁bağlar	-10.94
asyon	-10.9402
▁akraba	-10.9403
ebileceğiniz	-10.9403
▁işimi	-10.9403
▁kaybediyor	-10.9408
▁türün	-10.9408
▁müdür	-10.9414
▁kanıtı	-10.9419
▁bekle	-10.9422
leştiren	-10.9422
▁Oray	-10.9426
▁mühendisi	-10.9428
▁güzelliği	-10.9428
▁evlerin	-10.9429
▁becerileri	-10.943
lanmıştı	-10.9432
▁aksi	-10.9432
iyorsunuz	-10.9434
▁bazılarınız	-10.9434
▁programlar	-10.9436
▁gösterebilir	-10.9437
lenmesi	-10.9441
▁Tıp	-10.9445
▁kazanır	-10.9446
▁yaşay	-10.9448
▁tutkulu	-10.9451
▁varlıklar	-10.9453
lendirme	-10.9455
▁kılavuz	-10.9456
emeyiz	-10.9458
▁annemin	-10.9461
lması	-10.9461
▁Eg	-10.9466
▁geldiğimde	-10.9467
▁sıcaklığı	-10.947
▁evcil	-10.9475
▁yönetici	-10.9479
▁ayrılma	-10.9479
▁etmeleri	-10.9479
▁kalkınma	-10.9482
▁Mac	-10.9484
▁sağa	-10.9486
▁doların	-10.9487
ledi	-10.9487
▁kaldılar	-10.9488
▁kalbi	-10.9489
▁etkiledi	-10.949
▁yeter	-10.9494
▁okuyor	-10.9497
▁icinde	-10.95
▁katil	-10.9501
▁gercekte	-10.9502
ümüz	-10.9507
▁ilacın	-10.9508
abilirim	-10.9508
ebilmek	-10.951
yacak	-10.9513
▁28	-10.9526
▁düşünmüştü	-10.9527
▁inin	-10.9527
▁kır	-10.9532
▁hastalığ	-10.9537
▁kesi	-10.9538
▁etmekten	-10.9538
▁Kongo	-10.9541
ntarktik	-10.9541
▁enfekte	-10.9541
▁tropik	-10.9541
▁öbür	-10.9541
▁üzücü	-10.9541
▁rota	-10.9541
▁Hazır	-10.9542
▁sayılır	-10.9542
▁hiçbirşey	-10.9542
▁Benzer	-10.9543
▁Genellikle	-10.9543
▁baska	-10.9546
▁Ekim	-10.9546
mızla	-10.9546
▁alkışlar	-10.9549
▁rejim	-10.9549
▁işleyen	-10.9549
▁özelliklerini	-10.9556
▁inkar	-10.9557
▁yöneten	-10.9561
▁Ailem	-10.9563
▁hayvanlarda	-10.9567
▁deneysel	-10.9567
▁korunma	-10.9569
▁izler	-10.9571
▁çeşidi	-10.9571
▁fiber	-10.9572
▁Hal	-10.9574
▁uyuma	-10.9575
▁hatırlatıyor	-10.9577
▁parası	-10.9584
rmal	-10.9588
▁zorluklar	-10.9588
▁gittiğimiz	-10.959
fer	-10.9591
▁ölç	-10.9596
▁ilki	-10.9598
▁döndük	-10.9601
▁teması	-10.9606
▁davranışları	-10.9606
▁çekimi	-10.9609
▁anlamında	-10.961
▁eşitlik	-10.961
▁eğilim	-10.9613
▁anneler	-10.9615
▁kalanını	-10.9619
▁bilgisi	-10.962
▁bozukluğu	-10.962
yorlar	-10.9625
▁filmini	-10.9628
▁odak	-10.9629
▁örümcek	-10.9629
▁hangisi	-10.9629
▁akla	-10.963
▁kullanımını	-10.9633
▁seçmek	-10.9634
▁takılı	-10.9635
▁ağzı	-10.9636
▁seviyesini	-10.9636
▁izleyi	-10.9637
▁tanımlamak	-10.9639
▁robotun	-10.9639
▁çektim	-10.9639
yarak	-10.9641
▁bahsettiğimiz	-10.9643
▁alırsa	-10.9644
▁ispat	-10.9647
▁yararı	-10.9647
▁kodu	-10.9648
▁seçeneği	-10.9651
▁alınmış	-10.9651
▁inovasyon	-10.9653
▁kadına	-10.9657
▁Dikkat	-10.9657
ırlar	-10.9659
▁Yedi	-10.9662
▁görünüş	-10.9667
▁yüzeyinde	-10.9669
▁Pat	-10.9671
▁davranma	-10.9672
▁yayılması	-10.9673
▁yapmalı	-10.9674
▁ölçüm	-10.9683
ebildi	-10.9683
▁felsefe	-10.9686
▁söylüyordu	-10.9686
▁enstrüman	-10.9687
▁bölgenin	-10.9687
▁başlattık	-10.9688
izm	-10.9689
ilmesi	-10.969
▁geliştirmeye	-10.9692
▁birbiri	-10.9694
▁dilini	-10.9694
▁sunu	-10.9695
▁geçtim	-10.9698
▁tepesinde	-10.9698
abiliyoruz	-10.9702
▁Po	-10.9706
▁hüküm	-10.9706
▁konuştuğumuz	-10.9707
▁Dijital	-10.9708
▁estetik	-10.9708
▁feminist	-10.9708
▁sipariş	-10.9708
▁Örnek	-10.9708
▁banyo	-10.9708
▁zarif	-10.9708
▁taze	-10.971
▁Yaşlı	-10.971
▁siber	-10.971
▁mutluyum	-10.9711
▁büyümeye	-10.9711
▁sisteminde	-10.9712
▁açıkladı	-10.9712
▁karşılığında	-10.9712
▁yankı	-10.9712
▁düzine	-10.9714
▁Masa	-10.9715
▁gönderiyor	-10.9719
▁sevgili	-10.9722
meleri	-10.9725
▁ip	-10.9727
▁tadını	-10.9728
▁parçaların	-10.9729
▁tasarlama	-10.9731
▁ailelerin	-10.9733
▁mesafede	-10.9737
▁Belli	-10.9738
▁tohum	-10.974
▁fenomen	-10.9741
▁katıl	-10.9743
laştı	-10.9748
▁oynadı	-10.9748
▁yerleştir	-10.9749
▁aykırı	-10.9752
J	-10.9753
▁Kay	-10.9755
▁Seyirci	-10.9758
▁çalıyor	-10.9761
▁King	-10.9761
▁güneşin	-10.9763
▁anlamını	-10.9766
▁alırlar	-10.9768
▁aslı	-10.9769
▁Bor	-10.9771
▁Bush	-10.9774
▁zekice	-10.9775
▁açıklıyor	-10.9775
▁kurumların	-10.9777
▁renkte	-10.9778
▁duyduk	-10.9778
▁Der	-10.9779
▁ötesi	-10.9779
▁ölmüş	-10.978
▁korkuyor	-10.9781
ğimiz	-10.9787
▁küreselleşme	-10.9788
▁grub	-10.9789
▁Amerikalıları	-10.979
▁hayl	-10.9792
▁kesme	-10.9793
▁ağız	-10.9796
▁kolaylık	-10.9796
▁donmuş	-10.9797
▁Don	-10.9797
emezsiniz	-10.9798
inizde	-10.9803
▁hikayelerini	-10.9804
▁evreni	-10.9808
▁duymuş	-10.9809
▁bıraktım	-10.9811
▁aktar	-10.9814
altı	-10.9814
▁alabilme	-10.9815
▁Yardım	-10.982
▁kapak	-10.9822
▁dönüştür	-10.9823
▁başlama	-10.9826
▁felç	-10.9827
▁göstergesi	-10.9832
▁asit	-10.9834
▁Projesi	-10.9835
▁araçların	-10.984
▁Hintli	-10.984
▁piyasay	-10.9845
▁kağıdı	-10.9851
▁çare	-10.9851
▁sag	-10.9851
▁otomobil	-10.9853
▁kesim	-10.9853
▁fiyatları	-10.9853
▁etmem	-10.9854
mışlardı	-10.9856
▁yakalamak	-10.9857
lıktan	-10.9858
▁bilinci	-10.9858
▁sözleri	-10.9862
▁AM	-10.9863
▁gözde	-10.9868
▁silahlar	-10.9869
▁kutlama	-10.9872
▁kardeş	-10.9872
dığımı	-10.9873
▁ulaştık	-10.9874
▁alakası	-10.9877
▁mürekkep	-10.9878
▁Arjantin	-10.9878
▁Wikipedia	-10.9878
▁Mükemmel	-10.9878
▁acayip	-10.9878
▁tükenmiş	-10.9878
▁Lu	-10.988
▁Bilmiyorum	-10.988
▁binaların	-10.9883
▁Oda	-10.9883
▁kuram	-10.9883
▁yükselen	-10.9885
▁görebiliyorum	-10.9887
▁kral	-10.9887
▁getirip	-10.9887
▁hareketler	-10.9888
▁kardeşi	-10.9892
▁bulaşıcı	-10.9892
ebileceğini	-10.9893
▁Günü	-10.9894
▁liberal	-10.9895
klarında	-10.9896
▁karakteri	-10.9899
▁sanatın	-10.9901
▁boyle	-10.9902
▁Jo	-10.9906
▁genlerin	-10.9915
▁götürmek	-10.9921
▁çıkarabilir	-10.9921
▁edinme	-10.9923
▁değişiklikleri	-10.9924
ander	-10.9924
▁yaşadık	-10.9926
▁çarpı	-10.9926
▁tanışma	-10.9926
▁gerçekler	-10.9928
▁ortamında	-10.9929
▁alabiliyor	-10.9931
▁odasında	-10.9933
▁calisma	-10.9933
▁filmler	-10.9934
▁hatırladı	-10.9937
▁edildiğini	-10.9944
▁satmak	-10.9946
▁üniversitede	-10.9948
op	-10.9949
▁cihazları	-10.9952
inize	-10.9952
ık	-10.996
digim	-10.9962
▁uzaklıkta	-10.9963
▁anahtarı	-10.9966
▁sizleri	-10.997
▁işimiz	-10.997
▁düşündüğümüzde	-10.997
▁başlığı	-10.9971
▁büyükanne	-10.9971
▁Oradaki	-10.9976
▁analizi	-10.9976
▁ülkelerdeki	-10.9977
▁yaptır	-10.9979
▁üçü	-10.9983
▁beynimiz	-10.9983
▁tel	-10.9984
İH	-10.9988
▁maddeler	-10.999
▁tat	-10.9993
ünün	-10.9993
▁modelin	-10.9997
▁dizisi	-10.9998
▁ekleme	-10.9999
▁ilgisini	-11.0002
▁olmalıyı	-11.0002
▁cazibe	-11.0004
▁lüks	-11.001
▁görüldüğü	-11.001
▁sahipsiniz	-11.0013
tin	-11.0014
▁Erkekler	-11.0015
▁hareketini	-11.0017
▁genler	-11.0017
▁sağlay	-11.0019
▁Doğrusu	-11.002
▁edilme	-11.0022
▁mevsim	-11.0022
hane	-11.0022
▁ko	-11.0026
▁dinle	-11.0029
▁bağlantıları	-11.0031
▁dönük	-11.0032
▁toprağı	-11.0033
▁Şehir	-11.0035
▁sırt	-11.0037
▁Okulu	-11.0044
▁gerçeğ	-11.0048
▁dağınık	-11.0049
▁Cambridge	-11.005
▁Florida	-11.005
▁Yanlış	-11.005
▁interaktif	-11.005
▁kızgın	-11.005
▁irade	-11.005
▁yürürken	-11.0054
▁ertesi	-11.0054
▁Kişisel	-11.0054
▁pişmanlık	-11.0055
umu	-11.0056
▁çapta	-11.0057
laştırıyor	-11.0061
▁Altın	-11.0061
▁bağlantısı	-11.0064
larımın	-11.0064
▁Ab	-11.0066
▁hayatlarında	-11.0068
▁tutarlı	-11.007
▁bakıyorlar	-11.0071
▁alıyorsunuz	-11.0074
▁azalt	-11.0075
▁edilecek	-11.0076
▁yaşıyorum	-11.0077
▁çalar	-11.0078
ara	-11.0079
▁parçacıklar	-11.008
▁Yahudi	-11.0081
▁becer	-11.0082
▁Wa	-11.0085
▁görevli	-11.0086
▁w	-11.0087
▁bilmiyorduk	-11.0088
▁vücudu	-11.0089
▁bilmez	-11.009
▁doğanı	-11.009
▁Min	-11.0094
▁bunda	-11.0095
▁sevdikleri	-11.01
▁tanıştığım	-11.0103
▁doğmuş	-11.0107
▁masada	-11.0107
ebilen	-11.0111
▁Per	-11.0115
▁tartışmalar	-11.0115
lenebilir	-11.012
halde	-11.0122
▁ormanda	-11.0124
▁şa	-11.0124
▁Gene	-11.0125
larak	-11.0125
▁satır	-11.0126
yacağız	-11.013
▁motoru	-11.0134
▁İtalyan	-11.0141
▁sessizlik	-11.0145
▁öğrencilerim	-11.0146
▁ser	-11.0147
▁sunum	-11.0147
▁üretmeye	-11.0148
▁modelini	-11.0152
rebiliriz	-11.0165
▁düzeltme	-11.017
▁Seyirciler	-11.0173
▁lideri	-11.018
▁anlayabilir	-11.0184
▁siyaset	-11.019
▁No	-11.0191
▁benze	-11.0191
▁bilgisayarların	-11.0192
nizden	-11.0193
▁almaz	-11.0194
▁sınırı	-11.0195
▁Deney	-11.0203
▁oluşturabilir	-11.0203
▁gününde	-11.0207
▁bitirdi	-11.0211
▁kendilerinin	-11.0213
steli	-11.0214
hr	-11.0214
abileceğiniz	-11.0215
▁çevirme	-11.0217
▁biliyorsun	-11.0218
▁yerlerin	-11.022
▁şehirleri	-11.0224
▁Haziran	-11.0225
▁halihazırda	-11.0225
▁İspanya	-11.0225
▁cihad	-11.0225
▁evvel	-11.0225
▁saldırgan	-11.0226
gı	-11.0226
▁içeride	-11.0226
▁duymuşsunuz	-11.0229
▁belgesel	-11.0231
▁başlıca	-11.0232
larımızla	-11.0235
▁haricinde	-11.0237
▁yaparım	-11.0237
mez	-11.0237
▁kent	-11.0238
▁beklenti	-11.024
▁bulmaca	-11.0244
▁güvercin	-11.0246
▁seti	-11.0249
▁gelirse	-11.0257
▁kalmaya	-11.0257
▁geçtiği	-11.0259
▁bilgisayarı	-11.0263
▁aklımız	-11.0264
▁uzan	-11.0265
lma	-11.0265
▁cömert	-11.0269
▁birşeyi	-11.0269
▁sistemlerin	-11.027
ydiler	-11.027
▁beyniniz	-11.0273
▁kullanılmış	-11.0275
▁gene	-11.0278
▁arabaları	-11.0278
aj	-11.0279
lendiği	-11.0279
▁aletleri	-11.0281
▁yaratıcılığı	-11.0292
▁edebilme	-11.0293
▁ettiklerini	-11.0293
▁ellerini	-11.0295
▁elimizdeki	-11.0298
▁aldıkları	-11.0301
▁kemiği	-11.0305
ari	-11.0306
▁azaldı	-11.0307
▁oynat	-11.0308
▁bacak	-11.0311
▁toplar	-11.0312
▁işlemci	-11.0313
▁şuan	-11.0317
▁hayatımızda	-11.0319
▁ayrılmış	-11.032
▁yüzme	-11.0321
kan	-11.0321
▁yapıyordum	-11.0324
ıyorlar	-11.0325
▁yazılımı	-11.0339
▁Yazı	-11.0339
▁kaçır	-11.0344
▁düşünürsen	-11.0345
▁yönetme	-11.0348
laştırma	-11.0351
▁evim	-11.0351
▁kenarında	-11.0351
▁direnç	-11.0358
▁ci	-11.0362
▁molekülleri	-11.0363
▁perspektif	-11.0365
▁Saat	-11.0366
▁Olay	-11.0367
▁Müzesi	-11.0367
▁yaşımda	-11.037
ğınızda	-11.037
▁finans	-11.0374
▁filmde	-11.0375
ıyorum	-11.0376
▁çalışmalarını	-11.0382
▁yapardı	-11.0383
▁kılıyor	-11.0384
▁toprağın	-11.0384
landığını	-11.0387
▁ısrar	-11.0387
▁atan	-11.0388
▁fotoğrafçı	-11.0388
▁görebiliri	-11.0388
▁hissediyor	-11.039
▁oranla	-11.039
▁hoşum	-11.039
▁kalmıştı	-11.0392
▁arkadaşlarımı	-11.0397
yip	-11.0397
acağımız	-11.04
▁oluşmuş	-11.0404
▁dogru	-11.0404
▁patates	-11.0404
▁Brown	-11.0404
▁LED	-11.0404
▁görülebilir	-11.0404
▁Nick	-11.0405
▁değilsiniz	-11.0405
üstü	-11.0407
şi	-11.041
▁yapıyorsun	-11.041
per	-11.041
▁düşündüğünüz	-11.041
▁yaşadıkları	-11.0411
▁gözüken	-11.0413
▁aslin	-11.0414
▁değiştirerek	-11.0414
▁bulunmaktadır	-11.0418
▁Sıradaki	-11.0421
▁tık	-11.0423
▁öldürme	-11.0424
▁senede	-11.0425
▁kaynakların	-11.0425
▁85	-11.0428
▁cadde	-11.0428
▁bütünüy	-11.043
▁çalan	-11.0432
▁Ödülü	-11.0434
▁haliyle	-11.0435
▁katılıyor	-11.0436
▁eser	-11.0438
▁yayılıyor	-11.044
▁devletler	-11.0441
▁Big	-11.0448
▁aramızda	-11.045
▁öldürdü	-11.0451
▁Problem	-11.0455
▁Yapı	-11.0456
mayacak	-11.0456
▁unutmayı	-11.0458
▁uzana	-11.0461
▁makineleri	-11.0462
▁sistemde	-11.0463
▁karmaşıklığı	-11.0464
▁bugünün	-11.0466
for	-11.0467
▁şansımız	-11.0467
▁korteks	-11.0469
▁aracın	-11.0476
▁kaplan	-11.0477
layabiliriz	-11.0478
▁ağacın	-11.0481
rat	-11.0483
▁koş	-11.0485
▁çabu	-11.0486
▁koşul	-11.0487
iği	-11.0491
▁başkasının	-11.0492
▁gelirler	-11.0493
▁Işık	-11.0496
▁kirlilik	-11.0496
▁sınıfı	-11.0497
▁gun	-11.0498
id	-11.0499
▁oluşturacak	-11.0503
▁ger	-11.0506
▁yüze	-11.0511
▁ilgilen	-11.0512
▁tasarladı	-11.0518
▁Karşı	-11.0521
iyordum	-11.0521
▁geliri	-11.0525
▁don	-11.0526
▁konusunu	-11.053
▁söylendi	-11.0534
▁fa	-11.0535
▁yapmalarını	-11.0537
▁ülkesi	-11.0539
▁Düşü	-11.0548
▁çay	-11.0549
▁yoğunluğu	-11.055
▁interneti	-11.0551
▁patlaması	-11.0552
▁kuruluş	-11.0553
▁bahsettiği	-11.0554
▁aylar	-11.0554
miyoruz	-11.0555
kta	-11.0562
dığımızda	-11.0563
▁bozulma	-11.0567
▁dünyasının	-11.0569
▁filmin	-11.0572
▁çoğunluk	-11.0575
▁Öte	-11.0575
▁sorunlarını	-11.0575
▁geçirmiş	-11.0577
▁Kişi	-11.0583
▁hedefler	-11.0585
▁Matematik	-11.0586
▁Gates	-11.0586
▁istihdam	-11.0586
▁yozlaşma	-11.0586
▁hemfikir	-11.0586
▁Binlerce	-11.0586
▁Taliban	-11.0586
▁sistematik	-11.0586
▁şahane	-11.0586
▁işkence	-11.0586
▁Simdi	-11.0586
luyoruz	-11.0587
▁çağdaş	-11.0587
▁indi	-11.0588
ınızda	-11.0589
▁cevabını	-11.059
▁beyne	-11.0591
▁baktığımız	-11.0592
▁arılar	-11.0592
▁Bron	-11.0592
leşir	-11.0594
▁formül	-11.0594
▁kg	-11.0596
▁yabani	-11.0598
▁sanatsal	-11.0601
▁varsay	-11.0602
menin	-11.0606
▁niyet	-11.0608
▁karışımı	-11.061
▁formları	-11.0612
▁yerleştirme	-11.0613
▁arkasın	-11.0614
▁hic	-11.0616
ira	-11.062
▁kaos	-11.0622
▁gerektiğin	-11.063
ladığımız	-11.0634
▁biliniyor	-11.0636
▁kopar	-11.0637
▁yapamıyor	-11.0637
▁şeffaf	-11.0638
▁hayvanı	-11.0641
▁sağladık	-11.0641
▁Halk	-11.0641
▁etiketi	-11.0643
imde	-11.0648
▁çaldı	-11.0649
▁Tony	-11.0651
▁okudu	-11.0653
▁gram	-11.0653
eceksiniz	-11.0663
▁pe	-11.0664
▁gömülü	-11.0666
▁askerler	-11.0666
▁yanın	-11.0667
▁bakıyordu	-11.0668
▁gençlerin	-11.067
▁toplumların	-11.067
rı	-11.0671
▁vasıtası	-11.0672
var	-11.0674
▁Hristiyan	-11.0685
başı	-11.0689
▁Durum	-11.0691
▁Kura	-11.0693
▁çıkardığı	-11.0697
he	-11.0698
▁sanatçılar	-11.0699
▁Mutlu	-11.0699
▁aklımda	-11.07
▁Kafa	-11.0702
▁etmenizi	-11.0702
▁başlayı	-11.0702
▁butun	-11.0708
▁soyle	-11.0709
liydi	-11.0711
▁duruyordu	-11.0711
▁edebileceği	-11.0713
▁yararlan	-11.0717
▁Kendini	-11.0718
▁Kendimizi	-11.0722
▁çıkarın	-11.0725
▁ormanları	-11.0727
▁yen	-11.0728
▁korkusu	-11.0735
▁ünite	-11.0752
▁ölüme	-11.0755
▁nakli	-11.0756
ınıza	-11.0759
▁yapabilecekleri	-11.076
▁disk	-11.0765
▁ürünlerin	-11.0766
▁uygulaması	-11.0767
▁penguen	-11.0769
▁sırrı	-11.077
▁çektiğim	-11.0771
▁Sahra	-11.0771
▁Vakfı	-11.0771
▁bambaşka	-11.0771
▁coğrafi	-11.0771
▁Şarkı	-11.0771
▁öldürücü	-11.0771
▁eşdeğer	-11.0771
▁denetim	-11.0772
▁yolsuzluk	-11.0772
▁karmaşa	-11.0773
▁restoran	-11.0774
▁Gana	-11.0774
▁org	-11.0775
sinizdir	-11.0775
▁başkası	-11.0778
▁Bell	-11.0779
▁yansı	-11.078
▁konuşuyorum	-11.0782
▁Var	-11.0783
▁edebilirim	-11.0785
▁renkleri	-11.079
▁konuşuyoruz	-11.0791
▁kültürünü	-11.0791
ov	-11.0791
▁açısını	-11.0792
▁Inc	-11.0793
▁Jane	-11.0794
▁müzisyen	-11.0794
▁mobilya	-11.0796
▁etmede	-11.0797
▁hatalar	-11.0803
▁özünde	-11.0803
▁adamla	-11.0806
▁yaşlarında	-11.0806
▁29	-11.0811
▁söylemem	-11.0811
▁dokusu	-11.0812
▁taşıdı	-11.0813
▁yeti	-11.0814
▁gök	-11.0815
▁yüzen	-11.0816
mişlerdi	-11.0819
▁pil	-11.082
▁hissetmek	-11.0821
▁şair	-11.0821
▁eriş	-11.0821
▁çocuklarım	-11.0822
▁duman	-11.0823
▁geçirdiğim	-11.0825
▁dal	-11.0825
▁seksi	-11.0826
▁sunduğu	-11.0827
meli	-11.0829
▁yerleşim	-11.0831
▁çürü	-11.0831
▁ulaşıyor	-11.0835
▁kitabını	-11.084
▁yerleştirdi	-11.084
▁gerçekliğin	-11.0841
ıl	-11.0843
▁geleni	-11.0852
chi	-11.0854
▁ekipman	-11.0854
▁Bas	-11.0856
▁varlık	-11.0861
▁mantığı	-11.0862
labiliriz	-11.0864
▁kuruluşları	-11.0864
▁faktör	-11.0868
▁beyninde	-11.0869
▁mor	-11.0869
▁gelenek	-11.087
▁bilgisayarda	-11.0871
▁baktığınız	-11.0873
▁yapmaz	-11.0875
▁karmaşıklık	-11.0877
▁doğdum	-11.0879
▁yakaladı	-11.0881
▁yüzeyde	-11.0882
▁hemşire	-11.0883
▁bilmeniz	-11.0884
▁götürür	-11.0884
▁lisede	-11.0887
▁denizin	-11.089
▁etmektir	-11.089
lıyorlar	-11.0892
▁oluşturmaya	-11.0892
▁boyun	-11.0892
liydim	-11.0893
▁elli	-11.0893
▁yerdeki	-11.0896
▁ışını	-11.0898
▁adamların	-11.0899
▁firması	-11.0899
▁mutasyon	-11.0899
ite	-11.0901
▁Suriye	-11.0901
▁işitme	-11.0902
▁kurulmuş	-11.0903
▁durdur	-11.0908
▁öneri	-11.0908
▁geliş	-11.091
▁ilgilenme	-11.0911
▁açıklaması	-11.0914
▁Okyanusu	-11.0916
▁kira	-11.0916
▁gelişiyor	-11.0921
▁sorduğu	-11.0921
▁Wal	-11.0922
▁şef	-11.0923
▁yıldızın	-11.0926
▁Pro	-11.0932
▁içsel	-11.0933
relim	-11.0934
▁terapi	-11.0936
▁sistemlerini	-11.0939
▁riskleri	-11.0939
▁denklem	-11.0941
▁isteme	-11.0941
▁karşılaş	-11.0944
▁yaban	-11.0945
▁Filistin	-11.0947
▁Jeff	-11.0947
▁utan	-11.0951
▁gittiler	-11.0958
▁yurt	-11.0959
▁muhafaza	-11.0959
▁Nihayet	-11.096
▁muayene	-11.096
▁Microsoft	-11.096
▁tahıl	-11.096
▁şükür	-11.096
▁rahatlık	-11.096
▁çoğunda	-11.0961
▁oluştuğunu	-11.0963
▁kalça	-11.0963
▁düşünmeliyiz	-11.0964
▁diyebilirim	-11.0966
▁Tor	-11.0967
▁kaybeden	-11.0971
▁hayvanın	-11.0973
▁tasarrufu	-11.0974
▁oluşu	-11.0975
▁teknikleri	-11.0979
▁altta	-11.0982
▁Kev	-11.0985
▁Henr	-11.0986
▁aklınızda	-11.0987
▁kanıtlar	-11.0989
▁kolunu	-11.0991
▁yaşamını	-11.0992
▁avantajı	-11.0993
▁bölgesel	-11.0994
▁yılan	-11.0996
▁İzleyici	-11.0996
▁silahları	-11.0996
▁örneğini	-11.0997
mayız	-11.0998
▁soyu	-11.0999
▁erkeklere	-11.1001
▁Söz	-11.1004
▁ölçmek	-11.1007
▁bulunmak	-11.1008
▁zenginlik	-11.1008
▁Koruma	-11.1009
▁sesle	-11.101
▁konser	-11.1011
tro	-11.1012
▁bilmiyordu	-11.1012
▁yolculuğu	-11.1012
▁basamak	-11.1014
▁etkileşime	-11.1017
▁görünmeyen	-11.1017
▁araştırmak	-11.1023
dırlar	-11.1027
▁atalarımız	-11.1033
▁bahsetmiyoru	-11.1034
▁arayüz	-11.1036
ünüzü	-11.1036
▁uğultu	-11.1038
leştirmek	-11.1041
▁gore	-11.1043
▁Şehirler	-11.1043
▁yaratık	-11.1045
▁Du	-11.1046
▁aldığınız	-11.1049
▁aklı	-11.1049
ers	-11.1051
▁çevirmek	-11.1057
▁yetki	-11.1062
rma	-11.1065
▁mini	-11.1072
▁em	-11.1075
▁terörizm	-11.1076
ris	-11.1085
▁it	-11.1086
▁bebeği	-11.1087
▁savaşmak	-11.1088
▁bakterilerin	-11.1088
ılan	-11.1089
▁ormanı	-11.1092
▁yolcu	-11.1095
▁tartış	-11.1097
▁yetiştirmek	-11.11
▁mikroplar	-11.1102
▁çekirdek	-11.1103
▁gördüğünde	-11.1104
▁uğraşıyor	-11.1104
▁kırıklığın	-11.1105
▁örtüsü	-11.1108
ırız	-11.1108
▁ticareti	-11.1109
▁gitmeyi	-11.1109
▁sürer	-11.1115
▁koşulları	-11.1117
▁şapka	-11.1117
▁kaybeder	-11.1118
▁yükseldi	-11.112
ladı	-11.1123
▁Siyah	-11.1127
▁sayfası	-11.1128
▁yapmama	-11.1128
▁ağırlık	-11.1129
▁raf	-11.113
▁Öğrenciler	-11.113
▁genomu	-11.1131
▁umutsuz	-11.1133
▁olurken	-11.1139
▁Gör	-11.1139
▁ömür	-11.1143
▁yunus	-11.1144
▁verdiğiniz	-11.1144
▁uzayın	-11.1149
▁denemeye	-11.115
▁evrimi	-11.1152
▁zorunlu	-11.1152
▁kişileri	-11.1152
▁doğuştan	-11.1152
▁origami	-11.1152
▁tweet	-11.1152
▁şarj	-11.1152
▁numune	-11.1152
▁teşkil	-11.1152
▁izole	-11.1152
▁Berlin	-11.1152
▁Pekâl	-11.1152
▁beklenen	-11.1155
▁kavramsal	-11.1155
▁Medya	-11.1156
▁geni	-11.1156
▁çıkabilir	-11.1157
▁seçimleri	-11.1157
▁Virgin	-11.116
▁dayanan	-11.1162
▁hergün	-11.1162
▁hasat	-11.1162
▁gündüz	-11.1163
▁yürüyen	-11.1164
▁katılmak	-11.1167
▁dolaş	-11.1168
▁ayrıla	-11.1168
▁söyleyebiliriz	-11.117
▁sahil	-11.1174
▁benzersiz	-11.1174
▁aldatma	-11.1175
▁katlı	-11.1176
▁lezzetli	-11.1176
▁yapısal	-11.1178
▁Nere	-11.1179
▁koştu	-11.118
attle	-11.118
▁kok	-11.118
▁şempanzeler	-11.1183
▁bilerek	-11.1186
▁uyuyor	-11.1187
▁başarmak	-11.119
ss	-11.119
▁kafası	-11.1191
▁yaşayabilir	-11.1191
▁günleri	-11.1192
▁şeffaflık	-11.1192
▁ö	-11.1194
▁For	-11.1198
▁saklı	-11.1198
▁amaçlar	-11.1198
▁kıyafet	-11.1202
▁Dün	-11.1202
tti	-11.1205
▁Hayatımı	-11.1207
▁ayağı	-11.1209
▁haftalık	-11.1212
▁vermez	-11.1213
▁bulmuş	-11.1214
▁Bazılarınız	-11.1214
▁bağlıyor	-11.1215
▁matematikçi	-11.1223
▁akış	-11.1224
▁193	-11.1224
▁başlı	-11.1225
▁deme	-11.1225
▁nesneleri	-11.1228
▁göründüğünü	-11.1229
▁gösteriyorum	-11.1232
▁başkaları	-11.1235
▁Bunda	-11.1237
▁döngüsü	-11.1238
▁böcekleri	-11.1239
▁çalıştıkları	-11.1241
▁kaçma	-11.1242
▁evre	-11.1242
unuzu	-11.1243
ımızda	-11.1246
gün	-11.1246
▁inceledik	-11.1247
▁maliyetini	-11.1253
▁demo	-11.1253
▁yayılmış	-11.1254
▁Green	-11.1256
▁yayınladı	-11.1256
▁düşünceleri	-11.1257
▁darbe	-11.1258
▁sız	-11.1258
▁evlerinde	-11.126
▁kavrama	-11.127
▁Yok	-11.1273
▁açıklamaya	-11.1278
▁baskın	-11.128
▁bakımı	-11.1281
▁kayıtları	-11.1282
▁seçenekler	-11.1287
▁başlık	-11.1287
▁yürüy	-11.1289
▁Mc	-11.129
▁yaşandı	-11.1291
▁doktoru	-11.1292
▁teleskop	-11.1292
MA	-11.1294
▁hükumet	-11.1297
ası	-11.1305
▁Nor	-11.1308
▁belir	-11.1308
▁uğramış	-11.1309
▁görüyordu	-11.131
▁CD	-11.1311
▁baya	-11.1315
▁işlediğini	-11.1316
amayacağı	-11.1316
▁kullandığım	-11.1318
▁önceydi	-11.1318
▁enjekt	-11.1324
▁olsalar	-11.1325
▁Hollanda	-11.1325
▁vuru	-11.1325
▁kalmaz	-11.1327
rt	-11.1329
▁Kontrol	-11.133
▁almıyor	-11.133
▁halı	-11.133
▁oynamaya	-11.1332
▁Whit	-11.1334
▁eksi	-11.1334
▁Bel	-11.1336
▁gemisi	-11.1337
▁me	-11.1337
▁değerinde	-11.1338
▁Kapı	-11.1339
▁Başkanı	-11.134
▁iyiye	-11.134
rey	-11.1341
▁iyileştirme	-11.1342
rtesi	-11.1342
▁çamur	-11.1344
▁zıt	-11.1345
▁talebi	-11.1345
▁görecek	-11.1345
wi	-11.1348
▁avuç	-11.1348
▁pamuk	-11.1348
▁Ruanda	-11.1348
▁beyefendi	-11.1348
▁zekâ	-11.1348
▁yatkın	-11.1348
▁kurşun	-11.1348
▁Delhi	-11.1348
▁masum	-11.1348
▁Düşünün	-11.1349
▁fren	-11.1349
▁görülür	-11.135
▁çevir	-11.1351
▁2020	-11.1351
▁Arapça	-11.1352
▁yırtıcı	-11.1354
▁harcay	-11.1355
▁mail	-11.1356
▁tabu	-11.1361
▁akan	-11.1363
BC	-11.1364
▁Carl	-11.1365
İ	-11.1367
▁dikkatinizi	-11.1369
▁ifadesi	-11.1369
▁gerçekleri	-11.1371
▁çip	-11.1372
▁almamız	-11.1374
▁çember	-11.1375
▁telefonlar	-11.1375
cıları	-11.1376
▁yetenekler	-11.1382
▁sivrisinek	-11.1385
nmeyen	-11.1388
▁katılımcı	-11.1389
oz	-11.1392
▁buralarda	-11.1393
▁anlayabilmek	-11.1393
sındaki	-11.1397
▁içer	-11.1397
▁sorgu	-11.1398
▁arkadaşlarını	-11.1399
▁toplayı	-11.1399
▁değillerdi	-11.14
▁mekanizması	-11.1401
▁girmiş	-11.1403
▁gittiğinde	-11.1405
▁akımı	-11.1405
▁tanımlar	-11.1408
▁arkadaşlarımız	-11.1408
▁Ani	-11.141
▁hayatınız	-11.141
▁tuz	-11.1413
▁olanlardan	-11.1415
lidir	-11.1416
layın	-11.1417
▁temelinde	-11.1418
emeyecek	-11.1419
▁hay	-11.1421
▁yükselt	-11.1422
▁üçgen	-11.1422
▁sevme	-11.1424
▁fırsatları	-11.1428
▁topluyor	-11.1429
malısın	-11.1431
▁konuları	-11.1434
▁cm	-11.1434
▁karın	-11.1436
▁çeviriyor	-11.1437
▁Sor	-11.1437
▁zamanımız	-11.1437
▁ayırmak	-11.144
▁Dışarı	-11.1441
▁konunu	-11.1441
▁stüdyo	-11.1442
▁işçiler	-11.1445
▁bırakın	-11.1445
▁emek	-11.1449
▁eşitliği	-11.1454
▁erkeğin	-11.1454
▁foto	-11.1455
▁kromozom	-11.1455
▁olmayacağı	-11.1455
iydi	-11.1456
▁ışığ	-11.1459
▁kova	-11.146
▁kaldırma	-11.1461
▁Joe	-11.1462
▁Sistemi	-11.1463
lemiş	-11.1466
▁olmayacaktı	-11.1468
ville	-11.1469
▁faydalan	-11.1469
ban	-11.1471
▁anlaşıl	-11.1472
laştır	-11.1473
▁videoda	-11.1473
▁yoğunluk	-11.1477
▁taşıyıcı	-11.148
▁aşina	-11.148
▁deneyimleri	-11.1482
rit	-11.1482
▁cinayet	-11.1483
▁Av	-11.1485
▁köşede	-11.1487
▁yapamaz	-11.1491
▁gec	-11.1493
▁yerleştirdik	-11.1494
avid	-11.1496
▁ormanlar	-11.1497
▁bağlılık	-11.1502
▁zorundadır	-11.1502
▁yüzün	-11.1504
▁yiyor	-11.1506
▁Tak	-11.1507
lacağını	-11.1511
▁Avrupalı	-11.1513
▁tesadüf	-11.1514
▁iyilik	-11.152
▁ilgilenmeye	-11.1522
▁uygulay	-11.1524
▁gerçeğin	-11.1526
▁gücümüz	-11.1528
▁ettir	-11.1528
▁aklınız	-11.153
▁iletişimi	-11.1533
▁bakıyoru	-11.1533
▁sap	-11.1533
▁kamyon	-11.1539
▁salgını	-11.1542
▁canlandırma	-11.1544
▁prensip	-11.1544
▁kanal	-11.1545
▁Güç	-11.1546
▁elektron	-11.1546
▁bağı	-11.1547
▁Etiyopya	-11.1548
▁National	-11.1548
▁Parkinson	-11.1548
▁oksitosin	-11.1548
▁Görünüş	-11.1548
▁gütmeye	-11.1548
▁manşet	-11.1548
▁doğaçlama	-11.1548
▁taciz	-11.1548
▁Nehri	-11.1548
▁Yemen	-11.1548
▁solunum	-11.1549
▁düşünürsünüz	-11.1549
▁goz	-11.1549
▁haberdar	-11.1549
▁etnik	-11.155
▁hareketlerini	-11.1553
▁sorabilirsiniz	-11.1555
▁savunmasız	-11.1556
▁dinleyici	-11.1556
▁inancı	-11.1558
▁dediğini	-11.1559
▁harcıyoruz	-11.1559
▁yatay	-11.1562
▁başlayacağı	-11.1563
▁36	-11.1564
biliriz	-11.1564
▁İn	-11.1566
▁boy	-11.1569
▁kümesi	-11.157
▁gideceği	-11.157
▁pişirme	-11.1572
▁oğlunu	-11.1572
NSA	-11.1572
▁giderseniz	-11.1573
▁arkada	-11.1575
▁genişliğinde	-11.158
▁Sırada	-11.1582
▁gülümseme	-11.1582
gras	-11.1583
▁korsan	-11.1583
▁öldürüyor	-11.1584
▁hayalim	-11.1585
▁Devrimi	-11.1588
▁anlattığım	-11.1589
▁nesnelerin	-11.1589
▁odasına	-11.1589
▁durumları	-11.1592
▁sokaklarda	-11.1593
▁Adaları	-11.1594
abildi	-11.1595
▁meslektaşım	-11.1595
▁sil	-11.1598
▁niha	-11.1603
▁koruyor	-11.1604
▁Bayanlar	-11.1607
▁olmamızı	-11.161
▁nehrin	-11.1611
tta	-11.1612
▁yağı	-11.1613
laşmış	-11.1618
▁Eh	-11.1619
▁tartışmaya	-11.1619
▁ömrü	-11.162
ebilirim	-11.1621
▁girişimciler	-11.1621
▁uçuyor	-11.1622
▁sahney	-11.1623
▁bulamadı	-11.1625
▁itibari	-11.1628
▁Fl	-11.1629
▁duymaya	-11.163
▁yasalar	-11.1631
▁kabiliyeti	-11.1631
▁Vi	-11.1631
▁artar	-11.1633
▁seninle	-11.1635
▁okullarda	-11.1637
▁Top	-11.1642
▁performansı	-11.1643
▁içerir	-11.1644
▁damar	-11.1645
▁elit	-11.1646
▁eleştiri	-11.1647
▁deneyleri	-11.1647
▁uzerinde	-11.1648
▁taşları	-11.1651
▁Körfezi	-11.1652
▁çekilme	-11.1653
▁belirtmek	-11.1654
▁detayları	-11.1654
▁yaşamayı	-11.1655
▁konuşu	-11.1658
▁arz	-11.1658
▁dışkı	-11.166
▁kapsaya	-11.1661
▁bulgu	-11.1661
▁netice	-11.1662
▁durdurmak	-11.1662
▁olsam	-11.1663
tme	-11.1664
▁sınav	-11.1664
▁çocuğunu	-11.1665
▁öteki	-11.1668
▁fiil	-11.1676
▁oku	-11.1679
▁sinyaller	-11.1679
sinda	-11.1682
▁tüp	-11.1683
▁arkadaşlarınız	-11.1691
▁gezin	-11.1694
▁başlaması	-11.1697
▁ölçer	-11.1699
▁iyileştirmek	-11.17
▁yenilikler	-11.1701
▁ikili	-11.1707
▁hissini	-11.1708
▁yaratı	-11.1712
▁olanağı	-11.1715
▁Gar	-11.1715
▁cevapları	-11.1717
▁kodlama	-11.1718
▁internetten	-11.1719
▁Öğretmen	-11.172
▁yiyecekler	-11.1721
acaksınız	-11.1724
▁canlandır	-11.1725
▁karanlıkta	-11.1733
eger	-11.1733
▁omuz	-11.1734
▁olacağımız	-11.1739
▁teknikler	-11.174
▁topladık	-11.1744
▁hayatınızda	-11.1744
▁Merkez	-11.1745
▁sonlarında	-11.1745
▁uçuşu	-11.1745
▁kullanacağım	-11.1749
▁etken	-11.175
▁inandı	-11.175
▁samimi	-11.1751
▁Brun	-11.1752
▁Muhamm	-11.1752
▁Norveç	-11.1752
▁levha	-11.1752
▁tsunami	-11.1752
▁Nelson	-11.1752
▁İsmi	-11.1752
▁düşünüp	-11.1752
▁obezite	-11.1752
ktir	-11.1753
▁Telefon	-11.1753
▁spesi	-11.1753
▁GSM	-11.1754
▁Şubat	-11.1754
▁arkadaşımı	-11.1754
▁gerçekleşir	-11.1758
▁görelim	-11.176
▁durdurma	-11.1762
▁açabilir	-11.1762
▁paraya	-11.1762
▁kaplama	-11.1763
▁Örgütü	-11.1763
▁Kol	-11.1764
▁duydukları	-11.1765
▁yaptığında	-11.1765
▁yerdi	-11.1768
▁seçiyor	-11.1768
larinda	-11.1768
▁bakıcı	-11.1772
▁odaklanmak	-11.1774
▁düşünürdü	-11.1778
▁sorumluluğu	-11.1778
▁redded	-11.178
▁esinlen	-11.1781
▁Okyanus	-11.1782
▁yönel	-11.1784
▁koltuk	-11.1786
▁seçilmiş	-11.1786
isi	-11.1787
▁bahsed	-11.1787
▁uçar	-11.179
▁niyetli	-11.179
▁Kaçınız	-11.1792
▁yollarda	-11.1793
▁Yaptığım	-11.1798
▁kameralar	-11.1799
▁depolama	-11.18
▁görüldü	-11.18
▁My	-11.1802
▁Gelin	-11.1802
▁önlemek	-11.1803
▁Aralık	-11.1809
erry	-11.1809
▁Cun	-11.181
▁sağdaki	-11.1811
▁Normalde	-11.1814
▁bilmediğimiz	-11.1815
▁kanunları	-11.1816
▁hapiste	-11.1817
▁söylemedi	-11.1819
▁Sayı	-11.182
▁Brad	-11.1823
▁engellemek	-11.1823
▁uygulamaları	-11.1825
▁anlamayı	-11.1829
▁durumla	-11.1831
▁dönüştürüyor	-11.1832
▁kaybettik	-11.1836
▁yarıya	-11.1839
▁ilgilenir	-11.184
▁profesörü	-11.184
▁tema	-11.1843
▁ameliyatı	-11.1844
▁verirler	-11.1844
kti	-11.1844
▁Diğeri	-11.1847
▁maddeleri	-11.1848
▁okyanuslar	-11.1851
▁takdirde	-11.1851
cağı	-11.1853
▁yüksel	-11.1855
▁Cola	-11.1857
▁seçenekleri	-11.1858
▁ölecek	-11.1859
▁şartları	-11.186
leyebilir	-11.1862
▁vazgeçme	-11.1862
▁sıçrama	-11.1864
▁Col	-11.1865
▁dövme	-11.1866
▁karşılaşıyor	-11.1867
▁inceliyor	-11.1869
▁araştırması	-11.1869
▁yayınlandı	-11.1871
▁Dev	-11.1872
▁yaramıyor	-11.1873
▁gide	-11.1874
▁ad	-11.1875
duğu	-11.1878
▁savaşçı	-11.1878
▁çizgisi	-11.188
▁yapılma	-11.188
▁gereklidir	-11.1881
▁sahi	-11.1881
▁sistemimizi	-11.1881
▁konuşmasını	-11.1882
yl	-11.1884
▁yazın	-11.1885
▁Dediğim	-11.1885
▁Dahası	-11.1885
kal	-11.1891
▁enerjisini	-11.1897
▁ulaşı	-11.1899
▁kullanıyoru	-11.1899
▁araştırmaları	-11.1906
▁sembol	-11.1906
▁anlaşılması	-11.1909
▁kadarını	-11.191
▁belirsizlik	-11.191
▁karakterler	-11.1912
landırıyor	-11.1913
▁çiçekler	-11.1913
▁inci	-11.1915
▁bitirme	-11.1915
cal	-11.1915
▁avlanma	-11.1917
ğın	-11.1917
▁televizyonda	-11.1918
▁kadarı	-11.1919
▁ulaşır	-11.1924
▁dördü	-11.1929
▁Bayan	-11.193
▁çizme	-11.1931
▁Dağı	-11.1932
digimiz	-11.1933
▁anten	-11.1934
▁toplumlarda	-11.1936
▁ailesini	-11.1939
▁kablolar	-11.1942
ğımız	-11.1952
▁küp	-11.1954
▁bulunması	-11.1958
▁Çince	-11.1958
▁cezası	-11.1959
▁pro	-11.196
▁zira	-11.196
▁yerleştirmek	-11.196
▁Grön	-11.196
▁Profesör	-11.196
▁Sekoya	-11.196
▁Singapur	-11.196
▁federal	-11.196
▁kulübe	-11.196
▁tercüme	-11.196
▁Brian	-11.1961
▁borsa	-11.1961
▁Josh	-11.1961
▁kullanacak	-11.1961
▁Şili	-11.1961
▁Ticaret	-11.1961
▁Demokrat	-11.1961
▁uygulanabilir	-11.1961
▁yönlü	-11.1962
▁etkileyecek	-11.1962
▁Aşk	-11.1962
▁Hill	-11.1963
▁Lester	-11.1964
▁tanımlayan	-11.1964
▁Cit	-11.1964
▁tü	-11.1966
▁vardık	-11.1966
▁sezgisel	-11.1967
▁ayıran	-11.1967
▁götüren	-11.1968
▁ulaşan	-11.197
▁teknolojimiz	-11.197
▁dağın	-11.1972
▁eserleri	-11.1972
▁SW	-11.1973
▁ilerler	-11.1974
▁düşünürüz	-11.1974
▁işaretleri	-11.1976
▁varmak	-11.1979
▁geldiğimiz	-11.1979
▁kapatma	-11.1982
▁bayrak	-11.1982
▁geçebilir	-11.1983
▁dinler	-11.1983
▁kuvveti	-11.1985
▁zorlukları	-11.1986
▁Sanal	-11.1986
▁koyabilir	-11.1986
▁yönelt	-11.1989
gat	-11.1989
▁hayattaki	-11.1991
▁mikroskop	-11.1993
▁diyorsunuz	-11.1993
▁teker	-11.1994
▁bacakları	-11.1995
▁harcıyor	-11.1997
▁üzgünü	-11.1997
▁beklentisi	-11.1998
▁düşünmenin	-11.1999
▁medyada	-11.2001
▁anlatacak	-11.2001
acağınız	-11.2002
▁sayısal	-11.2004
▁versiyonunu	-11.2006
▁proteinler	-11.2007
▁birimiz	-11.2007
▁bakmayı	-11.2007
▁salgı	-11.2008
▁geldiklerinde	-11.2009
▁kurula	-11.2011
▁bildikleri	-11.2011
▁molekülü	-11.2011
▁soracak	-11.2015
▁hesabı	-11.2019
ebileceğimizi	-11.202
abilecekleri	-11.202
▁prensibi	-11.2023
art	-11.2024
larınızın	-11.2026
▁geçin	-11.2033
▁kampanyası	-11.2033
▁aradım	-11.2034
▁hatırlama	-11.2035
▁asal	-11.2035
▁insanoğlunu	-11.2036
▁edeceksiniz	-11.2036
▁mide	-11.2037
▁gökyüzünde	-11.2037
▁seven	-11.2038
▁eğitmek	-11.2038
▁bakışı	-11.2042
▁uğraşma	-11.2043
▁bağları	-11.205
▁gitmedi	-11.2054
▁olmazsa	-11.2054
▁Şirketler	-11.2056
▁Çinli	-11.2058
▁çiftleşme	-11.2058
▁dağıt	-11.2064
▁yaptığın	-11.2065
▁doğrusal	-11.2067
tt	-11.2067
▁lif	-11.2068
ledik	-11.2069
▁kayak	-11.207
▁çalışmış	-11.2071
▁gerçeğini	-11.2073
▁asılı	-11.2074
sü	-11.2075
▁destekliyor	-11.2075
▁gitmemiz	-11.2078
▁sizlerin	-11.2078
▁amacım	-11.2079
▁Ken	-11.2082
▁kristal	-11.2086
▁parazit	-11.2087
▁Yaptığı	-11.2087
▁sıralarda	-11.2089
▁cennet	-11.2092
▁Jack	-11.2093
tre	-11.2094
çu	-11.2095
ğim	-11.2096
▁eklem	-11.2096
▁dilim	-11.2097
dilerim	-11.2104
▁gelişimin	-11.2104
▁aydınlat	-11.2105
▁boyutunda	-11.2107
▁bul	-11.2111
▁Kur	-11.2111
dığımda	-11.2113
▁metro	-11.2116
▁ulaştır	-11.212
▁seferde	-11.2127
▁ailemi	-11.2129
▁geçmeye	-11.2129
▁Bölge	-11.213
▁atın	-11.2131
▁yaptığımızda	-11.2131
▁organları	-11.2132
car	-11.2132
umun	-11.2135
▁enstitü	-11.2138
▁sağda	-11.214
▁masrafları	-11.2141
aten	-11.2143
▁gökyüzün	-11.2143
▁Batılı	-11.2144
▁duvarın	-11.2146
▁bölümleri	-11.2148
▁katlan	-11.2151
▁sanıyor	-11.2152
▁boşa	-11.2153
▁uçaklar	-11.2154
▁metan	-11.2154
▁Gü	-11.2155
unuz	-11.2156
▁psiko	-11.2158
▁olmamalı	-11.2164
▁Rob	-11.2164
▁nesiller	-11.2165
ırdı	-11.2165
biliyor	-11.2167
▁düzelt	-11.2168
dor	-11.217
▁Bangladeş	-11.2173
▁Detroit	-11.2173
▁Elektrik	-11.2173
▁Soğuk	-11.2173
▁Watson	-11.2173
▁hiyerarşi	-11.2173
▁makul	-11.2173
▁opera	-11.2173
▁keçi	-11.2173
▁ivme	-11.2174
▁dindar	-11.2174
▁Mayıs	-11.2174
▁bozucu	-11.2175
▁lanet	-11.2175
▁42	-11.2176
▁ettiğinde	-11.2176
▁Charl	-11.2178
▁gayret	-11.2178
ih	-11.2178
▁Titan	-11.218
▁getirerek	-11.218
medi	-11.2181
arı	-11.2181
ans	-11.2184
▁diyen	-11.2187
▁yeraltı	-11.219
▁anlayan	-11.2191
▁edeceğini	-11.2191
meden	-11.2194
likleri	-11.2196
▁direnci	-11.2198
ny	-11.2198
▁bıraktığı	-11.2199
▁politikacı	-11.22
▁vermiyor	-11.2203
meyecek	-11.2204
▁vadi	-11.2208
▁astronomi	-11.2209
▁kafamda	-11.2213
▁yarattığımız	-11.2213
▁yönlendirme	-11.2216
▁dilde	-11.2217
▁kuramı	-11.222
▁güzeldi	-11.2222
▁yüzeyin	-11.2222
▁birkaçı	-11.2223
▁amaçları	-11.2225
▁yönleri	-11.2226
▁fikirle	-11.2226
şe	-11.2227
▁nü	-11.2227
▁destekleme	-11.2228
▁bulmayı	-11.223
▁beklemek	-11.223
▁dönecek	-11.2233
▁Ortak	-11.2234
memiş	-11.2236
▁gösterdim	-11.2236
▁paylaşacağım	-11.2238
▁sözcük	-11.2239
▁hataları	-11.224
lendiğini	-11.2241
umuzu	-11.2241
▁katıldım	-11.2242
▁lamba	-11.2247
▁kuşların	-11.225
▁işlevsel	-11.2252
▁hat	-11.2253
▁mikrofon	-11.2256
▁düzeyinde	-11.226
▁yeteneklerini	-11.2263
▁almadı	-11.2269
▁Olan	-11.2273
▁çektiği	-11.228
▁tarzda	-11.2284
▁güne	-11.2285
▁kozm	-11.2286
▁birleştirme	-11.2287
▁emeklilik	-11.2287
▁koyuldu	-11.229
▁müdürü	-11.2291
▁kule	-11.2292
▁solu	-11.2294
muştu	-11.2294
atif	-11.2295
▁söylemiş	-11.2297
▁kurtardı	-11.2298
acaklar	-11.2298
▁yapıda	-11.2298
larıdır	-11.2299
▁isimleri	-11.2299
alıyorum	-11.2301
▁gördükleri	-11.2302
ılacak	-11.2302
▁üretici	-11.2303
▁Sir	-11.2304
▁başlangıcında	-11.2305
▁birşeyleri	-11.2308
▁araştırmayı	-11.2309
DR	-11.2312
▁yılları	-11.2314
▁koşullarda	-11.2316
▁duyulma	-11.2316
▁kavuştu	-11.2319
▁mirası	-11.232
▁bilgilerini	-11.2322
▁cerrah	-11.2322
▁sembolü	-11.2323
▁Tu	-11.2323
▁çevrili	-11.2324
▁detaylar	-11.2326
müştü	-11.2328
▁ar	-11.2333
▁unu	-11.2335
▁organizasyonlar	-11.234
leridir	-11.234
▁kürek	-11.2342
rest	-11.2343
▁bağlanmış	-11.2345
▁Acı	-11.2348
▁nu	-11.235
▁düğme	-11.235
▁klip	-11.2353
▁gergin	-11.2354
▁bilgisayarları	-11.2359
▁sahibim	-11.2359
berg	-11.2362
▁bio	-11.2365
▁yapacaklarını	-11.2366
old	-11.2366
▁payı	-11.2367
▁Vietnam	-11.2367
▁şempanze	-11.2369
▁ileti	-11.2369
lduğu	-11.2373
▁diyebilir	-11.2373
▁seçer	-11.2374
▁umursama	-11.2375
▁sihir	-11.2379
▁ihlal	-11.238
▁gönderir	-11.2382
▁parçasıdır	-11.2384
▁paylaşım	-11.2385
ceğini	-11.2388
▁istiyorsun	-11.2388
▁düşündüğünü	-11.2388
▁Aristo	-11.239
▁iPod	-11.2391
▁röntgen	-11.2391
▁klişe	-11.2391
▁tişört	-11.2391
▁öğüt	-11.2391
▁manevi	-11.2391
▁bireyin	-11.2391
▁Nano	-11.2391
▁Karanlık	-11.2392
▁gayri	-11.2392
▁Somali	-11.2393
▁Kaide	-11.2394
▁başlamalıyız	-11.2394
▁duyulan	-11.2394
▁sorununu	-11.2395
▁Akıllı	-11.2395
▁kapsa	-11.2396
▁matematiğin	-11.2397
▁peynir	-11.2397
▁adaptasyon	-11.2402
yüz	-11.2403
▁öğretir	-11.2403
▁olmadıkları	-11.2403
mıştık	-11.2403
▁yıla	-11.2407
▁gittiğinizde	-11.2409
▁dörtte	-11.2411
▁olsak	-11.2412
ebilecekleri	-11.2412
▁Pri	-11.2413
▁Petrol	-11.2413
▁değişmesi	-11.2414
▁dilinde	-11.2414
▁tesis	-11.2415
lüyor	-11.2415
▁Steven	-11.2416
▁vatandaşlar	-11.2417
▁merdiven	-11.2417
rsa	-11.2417
▁getireceği	-11.242
▁hissettiğim	-11.242
▁fo	-11.242
▁onar	-11.2422
▁merkezli	-11.2424
▁bulmamız	-11.2426
▁dönüştürme	-11.2426
▁sektörü	-11.2428
▁gerçekleştirme	-11.243
▁to	-11.2432
▁sü	-11.2435
▁Aksi	-11.2437
▁çalma	-11.2438
▁asi	-11.2438
▁mutluluğu	-11.2442
▁sorusunu	-11.2447
▁frekans	-11.2449
▁hikâyeler	-11.2451
▁haklar	-11.2452
▁buldukları	-11.2455
▁medeniyet	-11.2455
▁sözleşme	-11.2459
▁düşür	-11.2464
▁keşfediyor	-11.2465
bar	-11.2467
▁İncil	-11.2467
▁kadınla	-11.2469
▁sizce	-11.2476
▁Ayn	-11.2477
▁ilginçtir	-11.2481
▁Bali	-11.2482
▁belirlemek	-11.2484
V	-11.2486
▁filmleri	-11.2487
▁sentez	-11.2487
▁başarma	-11.2488
ue	-11.2494
▁Derin	-11.2494
▁san	-11.2496
cılık	-11.2497
ladığını	-11.2503
▁sürme	-11.2505
laşır	-11.2508
▁programın	-11.2508
sün	-11.251
▁bilimci	-11.251
▁modelleme	-11.2517
▁Beynin	-11.2517
imizden	-11.2518
ğu	-11.2518
▁etkinlik	-11.252
▁Cok	-11.2521
▁iskeleti	-11.2522
▁birlik	-11.2524
▁kavramlar	-11.2527
▁kaderi	-11.2528
▁çözümün	-11.2528
tif	-11.2531
▁deneyin	-11.2532
▁arayan	-11.2533
saydık	-11.2534
▁Yapa	-11.2534
▁hayalini	-11.2535
▁takma	-11.2535
▁Star	-11.2537
▁kası	-11.2537
▁sağır	-11.2542
ıydı	-11.2543
▁göremiyor	-11.2546
▁yerindeki	-11.2547
▁şanslıydı	-11.2548
▁buluşma	-11.255
▁seviyey	-11.2551
▁olduklarından	-11.2551
▁ayrım	-11.2553
▁Kolay	-11.2555
▁erkekleri	-11.2559
▁ebeveynler	-11.2559
▁Makine	-11.2561
▁robotu	-11.2564
▁solda	-11.2566
▁transfer	-11.2569
mus	-11.2569
▁sınırlarını	-11.2573
▁AB	-11.2573
ırım	-11.2573
▁unuttu	-11.2575
▁bekledi	-11.2575
▁retina	-11.2575
▁değişimler	-11.2576
▁Dış	-11.2577
▁şekl	-11.2581
▁yaşamlarını	-11.2584
▁artır	-11.2584
▁görevlisi	-11.2585
▁aktivist	-11.2587
▁burun	-11.2591
▁çektik	-11.2595
▁co	-11.2595
▁neresi	-11.2597
▁Hedef	-11.26
▁Mil	-11.2601
▁isimlerini	-11.2603
▁duyacak	-11.2604
▁ölür	-11.2606
▁ilerledi	-11.2607
▁ş	-11.2609
▁bulunduğunu	-11.2612
▁aktiv	-11.2612
▁Kulağa	-11.2613
▁Sıfır	-11.2613
▁ürkütücü	-11.2613
▁Fazla	-11.2613
▁Türkiye	-11.2613
▁fevkalade	-11.2613
▁Leonardo	-11.2613
▁Ham	-11.2613
▁diger	-11.2614
▁nerdeyse	-11.2615
▁yıldızları	-11.2615
▁Şurada	-11.2615
▁doğasını	-11.2616
▁dinley	-11.2617
▁okuyan	-11.2617
elanda	-11.2618
▁sayılmaz	-11.2618
▁Tesl	-11.262
▁Sch	-11.262
▁işinde	-11.262
▁isyan	-11.2622
▁kazandığı	-11.2622
▁çıktılar	-11.2623
▁48	-11.2624
▁çaresiz	-11.2625
▁otuz	-11.2625
▁gitmiyor	-11.2625
▁sini	-11.2626
▁yaradığını	-11.2626
▁kaldığını	-11.2627
▁satan	-11.2628
üyor	-11.2628
ria	-11.2628
▁2002	-11.2628
▁gündem	-11.2629
▁konuşabilir	-11.263
manın	-11.2631
▁anlaşılır	-11.2634
▁şerit	-11.2638
▁almaları	-11.2638
▁taraftaki	-11.2639
▁böceği	-11.2639
▁çıkardığımız	-11.2641
▁EM	-11.2643
▁görüyorlar	-11.2643
▁kısmının	-11.2648
▁alabiliriz	-11.2649
▁yerleştiriyor	-11.265
▁aya	-11.2652
▁virüsün	-11.2653
▁yaka	-11.2657
▁çevresindeki	-11.2657
▁soldaki	-11.266
madı	-11.2661
▁rolünü	-11.2667
▁ulaşması	-11.2668
▁taksi	-11.2669
olog	-11.267
▁tadı	-11.2672
▁kimliği	-11.2674
▁bilirsin	-11.2676
▁kızları	-11.2678
▁verilmiş	-11.2679
▁hissetti	-11.268
▁kaldırmak	-11.2683
▁öner	-11.2686
▁verebilecek	-11.2689
▁İste	-11.2694
▁portre	-11.2695
▁Ti	-11.2696
▁götürme	-11.2698
▁bayılıyoru	-11.2698
▁başlamada	-11.27
▁usta	-11.2701
▁Sonsuz	-11.2703
landığında	-11.2705
▁arttırma	-11.271
mar	-11.271
▁seçtik	-11.2713
▁sorgulama	-11.2714
▁Gri	-11.2719
▁kullanmış	-11.2722
▁çağda	-11.2722
▁eğim	-11.2723
▁olmamış	-11.2724
▁kumaş	-11.2727
▁görünebilir	-11.2728
▁gez	-11.273
lim	-11.2732
syon	-11.2732
tum	-11.2733
▁aktarma	-11.2735
▁arabaların	-11.2736
ang	-11.2736
▁temizlik	-11.2737
likler	-11.2738
▁unsur	-11.2739
▁zorlama	-11.274
▁yiy	-11.2743
▁kaçın	-11.2743
▁II	-11.2744
▁farketme	-11.2745
▁ağa	-11.2746
▁derse	-11.2746
etti	-11.2747
▁görevler	-11.2749
▁yolculuğun	-11.2752
▁oluşumu	-11.2753
▁dinin	-11.2754
▁çekmeye	-11.2756
▁üstündeki	-11.2756
▁sağlığını	-11.2762
▁petrolün	-11.2764
▁şüpheci	-11.2766
lerimin	-11.2766
▁kaldığı	-11.2767
gar	-11.2769
▁üretti	-11.2772
▁taraflı	-11.2773
▁Robot	-11.2776
▁uçma	-11.2777
mun	-11.2777
▁çözümleri	-11.2778
abildiği	-11.2779
▁paylaştı	-11.2779
▁bilge	-11.2779
▁atış	-11.278
▁olaya	-11.2787
▁kader	-11.2788
▁kültürler	-11.2789
▁edilmişti	-11.2791
▁kurbağa	-11.2796
▁Es	-11.2796
▁dinleyiciler	-11.2798
▁boz	-11.2801
▁tanış	-11.2808
▁görünüşü	-11.2808
▁doğma	-11.2808
▁kurumları	-11.2809
▁başlat	-11.2813
▁evler	-11.2815
▁tekerlekl	-11.2816
▁çalışmaların	-11.2817
▁kapitalizm	-11.2819
▁sakat	-11.282
▁çocuğum	-11.2825
▁varoluş	-11.2826
▁yönünü	-11.283
▁mezar	-11.283
▁350	-11.2832
▁düzeni	-11.2832
▁ayrıldı	-11.2834
▁jeo	-11.2835
ıldığını	-11.2836
▁hevesli	-11.2837
ımızdaki	-11.2837
çüncüsü	-11.284
▁Homo	-11.284
▁çeyrek	-11.284
▁asansör	-11.284
▁entropi	-11.284
▁fizyoloji	-11.284
▁kraliçe	-11.284
▁Nefes	-11.284
▁İlaç	-11.284
▁döndüğüm	-11.2842
▁Kızıl	-11.2842
▁görüşlü	-11.2843
▁tavır	-11.2843
▁hatası	-11.2845
▁kuruldu	-11.2845
▁Hawaii	-11.2846
▁Nik	-11.2849
▁Başlangıçta	-11.2851
▁Patlama	-11.2852
▁bizimki	-11.2852
▁etrafımızdaki	-11.2853
▁seyler	-11.2853
▁fırın	-11.2853
▁tükenme	-11.2855
▁55	-11.2856
▁objeler	-11.2857
▁başımıza	-11.2859
▁resimlerini	-11.286
▁söyledik	-11.2864
▁Yaptıkları	-11.2864
▁ekranın	-11.2865
▁yönetiyor	-11.2866
▁koro	-11.2869
▁bitiyor	-11.287
▁uzat	-11.2871
▁sili	-11.2873
▁Cal	-11.2873
▁Pen	-11.2874
▁sokağ	-11.2877
▁gördüğünüzde	-11.288
ildiği	-11.2881
▁mar	-11.2882
▁başların	-11.2883
▁verilerini	-11.2886
▁temsili	-11.2886
▁kurallarını	-11.2887
emiyor	-11.289
▁War	-11.289
▁organlar	-11.2893
▁vazgeç	-11.2893
▁yayılma	-11.2893
▁ekonomist	-11.2896
▁beceriler	-11.2898
▁anıt	-11.2899
▁yapabileceğim	-11.2899
▁dirençli	-11.29
▁çıkarmaya	-11.2902
▁yöntemle	-11.2907
▁tutabilir	-11.2908
amazdı	-11.2912
▁olayda	-11.2914
▁eşya	-11.2914
▁yöneticisi	-11.2915
▁bağlamak	-11.2921
▁İnsanlık	-11.2921
▁Matt	-11.2922
▁Sabah	-11.2923
▁Bey	-11.2924
▁unutu	-11.2924
MS	-11.2926
miyordu	-11.2927
müyor	-11.2931
▁Kendinizi	-11.2941
▁filozof	-11.2944
▁giderler	-11.2946
ino	-11.2947
▁poster	-11.2947
▁ettirmek	-11.2951
▁yapmazsa	-11.2953
my	-11.296
▁Model	-11.2962
▁kitapta	-11.2963
▁binaları	-11.2966
▁tünel	-11.2967
sch	-11.2968
ıyorsunuz	-11.2968
▁hakkını	-11.2969
▁gökyüzü	-11.2969
▁büyülü	-11.297
▁kastediyoru	-11.2971
▁problemini	-11.2972
▁çekin	-11.2974
▁Lin	-11.2976
eographic	-11.2976
▁izlemeye	-11.2978
▁Günde	-11.2978
▁bağlama	-11.2979
▁ikimiz	-11.2986
▁kapatmak	-11.2986
▁ruhunu	-11.2989
▁Eşim	-11.2993
▁yorumlama	-11.2995
▁farketti	-11.2997
▁Başta	-11.2998
▁kabullenme	-11.3
▁Bina	-11.3001
ell	-11.3003
▁yazısı	-11.3005
▁bedeli	-11.3005
▁birsey	-11.3008
yer	-11.3008
▁dönüşü	-11.3008
▁mesajlar	-11.3011
▁görmüştü	-11.3013
▁belirler	-11.3013
▁politikası	-11.3015
▁Hans	-11.3016
▁dibinde	-11.3017
mazsınız	-11.3017
▁inandığım	-11.3018
yacağını	-11.302
▁tanımlıyor	-11.3023
bet	-11.3026
▁William	-11.3033
larini	-11.3034
luğ	-11.3034
nd	-11.3039
▁Sha	-11.3039
▁dinliyor	-11.3041
▁organı	-11.3042
fo	-11.3043
ana	-11.3044
▁ayrımı	-11.3045
▁gözünde	-11.3046
▁yazmıştı	-11.3048
▁h	-11.3049
▁aracını	-11.305
▁SS	-11.3052
▁kurmay	-11.3053
▁konuşmacı	-11.3055
▁teorik	-11.3063
▁sorabilir	-11.3066
▁ipucu	-11.3067
▁coğrafya	-11.3068
▁Sekiz	-11.3068
▁alınma	-11.3069
lmaz	-11.307
▁tutmaya	-11.3072
▁mülk	-11.3072
▁mecbur	-11.3072
▁Kelime	-11.3073
▁Rüzgar	-11.3073
▁santimetre	-11.3073
▁ihmal	-11.3073
▁kucuk	-11.3073
▁Teksas	-11.3073
▁feet	-11.3073
▁Tunus	-11.3073
▁genetiği	-11.3073
▁milimetre	-11.3073
▁Şiir	-11.3073
▁Yüzlerce	-11.3073
▁turuncu	-11.3073
▁bizzat	-11.3073
▁iğrenç	-11.3073
▁seçkin	-11.3073
▁belirleye	-11.3073
▁Diyelim	-11.3073
▁simdi	-11.3073
▁1930	-11.3074
▁Tanzanya	-11.3074
▁romantik	-11.3075
net	-11.3076
▁dönersek	-11.3077
▁konuşalım	-11.3077
gel	-11.3078
▁görmüyor	-11.308
▁adlandırdığımız	-11.3081
▁hissediyorsunuz	-11.3081
▁bileşen	-11.3082
▁şizofreni	-11.3082
▁dalgaları	-11.3083
▁tarafinda	-11.3084
▁kayboluyor	-11.3086
▁bazlı	-11.3088
▁silahı	-11.309
▁Medi	-11.309
▁başlarsınız	-11.3092
facık	-11.3092
▁eşittir	-11.3093
▁öncelik	-11.3094
▁olmadığımız	-11.3094
irler	-11.3095
▁uçakta	-11.3097
mişler	-11.3098
▁koyan	-11.3098
▁Bugünkü	-11.31
▁kitabında	-11.3101
▁bırakan	-11.3103
▁sözünü	-11.3103
▁Con	-11.3105
▁yarasa	-11.3106
▁başarmış	-11.3106
▁ekledik	-11.3107
▁genişleme	-11.3107
▁değiştirmemiz	-11.311
hol	-11.3113
▁bastır	-11.3113
▁keşfettiğimiz	-11.3118
▁toprağ	-11.3122
▁mes	-11.3123
▁geliştirir	-11.3125
▁IM	-11.3126
▁ge	-11.3131
▁düşündükleri	-11.3133
▁açacak	-11.3135
▁robotların	-11.3137
▁artması	-11.314
▁başını	-11.3148
ty	-11.3148
▁kırıklığı	-11.3155
▁figür	-11.3156
▁görmesi	-11.3159
ğünü	-11.3159
▁giyme	-11.3162
▁kullanıldığını	-11.3164
▁içindeydi	-11.3164
▁dergisinde	-11.3167
▁beslemek	-11.3173
▁başlatma	-11.3176
▁alacağım	-11.3177
zun	-11.3182
ğü	-11.3183
▁arkadaşlık	-11.3183
▁44	-11.3184
▁kirliliği	-11.3184
▁toplulukları	-11.3185
▁aktör	-11.3185
▁ihtiyaçlarını	-11.3186
▁yazdığım	-11.3186
▁iyileştir	-11.3189
▁farkli	-11.3191
▁kalabilir	-11.3198
mazlar	-11.3199
▁kabullen	-11.3199
▁eklemek	-11.32
▁merkezin	-11.3201
▁şunlar	-11.3202
zdan	-11.3203
▁zamanları	-11.3205
▁etrafı	-11.3206
▁sağlamaya	-11.3207
▁bandı	-11.3208
▁icadı	-11.3208
▁İçeri	-11.321
▁kahkaha	-11.3211
tis	-11.3211
▁mahallede	-11.3212
▁Mur	-11.3212
▁gezegenimiz	-11.3214
▁yüzeyini	-11.3219
▁köyün	-11.322
▁Kendimiz	-11.3221
▁gezegenimizi	-11.3221
▁format	-11.3221
▁Saray	-11.3225
▁Fe	-11.3225
▁Linu	-11.3226
lme	-11.3229
▁katmanı	-11.3232
▁cisim	-11.3232
lıyordu	-11.3233
▁harfi	-11.324
▁sezon	-11.3245
▁makinası	-11.3252
▁Hükümet	-11.3253
▁atlat	-11.3253
▁ulaşabilir	-11.3253
▁idam	-11.3255
▁Git	-11.3258
▁çağır	-11.3263
▁gördükleriniz	-11.3263
▁şansınız	-11.3264
▁yapabileceğini	-11.3265
▁tersini	-11.3266
rmak	-11.3271
▁zamanını	-11.3273
▁dürtü	-11.3277
▁durduru	-11.3277
▁kimler	-11.3278
▁servisi	-11.3278
şa	-11.3279
▁heyecanlıyı	-11.3279
▁arkadaşların	-11.3283
▁boyunda	-11.3284
▁konuşmada	-11.3285
▁Afrikalılar	-11.3287
▁çizer	-11.3287
ight	-11.3287
▁bahsetme	-11.3288
▁pişir	-11.3292
▁şov	-11.3293
▁istemişti	-11.3295
▁üstte	-11.3295
▁Life	-11.3296
▁kullanabiliyor	-11.3297
▁değişikliğini	-11.3298
▁çarptı	-11.3304
▁parçacık	-11.3306
▁World	-11.3308
▁mikrop	-11.331
▁mühim	-11.3311
▁Apollo	-11.3311
▁Danimarka	-11.3311
▁mahremiyet	-11.3311
▁trajik	-11.3311
▁tuğla	-11.3311
▁teyze	-11.3311
▁Çoğunlukla	-11.3311
▁rutin	-11.3311
▁sağduyu	-11.3311
▁Aşama	-11.3311
▁hidro	-11.3311
▁Fakir	-11.3311
▁Görünen	-11.3311
▁Mike	-11.3312
▁gürültülü	-11.3313
▁yapılabilecek	-11.3313
▁mantıksız	-11.3313
▁tokuş	-11.3314
▁LG	-11.3314
▁hissettiğiniz	-11.3315
▁açıklık	-11.3315
▁söylemiyorum	-11.3316
▁çalmak	-11.3318
▁Dunya	-11.3318
sıydı	-11.3319
▁Düzen	-11.3319
▁vücudunuz	-11.3322
▁düşünürü	-11.3322
tığımız	-11.3322
▁İkisi	-11.3323
klerinde	-11.3323
▁delikler	-11.3324
▁Seçim	-11.3324
▁klavye	-11.3327
larımla	-11.3328
▁Gidi	-11.3329
▁hey	-11.3329
▁geldiğimizde	-11.3329
▁doluydu	-11.333
▁Yapmak	-11.3334
▁bencil	-11.3334
▁maliyetleri	-11.3335
▁arıyoruz	-11.3335
mayacağım	-11.3336
stik	-11.3336
▁neresinde	-11.3337
▁Deneyim	-11.3338
▁testler	-11.3339
▁şeyde	-11.334
▁pantolon	-11.3341
▁yaşlandık	-11.3341
▁Kah	-11.3341
▁dansı	-11.3342
opi	-11.3343
▁dayanır	-11.3343
▁Dördüncü	-11.3344
duğunu	-11.3346
▁yaprak	-11.3349
▁hekim	-11.335
▁taşınabilir	-11.3351
▁gibiler	-11.3352
▁kafam	-11.3353
▁birincisi	-11.3355
▁kül	-11.3356
▁izledik	-11.3357
▁garaj	-11.3357
▁Asli	-11.3358
mam	-11.336
▁dileğim	-11.3364
▁köpekler	-11.3368
▁gerçekleşmesi	-11.3371
▁Ye	-11.3373
▁duydun	-11.3373
liyim	-11.3376
▁ediyorlardı	-11.3378
▁alev	-11.3381
▁sağlıyorlar	-11.3384
▁bilmem	-11.3384
▁eksen	-11.3384
▁Şirketi	-11.3385
▁riskini	-11.3385
çiler	-11.3388
▁kafes	-11.339
▁atlama	-11.3391
▁geçişi	-11.3393
▁istatistikler	-11.3394
▁karalama	-11.3395
▁kesit	-11.3398
▁kuralların	-11.34
▁Hastalık	-11.3407
U	-11.3409
▁Mesele	-11.341
▁ulaşacak	-11.3412
▁yükseliyor	-11.3416
▁64	-11.3417
▁bulunduğum	-11.3418
▁Ortada	-11.3422
▁fatura	-11.3424
▁hoşlanma	-11.3424
▁düşünmüyor	-11.3428
▁işlevi	-11.343
▁denizde	-11.3431
▁şanslıyı	-11.3438
▁meslektaşlarım	-11.3439
▁istersen	-11.3439
▁Dışarıda	-11.3441
▁bahsettim	-11.3441
▁istihbarat	-11.3444
leştiriyor	-11.3445
BM	-11.3446
▁göl	-11.3447
▁Rose	-11.3447
▁Hayvan	-11.345
▁bankacı	-11.345
▁inşaa	-11.345
▁am	-11.3452
▁reform	-11.3453
▁72	-11.346
miyorlar	-11.3461
▁Diyor	-11.3462
▁yatırımlar	-11.3462
arth	-11.3468
▁paylaştığımız	-11.3469
▁uzaklaştır	-11.3469
▁istek	-11.347
lur	-11.3471
▁gerekmez	-11.3473
▁dostu	-11.3474
▁boyutları	-11.3474
▁ekonomisini	-11.3475
▁cesareti	-11.3475
▁dalgalar	-11.3476
▁bilimciler	-11.3476
▁dağlar	-11.3476
▁lobi	-11.3476
▁birikim	-11.3479
▁şehirdeki	-11.348
▁başlayacağım	-11.3482
▁olduklarında	-11.3484
▁bela	-11.3485
▁durak	-11.3485
▁basladi	-11.3489
▁sınırlama	-11.3491
zo	-11.3492
▁mutfak	-11.3494
▁evlat	-11.3495
▁alay	-11.3496
▁bozukluk	-11.3497
▁sürecek	-11.35
▁Tanı	-11.3501
sinler	-11.3501
▁amacımız	-11.3504
▁adamdı	-11.3505
▁karşılaştığım	-11.3505
▁antibiyotik	-11.3506
▁edeceğiniz	-11.3507
lemeye	-11.3509
▁00	-11.3512
▁yapamayacağı	-11.3512
▁düzeltmek	-11.3517
▁eğlen	-11.3517
liğimiz	-11.3517
▁çene	-11.3518
▁şeylerde	-11.352
▁mizah	-11.3521
▁beste	-11.3521
ebilmesi	-11.3523
▁bitkileri	-11.3524
▁verimlilik	-11.3525
▁grupların	-11.3526
▁Anti	-11.3527
▁kaybettiği	-11.3529
▁geleceğimiz	-11.3531
▁disiplin	-11.3532
▁zafer	-11.3535
yordum	-11.3536
▁duvarlar	-11.3537
▁edemedi	-11.3538
▁midir	-11.354
▁ped	-11.354
irken	-11.354
▁haz	-11.3542
▁ödüyor	-11.3542
▁yapabilirdi	-11.3544
▁pekço	-11.3544
▁suçlama	-11.3544
▁öğretim	-11.3546
▁Silah	-11.3547
▁engelleye	-11.3547
▁koleksiyonu	-11.3547
▁pas	-11.3548
▁girmeye	-11.3549
▁zorundalar	-11.3551
asyonu	-11.3552
arası	-11.3554
▁Test	-11.3554
▁Ağustos	-11.3555
▁Disney	-11.3555
▁apartman	-11.3555
▁böbrek	-11.3555
▁nispet	-11.3555
▁pizza	-11.3555
▁randevu	-11.3555
▁Şüphe	-11.3555
▁buğday	-11.3555
▁nazar	-11.3555
▁Mikro	-11.3555
▁gümüş	-11.3555
▁köpekbalığı	-11.3555
▁olağandışı	-11.3555
▁Clint	-11.3555
▁Port	-11.3556
▁temizleme	-11.3556
▁Ted	-11.3557
▁Long	-11.3557
▁1900	-11.3557
▁aksiyon	-11.3559
▁ölmek	-11.356
▁tuna	-11.356
▁açılan	-11.356
▁Bildiğimiz	-11.3561
▁dalgası	-11.3561
▁kelimesinin	-11.3561
▁çekilen	-11.3561
▁taban	-11.3562
▁gor	-11.3563
▁sorarsanız	-11.3565
▁deneyelim	-11.3566
▁varolan	-11.3567
▁yapılmıştı	-11.3569
▁ortama	-11.3571
▁İlgi	-11.3571
▁kelimelerin	-11.3572
▁çalışmada	-11.3574
▁havalandırma	-11.3575
▁götürecek	-11.3576
▁toplulukta	-11.3579
▁danışman	-11.3581
▁diğerinin	-11.3581
▁tuş	-11.3583
▁etmediği	-11.3586
▁Carolin	-11.3586
▁kibar	-11.3586
▁yanılma	-11.3587
▁helikopter	-11.3589
▁taşın	-11.3591
▁yemeğ	-11.3593
▁planda	-11.3594
▁olduğuyla	-11.36
▁çıkarsa	-11.36
▁zorladı	-11.3601
▁uluslar	-11.3601
▁Dil	-11.3604
▁öğretmenin	-11.3605
▁deneyde	-11.3605
ebildiği	-11.3607
▁balonu	-11.3607
▁makinalar	-11.361
▁Yol	-11.3611
▁karşılaştığı	-11.3613
▁tümünü	-11.3613
000	-11.3614
▁mülteciler	-11.3615
▁olmamı	-11.3617
ooh	-11.3618
▁yakınında	-11.3619
▁olanın	-11.3619
▁gelmede	-11.3619
▁gelecektir	-11.3621
▁kaydetme	-11.3621
▁RNA	-11.3622
▁konuştuğu	-11.3626
▁duygusunu	-11.3628
▁pay	-11.3629
▁Okulda	-11.363
▁eylemi	-11.3631
▁Geçmişte	-11.3633
▁yapacağınız	-11.3633
▁Ders	-11.3634
▁gösterdik	-11.3635
▁dönmeye	-11.3635
▁üretilmiş	-11.3636
▁torunları	-11.3637
▁biriyim	-11.3637
▁okyanusu	-11.3638
▁izleri	-11.364
▁yakalama	-11.364
▁yapmanızı	-11.364
▁Hay	-11.3643
▁yığını	-11.3643
▁dönüştürebilir	-11.3644
▁istemek	-11.3648
▁başvuru	-11.3648
▁Hakları	-11.3656
▁bahar	-11.3657
▁İleri	-11.3657
▁kıyısında	-11.366
▁sis	-11.3661
▁kanalı	-11.3661
▁hastaney	-11.3663
▁metabolizma	-11.3666
▁oturmak	-11.3666
▁suçu	-11.3666
bur	-11.367
▁oluşturduğumuz	-11.3672
▁söylediğini	-11.3673
lamazsınız	-11.3673
litik	-11.3673
▁olabilirim	-11.3676
▁yaşını	-11.3677
ling	-11.3677
▁sonunu	-11.3677
▁hatalı	-11.3678
ladım	-11.368
▁Sudan	-11.368
▁gid	-11.368
▁bahçesinde	-11.3681
liklerini	-11.3691
▁kavramını	-11.3692
▁elektriği	-11.3692
▁üstel	-11.3692
▁edebilirdi	-11.3694
▁paylaştığı	-11.3695
▁arşiv	-11.3696
▁yaptığınızı	-11.3697
larınızda	-11.3698
▁çalışanı	-11.3699
▁gününü	-11.37
▁getirdiler	-11.3704
▁girdik	-11.3705
▁üretebilir	-11.3706
▁deyin	-11.3709
▁kimseyi	-11.3713
▁pazarı	-11.3714
▁yapabilme	-11.3714
▁tahmini	-11.3715
je	-11.3715
▁saçmalık	-11.3716
mıyorum	-11.3716
▁askerleri	-11.3717
▁bulundukları	-11.3719
▁sattı	-11.3722
▁patron	-11.3722
▁yemin	-11.3723
▁Hav	-11.3726
▁döv	-11.3729
▁çocuklardan	-11.3729
▁salon	-11.3729
▁istediğinizi	-11.373
▁geçtiğini	-11.3732
▁ideoloji	-11.3734
▁tabiat	-11.3736
▁öğrenmiş	-11.3736
▁pul	-11.3736
so	-11.3737
▁dolaştı	-11.3737
▁ekley	-11.3739
▁yorumlar	-11.3739
▁duvarları	-11.3742
▁hatırlamak	-11.3746
▁Gitti	-11.3747
▁vurdu	-11.375
▁dolan	-11.3751
▁keşfetmeye	-11.3755
▁yem	-11.3755
▁yaymak	-11.3755
▁fonksiyonu	-11.3755
▁kısıt	-11.3758
▁sözlük	-11.3758
▁koymaya	-11.3759
ardı	-11.376
▁kaz	-11.3761
▁emisyon	-11.3761
▁dünyamız	-11.3761
▁bilime	-11.3761
▁olduğunuzda	-11.3762
▁geometri	-11.3764
▁cami	-11.3767
▁goru	-11.3772
tör	-11.3772
▁Polis	-11.3774
▁beynimizi	-11.3775
▁turist	-11.3775
▁dükkan	-11.3777
▁anlayama	-11.3779
▁yaşadığınız	-11.378
▁yaşlarda	-11.3784
▁yazmış	-11.3786
▁çözebilir	-11.3787
▁Ek	-11.3789
▁oğlumu	-11.3791
▁uçağ	-11.3792
eceğiniz	-11.3792
▁parçacıkları	-11.3794
▁çalışırlar	-11.3794
▁Elimizde	-11.3794
luğun	-11.3797
▁hedefleri	-11.3799
▁kanunu	-11.3799
▁kurabilir	-11.38
▁söylediğimde	-11.38
▁Milyonlar	-11.3803
▁veriyordu	-11.3803
▁hiper	-11.3803
tansa	-11.3804
▁becerisi	-11.3804
▁Konseyi	-11.3805
▁füzyon	-11.3805
▁orjinal	-11.3805
▁berber	-11.3805
▁Şaşırtıcı	-11.3805
▁Brooklyn	-11.3805
▁yorucu	-11.3805
▁imha	-11.3805
▁sperm	-11.3805
▁bulanık	-11.3805
▁dışarda	-11.3806
▁Selam	-11.3806
▁Mich	-11.3807
▁ödemek	-11.3808
▁duş	-11.3808
▁gelirli	-11.3809
▁Johnson	-11.3809
▁dolaşan	-11.381
▁Görsel	-11.381
▁Suud	-11.3811
▁demografik	-11.3811
▁balta	-11.3813
▁paylaşan	-11.3814
evi	-11.3815
▁grubunu	-11.3817
▁evleri	-11.3818
▁uzmanlık	-11.3818
▁videosu	-11.382
▁tas	-11.382
▁tabanlı	-11.3822
▁Bakanı	-11.3824
▁sebebini	-11.3826
ümü	-11.3831
▁alarm	-11.3831
▁çevreleye	-11.3832
▁beğen	-11.3834
▁dünyamızda	-11.3834
▁Geçmiş	-11.3836
▁ayırıyor	-11.3837
▁şuradaki	-11.3839
▁fonksiyon	-11.384
▁konsept	-11.3841
▁yerle	-11.3842
▁tüketiyor	-11.3842
▁yakıtlar	-11.3843
▁bölgelerin	-11.3844
▁uğraşmak	-11.3845
▁saklama	-11.3846
ill	-11.3848
▁hissedebilir	-11.3848
▁tasvir	-11.3848
▁Ali	-11.3849
▁görmemişti	-11.385
▁alınması	-11.385
▁başlıyorum	-11.385
▁Hastane	-11.3853
▁zamanım	-11.3855
▁planları	-11.3855
▁edemeyi	-11.3856
▁şefi	-11.3856
▁Neler	-11.3857
▁mo	-11.3861
▁ettiğimizde	-11.3868
▁hipotez	-11.3868
▁yapacağımı	-11.3869
▁etkilendi	-11.3871
▁yapacağımızı	-11.3872
▁girecek	-11.3872
▁kola	-11.3873
▁sınırların	-11.3879
▁güçlerini	-11.388
receğiz	-11.3882
▁açılı	-11.3887
▁tören	-11.3889
ınızın	-11.3892
▁atıp	-11.3893
▁vur	-11.3893
▁j	-11.3894
▁olabilmek	-11.3895
ğum	-11.3899
rin	-11.3902
▁çoğal	-11.3902
▁üzeri	-11.3905
▁filan	-11.391
▁potansiyelini	-11.3914
▁kararlı	-11.3915
▁Nata	-11.3915
▁kullanacağı	-11.3915
▁yapabilirse	-11.3917
▁kuruluşlar	-11.3917
▁değiştiği	-11.3919
▁kütlesi	-11.3919
▁kilolu	-11.3922
arry	-11.3923
▁biçimleri	-11.3924
▁Yukarı	-11.3925
▁yetiştir	-11.3925
▁yatakta	-11.3926
▁inceler	-11.3928
▁özen	-11.3928
sünüz	-11.3934
▁kaydetti	-11.3936
▁Şimdilerde	-11.3938
▁sıkıştır	-11.3938
▁bulduğu	-11.3942
lediğimiz	-11.3944
▁yayınlana	-11.3944
▁salonda	-11.3947
▁görüntüy	-11.3948
abileceğimizi	-11.3948
▁Ladin	-11.3951
▁göstermiş	-11.3951
▁temelini	-11.3952
▁yaşım	-11.3953
▁yerçekimi	-11.3956
▁Ol	-11.3957
▁öğreniyorlar	-11.3958
▁biç	-11.396
▁beslen	-11.3964
mıyorlar	-11.3965
▁eşyaları	-11.3965
▁ma	-11.3967
▁anla	-11.3967
▁hatırla	-11.3969
üş	-11.3972
▁götürebilir	-11.3972
▁heyecanlıydı	-11.3972
▁kutunu	-11.3974
▁barışı	-11.3976
uru	-11.3976
▁soya	-11.3978
▁köken	-11.3978
▁programını	-11.3979
▁babalar	-11.3979
▁amca	-11.3982
▁sütun	-11.3985
▁yürümek	-11.3988
▁görevleri	-11.3988
▁büyümüş	-11.3992
▁sarma	-11.3993
▁insa	-11.3995
▁gerçekleştirdi	-11.3996
▁oranlarını	-11.3998
▁sevdiğimiz	-11.4
lüğ	-11.4002
layayım	-11.4003
▁tekerlek	-11.4003
▁öğretmenlerin	-11.4003
▁dinozor	-11.401
▁satıcı	-11.4011
▁fili	-11.4015
▁düşü	-11.4016
▁taşıy	-11.4016
▁çubuk	-11.4018
▁Alt	-11.4018
▁etmeme	-11.4022
▁tasarlandı	-11.4022
▁inanmayı	-11.4025
▁açtık	-11.4026
▁lezzet	-11.4028
bon	-11.4029
▁tesisi	-11.403
▁soruların	-11.4031
▁izini	-11.4032
▁arayüzü	-11.4032
▁Cuma	-11.4041
▁elektro	-11.4042
▁akıntı	-11.4043
▁kurtul	-11.4043
▁gözlerinizi	-11.4046
▁Michel	-11.4047
▁kararları	-11.405
▁ağını	-11.4051
▁Cam	-11.4052
▁inanır	-11.4052
▁Güven	-11.4053
▁açılış	-11.4054
▁oluşturuyorlar	-11.4055
▁Akıl	-11.4056
▁West	-11.4057
▁bölme	-11.4058
▁götürü	-11.4061
▁Ciddi	-11.4061
▁beyzbol	-11.4061
▁dolaylı	-11.4061
▁domates	-11.4061
▁obez	-11.4061
▁melodi	-11.4061
▁tasarim	-11.4061
▁Sınıf	-11.4061
▁birilerini	-11.4061
▁Yağmur	-11.4061
▁Atlanta	-11.4061
▁dönüştürücü	-11.4061
▁hacim	-11.4061
▁yapışkan	-11.4061
▁ziyan	-11.4061
tmak	-11.4062
▁söylenir	-11.4062
▁Kong	-11.4063
▁gözetim	-11.4063
▁Lego	-11.4063
▁açıklayacağım	-11.4064
▁çığlık	-11.4064
▁yapıştır	-11.4065
▁ortalıkta	-11.4066
▁yapamazsınız	-11.4068
▁Libya	-11.4068
ydılar	-11.4068
▁sığır	-11.4069
▁öldüren	-11.407
▁Seks	-11.4072
▁fazladır	-11.4072
▁Koca	-11.4075
▁İl	-11.4075
▁oluşturabiliriz	-11.4076
▁koruyan	-11.4076
▁sağla	-11.4077
▁aydınlanma	-11.4078
▁parkı	-11.4079
▁girdiğim	-11.4079
▁azınlık	-11.408
▁projeleri	-11.4082
▁Soldaki	-11.4082
▁çim	-11.4083
▁doktorların	-11.4083
▁alışık	-11.4083
▁hareketsiz	-11.4084
▁değiştirilmiş	-11.4084
▁okuy	-11.4085
right	-11.4086
▁dizileri	-11.4086
▁seyirciler	-11.4087
▁yazıyordu	-11.4088
▁başlıyorsunuz	-11.4088
▁karşılaşır	-11.4088
ımızdan	-11.4089
▁bulunmuyor	-11.4091
▁öğretmenleri	-11.4091
▁Ad	-11.4091
▁kast	-11.4091
▁odun	-11.4092
▁Yarın	-11.4093
▁merkezleri	-11.4094
▁Kop	-11.4095
▁gücümüzü	-11.4096
▁Yeteri	-11.4097
▁alttaki	-11.4099
▁kafe	-11.4101
▁vatandaşları	-11.4102
▁döneme	-11.4105
▁yaya	-11.4105
▁kil	-11.4105
▁oynadığı	-11.4108
▁zamanımızı	-11.4111
▁götür	-11.4111
list	-11.4111
▁taşınma	-11.4112
▁robotları	-11.4113
▁almanız	-11.4116
▁besleme	-11.4116
▁bittiği	-11.4116
mışlar	-11.4118
▁aklında	-11.4118
▁kurduğumuz	-11.4118
▁çoğumuzun	-11.4118
▁Çocukları	-11.4122
▁hissettiriyor	-11.4122
▁aktarmak	-11.4127
▁davranışını	-11.4129
▁geleneği	-11.4129
daydım	-11.4132
▁geliştirilmiş	-11.4133
▁işletmeler	-11.4133
▁Ram	-11.4135
▁yaşan	-11.4135
▁ülkesinde	-11.4136
▁yolumuz	-11.414
▁verirken	-11.4143
▁sesimi	-11.4146
▁alış	-11.4147
leştirilmesi	-11.4148
▁değişimleri	-11.4148
▁keşifler	-11.4148
▁timsah	-11.415
▁ulaştım	-11.4154
ft	-11.4155
▁çizdi	-11.4157
oo	-11.4159
▁Et	-11.416
▁balıkçı	-11.4165
▁salgının	-11.4166
▁yerleştirilmiş	-11.4166
▁arttırıyor	-11.4171
▁hazırlamak	-11.4175
▁simge	-11.4177
▁kaynaklana	-11.4178
▁yatır	-11.4179
▁dokusunu	-11.4181
gan	-11.4183
▁eşiğinde	-11.4185
▁Bilgisayarlar	-11.4189
▁değiştirebil	-11.4191
▁kaçırıyor	-11.4192
▁güçler	-11.4197
leşmeye	-11.4199
▁büyümesini	-11.42
▁demeye	-11.4201
▁eylemleri	-11.4202
▁açım	-11.4204
▁çözmemiz	-11.4204
▁yaptın	-11.4209
▁ını	-11.421
lursunuz	-11.421
▁bü	-11.4211
▁oranına	-11.4211
▁engelleri	-11.4211
▁sebepler	-11.4211
ation	-11.4212
▁Mor	-11.4212
▁oluştuğu	-11.4213
▁oturuyordu	-11.4213
▁ötede	-11.4214
lanmamış	-11.4216
▁ipek	-11.4217
▁zincir	-11.4217
▁etkisiz	-11.422
▁geçirecek	-11.4222
▁ağların	-11.4224
▁istese	-11.4224
▁gösterim	-11.4224
▁dağılımı	-11.4225
▁Tar	-11.4227
▁türlerini	-11.4229
▁içinizde	-11.423
▁ressam	-11.4234
▁sevdiğiniz	-11.4234
▁görünüyorlar	-11.4235
▁sars	-11.4235
▁ayaklanma	-11.4235
aktif	-11.4237
▁okumayı	-11.4238
▁etkiye	-11.4239
miyorsunuz	-11.4239
▁tartışmalı	-11.4243
▁istemiyordu	-11.4244
▁bugünlerde	-11.4244
▁hapis	-11.4247
▁esasın	-11.4249
▁şansını	-11.4251
▁farklıydı	-11.4251
▁canavar	-11.4252
▁kartları	-11.4254
▁farkettik	-11.4254
▁Evde	-11.4255
▁balıkların	-11.4258
▁uydurma	-11.4258
▁oynayabilir	-11.4261
▁önerdi	-11.4262
▁tutacak	-11.4263
▁Diğerleri	-11.4265
▁sara	-11.4266
▁havuzu	-11.4266
▁sınıfın	-11.4266
▁torba	-11.4268
▁teşhisi	-11.4269
▁olmamıştı	-11.427
▁vücud	-11.427
▁goster	-11.4272
anlayabilirsiniz	-11.4274
▁bilmiyorlar	-11.4278
▁bilgisini	-11.4279
▁doğruluk	-11.4281
▁etse	-11.4287
▁düğüm	-11.4287
▁katılan	-11.4289
▁sonuçların	-11.4289
ant	-11.429
▁adımlar	-11.429
▁sunucu	-11.4293
▁husus	-11.4295
▁tasarımları	-11.4295
▁kaçak	-11.4297
▁mektubu	-11.4304
▁rezerv	-11.4305
▁ot	-11.4305
▁parasını	-11.4306
▁konuşuyorlar	-11.4307
▁şirkette	-11.4311
▁kay	-11.4314
▁Cas	-11.4315
▁pop	-11.4316
▁paha	-11.4316
▁görüntülerin	-11.4318
▁yedek	-11.4319
▁tablosu	-11.432
▁96	-11.432
▁evsiz	-11.4321
▁900	-11.4322
▁diyeceğim	-11.4323
▁Davranış	-11.4324
▁Endonezya	-11.4324
▁Mahkeme	-11.4324
▁Stephen	-11.4324
▁cenaze	-11.4324
▁rüzgâr	-11.4324
▁Temmuz	-11.4324
▁zavallı	-11.4324
▁Hous	-11.4324
▁sarhoş	-11.4324
▁Snow	-11.4324
▁kondom	-11.4324
lışılmadık	-11.4324
▁Sinir	-11.4324
▁monte	-11.4325
▁beşinci	-11.4325
▁ilgilendiren	-11.4325
▁Sky	-11.4325
▁Cep	-11.4326
▁acele	-11.4326
▁masaüstü	-11.4326
▁yaşımdayken	-11.4327
▁ulaş	-11.4328
uğu	-11.4328
▁1999	-11.4329
▁ormanların	-11.4329
▁Adem	-11.4329
▁balinalar	-11.4329
▁ruhsal	-11.433
▁canına	-11.4331
▁bağlamında	-11.4332
▁grafiği	-11.4334
▁kuran	-11.4334
▁Ağ	-11.4335
▁zararsız	-11.4335
ili	-11.4335
neyse	-11.4335
▁moral	-11.4337
▁ayrımcılık	-11.4338
▁görüntüsünü	-11.4338
▁sensör	-11.4339
▁bez	-11.434
▁derdim	-11.4341
▁endüstrisinde	-11.4344
▁Fransızca	-11.4344
mizdeki	-11.4347
▁ücreti	-11.4351
▁Ger	-11.4351
▁istasyonu	-11.4351
▁görmekte	-11.4353
▁yazarken	-11.4354
▁yiyen	-11.4355
▁üzüm	-11.4355
ğına	-11.4356
▁organizmaların	-11.4356
▁suyunu	-11.4356
▁çevreci	-11.4358
▁kusur	-11.4359
ucu	-11.436
▁bileşeni	-11.4361
▁sadakat	-11.4361
▁şe	-11.4362
▁yansıt	-11.4366
▁sorulan	-11.4367
▁ayakkabılar	-11.4368
▁Çoğunuz	-11.4368
▁imalat	-11.4369
▁aracılığı	-11.4369
▁sahipliği	-11.437
▁sunumu	-11.437
▁atıkları	-11.437
▁47	-11.4371
▁şefkatli	-11.4372
▁öğrenen	-11.4373
▁fakirlik	-11.4376
▁çiftliği	-11.4376
▁Sev	-11.4376
▁bilmediği	-11.4377
▁yaklaşır	-11.438
▁imge	-11.4383
▁açıklar	-11.4384
▁hızlandır	-11.4384
▁paylaşmaya	-11.4387
▁önemseme	-11.4387
▁açıları	-11.4388
▁etmektedir	-11.4388
▁gökyüzünü	-11.4388
▁testleri	-11.439
eği	-11.439
▁inanmaya	-11.439
▁sözde	-11.439
▁düşündüklerini	-11.4391
▁mutluluğun	-11.4393
▁Öğrenme	-11.4393
mıyordu	-11.4393
▁malzemelerin	-11.4396
▁basma	-11.4396
▁bıraktık	-11.4397
▁yanım	-11.4397
▁meclis	-11.4398
▁Maria	-11.4399
▁birleşme	-11.4402
▁farklılıkları	-11.4402
▁matematiği	-11.4403
ecekler	-11.4409
▁hassasiyet	-11.441
▁küçül	-11.4413
rsanız	-11.4414
▁tanıdığım	-11.4419
▁ayın	-11.442
▁benzemiyor	-11.4421
▁kaçırma	-11.4422
▁edecekler	-11.4422
▁benziyordu	-11.4422
▁güvenme	-11.4423
▁ışıklar	-11.4429
▁omurilik	-11.4429
▁işsiz	-11.443
▁ima	-11.443
▁aşağıdaki	-11.443
▁virüsler	-11.4431
▁topluluğ	-11.4432
▁ayrılıyor	-11.4433
▁esneklik	-11.4434
▁numarası	-11.4434
▁bat	-11.4441
▁eğilimli	-11.4441
▁faktörler	-11.4441
▁savaşıyor	-11.4444
▁Lab	-11.4445
▁Adası	-11.4446
▁görünme	-11.4448
▁Rand	-11.4448
▁kitapların	-11.4451
▁hepsinden	-11.4453
▁geliştirdiği	-11.4453
▁soluk	-11.446
▁yapabildiğimiz	-11.4461
▁patern	-11.4464
▁yatırımı	-11.4466
▁formda	-11.4466
ary	-11.4469
▁memur	-11.4469
▁ipuçları	-11.447
▁zihni	-11.447
▁yeryüzünde	-11.4473
▁anlayacak	-11.4474
▁güdü	-11.4475
▁hissettiğimiz	-11.4478
▁iniyor	-11.4478
▁incelemeye	-11.4479
imdir	-11.448
▁sav	-11.4485
▁yakınlarında	-11.4486
▁kullanıyordu	-11.4488
engin	-11.4491
▁yılların	-11.4492
▁CR	-11.4496
▁hormon	-11.4496
▁yuvarlan	-11.4499
▁söyleyemez	-11.45
▁kemikleri	-11.4505
▁atıldı	-11.4505
▁getirmiş	-11.4506
▁evli	-11.4506
BE	-11.4511
▁mesajları	-11.4511
▁kıyafeti	-11.4512
▁görüşüm	-11.4513
▁görünecek	-11.4515
okyo	-11.4516
▁kaçınma	-11.4517
▁düzene	-11.4519
▁ajan	-11.452
▁zorundayı	-11.4523
▁değişmeye	-11.4526
▁gördüler	-11.4526
düğü	-11.4527
▁odaklanmış	-11.4527
landırma	-11.4528
▁hoşun	-11.4529
▁kıza	-11.4529
▁alışkanlıkları	-11.4535
bin	-11.4535
▁endüstrisini	-11.4535
▁kırdı	-11.454
▁Boy	-11.4541
BA	-11.4543
▁başlamamız	-11.4544
meyen	-11.4546
▁açtığı	-11.4546
▁kurumu	-11.4547
▁bağlanıyor	-11.4548
▁benzediği	-11.4549
▁düşmüş	-11.4551
▁koltuğu	-11.4554
mekten	-11.4555
▁içki	-11.4556
▁Değer	-11.4557
▁Pu	-11.4557
▁gençlik	-11.4558
takım	-11.4559
▁etkileşimi	-11.456
amanla	-11.4564
▁gezegenimizde	-11.4564
▁öden	-11.4567
raf	-11.4568
▁param	-11.4568
▁aradığımız	-11.4568
▁Coc	-11.4569
▁gözlerim	-11.457
▁araştırdı	-11.457
▁hük	-11.4571
▁evlen	-11.4573
▁dolaşır	-11.4573
▁bulutu	-11.4574
▁Gülme	-11.4575
▁takıyor	-11.4579
▁ekonomistler	-11.458
▁algoritmalar	-11.458
sler	-11.458
▁imkanları	-11.4581
▁hastayı	-11.4583
▁bakmanız	-11.4583
▁hamur	-11.4583
▁kullanırlar	-11.4584
▁tonu	-11.4584
▁kaldırıyor	-11.4584
▁gördüğünü	-11.4585
▁İspanyol	-11.4587
▁Başarı	-11.4587
▁panik	-11.4588
▁muydu	-11.459
▁yapanlar	-11.4593
▁Hayatım	-11.4593
gie	-11.4594
▁mahrum	-11.4594
▁işgücü	-11.4594
▁Craig	-11.4594
▁Edward	-11.4594
▁Sıtma	-11.4594
▁Yiyecek	-11.4594
▁entellektüel	-11.4594
▁piyango	-11.4594
angelo	-11.4595
▁Alaska	-11.4595
▁Kolombiya	-11.4595
▁harikulade	-11.4595
▁Aşırı	-11.4595
▁üretimin	-11.4595
▁yorgun	-11.4595
▁Yunanistan	-11.4595
▁huylu	-11.4595
▁Düşünce	-11.4595
▁karadelik	-11.4595
▁bölünmüş	-11.4596
▁dışa	-11.4596
▁görebileceği	-11.4596
▁2014	-11.4596
▁videolar	-11.4596
amadım	-11.4596
▁Sanıyorum	-11.4596
▁çıkarıyorlar	-11.4596
▁pili	-11.4597
▁istenen	-11.4597
▁Satur	-11.4597
▁uygulamak	-11.4598
▁pekala	-11.4598
▁dönemin	-11.4599
▁kolon	-11.46
deydim	-11.46
▁Bhu	-11.46
sky	-11.46
▁uzaklaş	-11.46
▁beyinleri	-11.46
ment	-11.4601
▁organizasyonu	-11.4602
▁yaptığınızda	-11.4603
▁belirleyici	-11.4604
▁kodun	-11.4605
▁zorluyor	-11.4606
▁izlerken	-11.4607
▁Wolf	-11.4608
▁bağlanma	-11.4608
▁Kamera	-11.4608
▁deliğin	-11.4609
▁AG	-11.4609
▁bağlan	-11.4612
▁Genom	-11.4612
tesi	-11.4612
atılan	-11.4615
▁öldüğü	-11.4615
▁yaratabiliriz	-11.4616
▁anlatıyorum	-11.4616
▁hizmetler	-11.4617
amanı	-11.462
▁koyduğumuz	-11.4621
mem	-11.4622
▁yapış	-11.4622
▁yapıyorlardı	-11.4623
madığı	-11.4627
▁ettirme	-11.4631
▁cikar	-11.4632
▁konut	-11.4635
▁biziz	-11.4636
▁biter	-11.4637
▁tanrım	-11.4638
▁yazmayı	-11.4638
▁riskler	-11.4639
▁kuvvetleri	-11.4642
▁başlatmak	-11.4644
▁Hayatımda	-11.4644
▁çalıştığınız	-11.4645
▁dolaşı	-11.4645
meme	-11.4646
▁geçiyoruz	-11.4646
▁çukur	-11.4647
▁Parkı	-11.465
▁Air	-11.465
▁büyüktür	-11.4651
▁Tarım	-11.4651
▁çizmek	-11.4657
▁gittiğim	-11.4661
▁inceledi	-11.4664
▁kalkma	-11.4666
▁işit	-11.4666
▁Hayatın	-11.4667
▁bebeklerin	-11.4668
▁uydular	-11.4669
▁pazarlık	-11.4669
▁gelirdi	-11.4669
▁dilek	-11.467
▁karışım	-11.4671
▁dergisi	-11.4672
▁doldur	-11.4672
▁diğerini	-11.4678
▁yönetmek	-11.4678
▁okulları	-11.468
ildiğinde	-11.4681
▁hissetmeye	-11.4681
▁kullanı	-11.4683
▁çıkmıştı	-11.4683
▁şiddetle	-11.4683
▁probleme	-11.4684
▁göstermeme	-11.4685
rebilirim	-11.4685
jo	-11.4689
▁ekonomide	-11.4689
▁hikayemi	-11.4691
ig	-11.4695
▁azala	-11.4695
▁açılma	-11.4696
▁koruy	-11.4697
▁saldırısı	-11.4698
▁koşar	-11.4698
▁çizimler	-11.4698
▁paylaşımı	-11.4699
▁inceley	-11.47
▁servet	-11.4702
▁yoğunluğunu	-11.4702
▁kirlet	-11.4707
▁ağırlığında	-11.4709
▁kolları	-11.471
ps	-11.4711
▁kontrolünü	-11.4713
▁acıyı	-11.4713
▁sıçan	-11.4714
tığını	-11.4718
▁Görme	-11.4718
▁içecek	-11.4719
▁ayakkabıları	-11.472
well	-11.4722
▁tasarımcıları	-11.4722
muyor	-11.4723
▁ilişkilendir	-11.4725
▁fikirde	-11.4726
▁gül	-11.4727
▁ateşi	-11.4732
▁mimarlık	-11.4733
masından	-11.4734
▁geçmesi	-11.4734
▁canlıları	-11.4734
▁parmağı	-11.4738
▁önerme	-11.4739
▁31	-11.4739
▁saldır	-11.474
▁dönüşme	-11.4741
▁baktığı	-11.4742
▁neleri	-11.4743
RA	-11.4745
▁babasını	-11.4745
▁parlaya	-11.4748
▁ayırdı	-11.4752
▁astronot	-11.4752
▁şeytan	-11.4752
rim	-11.4752
▁anlaşıldı	-11.4753
▁simetrik	-11.4756
▁Fare	-11.4756
▁bulundum	-11.4757
▁İnternette	-11.4757
▁cephe	-11.4758
fel	-11.4759
▁kalmayacak	-11.4759
▁sabahı	-11.4761
yapabileceğimizi	-11.4762
▁belirtileri	-11.4764
▁ayrıcalık	-11.4764
▁problemlerin	-11.4764
▁illüzyon	-11.4765
▁uzunluğu	-11.4765
▁çıkacağı	-11.4765
▁bölgelere	-11.4766
▁çalışmam	-11.4768
▁yo	-11.4768
▁karşıt	-11.4771
▁kalkış	-11.4772
▁insanoğlu	-11.4773
▁yolladı	-11.4774
▁düşmanı	-11.4778
lyn	-11.4782
▁söylen	-11.4782
▁sıralama	-11.4784
▁edebileceğimiz	-11.4787
ğiniz	-11.4788
▁polisi	-11.4788
▁Milli	-11.479
ray	-11.4793
▁uyarlama	-11.4794
▁söylerse	-11.4795
▁Chi	-11.4796
▁yapmamı	-11.4798
est	-11.48
▁Eş	-11.48
▁oysa	-11.48
▁Ekranda	-11.4803
▁kökeni	-11.4803
▁itme	-11.4804
▁Yolu	-11.4805
▁paralarını	-11.4806
▁görebilecek	-11.4807
▁vatandaşı	-11.4807
▁deneyimini	-11.4814
▁180	-11.4814
▁ışıkta	-11.4815
vin	-11.4817
▁Fran	-11.4818
▁materyaller	-11.4822
▁dönmüş	-11.4825
▁basar	-11.4826
▁bilet	-11.4829
▁grafikler	-11.4829
▁dünyasını	-11.4829
▁mekaniği	-11.483
▁çapl	-11.4836
▁üzgün	-11.4836
▁andan	-11.4837
▁yapmamızı	-11.4839
rmeliyiz	-11.4839
▁kanunlar	-11.4844
▁tasarladık	-11.4847
▁yüzleri	-11.4847
▁hissettiği	-11.4851
yacaktır	-11.4853
▁civarı	-11.4854
diğimi	-11.4855
▁izleyiciler	-11.4856
▁hacker	-11.4857
▁Yıldız	-11.4858
▁kısımları	-11.486
▁gerçekleştiği	-11.4863
▁değin	-11.4863
▁çekecek	-11.4863
▁çözer	-11.4864
▁birleşimi	-11.4865
▁damga	-11.4867
▁türe	-11.4867
▁beyninizi	-11.4868
lıkları	-11.4868
zgünü	-11.4872
▁edinmek	-11.4872
▁Avusturya	-11.4872
▁Cumhuriyetçi	-11.4872
▁Portekiz	-11.4872
▁elverişli	-11.4872
▁istiridye	-11.4872
▁sofistike	-11.4872
▁şırınga	-11.4872
▁vaaz	-11.4872
▁hasıla	-11.4872
▁vaat	-11.4872
▁espri	-11.4872
▁kolektif	-11.4872
▁Radyo	-11.4872
▁sicim	-11.4872
▁nakit	-11.4873
▁mitoloji	-11.4873
▁Prince	-11.4873
▁jeoloji	-11.4873
▁sosyo	-11.4873
▁STK	-11.4874
▁bahsedelim	-11.4874
▁sunulan	-11.4874
▁kalanlar	-11.4875
▁içgüdüsel	-11.4875
▁itici	-11.4876
▁bitiş	-11.4876
▁çarpan	-11.4876
▁cesaretlendir	-11.4876
▁kılar	-11.4877
▁adlandırılır	-11.4877
▁direniş	-11.4878
eceğimiz	-11.4878
▁toplayan	-11.4878
▁olmadığınız	-11.4879
▁büyümesi	-11.4879
▁işletim	-11.4879
▁Bang	-11.4881
▁göstermektedir	-11.4882
▁asır	-11.4885
▁gösteriliyor	-11.4885
▁Emma	-11.4886
▁dokuyu	-11.4887
▁hemşireler	-11.4888
▁yapmıyorum	-11.4888
▁eyaletler	-11.4889
▁kisi	-11.4889
ğümüz	-11.4889
ble	-11.489
▁Milo	-11.4892
▁Monter	-11.4893
▁süregel	-11.4893
▁gitmişti	-11.4894
▁yüklü	-11.4895
▁mutluydu	-11.4895
▁hatırlatmak	-11.4898
▁hayranı	-11.4898
rsak	-11.4901
▁Ölü	-11.4902
▁bittiğinde	-11.4902
▁elimi	-11.4903
olly	-11.4904
▁karada	-11.4905
▁SE	-11.4908
▁Sanayi	-11.491
▁stil	-11.4915
▁fabrikası	-11.4917
lebilir	-11.4917
erken	-11.4918
▁değişme	-11.4919
▁oralarda	-11.492
▁il	-11.4921
▁verebil	-11.4921
▁ritmi	-11.4922
▁Kır	-11.4922
▁Bab	-11.4925
▁tasarlay	-11.4928
▁oylama	-11.4929
dra	-11.4932
▁hazırladık	-11.4933
▁arayış	-11.4934
▁edenler	-11.4934
▁isteyebilir	-11.4937
dayken	-11.4939
▁yapmadığı	-11.4941
▁sözler	-11.4945
▁karşılığı	-11.4948
▁etmekle	-11.4949
▁karşılaştık	-11.495
▁parçacıkların	-11.4951
▁izleyebilir	-11.4951
▁dinledi	-11.4952
▁şunları	-11.4953
▁kafamı	-11.4956
▁paraşüt	-11.4956
▁önleme	-11.4956
▁düşürdü	-11.496
▁yarasalar	-11.4961
tar	-11.4961
▁rengini	-11.4962
▁günümüzü	-11.4963
▁oyunda	-11.4963
▁koruyacak	-11.4964
▁gecede	-11.4965
▁düzensiz	-11.4969
ebiliyoruz	-11.4969
▁haberleşme	-11.4973
▁gitar	-11.4973
▁kokusu	-11.4977
▁döndür	-11.4978
▁karides	-11.4978
▁altını	-11.498
mdi	-11.4982
▁değiştiri	-11.4982
▁kurul	-11.4983
▁çevirir	-11.4983
▁çalışıyorduk	-11.4987
DI	-11.4992
abiliyordu	-11.4994
▁veriliyor	-11.5
▁vermedi	-11.5002
▁söylerler	-11.5002
▁sevk	-11.5004
▁elim	-11.5004
▁Aşı	-11.5006
kini	-11.5007
▁verilmesi	-11.5008
▁değersiz	-11.5009
▁kaldırdı	-11.501
▁olabilmesi	-11.501
▁kısımda	-11.5012
abildiğini	-11.5014
▁insansı	-11.5018
▁ürettiğimiz	-11.5019
ografi	-11.5024
▁çekebilir	-11.5024
▁bilgimiz	-11.5025
▁başlarlar	-11.5027
▁adamış	-11.5027
saydım	-11.5027
▁gözlük	-11.5028
▁duyuyordu	-11.503
▁işlev	-11.5031
malıyım	-11.5031
▁bahçesi	-11.5033
▁dinleyi	-11.5034
▁bahsettik	-11.5034
▁Bebek	-11.5035
▁kademe	-11.5037
▁girişimi	-11.5038
yüm	-11.504
▁eskisi	-11.5041
▁derecesi	-11.5042
▁Sınır	-11.5044
▁komedi	-11.5045
lduğunda	-11.5049
▁Söylediğim	-11.505
▁anlayabiliyor	-11.505
▁öğrenecek	-11.5052
▁peri	-11.5053
▁kurbanları	-11.5055
20	-11.5059
dus	-11.506
▁İrlanda	-11.5062
▁Arada	-11.5062
▁gönderildi	-11.5062
▁Kas	-11.5063
▁montaj	-11.5069
ou	-11.5071
▁neslin	-11.5072
▁tutum	-11.5074
▁oyunlarını	-11.5075
▁kazanacak	-11.5076
▁teorisini	-11.5078
▁etrafımda	-11.5079
▁konferansta	-11.5079
▁çayır	-11.5082
▁satıyor	-11.5085
▁biyolog	-11.5086
▁benimki	-11.5089
▁köpeği	-11.5096
▁düşünürler	-11.5096
▁fırla	-11.5096
▁oyuncağı	-11.5097
▁Sesi	-11.5097
▁atılmış	-11.51
▁sırtında	-11.5102
LP	-11.5104
▁koruna	-11.5106
▁She	-11.5107
▁ayrılır	-11.511
▁ipi	-11.5111
▁barındıra	-11.5115
▁tepkisi	-11.5116
mdeki	-11.5119
▁ölçeği	-11.5119
emeyen	-11.5122
▁düşünüyorlardı	-11.5124
▁kaydır	-11.513
▁sponsor	-11.513
▁yapılacağın	-11.5133
▁gözlü	-11.5137
▁alamıyor	-11.5138
▁ortamın	-11.5138
▁güveni	-11.5138
▁kırık	-11.5139
▁koyacak	-11.5141
▁Pete	-11.5143
▁konumda	-11.5143
▁bozu	-11.5144
▁yatırımcılar	-11.5146
▁kısma	-11.5147
▁yanıtı	-11.5147
▁tutkum	-11.5149
▁problemlere	-11.515
▁olmanızı	-11.515
▁yemeye	-11.5152
▁gerçekleşme	-11.5155
▁kutular	-11.5155
▁kıyafetleri	-11.5156
▁Benjamin	-11.5158
▁Elizabeth	-11.5158
▁durağan	-11.5158
▁kahvaltı	-11.5158
▁kıvılcım	-11.5158
▁mevzu	-11.5158
▁çapraz	-11.5158
▁asfalt	-11.5158
▁pervane	-11.5158
▁İhtiyacı	-11.5158
▁rahip	-11.5158
▁İzlanda	-11.5158
▁metrekare	-11.5158
▁basketbol	-11.5158
▁prostat	-11.5158
▁anonim	-11.5158
▁fantastik	-11.5158
▁Tayland	-11.5158
▁Mandela	-11.5158
▁Tibet	-11.5158
▁reddetti	-11.5158
▁kronik	-11.5158
▁aksanı	-11.5158
▁Gol	-11.5159
▁Philip	-11.5159
▁hatırlay	-11.5159
▁barışçı	-11.516
▁sembolik	-11.516
▁kökleri	-11.5161
▁engelleme	-11.5161
ivil	-11.5161
▁gizlilik	-11.5161
▁Oyuncu	-11.5161
▁ölçüsü	-11.5162
▁sınırsız	-11.5163
▁JF	-11.5163
▁düzenleyen	-11.5165
▁kalir	-11.5165
▁Lise	-11.5165
▁edebilen	-11.5166
▁barındırıyor	-11.5168
▁kullanırız	-11.5169
▁43	-11.517
▁Post	-11.5171
▁sure	-11.5171
▁geçelim	-11.5172
yorduk	-11.5173
▁kuraklık	-11.5173
▁uğradı	-11.5174
▁andı	-11.5179
▁taslak	-11.5179
▁AK	-11.518
▁istifa	-11.5181
▁tuzlu	-11.5181
▁kızıl	-11.5181
▁düşündüğümü	-11.5181
▁kaybolma	-11.5182
▁işlenmiş	-11.5183
▁kalanında	-11.5185
▁çözecek	-11.5187
▁tasarlamaya	-11.5187
▁Amaç	-11.5188
▁kullandığınız	-11.5188
▁ağlama	-11.5188
▁Des	-11.5188
▁kuşa	-11.519
▁tabakası	-11.5193
▁astım	-11.5194
içi	-11.5194
▁Verme	-11.5194
▁muydun	-11.5197
▁harcar	-11.5198
▁meyilli	-11.5199
▁kullanmakta	-11.5199
▁bakanı	-11.5201
▁kaynağını	-11.5202
▁gelebilecek	-11.5202
▁değerlerini	-11.5204
▁büyüt	-11.521
▁Pas	-11.521
▁karşılamak	-11.5212
▁Dağ	-11.5213
▁atı	-11.5215
06	-11.5217
▁aydınlatma	-11.5219
▁istediğinde	-11.522
ebilirler	-11.522
▁saçları	-11.5222
▁ova	-11.5224
▁Venüs	-11.5224
▁sayma	-11.5227
▁oyuncuları	-11.5227
13	-11.5233
▁sorunla	-11.5233
laması	-11.5234
▁memnuniyet	-11.5234
▁geçerlidir	-11.5236
▁bulutlar	-11.5236
▁Herşeyi	-11.5237
lendirilmiş	-11.5238
▁dersin	-11.5238
▁yanınızda	-11.5239
▁uzaklık	-11.5241
▁çizgileri	-11.5242
▁memeliler	-11.5243
▁sürüş	-11.5243
▁destekçi	-11.5245
▁hayatlarımızı	-11.5246
▁söylüyoruz	-11.5246
▁tasarlar	-11.5246
▁konsepti	-11.5248
▁gelse	-11.5248
▁yüzyıllar	-11.5248
yabilirsiniz	-11.525
▁laboratuvarı	-11.525
leştirmeye	-11.5251
▁ilginçti	-11.5252
▁yetisi	-11.5252
▁tarafındaki	-11.5253
▁kafasında	-11.5254
▁dilimi	-11.5254
▁Tez	-11.5255
▁gönderdik	-11.5256
▁planla	-11.5256
▁işaretler	-11.5258
▁öldüğünü	-11.5259
▁yapacaklar	-11.5259
▁gösteriş	-11.5259
▁reklamı	-11.526
▁büyüğü	-11.5262
▁sonda	-11.5262
▁büyüklüğünü	-11.5262
▁psikolog	-11.5263
▁dahilinde	-11.5263
▁bahsetmişti	-11.5264
▁bakılır	-11.5267
▁olasılıkları	-11.5268
▁düştüğünü	-11.5271
▁kaçınız	-11.5274
ecektir	-11.5275
▁dişleri	-11.5275
abileceğim	-11.5275
▁yerlerini	-11.5278
▁ihtimalleri	-11.528
▁har	-11.5281
▁soruyorlar	-11.5282
enler	-11.5286
▁kullanıcıları	-11.5286
▁Hayvanlar	-11.5288
▁yörüngesinde	-11.5289
▁oto	-11.5292
dığımızı	-11.5292
▁yaşları	-11.5294
▁çalışın	-11.5294
▁paylaşıla	-11.5295
▁istismar	-11.5298
▁etmelerini	-11.53
▁tarla	-11.5302
▁Hücre	-11.5302
▁adresi	-11.5303
all	-11.5306
▁Is	-11.5309
▁kutuları	-11.5313
▁bağır	-11.5316
▁inanıyorlar	-11.5317
▁üzerimde	-11.5318
▁cihazın	-11.5318
▁Bur	-11.5321
▁süreçler	-11.5321
ust	-11.5322
▁milyonda	-11.5322
▁olmadığından	-11.5323
▁çocukla	-11.5323
▁anlamış	-11.5325
▁öğreti	-11.5327
▁arayışı	-11.5329
▁kazandık	-11.5331
▁çağırdı	-11.5333
▁verimliliği	-11.5333
▁omurga	-11.5334
▁uzaklaştı	-11.5335
▁edebiyat	-11.5338
▁olmamak	-11.534
▁biriktir	-11.534
▁ihtiyacın	-11.5342
▁Hukuk	-11.5344
▁edebilirler	-11.5347
abilmesi	-11.5348
▁Gördü	-11.535
▁ülkelerinde	-11.535
▁bot	-11.5355
▁şekillendir	-11.5356
▁inç	-11.5356
▁penis	-11.5362
▁190	-11.5362
▁asteroid	-11.5363
▁uygulan	-11.5363
▁toplumumuzu	-11.5364
▁mühendisleri	-11.5365
▁Evi	-11.5365
▁planlıyor	-11.5365
eb	-11.5366
▁haritalar	-11.5368
▁amatör	-11.5368
▁keser	-11.5369
▁refahı	-11.5373
kâr	-11.5375
lduğunu	-11.5377
▁parçasıydı	-11.5377
masıdır	-11.5378
▁tabak	-11.538
▁şüpheli	-11.5384
lamıyor	-11.5386
▁yatar	-11.5387
▁kullanmıyor	-11.5387
meliyim	-11.5387
▁alırdı	-11.539
ella	-11.5392
▁yapacaktı	-11.5395
▁yasası	-11.5395
▁hayatlar	-11.5396
▁araçlarını	-11.5396
▁kurs	-11.5398
▁Tip	-11.5399
▁sabahın	-11.5399
lmüş	-11.5401
▁Cin	-11.5402
▁Ödül	-11.5403
▁keşfedildi	-11.5403
▁SP	-11.5403
▁ilişkilerini	-11.5403
▁dinazor	-11.5403
▁öldür	-11.5407
▁koleksiyon	-11.541
▁doğduğu	-11.5411
▁içimde	-11.5412
▁alıştırma	-11.5412
▁yiyecekleri	-11.5412
▁Rit	-11.5413
▁yükü	-11.5414
▁kimyasallar	-11.5414
▁haritaları	-11.5415
▁Hall	-11.5415
▁Motor	-11.5416
▁Par	-11.5416
▁sandviç	-11.5417
▁unut	-11.5418
▁pis	-11.5422
▁tanımak	-11.5423
▁konuştuğum	-11.5426
▁gözükme	-11.543
▁eğitimde	-11.543
▁Olimpiyat	-11.543
▁projem	-11.543
▁bulacak	-11.5431
▁sende	-11.5432
▁olmayanlar	-11.5433
sünü	-11.5434
▁haberlerde	-11.5435
ımdan	-11.5435
iriz	-11.5436
▁istediğin	-11.5437
▁Tur	-11.5439
▁Kitabı	-11.544
▁tüketiciler	-11.544
▁aşma	-11.544
▁130	-11.5441
▁fen	-11.5441
▁Konuşmamı	-11.5441
▁olmakta	-11.5443
▁isteyecek	-11.5446
▁lens	-11.5447
▁Oy	-11.5448
▁ölçme	-11.5448
▁çorba	-11.5448
gre	-11.545
▁Kök	-11.5452
▁Cevabı	-11.5452
▁Hafta	-11.5452
▁Mevcu	-11.5452
▁Nathan	-11.5452
▁Televizyon	-11.5452
▁ansiklopedi	-11.5452
▁hakaret	-11.5452
▁insülin	-11.5452
▁palmiye	-11.5452
▁prosedür	-11.5452
▁puzzle	-11.5452
▁dayanışma	-11.5452
▁esrar	-11.5452
▁hektar	-11.5452
▁Plastik	-11.5452
▁Mesaj	-11.5452
▁şirin	-11.5452
▁Hoş	-11.5453
▁tuzak	-11.5453
▁litre	-11.5453
▁sadık	-11.5453
▁dikdörtgen	-11.5453
▁ucun	-11.5454
▁davul	-11.5454
▁maddelerin	-11.5455
▁soğutma	-11.5455
▁girebilir	-11.5455
▁Garip	-11.5456
▁kabuk	-11.5456
▁Kamu	-11.5457
▁kayboldu	-11.5457
▁ödülünü	-11.5457
▁Lew	-11.5457
▁birebir	-11.5457
▁97	-11.5457
▁inanmıyorum	-11.5457
▁bilinçsiz	-11.5458
▁vefat	-11.5458
▁Ross	-11.5458
▁heryerde	-11.5458
▁tarafsız	-11.5459
▁tepede	-11.546
▁cansız	-11.546
▁görürdü	-11.546
▁saldırılar	-11.546
▁farkındayım	-11.5462
▁düşünülen	-11.5463
▁tum	-11.5465
▁çevremizdeki	-11.5466
▁güçlendir	-11.5467
▁görüşleri	-11.5467
▁şifreleme	-11.5469
▁işiniz	-11.547
▁çıkışı	-11.547
▁vizyonu	-11.5471
▁yürütme	-11.5471
▁biçimini	-11.5472
▁bekliyoruz	-11.5474
▁kökenli	-11.5474
TI	-11.5474
▁buzdolabı	-11.5475
▁kurtarmaya	-11.5475
▁galib	-11.5476
▁inanıyordu	-11.5478
▁Boş	-11.5478
▁saniyeli	-11.5478
emeyeceği	-11.548
▁Barış	-11.5481
▁gü	-11.5483
▁karsi	-11.5484
▁yararına	-11.5485
▁yağış	-11.5485
▁kale	-11.5488
▁öncelikli	-11.5489
▁yolunun	-11.549
▁Peru	-11.5491
▁edeceğimiz	-11.5492
▁Yasası	-11.5495
▁tarafın	-11.5496
▁istiyorlardı	-11.5496
▁uçmak	-11.5499
▁bebeğim	-11.5503
aş	-11.5504
▁üretimini	-11.5504
misti	-11.5505
bilecek	-11.5509
▁verilme	-11.5511
▁olduğumdan	-11.5511
▁mana	-11.5511
▁rehber	-11.5511
log	-11.5512
yuz	-11.5513
▁eleman	-11.5515
▁zamandı	-11.5518
▁balıkçılık	-11.5519
▁geliştirildi	-11.5519
▁listesinde	-11.5523
lenecek	-11.5524
▁kabiliyet	-11.5524
umuzun	-11.5525
▁umuyor	-11.5525
▁niyeti	-11.5526
▁kaplanmış	-11.5526
▁zamanlarında	-11.5526
▁plaka	-11.5526
▁yapsa	-11.5528
▁korkuyordu	-11.5528
▁kullanılma	-11.5528
▁oturmuş	-11.553
▁statü	-11.5532
▁boyutunu	-11.5533
liyorlar	-11.5534
▁baloncuk	-11.5534
▁Lak	-11.5535
▁istediğimizi	-11.5536
▁sokmak	-11.5537
▁şunun	-11.5539
▁örtü	-11.5539
ksiyon	-11.554
▁hissettiğini	-11.554
cisi	-11.5542
▁hi	-11.5543
▁konuşmam	-11.5544
▁sayfalar	-11.5545
▁Sarı	-11.5547
▁yapardım	-11.5547
▁ampul	-11.5549
▁kaçan	-11.5551
▁çalın	-11.5551
gini	-11.5554
▁inanılmazdı	-11.5554
▁vermemiz	-11.5554
▁logo	-11.5555
rası	-11.5556
▁fotoğrafın	-11.5556
▁açılır	-11.5556
▁duyabilir	-11.5557
▁anladığım	-11.5557
▁büyüdüğüm	-11.5557
▁ışığında	-11.5559
▁Kitap	-11.5559
▁kurtaracak	-11.5562
▁diğerlerini	-11.5562
▁Etki	-11.5563
▁çıkarken	-11.5564
▁Yaşa	-11.5565
▁evrimleşme	-11.5566
▁videoları	-11.5568
▁arazide	-11.557
▁başar	-11.557
uther	-11.557
▁Hepinizi	-11.5571
▁vücudumuzu	-11.5572
von	-11.5573
▁uzmanların	-11.5573
PR	-11.5573
rebilmek	-11.558
▁meseleler	-11.5583
▁girişi	-11.5584
▁zihniyet	-11.5584
▁dalları	-11.5585
▁sürücüsü	-11.5585
ington	-11.5586
bilirsiniz	-11.5587
▁yürümeye	-11.5591
▁yönlerde	-11.5591
▁diğerinde	-11.5593
▁tahminler	-11.5593
▁galaksiler	-11.5595
▁devri	-11.5597
▁muhafazakar	-11.5597
▁We	-11.5598
▁sarf	-11.5599
▁temizlemek	-11.56
▁ünü	-11.56
▁bildir	-11.56
▁imaj	-11.5601
▁geçirmeye	-11.5601
▁du	-11.5603
▁gelişimini	-11.5604
▁başları	-11.5605
▁ettiğimde	-11.5608
▁dolduru	-11.5609
▁mücadelesi	-11.5613
tay	-11.5615
▁kuruluşu	-11.5615
▁dünyalar	-11.5615
▁Yaratıcı	-11.5615
▁doğduğum	-11.562
▁yazarlar	-11.5621
▁şaşırta	-11.5621
mezdi	-11.5622
▁yakı	-11.5622
▁yıkım	-11.5623
▁korktu	-11.5626
▁kestirme	-11.5628
▁Denizi	-11.563
▁soykırım	-11.5633
▁getiriyorlar	-11.5634
▁hara	-11.5634
▁kitab	-11.5634
uza	-11.5637
▁müzakere	-11.564
ung	-11.5641
▁korkar	-11.5642
▁evimde	-11.5644
▁Mas	-11.5645
▁toplamı	-11.5646
tılar	-11.5648
▁paneli	-11.5649
▁atmaya	-11.5649
▁hesaplamalar	-11.5651
▁çocuklarınız	-11.5653
▁ırkçı	-11.5653
▁öğretmeni	-11.5654
▁Che	-11.5655
▁tanıştık	-11.5655
▁duyarı	-11.5657
▁öğrenmemiz	-11.5657
▁zorluğu	-11.5658
▁karışma	-11.5659
▁ebeveynleri	-11.566
▁hedefimiz	-11.5661
rdım	-11.5663
▁boşlukta	-11.5663
▁olurum	-11.5663
▁sensörler	-11.5665
▁iyimserlik	-11.5667
rinlemesin	-11.5668
▁tekrarlama	-11.5669
▁yemeğinde	-11.5669
▁içindi	-11.5669
▁gözün	-11.5673
▁yediğimiz	-11.5673
▁Din	-11.5673
ındaki	-11.5674
▁takıntılı	-11.5675
▁Laboratuvarı	-11.5676
▁aşaması	-11.5676
bilimci	-11.5678
▁görevini	-11.5679
80	-11.5683
laştırmak	-11.5684
rsek	-11.5684
▁olamayacağı	-11.5685
▁yansıtma	-11.5685
▁34	-11.5686
▁kısıtlama	-11.5687
▁keşfin	-11.5688
amadığı	-11.5689
▁önündeki	-11.569
▁buluşlar	-11.5693
▁çıkıyorlar	-11.5695
▁tasarlıyor	-11.5695
▁yapamadığı	-11.5695
▁merkezde	-11.5696
▁gözlerimi	-11.5696
▁yetkili	-11.5697
▁br	-11.5697
▁vali	-11.5697
▁çevirdi	-11.5699
▁işlemler	-11.57
▁salonu	-11.5706
▁sektöründe	-11.5707
▁notlar	-11.5709
▁sevin	-11.571
▁ölçe	-11.5711
▁devir	-11.5712
▁kılmak	-11.572
▁büyükbabam	-11.5723
▁bilmemiz	-11.5726
laştırılmış	-11.5726
▁gidiş	-11.5731
▁Kimin	-11.5735
▁yemekleri	-11.5735
▁doğuşu	-11.5738
abilirdi	-11.5739
▁uydur	-11.5743
▁bakmamız	-11.5747
▁düşünüyorsun	-11.5748
▁arkamda	-11.5748
▁yeteneğini	-11.5748
▁beklentileri	-11.5748
▁böl	-11.5748
▁Black	-11.575
▁icra	-11.5751
▁volkan	-11.5753
▁senkroniz	-11.5755
▁DVD	-11.5755
▁Lübnan	-11.5755
▁Tazmanya	-11.5755
▁bodrum	-11.5755
▁cehennem	-11.5755
▁floresan	-11.5755
▁itiraz	-11.5755
▁kemoterapi	-11.5755
▁satranç	-11.5755
▁mamut	-11.5755
▁üzüntü	-11.5755
▁Andrew	-11.5755
▁Adalet	-11.5755
▁Geniş	-11.5755
▁bişey	-11.5755
▁Galap	-11.5756
▁örnekle	-11.5756
▁santim	-11.5756
▁erişilebilir	-11.5756
▁becerikli	-11.5756
▁karavan	-11.5757
▁Blue	-11.5757
▁Okuma	-11.5758
▁düzeyi	-11.5758
▁kaybolan	-11.5758
▁Birçoğunuz	-11.5759
igan	-11.576
▁zincirini	-11.576
▁zorluklarla	-11.576
▁başlayınca	-11.5761
▁Fas	-11.5761
agos	-11.5762
▁ölümleri	-11.5762
▁uğruna	-11.5763
▁hatırlattı	-11.5764
▁5000	-11.5765
▁çağın	-11.5765
▁saçı	-11.5765
▁geliştiriyoruz	-11.5767
▁yuz	-11.5768
▁pasta	-11.5768
▁araştırmada	-11.577
▁yapamayı	-11.577
▁gelmektedir	-11.5771
▁kuyruğu	-11.5772
▁misafir	-11.5772
▁imkânsız	-11.5773
▁değişmez	-11.5773
▁semt	-11.5773
▁Pho	-11.5774
▁olmaktadır	-11.5781
▁Sevgili	-11.5782
▁annelerin	-11.5782
▁eğil	-11.5782
▁yaşındayım	-11.5782
▁hiza	-11.5783
▁kaçış	-11.5784
▁ekonomimiz	-11.5784
▁Çölü	-11.5785
▁günah	-11.5786
▁taşıyabilir	-11.5788
▁bilmediğim	-11.5789
▁buluştu	-11.5789
▁Emin	-11.5792
▁Bat	-11.5793
▁bağdaştır	-11.5795
▁bisikleti	-11.5796
zerine	-11.5797
▁sıkıca	-11.5797
▁diplomasi	-11.5797
▁Hy	-11.5803
▁Yu	-11.5803
▁vakası	-11.5803
▁savaştı	-11.5804
▁işlemleri	-11.5804
▁tanıştır	-11.5805
▁isteyeceğim	-11.5807
▁oyuncusu	-11.581
▁siteleri	-11.581
▁inceledim	-11.5812
▁ironik	-11.5812
oid	-11.5813
▁Haberler	-11.5813
▁haklıydı	-11.5813
▁olmaktı	-11.5814
▁güldü	-11.5816
▁faz	-11.5818
▁halkını	-11.582
▁kek	-11.582
▁yayılır	-11.582
▁genişliği	-11.5821
▁Roy	-11.5822
▁kesici	-11.5823
▁söylediğimiz	-11.5824
▁hırslı	-11.5825
▁takas	-11.5826
▁Vo	-11.5827
▁ulaşmaya	-11.5827
uldu	-11.5827
▁sözcükler	-11.5828
▁kullanılacak	-11.5829
▁arkadaşlarımla	-11.5829
▁üretiliyor	-11.5831
▁toplay	-11.5831
▁artırma	-11.5832
▁ortaklık	-11.5833
▁kuyu	-11.5834
▁ailelerini	-11.5834
▁ürünlerini	-11.5836
meyeceğini	-11.5837
▁ödev	-11.5838
▁ekranı	-11.5842
▁vuruş	-11.5843
▁geldiklerini	-11.5843
▁Fort	-11.5844
▁harcamak	-11.5847
▁öldürür	-11.5847
▁felçli	-11.5847
▁işlerde	-11.585
▁implant	-11.5851
▁saklan	-11.5851
▁kazandırdı	-11.5854
▁kıvrıl	-11.5854
▁sa	-11.5856
▁yaratılmış	-11.5858
▁bedenin	-11.586
▁kanıtları	-11.586
▁MA	-11.5861
meyiz	-11.5861
▁geliştiriyor	-11.5862
▁hazırlanmış	-11.5863
▁Evreni	-11.5863
▁gezegenleri	-11.5863
▁kurtuldu	-11.5865
▁hayalet	-11.5866
▁sundu	-11.5866
▁hazırlama	-11.5868
▁üretecek	-11.5869
▁vücutta	-11.5869
▁ilgileniyoru	-11.587
▁etmeyin	-11.587
▁evimiz	-11.5873
▁görürse	-11.5873
▁sıralar	-11.5876
▁aktiviteler	-11.5877
▁toplan	-11.5877
▁çadır	-11.5877
▁kut	-11.5878
▁attım	-11.5878
▁seviyesin	-11.5879
hoo	-11.5879
▁sürdür	-11.588
▁geliştirdiğimiz	-11.5881
▁pes	-11.5881
▁teli	-11.5881
▁yaşadığını	-11.5881
ttiği	-11.5881
▁Öğretmenler	-11.5883
▁tartışmak	-11.5883
▁geldiğin	-11.5885
cektir	-11.5887
▁çırp	-11.5889
▁Karar	-11.5891
▁işçileri	-11.5892
▁söylemeyi	-11.5893
▁duymaz	-11.5896
şer	-11.5904
▁hizmetlerini	-11.5904
▁Hol	-11.5905
▁Kapa	-11.5905
▁Ata	-11.5906
▁ilerlet	-11.5907
▁böyleydi	-11.5908
▁isteğim	-11.5908
düğünü	-11.5909
▁Meydanı	-11.591
rah	-11.5913
▁ellerim	-11.5913
▁kurbanı	-11.5913
▁Kütüphanesi	-11.5915
amadı	-11.5915
▁seyretti	-11.5916
▁liman	-11.5916
▁düşündüğümde	-11.5916
▁FDA	-11.5917
▁hâlde	-11.5917
▁özet	-11.592
▁stresli	-11.5922
▁içeriğin	-11.5922
▁sö	-11.5923
▁aş	-11.5923
▁ailede	-11.5924
▁tehlikesi	-11.5926
▁140	-11.5928
▁devrey	-11.5929
▁büyüdüğünü	-11.5929
▁hırsız	-11.593
▁kabus	-11.593
▁yükseklikte	-11.5931
▁değişecek	-11.5931
▁anlamanız	-11.5932
▁uzanıyor	-11.5934
▁krizini	-11.5936
▁poli	-11.5938
▁Geleceğin	-11.5938
▁tara	-11.5939
▁yor	-11.5941
▁bes	-11.5942
▁so	-11.5946
gram	-11.5946
lenmeye	-11.5948
riz	-11.5948
▁başarısı	-11.5949
▁geçiyordu	-11.5951
▁Çoğumuz	-11.5955
▁bilgili	-11.5955
▁haftalar	-11.5956
▁iklimi	-11.596
▁varil	-11.596
▁yoğunlaş	-11.5963
▁Kat	-11.5963
▁severdi	-11.5967
▁dokuları	-11.5967
▁taşıdığı	-11.597
▁biliriz	-11.597
▁aklını	-11.5972
niversitesinde	-11.5973
▁dikkatle	-11.5973
▁Oğlum	-11.5973
▁algısı	-11.5977
▁düzenledi	-11.5977
gra	-11.5978
ümüzü	-11.5979
▁davranır	-11.5979
▁çocuktu	-11.598
▁karıştırma	-11.598
▁bırakacak	-11.5982
▁engelliyor	-11.5984
▁kesti	-11.5985
leşmesi	-11.5987
▁Marc	-11.5987
eceğimizi	-11.5993
▁bloğu	-11.5993
▁dök	-11.5993
▁geldiğim	-11.5994
▁tart	-11.5995
▁verilir	-11.5995
▁sempati	-11.6
ent	-11.6001
▁Kendim	-11.6003
larınızla	-11.6005
leştirir	-11.6006
▁güçsüz	-11.6006
▁kişiliği	-11.6008
▁dert	-11.6008
▁Kızlar	-11.6009
▁Parti	-11.601
▁terimi	-11.6013
▁Karmaşık	-11.6014
▁kabuğu	-11.6014
▁kurt	-11.6015
▁Pra	-11.6017
▁anlaş	-11.6018
▁toplamında	-11.6018
▁katkısı	-11.6018
▁tarafını	-11.6018
duğumuz	-11.602
▁duyuru	-11.602
▁krizin	-11.602
▁Bizde	-11.6024
▁çatışmalar	-11.6026
▁telefonunuz	-11.6026
▁balığın	-11.6029
▁kuşak	-11.6029
▁müslüman	-11.603
▁Ter	-11.603
▁dahası	-11.6031
▁Lee	-11.6031
tion	-11.6033
mit	-11.6034
digini	-11.6035
▁eğiliminde	-11.6036
lamayan	-11.6038
düz	-11.6038
▁göründü	-11.604
▁hoparlör	-11.604
▁şahs	-11.6041
▁göremedi	-11.6043
▁sağlamış	-11.6044
▁ışığını	-11.6046
▁modellerini	-11.6048
▁soracağım	-11.6048
▁boyutlarda	-11.6049
▁muhabir	-11.6049
▁cevabım	-11.605
ity	-11.6051
▁döndüğünü	-11.6052
eşlik	-11.6052
▁deneyimleye	-11.6052
keley	-11.6055
▁etkileşimin	-11.6057
▁şaşırdı	-11.6063
▁yazabilir	-11.6065
▁heyecanlandı	-11.6065
▁alabilecek	-11.6066
▁yüce	-11.6067
▁Beraber	-11.6068
▁Kopenhag	-11.6068
▁Mozart	-11.6068
▁Müthiş	-11.6068
▁Savunma	-11.6068
▁Sylvi	-11.6068
▁Sürdürülebilir	-11.6068
▁Tuhaf	-11.6068
▁fısılda	-11.6068
▁kavanoz	-11.6068
▁kızılötesi	-11.6068
▁merhaba	-11.6068
▁muamele	-11.6068
▁nüfuz	-11.6068
▁Şefkat	-11.6068
▁Liberya	-11.6068
▁Power	-11.6068
▁bambu	-11.6068
▁havlu	-11.6068
▁sepet	-11.6068
▁Arabistan	-11.6068
▁Eyalet	-11.6068
▁tavşan	-11.6068
▁Bahsettiğim	-11.6068
▁ihra	-11.6068
▁kuzu	-11.6068
▁herzaman	-11.6068
▁email	-11.6068
▁düşünülüyor	-11.6068
▁Nairo	-11.6068
▁Daniel	-11.6068
▁General	-11.6068
▁tüylü	-11.6068
▁fincan	-11.6068
▁Jones	-11.6068
▁yavaşlama	-11.6068
▁Aranızda	-11.6069
▁ağrısı	-11.6069
▁ilçe	-11.6069
▁Komik	-11.607
▁bağlam	-11.607
▁tohumları	-11.6071
▁anlatıcı	-11.6071
▁verimsiz	-11.6071
▁Nepal	-11.6071
▁kullanabilme	-11.6073
▁etmeliyim	-11.6074
▁Kasım	-11.6075
irdi	-11.6075
▁simülasyonu	-11.6075
▁aşan	-11.6076
▁Mill	-11.6077
▁jet	-11.6078
▁tasarımcısı	-11.6078
▁karikatürist	-11.6079
maktan	-11.608
▁aydınlık	-11.6081
▁Kutup	-11.6081
▁göreceli	-11.6082
▁tabir	-11.6082
▁ömürlü	-11.6083
▁Geliş	-11.6084
▁çizgisini	-11.6086
▁açıklayan	-11.6087
▁gönderi	-11.6089
▁harcadık	-11.609
arsanız	-11.609
▁ray	-11.609
▁evlenme	-11.6091
▁amaçla	-11.6092
▁Wood	-11.6092
▁çete	-11.6093
▁uçakları	-11.6093
▁alacağız	-11.6093
▁üstteki	-11.6095
▁hikâyesi	-11.6096
▁Hastalığı	-11.6098
uyor	-11.6098
▁kaldığım	-11.6099
▁yatağı	-11.6101
▁adlandırdığım	-11.6102
▁bulabilmek	-11.6103
▁raporu	-11.6103
▁fedakarlık	-11.6105
▁çit	-11.6106
▁ölçeğinde	-11.6108
16	-11.6108
▁MRI	-11.6109
▁konuşacak	-11.611
▁yaratığı	-11.6113
▁Hata	-11.6114
abiliyorlar	-11.6114
▁değiştirdiği	-11.6118
▁kalbinde	-11.612
▁Kullan	-11.6125
▁düzenlemek	-11.6125
▁uzlaşma	-11.6127
▁hikayelerin	-11.613
▁Hiçbiri	-11.6131
▁tanımladığı	-11.6131
▁ihtiyar	-11.6132
▁adaleti	-11.6133
▁gerekliydi	-11.6134
▁kalbim	-11.6135
▁kombinasyonu	-11.6135
▁kullanması	-11.6135
▁değişmedi	-11.6136
▁delice	-11.6136
▁yarayacak	-11.6137
▁olmadıklarını	-11.6137
▁sahipleri	-11.6138
▁Kes	-11.6138
▁aşılar	-11.614
bilirim	-11.6143
▁edildiğinde	-11.6144
▁hayranlık	-11.6144
▁dönüşümü	-11.6145
emin	-11.6146
irsiniz	-11.6148
▁akıyor	-11.6148
▁kalbine	-11.615
▁işimizi	-11.6151
▁söyleniyor	-11.6152
▁kölelik	-11.6153
▁şaşırttı	-11.6153
▁İnan	-11.6154
▁vurgulama	-11.6154
▁bilimler	-11.6157
▁Bra	-11.6159
ladığım	-11.616
▁düşünmüş	-11.6163
▁şeklimizi	-11.6165
▁yolculukta	-11.6169
▁bağımlılığı	-11.6173
▁liderlerin	-11.6175
ER	-11.6175
▁Gerek	-11.6175
▁98	-11.6176
gas	-11.6177
bileceği	-11.6177
▁Hareketi	-11.6179
▁Annesi	-11.6184
▁formunda	-11.6186
▁paketi	-11.6188
▁maya	-11.6194
▁baskısı	-11.6195
▁sınıflandırma	-11.6196
▁grubunda	-11.6197
▁işçilerin	-11.6198
▁alanındaki	-11.6199
▁duyur	-11.62
vo	-11.62
▁kuşağı	-11.62
▁duyduğumda	-11.6201
▁toplantısı	-11.6201
▁konuşacağı	-11.6203
▁etkilediğini	-11.6206
▁uret	-11.6208
▁gö	-11.6209
▁umuyoru	-11.6209
▁kalmasını	-11.621
▁tutucu	-11.6212
▁seçebilir	-11.6215
▁Lama	-11.6215
▁aslan	-11.6215
▁rastladı	-11.6215
▁anneleri	-11.6216
rizon	-11.6217
maması	-11.6217
nizdeki	-11.6217
▁Aralarında	-11.6218
▁Hum	-11.6219
▁sahası	-11.622
layabilirsiniz	-11.6221
▁gelene	-11.6226
▁olduğumuzdan	-11.6226
▁bilincin	-11.6229
▁fiziği	-11.623
▁uzayı	-11.6231
▁çıkmasını	-11.6233
▁etmekti	-11.6237
▁yapmada	-11.6238
▁sağlaması	-11.624
lesi	-11.6243
▁uçurum	-11.6244
▁silahların	-11.6247
▁aslın	-11.625
▁katılmaya	-11.6251
▁uyguladık	-11.6252
▁vurma	-11.6253
▁tümörü	-11.6256
▁defalar	-11.6256
▁data	-11.6256
▁çalışanların	-11.6257
▁sürmek	-11.6259
▁üçüncüsü	-11.626
▁olamazdı	-11.6261
▁etkileşimde	-11.6266
▁yönlendir	-11.6266
▁söyleyebileceği	-11.6266
▁Kendiniz	-11.6269
meniz	-11.6269
▁rastla	-11.6271
▁edecekti	-11.6271
▁mıknatıs	-11.6272
▁köyü	-11.6272
▁öyküler	-11.6273
▁uzaylı	-11.6276
▁objeleri	-11.6276
▁giz	-11.6278
▁emir	-11.6279
▁gözlemler	-11.628
▁eviniz	-11.6281
▁partner	-11.6283
▁canavarı	-11.6283
▁Köpek	-11.6284
▁giyiyor	-11.6285
▁nöronların	-11.6286
▁olabil	-11.6288
▁imkân	-11.629
▁Isa	-11.629
▁koruması	-11.6292
▁Belirl	-11.6296
▁farz	-11.6296
RIS	-11.6299
▁ez	-11.6306
▁37	-11.6306
▁yeteneğin	-11.6307
▁cins	-11.6307
▁yazıları	-11.6309
▁gitmesini	-11.6311
▁atıklar	-11.6311
▁yayınlama	-11.6314
▁kimliğini	-11.6314
▁kapatıyor	-11.6316
▁hissediyorlar	-11.6316
▁kaplumbağa	-11.6318
▁onlari	-11.6318
▁buhar	-11.6319
▁öleceği	-11.6319
▁kapattı	-11.6321
▁adayı	-11.6322
▁çatlaklar	-11.6323
▁konuşmuyor	-11.6323
▁duyabiliyor	-11.6323
▁hangisini	-11.6324
▁genin	-11.6326
▁Dar	-11.6329
▁başlandı	-11.6333
▁canlıların	-11.6334
▁mantarlar	-11.6334
▁benliğin	-11.6337
▁çekili	-11.6338
▁çarp	-11.6338
▁ayarlama	-11.6338
▁kadından	-11.6339
mur	-11.634
malıdır	-11.634
▁boyuta	-11.6342
▁sürdüğü	-11.6342
▁azalması	-11.6343
▁aşılama	-11.6344
şte	-11.6345
▁dolaşıyor	-11.6345
▁göstermişti	-11.6347
▁telefonunu	-11.6349
▁Temiz	-11.6349
▁çekiyordu	-11.635
▁dilleri	-11.635
▁çoğunluğunu	-11.6352
▁materyalleri	-11.6355
iv	-11.6355
▁sansür	-11.6355
▁kabin	-11.6355
▁vermesini	-11.6355
▁çıkartma	-11.6357
▁deneyimim	-11.6359
giniz	-11.636
▁piksel	-11.6361
likli	-11.6361
▁vurgu	-11.6362
ld	-11.6365
▁leke	-11.6365
▁bölgeden	-11.6365
gal	-11.6366
ilmis	-11.6368
▁sokaklar	-11.6368
▁Söyle	-11.6369
▁izley	-11.637
sy	-11.637
▁karma	-11.6371
ille	-11.6371
▁bölün	-11.6372
▁primat	-11.6373
▁bacağı	-11.6373
▁firmalar	-11.6375
▁gerektiğinde	-11.6375
▁deneyimin	-11.6376
▁olabilme	-11.6376
▁devrimin	-11.6377
▁gör	-11.6378
▁etrafımızda	-11.6382
▁kaybettiğimiz	-11.6382
▁Tit	-11.6383
▁biyologlar	-11.6384
▁yaramadı	-11.6385
▁değiştirdik	-11.6388
▁coşku	-11.6388
▁öyleydi	-11.6389
▁cevapladı	-11.6389
▁Albert	-11.6389
▁ALS	-11.639
▁Belediye	-11.639
▁Meclis	-11.639
▁Muhabir	-11.639
▁bilimadamı	-11.639
▁hamburger	-11.639
▁komplo	-11.639
▁Sierra	-11.639
▁Çılgın	-11.639
▁Olağanüstü	-11.639
▁biyoteknoloji	-11.639
▁cilt	-11.639
▁rock	-11.639
▁silikon	-11.639
▁Unutmayın	-11.6391
▁doğrultusun	-11.6391
▁iflas	-11.6391
▁yürütüyor	-11.6391
▁sarmal	-11.6391
▁bahsedeyim	-11.6392
▁Johnny	-11.6392
▁mega	-11.6392
▁minnettarı	-11.6392
▁kurucusu	-11.6392
▁Free	-11.6392
▁burs	-11.6392
▁keman	-11.6392
▁1984	-11.6393
▁harcanan	-11.6393
▁heyecanlandıran	-11.6393
▁kaka	-11.6394
▁Hmm	-11.6394
▁tutuluyor	-11.6394
▁otonom	-11.6394
▁başınıza	-11.6395
▁Ordu	-11.6395
▁gerçekleşecek	-11.6395
▁Yazar	-11.6396
▁başarabiliriz	-11.6397
▁Kep	-11.6397
mily	-11.6397
▁isminde	-11.6397
▁bilişim	-11.6398
▁kurtulan	-11.64
▁kalacağız	-11.64
▁yönlendiren	-11.64
▁farklılığı	-11.6401
▁kask	-11.6401
▁araştırmacıları	-11.6402
▁birleştirmek	-11.6403
▁TS	-11.6403
▁resimlerin	-11.6403
▁öneriyor	-11.6404
▁Canlı	-11.6405
▁yükleme	-11.6407
▁bilmiyorsunuz	-11.6408
▁öldürüldü	-11.6408
▁etkilenen	-11.6408
▁karış	-11.6408
▁kötülük	-11.6409
▁açmaya	-11.6409
▁kazanmış	-11.6409
▁süpermarket	-11.6414
▁adlandır	-11.6414
▁yüzünde	-11.6414
▁tabanı	-11.6415
larınıza	-11.6416
▁hissediyordum	-11.6417
▁kaydetmek	-11.6418
▁gerilim	-11.642
▁okun	-11.6421
▁Düşündüm	-11.6422
▁türümüzü	-11.6426
▁Sovyet	-11.6426
▁çizgide	-11.6427
▁eğitimini	-11.643
▁ülkemizde	-11.6432
hall	-11.6433
lamayı	-11.6434
▁adamım	-11.6434
ğımda	-11.6434
▁Boyle	-11.6434
bilirler	-11.6434
▁getiril	-11.6435
▁hastaneler	-11.6436
▁düşüncelerini	-11.6437
▁Orman	-11.6437
▁Bekle	-11.6437
▁ıslık	-11.6439
▁tasarımcıların	-11.6441
▁kazancı	-11.6441
▁endişelen	-11.6446
▁anlaşılıyor	-11.6449
▁Bati	-11.6452
▁dinledim	-11.6453
▁grafikte	-11.6454
mazsa	-11.6454
▁sunar	-11.6455
▁yabancılar	-11.6455
▁bulmalıyı	-11.646
layabilecek	-11.6461
▁öngör	-11.6461
▁Ch	-11.6461
▁Birbirimiz	-11.6461
▁taşlar	-11.6463
▁yükseklik	-11.6465
▁yakalıyor	-11.6468
▁kullanın	-11.6469
ümün	-11.647
▁israf	-11.6471
▁devreler	-11.6476
▁tıbbın	-11.6477
▁uyandıra	-11.6478
▁Kür	-11.6478
▁yaptıklarında	-11.6481
89	-11.6483
▁erişti	-11.6485
lilik	-11.6485
▁Gid	-11.6486
▁zamanımı	-11.6487
▁yüzüyor	-11.6489
▁bulabiliyor	-11.6489
▁çözdü	-11.649
▁dibin	-11.649
▁demekti	-11.6491
▁paraları	-11.6494
▁uzaklarda	-11.6494
▁katta	-11.6495
▁gülme	-11.6498
▁belirliyor	-11.6498
▁efekt	-11.6499
▁yazıldı	-11.6503
▁fabrikada	-11.6504
▁durun	-11.6504
way	-11.6507
▁görebilmek	-11.6507
ranın	-11.6509
▁akın	-11.651
▁hikâyeleri	-11.6511
▁uyandı	-11.6512
▁uygulayabilir	-11.6513
▁evlerini	-11.6515
▁şaşkın	-11.6516
▁sürdürüyor	-11.6518
▁Ateş	-11.6519
▁çalıştıklarını	-11.6519
▁gösterin	-11.6522
▁parmakları	-11.6522
▁sonuncusu	-11.6522
▁tasarımlar	-11.6524
▁ışınları	-11.6524
▁Line	-11.6526
▁Pla	-11.6526
▁â	-11.6526
▁varlığın	-11.6527
▁Balık	-11.653
▁anlattıkları	-11.6531
▁yansıta	-11.6531
▁gördüğünüzü	-11.6531
▁kullanıcılar	-11.6541
▁Bre	-11.6542
▁planlar	-11.6543
▁yüzleşmek	-11.6543
▁bildiğini	-11.6546
▁fizikçiler	-11.6548
jen	-11.655
▁kapısını	-11.6554
▁160	-11.6557
▁pozisyonu	-11.6558
▁salonunda	-11.6561
▁kaçtı	-11.6561
▁koridor	-11.6563
▁mum	-11.6563
▁şaşırma	-11.6564
tığım	-11.6567
▁sayfaları	-11.6568
▁hazırlık	-11.6568
sıra	-11.6573
▁edeceği	-11.6574
▁dağılım	-11.6574
▁Hayatı	-11.6574
▁karıştır	-11.6575
▁yemeğin	-11.6577
▁iddialı	-11.6578
▁gelmekte	-11.6578
▁çarpış	-11.6578
▁babaları	-11.6582
▁göreve	-11.6585
▁stratejisi	-11.6589
▁Yabancı	-11.6589
mezler	-11.659
tasyon	-11.659
cilerin	-11.6591
▁tasarladığımız	-11.6594
▁etraflarında	-11.6595
▁yayını	-11.6597
bor	-11.66
▁hızında	-11.6602
▁hesapla	-11.6602
▁kolaylaştır	-11.6603
▁hisleri	-11.6607
lmak	-11.6608
▁destekler	-11.6612
▁yükselmesi	-11.6612
▁ömrünü	-11.6615
liyoruz	-11.6615
▁oğlan	-11.6615
▁girdiği	-11.6615
▁düzenler	-11.6617
SB	-11.6617
salar	-11.6618
▁platformu	-11.6618
09	-11.6618
▁Adım	-11.662
▁inanmıyor	-11.6621
▁çabalar	-11.6621
▁ağac	-11.6624
▁sektörde	-11.6624
lduğumuz	-11.6624
rdiniz	-11.6627
▁çölü	-11.6628
▁şema	-11.6628
▁yapılandır	-11.6631
▁yönlerini	-11.6631
▁toparla	-11.6634
▁karşın	-11.6635
▁Ru	-11.6637
▁güvensiz	-11.6641
▁Suç	-11.6644
▁çektiğimiz	-11.6646
▁oluşum	-11.6647
▁oluşturulmuş	-11.6648
▁hip	-11.6649
▁sensörleri	-11.665
▁Kural	-11.6652
▁ayaklı	-11.6652
▁ürettik	-11.6653
▁trend	-11.6654
▁genişleye	-11.6661
▁serin	-11.6661
▁Şehri	-11.6662
▁anımsa	-11.6664
▁fonksiyonları	-11.6664
▁ortamlar	-11.6665
▁müşterileri	-11.6667
cılığı	-11.6669
▁edemiyor	-11.6669
▁favorim	-11.667
▁çeşitliliğin	-11.6673
▁trafiği	-11.6675
▁gördüğümüzde	-11.6677
▁edilmeye	-11.6678
▁haritada	-11.6678
▁istemiş	-11.6678
▁yarayı	-11.668
and	-11.668
▁bitme	-11.6683
▁girdiğiniz	-11.6685
▁38	-11.6685
25	-11.6686
▁yaklaştı	-11.669
▁Fotoğraf	-11.6692
▁Mag	-11.6693
shi	-11.6694
▁ezber	-11.6695
▁Sevgi	-11.6695
▁katmak	-11.6696
▁Taş	-11.6697
▁vermem	-11.67
▁Şiddet	-11.6702
▁telefonlarını	-11.6702
▁Bilinç	-11.6703
▁geçirebilir	-11.6703
▁tırnak	-11.6703
ograf	-11.6704
▁ekliyor	-11.6704
▁olasılıklar	-11.6705
▁ilgilendi	-11.6705
▁şablon	-11.6705
▁meşru	-11.6705
▁katılımı	-11.6707
▁mucit	-11.6707
▁yapılmasını	-11.6707
▁koşuyor	-11.6713
▁pişman	-11.6715
▁reaksiyon	-11.6715
▁öfkeli	-11.6715
▁KA	-11.6715
▁ortadaki	-11.6716
abildik	-11.6717
▁kökten	-11.6717
▁donanımı	-11.6718
▁tuval	-11.6721
▁Görüntü	-11.6723
▁Philadelphia	-11.6724
▁Second	-11.6724
▁dopamin	-11.6724
▁guzel	-11.6724
▁hammadde	-11.6724
▁manevra	-11.6724
▁muzdarip	-11.6724
▁sertifika	-11.6724
▁tereddüt	-11.6724
▁Gezgin	-11.6724
▁Kağıt	-11.6724
▁rasyonel	-11.6724
▁reçine	-11.6724
▁sünger	-11.6724
▁önsezi	-11.6724
▁seleksiyon	-11.6724
▁Chuck	-11.6724
▁Gazze	-11.6724
▁Teori	-11.6724
▁cevre	-11.6724
▁düzinelerce	-11.6724
▁zalim	-11.6724
▁gözükür	-11.6724
▁bozulmuş	-11.6724
▁çoban	-11.6724
▁çözünürlüklü	-11.6724
▁Şang	-11.6724
▁cuma	-11.6724
▁prova	-11.6725
▁lastik	-11.6725
▁Louis	-11.6726
▁Çalışan	-11.6726
▁iletken	-11.6726
▁resifleri	-11.6727
▁havacılık	-11.6727
▁izleyerek	-11.6728
utube	-11.6729
▁ishal	-11.6729
▁yerleş	-11.673
▁sevmiyor	-11.673
▁Duru	-11.6731
▁46	-11.6731
▁duyarsınız	-11.6731
▁rehberlik	-11.6732
▁aklımı	-11.6732
▁açılardan	-11.6733
▁filmlerin	-11.6733
▁koşucu	-11.6734
▁sektörün	-11.6735
▁uygarlığı	-11.6735
▁Etrafta	-11.6736
▁dusunce	-11.6736
▁dinlerken	-11.6736
▁asil	-11.6737
▁yoksulluğu	-11.6737
▁zarf	-11.6737
▁tanıtma	-11.6738
▁kalınlığında	-11.6738
▁adlandırılıyor	-11.6739
irsek	-11.6741
kac	-11.6741
▁otoyol	-11.6741
▁dönüştüren	-11.6742
▁form	-11.6742
▁gideceğim	-11.6743
▁Gelecekte	-11.6743
malıydım	-11.6744
▁Kom	-11.6744
hio	-11.6745
▁yapıların	-11.6745
▁yapım	-11.6747
▁Elimizdeki	-11.6747
▁ekosistemin	-11.6747
▁akıt	-11.675
▁çalı	-11.675
▁salınımı	-11.6751
nter	-11.6753
▁yapılmamış	-11.6753
▁rekabetçi	-11.6754
▁biriniz	-11.6754
▁kırıcı	-11.6754
▁aramızdaki	-11.6755
▁dayanıklılık	-11.6755
ilmişti	-11.6756
▁kalabilme	-11.6757
▁sunan	-11.6757
▁set	-11.6759
▁dişli	-11.6759
▁örgütü	-11.676
▁tehlikede	-11.6762
▁takıldı	-11.6762
▁azaltıyor	-11.6762
▁akar	-11.6763
▁biteni	-11.6764
▁Santa	-11.6765
▁tanıtım	-11.6765
▁söylerken	-11.6766
▁arttığını	-11.6768
▁anladığımız	-11.6768
▁kalkan	-11.6769
▁manası	-11.677
▁götürdük	-11.6772
▁sür	-11.6772
▁ısır	-11.6772
▁çözülme	-11.6772
▁üreticileri	-11.6773
▁Carne	-11.6773
ligin	-11.6775
▁düşmüştü	-11.6778
▁sessizliği	-11.6779
▁Ruh	-11.6782
▁kalkar	-11.6783
▁operasyonu	-11.6783
▁rahatsızlık	-11.6785
▁anlatım	-11.6786
▁atölye	-11.6788
▁Mimari	-11.6788
▁yürür	-11.6789
▁Mat	-11.6791
▁şaşır	-11.6791
▁paylaşıyorlar	-11.6792
▁çalışırı	-11.6792
▁Sara	-11.6793
▁balinaların	-11.6793
▁yayma	-11.6794
▁örüntü	-11.6794
▁oyunların	-11.6795
▁annesini	-11.6797
▁hisseden	-11.6798
▁yapımcısı	-11.6798
▁getirilmiş	-11.6801
▁fiziğin	-11.6801
▁içerisindeki	-11.6801
lacaksınız	-11.6802
▁Annemi	-11.6803
elişmekte	-11.6803
▁Not	-11.6805
▁gösterilmiş	-11.6807
▁192	-11.6809
▁Kazan	-11.6809
▁Takım	-11.6809
▁slaytta	-11.6812
▁gidebiliyor	-11.6816
▁maaşı	-11.6818
▁simülasyon	-11.6823
▁Dinle	-11.6825
dison	-11.6826
▁satma	-11.6826
▁toplumları	-11.6828
▁çıkıyordu	-11.6829
▁paylaşıyor	-11.6831
▁yenileme	-11.6831
▁diyabet	-11.6832
▁alem	-11.6833
▁açıl	-11.6834
▁edindi	-11.6835
▁şeklimiz	-11.6836
▁Görü	-11.6837
▁daral	-11.6838
▁domuzu	-11.6839
▁uçtu	-11.6839
▁yukarıdaki	-11.684
▁Moda	-11.6841
▁oturum	-11.6841
▁alışma	-11.6842
▁atmosferin	-11.6843
layalım	-11.6844
▁tırmanma	-11.6845
▁vücudunuzda	-11.6845
▁bireyleri	-11.6847
▁imal	-11.6848
▁okuyu	-11.6849
lıyorsunuz	-11.6849
▁ateşli	-11.685
▁Ez	-11.6853
▁buluyorlar	-11.6853
işi	-11.6854
▁birikimi	-11.6855
▁binası	-11.6856
▁iletişimin	-11.6859
▁iskele	-11.686
▁mevcuttu	-11.6861
▁odaklanıyor	-11.6862
▁Çağı	-11.6862
fu	-11.6863
▁başkanlı	-11.6864
▁ordusu	-11.6866
▁kasabada	-11.6867
▁örgü	-11.6872
leştiği	-11.6874
▁iletmek	-11.6876
▁açın	-11.6877
▁tamamının	-11.6878
▁öğretebilir	-11.6878
▁anlamıyor	-11.6879
▁kor	-11.6881
▁kromozomu	-11.6881
▁nedenleri	-11.6882
▁kaçını	-11.6882
▁ışın	-11.6882
▁kısımlarında	-11.6883
▁severler	-11.6884
▁vücudunda	-11.6884
▁tahminim	-11.6884
▁mekanizmaları	-11.6885
▁ulaşmış	-11.6888
▁kanalları	-11.6888
▁bağımsızlık	-11.689
▁Gul	-11.6891
▁düşecek	-11.6894
▁gözlemci	-11.6896
leşecek	-11.6897
▁evdeki	-11.6898
▁şiiri	-11.6898
[...]
