<unk>	0
<s>	0
</s>	0
▁.	-2.97264
▁,	-3.36356
▁bir	-3.95647
▁	-4.21604
▁"	-4.2558
▁ve	-4.28918
n	-4.6171
▁bu	-4.67863
k	-4.69003
▁'	-4.86979
m	-4.90675
a	-4.99219
lar	-5.01736
e	-5.15642
ler	-5.22516
i	-5.24568
t	-5.24966
▁Bu	-5.29387
▁da	-5.32259
▁için	-5.32357
▁de	-5.41606
r	-5.48963
▁Ve	-5.5309
l	-5.53578
▁çok	-5.56697
z	-5.57342
▁?	-5.62281
la	-5.67425
leri	-5.68184
de	-5.68586
ları	-5.6944
li	-5.70473
▁daha	-5.70903
y	-5.73227
da	-5.78167
ı	-5.79945
le	-5.8273
si	-5.90024
s	-5.90202
▁ki	-5.91174
▁var	-5.91653
p	-5.93175
ma	-5.96789
▁)	-5.98953
(	-5.99053
ya	-5.99212
▁:	-6.01961
▁gibi	-6.02092
ü	-6.02528
in	-6.03667
▁şey	-6.05537
▁o	-6.05969
▁olarak	-6.08075
ye	-6.11586
▁ne	-6.13036
an	-6.14347
den	-6.14892
▁olan	-6.16668
lı	-6.16687
▁—	-6.19579
er	-6.1977
u	-6.2284
▁ya	-6.23181
en	-6.28537
ce	-6.28996
▁kadar	-6.29876
sı	-6.34035
▁en	-6.35505
▁her	-6.3888
di	-6.39291
me	-6.4016
ş	-6.40508
dan	-6.41186
na	-6.42341
▁değil	-6.42472
ın	-6.4366
ne	-6.43845
▁ile	-6.4728
▁zaman	-6.48448
ta	-6.48453
lik	-6.48528
ti	-6.49609
nin	-6.49797
te	-6.52351
▁iyi	-6.53611
ların	-6.54251
▁olduğunu	-6.55221
ki	-6.55247
▁-	-6.55374
lerin	-6.56814
▁Bir	-6.57334
ca	-6.59112
▁büyük	-6.59617
dir	-6.62824
▁ama	-6.63116
o	-6.64671
yi	-6.65568
lık	-6.65571
▁Ama	-6.66348
▁sonra	-6.66472
▁O	-6.66865
ra	-6.67719
▁bunu	-6.68626
nın	-6.69166
▁nasıl	-6.70543
ri	-6.73083
dır	-6.76084
▁sadece	-6.77212
d	-6.77449
larını	-6.78274
ni	-6.78487
mak	-6.7945
lerini	-6.79727
f	-6.79967
sa	-6.81562
▁yıl	-6.82261
▁önce	-6.83122
tı	-6.83875
▁A	-6.84677
▁çünkü	-6.85625
im	-6.86726
▁mi	-6.87799
▁şu	-6.88166
▁şekilde	-6.88674
yı	-6.89909
re	-6.911
▁iki	-6.91462
dı	-6.9182
▁kendi	-6.9313
▁fazla	-6.93734
▁insan	-6.94152
▁yeni	-6.95766
h	-6.96367
ir	-6.99588
ır	-6.99723
▁ben	-6.9979
lan	-7.01523
▁aynı	-7.01733
se	-7.02135
▁;	-7.02648
mek	-7.03647
▁benim	-7.04135
lara	-7.04317
▁gerçekten	-7.04672
▁yer	-7.06463
ç	-7.06745
▁S	-7.06872
▁a	-7.08036
lere	-7.08255
▁Yani	-7.08393
um	-7.08695
ini	-7.08986
▁Şimdi	-7.09079
▁hakkında	-7.09691
ba	-7.09709
▁diğer	-7.09957
mi	-7.12125
▁farklı	-7.13034
ar	-7.13083
▁olduğu	-7.13799
▁tüm	-7.13886
▁sahip	-7.14095
du	-7.14315
▁Ben	-7.14456
▁ilk	-7.15738
ci	-7.16688
▁başka	-7.16823
▁an	-7.17808
ken	-7.18488
un	-7.18746
g	-7.1877
tan	-7.20542
▁doğru	-7.21026
▁insanlar	-7.21494
▁e	-7.21942
▁in	-7.22546
lu	-7.22852
▁ilgili	-7.23807
▁içinde	-7.24538
ecek	-7.24618
▁biz	-7.25695
▁yok	-7.25885
uz	-7.26045
▁al	-7.26395
▁i	-7.26751
▁böyle	-7.27549
▁E	-7.2769
▁aslında	-7.28308
▁son	-7.28465
▁bile	-7.28615
▁gün	-7.29672
▁burada	-7.29743
iz	-7.29953
▁küçük	-7.30777
▁bunun	-7.3083
▁iş	-7.31169
nda	-7.31251
daki	-7.31462
b	-7.31469
ydi	-7.31685
▁yol	-7.32
▁biri	-7.32753
▁♫	-7.32987
sini	-7.32991
▁C	-7.33118
ıyor	-7.33154
mış	-7.3369
sine	-7.34463
yla	-7.34522
acak	-7.34911
▁Gülüşmeler	-7.35911
▁tek	-7.37079
▁veya	-7.3719
maya	-7.37698
v	-7.37888
▁oldu	-7.37967
▁gerçek	-7.3968
▁ise	-7.39774
at	-7.39928
ğ	-7.40744
ım	-7.40946
sel	-7.41026
▁bizim	-7.41248
ine	-7.4135
▁önemli	-7.41795
c	-7.42058
▁eğer	-7.42067
lama	-7.42296
▁şeyler	-7.42471
ını	-7.42996
va	-7.4332
▁Ma	-7.44096
il	-7.44325
▁Faka	-7.44983
▁bana	-7.45232
miş	-7.45269
ydı	-7.45958
▁ha	-7.47342
larda	-7.48559
▁size	-7.48585
▁karşı	-7.49321
tik	-7.49468
tir	-7.4948
et	-7.49831
▁bilgi	-7.50033
ten	-7.5022
niz	-7.50585
▁Eğ	-7.50808
ha	-7.50953
▁biraz	-7.51139
ıp	-7.51846
▁teknoloji	-7.52018
ik	-7.52296
▁geri	-7.523
inde	-7.52695
st	-7.52884
abilir	-7.53305
lardan	-7.53305
▁te	-7.53602
dü	-7.53802
miz	-7.54073
▁Ya	-7.54274
▁bütün	-7.54305
lerde	-7.54321
▁Ka	-7.5434
▁K	-7.54975
▁B	-7.55057
▁üzerinde	-7.55309
▁ta	-7.55648
deki	-7.56136
arak	-7.56433
▁hiç	-7.56663
▁kişi	-7.56748
▁Ha	-7.56757
▁olma	-7.56933
larının	-7.57036
ün	-7.57062
▁bak	-7.57523
▁göre	-7.57735
▁hareket	-7.57757
▁ev	-7.57888
el	-7.58021
ip	-7.58028
▁şimdi	-7.58472
cı	-7.58514
ğı	-7.58548
▁zor	-7.587
▁insanların	-7.58706
▁üç	-7.58761
▁diye	-7.59346
iyor	-7.59529
yle	-7.59609
▁soru	-7.60316
▁az	-7.606
▁ay	-7.60662
▁yapı	-7.61087
▁neden	-7.61426
sanız	-7.61815
tır	-7.61833
▁Bunu	-7.61914
▁çıkar	-7.6193
▁vardı	-7.62081
lerine	-7.63915
▁G	-7.64304
▁mı	-7.6437
▁onu	-7.64648
▁ver	-7.64684
▁olacak	-7.65041
▁yüzden	-7.65295
liği	-7.65431
▁dünya	-7.65631
lerden	-7.65657
▁su	-7.6602
▁k	-7.66038
▁tür	-7.66364
larına	-7.66574
▁olması	-7.66578
ur	-7.66864
▁tam	-7.67094
▁zamanda	-7.67384
▁para	-7.67623
ebilir	-7.68123
gi	-7.68758
lığı	-7.68994
▁bazı	-7.69709
▁etme	-7.69771
▁at	-7.69965
dim	-7.70011
▁yapma	-7.70049
su	-7.70282
ına	-7.70307
▁Çünk	-7.70348
▁Ne	-7.70359
siniz	-7.70644
▁yapmak	-7.7129
nı	-7.7155
on	-7.71719
ndan	-7.71903
▁çalışma	-7.71975
▁hikaye	-7.71975
ça	-7.72052
▁tarafından	-7.72861
ması	-7.72986
lü	-7.73308
meye	-7.73427
▁Kahkaha	-7.73838
▁alan	-7.73906
sını	-7.73975
lerinin	-7.74223
▁olabilir	-7.74393
▁oluyor	-7.74633
or	-7.74883
▁kullan	-7.7516
▁İşte	-7.7559
▁olmak	-7.7565
larında	-7.75757
▁güzel	-7.7579
▁konu	-7.75934
▁istiyorum	-7.76264
lerle	-7.76467
siz	-7.76625
▁Çok	-7.77672
▁göz	-7.77675
▁D	-7.77788
ıcı	-7.78434
▁Dünya	-7.78873
▁fark	-7.79092
▁Biz	-7.79137
▁H	-7.7954
ıl	-7.80212
▁kur	-7.80283
▁nın	-7.80442
▁mu	-7.80949
ro	-7.8098
nde	-7.81054
▁etmek	-7.81213
▁ba	-7.8125
▁Ba	-7.81333
sına	-7.81429
ö	-7.81792
nız	-7.81825
ür	-7.82299
erek	-7.82315
▁ma	-7.82542
ış	-7.82545
▁süre	-7.82611
▁ka	-7.82887
▁T	-7.82946
▁ortaya	-7.83173
▁Peki	-7.83489
▁bunlar	-7.8367
▁açık	-7.83729
sız	-7.83781
▁el	-7.83927
▁ak	-7.8411
▁3	-7.84337
▁oldukça	-7.84544
▁yap	-7.84613
▁olur	-7.8493
▁bize	-7.84931
▁etki	-7.85085
ında	-7.85331
larla	-7.8542
▁baş	-7.85456
▁10	-7.85963
yor	-7.86088
tu	-7.86362
dım	-7.86513
▁Bunun	-7.86838
▁karar	-7.86878
▁birkaç	-7.87174
▁fakat	-7.87292
0	-7.87736
lo	-7.87956
▁kötü	-7.88012
▁ara	-7.88245
sak	-7.88574
dur	-7.88757
sal	-7.88885
▁yani	-7.88896
▁geliyor	-7.88907
▁Her	-7.89298
▁şeyi	-7.89506
▁tekrar	-7.89591
▁devam	-7.89596
▁Burada	-7.89762
man	-7.89779
▁kal	-7.89805
▁beni	-7.89819
al	-7.89867
▁ye	-7.89883
mız	-7.89886
▁2	-7.89928
▁dedi	-7.90119
▁çocuk	-7.90154
▁me	-7.90362
sunuz	-7.90817
yu	-7.90987
▁uzun	-7.9107
to	-7.9147
▁f	-7.91632
▁Aslında	-7.9169
dum	-7.92097
inin	-7.92298
ga	-7.92485
▁anda	-7.92539
▁getir	-7.92901
▁durum	-7.92966
▁20	-7.92998
▁ko	-7.93026
▁onlar	-7.93348
▁Alkış	-7.93684
▁onları	-7.94105
be	-7.94124
sin	-7.94241
▁orada	-7.94395
▁adam	-7.94715
▁hayal	-7.94932
▁geldi	-7.95032
▁gerek	-7.9513
▁Siz	-7.95758
bi	-7.95882
▁yaşam	-7.96023
sinde	-7.96254
▁boyunca	-7.96421
çi	-7.96465
diği	-7.96517
▁kat	-7.96773
▁konuşma	-7.96955
▁Alkışlar	-7.97037
seniz	-7.97115
▁hayat	-7.97457
lardı	-7.97466
▁onun	-7.97574
lerinde	-7.97613
sinin	-7.9775
mayı	-7.97948
▁göster	-7.98251
▁yakın	-7.98755
▁iç	-7.99405
▁kaç	-7.9945
▁yüzde	-7.9953
▁ın	-7.99542
▁aile	-7.99576
▁bilgisayar	-7.99613
▁ülke	-7.99693
dik	-7.99982
▁kadın	-8.004
w	-8.00598
▁bilim	-8.00615
▁pek	-8.00685
ru	-8.00838
▁sorun	-8.00841
▁milyon	-8.00843
min	-8.0105
iyoruz	-8.01297
▁Daha	-8.01485
▁ek	-8.01521
▁gelen	-8.01682
▁basit	-8.01682
▁Afrika	-8.01731
▁birçok	-8.018
hi	-8.02047
▁di	-8.02369
▁den	-8.02386
sü	-8.026
ge	-8.02985
▁bölge	-8.02986
▁F	-8.03159
▁zorunda	-8.03196
▁yüksek	-8.03271
▁!	-8.03542
▁Ko	-8.03655
çe	-8.03827
▁değiştir	-8.03838
▁parça	-8.04059
▁Anca	-8.04299
▁Evet	-8.04345
▁ulaş	-8.04493
▁İ	-8.04763
▁ç	-8.05041
▁U	-8.05075
▁s	-8.05092
▁000	-8.05173
▁yardım	-8.05188
▁Sa	-8.05217
za	-8.05225
▁hiçbir	-8.05494
▁nokta	-8.05818
▁arasında	-8.05987
▁ö	-8.06029
▁kazan	-8.06594
zi	-8.06615
▁aç	-8.06756
▁belki	-8.06975
▁enerji	-8.07193
diğimiz	-8.07234
▁ses	-8.07304
vi	-8.0731
▁kız	-8.07475
sınız	-8.0762
leme	-8.07636
▁yarat	-8.07893
▁Be	-8.08025
▁P	-8.0888
▁tamamen	-8.0923
▁öyle	-8.09532
▁do	-8.09785
cu	-8.09886
▁savaş	-8.10003
ğa	-8.10262
mda	-8.1041
▁veri	-8.10588
▁proje	-8.10609
rken	-8.1063
▁Bunlar	-8.10687
▁birlikte	-8.10698
▁bugün	-8.10745
sun	-8.11056
▁yaş	-8.11067
▁siz	-8.11168
lerinden	-8.11181
▁dolar	-8.11387
dığı	-8.11571
▁harika	-8.12355
▁sev	-8.12592
▁araba	-8.12999
sek	-8.1301
▁örnek	-8.13358
▁inan	-8.13427
yan	-8.13607
▁temel	-8.13976
▁ediyor	-8.13976
dık	-8.14092
▁hava	-8.14252
▁tanı	-8.14519
▁yerine	-8.14865
▁çalış	-8.15049
▁çoğu	-8.15134
po	-8.15213
▁öğren	-8.15248
5	-8.15258
▁gereken	-8.15321
▁değer	-8.15495
▁buna	-8.15841
▁saat	-8.15876
▁işte	-8.16246
▁sürü	-8.16295
▁yüz	-8.16344
ğu	-8.16387
imiz	-8.171
▁eder	-8.17179
▁De	-8.17313
▁dünyanın	-8.17613
luk	-8.17683
▁be	-8.17898
▁çevre	-8.18204
▁ona	-8.1823
kı	-8.18232
üyor	-8.18478
sında	-8.18623
▁üzerine	-8.18634
▁Sonra	-8.18698
larından	-8.18868
▁artık	-8.19046
▁şöyle	-8.19104
▁hasta	-8.19966
mı	-8.20096
ının	-8.20732
ünü	-8.2107
▁En	-8.21383
▁iste	-8.21825
▁düşün	-8.21834
▁fikir	-8.21899
▁çık	-8.22011
ol	-8.22093
▁ederim	-8.22222
▁çek	-8.2231
ul	-8.22368
▁eğitim	-8.22493
A	-8.22522
▁sistem	-8.2253
▁daki	-8.22575
us	-8.22751
S	-8.22852
▁yerde	-8.22938
ter	-8.23051
▁yaz	-8.23055
▁yolu	-8.23162
unu	-8.23247
▁eden	-8.2337
▁herkes	-8.23403
▁gir	-8.23421
▁sene	-8.23604
larımız	-8.23975
▁Şu	-8.23985
▁sağ	-8.24073
▁Böylece	-8.24322
diğim	-8.24823
▁üret	-8.24905
yım	-8.25096
▁geç	-8.25353
▁tane	-8.25436
imi	-8.25494
dığımız	-8.25498
nu	-8.25574
▁Amerika	-8.2569
▁nin	-8.26073
▁mü	-8.26191
▁konusunda	-8.26297
▁kontrol	-8.2643
▁vardır	-8.26479
▁toplum	-8.26726
▁kim	-8.26801
▁hızlı	-8.27139
▁J	-8.27243
lerimiz	-8.2757
ch	-8.27573
ley	-8.27609
elim	-8.27641
▁başladı	-8.27748
çı	-8.27832
▁Al	-8.27989
tü	-8.28289
luğu	-8.2839
ıyoruz	-8.28409
▁W	-8.28626
ey	-8.28796
▁ilişki	-8.29207
▁araştırma	-8.29334
ıyorum	-8.29371
▁onların	-8.29496
▁kolay	-8.29684
▁oluştur	-8.29927
▁söz	-8.30018
▁gelir	-8.30086
▁söyley	-8.3009
▁yara	-8.30497
abiliriz	-8.30584
tık	-8.3062
▁Sade	-8.30837
▁Ş	-8.31073
▁gel	-8.31135
ve	-8.31152
▁altında	-8.31239
▁Tamam	-8.31329
▁bizi	-8.31389
▁ilginç	-8.31785
▁genç	-8.31841
2	-8.32079
sının	-8.32102
▁4	-8.32174
▁kaynak	-8.32348
▁özel	-8.32526
▁yeniden	-8.3263
▁sosyal	-8.32721
rt	-8.33049
▁dair	-8.33089
▁büyü	-8.33336
▁si	-8.33339
▁işe	-8.33362
▁dört	-8.33477
▁yaklaşık	-8.33484
▁hem	-8.33791
▁oda	-8.33795
▁ancak	-8.33799
▁sonunda	-8.3381
bu	-8.34052
▁200	-8.3447
▁gid	-8.34571
▁Bil	-8.34626
▁ister	-8.34639
dığını	-8.35068
▁5	-8.35096
▁bırak	-8.35364
yo	-8.35404
▁hale	-8.35714
▁Kendi	-8.35879
▁fotoğraf	-8.36137
▁problem	-8.36149
▁hafta	-8.36169
▁re	-8.36171
mesi	-8.36419
▁Ç	-8.36464
▁Onlar	-8.36804
muş	-8.3683
miyor	-8.36931
ber	-8.37035
bo	-8.37177
▁beyin	-8.37187
▁grup	-8.37246
▁okul	-8.3729
▁istediğim	-8.37385
gu	-8.37393
▁sizin	-8.37641
it	-8.37668
▁onlara	-8.37716
▁tak	-8.37725
▁kelime	-8.3774
şa	-8.37752
ah	-8.37897
▁elde	-8.3801
▁Me	-8.38183
▁I	-8.38296
▁sen	-8.38497
▁birşey	-8.38886
ebiliriz	-8.389
▁istiyor	-8.38933
diğini	-8.38992
▁film	-8.39536
▁ayrı	-8.39554
▁olmayan	-8.39566
▁inşa	-8.39718
▁hazır	-8.39846
tim	-8.39934
▁eski	-8.40045
fi	-8.4007
▁Ta	-8.40185
lığın	-8.40214
nden	-8.40357
iş	-8.4044
▁Benim	-8.40743
▁herhangi	-8.40855
muz	-8.40872
▁Teşekkürler	-8.40897
▁yı	-8.40907
▁haber	-8.40917
▁hemen	-8.4108
▁fikri	-8.41214
▁inanılmaz	-8.41881
▁parçası	-8.41974
▁Mo	-8.42157
▁görme	-8.42259
▁Ö	-8.42351
ren	-8.42411
is	-8.42481
▁demek	-8.42618
▁durumda	-8.42673
▁tut	-8.42744
▁An	-8.43097
â	-8.43212
▁hala	-8.43444
▁yapar	-8.43463
▁gezegen	-8.4365
▁yanı	-8.43705
▁paylaş	-8.4376
▁güç	-8.43825
ck	-8.43958
▁Te	-8.43987
▁deney	-8.44106
▁milyar	-8.44178
co	-8.44182
▁19	-8.44251
şi	-8.44276
▁çalışan	-8.44368
▁görüntü	-8.44579
▁yan	-8.44585
▁resim	-8.44605
ydu	-8.44963
mizi	-8.45028
▁Se	-8.45051
mıştı	-8.45247
▁düşünce	-8.45259
▁şeyleri	-8.45301
▁görün	-8.45353
▁güçlü	-8.45376
ılmış	-8.4547
sın	-8.45539
▁dan	-8.45542
▁dikkat	-8.45559
tro	-8.46179
▁İlk	-8.46237
▁izin	-8.4625
▁insanları	-8.46262
▁olay	-8.46271
▁doğa	-8.46498
▁kısa	-8.46717
▁edin	-8.46726
▁dünyada	-8.46756
▁benzer	-8.46782
▁pa	-8.47001
▁ön	-8.47026
▁cevap	-8.47068
▁geçir	-8.47086
es	-8.47149
▁yapıyor	-8.47379
nüz	-8.47463
mıyor	-8.47547
▁u	-8.47608
▁Bugün	-8.47633
▁1	-8.47698
▁ter	-8.47812
▁dakika	-8.485
meyi	-8.48873
▁konuş	-8.48905
▁kabul	-8.48932
▁bas	-8.49046
ız	-8.49106
lük	-8.49152
lanma	-8.49166
▁etti	-8.4941
ıyorlar	-8.49419
▁yaptı	-8.49456
nızı	-8.49471
▁M	-8.4949
▁destek	-8.49601
▁geniş	-8.49952
acağım	-8.50015
▁Ge	-8.50031
liğin	-8.50163
ku	-8.50196
go	-8.50296
▁anlama	-8.5037
▁hücre	-8.50373
▁işi	-8.50381
▁bo	-8.50512
mızı	-8.50611
▁verme	-8.50759
▁dur	-8.50821
▁deneyim	-8.51167
ımız	-8.51343
▁oyun	-8.51455
mu	-8.51526
M	-8.51556
▁beş	-8.5173
▁yine	-8.51968
▁mümkün	-8.52194
▁kar	-8.5263
▁güven	-8.52648
▁özellikle	-8.52681
▁üst	-8.52901
▁hatta	-8.53116
▁sayı	-8.53297
ucu	-8.53335
ko	-8.53397
şe	-8.53411
lamak	-8.536
▁tamam	-8.53765
▁plan	-8.53844
▁hepsi	-8.53848
▁bil	-8.53879
▁yazı	-8.53895
▁L	-8.53934
cü	-8.53966
ilmiş	-8.54039
abilirsiniz	-8.54064
leşme	-8.54162
bil	-8.54166
nun	-8.54196
let	-8.54223
▁100	-8.54257
▁ağ	-8.54368
▁gönder	-8.54625
▁kimse	-8.54653
▁sun	-8.54675
▁on	-8.54707
▁Neden	-8.5478
abiliyor	-8.54794
ıyordu	-8.54797
▁tahmin	-8.55212
▁eş	-8.55272
▁şunu	-8.5543
▁genel	-8.55501
▁açı	-8.55635
▁çözüm	-8.55814
▁sor	-8.55881
men	-8.55974
▁ana	-8.56297
▁sınır	-8.56421
inden	-8.5643
▁art	-8.56457
▁et	-8.56561
ilen	-8.56574
ici	-8.5667
▁sanat	-8.56674
yiz	-8.56786
▁ü	-8.56952
eceğim	-8.5696
▁30	-8.57025
▁kan	-8.57064
▁kitap	-8.57242
yız	-8.5737
▁bunları	-8.5739
▁sebep	-8.57719
▁söyledi	-8.57733
6	-8.57838
iyorlar	-8.57879
nizi	-8.57907
▁model	-8.57913
▁dön	-8.57992
mişti	-8.58068
▁aşağı	-8.58082
▁na	-8.58103
ed	-8.58149
▁olmalı	-8.58318
▁der	-8.58335
▁sistemi	-8.58354
gü	-8.58399
▁gösteriyor	-8.58404
mde	-8.58519
yim	-8.58525
▁yarı	-8.58574
▁se	-8.58612
▁yaptığı	-8.58913
▁bağlı	-8.59088
▁kullanıl	-8.5911
▁R	-8.59113
▁ölüm	-8.59124
▁derin	-8.59162
▁makine	-8.59186
▁gör	-8.59221
▁gördüğünüz	-8.5943
ğe	-8.59495
▁şehir	-8.59555
▁New	-8.59629
1	-8.59995
fa	-8.60004
▁yalnız	-8.60043
▁bağlantı	-8.6009
lendi	-8.60171
bir	-8.60172
▁bilme	-8.60296
▁alın	-8.60381
pi	-8.6046
B	-8.60601
iyet	-8.6095
▁anne	-8.60959
▁çocuklar	-8.60998
▁düş	-8.61156
kar	-8.61218
▁çıktı	-8.61326
▁araya	-8.6143
▁bence	-8.61474
▁yanlış	-8.61538
3	-8.61557
üm	-8.61589
▁değildir	-8.61741
▁un	-8.61799
▁hastalık	-8.61807
▁iz	-8.61848
do	-8.62088
dığım	-8.62237
▁düzen	-8.62247
▁mo	-8.62252
▁Ro	-8.62264
▁Da	-8.62302
▁he	-8.62379
th	-8.62509
▁kez	-8.62554
▁deniz	-8.626
▁gelme	-8.62806
▁olsa	-8.6282
▁Son	-8.62846
▁g	-8.62877
▁geliştir	-8.62897
▁ele	-8.62927
▁insanlara	-8.63065
j	-8.63215
▁video	-8.6331
▁hayatı	-8.63381
▁Çin	-8.63459
▁neredeyse	-8.63475
▁robot	-8.63566
uyor	-8.63674
▁6	-8.63941
ebilirsiniz	-8.63951
asyon	-8.63989
▁otur	-8.64043
leyen	-8.64124
▁görev	-8.6425
▁kap	-8.64309
▁yaptık	-8.64571
mez	-8.64614
▁bakar	-8.64633
▁değildi	-8.64679
▁öğret	-8.64692
unun	-8.64757
iyle	-8.64884
▁hayvan	-8.64967
▁internet	-8.64985
tur	-8.65043
lıyor	-8.65075
▁anlat	-8.65096
▁karmaşık	-8.65115
▁ekonomi	-8.65238
▁50	-8.65416
ımı	-8.65633
▁tedavi	-8.65899
san	-8.66004
▁yapmaya	-8.66089
▁alma	-8.66408
▁pi	-8.66426
alım	-8.66497
▁kalma	-8.66517
▁Ga	-8.66555
▁dolayı	-8.66558
▁as	-8.66571
▁engel	-8.6658
▁dedim	-8.66704
▁bina	-8.66713
▁Pe	-8.66839
dür	-8.66851
▁derece	-8.66879
▁varsa	-8.66918
▁gelecek	-8.67144
▁sat	-8.67177
▁yu	-8.67205
yorum	-8.67229
▁oyna	-8.67279
▁gece	-8.67286
▁He	-8.67294
son	-8.6738
masını	-8.67392
▁değiş	-8.67603
▁yapan	-8.67721
▁sizi	-8.67751
suz	-8.67938
▁sonuç	-8.67996
▁san	-8.68084
▁gerekiyor	-8.68147
▁program	-8.68172
▁hi	-8.68183
▁b	-8.68284
▁götür	-8.68295
mızda	-8.68446
▁ilgi	-8.68623
tör	-8.68645
ama	-8.68666
▁Si	-8.68726
ist	-8.68742
iyorum	-8.68755
sinden	-8.68772
▁üzere	-8.68962
▁birisi	-8.69011
▁oran	-8.69015
▁oku	-8.69068
▁ihtiyaç	-8.69233
▁ifade	-8.69233
▁düşünüyor	-8.69257
ger	-8.69473
▁Hindistan	-8.69504
▁TED	-8.69504
duk	-8.69544
▁kes	-8.69666
bilme	-8.69711
▁bekle	-8.69775
der	-8.69865
R	-8.69938
P	-8.69982
▁korku	-8.69988
▁yere	-8.70118
▁ışık	-8.70219
▁şa	-8.70413
ıldı	-8.70437
4	-8.7058
▁diyor	-8.70631
▁Di	-8.70658
▁iletişim	-8.70736
▁olduğuna	-8.70868
▁yaptığımız	-8.71018
dikleri	-8.71164
oloji	-8.712
▁duy	-8.71218
liyor	-8.71408
landı	-8.71457
▁neler	-8.71589
düğü	-8.71746
▁gitme	-8.71808
▁düşünme	-8.71889
▁doğal	-8.71936
▁altı	-8.72071
acağız	-8.72176
▁mutlu	-8.72233
▁kay	-8.72261
▁ürün	-8.7231
▁Bo	-8.72371
▁verici	-8.72477
manın	-8.72496
▁beraber	-8.72541
▁test	-8.72556
▁İnsanlar	-8.72576
duğu	-8.72592
▁düşünün	-8.72961
▁erkek	-8.72962
abilecek	-8.73027
ho	-8.73296
▁gen	-8.736
▁kafa	-8.73836
meyen	-8.73938
8	-8.74181
ğin	-8.74215
▁izle	-8.74276
▁ci	-8.74329
ışı	-8.74347
▁koy	-8.74448
▁seviye	-8.74668
▁bakın	-8.74756
▁kısmı	-8.74804
▁tasarım	-8.7482
▁içeri	-8.74879
D	-8.74885
ebileceği	-8.74907
▁Ku	-8.74908
▁geçen	-8.74981
▁15	-8.75012
▁dönem	-8.7502
▁es	-8.75054
▁olmadığı	-8.75071
leyici	-8.75148
C	-8.75202
▁muhtemel	-8.7524
▁Aynı	-8.75241
▁bulun	-8.75283
umuz	-8.75353
▁ikinci	-8.75389
ste	-8.75461
▁h	-8.75594
rak	-8.75657
▁kullanarak	-8.7566
yoruz	-8.75678
▁bundan	-8.7571
▁başlay	-8.75843
unda	-8.76225
una	-8.7624
▁biliyor	-8.76251
▁nerede	-8.76337
▁olmadığını	-8.76473
▁Tüm	-8.76575
arı	-8.76577
ör	-8.76581
▁din	-8.76595
▁kural	-8.76601
▁yoktu	-8.76613
▁söylüyor	-8.7669
▁belir	-8.76751
▁yaşında	-8.76932
▁hâl	-8.76988
▁yöntem	-8.76989
umu	-8.76997
▁Ara	-8.77166
yon	-8.7718
▁öğrenci	-8.77198
▁9	-8.77395
▁başladım	-8.7747
▁dışında	-8.77677
▁gücü	-8.77776
▁arasındaki	-8.77883
▁çeşit	-8.77907
▁ı	-8.77978
▁uzay	-8.7802
▁Su	-8.78192
mo	-8.78196
▁bin	-8.78227
▁7	-8.78303
▁gö	-8.78308
▁bağ	-8.78374
leriyle	-8.78382
▁sonraki	-8.78517
▁bunların	-8.78542
▁ortak	-8.78634
▁kuru	-8.78745
▁şeyin	-8.78823
▁seç	-8.7901
eği	-8.79102
ton	-8.79191
▁ihtiyacımız	-8.79213
▁fi	-8.79258
▁oluş	-8.79441
nuz	-8.79455
kan	-8.7947
rek	-8.79588
ev	-8.79629
▁Bi	-8.7967
▁sağlık	-8.79687
▁olduğumuz	-8.79743
▁canlı	-8.79777
yordu	-8.79796
ebiliyor	-8.79802
per	-8.79843
mamız	-8.79888
mizde	-8.79966
▁ilaç	-8.80013
▁tü	-8.80103
▁ser	-8.80168
▁ettik	-8.80214
taki	-8.8023
ab	-8.8031
▁biliyoruz	-8.80379
▁söyle	-8.80488
ildi	-8.80706
▁Belki	-8.80868
▁seçim	-8.81061
▁hoş	-8.81175
▁sür	-8.81182
9	-8.81194
▁kol	-8.81279
▁yapılan	-8.81338
▁kalan	-8.81391
▁top	-8.81529
▁görüyorsunuz	-8.81651
▁sık	-8.8186
▁görüş	-8.81865
▁çal	-8.81934
▁rağmen	-8.82093
▁sebebi	-8.82093
▁Ev	-8.82111
▁davranış	-8.82168
ll	-8.82388
▁önem	-8.82407
iniz	-8.82445
▁ilgilen	-8.82477
▁telefon	-8.82564
▁teşekkür	-8.82615
▁gidiyor	-8.82755
▁düşünüyorum	-8.82812
nızda	-8.8285
▁duygu	-8.82857
▁Pa	-8.82908
▁bit	-8.82941
▁veriyor	-8.82988
▁bulma	-8.83038
▁görebilirsiniz	-8.83045
▁yılda	-8.83113
I	-8.8327
▁heyecan	-8.83434
▁alıp	-8.83434
▁Li	-8.83492
ver	-8.83605
▁so	-8.83631
sam	-8.83731
eri	-8.83771
▁madde	-8.83805
▁durumu	-8.83813
▁küresel	-8.83961
7	-8.8404
▁verdi	-8.84123
▁Va	-8.84158
▁Büyük	-8.84199
▁La	-8.84203
▁görmek	-8.84227
▁uzak	-8.84247
▁Co	-8.84271
▁tarih	-8.84274
▁hizmet	-8.84433
E	-8.84529
▁şekil	-8.84543
▁San	-8.84589
▁orta	-8.84689
▁değişim	-8.84742
lemek	-8.85004
▁v	-8.85032
▁bakış	-8.85075
▁sınıf	-8.85081
os	-8.85155
▁sal	-8.85159
▁İş	-8.85167
▁şirket	-8.85177
▁tanım	-8.8522
▁risk	-8.85228
▁fa	-8.85267
▁insanın	-8.8537
▁Mi	-8.85699
▁kendini	-8.85726
mize	-8.8577
▁kutu	-8.8583
▁nedir	-8.86006
▁uç	-8.86027
▁bilmiyor	-8.86143
▁yön	-8.8616
met	-8.863
▁Avrupa	-8.86507
▁doktor	-8.86507
▁edil	-8.8659
▁fırsat	-8.86668
layan	-8.86671
▁uygulama	-8.86675
▁ders	-8.86695
▁gider	-8.86925
▁Par	-8.87073
iği	-8.8713
▁çizgi	-8.87191
likle	-8.8725
lanmış	-8.87271
▁yardımcı	-8.87283
▁York	-8.87324
▁kuş	-8.87423
▁olursa	-8.87455
▁N	-8.87464
▁Çocuk	-8.87478
▁güneş	-8.87492
op	-8.87507
ık	-8.87511
▁ettim	-8.87541
ing	-8.87578
▁içine	-8.87638
▁çalışıyor	-8.87668
▁asla	-8.87697
▁kadınlar	-8.87739
▁yaşama	-8.87885
▁hak	-8.8791
▁harita	-8.87969
▁koruma	-8.88143
lerdi	-8.88156
▁kır	-8.88177
T	-8.88283
▁acı	-8.88315
▁adım	-8.8837
larıyla	-8.88455
▁pe	-8.88476
▁ayak	-8.8852
▁bazen	-8.88626
▁lider	-8.8865
▁bi	-8.88652
▁hatırla	-8.88664
▁yüksel	-8.88837
▁Ki	-8.88887
▁sıra	-8.88895
▁dolu	-8.88902
▁anlam	-8.88944
▁mikro	-8.89124
▁başlıyor	-8.89131
▁balık	-8.89215
tar	-8.8925
gı	-8.89292
▁geçmiş	-8.89453
▁renk	-8.895
tra	-8.89503
▁yılında	-8.89504
▁adı	-8.89525
▁düşündüm	-8.89594
▁hep	-8.89637
tım	-8.89642
▁Ayrıca	-8.89783
▁olsun	-8.89811
▁başına	-8.89838
▁çift	-8.89913
▁yukarı	-8.8995
▁yaşayan	-8.90241
▁Ban	-8.90262
▁tasarla	-8.90392
▁çarp	-8.90452
▁etmeye	-8.90455
▁olup	-8.90466
▁alıyor	-8.90547
▁ayır	-8.90641
▁dil	-8.90707
▁kü	-8.9075
▁hangi	-8.90958
▁ileri	-8.91184
▁ihtiyacı	-8.91229
▁Diğer	-8.91294
▁merak	-8.91514
▁arka	-8.91619
▁dönüştür	-8.91625
▁okyanus	-8.91632
▁düşünür	-8.91746
▁yürü	-8.91754
▁hepimiz	-8.9178
▁yavaş	-8.91803
raya	-8.91808
▁Gör	-8.9188
▁kullanma	-8.91915
ından	-8.91943
ledi	-8.91998
▁dünyayı	-8.92006
ladı	-8.9204
▁normal	-8.92142
kten	-8.92192
▁orman	-8.92245
kları	-8.92351
▁ayrıca	-8.92546
▁Başka	-8.92568
▁içerisinde	-8.92651
yken	-8.92897
▁algı	-8.92913
▁mesaj	-8.93171
▁defa	-8.93555
▁tabi	-8.93704
eceğiz	-8.93723
mıza	-8.9391
diğiniz	-8.9393
ılan	-8.93957
▁boş	-8.94129
ebilecek	-8.9414
▁İki	-8.94176
▁çevir	-8.94209
▁sürekli	-8.94219
sıyla	-8.94287
yum	-8.94348
▁ekonomik	-8.94393
▁kesinlikle	-8.94424
▁alır	-8.94824
▁takip	-8.95008
▁yapacağı	-8.95013
leşti	-8.95026
▁şekli	-8.95082
▁bitki	-8.95101
▁yayıl	-8.9518
▁görüyoruz	-8.95318
▁beri	-8.95381
▁Ar	-8.95382
▁Yeni	-8.95778
tif	-8.95986
larımızı	-8.96072
hu	-8.96423
▁verir	-8.9645
▁Re	-8.96478
▁aldı	-8.96513
▁takım	-8.96649
▁resmi	-8.9668
▁koru	-8.96712
▁vermek	-8.96715
he	-8.96727
▁öz	-8.96779
▁konuda	-8.96829
▁Yap	-8.96841
▁40	-8.96843
acağını	-8.96864
laştır	-8.96865
▁hayatta	-8.9689
▁görünüyor	-8.96917
▁almak	-8.96929
▁gerektiğini	-8.96957
▁şiddet	-8.97034
▁binlerce	-8.97035
▁yatırım	-8.97037
▁ince	-8.97041
as	-8.97077
▁metre	-8.97218
▁yasa	-8.97263
▁El	-8.97389
sem	-8.97406
▁uygun	-8.97577
acağı	-8.97881
ğini	-8.97949
▁olacağı	-8.98007
▁tip	-8.98089
▁yüzey	-8.98104
▁Bütün	-8.98114
▁yıldız	-8.98119
▁devlet	-8.98132
▁ar	-8.98159
▁gerekli	-8.98235
lerim	-8.98514
▁başarılı	-8.98552
▁Teşekkür	-8.98584
▁haline	-8.98606
teki	-8.98607
▁Bizim	-8.98833
▁olurdu	-8.98938
▁yayın	-8.98969
lerimizi	-8.98991
▁hedef	-8.99026
▁dizi	-8.99062
ji	-8.99115
▁ciddi	-8.99273
▁yaratıcı	-8.99495
▁8	-8.99547
iyordu	-8.99585
▁ait	-8.99597
diler	-8.99743
▁kök	-8.99777
▁nedenle	-8.99849
maz	-8.99937
▁Hayır	-8.99943
▁sar	-8.99956
▁bulunan	-9.00208
▁ortam	-9.00383
▁harca	-9.00496
▁12	-9.00537
meliyiz	-9.00542
▁pazar	-9.00688
▁tutu	-9.00758
▁Gerçekten	-9.00911
▁meydan	-9.01055
müş	-9.0107
▁Buna	-9.01087
▁öldür	-9.01137
▁alanı	-9.01194
▁evet	-9.0143
▁başarı	-9.01477
▁yemek	-9.01537
▁la	-9.01631
sen	-9.01649
dılar	-9.01862
▁yaptığım	-9.01926
sunu	-9.01934
▁Do	-9.02002
▁mil	-9.02112
larım	-9.02129
▁arada	-9.02243
▁dünyadaki	-9.02331
ınız	-9.02451
▁sol	-9.02493
▁şe	-9.02501
▁boyut	-9.02533
▁edecek	-9.02577
medi	-9.02664
▁ediyorum	-9.02768
▁say	-9.02844
▁kara	-9.02886
00	-9.02934
▁cihaz	-9.02935
▁eşit	-9.0298
▁isteme	-9.03025
▁60	-9.03108
▁gitti	-9.03108
▁Ra	-9.03129
▁kor	-9.03187
▁başladık	-9.0346
▁yaptım	-9.03549
▁gidip	-9.03608
mın	-9.03662
▁mükemmel	-9.03697
up	-9.03697
▁aşı	-9.03789
▁yapabilir	-9.03885
▁işaret	-9.03889
ğını	-9.04091
ıyorsunuz	-9.04106
▁sesi	-9.04125
▁şarkı	-9.04273
▁müzik	-9.04275
memiz	-9.04276
▁çeki	-9.04442
▁kas	-9.0451
▁vur	-9.0456
▁dönüş	-9.04572
▁yanında	-9.04694
har	-9.04704
G	-9.04735
▁döndü	-9.04799
nize	-9.04913
ğimiz	-9.0493
eceği	-9.05018
▁zengin	-9.05046
▁sayesinde	-9.05046
▁anlamın	-9.05057
▁Kar	-9.05122
▁giy	-9.05187
ünün	-9.0521
▁isim	-9.05397
▁düşük	-9.05438
▁uzman	-9.0545
▁İkinci	-9.0563
▁Ti	-9.05717
▁elektrik	-9.05825
▁yerleştir	-9.0592
▁görü	-9.06017
▁dış	-9.06078
▁araç	-9.0614
eyim	-9.06163
tığımız	-9.06174
▁süreci	-9.06181
▁DNA	-9.06216
▁başar	-9.06242
lma	-9.06284
▁başladığı	-9.06338
▁nüfus	-9.06413
▁ağaç	-9.06414
▁silah	-9.06415
▁hükümet	-9.06427
▁politika	-9.0646
▁görebil	-9.06529
▁tabii	-9.06616
▁gerekir	-9.06621
▁Du	-9.06689
▁musunuz	-9.06769
▁18	-9.07034
▁tarz	-9.07218
▁işlem	-9.07222
hr	-9.07274
▁asıl	-9.07358
▁temiz	-9.07362
ıyla	-9.07375
▁git	-9.07399
▁mevcut	-9.07401
▁ölç	-9.07433
▁Po	-9.07694
▁uğraş	-9.07696
▁Tanrı	-9.07799
▁çeşitli	-9.07908
liğe	-9.0793
malıyız	-9.07939
▁kon	-9.07957
ebilirim	-9.08151
▁ağır	-9.08396
raf	-9.08437
ılır	-9.08475
▁bilin	-9.0853
ktan	-9.0855
▁muhteşem	-9.086
▁mühendis	-9.086
▁yarar	-9.08602
▁başlama	-9.08698
▁dahil	-9.08779
▁As	-9.0883
▁baba	-9.08902
▁zarar	-9.08911
lüğü	-9.08961
▁sahne	-9.09003
▁saniye	-9.09004
▁halk	-9.09192
▁pro	-9.09197
ad	-9.09282
▁öğretmen	-9.09459
▁dayan	-9.09462
lenme	-9.09593
▁maliyet	-9.09622
▁koş	-9.09807
▁tıp	-9.09888
yse	-9.09977
▁kapı	-9.10067
▁söylediği	-9.10077
▁ni	-9.10091
▁duvar	-9.10426
▁deki	-9.10468
yıp	-9.10675
▁yönet	-9.10786
▁alt	-9.10893
mızın	-9.10923
ster	-9.11072
▁sinir	-9.11118
▁olmadan	-9.11195
▁çiz	-9.11232
▁Orta	-9.11257
▁hız	-9.11289
▁öğrenme	-9.11306
▁biliyorum	-9.11401
▁duyu	-9.1142
▁Böyle	-9.11475
▁kültür	-9.11492
▁çöz	-9.11532
▁is	-9.1161
▁İnsan	-9.11728
▁malzeme	-9.11869
▁fayda	-9.1187
ron	-9.11938
▁oldukları	-9.11952
▁So	-9.12064
▁ABD	-9.12077
▁sıcak	-9.12079
▁zamanlar	-9.1209
▁gittiği	-9.12185
▁yıldır	-9.12203
▁em	-9.12232
▁organ	-9.12276
id	-9.12447
laşma	-9.12457
▁zamanı	-9.1246
▁beynin	-9.12522
▁hissed	-9.12562
▁şeye	-9.12608
▁hata	-9.12721
▁veren	-9.12835
malı	-9.12907
▁söyleme	-9.12932
tme	-9.13029
▁av	-9.13291
O	-9.13334
▁sorunu	-9.13374
▁kaldır	-9.13605
ydım	-9.13645
yü	-9.13696
▁sayfa	-9.13777
▁Le	-9.13796
▁alet	-9.13884
▁çocukları	-9.1396
▁yedi	-9.13962
▁kendisi	-9.14204
lığını	-9.14217
▁göstermek	-9.14239
▁anlamak	-9.14247
mekte	-9.14257
▁amacı	-9.1429
▁yapabil	-9.14449
▁gez	-9.14481
▁sahibi	-9.1466
ğü	-9.14754
▁kalk	-9.14761
▁Fa	-9.14857
▁beyni	-9.15015
▁süreç	-9.15179
cılar	-9.1519
eceğini	-9.15239
▁biyo	-9.15246
▁tepki	-9.1525
▁beyaz	-9.15251
▁evrim	-9.15381
▁Mu	-9.15393
lenmiş	-9.15456
▁Fi	-9.155
▁gördük	-9.15552
▁Y	-9.15569
▁Yo	-9.15694
▁bakım	-9.15783
▁çıkma	-9.15859
▁büyüme	-9.15867
▁bitir	-9.159
▁bar	-9.15938
▁kaldı	-9.16091
mayacak	-9.1614
▁çıkan	-9.16226
abileceği	-9.16241
▁gözü	-9.16276
▁olacağını	-9.16315
▁duydu	-9.16338
ral	-9.16408
▁aracı	-9.16443
▁geleceği	-9.1645
▁yaşıyor	-9.16529
▁kişisel	-9.16629
▁çocukların	-9.16791
ği	-9.17023
mesini	-9.171
sından	-9.17112
▁unut	-9.17113
▁evren	-9.17419
▁kendimi	-9.17462
duğunu	-9.17564
▁geli	-9.17571
unuz	-9.17616
▁ortalama	-9.17784
▁bilirsiniz	-9.17885
meli	-9.1805
▁bulmak	-9.18106
▁kanıt	-9.18122
▁vücudu	-9.18265
▁olduğum	-9.18288
▁kurtar	-9.18343
▁yoğun	-9.18367
▁emin	-9.18401
ılıyor	-9.18574
▁tanesi	-9.18592
▁günü	-9.18671
▁Onları	-9.18683
▁sağlıyor	-9.18693
▁başlar	-9.18708
isti	-9.18709
▁oluşan	-9.18844
▁herkesin	-9.18929
▁erkekler	-9.1897
▁yi	-9.18985
▁yük	-9.19115
▁form	-9.19254
▁Amerikan	-9.19285
▁yüzyıl	-9.1943
inizi	-9.19461
▁to	-9.19474
▁pat	-9.19475
▁taraf	-9.1951
duğumuz	-9.19515
▁mavi	-9.19556
▁miktar	-9.19593
fer	-9.1965
▁arkadaş	-9.19701
▁işin	-9.19787
▁kitabı	-9.19866
▁ol	-9.20063
▁Ja	-9.20132
▁işle	-9.20144
▁rol	-9.20191
▁nedeni	-9.20299
imin	-9.20407
▁Müzik	-9.20542
▁zaten	-9.20544
miyorum	-9.20648
▁kanser	-9.20716
gan	-9.209
▁25	-9.20926
▁hissetti	-9.21165
▁ölü	-9.21316
▁hastalığı	-9.21316
▁tarafta	-9.21344
▁medya	-9.21453
▁yerlerde	-9.21468
▁teori	-9.2147
▁bazıları	-9.21481
sh	-9.21558
rke	-9.2159
▁molekül	-9.2168
▁To	-9.217
▁dinle	-9.21737
▁geldiği	-9.2178
▁davran	-9.21806
▁Na	-9.21853
▁Artık	-9.21943
▁işler	-9.21964
▁hücreleri	-9.2198
▁buraya	-9.22034
▁Herkes	-9.22143
▁hayır	-9.22144
▁nun	-9.22286
▁katıl	-9.22409
ans	-9.22522
▁Birleşi	-9.22612
N	-9.22741
▁bakalım	-9.22922
▁söylemek	-9.23021
▁Ye	-9.23163
siyle	-9.23193
▁yaklaş	-9.23203
▁kullanıyor	-9.23212
miştim	-9.23274
▁fakir	-9.233
▁fiziksel	-9.23337
lanan	-9.23441
H	-9.23469
▁üretim	-9.23576
▁günde	-9.23603
▁anlamı	-9.23655
▁geçti	-9.23718
▁amaç	-9.23748
▁olsaydı	-9.2375
▁yeterli	-9.23765
▁Onun	-9.23778
cık	-9.23845
▁gelişme	-9.23933
▁sordu	-9.23983
▁lazım	-9.23998
tor	-9.24007
lamaya	-9.24014
▁tartışma	-9.24029
lardır	-9.24039
je	-9.24119
▁ufak	-9.24233
▁kamera	-9.24236
▁umut	-9.24245
▁üstünde	-9.24246
▁sey	-9.24257
▁dağ	-9.24295
▁doku	-9.24328
▁masa	-9.24456
▁matematik	-9.24468
▁birinin	-9.24468
▁ada	-9.24489
▁Bazı	-9.24499
▁virüs	-9.24704
▁Baş	-9.24716
şim	-9.24727
▁bozu	-9.24871
▁Örneğin	-9.2494
▁karakter	-9.24941
▁karşılaş	-9.24941
▁olmasını	-9.25023
▁geliş	-9.25104
▁petrol	-9.25179
▁yapacak	-9.25226
ılması	-9.25265
▁şeylerden	-9.25351
▁11	-9.25456
▁Ni	-9.25497
▁No	-9.25547
▁yetiştir	-9.25653
▁olmaya	-9.25722
▁verdiği	-9.25762
▁Sen	-9.25809
▁belli	-9.25898
▁sefer	-9.25914
▁yıllar	-9.25983
madan	-9.2601
▁icin	-9.26026
abilmek	-9.2609
▁temsil	-9.26132
▁Mars	-9.26152
▁CA	-9.26316
larımızın	-9.26367
▁mücadele	-9.26371
▁baskı	-9.26375
iyorsunuz	-9.2648
▁yaka	-9.26514
▁nesne	-9.26622
▁hayvanlar	-9.26645
log	-9.2667
▁yıllık	-9.26688
mizin	-9.26704
▁üniversite	-9.26707
▁Ak	-9.26813
▁gerçekleştir	-9.26863
▁yiyecek	-9.26915
▁ışığı	-9.26917
▁Gerçek	-9.27036
▁endüstri	-9.27094
▁aldım	-9.27178
▁ısı	-9.27212
lerdir	-9.27246
▁edeceği	-9.2728
▁gerektiği	-9.27441
▁ülkeler	-9.27473
▁verdim	-9.27506
▁sayıda	-9.27529
L	-9.27545
▁suç	-9.27606
▁dokun	-9.27621
liğini	-9.27816
▁idi	-9.2784
▁odaklan	-9.27908
▁azal	-9.27966
▁derecede	-9.27971
▁yaşan	-9.28042
▁yeşil	-9.28069
▁siyah	-9.28084
▁etkili	-9.28113
ysa	-9.28155
vu	-9.28185
▁buradaki	-9.28238
▁Kuzey	-9.2831
▁bebek	-9.28311
▁his	-9.28313
▁Güney	-9.28325
▁görsel	-9.28436
leştirme	-9.28542
▁gördüm	-9.28647
▁öte	-9.28652
▁noktada	-9.28719
▁benze	-9.2878
diniz	-9.28786
▁Mesel	-9.28821
▁sanırım	-9.29082
syon	-9.29179
▁açıklama	-9.29311
▁sır	-9.29397
▁etrafında	-9.29418
▁adlandır	-9.29542
cak	-9.29556
▁dalga	-9.29576
▁mesele	-9.29598
▁80	-9.29599
▁okuma	-9.29602
▁dışarı	-9.29604
▁halde	-9.29722
▁örneğin	-9.29735
anırım	-9.29755
▁ediyoruz	-9.2978
meyecek	-9.29782
▁Google	-9.2979
▁asker	-9.29814
▁çalışır	-9.299
▁biçimde	-9.29918
▁Orada	-9.29918
▁geçme	-9.30214
▁Nasıl	-9.3029
▁kavram	-9.30312
▁ölçü	-9.30356
▁saç	-9.30373
▁yapıyoruz	-9.30399
dıkları	-9.30435
▁bağla	-9.30573
layabilir	-9.30592
▁konusu	-9.30732
▁bahsed	-9.30779
ttiği	-9.30834
▁deneme	-9.30861
▁li	-9.3087
▁çıkıyor	-9.30915
▁biçim	-9.30916
▁kişiler	-9.31005
▁tepe	-9.31009
tığını	-9.31032
▁bakteri	-9.31045
emez	-9.31144
▁yerinde	-9.31229
amaz	-9.3123
▁iklim	-9.31294
▁sayısı	-9.31312
eceğiniz	-9.3143
indeki	-9.31529
▁dünyaya	-9.31617
▁kardeş	-9.3182
▁konuştu	-9.31907
▁altın	-9.31923
▁yapılmış	-9.31957
▁taşı	-9.31999
▁gittim	-9.32028
▁kalp	-9.32118
▁dik	-9.32129
makta	-9.32264
▁aşırı	-9.32411
▁oranı	-9.32497
mıştım	-9.32519
▁farkında	-9.32655
▁sağladı	-9.32665
▁şirketler	-9.3267
lanıyor	-9.32697
▁diş	-9.32866
gen	-9.32935
▁aşama	-9.32968
▁kesi	-9.33006
▁dijital	-9.33073
▁etkileşim	-9.33073
▁yaratmak	-9.33106
▁kod	-9.3326
▁istedik	-9.33273
▁Hatt	-9.33306
ow	-9.33327
▁ödül	-9.33338
▁ettiği	-9.33389
▁yaptıkları	-9.33401
▁yerel	-9.33415
diğinde	-9.3345
▁yaşlı	-9.33525
▁olduklarını	-9.3363
▁azalt	-9.33727
▁şeylerin	-9.33754
aj	-9.3381
▁Sonuç	-9.33846
▁edebilir	-9.33882
▁biliyorsunuz	-9.33933
▁Anne	-9.34017
▁bölüm	-9.34041
▁olacaktır	-9.34134
dığınız	-9.34149
▁Jo	-9.3436
▁ruh	-9.34444
düğünü	-9.34459
▁birini	-9.34583
▁baktı	-9.34601
▁şaşırtıcı	-9.34626
▁etkisi	-9.34641
K	-9.3474
▁anladı	-9.34793
maktadır	-9.34851
▁sana	-9.34872
▁numara	-9.34886
▁doğu	-9.3495
▁çalışmak	-9.35095
▁imkan	-9.35112
▁kaynağı	-9.35154
▁cep	-9.35232
▁toplam	-9.35238
▁sıkı	-9.35256
kal	-9.35366
▁kurtul	-9.35478
ımızı	-9.35514
▁olmaz	-9.35568
▁dönü	-9.35598
▁yeti	-9.35666
▁sonucu	-9.35672
▁sabah	-9.35674
▁süper	-9.35675
▁milyonlarca	-9.35677
▁çoğunu	-9.35746
imizi	-9.35886
▁İç	-9.35937
▁can	-9.3595
▁topluluk	-9.35958
▁duyma	-9.35981
ımın	-9.35997
▁yapıldı	-9.36067
▁gazete	-9.36203
▁yazar	-9.3623
▁kıl	-9.36389
▁Tek	-9.36432
▁dışı	-9.36505
▁zamanlarda	-9.36642
▁adamı	-9.36837
▁gördüğümüz	-9.369
▁anı	-9.36983
▁kişinin	-9.37143
▁sağlayan	-9.37208
▁gizli	-9.37269
ğında	-9.37316
▁getirdi	-9.37343
▁Amerikalı	-9.3753
▁gözlem	-9.37721
▁gösteren	-9.37772
acağımız	-9.37818
▁adında	-9.3785
▁Gi	-9.37872
▁istedim	-9.38019
ilmesi	-9.38096
▁katı	-9.38115
▁açısından	-9.38123
▁uydu	-9.38223
▁Çoğu	-9.38344
▁tarihi	-9.38349
▁düz	-9.38352
▁merkez	-9.38355
▁yüzünden	-9.3864
▁aldığı	-9.38969
▁taşın	-9.38987
▁site	-9.39137
▁ortada	-9.39176
for	-9.39282
▁kum	-9.39343
▁birleştir	-9.39351
▁it	-9.39369
▁azında	-9.39507
imizin	-9.39582
▁teşekkürler	-9.39604
nıza	-9.39606
▁karbon	-9.39709
▁199	-9.39745
▁soy	-9.39801
▁Birkaç	-9.39981
▁mesela	-9.39985
kçe	-9.40007
▁kırmızı	-9.40017
▁bununla	-9.40077
▁besle	-9.40165
mektedir	-9.40177
▁rahat	-9.40216
▁söylen	-9.40254
▁ilham	-9.40257
▁dili	-9.40341
▁edilmiş	-9.40371
▁olmuştu	-9.40429
▁yarısı	-9.40483
luyor	-9.4065
▁yetenek	-9.4081
▁hastane	-9.40815
▁liste	-9.40847
▁dolaş	-9.40926
▁mekan	-9.40931
▁sok	-9.41102
ladığı	-9.41109
lıyız	-9.41164
▁uyar	-9.41165
▁arkadaşım	-9.41258
▁par	-9.41327
▁keşfed	-9.41366
▁beceri	-9.41369
iliyor	-9.41446
▁olmuş	-9.41517
▁nde	-9.41591
▁Onu	-9.41614
▁ila	-9.41638
▁köpek	-9.41646
▁bulunduğu	-9.41792
ümüz	-9.41807
▁çağı	-9.41811
▁kenar	-9.41976
▁Lo	-9.42015
▁tüket	-9.42217
▁devrim	-9.42219
▁başında	-9.42227
▁Batı	-9.42462
▁yaklaşım	-9.42464
▁güvenli	-9.42496
▁köy	-9.425
▁İyi	-9.42525
▁esas	-9.42561
▁önünde	-9.42759
▁anlamda	-9.42786
▁alış	-9.43003
▁ateş	-9.43093
▁insanlarla	-9.43274
▁Hiç	-9.43321
▁grubu	-9.43338
▁tercih	-9.43339
▁önceki	-9.43354
▁ekran	-9.43433
▁öner	-9.43472
▁değilim	-9.43521
▁fikirler	-9.43546
▁istiyoruz	-9.43552
▁laboratuvar	-9.43623
▁teknik	-9.43638
▁akıllı	-9.43703
▁Kur	-9.43836
▁aldık	-9.43873
▁üçüncü	-9.43921
▁sanki	-9.4395
ğim	-9.43979
▁Vi	-9.44002
▁kendilerini	-9.44154
▁Bunları	-9.44243
▁göstereceğim	-9.44414
▁yapabiliriz	-9.44422
▁merkezi	-9.44529
▁Yüz	-9.44578
ff	-9.44719
▁Devletler	-9.44775
▁özgür	-9.44778
▁sokak	-9.44784
▁yarış	-9.44809
▁verdik	-9.44822
ırken	-9.44875
▁hal	-9.44878
ınca	-9.44954
▁Dolayısı	-9.4506
▁çaba	-9.4507
▁çözme	-9.45128
▁ülkede	-9.45181
▁geliştirme	-9.45201
▁hayatın	-9.45274
▁kullanmak	-9.4535
▁fiyat	-9.45388
▁yoksa	-9.4545
▁hikâye	-9.45641
▁sorumlu	-9.45643
▁Ri	-9.46048
▁yüzü	-9.46237
▁hesap	-9.46291
▁dev	-9.46305
▁70	-9.46305
▁inanıyorum	-9.46311
▁Mü	-9.46346
▁kesin	-9.46432
▁ucuz	-9.46559
▁babam	-9.46795
▁içindeki	-9.4683
▁getirmek	-9.46986
ğım	-9.47063
larınız	-9.47361
▁bilimsel	-9.47373
▁yaşay	-9.47392
▁kapa	-9.4741
▁gerçekte	-9.47418
gar	-9.47441
▁tutku	-9.47472
muyor	-9.47492
▁Soru	-9.47595
▁anlaşıl	-9.477
▁senin	-9.47731
▁dans	-9.47735
▁bulduk	-9.47746
▁görüyor	-9.47953
seydi	-9.47996
50	-9.48052
▁olun	-9.48075
▁gaz	-9.481
▁akıl	-9.4816
▁denge	-9.48204
dığında	-9.4825
örü	-9.48289
altı	-9.48334
▁uyum	-9.48377
▁satın	-9.48397
▁gösterdi	-9.48527
▁garip	-9.48596
▁aş	-9.48743
▁demokrasi	-9.48895
▁kuvvet	-9.48895
▁karanlık	-9.48898
▁yüzlerce	-9.48899
▁Hepimiz	-9.48901
▁yapıyorlar	-9.48907
lardaki	-9.48911
▁uçak	-9.48913
▁kere	-9.4899
▁sağlıklı	-9.49152
▁elbette	-9.49197
▁korkunç	-9.49198
▁ölçek	-9.49208
▁seviyorum	-9.49259
▁sanatçı	-9.49267
ladık	-9.4943
▁düzey	-9.49551
▁eylem	-9.4956
▁kendimizi	-9.49616
▁günlük	-9.49689
▁kapat	-9.49725
hane	-9.49796
▁Biraz	-9.49851
inizde	-9.49854
▁söyler	-9.49992
▁Video	-9.50106
nizin	-9.50267
▁bilmiyorum	-9.50298
▁durdur	-9.50514
jen	-9.50576
▁tanıştı	-9.50586
▁zeki	-9.50717
▁Tabii	-9.50842
ize	-9.50907
▁İnternet	-9.51023
▁gitmek	-9.51029
▁konuşmak	-9.51058
▁koydu	-9.51072
▁yoktur	-9.5113
ince	-9.51223
▁nerey	-9.51285
▁duruyor	-9.51293
▁giden	-9.51362
▁duyar	-9.51448
▁gördü	-9.51538
ard	-9.51605
▁yönetim	-9.51614
lıkla	-9.51618
▁nesil	-9.51685
▁keşfetti	-9.51949
▁not	-9.51972
gun	-9.51993
▁değişik	-9.5201
▁konuşuyor	-9.52044
mıştır	-9.52248
▁alakalı	-9.5226
▁rakam	-9.52261
▁eğit	-9.52331
▁gelecekte	-9.52347
fo	-9.5237
▁arı	-9.52376
▁açıdan	-9.5239
kül	-9.52436
▁indir	-9.52462
▁herşey	-9.5257
▁potansiyel	-9.52571
muştu	-9.52591
▁don	-9.52616
tür	-9.52763
▁karşılaştır	-9.52815
liğinde	-9.52898
▁tav	-9.52996
▁olduğundan	-9.53115
▁gelişim	-9.53134
▁buluş	-9.53264
▁üzerindeki	-9.53349
▁türlü	-9.5348
▁uyan	-9.53525
▁bakıyor	-9.5353
▁olmayacak	-9.53588
▁birbirin	-9.53601
▁okuy	-9.53621
üş	-9.537
▁ata	-9.53774
▁detay	-9.53835
▁rahatsız	-9.53873
▁edilen	-9.53895
ümü	-9.54134
▁16	-9.54199
▁sinyal	-9.54199
nızın	-9.54349
▁kızı	-9.54417
▁buldum	-9.54421
▁geleneksel	-9.54461
▁gerçeği	-9.54461
▁piyasa	-9.54462
▁icat	-9.5447
▁bunlardan	-9.54512
lerimi	-9.54596
lerinizi	-9.546
şık	-9.5463
ven	-9.54641
▁90	-9.54706
▁cevabı	-9.54779
▁motor	-9.54808
▁başarısız	-9.54849
diklerini	-9.54875
▁tur	-9.54896
▁olduğunda	-9.54896
▁sırada	-9.54932
▁Bak	-9.54963
▁uygula	-9.55141
land	-9.55286
sidir	-9.55391
yacağım	-9.55441
▁ardında	-9.55448
▁çekme	-9.55554
▁gül	-9.55571
▁edebil	-9.55585
▁uy	-9.55662
▁sorular	-9.55743
▁önemlisi	-9.55748
▁kayıt	-9.55752
▁başı	-9.55765
▁ilerleme	-9.55822
▁noktası	-9.55845
▁ikisi	-9.55887
üstü	-9.55934
iyordum	-9.56066
▁hakkı	-9.56108
▁Dev	-9.56218
▁belirli	-9.56224
ılabilir	-9.56256
▁şüphe	-9.56387
▁Pekala	-9.56387
▁sekiz	-9.56397
▁aktar	-9.56475
▁girdi	-9.56598
abileceğimiz	-9.56673
sünü	-9.56697
▁ahlak	-9.56715
▁kalite	-9.56719
▁verimli	-9.56728
▁tasarımcı	-9.56739
▁tas	-9.56775
▁uzakta	-9.56778
▁örneği	-9.56783
aman	-9.56798
▁istediğimiz	-9.56881
▁sevgi	-9.56917
maktan	-9.56942
▁eve	-9.56963
▁etmiş	-9.57044
▁türü	-9.57197
▁yazdı	-9.57247
▁yağ	-9.57302
▁dağıt	-9.57367
▁kaybed	-9.57382
▁sağlamak	-9.57383
▁yazılım	-9.57404
larımı	-9.57409
▁problemi	-9.57429
▁kısım	-9.57469
▁zorluk	-9.57578
▁anlamaya	-9.57609
▁parmak	-9.57623
▁Birçok	-9.57692
▁Burası	-9.57758
▁tarafı	-9.57853
▁kilo	-9.57972
miştir	-9.58014
▁yoksul	-9.58027
▁mal	-9.58204
adlı	-9.58258
saydı	-9.58656
uğu	-9.58698
▁yaşadığı	-9.58719
▁geldiğini	-9.58813
▁sonsuz	-9.58883
▁yaparken	-9.58928
▁ediyorlar	-9.58929
▁kaya	-9.58978
▁yapmayı	-9.58997
▁ziyaret	-9.59015
▁modern	-9.59017
▁gösteri	-9.59031
▁taş	-9.59045
▁çocuğu	-9.59071
▁teşvik	-9.59348
▁Düşü	-9.59353
▁In	-9.5936
acaktır	-9.59367
▁dile	-9.59422
▁koyu	-9.59537
▁çalışıyoruz	-9.59602
bur	-9.59618
▁şehrin	-9.59646
▁artış	-9.59705
▁park	-9.59741
▁politik	-9.59937
▁hücreler	-9.59939
umun	-9.59961
▁değiştirmek	-9.59974
▁ettir	-9.60035
▁çocuğun	-9.60042
▁olabil	-9.60057
▁belirt	-9.6007
▁budur	-9.60173
ulmuş	-9.60186
▁İnsanların	-9.60189
süz	-9.60214
▁duru	-9.60215
▁olağanüstü	-9.60357
▁gıda	-9.60367
sizlik	-9.606
▁sahibiz	-9.60607
▁İn	-9.60648
▁vücut	-9.60692
▁yetişkin	-9.60692
▁genetik	-9.60693
▁saldırı	-9.60732
▁sırasında	-9.60757
▁oldum	-9.60829
▁ihtimal	-9.60845
▁yaşadı	-9.60863
▁hayatını	-9.60909
▁halinde	-9.60999
▁taşıy	-9.61002
▁toprak	-9.61073
bet	-9.611
üzün	-9.61171
▁endişe	-9.61394
▁karşılık	-9.61448
▁düşünmeye	-9.61573
▁yapmış	-9.61591
▁yağmur	-9.61714
▁beden	-9.61714
▁yapama	-9.61776
▁ettiğimiz	-9.61806
▁oyunu	-9.6188
▁sorma	-9.61882
▁yapmamız	-9.61958
▁değerlendir	-9.61971
V	-9.6202
mezsiniz	-9.62033
▁telefonu	-9.62039
▁ücret	-9.62055
▁ismi	-9.62066
▁sessiz	-9.6209
dy	-9.62097
▁arkasında	-9.62098
▁davet	-9.62102
lıyoruz	-9.62181
▁benziyor	-9.62199
▁aklım	-9.62202
▁fazlası	-9.62326
▁şaşır	-9.62399
▁ikna	-9.62437
▁yeterin	-9.62462
▁insanı	-9.6251
▁bulundu	-9.62601
▁tecrübe	-9.62744
▁köşe	-9.62744
layacak	-9.62747
gram	-9.62769
▁500	-9.62841
▁çözü	-9.62847
▁ağı	-9.62887
▁dahi	-9.62892
fen	-9.62926
▁Kız	-9.62929
▁böcek	-9.6309
▁kom	-9.63108
▁arama	-9.63179
▁değişti	-9.63299
▁katkı	-9.63304
ayım	-9.6335
▁sağlay	-9.63376
▁yaparak	-9.63411
lerimizin	-9.63413
▁şehirler	-9.63417
▁koyma	-9.63451
▁Kim	-9.63571
▁ortasında	-9.63644
landırma	-9.63769
▁televizyon	-9.63785
▁kablo	-9.63786
▁yazma	-9.63807
▁sonuçlar	-9.63818
▁yönlendir	-9.63837
▁13	-9.63844
▁V	-9.63852
▁verin	-9.63878
▁anlattı	-9.64002
▁Beni	-9.64027
▁annem	-9.64052
▁etraf	-9.64101
▁istedi	-9.64107
▁Go	-9.64159
▁geriye	-9.64268
▁Tam	-9.64303
▁demektir	-9.64333
▁gelmiş	-9.64343
▁çekici	-9.64361
▁genellik	-9.64364
▁düşündük	-9.6446
▁zihin	-9.64486
▁Chris	-9.64487
▁bağlan	-9.64612
▁boyutlu	-9.64625
▁bulunma	-9.64631
▁kart	-9.64672
▁dal	-9.64796
▁içi	-9.64812
▁yaygın	-9.64838
▁kimyasal	-9.64838
▁Savaş	-9.64839
▁Japon	-9.64839
▁gemi	-9.64848
▁oğlu	-9.64851
▁14	-9.64892
▁erken	-9.64918
▁bölümü	-9.64944
asyonu	-9.65002
F	-9.65077
▁Geçen	-9.65193
▁arkadaşları	-9.65324
ladım	-9.65339
▁uyu	-9.65348
▁biliyordu	-9.65351
▁hepsini	-9.65463
▁fizik	-9.65488
▁Kadın	-9.65594
▁sap	-9.65679
▁şansı	-9.65688
larındaki	-9.65722
▁hızla	-9.65732
▁fare	-9.65798
▁strateji	-9.65902
▁çılgın	-9.65902
▁John	-9.65903
▁Demek	-9.65934
▁gösterme	-9.65937
▁açtı	-9.65964
▁Hepsi	-9.66031
larınızı	-9.66095
▁açıkça	-9.66183
▁olası	-9.66233
▁zeka	-9.66259
▁hali	-9.6636
ebileceğimiz	-9.66376
▁küçü	-9.66397
▁fikirleri	-9.66517
▁sıfır	-9.66617
▁şiş	-9.66725
▁geçirdi	-9.66751
▁bilinç	-9.66773
▁modeli	-9.66784
▁Öyle	-9.66787
▁istediği	-9.66788
▁ters	-9.66792
▁aşk	-9.66812
▁bahset	-9.66825
var	-9.66829
▁çağ	-9.66879
▁çalışıyorum	-9.66915
▁ülkelerde	-9.66938
▁karış	-9.66951
▁parti	-9.66974
▁Doğru	-9.66977
▁hissetme	-9.6698
▁kaybetti	-9.66983
▁sergi	-9.67102
müştü	-9.67368
tığım	-9.67377
▁adet	-9.67383
▁araçlar	-9.67425
▁sonrasında	-9.67434
▁kadınların	-9.67456
▁yorum	-9.67518
▁bıraktı	-9.67522
▁şans	-9.67533
▁ulaştı	-9.67673
sindeki	-9.67801
layıcı	-9.67809
▁cam	-9.67879
▁ayar	-9.67892
▁terör	-9.679
▁polis	-9.68067
▁kendime	-9.68097
▁onunla	-9.68131
▁yabancı	-9.68429
▁kare	-9.68563
▁Yıl	-9.68669
leşmiş	-9.68728
▁198	-9.68851
gel	-9.68868
ksiyon	-9.6895
▁nöron	-9.68959
▁Pi	-9.69051
▁arazi	-9.69057
▁güvenlik	-9.69149
▁adını	-9.69182
▁devre	-9.69305
▁seyahat	-9.69532
ırsınız	-9.69773
▁değiştirme	-9.69858
yacağını	-9.69879
▁eriş	-9.69884
▁Tabi	-9.69886
▁tehdit	-9.69902
▁özgü	-9.69907
▁17	-9.69952
▁Doğu	-9.69969
▁olmayı	-9.70012
▁tehlikeli	-9.70032
▁olduğumu	-9.70056
▁pahalı	-9.70275
▁eğlenceli	-9.70279
eceğimiz	-9.70305
▁olmamız	-9.70377
▁çalışmaya	-9.70461
▁Buradaki	-9.70465
▁eğlen	-9.70484
liydi	-9.70596
▁Öyleyse	-9.7066
▁imkansız	-9.70706
▁kaybol	-9.70739
▁birşeyler	-9.70796
▁Sh	-9.70883
▁pu	-9.70918
▁bildiği	-9.7101
▁ton	-9.71021
▁nefes	-9.71025
▁saygı	-9.71054
▁istey	-9.71074
▁miktarda	-9.71104
▁şart	-9.71108
▁çalıştığım	-9.71146
▁doğdu	-9.71242
▁ettiğini	-9.71297
▁kıs	-9.71359
▁başlangıç	-9.71398
▁fabrika	-9.71398
▁adına	-9.71418
▁cok	-9.71453
▁kurdu	-9.71466
▁kamu	-9.7162
▁Pro	-9.71651
▁Car	-9.71687
▁toplu	-9.7172
▁şirketi	-9.71729
▁doldur	-9.71776
▁sektör	-9.71777
abilirim	-9.71838
▁tarım	-9.71839
ebilmek	-9.71914
▁yana	-9.72077
▁kalbi	-9.72116
▁edici	-9.72157
▁Hasta	-9.72164
▁birbirimiz	-9.72193
▁çiftçi	-9.72238
lendirme	-9.72304
▁Adam	-9.72328
▁hayatımı	-9.7233
▁uça	-9.72354
▁geçerli	-9.72386
▁suyu	-9.72464
▁anlayabil	-9.72475
▁öldü	-9.72479
▁muazzam	-9.72534
▁rüzgar	-9.72534
▁tasarruf	-9.72534
▁Bilim	-9.72549
▁bü	-9.72567
▁oray	-9.72738
▁bildiğimiz	-9.72821
▁programı	-9.72876
▁üretme	-9.72881
▁organizma	-9.72919
▁herşeyi	-9.72949
▁gor	-9.73004
▁anlatmak	-9.73017
▁başlat	-9.73073
amayacağı	-9.73095
▁çapında	-9.73299
▁bahçe	-9.73299
▁gerekiyordu	-9.73301
▁bağımlı	-9.73304
▁analiz	-9.73317
▁sistemin	-9.73619
▁akşam	-9.73687
▁kopya	-9.73688
▁Bazen	-9.73688
▁çalıştık	-9.73809
▁kısmını	-9.73884
▁yaşındaki	-9.741
▁gücünü	-9.74262
▁öğrendim	-9.74296
dınız	-9.74413
▁makale	-9.74459
▁salgın	-9.74474
▁işçi	-9.74485
▁ürünü	-9.74749
▁organizasyon	-9.74847
▁çök	-9.7485
▁ederek	-9.74878
ecektir	-9.75017
▁sorunları	-9.75033
▁edildi	-9.75073
▁Sizin	-9.75126
▁deri	-9.75178
▁bisiklet	-9.75237
▁Güneş	-9.75239
▁işbirliği	-9.75239
▁bulunuyor	-9.75304
▁Yine	-9.75354
▁olduğumuzu	-9.75402
▁ettiler	-9.75571
▁atmosfer	-9.75629
▁performans	-9.75629
▁sanal	-9.75721
▁burası	-9.75838
▁eğilim	-9.76023
▁getiriyor	-9.76025
▁girme	-9.7607
▁elimizde	-9.76103
▁seks	-9.7611
▁düşünmek	-9.76166
▁arttır	-9.7619
▁kurul	-9.76317
▁Tu	-9.76369
▁sağlayacak	-9.76464
▁neyse	-9.76475
▁21	-9.76539
▁alanda	-9.76581
▁değişimi	-9.76614
▁barış	-9.76618
▁uğra	-9.76622
bb	-9.76803
▁mahalle	-9.76816
▁Ona	-9.76855
▁yakıt	-9.76858
▁Yer	-9.77092
▁sürdür	-9.7726
▁biyolojik	-9.77289
▁okula	-9.77358
▁kapsa	-9.7737
▁Fr	-9.77487
▁müthiş	-9.77613
▁kapasite	-9.77614
▁soğuk	-9.77614
birine	-9.77629
▁kör	-9.77649
▁24	-9.77724
▁düşür	-9.7775
ırız	-9.7781
▁değişikliği	-9.77822
leyecek	-9.77828
▁mimari	-9.77932
▁Bazıları	-9.7797
▁zihni	-9.78015
▁almaya	-9.78121
▁kaçır	-9.78161
▁isteyen	-9.78251
▁büyüdü	-9.78277
▁bahsediyor	-9.78323
▁benzeri	-9.78335
▁yapabileceği	-9.78342
▁tablo	-9.78418
▁obje	-9.78419
▁kağıt	-9.7842
▁Açık	-9.78423
▁baktığı	-9.78594
▁buldu	-9.78693
▁Hayat	-9.7874
▁görürsünüz	-9.78823
▁vatandaş	-9.78823
▁göreceksiniz	-9.78823
▁ceza	-9.7884
▁sağlığı	-9.78924
▁boya	-9.78958
▁gaye	-9.78978
▁bırakma	-9.79139
▁verileri	-9.79147
leniyor	-9.79183
▁keşfetme	-9.7923
▁kilometre	-9.7923
▁mesafe	-9.7923
▁bağımsız	-9.7923
▁çöp	-9.7923
▁makina	-9.79233
▁reklam	-9.7925
▁batı	-9.79453
▁Hu	-9.79583
▁web	-9.79638
▁buçuk	-9.79638
▁spor	-9.79641
▁artır	-9.79666
▁yaratma	-9.7968
▁Rus	-9.79733
▁kul	-9.79772
▁duyuyor	-9.79956
▁burda	-9.79966
▁bireyler	-9.79975
▁Küçük	-9.80048
▁zayıf	-9.80048
▁öğrenmek	-9.80098
▁bilir	-9.80167
▁hepimizin	-9.80243
▁tehlike	-9.80315
▁etrafı	-9.80342
acaksınız	-9.80345
▁onlarla	-9.80359
▁gördüğüm	-9.80374
▁tuhaf	-9.80459
▁İngiltere	-9.80459
▁anahtar	-9.80459
▁bomba	-9.80461
ilir	-9.80478
▁Hiçbir	-9.80487
▁çalıştım	-9.80537
▁sistemleri	-9.80551
▁ettiğim	-9.80673
▁öğrencileri	-9.80683
▁ödeme	-9.80706
▁özellikleri	-9.80762
▁yarattı	-9.80771
▁HIV	-9.80872
▁eksik	-9.80889
▁sonuçları	-9.8091
▁arkadaşlarım	-9.80919
ilebilir	-9.81017
▁önün	-9.81049
▁ofis	-9.81134
▁kendimiz	-9.81177
▁iddia	-9.81287
▁seçenek	-9.81287
▁şeklinde	-9.81302
▁yemeği	-9.81304
▁kaza	-9.81364
▁farketti	-9.81374
▁düştü	-9.81379
▁kanseri	-9.81396
▁geçiş	-9.81415
▁düşündü	-9.81447
▁kuruluş	-9.81575
▁grafik	-9.81704
▁nefret	-9.81704
▁yeteneği	-9.81704
▁banka	-9.81704
▁öngör	-9.81709
▁çatışma	-9.8171
▁dök	-9.81718
▁sö	-9.81755
▁firma	-9.81827
▁olmadı	-9.81903
▁verilen	-9.81906
▁ekip	-9.82031
▁boyu	-9.82207
▁taşıma	-9.82344
▁alanında	-9.82457
▁biyoloji	-9.82463
▁diz	-9.82524
▁ebeveyn	-9.82543
▁standart	-9.82543
cılık	-9.82625
▁çekti	-9.82827
▁kullanıcı	-9.82849
▁görmeye	-9.82863
dıklarını	-9.82877
lanması	-9.82932
▁parçaları	-9.82938
▁keşif	-9.82964
▁protein	-9.82974
▁bakmak	-9.83056
▁İngilizce	-9.83125
▁sordum	-9.83177
lerindeki	-9.83187
lığ	-9.83192
▁görünen	-9.83349
▁Harika	-9.83388
▁kahve	-9.83389
▁uzan	-9.83438
▁düzelt	-9.83445
▁dergi	-9.83614
▁yapabilirsiniz	-9.83628
▁Dr	-9.83628
▁Mil	-9.83716
▁hesaplama	-9.83718
▁Doğa	-9.83719
▁başta	-9.8379
▁Elbette	-9.83814
▁Şöyle	-9.83814
▁anlayış	-9.83814
▁kullanılan	-9.83821
▁dönüşüm	-9.83852
▁sıradan	-9.83871
▁buluyor	-9.83947
emeyeceği	-9.84231
▁sürdürülebilir	-9.84241
▁hafif	-9.84241
▁kamp	-9.84257
▁tren	-9.84283
▁istediğiniz	-9.84295
▁bulduğum	-9.84513
▁giriş	-9.84701
▁uygulan	-9.84764
▁The	-9.8477
▁zorundayız	-9.85224
▁doğum	-9.85489
▁anlatı	-9.85547
▁sizinle	-9.85563
▁Ses	-9.85623
▁duygusal	-9.85641
▁kullanımı	-9.85647
▁önemlidir	-9.85763
▁üstüne	-9.85975
▁balon	-9.85987
▁suyun	-9.86064
▁oluşturuyor	-9.86089
▁Asya	-9.86104
▁izleme	-9.86122
▁ünlü	-9.86191
▁getirme	-9.86339
▁elektro	-9.86405
▁plastik	-9.86406
▁sevdiğim	-9.86477
▁veriler	-9.86477
▁anlaşma	-9.86578
▁giderek	-9.86602
lenen	-9.86737
▁Afganistan	-9.86844
▁eyalet	-9.86845
▁bekliyor	-9.86849
▁araştır	-9.86862
▁komşu	-9.86886
▁değiliz	-9.86893
▁olabileceği	-9.86973
▁oyuncu	-9.86979
▁Hem	-9.87015
ja	-9.8719
yalım	-9.87253
▁aktivite	-9.87285
▁değerli	-9.87363
▁koku	-9.87421
diğinizde	-9.8744
▁gri	-9.8744
▁saf	-9.87514
▁bacak	-9.87609
amazsınız	-9.87647
▁zincir	-9.87727
▁yolculuk	-9.87727
▁maymun	-9.87728
▁genom	-9.87743
▁çıktığı	-9.87844
▁geçiyor	-9.87865
▁anlıyor	-9.87908
▁evrenin	-9.87912
▁uçuş	-9.88007
▁Gö	-9.88136
▁yaptığını	-9.88237
▁kut	-9.88274
▁yapıyorum	-9.88431
▁bahsetti	-9.88445
▁sağlama	-9.88461
▁patlama	-9.88614
▁cesaret	-9.88618
▁ameliyat	-9.88618
▁birbirlerin	-9.88652
▁gelişmiş	-9.88687
▁Hayatı	-9.88761
▁denedi	-9.88783
▁Bilirsin	-9.88902
▁Sonun	-9.88923
▁çıkardı	-9.88923
abildiği	-9.88935
▁Ah	-9.89042
▁hassas	-9.89067
▁kullanır	-9.89077
▁mekanizma	-9.89077
▁olabileceğini	-9.89104
▁özü	-9.89139
▁yolunu	-9.89159
▁boz	-9.89193
▁balığı	-9.89412
▁kitle	-9.89505
▁paylaşmak	-9.89507
▁kahraman	-9.89517
▁itibar	-9.89517
▁sabit	-9.89517
▁kanun	-9.89599
▁etmeyi	-9.89619
▁gerçeklik	-9.89633
▁Sta	-9.89757
▁döngü	-9.89769
▁300	-9.89798
▁geçirme	-9.898
▁öğrendik	-9.89904
uldu	-9.89938
▁fil	-9.89959
▁dönme	-9.89965
▁Gördüğünüz	-9.8997
▁posta	-9.8997
▁edip	-9.89981
ebilen	-9.90056
▁toplantı	-9.90098
▁kullandığı	-9.90131
▁dinleme	-9.904
ildiği	-9.90422
▁önümüzde	-9.90434
▁servis	-9.90446
▁nevi	-9.90477
▁197	-9.90486
▁yiy	-9.90558
▁yapay	-9.90561
▁Davi	-9.90566
▁aklın	-9.90588
▁salon	-9.90593
▁eşi	-9.90627
ografi	-9.90654
▁boy	-9.90669
W	-9.9077
▁toplumun	-9.90799
▁radyo	-9.9086
▁uluslararası	-9.90881
▁kemik	-9.90881
▁karşılaştı	-9.91001
▁mantıklı	-9.91036
▁oluşturmak	-9.91103
▁sığ	-9.91117
▁hepiniz	-9.91182
▁müşteri	-9.91339
▁Muhte	-9.91339
▁koşullar	-9.91377
▁Genel	-9.91385
niversitesi	-9.91457
▁değiştirdi	-9.91511
▁hissi	-9.91605
▁ayakkabı	-9.918
▁topluluğu	-9.91831
▁Okul	-9.91901
▁bulut	-9.91968
▁sarı	-9.92051
▁tutar	-9.9209
abileceğiniz	-9.92116
▁görür	-9.92127
▁uzaklaş	-9.92256
▁belge	-9.92264
▁erişim	-9.92337
▁kendisini	-9.92428
▁geçer	-9.92441
▁değişiklik	-9.92583
▁çoğunlukla	-9.92728
▁etiket	-9.92729
▁Eski	-9.92734
▁karınca	-9.92762
▁edebileceği	-9.92763
▁adalet	-9.92798
▁verecek	-9.92818
▁fotoğrafı	-9.92878
abilen	-9.92982
▁çalışıyordu	-9.93262
▁Yu	-9.93362
▁inanç	-9.93372
▁birbirleri	-9.93454
▁kısıt	-9.93667
▁hatırlıyorum	-9.93699
▁besin	-9.93745
▁Önce	-9.93803
▁olabilecek	-9.93913
▁olanak	-9.94069
▁geldiğinde	-9.94073
▁bilinen	-9.94131
▁galaksi	-9.94137
▁edebilirsiniz	-9.94222
▁yüzyılda	-9.94369
▁yönel	-9.94428
▁ediyordu	-9.94475
▁diyorum	-9.94573
▁fazlasını	-9.94601
lduğu	-9.94608
▁altyapı	-9.94611
▁epey	-9.94612
▁edilme	-9.94626
▁birinci	-9.94698
▁sizlere	-9.94701
▁yansıt	-9.94778
larımızda	-9.9479
▁Londra	-9.95087
▁şeker	-9.95097
▁neyin	-9.95251
leştiril	-9.95367
▁halkı	-9.95526
▁Birincisi	-9.95565
▁gurur	-9.95565
▁olasılık	-9.95634
▁uçur	-9.95712
▁canlandır	-9.95762
▁hatırlat	-9.95763
ong	-9.95764
▁konuşur	-9.95924
▁dokuz	-9.96077
▁kıyı	-9.96097
lke	-9.96202
▁düşündüğümüz	-9.96214
leşiyor	-9.96256
mizdeki	-9.9628
▁düşündüğüm	-9.96367
▁iyileştir	-9.96414
▁alacak	-9.96437
▁öykü	-9.9644
▁Gün	-9.96497
▁parlak	-9.96535
▁basın	-9.96538
▁kapalı	-9.96596
▁hissettiği	-9.96653
▁mimar	-9.9672
▁bulabilir	-9.96722
▁kültürü	-9.96734
▁ötesinde	-9.96811
▁güney	-9.96887
▁yaptığınız	-9.96917
▁utan	-9.96939
▁lütfe	-9.97015
▁siyasi	-9.97019
▁gelişmekte	-9.97055
▁araçları	-9.97075
▁girişimci	-9.9709
▁taban	-9.97097
▁sorgu	-9.97108
▁aktif	-9.97127
▁Aile	-9.97131
▁anlatma	-9.97183
▁oluşturdu	-9.97207
▁kullandık	-9.97359
▁bağış	-9.97465
▁olabilirsiniz	-9.9749
▁Güzel	-9.97502
▁şifre	-9.97502
▁cümle	-9.97503
olog	-9.9754
▁karıştır	-9.97572
▁ölme	-9.97682
▁seçme	-9.97879
▁tırman	-9.98007
▁seçti	-9.98188
▁İngiliz	-9.98298
▁Göz	-9.98407
▁toplan	-9.98448
▁tespit	-9.98485
▁kuzey	-9.98486
▁müziği	-9.9849
▁şiir	-9.98493
▁ölçüde	-9.98758
▁inanma	-9.9878
▁tarafında	-9.98817
▁karşısında	-9.98829
▁ticaret	-9.9898
▁kalır	-9.99068
▁zar	-9.99114
▁bahsettiğim	-9.9912
▁kalın	-9.99125
▁ırk	-9.99174
▁gerekirse	-9.99211
▁gay	-9.99379
istan	-9.99742
▁kullanım	-9.99799
▁kanal	-9.99889
▁cinsiyet	-9.99978
▁nükleer	-9.99978
▁vazgeç	-9.99978
▁Teknoloji	-9.99978
▁cinsel	-9.9998
▁yargı	-9.99981
▁inceleme	-10.0007
▁kaba	-10.0027
▁işlev	-10.0069
layarak	-10.0088
▁geçtiği	-10.0092
▁vaka	-10.0099
▁taklit	-10.01
▁kulak	-10.01
▁koyar	-10.0104
▁toplay	-10.0105
▁mutluluk	-10.0109
▁çalıştığımız	-10.0112
▁bahsetmek	-10.0125
▁suçlu	-10.0133
▁başardı	-10.0136
▁kullanıyoruz	-10.0137
▁çıkarmak	-10.0142
dışı	-10.0143
▁girişim	-10.0153
▁harf	-10.0157
▁kriz	-10.0173
▁çalıştır	-10.0182
▁olmaktan	-10.0189
▁tıbbi	-10.02
▁çiçek	-10.02
▁Söyle	-10.0201
▁isterim	-10.0207
▁hakları	-10.0217
▁ihtiyacınız	-10.0224
▁Sanat	-10.0231
▁Bakın	-10.0233
▁Kral	-10.0235
lenmesi	-10.0235
▁etkilen	-10.0238
gre	-10.0243
▁ediliyor	-10.0245
▁Sol	-10.0248
▁konferans	-10.0252
▁gizem	-10.0252
▁işletme	-10.0256
▁kayded	-10.0264
▁bulur	-10.0273
▁şekillendir	-10.0273
▁Top	-10.0273
▁araştırmacı	-10.0281
▁bazılarını	-10.0284
▁aptal	-10.0303
▁Öğren	-10.0303
▁kütle	-10.0304
▁yaşıyoruz	-10.0338
▁diyoruz	-10.0345
▁marka	-10.0355
▁kalıyor	-10.0356
uşu	-10.0362
▁Bay	-10.0363
▁durma	-10.0367
▁dışarıda	-10.0398
▁kariyer	-10.0407
▁haklı	-10.0409
▁oluştu	-10.0413
▁kullandığımız	-10.0441
▁gittikç	-10.0442
▁açısı	-10.0459
▁sembol	-10.0462
▁komik	-10.0469
▁anlamıyla	-10.0478
▁alabil	-10.0487
▁kalmış	-10.0488
▁tuttu	-10.0496
▁ulus	-10.0508
▁sandalye	-10.0512
▁rapor	-10.0512
ğümüz	-10.0519
▁Irak	-10.0521
▁edebiliriz	-10.0527
malısınız	-10.0534
▁yapılması	-10.0534
▁katılım	-10.0545
▁musun	-10.0554
▁gösterir	-10.0559
▁çalıştığı	-10.0567
▁arzu	-10.0572
▁yürüy	-10.058
skop	-10.0592
▁meslek	-10.0618
▁dürüst	-10.0618
▁sermaye	-10.0618
▁ağacı	-10.0618
▁kurtarma	-10.0623
▁düzenleme	-10.0627
▁tasarımı	-10.0663
▁cerrah	-10.0672
▁tuvalet	-10.0672
▁Tekrar	-10.0672
▁kıta	-10.0674
▁görüyorum	-10.0692
▁bulabil	-10.0695
bilimci	-10.0696
▁istemiyoru	-10.072
▁ekibi	-10.0726
▁karışık	-10.0728
abileceğini	-10.0732
▁degil	-10.0736
▁görmüş	-10.0736
▁özelliği	-10.0745
▁olayı	-10.0756
▁katman	-10.0771
▁bayan	-10.0774
bilirsin	-10.0775
▁İsrail	-10.0779
▁iskele	-10.0779
▁balina	-10.078
▁yönetici	-10.0785
▁düşünül	-10.0786
▁savunma	-10.0796
▁Hava	-10.0798
▁yapmıyor	-10.0801
abildi	-10.0802
▁düşünüyoruz	-10.0809
▁Bilgisayar	-10.0834
▁serbest	-10.0834
▁berbat	-10.0834
▁mağara	-10.0834
▁yavru	-10.0834
▁günümüzde	-10.0835
▁harcama	-10.0835
▁ordu	-10.0837
▁kirli	-10.0845
▁şanslı	-10.0852
ebildiği	-10.0859
▁ihtimalle	-10.0864
▁2000	-10.0866
▁kayıp	-10.0866
▁görebiliyor	-10.0879
▁şefkat	-10.0888
▁pencere	-10.0888
▁Geri	-10.0907
▁dünyasında	-10.0922
▁arkadaşı	-10.0923
▁hukuk	-10.0943
▁kendinizi	-10.0944
▁atom	-10.0952
▁olamaz	-10.0954
▁İste	-10.0957
▁evrensel	-10.0959
lmaz	-10.0966
▁edersiniz	-10.0975
▁Wal	-10.0978
▁çalıştığını	-10.0982
▁endişelen	-10.0995
çüncü	-10.0997
▁dizayn	-10.0999
▁değişiklikler	-10.0999
▁kulağ	-10.1004
▁kedi	-10.1005
▁olmaması	-10.1029
▁gördüğü	-10.1031
▁rekabet	-10.1054
▁ticari	-10.1054
▁kampanya	-10.1054
▁tartış	-10.1103
▁yürüt	-10.1109
▁başlangıcı	-10.111
▁beklenti	-10.1111
▁kent	-10.1113
▁Biliyorsunuz	-10.1115
▁çizim	-10.113
▁400	-10.1144
▁Sağ	-10.1145
▁lise	-10.1163
▁Yaklaşı	-10.1166
▁kıyasla	-10.1166
▁mercan	-10.1166
▁gözüküyor	-10.1166
▁kredi	-10.1167
▁domuz	-10.1184
İ	-10.1186
▁düşman	-10.1213
▁zevk	-10.1223
▁tavsiye	-10.1223
▁ulusal	-10.1231
▁tanımlama	-10.1238
▁Sağlık	-10.1239
▁görünür	-10.1245
▁istiyorsanız	-10.125
dığınızda	-10.1254
▁Is	-10.1256
▁merkezinde	-10.1268
▁oynama	-10.1269
▁Brezilya	-10.128
▁gökyüzü	-10.128
▁kullandı	-10.128
▁titre	-10.128
▁sıvı	-10.128
▁memnun	-10.128
▁dayalı	-10.1286
▁boşluk	-10.1289
▁yönde	-10.1304
▁Araştırma	-10.1337
▁Facebook	-10.1337
▁oksijen	-10.1337
▁gürültü	-10.1337
▁sivil	-10.1337
▁tanrı	-10.1337
▁talep	-10.1338
dunuz	-10.1353
▁fikrini	-10.1365
▁elinde	-10.1373
▁görüşme	-10.1393
▁trans	-10.1394
▁gönüllü	-10.1394
▁alkış	-10.1396
▁yakalan	-10.1397
▁sevme	-10.1401
▁Kimse	-10.1412
▁eminim	-10.1423
▁krizi	-10.1426
▁ibaret	-10.1452
▁şehri	-10.146
▁edilebilir	-10.1502
lenebilir	-10.1505
▁AIDS	-10.151
▁Almanya	-10.151
▁elektronik	-10.151
▁yetki	-10.1511
▁bileşen	-10.1514
melisiniz	-10.1523
▁toplumsal	-10.1535
▁deniyor	-10.1549
▁bebeği	-10.1569
▁calis	-10.1569
▁acil	-10.1576
▁yapılma	-10.1611
ttığı	-10.1627
▁fonksiyon	-10.1627
▁hafıza	-10.1627
▁kıyafet	-10.1627
▁müdahale	-10.1627
▁bütçe	-10.1627
▁müze	-10.1629
emeyiz	-10.1636
suzluk	-10.1638
▁Şunu	-10.1642
▁böl	-10.1654
▁sistemini	-10.1669
▁farkın	-10.1675
▁materyal	-10.1687
▁çoğunluğu	-10.1687
▁Uzun	-10.1687
▁mantar	-10.1687
▁Kısa	-10.1688
▁oluşuyor	-10.1696
▁dönüştü	-10.1699
▁etmiyor	-10.1706
▁değişme	-10.1706
▁çıkış	-10.1729
▁yerleş	-10.1731
▁zehir	-10.1746
▁gelebilir	-10.177
▁istatistik	-10.1806
▁manzara	-10.1806
▁roman	-10.1812
▁hissediyor	-10.1836
▁tesis	-10.1841
▁kahkaha	-10.1866
▁trilyon	-10.1866
▁döv	-10.1866
▁faktör	-10.1866
▁Kenya	-10.1867
▁imza	-10.1868
▁sıtma	-10.187
▁maru	-10.1874
▁yapılabil	-10.188
▁ilacı	-10.188
▁görülme	-10.1882
▁olmanız	-10.1884
▁Deniz	-10.1912
▁paket	-10.1927
▁deyişle	-10.193
▁yapabilecek	-10.1963
▁edilmesi	-10.1977
▁finans	-10.1984
leştiği	-10.1986
▁başlattı	-10.1986
▁popüler	-10.1988
▁alternatif	-10.1988
▁yumurta	-10.1988
▁teşhis	-10.1988
▁zemin	-10.1988
▁Yalnız	-10.1988
▁üzeri	-10.1989
▁İran	-10.199
▁tüketici	-10.1992
▁koyuyor	-10.1998
▁kültüre	-10.2012
▁köle	-10.2014
▁anlatıyor	-10.2018
melen	-10.2023
▁nedeniyle	-10.2025
▁ekosistem	-10.2049
▁vakit	-10.2049
▁baktığınızda	-10.2051
▁bekleme	-10.2059
▁mantık	-10.2091
ümüzü	-10.21
▁150	-10.2106
▁tümör	-10.2107
▁yörünge	-10.2111
▁Konuşma	-10.2111
▁Mısır	-10.2111
▁Ulusa	-10.2117
▁öncü	-10.2127
▁alalım	-10.2142
▁edebilme	-10.2162
▁profesyonel	-10.2173
▁Özellikle	-10.2173
▁Genç	-10.2174
▁kral	-10.2178
▁çağrı	-10.2206
▁Mc	-10.2207
meyeceğim	-10.2216
▁tuz	-10.2227
▁çerçeve	-10.2235
▁beğen	-10.2236
▁Kanada	-10.2236
ıldığında	-10.2237
▁sağlam	-10.2255
nom	-10.2278
▁heykel	-10.2298
▁platform	-10.2298
▁rastgele	-10.2298
▁devasa	-10.2302
kâr	-10.2308
▁oturuyor	-10.2312
▁hissediyorum	-10.2313
▁Küresel	-10.2362
▁radikal	-10.2362
▁klinik	-10.2362
▁kusur	-10.2362
▁milyarlarca	-10.2362
▁finansal	-10.2366
▁yönelik	-10.237
▁mezun	-10.2379
▁edebiliyor	-10.24
▁Öncelikle	-10.2408
▁tabaka	-10.2425
▁tarif	-10.2426
▁güvenilir	-10.2429
▁rastla	-10.2431
▁Neyse	-10.244
▁üretil	-10.2444
▁sonucunda	-10.2463
▁yaşadığımız	-10.2479
layın	-10.2482
▁Değil	-10.249
▁düşünmüyor	-10.249
▁uyku	-10.2517
▁Yakın	-10.2518
luğ	-10.2526
▁savun	-10.2534
▁faaliyet	-10.2554
▁karikatür	-10.2554
▁fosil	-10.2554
▁baktığımızda	-10.2557
▁diyelim	-10.2558
▁kurban	-10.256
▁kilit	-10.2568
▁kavra	-10.2613
▁Okyanus	-10.2619
▁psikoloji	-10.2619
▁inceledi	-10.262
▁çöl	-10.2621
▁saha	-10.2624
▁yarattığı	-10.2641
▁yatak	-10.2644
▁kaldırı	-10.2672
ldukça	-10.2672
▁vahşi	-10.2684
▁öfke	-10.2684
▁Fransız	-10.2684
▁seyirci	-10.2684
▁yenilikçi	-10.2684
▁vakti	-10.2684
alesef	-10.2685
▁tatlı	-10.2686
▁bildiğiniz	-10.2696
▁dönüyor	-10.2714
▁avantaj	-10.275
▁rengi	-10.2751
▁teklif	-10.2753
▁Hint	-10.2753
▁yapabiliyor	-10.2757
▁metal	-10.2774
▁evlen	-10.2775
ebildi	-10.2794
▁katılma	-10.2814
▁Kesinlikle	-10.2816
▁civarında	-10.2816
▁versiyonu	-10.2816
▁hayran	-10.2816
▁Uzay	-10.2817
▁oluşturma	-10.2848
▁kuyruk	-10.2883
▁Twitt	-10.2883
▁yapabileceğimiz	-10.2893
▁yığın	-10.2901
▁Oyun	-10.291
▁olgu	-10.291
▁çatı	-10.2932
▁örtü	-10.2944
▁mülteci	-10.295
▁düşündüğünüz	-10.295
▁eğri	-10.2951
▁Geliş	-10.2954
▁özgürlük	-10.2955
▁çektiği	-10.2967
▁satış	-10.3002
▁Gülüş	-10.3018
▁kocaman	-10.3018
▁sıkıntı	-10.3018
▁Eğitim	-10.3018
uantum	-10.3019
▁gelince	-10.3024
▁yaşındayken	-10.3024
▁Paul	-10.3035
▁birçoğu	-10.3086
▁Farklı	-10.3086
▁düzgün	-10.3086
▁psiko	-10.3086
▁Umarı	-10.3086
▁etkileyici	-10.3104
▁anlatacağım	-10.3117
▁bölün	-10.3125
▁algoritma	-10.3154
▁cesur	-10.3154
▁tohum	-10.3155
▁soyut	-10.3155
▁Basit	-10.3156
▁olmuyor	-10.3157
▁düşüş	-10.3159
▁blog	-10.3159
▁buzul	-10.317
▁yolculuğu	-10.3217
▁felaket	-10.3223
▁merhamet	-10.3223
▁esnek	-10.3224
▁Proje	-10.3225
▁kırık	-10.3231
▁koloni	-10.3245
▁sıklıkla	-10.3281
▁Meksika	-10.3293
▁depresyon	-10.3293
▁ziyade	-10.3293
▁sahte	-10.3293
▁Erkek	-10.3293
▁kutsal	-10.3299
▁sorumluluk	-10.33
▁ağrı	-10.3307
▁ekley	-10.3353
▁Müslüman	-10.3362
▁örgüt	-10.3362
▁öğle	-10.3363
▁tahta	-10.3363
▁çeşitliliği	-10.3375
lendiği	-10.3419
▁aracılığıyla	-10.3433
▁İslam	-10.3433
▁idare	-10.3434
▁Toplum	-10.3434
▁nehir	-10.3436
▁hasar	-10.344
▁oyuncak	-10.344
▁Nerede	-10.346
▁beslenme	-10.3467
▁belirsiz	-10.3501
▁Şehir	-10.3504
▁olumlu	-10.3504
▁Steve	-10.3505
▁görünüş	-10.351
▁bahsedeceğim	-10.3523
emediği	-10.3542
▁otomatik	-10.3575
▁pozisyon	-10.3575
▁uyuşturucu	-10.3575
▁George	-10.3575
▁zirve	-10.3575
▁iyimser	-10.3575
▁kritik	-10.3575
▁Nijerya	-10.3647
▁resme	-10.365
▁kaybetme	-10.3656
▁eleştir	-10.3693
▁çoğal	-10.372
▁nihayet	-10.372
▁simetri	-10.372
▁şok	-10.372
▁blok	-10.372
▁hesab	-10.3724
▁niyet	-10.3733
▁sakin	-10.374
▁Yaptığı	-10.3743
▁ısınma	-10.3743
▁Eylül	-10.3793
▁avukat	-10.3793
▁demokratik	-10.3793
▁çare	-10.3796
▁kurumları	-10.3864
▁kabiliyet	-10.3866
▁trafik	-10.3866
▁köprü	-10.3866
▁pişir	-10.3866
▁başvur	-10.3867
▁bireysel	-10.3867
▁arayüz	-10.3871
▁patent	-10.3871
▁nesli	-10.3874
▁mobil	-10.3878
▁duymuş	-10.3916
▁Sosyal	-10.394
▁korkutucu	-10.394
▁slayt	-10.394
▁iğne	-10.3941
▁polen	-10.3941
▁ideal	-10.3941
▁sıradışı	-10.3942
▁sağlayabilir	-10.3963
▁başlayalı	-10.3964
▁uzat	-10.3968
ood	-10.4002
▁Avustralya	-10.4015
digim	-10.402
▁taşıyor	-10.4025
▁dusun	-10.404
▁çekiyor	-10.4052
▁içeriği	-10.4077
▁Kaliforniya	-10.409
▁hapishane	-10.409
▁stres	-10.409
▁öldürül	-10.4091
▁organize	-10.4093
▁hamile	-10.4094
▁nano	-10.4095
▁kuram	-10.4116
▁tarama	-10.4116
▁ışın	-10.4121
▁yüzleş	-10.4133
▁Herhangi	-10.4166
▁İnanılmaz	-10.4166
▁şempanze	-10.4166
▁hayret	-10.4166
▁kasaba	-10.4166
▁dosya	-10.4167
▁Yunan	-10.4167
▁oturup	-10.4173
rtesi	-10.4187
▁ağzı	-10.4229
▁kategori	-10.4242
▁Darwin	-10.4242
▁Merkezi	-10.4242
▁Tasarım	-10.4242
▁umarım	-10.4242
▁İsveç	-10.4242
▁borç	-10.4242
▁yürüyüş	-10.4244
düşünebilirsiniz	-10.4244
▁bugünkü	-10.4297
▁sohbet	-10.4319
▁hediye	-10.4319
▁operasyon	-10.432
▁peşinde	-10.432
▁görülen	-10.4321
▁topladı	-10.4343
▁arıyor	-10.4359
▁kabile	-10.4397
▁Hangi	-10.4398
▁konser	-10.4398
▁saklan	-10.4415
▁hızlandır	-10.4432
▁ayrıldı	-10.447
▁Einstein	-10.4475
▁göçmen	-10.4475
▁mektup	-10.4475
▁İtalya	-10.4475
▁barındır	-10.4475
▁Hepiniz	-10.4475
▁benzeyen	-10.4476
▁lisans	-10.4476
▁şaka	-10.4479
▁üstesinde	-10.4482
▁direkt	-10.4488
leşir	-10.454
▁Arkadaş	-10.4553
▁gövde	-10.4554
▁sezgi	-10.4554
▁rüya	-10.4554
▁harcıyor	-10.4554
▁ucunda	-10.4568
▁ilerley	-10.4573
▁dinamik	-10.4633
▁meşgul	-10.4633
▁otobüs	-10.4633
▁prensip	-10.4633
▁profesör	-10.4633
▁Şirket	-10.4633
▁dayanıklı	-10.4633
▁üreme	-10.4643
▁Ekonomi	-10.4713
▁vizyon	-10.4713
▁yuvarla	-10.472
▁tasarlanmış	-10.4729
▁edildiği	-10.4756
▁dükkan	-10.4793
▁pozitif	-10.4793
▁şeffaf	-10.4793
▁kamyon	-10.4794
manyetik	-10.4794
▁çanta	-10.4794
▁Sistem	-10.4795
▁denklem	-10.4798
▁kaybı	-10.4799
▁Beyin	-10.4805
▁por	-10.4819
▁Yoks	-10.4829
▁mucize	-10.4875
▁meyve	-10.4875
▁edelim	-10.4875
▁yaratıklar	-10.4893
▁adapt	-10.4935
▁Richard	-10.4957
▁alışveriş	-10.4957
▁aydınlat	-10.4957
▁mahkum	-10.4957
▁Günümüzde	-10.4957
▁masraf	-10.4957
▁gölge	-10.4957
▁bedava	-10.4957
▁tutuyor	-10.4963
▁kalem	-10.4975
▁tatil	-10.4996
▁yakalay	-10.5009
▁Hikaye	-10.5039
▁Yüksek	-10.5039
▁favori	-10.5039
▁büyüklüğünde	-10.504
▁donanım	-10.504
▁maaş	-10.5042
▁usta	-10.5042
▁Anders	-10.5045
▁geleceğ	-10.5085
▁şurada	-10.5112
▁prototip	-10.5123
▁cadde	-10.5123
▁mutlak	-10.5123
▁tamamıyl	-10.5132
U	-10.5143
▁Washington	-10.5207
▁restoran	-10.5207
▁Fransa	-10.5207
▁yapıştır	-10.5207
▁emekli	-10.5216
▁kömür	-10.5292
▁kütüphane	-10.5292
▁oynuyor	-10.5292
▁yetersiz	-10.5292
▁sigara	-10.5292
▁büyüyen	-10.5295
▁nöro	-10.5339
▁evrimleş	-10.5343
zerinde	-10.5349
▁ayağı	-10.5367
▁Francis	-10.5377
▁NAS	-10.5377
▁Seyirci	-10.5377
▁dehşet	-10.5377
▁düğme	-10.5377
▁sensör	-10.5378
▁macera	-10.5378
▁çocuğ	-10.5442
▁egzersiz	-10.5463
▁fırtına	-10.5463
▁İlginç	-10.5463
▁senaryo	-10.5463
▁Doktor	-10.5463
▁toprağı	-10.5464
▁Allah	-10.5464
▁Tarih	-10.5464
lüğünü	-10.5471
▁MIT	-10.555
▁enfeksiyon	-10.555
▁görürüz	-10.555
▁refah	-10.555
▁Değiş	-10.5551
▁unsur	-10.5552
▁kafe	-10.5554
▁Temel	-10.5603
▁Hayal	-10.562
▁Normal	-10.5638
▁Angeles	-10.5638
▁Merhaba	-10.5638
▁güçlendir	-10.5642
▁ölen	-10.5651
▁Büyü	-10.5681
laşmış	-10.5689
▁yeteri	-10.5713
▁gec	-10.5715
▁Harvard	-10.5726
▁pratik	-10.5726
▁Tahmin	-10.5726
▁havuz	-10.5727
▁Web	-10.573
▁tahri	-10.573
Y	-10.5764
▁edemez	-10.5782
▁Çevre	-10.5816
▁Hareket	-10.5816
▁teslim	-10.5816
görebiliyorsunuz	-10.5822
▁Deney	-10.5879
▁Cevap	-10.5906
▁akciğer	-10.5906
▁elbise	-10.5906
▁ayağa	-10.5906
için	-10.5929
▁Charles	-10.5997
▁2010	-10.5997
▁klasik	-10.5997
▁seçeneği	-10.5997
▁yunus	-10.5998
▁olağan	-10.6088
▁Internet	-10.6088
▁mahkeme	-10.6088
▁empati	-10.6088
▁ajan	-10.6095
J	-10.7865
Ş	-11.6043
Ç	-12.6064
!	-13.1388
♫	-13.1389
;	-13.139
-	-13.1391
—	-13.1392
:	-13.1393
)	-13.1394
?	-13.1395
'	-13.1396
"	-13.1397
,	-13.1398
.	-13.1399
Ö	-13.1399
