<unk>	0
<s>	0
</s>	0
▁	-2.69335
▁.	-3.50414
k	-3.57587
n	-3.79132
▁,	-3.89506
m	-4.02928
t	-4.20424
e	-4.24486
a	-4.28105
l	-4.33558
▁bir	-4.34423
r	-4.35577
i	-4.48755
y	-4.50078
z	-4.50395
s	-4.52251
▁ve	-4.62208
ş	-4.68585
ü	-4.7192
▁"	-4.78731
o	-4.84395
ı	-4.86227
p	-4.86449
la	-4.94207
ma	-4.9645
lar	-4.971
le	-4.9885
da	-4.99591
de	-4.99604
▁bu	-5.0098
ler	-5.04777
ç	-5.14327
me	-5.14962
u	-5.17223
en	-5.17723
ra	-5.18017
ya	-5.22761
▁a	-5.25367
si	-5.26629
sa	-5.29534
li	-5.33826
▁o	-5.37579
▁'	-5.40129
▁de	-5.40735
f	-5.46478
in	-5.46925
an	-5.47453
ri	-5.50045
h	-5.5109
di	-5.51793
ğ	-5.52526
▁Bu	-5.61423
▁ya	-5.61749
im	-5.62482
▁ka	-5.62739
den	-5.64546
sı	-5.65003
na	-5.65382
te	-5.66286
er	-5.66489
▁için	-5.67927
dı	-5.6814
ları	-5.69435
▁da	-5.71568
re	-5.73008
ar	-5.74569
ın	-5.75652
lı	-5.7639
▁ha	-5.78847
d	-5.78862
ne	-5.79916
▁ta	-5.81463
ti	-5.83128
tı	-5.86285
leri	-5.86913
v	-5.87874
un	-5.90086
ta	-5.90822
se	-5.92122
ce	-5.92361
du	-5.95725
ki	-5.98552
lu	-6.00192
yı	-6.00751
iyor	-6.01299
g	-6.01471
ye	-6.01732
▁e	-6.03549
▁gör	-6.03933
▁i	-6.04148
iz	-6.04357
dan	-6.05742
▁şey	-6.0605
▁Ve	-6.06236
ö	-6.0861
ca	-6.09016
▁çok	-6.09851
▁ne	-6.10924
▁A	-6.11401
bi	-6.14332
on	-6.14844
▁?	-6.15431
▁ö	-6.17359
b	-6.17569
▁te	-6.18667
lan	-6.19778
▁g	-6.20052
▁se	-6.20263
▁ki	-6.21949
▁daha	-6.24245
ci	-6.24919
ıyor	-6.25112
▁bil	-6.25806
gi	-6.2689
mek	-6.27629
▁ba	-6.27934
▁B	-6.28231
el	-6.28537
▁S	-6.28968
▁al	-6.31514
va	-6.32173
ların	-6.32988
▁be	-6.33156
0	-6.33346
ün	-6.33559
et	-6.34091
dü	-6.34333
ni	-6.36008
▁K	-6.36266
▁var	-6.36522
ım	-6.36537
mi	-6.36772
▁olma	-6.371
lik	-6.39048
ir	-6.40207
mak	-6.41404
ır	-6.41759
c	-6.42278
▁D	-6.4264
mız	-6.43051
▁so	-6.43985
▁ko	-6.44395
or	-6.45279
bil	-6.46767
yi	-6.47246
▁gel	-6.47581
uz	-6.48126
tu	-6.4816
lerin	-6.48583
▁yap	-6.51659
(	-6.52204
st	-6.54035
ında	-6.54728
▁gibi	-6.55265
▁E	-6.55803
ür	-6.56371
nın	-6.56452
al	-6.5707
il	-6.57415
▁zaman	-6.60806
▁M	-6.61122
▁olarak	-6.61232
▁G	-6.61389
nin	-6.61807
kı	-6.61816
lık	-6.61988
ha	-6.61999
hi	-6.63962
nu	-6.64896
▁do	-6.65156
▁O	-6.65555
ba	-6.66462
▁u	-6.66479
yle	-6.66996
diği	-6.67057
▁olan	-6.6842
▁değil	-6.69275
ku	-6.69793
▁İ	-6.71299
miz	-6.72184
ğı	-6.72601
▁iş	-6.73252
▁her	-6.74046
niz	-6.7432
be	-6.74581
dır	-6.75093
yorum	-6.75313
lü	-6.75672
▁bunu	-6.75773
▁1	-6.76242
▁baş	-6.76465
ro	-6.76544
▁yer	-6.77108
▁ara	-6.77132
nız	-6.77176
▁biz	-6.77712
dir	-6.78366
▁düşün	-6.78833
larını	-6.80951
nı	-6.81044
▁he	-6.81105
şe	-6.81475
▁çalış	-6.82041
▁kadar	-6.83063
ecek	-6.83507
▁yıl	-6.84648
ine	-6.84908
▁di	-6.85076
ör	-6.85737
▁Y	-6.85776
▁Bir	-6.86206
▁ile	-6.8633
▁ben	-6.86378
▁konu	-6.87158
▁an	-6.8792
▁H	-6.8823
bo	-6.89658
miş	-6.89893
vi	-6.89896
lerini	-6.90962
▁kendi	-6.91287
▁pa	-6.91648
sını	-6.919
daki	-6.92847
▁T	-6.93587
▁yüz	-6.94443
arı	-6.94596
zi	-6.95833
mış	-6.95948
ebilir	-6.96182
tır	-6.96585
ğu	-6.96884
tir	-6.97051
yoruz	-6.97807
▁kullan	-6.97837
çe	-6.97957
cı	-6.97979
ıl	-6.98312
▁mi	-6.98812
abilir	-6.98914
ey	-6.99297
lama	-6.99301
▁en	-6.99663
za	-7.00586
ini	-7.00646
cu	-7.00943
sel	-7.01065
gü	-7.01109
ru	-7.01222
j	-7.01448
fa	-7.01737
▁iyi	-7.02
imiz	-7.02077
yu	-7.02126
▁bak	-7.03298
siniz	-7.03447
▁insanlar	-7.03914
▁sonra	-7.03929
▁iste	-7.04319
▁olduğu	-7.05011
ge	-7.06541
▁ama	-7.06553
ur	-7.07476
tan	-7.07495
▁çık	-7.08265
▁olduğunu	-7.08354
dığı	-7.08555
▁insan	-7.09129
▁büyük	-7.11472
▁gerek	-7.11872
şi	-7.12305
tik	-7.12828
▁me	-7.13168
▁siz	-7.1363
▁dünya	-7.13858
eceği	-7.14026
sini	-7.143
sında	-7.14566
yla	-7.15397
ça	-7.15517
▁geç	-7.15599
inde	-7.15746
▁in	-7.17421
acağı	-7.18682
▁kar	-7.18957
▁Ama	-7.19489
ter	-7.20323
▁yaş	-7.22441
dik	-7.23058
▁P	-7.23448
▁yeni	-7.23576
▁nasıl	-7.23695
ve	-7.23742
maya	-7.23772
eği	-7.25019
▁ye	-7.25299
▁kur	-7.25428
▁iki	-7.25436
▁mu	-7.25488
▁Ba	-7.25523
▁değiş	-7.25837
▁mü	-7.26365
acak	-7.26376
unu	-7.26983
▁şu	-7.27165
▁soru	-7.27926
▁onlar	-7.28886
▁kal	-7.29013
▁önce	-7.29099
ış	-7.29123
▁gün	-7.29378
üyor	-7.29649
▁sadece	-7.30363
5	-7.311
ga	-7.31379
▁sağ	-7.31536
▁C	-7.31564
▁yapma	-7.31984
meye	-7.34524
▁fi	-7.35659
▁fazla	-7.35753
▁söyle	-7.35773
▁yol	-7.36034
▁Ha	-7.3607
▁yok	-7.36093
▁etme	-7.36645
▁orta	-7.37312
▁Ben	-7.37699
▁yapı	-7.37701
▁top	-7.37903
dim	-7.3791
▁çünkü	-7.38776
▁göster	-7.38927
liği	-7.39935
ması	-7.40606
▁dön	-7.40944
ını	-7.41212
lığı	-7.41493
sunuz	-7.41716
▁şekilde	-7.4176
▁ev	-7.41806
▁açı	-7.43287
deki	-7.43723
lara	-7.43919
R	-7.47702
sinde	-7.4783
2	-7.48855
dur	-7.49327
ışı	-7.5316
▁oldu	-7.53186
▁su	-7.54423
▁Ne	-7.54521
F	-7.54575
▁aynı	-7.54871
ünü	-7.5511
▁yaptı	-7.55268
▁Sa	-7.55598
▁karşı	-7.55763
uyor	-7.55889
▁etti	-7.56129
3	-7.56803
▁benim	-7.57674
▁gerçekten	-7.57703
9	-7.57948
▁Bunu	-7.59334
▁gerçek	-7.59409
▁hayat	-7.59868
▁san	-7.61158
▁bağ	-7.61337
▁Yani	-7.61497
▁hiç	-7.62037
L	-7.62201
▁Şimdi	-7.62229
▁duy	-7.62272
▁tüm	-7.62371
N	-7.62479
▁hakkında	-7.62833
▁diğer	-7.63112
▁Ta	-7.64041
arak	-7.64471
umu	-7.64874
iği	-7.65476
▁farklı	-7.663
▁kişi	-7.66923
▁sahip	-7.67246
▁süre	-7.69036
ıcı	-7.69513
▁öğren	-7.6963
▁ilk	-7.69789
▁anlam	-7.69821
▁istiyor	-7.69885
▁başka	-7.70086
▁burada	-7.70437
▁çocuk	-7.70785
▁bunlar	-7.71196
w	-7.73195
▁doğru	-7.74178
▁etki	-7.74562
▁yön	-7.74788
▁pe	-7.74795
▁durum	-7.75886
▁önemli	-7.76167
▁gid	-7.76519
▁yarat	-7.76656
düğü	-7.76662
▁ilgili	-7.7683
Ç	-7.79099
▁Alkış	-7.79166
4	-7.79815
Ö	-7.80142
▁böyle	-7.80699
leşti	-7.81069
▁aslında	-7.81458
▁vardı	-7.8197
▁20	-7.82173
Ş	-7.82323
I	-7.83737
▁küçük	-7.83838
▁olur	-7.8631
▁şa	-7.86721
▁göz	-7.86989
▁eder	-7.87071
▁hasta	-7.88972
▁Gülüşmeler	-7.89061
▁başladı	-7.89641
▁çek	-7.89713
▁getir	-7.89773
▁geliş	-7.91471
▁fark	-7.92169
▁parça	-7.92374
▁tür	-7.93129
▁sistem	-7.93671
▁geri	-7.94203
▁eğer	-7.95231
▁üzerinde	-7.95483
muş	-7.95556
▁bazı	-7.95666
diğini	-7.9586
▁zor	-7.95873
J	-7.96095
▁Faka	-7.98109
dığını	-7.98367
▁ediyor	-7.98404
▁ülke	-7.99728
▁olacak	-8.01144
▁art	-8.01438
6	-8.02468
8	-8.03166
▁bulun	-8.03696
▁edil	-8.03699
▁teknoloji	-8.05119
â	-8.05666
A	-8.06131
▁kadın	-8.0642
▁bütün	-8.07455
lendi	-8.10089
V	-8.10174
▁hareket	-8.10908
▁şimdi	-8.11627
U	-8.11756
asyon	-8.11964
D	-8.12124
abileceği	-8.14449
7	-8.15783
▁olabilir	-8.16791
▁nokta	-8.17337
▁yaşam	-8.17425
▁üret	-8.17786
▁çoğu	-8.19205
▁anlat	-8.19799
W	-8.29796
1	-8.29957
S	-8.4362
E	-8.492
B	-8.60957
M	-8.99352
P	-9.04319
T	-9.07507
C	-9.23048
O	-9.46663
G	-9.52568
H	-9.71285
K	-9.82553
Y	-10.5605
!	-10.5961
♫	-10.5962
;	-10.5963
-	-10.5964
—	-10.5965
:	-10.5966
)	-10.5967
?	-10.5968
'	-10.5969
"	-10.597
,	-10.5971
.	-10.5972
İ	-10.5972
