<unk>	0
<s>	0
</s>	0
▁.	-2.70241
▁,	-3.09243
▁bir	-3.70731
▁"	-3.98468
▁ve	-4.01574
n	-4.40049
▁bu	-4.46279
▁	-4.52606
▁'	-4.59866
a	-4.82414
e	-4.87133
▁Bu	-5.0495
▁için	-5.05536
▁da	-5.09956
▁Ve	-5.28464
▁çok	-5.31105
▁?	-5.35168
▁de	-5.35442
m	-5.36797
▁daha	-5.43948
k	-5.6107
▁ki	-5.71265
▁)	-5.71841
(	-5.71941
▁:	-5.74848
▁var	-5.75205
▁gibi	-5.78845
▁olarak	-5.80961
▁şey	-5.89638
▁—	-5.92467
den	-5.98271
▁olan	-6.0001
▁ne	-6.00174
▁kadar	-6.04526
lar	-6.09298
i	-6.11873
▁en	-6.13179
▁o	-6.14969
▁her	-6.15048
nin	-6.18084
dan	-6.19198
▁değil	-6.23434
▁ile	-6.23843
▁ya	-6.27741
▁-	-6.28261
nın	-6.36606
▁olduğunu	-6.36734
▁ama	-6.36759
ki	-6.38618
▁Ama	-6.40919
▁bunu	-6.41076
▁zaman	-6.41247
▁iyi	-6.41259
▁büyük	-6.41682
▁sonra	-6.42789
▁nasıl	-6.43789
▁Bir	-6.44815
p	-6.4974
▁sadece	-6.50101
z	-6.56421
▁çünkü	-6.58513
ler	-6.59301
▁şekilde	-6.6167
ye	-6.62604
ya	-6.63432
ce	-6.64081
▁şu	-6.6555
▁önce	-6.67062
t	-6.67251
▁fazla	-6.69301
da	-6.72814
▁iki	-6.74793
▁;	-6.75535
▁yıl	-6.77451
▁gerçekten	-6.77554
le	-6.77829
la	-6.78441
dir	-6.78621
▁aynı	-6.78841
yi	-6.79396
de	-6.80533
er	-6.80767
▁Yani	-6.81211
▁yeni	-6.81823
▁hakkında	-6.82582
▁Şimdi	-6.83065
▁O	-6.85739
▁benim	-6.88168
▁olduğu	-6.89554
▁ben	-6.91606
▁insan	-6.92866
▁tüm	-6.93138
▁kendi	-6.93365
na	-6.93915
yla	-6.95375
▁farklı	-6.9591
▁ilk	-6.97347
dır	-6.98584
▁diğer	-7.00941
▁içinde	-7.01118
▁aslında	-7.01197
▁insanlar	-7.0147
▁mi	-7.02227
▁böyle	-7.02395
▁ilgili	-7.02846
▁bunun	-7.04248
yı	-7.04484
▁yok	-7.05094
▁küçük	-7.05262
▁♫	-7.05875
ı	-7.06007
▁doğru	-7.0658
yle	-7.06645
iz	-7.06992
▁başka	-7.07369
▁sahip	-7.07452
▁veya	-7.07927
▁Ben	-7.07984
▁burada	-7.08272
uz	-7.08597
▁Gülüşmeler	-7.08801
ü	-7.10528
▁ise	-7.1207
▁şeyler	-7.13818
▁bile	-7.14798
▁eğer	-7.14961
in	-7.15047
▁önemli	-7.15169
▁Faka	-7.1785
▁bana	-7.18211
▁biz	-7.19627
en	-7.20674
ne	-7.20943
▁size	-7.21441
▁bizim	-7.22437
▁biri	-7.24226
▁biraz	-7.25327
▁Eğ	-7.25913
▁in	-7.26425
▁tek	-7.28503
▁üzerinde	-7.28897
ken	-7.29999
▁oldu	-7.30285
▁hiç	-7.30467
ca	-7.30741
▁insanların	-7.31465
▁son	-7.33913
▁Bunu	-7.34271
▁bütün	-7.34436
▁gün	-7.35274
▁şimdi	-7.36235
▁vardı	-7.36487
▁geri	-7.3755
▁yüzden	-7.38268
▁zamanda	-7.39054
siniz	-7.40285
li	-7.41299
▁neden	-7.42896
▁Çünk	-7.43259
▁onu	-7.43364
▁diye	-7.45117
▁tam	-7.45623
▁tarafından	-7.45748
r	-7.46325
▁Kahkaha	-7.46725
▁üç	-7.48026
▁az	-7.48363
▁İşte	-7.48414
▁bazı	-7.48672
▁istiyorum	-7.49109
▁göre	-7.49612
▁yapmak	-7.50714
▁mı	-7.51225
▁olmak	-7.51272
▁nın	-7.52195
▁Çok	-7.52207
arak	-7.52367
▁gerçek	-7.54046
▁ortaya	-7.55992
▁Peki	-7.56353
▁yer	-7.56793
▁oldukça	-7.57438
s	-7.57825
▁bize	-7.57916
▁karşı	-7.60177
▁fakat	-7.60179
▁Bunun	-7.60509
▁şeyi	-7.60685
▁yani	-7.61471
▁olacak	-7.61518
▁iş	-7.61887
▁beni	-7.62083
▁Burada	-7.62675
▁olması	-7.63141
▁oluyor	-7.64212
▁10	-7.64502
▁Aslında	-7.64582
▁birkaç	-7.6479
▁an	-7.65077
▁Her	-7.65188
▁bilgi	-7.65539
▁ın	-7.65952
▁onları	-7.66339
sanız	-7.66434
▁anda	-7.66605
▁güzel	-7.67327
▁Alkış	-7.67597
▁etmek	-7.68133
▁20	-7.68663
▁bunlar	-7.68878
▁dünya	-7.69258
▁boyunca	-7.69311
▁Alkışlar	-7.69459
▁Dünya	-7.69678
▁uzun	-7.69837
▁soru	-7.70439
▁onun	-7.70828
▁tekrar	-7.71481
▁kişi	-7.71971
▁devam	-7.72182
▁olabilir	-7.7271
▁hareket	-7.73279
▁su	-7.73484
▁yüzde	-7.7435
ndan	-7.74492
▁kötü	-7.74637
▁birçok	-7.75586
▁!	-7.76429
sel	-7.76455
▁Anca	-7.7647
▁Evet	-7.77216
▁Daha	-7.77756
▁000	-7.78429
▁geliyor	-7.78767
▁belki	-7.79869
▁Ne	-7.79874
▁teknoloji	-7.80116
▁milyon	-7.80468
ydi	-7.81464
um	-7.81496
lı	-7.81852
▁tamamen	-7.82016
▁zor	-7.82115
▁onlar	-7.83132
▁fark	-7.83408
▁orada	-7.83869
ları	-7.83916
▁arasında	-7.83923
▁olur	-7.84488
y	-7.84884
niz	-7.85215
▁A	-7.85837
▁birlikte	-7.85872
▁harika	-7.86755
lik	-7.86791
▁Biz	-7.86943
▁Siz	-7.8759
▁yerine	-7.87675
▁dedi	-7.87789
▁buna	-7.8803
▁işte	-7.88175
ın	-7.88748
▁yüksek	-7.89342
leri	-7.90091
▁tür	-7.9029
▁karar	-7.90456
▁Bunlar	-7.90465
▁dünyanın	-7.9049
▁pek	-7.90824
▁üzerine	-7.91502
▁S	-7.9153
▁bugün	-7.91655
▁Afrika	-7.91808
▁gereken	-7.91851
▁artık	-7.91938
▁a	-7.92186
▁yol	-7.92269
di	-7.92546
▁öyle	-7.92583
▁basit	-7.92951
▁daki	-7.94254
▁şöyle	-7.9432
erek	-7.94835
▁ederim	-7.95009
ydı	-7.95411
daki	-7.95817
▁para	-7.9583
▁3	-7.96003
lerini	-7.96384
tir	-7.9639
▁i	-7.96446
▁gelen	-7.9674
▁Böylece	-7.97172
▁enerji	-7.97238
▁nin	-7.97291
▁hiçbir	-7.97486
tan	-7.97595
dur	-7.97717
▁hayal	-7.98129
▁vardır	-7.98366
▁açık	-7.98758
▁konusunda	-7.99186
lerle	-7.99705
larını	-7.99983
▁e	-8.00181
▁yardım	-8.00453
sine	-8.00893
▁hızlı	-8.01134
▁geldi	-8.01278
▁eden	-8.01356
si	-8.0141
tır	-8.01687
▁onların	-8.02401
▁dolar	-8.03052
▁Sade	-8.03303
nız	-8.03923
▁Amerika	-8.04437
▁ediyor	-8.0523
▁Tamam	-8.05466
▁yeniden	-8.05542
▁2	-8.05836
▁işe	-8.05855
▁bizi	-8.05926
▁yaklaşık	-8.06376
▁ancak	-8.06667
▁sonunda	-8.06735
sa	-8.07066
▁hale	-8.07211
▁durum	-8.07219
▁çocuk	-8.07751
▁çoğu	-8.07793
▁sosyal	-8.0795
▁Sonra	-8.08249
▁Şu	-8.09097
▁yerde	-8.09413
▁elde	-8.09665
▁herkes	-8.09671
▁tane	-8.0985
▁onlara	-8.10535
sınız	-8.10818
▁hikaye	-8.11655
▁sizin	-8.11769
▁sene	-8.12273
▁ilginç	-8.12474
▁hem	-8.13036
▁ona	-8.13068
▁dört	-8.13154
▁Teşekkürler	-8.13558
▁şeyleri	-8.13691
▁herhangi	-8.13742
▁hemen	-8.13828
▁Benim	-8.13961
▁zorunda	-8.14949
▁yakın	-8.15041
▁alan	-8.15115
▁konu	-8.15718
▁kaç	-8.15732
yu	-8.1617
▁süre	-8.16184
▁temel	-8.16208
seniz	-8.16378
▁olmayan	-8.16396
▁insanları	-8.16514
▁hala	-8.17657
▁1	-8.17851
▁Onlar	-8.17851
▁demek	-8.17926
l	-8.18055
ten	-8.18236
▁inanılmaz	-8.18318
▁eski	-8.18373
▁dünyada	-8.18549
lerine	-8.18703
▁altında	-8.18999
lardı	-8.1918
▁özel	-8.19283
▁istediğim	-8.19476
▁siz	-8.2014
▁kadın	-8.20351
deki	-8.20547
▁fikir	-8.21866
lık	-8.22109
larla	-8.22455
▁etti	-8.2295
▁dair	-8.23231
▁milyar	-8.23328
u	-8.23872
▁izin	-8.23885
sunuz	-8.24157
▁sorun	-8.24761
▁bilim	-8.24947
▁durumda	-8.25055
ız	-8.25339
▁başladı	-8.25528
▁adam	-8.25707
larına	-8.25909
▁yine	-8.25969
▁hatta	-8.26019
▁kontrol	-8.26754
▁ay	-8.26858
▁mümkün	-8.27102
▁örnek	-8.27281
▁kolay	-8.27794
▁güçlü	-8.27932
▁dan	-8.27934
▁bilgisayar	-8.28244
▁ta	-8.28379
▁un	-8.2872
▁birşey	-8.29371
▁bunları	-8.29445
▁Neden	-8.3012
▁5	-8.30348
▁Bugün	-8.30368
▁30	-8.30461
sı	-8.30574
▁En	-8.3062
▁B	-8.31006
▁hepsi	-8.31143
lara	-8.31165
▁parçası	-8.31219
▁yaşam	-8.31277
▁şunu	-8.31712
▁inşa	-8.326
▁genç	-8.33199
▁bence	-8.33953
▁kabul	-8.34001
▁New	-8.34195
▁değildir	-8.34285
▁değildi	-8.34421
▁yalnız	-8.35286
▁kez	-8.3544
▁100	-8.35487
▁veri	-8.35683
▁insanlara	-8.36091
▁hafta	-8.36194
▁gelir	-8.3633
▁kimse	-8.36355
▁neredeyse	-8.36358
▁neler	-8.37039
▁yolu	-8.3775
lere	-8.37846
▁dedim	-8.37915
▁İlk	-8.38086
▁saat	-8.38997
▁den	-8.39166
▁yapmaya	-8.39543
▁sizi	-8.39674
▁50	-8.39728
▁Ya	-8.39863
▁gerekiyor	-8.40974
▁nokta	-8.41026
lerin	-8.41054
▁benzer	-8.41117
▁özellikle	-8.41134
du	-8.41171
▁göz	-8.4152
▁beş	-8.41652
▁yanlış	-8.41746
▁gördüğünüz	-8.42
▁araya	-8.42055
▁yere	-8.42098
dı	-8.42099
▁kısa	-8.42315
▁proje	-8.4263
▁eğitim	-8.42682
▁beyin	-8.43189
▁olduğuna	-8.43286
lerden	-8.4355
▁parça	-8.43703
▁birisi	-8.43894
▁hava	-8.44131
▁araba	-8.44243
▁gösteriyor	-8.44607
▁doğal	-8.44748
▁çalışma	-8.45389
▁üzere	-8.45658
▁düşünün	-8.45753
▁yapı	-8.46562
▁bakın	-8.46573
▁sürü	-8.46585
o	-8.4678
▁E	-8.47035
▁yapan	-8.47324
lardan	-8.47459
▁verici	-8.4748
▁muhtemel	-8.48216
▁kullanarak	-8.48431
▁bundan	-8.48496
▁Hindistan	-8.48724
▁hayat	-8.4883
▁TED	-8.48848
▁sistemi	-8.48931
▁D	-8.49014
▁tahmin	-8.49339
▁yoktu	-8.49677
▁başladım	-8.49732
▁şeyin	-8.49782
ni	-8.49782
▁Aynı	-8.49919
▁çalışan	-8.49976
se	-8.5052
▁arasındaki	-8.50832
▁geçen	-8.51227
▁bunların	-8.51341
▁yaptığı	-8.5139
miz	-8.51641
▁15	-8.51739
sına	-8.51942
▁mu	-8.5196
▁Tüm	-8.52396
▁Çin	-8.52548
▁sonraki	-8.5287
▁olmadığını	-8.53094
▁ihtiyacımız	-8.53164
▁biliyoruz	-8.5323
▁gerek	-8.53478
▁yılda	-8.53531
▁İnsanlar	-8.53739
▁Belki	-8.53761
▁Ban	-8.53828
▁kız	-8.54428
▁görüyorsunuz	-8.5453
▁edin	-8.54685
▁çevre	-8.54709
ların	-8.54814
▁200	-8.54893
▁ses	-8.54942
▁rağmen	-8.5498
▁olsa	-8.55043
▁Son	-8.55104
▁düşünüyorum	-8.55616
▁derece	-8.55622
▁teşekkür	-8.55845
▁görebilirsiniz	-8.55931
▁alıp	-8.56074
▁gelecek	-8.56491
▁4	-8.56654
▁yapıyor	-8.56884
yız	-8.57097
▁insanın	-8.57173
▁araştırma	-8.57655
▁te	-8.58143
▁nedir	-8.5833
▁olursa	-8.58371
▁ikinci	-8.58434
▁cevap	-8.58795
▁G	-8.5888
▁altı	-8.59015
▁dolayı	-8.59103
▁beraber	-8.59106
▁kat	-8.59551
ip	-8.59596
▁yaptığımız	-8.59926
▁ettim	-8.59956
▁bak	-8.59987
▁ı	-8.60382
▁etme	-8.60849
im	-8.61257
▁sağlık	-8.61295
▁bazen	-8.61523
▁güç	-8.61599
▁ifade	-8.61972
▁olduğumuz	-8.62113
▁düşündüm	-8.62291
▁başına	-8.62526
▁çeşit	-8.62611
▁ister	-8.62625
▁York	-8.62657
▁Ayrıca	-8.62671
▁olsun	-8.6268
nüz	-8.62697
▁yardımcı	-8.62706
▁yaptık	-8.63014
▁iletişim	-8.63109
▁grup	-8.63161
▁yüz	-8.63267
▁T	-8.63273
▁olup	-8.63389
▁dakika	-8.63677
▁yılında	-8.63878
▁görmek	-8.63987
▁kendini	-8.64284
nda	-8.64289
▁bağlı	-8.64415
▁on	-8.64462
▁dünyayı	-8.64742
▁ele	-8.65312
▁tedavi	-8.65442
▁dışında	-8.65692
▁adı	-8.65845
▁ekonomik	-8.66227
▁çocuklar	-8.66775
▁konuda	-8.66775
▁etmeye	-8.67005
▁ana	-8.67054
▁karmaşık	-8.67201
▁hep	-8.67553
▁kesinlikle	-8.67577
▁kim	-8.67603
▁beri	-8.67972
▁küresel	-8.68044
▁içine	-8.68067
▁görüyoruz	-8.68176
▁erkek	-8.68652
lerinden	-8.68688
▁gece	-8.68884
d	-8.69113
▁Avrupa	-8.69239
▁sürekli	-8.69377
▁değer	-8.69462
▁K	-8.69465
▁işi	-8.69657
▁ye	-8.69695
▁gerektiğini	-8.6982
▁yapılan	-8.69836
▁ülke	-8.70281
▁yaşayan	-8.70453
▁içerisinde	-8.7048
▁arada	-8.7113
▁Büyük	-8.71179
▁Bütün	-8.71354
▁haline	-8.71393
▁olurdu	-8.71435
▁fikri	-8.71472
▁Buna	-8.71533
▁asla	-8.71645
▁Teşekkür	-8.71875
▁kelime	-8.71887
▁çıktı	-8.71903
ti	-8.72337
▁Bizim	-8.72581
▁olma	-8.72613
▁takip	-8.72642
▁nedenle	-8.72996
▁binlerce	-8.73297
▁olmadığı	-8.73303
▁aile	-8.73312
▁almak	-8.73406
▁vermek	-8.7354
▁ortak	-8.73784
▁Gerçekten	-8.73954
▁biliyor	-8.74379
▁40	-8.74411
▁Hayır	-8.74426
▁evet	-8.74576
▁dünyadaki	-8.75244
▁hayatta	-8.75313
▁yapma	-8.75342
▁yaptım	-8.75401
▁bulunan	-8.75492
▁ediyorum	-8.7552
▁aşağı	-8.7553
▁meydan	-8.75564
▁hücre	-8.75896
▁varsa	-8.75978
▁sebebi	-8.75981
▁Yeni	-8.76034
▁derin	-8.76039
▁tasarım	-8.76331
▁gidip	-8.76396
▁dolu	-8.76539
▁eder	-8.76809
▁bakış	-8.77002
▁toplum	-8.77116
ç	-8.77119
▁yaşında	-8.77139
▁söz	-8.77175
▁kısmı	-8.77495
mış	-8.77521
▁sayesinde	-8.77934
▁video	-8.78037
▁bin	-8.7849
▁M	-8.78536
▁hepimiz	-8.78587
▁defa	-8.78594
▁ait	-8.78677
▁başarılı	-8.78881
▁sistem	-8.79036
▁tabii	-8.79093
▁DNA	-8.79105
▁deki	-8.79447
▁musunuz	-8.7958
▁olmalı	-8.79828
▁ışık	-8.79902
▁sebep	-8.80142
▁uygun	-8.8025
ma	-8.80329
▁anlamın	-8.80365
▁zamanlar	-8.80446
▁hasta	-8.80973
▁he	-8.80994
▁gerekir	-8.81081
yım	-8.81247
▁Diğer	-8.81282
▁genel	-8.8144
▁savaş	-8.81503
▁metre	-8.81678
▁elektrik	-8.81771
ıp	-8.81843
alım	-8.82002
▁düşük	-8.82142
te	-8.82432
▁geniş	-8.82876
sal	-8.82926
▁kadınlar	-8.8313
nı	-8.83309
dim	-8.83313
▁olmadan	-8.83579
▁6	-8.83733
▁mükemmel	-8.83786
▁ayrıca	-8.84044
▁biliyorum	-8.84189
an	-8.84274
▁deniz	-8.84306
▁kendisi	-8.84494
▁mutlu	-8.84887
▁ABD	-8.84964
yiz	-8.8504
ine	-8.85183
▁veren	-8.85228
▁ihtiyaç	-8.85315
▁problem	-8.8536
ydu	-8.8539
▁başladık	-8.85419
▁muhteşem	-8.85505
▁yaptı	-8.85645
▁nerede	-8.85817
▁İki	-8.85938
▁hangi	-8.85958
▁internet	-8.86299
▁güneş	-8.86351
▁canlı	-8.86828
▁mevcut	-8.86902
▁dikkat	-8.87133
▁yıldır	-8.87193
▁resim	-8.87204
▁normal	-8.87322
▁oyun	-8.87377
▁sanat	-8.87492
▁söyledi	-8.8754
▁ileri	-8.87541
▁ev	-8.87632
▁şeye	-8.88237
â	-8.88403
▁ciddi	-8.88496
▁konuşma	-8.88769
▁anlamak	-8.88891
▁u	-8.89157
▁çıkan	-8.89562
▁anlama	-8.89653
yken	-8.89796
lu	-8.89798
elim	-8.89816
lerde	-8.89995
▁göstermek	-8.90069
▁düşünce	-8.90107
▁ettik	-8.90305
▁el	-8.90379
▁yukarı	-8.90423
▁değişim	-8.90814
▁olacağını	-8.90878
▁merak	-8.90898
▁bilirsiniz	-8.90906
larının	-8.91053
▁oluşan	-8.91413
▁gidiyor	-8.91654
▁herkesin	-8.91693
▁birinin	-8.91873
▁gerekli	-8.91938
▁yerlerde	-8.92253
▁madde	-8.92313
▁dahil	-8.92369
▁birini	-8.92402
▁gücü	-8.92529
▁verdi	-8.92819
▁beyaz	-8.92922
▁kendimi	-8.93063
▁Müzik	-8.93429
▁zaten	-8.93429
▁12	-8.93514
▁nun	-8.93541
larından	-8.93602
▁asıl	-8.93672
▁kişisel	-8.93679
▁yanında	-8.93703
▁olmasını	-8.93929
ik	-8.94056
▁çıkar	-8.94122
on	-8.94124
▁buraya	-8.94332
▁yaptığım	-8.94547
▁adım	-8.94583
▁Artık	-8.94804
sini	-8.94964
▁yavaş	-8.95023
ça	-8.95103
▁60	-8.95265
nden	-8.95434
▁bakalım	-8.95742
ta	-8.95925
▁bakar	-8.95959
▁olay	-8.95998
ım	-8.96016
▁çocukların	-8.96029
▁Amerikan	-8.96087
▁Benc	-8.96133
▁fiziksel	-8.96202
▁geli	-8.96392
▁şehir	-8.96422
▁mavi	-8.96559
▁emin	-8.96595
▁aldı	-8.96613
miş	-8.96659
▁veriyor	-8.96712
▁olsaydı	-8.96837
▁film	-8.96917
▁Bunları	-8.96973
▁yemek	-8.97141
▁olduğum	-8.97184
▁Onun	-8.97237
▁ölüm	-8.97328
▁fotoğraf	-8.97499
▁Birleşi	-8.97581
▁haber	-8.97779
▁Örneğin	-8.97828
▁şeylerden	-8.97906
▁müzik	-8.98149
▁ufak	-8.9821
▁Kendi	-8.98287
▁yıllık	-8.98349
▁iç	-8.98494
mız	-8.98778
▁belli	-8.98807
▁nedeni	-8.98811
▁noktada	-8.99116
▁sık	-8.9913
▁söylemek	-8.99216
▁aldım	-8.9926
un	-8.99318
▁başarı	-8.99406
▁verdim	-8.99529
▁görünüyor	-8.99553
▁olmaya	-8.99615
▁sen	-8.99663
▁tabi	-8.99942
▁sonuç	-9.00178
▁ortalama	-9.00222
▁CA	-9.00632
▁yı	-9.00962
▁gördüm	-9.01117
▁yeterli	-9.01267
▁anne	-9.0135
▁sesi	-9.01592
▁resmi	-9.01607
▁Mars	-9.01655
▁lazım	-9.01877
▁sanırım	-9.01945
▁altın	-9.02004
▁bulmak	-9.02006
▁çalışıyor	-9.02375
▁uzak	-9.02384
▁işin	-9.02432
▁biçimde	-9.02451
▁ediyoruz	-9.02625
▁idi	-9.02646
▁şeylerin	-9.02657
▁I	-9.02678
yorum	-9.02711
▁sahibi	-9.02831
▁yapıyoruz	-9.03071
▁derecede	-9.03172
▁Google	-9.03176
▁test	-9.03203
▁buradaki	-9.03218
▁sayıda	-9.03452
▁dünyaya	-9.03666
▁diyor	-9.0416
▁C	-9.04195
▁gittim	-9.04214
▁Nasıl	-9.04435
▁tanesi	-9.04992
▁18	-9.05022
▁yerel	-9.05132
▁Başka	-9.05136
▁Güney	-9.05449
▁kalan	-9.0555
inde	-9.05565
▁yedi	-9.05575
▁acı	-9.05764
▁azında	-9.05782
▁Bazı	-9.0582
sek	-9.05843
▁edecek	-9.06227
▁makine	-9.06291
▁olduklarını	-9.06551
▁tarafta	-9.06576
▁biliyorsunuz	-9.06811
▁Hatt	-9.06849
▁halde	-9.06873
▁olacaktır	-9.06909
sak	-9.0695
▁dışarı	-9.07138
▁Kuzey	-9.07162
▁bağlantı	-9.07215
▁Tanrı	-9.07243
▁hayır	-9.07252
▁nde	-9.07389
▁dijital	-9.07486
anırım	-9.07627
▁kitap	-9.07853
▁bazıları	-9.07964
▁yeşil	-9.08154
▁zamanlarda	-9.08214
▁sağlıyor	-9.08284
▁doğa	-9.08379
▁okul	-9.08388
▁11	-9.08416
▁alanı	-9.08477
▁yatırım	-9.08545
yoruz	-9.08729
▁günde	-9.0879
lerinin	-9.08821
▁çizgi	-9.08853
▁hayvan	-9.09045
▁25	-9.0934
nızı	-9.09344
▁konusu	-9.09384
▁şaşırtıcı	-9.0948
▁üstünde	-9.0978
▁kişinin	-9.099
▁çözüm	-9.09953
sını	-9.10321
▁istedim	-9.10385
▁aşırı	-9.10391
▁araç	-9.10462
▁oldukları	-9.10483
▁ortada	-9.10781
▁işler	-9.10796
▁model	-9.10828
▁etkili	-9.1101
▁açısından	-9.11033
▁adında	-9.11035
▁bununla	-9.11146
▁kanser	-9.11283
▁milyonlarca	-9.1135
▁yüzünden	-9.11647
▁Böyle	-9.1175
nun	-9.11767
▁gösteren	-9.11807
▁etki	-9.11872
▁teşekkürler	-9.11888
▁yerinde	-9.11907
▁bina	-9.1205
▁sağlayan	-9.12077
▁Mesel	-9.1208
▁7	-9.12096
▁medya	-9.12135
sin	-9.12268
▁Herkes	-9.12551
▁ilişki	-9.12561
▁verir	-9.12611
▁olanlar	-9.12788
▁San	-9.12822
▁Birkaç	-9.12873
▁mesela	-9.12879
▁kırmızı	-9.12916
▁oray	-9.13008
▁üst	-9.13106
▁yaratmak	-9.1327
▁insanlarla	-9.13776
▁korku	-9.13919
▁olmuştu	-9.1394
el	-9.13988
▁heyecan	-9.14237
al	-9.14251
▁uzay	-9.14445
▁sayısı	-9.1458
▁icin	-9.14701
▁değilim	-9.14718
▁Onu	-9.14734
ıpkı	-9.14918
▁sağ	-9.14953
▁anlamda	-9.15003
▁H	-9.15132
▁hazır	-9.15144
▁başında	-9.15149
▁yapar	-9.15397
▁ilaç	-9.1549
▁80	-9.15508
▁çıkıyor	-9.16155
yse	-9.16164
▁istiyoruz	-9.16278
▁sanki	-9.16527
▁ihtiyacı	-9.16641
▁ilham	-9.16691
▁devlet	-9.16822
▁anlamı	-9.17179
▁yapabiliriz	-9.1719
▁alıyor	-9.17197
▁göstereceğim	-9.17256
▁çalışmak	-9.17257
▁zamanı	-9.17341
▁yıllar	-9.17429
nizi	-9.17439
▁ön	-9.17555
▁sayı	-9.17588
▁çeşitli	-9.17749
▁yoksa	-9.17903
▁Dolayısı	-9.17947
▁örneğin	-9.18015
▁etkisi	-9.18117
▁hastalık	-9.18274
▁Orada	-9.18354
▁alır	-9.18512
▁kalp	-9.18692
▁gerçekte	-9.18787
▁baş	-9.18813
▁önceki	-9.19025
▁kan	-9.19114
▁inanıyorum	-9.19132
▁durumu	-9.19502
▁mücadele	-9.19747
▁8	-9.19962
▁s	-9.20043
▁bilimsel	-9.20125
▁hâl	-9.20363
▁petrol	-9.20369
▁gelecekte	-9.2052
çe	-9.20623
▁orta	-9.20716
▁katı	-9.2092
▁der	-9.20924
▁İkinci	-9.20942
▁satın	-9.20947
▁fazlası	-9.21613
▁Hiç	-9.21622
▁tamam	-9.21642
leriyle	-9.21703
▁şekli	-9.21784
▁büyüme	-9.21793
yim	-9.21844
▁tepki	-9.22049
▁sıra	-9.22053
▁elbette	-9.22084
▁seviyorum	-9.22099
▁sinir	-9.22232
▁günlük	-9.22394
▁iklim	-9.22427
▁fikirler	-9.22494
tı	-9.22696
▁Biraz	-9.2271
▁konuşmak	-9.22847
▁sonucu	-9.22936
▁yapılmış	-9.22953
▁bilmiyorum	-9.23013
▁ilgi	-9.23016
▁nerey	-9.23042
▁temsil	-9.23147
▁yoktur	-9.23154
▁şirket	-9.23405
▁alt	-9.23426
▁Tabii	-9.23462
▁olmuş	-9.23489
▁içindeki	-9.23521
▁İyi	-9.23546
▁t	-9.23568
▁ülkeler	-9.2375
▁görsel	-9.23773
▁ucuz	-9.23836
▁zengin	-9.23952
▁sağlıklı	-9.2403
▁yaşlı	-9.24341
▁arka	-9.24764
▁gördüğümüz	-9.2477
▁açıdan	-9.24903
▁alakalı	-9.25152
▁garip	-9.2518
▁kullanmak	-9.25236
▁bizler	-9.25266
▁cep	-9.25484
▁beynin	-9.25515
▁gizli	-9.25682
▁önünde	-9.25726
▁korkunç	-9.25763
▁yüzlerce	-9.26112
cak	-9.26127
▁giden	-9.26213
▁olduğundan	-9.26215
▁yapıyorlar	-9.26226
▁başlıyor	-9.26342
▁üzerindeki	-9.26352
▁öğrenme	-9.26362
▁üçüncü	-9.26369
malıyız	-9.26378
▁deney	-9.26486
▁önemlisi	-9.26535
▁kendimizi	-9.26785
▁eve	-9.26821
▁kendilerini	-9.26867
▁etrafında	-9.27005
▁olduğunda	-9.2703
▁buldum	-9.27075
ini	-9.27143
larında	-9.27299
▁geleneksel	-9.27354
▁Video	-9.27381
▁Onları	-9.27386
▁hoş	-9.27451
▁telefon	-9.27588
▁bunlardan	-9.27597
siz	-9.27654
▁destek	-9.27858
▁yaratıcı	-9.27941
▁söylüyor	-9.27984
▁gitmek	-9.28353
2	-9.28408
dür	-9.28675
▁kaynak	-9.28685
▁edilen	-9.28697
▁getirmek	-9.28951
▁türlü	-9.29032
▁sabah	-9.29165
▁hayatın	-9.29253
▁edilmiş	-9.29261
▁Pekala	-9.29275
▁düşün	-9.29393
▁güvenli	-9.29472
▁9	-9.29557
▁hücreleri	-9.29971
▁gerektiği	-9.30028
▁oldum	-9.30162
▁anlamaya	-9.30446
▁şarkı	-9.30541
▁zarar	-9.30542
▁yapmayı	-9.30813
▁robot	-9.3087
▁ayrı	-9.3091
▁Burası	-9.30924
ktan	-9.31081
▁görüntü	-9.31147
▁genellik	-9.31278
adlı	-9.31307
▁saniye	-9.31535
▁yaparken	-9.31646
▁erkekler	-9.31697
▁sorular	-9.31731
▁gördük	-9.31823
▁Birçok	-9.31907
▁görme	-9.31956
▁kişiler	-9.32006
us	-9.32031
▁tip	-9.32079
▁70	-9.32135
▁Beni	-9.32207
▁budur	-9.32324
▁çalışıyoruz	-9.32339
▁değişik	-9.32478
▁Gerçek	-9.32678
▁İnsanların	-9.3291
▁belirli	-9.32941
▁sahibiz	-9.33097
larda	-9.33167
▁sorunu	-9.33178
▁olağanüstü	-9.33242
▁çocukları	-9.33375
▁değiştirmek	-9.33447
▁yaptıkları	-9.33453
▁sırasında	-9.33601
▁insanı	-9.33637
kçe	-9.33886
▁göster	-9.33903
▁düşünmeye	-9.33995
▁politik	-9.34115
▁19	-9.34235
▁Batı	-9.34313
▁geldiğini	-9.34602
▁geç	-9.34674
▁kere	-9.34686
▁İnsan	-9.34817
▁seçim	-9.34898
▁90	-9.34978
mizi	-9.35106
▁dahi	-9.352
▁ikna	-9.35289
▁bölge	-9.35458
▁dışı	-9.35467
▁ikisi	-9.35661
▁ardında	-9.35679
▁takım	-9.3571
▁ediyorlar	-9.35726
▁yi	-9.35743
▁genetik	-9.35908
▁icat	-9.36016
▁yaparak	-9.36022
sın	-9.36185
▁geriye	-9.36217
▁ürün	-9.36256
▁herşey	-9.36288
▁arkadaşım	-9.36389
▁modern	-9.36525
▁sekiz	-9.36626
▁risk	-9.36739
▁yeterin	-9.36775
▁ortasında	-9.36791
▁hepsini	-9.36831
▁senin	-9.36882
▁sonsuz	-9.36954
▁uzakta	-9.36988
▁Tam	-9.37065
▁esas	-9.37071
▁demektir	-9.37169
▁ağ	-9.37304
▁boyutlu	-9.37386
▁verin	-9.37517
▁akıllı	-9.37549
▁erken	-9.37603
▁merkezi	-9.37675
▁at	-9.37851
▁Geçen	-9.38084
rken	-9.38222
nde	-9.38288
▁yanı	-9.38352
▁koruma	-9.3838
▁Demek	-9.38443
▁tercih	-9.38554
▁hayatını	-9.38677
▁balık	-9.38831
▁açıkça	-9.38845
▁evrim	-9.38846
sız	-9.38894
▁kendime	-9.38904
▁fakir	-9.39008
▁halinde	-9.39385
▁mesaj	-9.39453
▁Öyle	-9.39507
▁çalışıyorum	-9.39564
▁gider	-9.39711
▁onunla	-9.3978
▁sonrasında	-9.39807
▁ders	-9.39914
▁sağlamak	-9.40044
▁aldık	-9.40121
▁yaz	-9.40162
▁demokrasi	-9.40251
▁kadınların	-9.40276
▁yiyecek	-9.40278
me	-9.40306
▁ülkede	-9.40366
▁sonuçlar	-9.40452
lerinde	-9.4061
▁bulduk	-9.40627
▁karanlık	-9.40719
▁başta	-9.40875
▁hayvanlar	-9.40954
mızı	-9.40969
▁kafa	-9.40981
▁bitki	-9.41197
▁düşünüyor	-9.41243
▁verdik	-9.41276
▁J	-9.41473
▁miktarda	-9.41755
▁yapmamız	-9.41798
▁hayatı	-9.41809
▁alanda	-9.41839
▁yoğun	-9.41904
▁ettiği	-9.41953
▁çalışmaya	-9.41965
▁500	-9.42046
▁sırada	-9.42077
h	-9.42104
▁birine	-9.42358
▁yapacak	-9.42441
▁L	-9.42543
▁yarısı	-9.42756
eyim	-9.42813
▁F	-9.4286
▁güvenlik	-9.42968
▁şiddet	-9.4339
▁adını	-9.43493
▁umut	-9.43508
▁ışığı	-9.43526
▁Öyleyse	-9.43545
▁geçmiş	-9.43673
▁dil	-9.43825
▁kara	-9.43827
▁aracı	-9.4395
▁hücreler	-9.43982
▁çekici	-9.44078
▁adına	-9.44124
▁kamera	-9.44222
▁cok	-9.4444
▁dizi	-9.4453
▁gaye	-9.44553
▁getirdi	-9.44604
▁siyah	-9.44634
▁davet	-9.45004
▁boş	-9.45022
▁bakarsa	-9.45148
▁olduğumu	-9.45272
▁hastalığı	-9.45335
▁P	-9.45394
▁yaşıyor	-9.45527
▁kaynağı	-9.45588
es	-9.45596
mi	-9.45671
▁kendimiz	-9.45687
▁teşvik	-9.45804
▁olmaları	-9.45846
▁16	-9.45968
▁zeki	-9.46026
▁Hepimiz	-9.46031
▁Orta	-9.46058
▁yazı	-9.46067
▁gerekiyordu	-9.46107
▁bakım	-9.46128
lerdi	-9.46174
▁sıcak	-9.46198
▁Buradaki	-9.46204
▁karbon	-9.46245
▁çapında	-9.46251
▁birşeyler	-9.4638
▁istediğimiz	-9.46436
▁yapabilir	-9.46518
▁şirketler	-9.46527
▁Bazen	-9.46573
▁et	-9.46766
▁fırsat	-9.46773
▁olduğumuzu	-9.46902
▁dış	-9.46914
▁ettiler	-9.47041
▁ten	-9.4708
▁öğrendim	-9.4709
kten	-9.47163
▁muazzam	-9.47329
raya	-9.47335
▁tarih	-9.4734
▁işaret	-9.47358
▁edici	-9.47485
▁okula	-9.47553
▁mil	-9.47574
▁pahalı	-9.4762
▁hata	-9.47695
▁ederek	-9.47744
▁sanal	-9.47762
▁getiriyor	-9.47932
▁geçti	-9.47943
▁başlar	-9.48068
▁Tek	-9.48092
ayım	-9.4815
▁Yine	-9.48156
▁sınıf	-9.48393
▁anlatmak	-9.48607
▁burası	-9.48648
▁sana	-9.48749
▁İnternet	-9.48798
▁kapı	-9.489
▁sağladı	-9.49153
▁çoğunu	-9.49259
▁Sizin	-9.49426
▁neyse	-9.4943
▁ziyaret	-9.49557
▁biyolojik	-9.49568
▁öğrenci	-9.49726
▁yada	-9.49783
▁hızla	-9.49807
▁R	-9.49842
▁tehlikeli	-9.49913
▁sayfa	-9.50031
▁baskı	-9.50031
abilirsiniz	-9.50041
▁gıda	-9.5013
▁kesin	-9.50184
▁Ona	-9.50275
▁Sen	-9.50397
▁Had	-9.50556
ına	-9.50798
▁istiyor	-9.5082
▁benzeri	-9.50923
▁uygulama	-9.51048
▁alma	-9.51312
▁21	-9.51432
▁olmayacak	-9.51497
▁benimle	-9.51533
▁Hem	-9.51574
▁onlarla	-9.51576
▁gösterdi	-9.51661
▁görürsünüz	-9.51713
▁göreceksiniz	-9.51723
▁sıfır	-9.51741
▁akıl	-9.51804
▁süreci	-9.51954
1	-9.51979
▁olmaz	-9.52065
▁öğrenmek	-9.52302
▁eğlenceli	-9.5231
▁olmayı	-9.52414
▁sordu	-9.52421
▁süper	-9.52465
▁ekonomi	-9.5249
▁babam	-9.52532
▁buçuk	-9.52546
▁tarz	-9.52595
▁numara	-9.5265
▁ara	-9.52733
▁ülkelerde	-9.52775
▁kullanıyor	-9.52777
▁gitti	-9.52779
▁ince	-9.52799
▁örneği	-9.52999
▁mü	-9.53024
▁ağır	-9.53031
▁hepimizin	-9.53047
▁oranı	-9.53099
▁sistemin	-9.53192
▁Güneş	-9.53241
▁İngiltere	-9.53346
▁edildi	-9.53397
▁Çoğu	-9.53407
▁la	-9.53483
▁buydu	-9.53549
▁çalıştım	-9.53657
▁al	-9.53688
▁HIV	-9.5376
▁Küçük	-9.5377
▁çift	-9.53845
▁harita	-9.54196
▁düşünmek	-9.54333
▁hedef	-9.54407
su	-9.54418
▁ayak	-9.54508
▁çalıştığım	-9.54554
birine	-9.54615
▁şeklinde	-9.54633
▁dediler	-9.54634
▁verilen	-9.54661
▁araçlar	-9.54857
▁bebek	-9.54943
▁sordum	-9.5507
son	-9.55106
▁teknik	-9.5511
▁dans	-9.55131
▁buldu	-9.55145
▁deneyim	-9.55155
▁13	-9.55186
▁farkın	-9.55186
▁benziyor	-9.55206
▁bildiğimiz	-9.55391
▁amacı	-9.55446
▁hizmet	-9.55459
▁14	-9.55519
▁söylediği	-9.55631
▁olduğunuz	-9.5567
▁kültür	-9.55773
▁müthiş	-9.55796
▁değiller	-9.55849
▁kullanılan	-9.55867
▁noktası	-9.55949
▁24	-9.55967
▁burda	-9.56081
▁süreç	-9.56107
▁miyi	-9.56156
▁almaya	-9.56242
▁alanlar	-9.56345
▁yapabilirsiniz	-9.56357
acağız	-9.56416
▁yan	-9.56447
▁duruyor	-9.56459
▁sorunlar	-9.56603
▁suyu	-9.56628
▁Elbette	-9.56701
▁Şöyle	-9.56701
▁Tabi	-9.56706
▁mesele	-9.56744
▁görünen	-9.56803
▁üniversite	-9.56897
4	-9.56932
▁gezegen	-9.5698
g	-9.57101
▁sürdürülebilir	-9.57129
▁olmamız	-9.57133
3	-9.57134
▁güven	-9.57205
▁yöntem	-9.57539
ing	-9.57542
▁düşünme	-9.57639
▁sizinle	-9.57652
liğe	-9.57665
▁gücünü	-9.57689
▁kök	-9.57893
▁Sonun	-9.58019
▁zorundayız	-9.58093
▁verme	-9.58272
▁işbirliği	-9.58321
▁nesil	-9.5842
▁edebilir	-9.58462
▁annem	-9.58618
▁önemlidir	-9.58653
▁yaygın	-9.58732
▁kamu	-9.58803
dım	-9.58886
▁Doğu	-9.58957
▁üstüne	-9.59198
▁Adam	-9.59206
▁sol	-9.59217
▁problemi	-9.59265
▁yeri	-9.59281
▁giderek	-9.59301
▁sıradan	-9.59353
dik	-9.59376
▁yaşındaki	-9.59409
▁İngilizce	-9.59423
▁olanı	-9.59437
▁nefret	-9.59477
inden	-9.59549
▁Afganistan	-9.59732
▁ettiğimiz	-9.59997
▁rahatsız	-9.60102
▁sağlayacak	-9.60129
▁evde	-9.60134
▁Sonuç	-9.60175
▁değiliz	-9.60274
▁zihin	-9.60305
▁çocuğun	-9.60322
▁km	-9.60336
▁isteyen	-9.6038
▁yapıldı	-9.60609
▁tarihi	-9.60649
larıyla	-9.60668
▁yağmur	-9.60732
▁duygusal	-9.60737
▁yapıyorum	-9.60765
▁başa	-9.60919
▁yaptığını	-9.6096
▁okyanus	-9.60962
nca	-9.60983
▁şekil	-9.60988
tik	-9.61206
▁pazar	-9.61256
▁geçerli	-9.61406
▁birbirin	-9.61476
▁dönü	-9.61534
▁El	-9.61678
▁arası	-9.61681
▁görmeye	-9.61795
▁olduk	-9.6184
▁tuhaf	-9.61954
ıyla	-9.61954
▁rol	-9.61968
▁nevi	-9.62075
▁Bilirsin	-9.62129
▁günü	-9.62138
▁mal	-9.62148
▁kısmını	-9.62192
▁malzeme	-9.62218
▁17	-9.62338
▁yana	-9.62372
ton	-9.62407
▁soğuk	-9.62471
▁paylaşmak	-9.62554
▁Çocuk	-9.62691
▁yüzyılda	-9.6279
▁Gördüğünüz	-9.62857
▁edip	-9.62889
▁modeli	-9.63147
▁hafif	-9.63306
▁saygı	-9.63362
▁şeyden	-9.6371
▁uluslararası	-9.63768
▁olmasın	-9.63812
▁Chris	-9.63833
iyle	-9.63855
▁önümüzde	-9.63863
▁yapmış	-9.64004
▁içeri	-9.64073
▁sefer	-9.64111
▁köpek	-9.64175
▁ila	-9.64189
▁parçalar	-9.64199
▁temiz	-9.64213
▁fazlasını	-9.64232
▁Bize	-9.64243
▁The	-9.64298
▁oda	-9.64412
▁yaş	-9.64511
▁geldiği	-9.64519
▁anlam	-9.64562
iyoruz	-9.6457
▁yerler	-9.64602
▁çocuğu	-9.64667
▁Devletler	-9.64696
▁Dr	-9.64768
▁Harika	-9.648
▁sorunları	-9.64817
▁199	-9.64896
▁hayatımı	-9.64906
▁bulunduğu	-9.64923
▁gel	-9.64967
▁akşam	-9.65016
▁değerli	-9.6509
▁kilometre	-9.65178
▁yüzyıl	-9.65181
▁net	-9.65211
▁görüyor	-9.65382
kça	-9.65423
▁Asya	-9.65535
▁imkansız	-9.65567
▁çoğunlukla	-9.65645
▁yabancı	-9.65692
mı	-9.65816
▁mantıklı	-9.66011
▁adamı	-9.66121
▁halk	-9.66162
▁verimli	-9.66197
▁bakmak	-9.662
A	-9.66294
▁olmadı	-9.66368
▁gelişmiş	-9.66407
▁ek	-9.66463
▁Doğru	-9.66508
▁görev	-9.66529
▁hatırlıyorum	-9.66565
▁bilinen	-9.6658
▁İş	-9.66618
▁nefes	-9.66651
▁üretim	-9.66697
▁geldiğinde	-9.66834
▁oluşturmak	-9.66859
▁bulunuyor	-9.66887
▁sonu	-9.66935
▁gelişme	-9.66963
▁diyorum	-9.67104
▁edebilirsiniz	-9.67107
▁yapay	-9.67246
▁sahne	-9.67288
▁yılın	-9.67359
▁bilmek	-9.67396
muş	-9.67411
▁epey	-9.67498
▁evrenin	-9.67498
▁sizlere	-9.67705
▁şeydir	-9.67733
▁mimari	-9.67794
▁Eski	-9.67986
▁plan	-9.68077
▁seyahat	-9.6812
▁anlat	-9.68163
▁N	-9.68191
▁ünlü	-9.68212
▁duvar	-9.6822
▁türü	-9.68269
▁gerçeği	-9.68302
▁300	-9.68348
▁parçaları	-9.68353
▁yola	-9.684
▁dikkatli	-9.68434
▁adamın	-9.68443
▁verdiği	-9.68576
ysa	-9.68612
▁Birincisi	-9.68633
▁yakında	-9.68707
▁alanında	-9.68711
▁kendin	-9.68741
▁yarı	-9.68756
▁Bilim	-9.68763
▁Hiçbir	-9.68795
ebilirsiniz	-9.68861
▁kapalı	-9.68948
▁tıp	-9.68969
▁sağlar	-9.69044
▁neyin	-9.69131
▁oy	-9.69168
▁tehdit	-9.69191
▁herşeyi	-9.69338
▁sesleri	-9.69407
▁sonuçları	-9.6944
▁oyunu	-9.69586
▁koydu	-9.69623
▁kilo	-9.69645
▁Londra	-9.69766
▁verileri	-9.69812
▁web	-9.6987
▁ötesinde	-9.69889
▁lütfe	-9.69902
▁gelişmekte	-9.69908
ir	-9.70068
▁dediğimiz	-9.70135
▁gen	-9.70233
▁yapacağı	-9.70265
▁korumak	-9.70336
▁başladılar	-9.7037
▁olabilirsiniz	-9.70424
▁ölçüde	-9.705
▁olabileceğini	-9.7052
▁değiştirdi	-9.70636
larımız	-9.70686
▁sevdiğim	-9.70707
▁eşit	-9.70756
▁Hepsi	-9.70865
▁Su	-9.70961
▁John	-9.70965
man	-9.71007
▁renk	-9.71022
▁sevgi	-9.71066
▁şehrin	-9.71108
▁suç	-9.71295
▁değişimi	-9.71299
▁önün	-9.71302
▁geleceği	-9.71349
▁matematik	-9.7137
▁siyasi	-9.71394
cık	-9.71531
▁dek	-9.71546
ci	-9.71766
▁aşı	-9.71788
▁geneld	-9.71797
▁yaptılar	-9.71818
▁...	-9.71868
▁gerekirse	-9.7192
▁bağımsız	-9.72115
▁çıkı	-9.72138
▁yaratıyor	-9.72344
▁arkasında	-9.72479
▁başarısız	-9.72553
▁kimyasal	-9.72565
▁kanseri	-9.72611
▁tasarruf	-9.72626
▁hayata	-9.72699
▁nükleer	-9.72894
▁kar	-9.73027
▁nda	-9.73096
▁seni	-9.73118
iyor	-9.73198
▁dediği	-9.73348
▁programı	-9.73424
▁çalıştığımız	-9.73719
▁insanlardan	-9.73767
▁sabit	-9.73786
▁molekül	-9.73929
is	-9.73976
▁şeydi	-9.74004
▁kullanıyoruz	-9.74008
▁kaldı	-9.74008
▁saye	-9.7418
▁hikayeler	-9.74285
▁isterim	-9.7444
▁fare	-9.74544
liği	-9.74556
▁elimizde	-9.74614
imiz	-9.7481
▁duygu	-9.74814
▁değiştirebilir	-9.74847
▁si	-9.74861
▁tıbbi	-9.74905
▁Bakın	-9.74928
▁yılı	-9.7494
▁ihtiyacınız	-9.75063
9	-9.75073
leşmiş	-9.7515
▁duydu	-9.7515
▁nereden	-9.75311
▁olmaktan	-9.75364
▁istiyorlar	-9.75442
▁telefonu	-9.75483
▁kağıt	-9.75643
▁farkında	-9.7571
▁yıldız	-9.75734
▁büyüdü	-9.7578
▁gittikç	-9.75793
▁bahsetmek	-9.75872
▁yaşıyoruz	-9.76027
▁diyoruz	-9.76082
▁Al	-9.76205
▁diğeri	-9.76268
▁ettiğim	-9.76376
▁olun	-9.76486
▁kare	-9.7655
▁Onların	-9.7669
▁dışarıda	-9.76714
▁koy	-9.76773
▁etmeyi	-9.7678
▁virüs	-9.76805
▁misin	-9.76875
▁Bazıları	-9.76885
▁hakları	-9.77042
▁ton	-9.77091
▁parlak	-9.77129
▁ani	-9.77147
▁rahat	-9.77154
▁Kim	-9.77214
▁lerde	-9.77284
▁yap	-9.77303
▁işleri	-9.77372
▁öğrenciler	-9.7738
▁teknolojiyi	-9.77432
▁ters	-9.77501
▁posta	-9.77582
▁kullanma	-9.77609
▁anlamıyla	-9.7766
▁olabilecek	-9.77679
▁plastik	-9.77693
▁ölü	-9.77727
▁hikâye	-9.77887
▁kişiye	-9.77957
▁suyun	-9.7796
▁kitabı	-9.77973
▁nesne	-9.78007
▁musun	-9.78022
▁bakteri	-9.78041
▁yaşamak	-9.78074
▁edebiliriz	-9.7811
▁doktor	-9.78178
or	-9.78216
▁Teknoloji	-9.78248
▁yasa	-9.78464
▁çalışır	-9.78568
abiliriz	-9.78737
▁Amerikalı	-9.78745
▁karşılık	-9.7878
▁cevabı	-9.78786
▁taklit	-9.78803
▁vücut	-9.78811
▁toplumun	-9.78844
▁karşısında	-9.78894
▁taraf	-9.78909
▁zeka	-9.78922
▁düşündük	-9.79014
▁görüş	-9.79046
▁sessiz	-9.79063
▁kalma	-9.79342
▁veriler	-9.79376
▁bulmaya	-9.79404
▁eş	-9.79511
▁görüyorum	-9.79653
▁silah	-9.79703
▁bırak	-9.79716
▁ilerleme	-9.79813
▁ürünü	-9.79902
▁birinde	-9.79921
▁uç	-9.80298
▁adet	-9.80312
▁li	-9.80394
▁hikayesi	-9.80416
▁tespit	-9.80424
▁olacaktı	-9.80455
▁aktif	-9.80597
▁düşünüyoruz	-9.80792
▁açısı	-9.80807
▁çıkarmak	-9.80948
▁sistemleri	-9.80952
▁yolunu	-9.81
▁hükümet	-9.81046
▁artış	-9.81076
▁tartışma	-9.81111
niversitesi	-9.812
▁gelmiş	-9.81234
▁2000	-9.81252
luk	-9.81263
▁öldü	-9.81291
▁etkileşim	-9.815
▁robotlar	-9.81501
ını	-9.8151
▁yerden	-9.81698
▁dokuz	-9.8174
▁ağaç	-9.8175
▁yollar	-9.81876
▁kendileri	-9.81922
▁dev	-9.81925
▁kutu	-9.81944
▁Tekrar	-9.81986
lerdir	-9.82011
▁toplam	-9.82036
ş	-9.82085
▁alet	-9.82249
sinden	-9.82336
▁yerlere	-9.82373
▁dünyasında	-9.82469
likle	-9.82495
▁edersiniz	-9.82499
larımızı	-9.82539
▁İngiliz	-9.82684
▁ihtiyacım	-9.82784
▁ulaşmak	-9.82831
▁davranış	-9.82869
▁açtı	-9.83082
▁sistemini	-9.83168
▁istemiyoru	-9.83195
▁değişti	-9.83217
▁serbest	-9.83403
▁miydi	-9.83519
▁tarım	-9.83591
▁sanatçı	-9.83647
▁adamları	-9.83714
▁komik	-9.83933
▁mutluluk	-9.83969
▁Biliyorsunuz	-9.84013
▁istedik	-9.84054
▁fikirleri	-9.84148
▁balığı	-9.84155
diniz	-9.8418
▁etmiş	-9.84212
▁terk	-9.84272
▁yarım	-9.84431
▁istedi	-9.84534
dığını	-9.84601
▁aç	-9.84616
▁kuş	-9.84669
▁değişikliği	-9.84911
▁kullan	-9.84984
▁gibiydi	-9.84985
▁İkincisi	-9.85006
▁durumun	-9.85022
▁kullandığımız	-9.85035
▁dönemde	-9.8506
meliyiz	-9.85063
▁gruplar	-9.8507
▁düz	-9.8508
▁kurallar	-9.851
▁Önce	-9.85107
▁doğum	-9.85111
▁ulusal	-9.85132
▁taki	-9.85158
▁yazılım	-9.8516
▁biyoloji	-9.85176
▁istiyorsanız	-9.85187
▁denen	-9.85325
▁çıkardı	-9.85408
▁Dünyada	-9.85575
▁dayalı	-9.85695
▁spor	-9.85724
▁benden	-9.85772
▁V	-9.85823
▁seks	-9.85851
▁fotoğrafı	-9.85866
▁bölümü	-9.85892
▁zamanlı	-9.8593
▁rüzgar	-9.86208
▁polis	-9.86228
▁yazık	-9.86233
▁Facebook	-9.86254
▁Yaklaşı	-9.86263
▁alın	-9.86318
▁evrensel	-9.8637
▁buz	-9.86423
▁kural	-9.86534
▁oluşturuyor	-9.86602
▁ihtimalle	-9.86744
▁önem	-9.86803
▁Irak	-9.86825
▁Kimse	-9.86857
▁program	-9.86876
▁eminim	-9.86876
▁miktar	-9.87014
▁sarı	-9.8704
▁Güzel	-9.87092
▁ticari	-9.87097
▁bakı	-9.87234
▁merkezinde	-9.87271
▁değeri	-9.87281
5	-9.87323
land	-9.87403
▁tecrübe	-9.87426
▁sahiptir	-9.87449
▁tarafı	-9.87505
▁kimin	-9.8752
▁ettiğini	-9.87524
▁hak	-9.8753
▁devrim	-9.87547
▁etmesi	-9.87564
▁okuma	-9.876
▁yapılması	-9.8768
▁işlem	-9.87721
▁tan	-9.87788
▁arama	-9.87829
▁ülkelerin	-9.87911
▁sert	-9.88026
▁toplumsal	-9.88033
▁AIDS	-9.88036
▁Almanya	-9.88056
yor	-9.88097
▁parmak	-9.88102
▁kullanan	-9.88136
▁cihaz	-9.88146
▁hali	-9.88258
▁özgür	-9.88395
▁yoluyla	-9.88414
▁halka	-9.88527
larımızın	-9.88572
▁oluşturan	-9.88592
▁0	-9.88714
▁gerçeklik	-9.88762
▁türden	-9.88767
▁birbirleri	-9.88769
▁yerini	-9.88805
lığı	-9.88819
▁kadının	-9.8885
▁Pek	-9.88927
▁karşıya	-9.89016
▁başlangıç	-9.89091
▁birer	-9.89181
▁sonrası	-9.89199
▁makale	-9.89214
▁değişiklik	-9.89377
▁vermeye	-9.89403
▁çalışmalar	-9.89704
▁berbat	-9.89708
▁birbirlerin	-9.89725
▁Uzun	-9.89754
▁Şunu	-9.8977
▁bende	-9.89779
▁Japonya	-9.89807
▁hareketi	-9.89836
▁kurmak	-9.8985
▁oranda	-9.89874
▁nadir	-9.89901
▁potansiyel	-9.89961
▁kendisini	-9.90018
▁kendinizi	-9.90103
▁beyni	-9.90126
▁tarafında	-9.90179
▁bilgileri	-9.90196
▁istediğiniz	-9.90263
▁uyum	-9.90278
co	-9.90305
▁verecek	-9.90339
▁çalıştık	-9.90385
▁Ah	-9.90387
ecek	-9.90397
▁elektronik	-9.9043
▁na	-9.90476
▁olacağı	-9.90479
▁ediliyor	-9.90489
▁cinsel	-9.90489
▁geçer	-9.90504
▁amaç	-9.90515
▁bisiklet	-9.90562
▁olmaması	-9.90593
▁elinde	-9.90614
▁peki	-9.90724
▁hastalıklar	-9.90732
▁evin	-9.90738
▁Geri	-9.90748
▁olmanı	-9.90752
▁Davi	-9.90763
▁400	-9.90769
▁Sizi	-9.9081
▁koyu	-9.90866
▁gezegende	-9.90874
▁kendiniz	-9.90897
▁çalışması	-9.9096
▁ateş	-9.90984
▁yaklaşım	-9.90989
▁televizyon	-9.91027
▁alarak	-9.91046
▁çılgın	-9.9126
▁strateji	-9.91303
▁barış	-9.91368
▁bölgede	-9.91418
▁yapması	-9.91422
▁oluşturur	-9.91471
▁sıtma	-9.91562
▁zayıf	-9.91669
▁konuşmaya	-9.91692
▁sorunun	-9.91868
▁kayıt	-9.91965
▁olduğunuzu	-9.92111
▁geçiş	-9.92116
▁çocuklara	-9.92171
▁kaynakları	-9.92193
▁fikrini	-9.92209
▁ederken	-9.92362
D	-9.92533
6	-9.92556
▁kalıyor	-9.92589
▁kısım	-9.92603
▁kullanımı	-9.92607
ında	-9.92684
▁dolara	-9.92765
▁bilmiyor	-9.92782
▁edilebilir	-9.92855
▁Ses	-9.92873
▁bi	-9.92953
▁deyişle	-9.92977
▁odada	-9.92997
▁endişe	-9.93042
▁nüfus	-9.93047
▁nedeniyle	-9.93071
ku	-9.93173
▁geçiyor	-9.93182
▁isimli	-9.93199
▁cam	-9.93272
▁evren	-9.93283
▁ismi	-9.93316
▁bölüm	-9.93392
▁baktığınızda	-9.93417
▁getiren	-9.93446
▁sıvı	-9.93509
▁aksin	-9.93515
▁teori	-9.93647
▁özelliği	-9.93652
▁ahlaki	-9.93664
▁kurdu	-9.93666
▁hissi	-9.93718
▁şehirler	-9.93745
▁anı	-9.93987
▁havada	-9.93987
▁alalım	-9.94039
▁söylüyorum	-9.9407
▁Çocuklar	-9.94123
▁altyapı	-9.9413
▁tamamı	-9.9418
▁orman	-9.94229
▁çalıştığını	-9.94398
▁çalıştı	-9.94431
▁yaratma	-9.94436
il	-9.94467
sinin	-9.94467
▁insanlık	-9.94512
▁radyo	-9.9453
▁yönetim	-9.94575
▁içi	-9.94681
▁baktı	-9.94715
▁arazi	-9.94764
▁farkı	-9.94791
▁b	-9.94801
▁şirketi	-9.94863
▁söyler	-9.94912
▁politika	-9.94953
▁bizimle	-9.95126
▁Yalnız	-9.95146
sun	-9.95151
▁yıllarda	-9.9518
▁verdiler	-9.95197
▁Dedi	-9.9532
▁araçları	-9.95354
▁konuya	-9.9539
▁Bizler	-9.95482
▁teknolojiler	-9.95498
▁yaşadı	-9.95505
▁yolculuk	-9.95558
▁sorumlu	-9.95592
▁yakıt	-9.95639
▁başlayan	-9.95652
▁yapacağım	-9.95687
▁gittik	-9.95711
▁önemi	-9.95714
lerimiz	-9.9573
▁Brezilya	-9.95854
▁yaşamın	-9.95877
▁hissediyorum	-9.95885
▁devasa	-9.95888
▁geliyordu	-9.96231
▁kenar	-9.96236
▁Ulusa	-9.9625
▁olabilirdi	-9.96457
▁finansal	-9.96508
▁arkadaşlarım	-9.96623
▁sürede	-9.96644
▁ederiz	-9.9678
▁deniyor	-9.96952
▁iddia	-9.96953
▁analiz	-9.96993
▁arkadaş	-9.97014
▁öğretmen	-9.97106
F	-9.97136
▁görebilir	-9.97182
▁günümüzde	-9.97227
▁Neyse	-9.97233
▁hâle	-9.97248
▁yarattı	-9.97256
▁alanları	-9.97277
B	-9.97336
▁Özellikle	-9.97421
▁inanıyor	-9.97437
▁ün	-9.97439
▁İ	-9.97468
▁sonucunda	-9.97494
▁hakkı	-9.97538
▁sınırlı	-9.9767
▁topluluk	-9.9769
▁sivil	-9.97768
▁din	-9.97821
▁ihtiyaçları	-9.97855
▁edilmesi	-9.97857
imizin	-9.97863
▁can	-9.98079
▁popüler	-9.98211
▁anahtar	-9.98213
▁Va	-9.98249
▁döndü	-9.9826
▁gelebilir	-9.98293
▁hayatlarını	-9.98316
▁radikal	-9.98392
▁üçte	-9.98394
▁yetişkin	-9.98417
▁içeren	-9.98446
▁diyelim	-9.98447
▁anlamlı	-9.98458
▁baktığımızda	-9.9847
▁sermaye	-9.98518
▁dedik	-9.98552
▁çaba	-9.98579
▁git	-9.9858
▁anladım	-9.98671
▁parayı	-9.98684
▁degil	-9.98693
▁doku	-9.98722
▁biliyordu	-9.98853
▁istediği	-9.98881
▁şans	-9.98898
▁Öncelikle	-9.98939
▁Yüz	-9.98956
▁Sağlık	-9.99088
▁sıkı	-9.99171
▁çözmek	-9.99253
▁aklım	-9.99258
▁He	-9.99292
▁milyarlarca	-9.99294
▁toplu	-9.99358
▁vakit	-9.99418
▁adamlar	-9.995
▁etmemiz	-9.99517
▁çöp	-9.9963
▁dili	-9.99635
▁sizler	-9.99665
▁Değil	-9.99699
▁tatlı	-9.99747
▁bilmiyoruz	-9.99822
▁şeker	-10.0004
▁askeri	-10.0005
▁keşif	-10.0017
▁sürece	-10.0018
▁alacak	-10.002
▁rakam	-10.0023
▁dur	-10.0026
▁uçak	-10.0033
▁düşündü	-10.0042
▁maliyeti	-10.0045
mizin	-10.0049
▁yönelik	-10.0057
▁liste	-10.0061
▁mikro	-10.0071
▁olanak	-10.0081
▁gelişim	-10.0095
▁bakıyor	-10.0096
▁İsrail	-10.0098
▁Kesinlikle	-10.0105
▁engel	-10.0121
▁W	-10.0121
▁görünür	-10.0134
▁150	-10.0138
▁durumunda	-10.0146
▁Genel	-10.0154
▁gördüğüm	-10.0154
▁bunlara	-10.0155
▁okulda	-10.0156
▁yüzyılın	-10.016
▁çekmek	-10.0161
▁sistemler	-10.0164
▁olmanız	-10.017
▁vahşi	-10.0172
▁Twitt	-10.0175
▁çalışırken	-10.0181
ldukça	-10.0181
sıyla	-10.0185
▁yaptıklarını	-10.0192
lardır	-10.0204
▁oksijen	-10.0206
mak	-10.0206
▁acil	-10.0212
▁girdi	-10.0217
▁ibaret	-10.0218
▁Kenya	-10.0226
▁kızlar	-10.0245
▁oluşuyor	-10.0245
▁basitçe	-10.0247
▁hassas	-10.0248
▁yolla	-10.0249
lerimizi	-10.0256
▁alıyoruz	-10.026
▁kullanmaya	-10.0263
▁sebeple	-10.0267
▁gösterir	-10.0271
▁kuru	-10.0272
▁tutmak	-10.0274
▁toprak	-10.0275
sam	-10.0278
▁karakter	-10.029
▁kalmış	-10.03
▁batı	-10.0306
▁kocaman	-10.0307
▁yaşındayken	-10.0311
▁filmi	-10.0311
▁kullanır	-10.0312
▁anlatacağım	-10.0314
▁gelince	-10.0316
▁park	-10.0316
H	-10.0325
▁saatte	-10.0334
▁birinci	-10.0339
▁zordur	-10.0341
▁bildiğiniz	-10.0341
▁şehri	-10.0352
▁kişiyi	-10.0352
ysanız	-10.0359
▁civarında	-10.0365
▁resimler	-10.0372
▁düzgün	-10.0375
▁etkileyici	-10.0375
▁çoğunuz	-10.0375
▁Sorun	-10.0375
▁kredi	-10.0378
cı	-10.038
▁rastgele	-10.038
▁Time	-10.0381
▁Umarı	-10.0398
▁bilimi	-10.0406
layarak	-10.0415
▁açıklama	-10.0427
▁eğitimi	-10.0433
▁bilgiler	-10.0439
▁zamanında	-10.0441
7	-10.0445
W	-10.0447
▁itibar	-10.0449
▁zorundaydı	-10.0451
▁kelimeler	-10.0451
▁çeken	-10.0453
▁başlayalı	-10.0463
▁motor	-10.0466
▁hepiniz	-10.0471
inin	-10.0475
▁sey	-10.0479
▁deri	-10.0482
▁besin	-10.0493
melen	-10.0506
▁kahve	-10.051
▁seviyede	-10.0511
nuz	-10.0512
▁olaylar	-10.0513
▁Kadın	-10.0514
▁gördü	-10.0518
▁başlamak	-10.0518
▁ödeme	-10.0522
▁dizayn	-10.0522
▁hastalar	-10.0523
▁öğrendik	-10.0528
▁cinsiyet	-10.0529
nün	-10.0534
▁isterse	-10.0535
▁yazar	-10.0539
▁k	-10.0539
▁gemi	-10.0548
K	-10.0553
▁kültüre	-10.0553
▁standart	-10.0559
▁işim	-10.0562
▁gözüküyor	-10.0569
▁neyi	-10.057
▁duyu	-10.0579
▁ziyade	-10.0581
▁makinesi	-10.0585
▁baba	-10.0591
▁biriydi	-10.0592
▁Bak	-10.0594
▁ısı	-10.0595
▁ödül	-10.0599
▁başlıyoruz	-10.0599
▁diyorlar	-10.06
▁yaptığınız	-10.0601
▁çözümler	-10.0607
▁dalga	-10.0608
▁diğerleri	-10.0613
tur	-10.0619
▁sıklıkla	-10.0638
iyorum	-10.0644
▁söyleyebilirim	-10.0652
▁duran	-10.0655
c	-10.0658
▁bitkiler	-10.0685
maya	-10.0688
▁Farklı	-10.0689
▁hayvanların	-10.0693
▁bahsettiğim	-10.0704
▁dürüst	-10.0714
▁sahipler	-10.0715
▁grubu	-10.0716
▁yöntemi	-10.0719
▁aracılığıyla	-10.0724
mızın	-10.0729
▁etrafta	-10.0735
▁ağı	-10.0743
▁örnekler	-10.0743
▁gitme	-10.0763
f	-10.0765
▁Hala	-10.0766
▁yaşın	-10.0773
▁De	-10.0775
▁bilir	-10.0776
▁kaynaklar	-10.078
▁Muhte	-10.0793
▁denilen	-10.0793
▁olumlu	-10.0793
▁bahsedeceğim	-10.0796
▁trilyon	-10.08
ebiliriz	-10.0806
▁dönüştü	-10.0815
▁U	-10.0816
▁Biri	-10.0816
▁zamanla	-10.0822
▁sağlığı	-10.0823
▁bilgiy	-10.0835
▁teknolojisi	-10.0838
▁olası	-10.084
▁kitle	-10.0842
▁ederse	-10.0845
▁zevk	-10.0861
▁olabileceği	-10.0863
▁otomatik	-10.0864
▁kritik	-10.0864
▁George	-10.0866
▁arkadaşları	-10.0866
▁sıkıcı	-10.0873
▁bildiği	-10.0875
ının	-10.088
▁olacağız	-10.0886
▁profesyonel	-10.0887
▁konuşmayı	-10.0887
▁kayıp	-10.0888
▁yaşadığımız	-10.0891
▁ilaçlar	-10.0895
▁günün	-10.0899
▁onda	-10.0903
lıyız	-10.0905
▁falan	-10.0909
▁sağlayabilir	-10.0916
▁biliyordum	-10.0917
▁Anne	-10.0926
▁ayında	-10.0938
▁tersine	-10.0945
▁ekran	-10.0973
düşünebilirsiniz	-10.0976
▁giriyor	-10.0983
▁kullandığı	-10.0985
▁noktay	-10.0986
▁yaşadığı	-10.0986
ğine	-10.0988
▁yapılıyor	-10.0997
▁aldığı	-10.1002
▁Annem	-10.1008
▁nihayet	-10.1008
▁uydu	-10.1011
▁almış	-10.1013
▁buradan	-10.1015
▁öne	-10.1021
▁talep	-10.1021
▁sınır	-10.1025
▁isim	-10.1026
▁maru	-10.1027
▁hikayesini	-10.1043
▁psikoloji	-10.1046
▁yazdım	-10.1051
▁düşündüğüm	-10.1051
▁yönde	-10.1056
▁Biliyoru	-10.1057
▁kullanılıyor	-10.1062
▁üretmek	-10.1066
▁söyleyen	-10.1068
▁evrende	-10.1072
▁özgü	-10.1073
▁şehirde	-10.1073
▁değişiklikler	-10.1074
▁hesaplama	-10.1076
▁grafik	-10.1082
çüncü	-10.1085
ımız	-10.1086
▁müdahale	-10.1087
▁yaratır	-10.1093
▁Basit	-10.1107
biriyle	-10.111
▁yarar	-10.111
▁dönüş	-10.1119
▁35	-10.1121
▁Kendisi	-10.1122
▁baktım	-10.1137
▁kuralları	-10.1153
▁organik	-10.1158
▁Hey	-10.1159
▁altındaki	-10.1159
▁hız	-10.1165
▁ü	-10.1166
▁denge	-10.117
▁olmuyor	-10.1173
▁yemeği	-10.1183
8	-10.1184
▁geçirdim	-10.1184
▁vereceğim	-10.1185
▁tasarımı	-10.1189
▁imkanı	-10.1199
▁yağ	-10.1206
▁gurur	-10.1213
▁yolda	-10.1213
▁haberler	-10.1221
▁ortamda	-10.1223
▁korkutucu	-10.1229
▁kurma	-10.1234
▁ürünleri	-10.1236
▁Küresel	-10.1243
▁hissettim	-10.1244
▁projesi	-10.1255
▁Bill	-10.1263
▁olayı	-10.1265
▁olmasıdır	-10.1266
▁zamana	-10.1267
▁dakikada	-10.1267
▁yaparsa	-10.1269
▁boya	-10.1285
▁fizik	-10.1285
▁renkli	-10.1293
▁giriş	-10.1296
▁verdiğimiz	-10.1299
yorsunuz	-10.1301
▁fikrim	-10.1303
▁Sosyal	-10.1305
▁getirir	-10.1308
▁kullanabiliriz	-10.131
▁çalışıyorlar	-10.1312
▁gaz	-10.1318
▁söyledim	-10.1319
▁geldim	-10.1319
▁düzeyde	-10.1321
▁Doğa	-10.1323
▁düzenli	-10.1332
▁boyu	-10.1333
▁ülkeni	-10.1337
▁duru	-10.1347
▁oranında	-10.135
▁Ma	-10.1359
▁ederler	-10.1362
▁dönem	-10.1362
▁çek	-10.1362
▁günlerde	-10.1363
larca	-10.1373
▁organize	-10.1379
▁Kaliforniya	-10.1379
▁etmiyor	-10.138
▁kaba	-10.1384
▁hesap	-10.1384
▁kanıt	-10.1389
▁bağlantılı	-10.1399
▁erkeklerin	-10.1401
▁çalışmaları	-10.141
▁hukuk	-10.1412
▁koymak	-10.1418
▁laboratuvar	-10.142
▁Kanada	-10.143
▁yolunda	-10.1432
▁olamaz	-10.1442
▁alanın	-10.1442
▁bağ	-10.1453
▁Herhangi	-10.1455
▁İnanılmaz	-10.1455
▁tanıştı	-10.1455
▁oturup	-10.1455
▁çalıştığı	-10.1462
▁tablo	-10.1463
▁artıyor	-10.1463
▁bilgisayarlar	-10.1474
▁aylık	-10.1477
▁düşündüğümüz	-10.1479
▁bireyler	-10.1493
▁düştü	-10.1498
▁görevi	-10.1498
lanmış	-10.1499
▁Se	-10.1504
▁sesini	-10.1521
▁yasal	-10.1524
▁krizi	-10.1526
▁uyuşturucu	-10.153
▁umarım	-10.1531
▁düşen	-10.1535
▁Los	-10.1536
▁tepe	-10.154
▁dişi	-10.1541
▁şansı	-10.1541
▁bugünkü	-10.1544
▁farkettim	-10.1545
▁geliştirmek	-10.155
▁düşünür	-10.1561
▁endüstri	-10.1584
▁denedi	-10.1589
▁hareketleri	-10.1589
▁dünyası	-10.1593
▁ol	-10.1602
▁Eylül	-10.1606
▁görülen	-10.1608
ra	-10.1609
▁gelmişti	-10.1609
▁kutsal	-10.161
▁ölçekte	-10.162
▁teknolojik	-10.1621
▁liderlik	-10.1621
▁Babam	-10.1626
▁dönüşüm	-10.1626
ize	-10.1631
▁imkan	-10.1633
▁kemik	-10.1639
malısınız	-10.164
▁görmez	-10.165
▁gönüllü	-10.1651
miyorum	-10.1652
▁yöne	-10.1653
▁Ay	-10.1654
▁tarihinde	-10.1656
▁temelde	-10.1671
▁bol	-10.1672
▁çoktan	-10.1674
▁süreçte	-10.1675
▁sıradışı	-10.1676
▁mesafe	-10.1678
▁yenilik	-10.1682
▁kuzey	-10.1684
▁dava	-10.1689
▁faydalı	-10.169
▁kaya	-10.1694
▁geliştirme	-10.1699
▁böcek	-10.1714
▁seviyor	-10.1717
▁söylediğim	-10.1717
▁oradaki	-10.172
▁tutku	-10.1727
masını	-10.1744
▁Man	-10.1751
▁tavsiye	-10.1753
▁sormak	-10.176
▁Einstein	-10.1764
▁yerleri	-10.1765
▁benzeyen	-10.1767
▁Beş	-10.177
▁engelli	-10.1772
▁kullandık	-10.1774
▁alanlarda	-10.1777
▁kum	-10.178
▁Nerede	-10.178
için	-10.1786
▁45	-10.1787
rek	-10.1788
▁deneme	-10.1794
▁üstesinde	-10.1795
▁düşünüyordum	-10.1796
▁teknolojileri	-10.1805
▁söylediler	-10.1814
▁seçenek	-10.1814
▁gezegenin	-10.1815
▁değiştiren	-10.1819
▁savaşı	-10.1821
lerse	-10.1827
▁gelmek	-10.184
▁elle	-10.1845
▁Sonuçta	-10.1849
▁arttı	-10.1851
▁aşk	-10.1853
▁ürünler	-10.1855
S	-10.1856
▁arabalar	-10.1858
▁değiştiriyor	-10.186
mıştı	-10.1863
▁koyar	-10.1871
▁ediyorsunuz	-10.1873
▁güney	-10.1881
▁piyasa	-10.1883
▁özellikler	-10.1894
▁olmasa	-10.1899
▁babası	-10.1902
▁dik	-10.1904
▁çıkarıyor	-10.1907
▁hayret	-10.1912
▁yapılar	-10.1912
▁hastane	-10.1915
▁karışık	-10.1926
ndeki	-10.1926
▁noktalar	-10.1927
▁peşinde	-10.1936
▁kaldırı	-10.1936
▁kullandı	-10.1936
▁bireysel	-10.1936
▁kişilerin	-10.194
▁kullanıcı	-10.1942
▁uça	-10.1949
▁özellikleri	-10.1955
▁ailesi	-10.1955
▁taşıyor	-10.1961
▁mühendislik	-10.1961
▁ekmek	-10.1968
▁problemleri	-10.1972
▁kullanıyorlar	-10.1975
▁hastalığın	-10.1988
▁İşin	-10.1996
▁İran	-10.1998
▁Y	-10.2
▁kedi	-10.2003
▁oluyorlar	-10.2009
▁alabilir	-10.201
▁geldik	-10.2014
▁Afrikalı	-10.2014
▁klinik	-10.2015
▁ediyordu	-10.2015
▁75	-10.2018
▁anlatıyor	-10.2021
▁yolları	-10.2022
▁eğlence	-10.2022
▁yüzü	-10.2023
▁yaratan	-10.203
▁sürdü	-10.2046
▁İlki	-10.2062
▁tehlike	-10.2062
▁toplumda	-10.2071
▁organ	-10.2071
▁ayakta	-10.2071
▁Avustralya	-10.2072
▁süren	-10.2079
liğin	-10.2079
▁geçmek	-10.2081
▁yapalım	-10.2085
▁mekanik	-10.2086
▁Hava	-10.2096
araya	-10.2099
▁geçmişte	-10.2099
▁kahkahalar	-10.21
▁değiştirme	-10.2102
▁ucunda	-10.2102
▁bölgesinde	-10.2106
▁kullanım	-10.2108
▁oluşur	-10.2109
lama	-10.2123
▁öte	-10.2126
▁çabuk	-10.2128
▁fırsatı	-10.2129
▁kod	-10.2137
▁ailem	-10.2138
▁zamanın	-10.2141
▁yu	-10.2143
▁etkileri	-10.2144
abilir	-10.2149
▁konular	-10.2154
▁güvenilir	-10.2155
▁lise	-10.2163
▁edelim	-10.2164
▁ısınma	-10.2177
ey	-10.2177
▁hayatım	-10.2184
▁bahsediyorum	-10.2185
▁oluyordu	-10.2189
▁diyordu	-10.219
▁durumlarda	-10.2192
▁Ha	-10.2194
▁bölgelerde	-10.2204
▁hal	-10.2207
▁Meksika	-10.2224
▁bedava	-10.2246
▁dolayısıyla	-10.2248
▁çalışarak	-10.2251
▁soruları	-10.2251
▁dini	-10.2253
▁şirketlerin	-10.2261
▁idare	-10.2263
▁miktarı	-10.2264
▁Günümüzde	-10.2272
▁fosil	-10.2277
sem	-10.2278
▁larda	-10.2278
▁kısmında	-10.2289
ed	-10.2296
▁yaşama	-10.2297
▁etkin	-10.2297
▁türleri	-10.2301
▁anlar	-10.2316
▁cesur	-10.2319
▁malzemeler	-10.232
▁onlarda	-10.2325
▁Paul	-10.2325
▁bazılarını	-10.2327
▁anlıyor	-10.2332
▁hücresi	-10.2342
▁adalet	-10.2343
▁99	-10.2346
▁Sanat	-10.2347
▁Anders	-10.2359
▁rekabet	-10.236
▁demokratik	-10.2362
▁çocuklarını	-10.2364
▁bıraktı	-10.2371
▁şirketleri	-10.2372
▁alternatif	-10.2372
▁parti	-10.2387
▁şeyle	-10.2388
▁yalan	-10.2388
▁döndüm	-10.2388
▁çekiyor	-10.2392
▁tarzı	-10.24
▁ortam	-10.2402
▁anında	-10.2405
▁siyahi	-10.2407
▁görün	-10.2409
uantum	-10.2415
▁enerjisi	-10.2418
▁pozitif	-10.2423
▁taş	-10.2429
▁yapmanız	-10.2429
▁tipik	-10.2439
▁öğle	-10.2454
yalım	-10.2455
eceğiz	-10.2481
▁teşhis	-10.2486
▁çıkmış	-10.249
▁Washington	-10.2495
▁Fransa	-10.2496
ley	-10.2501
▁Merkezi	-10.2502
▁cümle	-10.2503
▁edeceğim	-10.2504
▁Adı	-10.2505
▁sahte	-10.2506
▁görmüş	-10.2506
▁zorundasınız	-10.252
▁uzman	-10.2539
▁iyisini	-10.254
▁dile	-10.2542
▁Veya	-10.2542
line	-10.2543
▁çalışmayı	-10.2548
▁oldular	-10.2556
▁alıntı	-10.2564
▁kulağ	-10.2564
▁aldığımız	-10.257
▁mağara	-10.2571
▁mutlak	-10.258
▁sigara	-10.258
▁Sonrasında	-10.2585
▁büyüyen	-10.2586
▁yapısını	-10.2587
▁dediğim	-10.2588
▁kriz	-10.2589
▁bakacak	-10.259
▁kendim	-10.259
suz	-10.2593
▁çekti	-10.2593
kinden	-10.2599
görebiliyorsunuz	-10.2601
▁yazdı	-10.2603
▁kalmak	-10.261
▁lerin	-10.2611
▁karınca	-10.2613
▁Darwin	-10.2621
▁Yüksek	-10.2623
▁şok	-10.2625
▁lı	-10.2625
▁duyuyoru	-10.2629
▁sonun	-10.2631
▁birbirimize	-10.2631
lığın	-10.2634
▁Mısır	-10.2637
▁yapın	-10.2638
▁kol	-10.2641
▁testi	-10.2646
▁Yakın	-10.2648
▁elimde	-10.2652
▁kör	-10.2656
▁bulundu	-10.266
▁yapabileceğimiz	-10.2662
▁bas	-10.2665
▁yapısı	-10.2666
▁eşsiz	-10.2667
▁kızı	-10.2668
▁2008	-10.2668
▁açıyor	-10.2675
▁devre	-10.2676
▁kırsal	-10.2679
▁Dan	-10.2681
▁Bay	-10.2682
▁Francis	-10.2684
▁giri	-10.2685
▁zorlu	-10.2693
▁olabiliriz	-10.2696
▁Açık	-10.2708
▁moda	-10.2708
▁aktivite	-10.2713
▁yeteri	-10.2713
▁ların	-10.2713
▁kısaca	-10.272
▁lik	-10.272
▁tarihte	-10.2725
▁gibidir	-10.2741
▁Nijerya	-10.2743
▁İlginç	-10.2752
▁bırakmak	-10.2756
▁yanıt	-10.2756
▁ayda	-10.2761
▁ettikleri	-10.2762
▁Allah	-10.2762
▁NAS	-10.2766
▁Kız	-10.2766
▁deneyimi	-10.2768
▁tasarımcı	-10.2776
▁yaşındaydı	-10.2777
▁işlerini	-10.278
▁Bizi	-10.2781
▁konuşan	-10.2781
▁saçma	-10.2791
▁Para	-10.2793
▁Savaşı	-10.2797
▁suçlu	-10.2797
unu	-10.28
▁çıkmak	-10.2801
▁trafik	-10.2808
▁katkı	-10.2808
lup	-10.2817
▁herkesi	-10.2817
▁Uzay	-10.2818
▁değiştir	-10.2821
▁sağlam	-10.2826
▁problemler	-10.2827
▁haklı	-10.2838
▁görürüz	-10.2839
▁MIT	-10.2839
▁şüphe	-10.2842
▁Richard	-10.2842
▁daim	-10.2847
▁öğrendiğim	-10.2848
▁saniyede	-10.2852
▁çevresinde	-10.2856
▁projeler	-10.2856
▁not	-10.2862
▁istedikleri	-10.2872
▁Bilgi	-10.2873
T	-10.2876
▁soyut	-10.288
▁istiyordum	-10.2882
▁yenilikçi	-10.2882
▁gazete	-10.2886
▁Ki	-10.2916
▁yarıyor	-10.2917
▁görünmez	-10.2922
▁konuşacağım	-10.2924
▁Tanrım	-10.2925
▁Merhaba	-10.2927
▁Angeles	-10.2927
▁kalıcı	-10.2927
▁merkez	-10.2936
▁Oh	-10.2945
▁salgın	-10.2957
▁değerler	-10.2963
▁çalış	-10.2966
▁23	-10.2981
acak	-10.2983
▁1000	-10.2986
▁sonuçta	-10.2989
▁tamamıyl	-10.3002
▁geçme	-10.3004
▁çoğunluğu	-10.3006
▁fikirlerin	-10.3008
▁Harvard	-10.3015
▁saf	-10.3016
▁protein	-10.3017
▁öncesi	-10.302
▁yapmalıyız	-10.3022
▁Kore	-10.3023
▁hücrelerin	-10.3023
▁bilmiyordum	-10.3037
▁takdir	-10.3039
▁değişiyor	-10.304
▁Genç	-10.3041
▁yapabilmek	-10.3044
▁reklam	-10.3045
▁organizasyon	-10.3048
▁Eğitim	-10.3048
▁delik	-10.3053
▁kıyasla	-10.3054
▁sesler	-10.3055
▁şeklini	-10.3059
ydim	-10.3064
▁saldırı	-10.3073
▁insani	-10.3073
▁tutar	-10.3079
▁patlama	-10.3079
▁edebiliyor	-10.3082
▁22	-10.3084
▁kaldım	-10.3103
▁üreten	-10.3106
▁ilgisi	-10.311
▁işletme	-10.3111
▁matematiksel	-10.3112
▁etkiler	-10.3116
▁kullanılabilir	-10.312
▁aşama	-10.3121
▁buyuk	-10.3122
▁gerekti	-10.3123
▁yaşamı	-10.3126
▁geçirmek	-10.3138
▁kadınlara	-10.3145
riyi	-10.3145
▁hafıza	-10.3148
▁işini	-10.3151
▁dışın	-10.3155
▁fiyat	-10.3158
▁çiçek	-10.3159
▁performans	-10.3168
▁beslenme	-10.318
larsa	-10.3183
▁Arap	-10.3191
▁ayağa	-10.3195
▁büyüleyici	-10.3195
▁kalır	-10.3201
▁dehşet	-10.3203
▁parçasını	-10.3203
▁Temel	-10.3207
▁bakmaya	-10.3214
▁geride	-10.3223
▁atık	-10.3224
▁halkın	-10.3231
▁diş	-10.3243
▁normalde	-10.3255
▁veriyorlar	-10.3256
▁başkanı	-10.3256
▁Altı	-10.3262
▁bakteriler	-10.3268
▁getirebilir	-10.3269
▁kazandı	-10.3271
▁teklif	-10.3278
▁metal	-10.3278
▁kişilik	-10.328
▁çarpıcı	-10.3286
▁2010	-10.3286
▁etkileyen	-10.3291
▁tutan	-10.3294
▁ilişkiler	-10.3294
▁iyidir	-10.3307
idir	-10.3311
▁arkadaşı	-10.3326
▁savaşta	-10.3327
▁Eve	-10.3334
▁olacaklar	-10.3341
▁vaka	-10.3343
rerek	-10.3351
▁İnsanları	-10.3356
▁tut	-10.3359
▁bomba	-10.3359
▁ağaçlar	-10.336
▁olanları	-10.3367
▁değilse	-10.3369
▁empati	-10.3377
▁gördünüz	-10.338
▁kimya	-10.3382
▁açan	-10.3383
▁Charles	-10.3384
N	-10.3388
▁600	-10.3392
▁kültürü	-10.3393
▁domuz	-10.3394
▁tasarlanmış	-10.3402
▁yapabiliyor	-10.3408
▁kulak	-10.3409
▁galaksi	-10.3414
▁iyisi	-10.3418
▁doktora	-10.3425
▁mezun	-10.3428
▁Kadınlar	-10.3433
▁ihtimali	-10.3443
▁ha	-10.3444
▁haritası	-10.3456
vi	-10.3459
imi	-10.3465
▁başı	-10.3468
▁Dört	-10.347
▁vs	-10.3472
▁Rusya	-10.3477
▁TV	-10.3478
▁nüfusun	-10.349
▁görüşme	-10.3497
▁haftada	-10.3504
▁yerin	-10.3507
▁yapmaları	-10.3517
▁geldiler	-10.3518
▁getirme	-10.3522
▁servis	-10.3524
▁Senin	-10.3527
▁sınırları	-10.3536
▁sorumluluk	-10.3536
▁kas	-10.3537
▁klasik	-10.3539
▁özgürlük	-10.354
▁kullanabileceği	-10.3543
▁teki	-10.3548
▁kitaplar	-10.3553
▁ikisini	-10.3554
▁sona	-10.3555
▁kurduk	-10.356
▁27	-10.3561
▁vergi	-10.3562
▁şahit	-10.3563
▁Obama	-10.3564
▁topluluğu	-10.3564
▁adil	-10.3567
▁annesi	-10.3567
▁Böylelikle	-10.3567
mek	-10.3569
▁modeller	-10.3574
▁başlamıştı	-10.3574
▁doktorlar	-10.3577
▁bulma	-10.3578
ydım	-10.3579
▁geleceğin	-10.3583
▁fotoğraflar	-10.3588
▁ayı	-10.3593
▁resimde	-10.3599
▁oluştur	-10.3599
▁düşüncesi	-10.3605
▁sürüyor	-10.3606
▁yapmam	-10.3608
▁inan	-10.3608
▁Ş	-10.3614
▁Yıllar	-10.3621
▁Biliyor	-10.3622
▁işleme	-10.3623
▁öğretmenler	-10.3632
▁şimdiki	-10.3634
▁görüntüler	-10.3634
▁istediğini	-10.3639
▁ulaşım	-10.3641
▁marka	-10.3648
▁evi	-10.3651
▁ötürü	-10.3658
▁ücretsiz	-10.3658
▁Açıkça	-10.3659
▁kaynaklı	-10.366
▁cesaret	-10.3666
▁istiyorsunuz	-10.3667
▁sisteme	-10.3671
▁yararlı	-10.3671
▁tanesini	-10.3676
▁gösterdiğim	-10.3676
▁anlattı	-10.3679
▁aldılar	-10.3681
▁etkisini	-10.3687
▁ticaret	-10.3688
▁ameliyat	-10.3696
▁Ç	-10.3699
▁kararlar	-10.3702
▁sahipti	-10.3702
▁koyuyor	-10.3705
▁gösteri	-10.3705
▁araştırmalar	-10.3707
▁197	-10.371
fen	-10.3713
▁sayısını	-10.3717
mesi	-10.3718
▁doğada	-10.3718
▁hiçbiri	-10.3722
▁beceri	-10.3723
▁vücudun	-10.3735
▁dün	-10.3735
▁hükümeti	-10.3745
▁gerçekleştir	-10.3749
▁şiir	-10.3751
acaba	-10.3752
▁seferinde	-10.3755
▁gelişen	-10.3755
▁tanı	-10.3761
▁arı	-10.3765
▁kurtarma	-10.3766
▁olunca	-10.3767
acağını	-10.3777
▁zararlı	-10.3778
▁çeker	-10.3784
▁yeteneği	-10.3785
as	-10.379
▁dersiniz	-10.3791
▁tersi	-10.3795
▁seri	-10.3796
▁tanıdık	-10.3798
▁kardeşim	-10.3802
▁iste	-10.3803
▁bulduğumuz	-10.3803
▁ötesin	-10.3804
▁kütle	-10.3805
▁top	-10.3805
▁istiyordu	-10.3808
▁ayn	-10.3808
▁nüfusunu	-10.3821
▁Sana	-10.3824
▁algı	-10.3831
▁yaparlar	-10.3835
▁koku	-10.3839
▁içerik	-10.3841
▁kontrolü	-10.3846
▁1960	-10.3849
▁iPhone	-10.385
▁liderler	-10.386
▁düşünüyorsunuz	-10.3861
▁deli	-10.3865
▁çekildi	-10.3868
▁Birisi	-10.387
aman	-10.3873
▁katkıd	-10.3874
▁etik	-10.3876
▁çeşitlilik	-10.3877
▁binalar	-10.388
▁düşüyor	-10.3882
▁olursunuz	-10.3889
▁hızı	-10.3896
▁kadınları	-10.3899
▁sürecin	-10.3899
▁hizmeti	-10.3905
▁öfke	-10.391
▁nöron	-10.392
▁hastaların	-10.3922
▁On	-10.3924
▁memnun	-10.3925
▁Web	-10.3928
▁bölgesi	-10.3936
▁birileri	-10.3936
sıl	-10.394
bi	-10.3943
▁savaşın	-10.3944
▁Kötü	-10.3946
▁Ardında	-10.3946
▁alıyorlar	-10.3947
▁uyku	-10.3947
▁aptal	-10.3953
▁Kendimi	-10.3953
ğı	-10.3957
▁mercan	-10.396
▁bilinçli	-10.3961
▁dayan	-10.3962
▁doğrusu	-10.3962
▁giderken	-10.3964
▁kendisinin	-10.3968
▁zemin	-10.3971
▁yön	-10.3974
mıyor	-10.3977
▁hayatımda	-10.3996
▁cihazı	-10.3996
▁makineler	-10.4003
▁çekme	-10.4008
▁çıkacak	-10.4013
▁Yaşam	-10.4013
▁alışveriş	-10.4015
▁Amerikalılar	-10.4021
▁şekilleri	-10.4025
ar	-10.4028
▁deneyi	-10.4034
▁makina	-10.4039
▁taşı	-10.4041
▁aileler	-10.4043
▁1990	-10.4044
▁La	-10.4049
▁alınan	-10.4049
▁iğne	-10.4054
▁bağımlı	-10.4056
▁kaçınılmaz	-10.4056
▁ardı	-10.4068
▁döner	-10.4071
▁uçuş	-10.408
▁yüzey	-10.4082
ebilir	-10.4083
▁şişe	-10.4085
▁Hayat	-10.4086
ebileceğimiz	-10.4087
▁bayan	-10.4091
▁gitmeye	-10.4091
▁öğretti	-10.4094
▁sandalye	-10.4095
▁yük	-10.4104
ici	-10.4104
▁çocukken	-10.4111
▁Bildiğin	-10.4113
▁göç	-10.4121
▁gördüğü	-10.4123
▁be	-10.4127
▁okur	-10.4131
▁insanlığın	-10.4131
▁olmam	-10.4131
▁tarif	-10.4136
▁yazma	-10.4137
▁kızın	-10.4141
▁şefkat	-10.4143
▁Deniz	-10.415
st	-10.4151
min	-10.4157
▁üretimi	-10.4161
▁deneyler	-10.4163
▁aldığım	-10.4169
▁gerçekleşti	-10.4173
▁lider	-10.4182
▁bakan	-10.4183
▁mıydı	-10.4183
▁alıcı	-10.4184
▁söyleme	-10.4184
▁gençler	-10.4185
▁masa	-10.4186
▁oranları	-10.4187
▁maliyet	-10.4189
▁bilinç	-10.4191
▁eksik	-10.4194
▁kurgu	-10.4195
▁bitirmek	-10.4196
▁kazan	-10.4197
▁kazanmak	-10.4206
▁erişim	-10.4206
PS	-10.4207
▁karşılaştı	-10.4208
▁heyecanlı	-10.4216
▁duyduğumuz	-10.4222
▁Jam	-10.4232
▁biçimi	-10.4235
siyle	-10.4237
▁öncesinde	-10.4239
ver	-10.4242
dy	-10.4242
▁dördüncü	-10.4243
▁CO	-10.4243
▁kılan	-10.4245
mize	-10.4245
▁organizma	-10.4249
▁görebileceğiniz	-10.425
▁eylem	-10.4251
▁istemez	-10.4252
▁meşgul	-10.4254
▁kömür	-10.4257
▁görülüyor	-10.4259
▁yoldan	-10.426
lan	-10.4264
▁Müslüman	-10.4265
▁ekoloji	-10.427
▁gidecek	-10.4272
▁dinamik	-10.4272
▁başım	-10.4278
▁ilgilidir	-10.4279
▁Tom	-10.4284
▁gittiğini	-10.4285
▁savunma	-10.4286
▁yardımı	-10.4288
▁gidebilir	-10.4288
▁başlangıcı	-10.429
▁karşılaştır	-10.4293
▁inanç	-10.4303
▁denir	-10.4312
▁yorum	-10.4318
▁resme	-10.432
▁yayın	-10.432
▁hastalıkları	-10.432
▁çatışma	-10.4326
▁açığ	-10.4332
▁doğu	-10.4333
▁Bilgisayar	-10.4333
▁obje	-10.4334
▁yolun	-10.4337
▁Michael	-10.4344
▁yapabilecek	-10.4345
▁Ale	-10.4345
▁gerçekleşen	-10.4347
▁2007	-10.4347
▁etmesini	-10.4347
▁Esas	-10.435
sının	-10.4355
▁keşfetmek	-10.4355
▁kilit	-10.436
▁internette	-10.4364
▁İslam	-10.4364
▁yapabiliri	-10.4371
▁hidrojen	-10.4376
▁düşünen	-10.4378
▁yapıyordu	-10.4378
▁yapmanı	-10.438
▁hayvanları	-10.438
▁izlemek	-10.4381
▁sinyal	-10.4387
▁maymun	-10.4387
▁çocuğ	-10.4392
▁riski	-10.4394
▁biyo	-10.4394
▁açar	-10.4395
▁versiyonu	-10.4396
▁hayatımızı	-10.44
▁bilimin	-10.4405
manyetik	-10.4422
▁dinlemek	-10.4427
diğini	-10.4429
▁ölen	-10.4429
b	-10.4429
▁geçici	-10.443
▁değiştirecek	-10.4433
▁çiftçi	-10.4433
▁İsveç	-10.444
▁söyle	-10.4445
▁Thomas	-10.4446
▁nasil	-10.4446
▁1980	-10.4446
sızın	-10.4448
▁ölüyor	-10.445
▁gelmiyor	-10.445
▁öğrencilerin	-10.445
▁oturan	-10.4454
va	-10.4454
▁savaşa	-10.4458
▁içeriyor	-10.446
▁Amazon	-10.4462
ve	-10.4477
ği	-10.4478
▁çalışıyordum	-10.4493
▁şekillerde	-10.4493
▁ekip	-10.4494
▁yarattığı	-10.4494
▁gelmez	-10.4496
▁görüntüsü	-10.4502
▁gürültü	-10.4503
▁yapılacak	-10.4503
▁türde	-10.4509
▁Fransız	-10.451
▁Sol	-10.452
▁gelmesi	-10.4521
▁müziği	-10.4524
▁teslim	-10.4528
▁sır	-10.4532
imizi	-10.4536
▁köy	-10.4538
▁suda	-10.4545
▁keşfettik	-10.4547
▁yukarıda	-10.4549
▁ölümcül	-10.4549
▁le	-10.455
▁detaylı	-10.4557
ması	-10.4557
▁atom	-10.4559
▁uzunluğunda	-10.4561
▁bulduğum	-10.4562
▁gösterdiği	-10.4564
▁vadede	-10.4567
▁satış	-10.4568
▁düzenleme	-10.4572
▁çalışmanın	-10.4573
▁amacıyla	-10.4573
▁balina	-10.4576
▁oyunları	-10.4582
▁taşıyan	-10.4584
▁kaybetti	-10.4593
▁konuşuyor	-10.4596
▁balıkları	-10.4599
▁sahnede	-10.4599
meye	-10.4604
▁dağ	-10.4605
▁Başkan	-10.4615
▁ni	-10.4617
▁girişimci	-10.4624
▁tuvalet	-10.463
▁Bende	-10.4635
▁Hayd	-10.4641
▁Ekonomi	-10.4642
▁sorduk	-10.4644
▁çıkarma	-10.4645
▁süreli	-10.4645
▁etmez	-10.4647
▁tahta	-10.4649
▁çıkış	-10.465
▁You	-10.465
▁değiş	-10.4653
▁bayağı	-10.4654
▁öncelikle	-10.4657
▁olabilirler	-10.4658
▁ini	-10.466
▁dönüyor	-10.4661
▁direkt	-10.4668
▁geçtiğimiz	-10.4669
▁paylaşma	-10.4672
lenmiş	-10.4672
▁olmalıydı	-10.4672
▁üyesi	-10.4674
▁kıta	-10.4674
▁göğüs	-10.4679
riyoruz	-10.4681
▁site	-10.4684
ıldığında	-10.4686
▁anlaşma	-10.4688
▁çeki	-10.4688
▁yarısını	-10.4708
▁derdi	-10.4712
▁yaşamış	-10.4714
▁ırk	-10.4715
▁oran	-10.4718
▁demiş	-10.4724
▁girer	-10.4725
▁tutuyor	-10.4726
▁sı	-10.4731
▁seviye	-10.4732
▁çocuklarımız	-10.4737
▁hikayeleri	-10.474
▁Steve	-10.4742
▁Sağ	-10.4744
▁niye	-10.4744
▁Savaş	-10.4744
▁ceza	-10.4744
▁ver	-10.4746
▁tanıyor	-10.4746
amazsınız	-10.4752
▁öğren	-10.4752
▁kuvvet	-10.4755
▁söylemeliyim	-10.4759
▁çalışıyordu	-10.476
▁etmişti	-10.476
▁olurlar	-10.4762
▁öğreniyor	-10.4767
▁merhamet	-10.477
▁konuşmalar	-10.477
▁geliyorlar	-10.4779
▁edebileceğiniz	-10.4779
▁demişti	-10.4783
▁com	-10.4786
dum	-10.4786
▁sera	-10.4788
▁tüketici	-10.4794
▁şaka	-10.4801
▁Soru	-10.4805
▁söylemeye	-10.4806
▁kendilerin	-10.4807
▁onlarca	-10.4811
nce	-10.4813
▁meyve	-10.4817
▁Beyaz	-10.4821
▁kaldır	-10.4822
▁Birliği	-10.4832
▁büyüklüğünde	-10.4834
ge	-10.4835
▁ilacı	-10.4835
▁okumak	-10.4836
▁açıklamak	-10.4843
▁grubun	-10.4844
▁noktasında	-10.4845
▁olmazdı	-10.4847
▁meme	-10.4849
▁belirgin	-10.485
▁güzellik	-10.4854
▁geçiriyor	-10.4854
▁duyma	-10.4859
▁sonuc	-10.486
▁Alzheimer	-10.4865
▁hadi	-10.4865
▁Cevap	-10.4866
▁dönelim	-10.4866
▁tatmin	-10.4871
▁kayda	-10.4874
▁Az	-10.4879
▁kullanmayı	-10.4883
▁okudum	-10.4887
▁yollarını	-10.4902
▁manzara	-10.4905
▁Mo	-10.4908
▁geleceğ	-10.4909
▁ilkel	-10.4912
▁dua	-10.4912
diği	-10.4914
▁uzmanı	-10.4927
yıp	-10.4937
▁yanda	-10.494
▁Araştırma	-10.4941
▁Hepiniz	-10.4946
▁işçi	-10.4952
▁yapmıyor	-10.4952
▁198	-10.4954
▁ahlak	-10.4955
▁fabrika	-10.4956
▁saatler	-10.4957
ımızı	-10.496
▁yönünde	-10.4961
▁asker	-10.4963
▁evinde	-10.4964
▁duymak	-10.4966
▁koyun	-10.4971
▁Apple	-10.4973
▁Latin	-10.4974
▁bağışıklık	-10.4974
▁yapabileceğiniz	-10.4985
▁istiyorsak	-10.4987
▁daire	-10.4988
▁yüzünü	-10.4991
▁bakıyoruz	-10.4997
▁öğrencisi	-10.4997
diğimiz	-10.4998
▁blog	-10.5001
▁grip	-10.5005
▁anlatmaya	-10.5008
▁firma	-10.5013
▁bildiğim	-10.5014
▁aşağıy	-10.5016
▁sokak	-10.5016
▁çözümü	-10.5017
▁üste	-10.5018
▁gerçekleşiyor	-10.5035
▁Pakistan	-10.5041
▁duygusu	-10.5042
keresinde	-10.5044
▁Seni	-10.505
likten	-10.5055
▁halkı	-10.5059
▁sevdi	-10.5061
ba	-10.5062
▁mesajı	-10.5065
▁kuşlar	-10.5066
▁tecavüz	-10.5068
▁yapımı	-10.5075
▁önde	-10.5083
▁Paris	-10.5084
▁genelinde	-10.5084
▁konuşurken	-10.5086
▁Okul	-10.5087
▁Hangi	-10.5092
▁kaybı	-10.5094
▁noktaları	-10.5107
▁Mary	-10.5108
▁okyanusun	-10.5111
dınız	-10.5114
▁müşteri	-10.5117
▁yarat	-10.5119
▁yaratıcılık	-10.5122
zi	-10.5124
mektedir	-10.5125
ilebilir	-10.5129
▁aletler	-10.5129
▁hamile	-10.513
▁seviyesi	-10.5132
▁Alman	-10.5133
▁kalmıyor	-10.5136
▁yumurta	-10.5137
▁kolu	-10.5143
▁teorisi	-10.5147
larınızı	-10.5149
▁ilişkin	-10.5149
▁duyarlı	-10.5149
▁bulunur	-10.5152
▁is	-10.5152
▁ismini	-10.5165
▁gözleri	-10.5172
leştirilmiş	-10.5187
dunuz	-10.5188
▁pembe	-10.5191
▁Boston	-10.5191
▁Higg	-10.5192
▁değerlendir	-10.5192
▁vereyim	-10.5192
▁yaparsınız	-10.5203
▁65	-10.5205
▁kızların	-10.5208
▁umuyorum	-10.5213
▁atmak	-10.5214
tu	-10.5216
▁ulaşma	-10.5222
▁yetersiz	-10.5223
▁üstün	-10.5233
▁bölgelerinde	-10.5234
▁türler	-10.5237
▁öğrenmeye	-10.5239
▁basın	-10.5245
sında	-10.5245
▁oyuncak	-10.5249
▁olabiliyor	-10.5249
▁bant	-10.525
▁getirdik	-10.5258
▁atmosfer	-10.5259
lerimizin	-10.5259
▁aralarında	-10.5263
▁beden	-10.5267
▁rapor	-10.5269
▁oynama	-10.5269
▁seviyesinde	-10.5282
▁birey	-10.5283
▁gelin	-10.5286
▁his	-10.5292
▁inanı	-10.5293
▁baktık	-10.5295
▁ölümün	-10.5296
▁toplumu	-10.5297
▁işlerin	-10.5298
▁karşılıklı	-10.5298
▁arzu	-10.53
▁doğdu	-10.5302
▁kitapları	-10.5303
▁göreceğiz	-10.5303
▁kablosuz	-10.5304
▁gücüne	-10.5305
▁BM	-10.5307
▁yaparız	-10.5313
▁üstü	-10.5315
abileceğimiz	-10.5317
▁oyuncu	-10.5319
▁Konu	-10.5322
▁bulunduğumuz	-10.5326
▁görünüyordu	-10.5327
▁bölümünü	-10.5327
▁hizmetleri	-10.5328
liğini	-10.5329
▁eseri	-10.533
▁of	-10.5332
▁hediye	-10.5335
▁gidiyoruz	-10.534
redeyse	-10.5344
▁arkasındaki	-10.5348
▁müze	-10.5349
▁Mavi	-10.5349
▁günler	-10.5349
▁felaket	-10.5351
▁modelleri	-10.5353
▁bilgisayarın	-10.5356
▁orda	-10.5358
▁sözü	-10.536
▁bekleyen	-10.5364
▁ağın	-10.5369
▁düşünmüyoru	-10.5369
mın	-10.5369
▁etrafındaki	-10.5369
▁bulut	-10.537
▁di	-10.5373
▁ekranda	-10.538
▁değiştirmeye	-10.538
▁kur	-10.5387
▁Araba	-10.5389
▁yazılmış	-10.5389
▁kap	-10.5391
▁söyleyebilir	-10.5396
▁pratik	-10.5398
▁ülkeleri	-10.5398
▁sağlama	-10.5399
▁hücrelerini	-10.5399
▁getir	-10.5399
▁çekilmiş	-10.5401
▁ruh	-10.5404
eceğini	-10.5405
12	-10.5407
▁problemin	-10.5407
▁Mart	-10.5408
▁Devletleri	-10.5408
▁oğlu	-10.5411
▁Yeşil	-10.5415
▁pasif	-10.5415
▁Lüt	-10.5415
▁şiddetli	-10.5415
▁Önemli	-10.5417
▁ülkedeki	-10.5419
▁rengi	-10.542
▁değişen	-10.5424
▁çeşitliliği	-10.5428
▁edilemez	-10.543
▁bulur	-10.5431
▁görür	-10.5431
▁seçimler	-10.5437
▁gözle	-10.5443
▁arabanın	-10.5444
▁üreme	-10.5444
▁seçti	-10.5452
▁geleceğini	-10.5452
▁durdu	-10.5462
▁ilişkili	-10.5463
▁kampanya	-10.5466
▁oluştu	-10.547
mezsiniz	-10.5481
▁Birinci	-10.5487
leyerek	-10.5488
▁kalmayı	-10.5493
▁çoklu	-10.5493
▁güvende	-10.5495
▁konuş	-10.5498
▁aşağıda	-10.5499
▁duyuyor	-10.5502
▁söyleyeceğim	-10.5508
▁bütçe	-10.5509
▁denk	-10.5512
▁tasarımcılar	-10.552
▁isterdi	-10.5522
▁tamir	-10.5523
▁eğri	-10.5524
▁olumsuz	-10.5527
▁çıkma	-10.5529
▁gülüşmeler	-10.5529
▁derken	-10.5531
▁sohbet	-10.5532
▁edeceğiz	-10.5533
▁oluruz	-10.5533
▁görebiliyoruz	-10.5535
▁diyebiliriz	-10.5538
▁gittiğimde	-10.5542
▁nesneler	-10.5546
▁boyutta	-10.5548
▁yaşadığım	-10.5551
▁başlayabilir	-10.5551
▁başardık	-10.5557
▁yoksul	-10.5557
▁zorluk	-10.5559
bu	-10.5563
▁lisans	-10.557
▁blok	-10.5571
▁engeller	-10.5573
▁Yo	-10.5574
▁döneminde	-10.5575
woo	-10.5575
▁farklılık	-10.5582
▁oturuyor	-10.5583
▁kitabın	-10.5592
▁mucize	-10.5594
▁kavram	-10.5608
▁değerleri	-10.5611
labilirsiniz	-10.5614
▁yirmi	-10.5616
▁seç	-10.5618
▁getirdiği	-10.5619
▁büyüyor	-10.562
▁gri	-10.5624
▁ettiğiniz	-10.5628
▁çağı	-10.5631
▁Gelecek	-10.5636
▁sergi	-10.5637
▁Pasifik	-10.5637
▁milli	-10.5641
▁gözlem	-10.5642
▁bizde	-10.5642
▁çirkin	-10.5642
lü	-10.5647
▁çiftçiler	-10.5648
▁dışındaki	-10.565
▁gizemli	-10.5652
▁kalite	-10.5654
▁Yaptığımız	-10.5655
▁oluşturdu	-10.5657
▁kanun	-10.566
▁düşünüyordu	-10.5663
▁varmış	-10.5664
▁Sizler	-10.5664
▁okulu	-10.5666
▁kuvvetli	-10.5667
Tub	-10.5668
▁istediler	-10.5672
▁değiştirir	-10.5673
▁açmak	-10.5674
▁olduğunun	-10.568
▁üretiyor	-10.568
▁baz	-10.5684
▁düşünmemiz	-10.5687
▁Te	-10.5688
▁özellik	-10.5688
▁şehirlerde	-10.569
▁şanslı	-10.5691
▁konularda	-10.5693
▁the	-10.5695
dışı	-10.5698
▁mantar	-10.5705
▁arta	-10.5709
▁banka	-10.5711
▁inşaat	-10.5713
▁takımı	-10.5715
▁yürüyüş	-10.5718
▁durumlar	-10.5719
▁kızım	-10.5726
ger	-10.5726
▁ayakkabı	-10.5729
▁gören	-10.5729
▁ellerinde	-10.5731
▁mantık	-10.5737
▁dönmek	-10.5744
▁söylüyorlar	-10.575
▁fotoğrafları	-10.5754
▁yapmıştı	-10.5757
▁buluyor	-10.5757
▁Gülüş	-10.5758
▁sanmıyorum	-10.5759
▁hariç	-10.576
▁utanç	-10.576
▁itiraf	-10.576
▁fayda	-10.5763
▁bariz	-10.5764
▁dâhil	-10.5765
▁görüntüleri	-10.5766
▁eşim	-10.5767
▁Gece	-10.5767
▁bahsediyor	-10.5774
▁organizmalar	-10.5775
▁Beyin	-10.5779
▁zamanki	-10.5786
▁birliği	-10.5792
▁yaşıyorlar	-10.5794
▁varlığını	-10.5801
▁istersiniz	-10.5802
G	-10.5813
▁fikrin	-10.5815
▁hile	-10.582
▁zinciri	-10.5825
lanan	-10.5825
▁sizde	-10.5826
▁olmalıdır	-10.5827
▁hasar	-10.5829
▁Görüyorsun	-10.583
sinde	-10.5834
▁görüntüleme	-10.5839
▁ülkeye	-10.5842
nize	-10.5843
▁kurtulma	-10.5847
▁boyutu	-10.5848
▁yoksulluk	-10.5851
et	-10.5855
▁ücret	-10.5858
▁başlangıçta	-10.5867
▁alanını	-10.5873
▁yaşıyordu	-10.5874
▁global	-10.5877
▁İklim	-10.5877
▁beklenmedik	-10.5877
▁Şey	-10.5877
▁endüstriyel	-10.5877
▁baylar	-10.5879
▁sihirli	-10.588
▁yumuşak	-10.5882
▁yapılabilir	-10.5884
50	-10.5884
▁yazarı	-10.5888
▁yetenekli	-10.5902
▁gücün	-10.5904
▁DH	-10.5904
▁açlık	-10.591
▁insansız	-10.5916
▁beyinde	-10.5919
▁çiz	-10.592
▁yanın	-10.5921
▁istediğimi	-10.593
▁doğan	-10.593
▁kal	-10.5936
▁250	-10.5937
▁çözmeye	-10.5938
▁yatak	-10.5938
▁Internet	-10.5938
dığı	-10.5946
▁kaydı	-10.5948
▁kullandım	-10.5948
ımızın	-10.5949
▁mekanizma	-10.595
▁ayna	-10.5955
▁birleştir	-10.5955
▁tanıma	-10.5956
▁toplama	-10.5956
bire	-10.596
▁biliyorlar	-10.596
▁devamlı	-10.597
ah	-10.5972
▁etkiliyor	-10.5973
▁odadaki	-10.5981
▁başkalarının	-10.5983
▁Burda	-10.5986
▁havaya	-10.5988
lıyoruz	-10.5991
▁Park	-10.5993
▁orijinal	-10.5996
▁1970	-10.5996
▁kullanışlı	-10.5997
▁düzey	-10.5998
▁cun	-10.5998
▁depresyon	-10.6001
▁Peter	-10.6001
cük	-10.6005
▁Birlikte	-10.6006
▁çıkarıp	-10.6008
▁kurtarmak	-10.6011
▁alabilirsiniz	-10.6013
▁ayırt	-10.6013
▁amaçlı	-10.6019
▁kullanabilir	-10.602
▁sanatı	-10.6021
▁kalabalık	-10.6022
▁etmeniz	-10.6024
▁yatan	-10.6028
▁çoğumuz	-10.6028
▁işareti	-10.6029
▁kart	-10.6037
▁sanayi	-10.6039
▁ekonomisi	-10.6042
bilir	-10.6047
▁Milletler	-10.6047
▁konferans	-10.6048
▁önemsiz	-10.6051
▁orası	-10.6052
melisiniz	-10.6052
▁32	-10.6054
▁araştırmacı	-10.6063
riyorum	-10.6065
▁başlayacak	-10.6066
▁pencere	-10.6069
▁aşkın	-10.6072
leme	-10.6084
tim	-10.6087
nizin	-10.6088
▁kalitesi	-10.6096
sair	-10.6096
▁varlığı	-10.61
▁Kısaca	-10.6109
▁kariyer	-10.6112
▁ağlar	-10.6113
▁kahraman	-10.6114
▁meşhur	-10.6117
▁yapmasını	-10.6122
▁vermiş	-10.6126
▁maliyetli	-10.6129
▁izleme	-10.6132
▁açıp	-10.6134
▁yönü	-10.6139
▁iniş	-10.6139
▁gidin	-10.6143
▁dersi	-10.6145
▁yapıldığını	-10.6153
▁sekil	-10.6155
▁çözme	-10.6156
▁Gor	-10.6156
▁çizim	-10.6158
▁geçirdi	-10.6159
▁değerlendirme	-10.6161
▁esnek	-10.6162
▁Enstitüsü	-10.6166
▁edilir	-10.6169
▁bekler	-10.617
▁adeta	-10.618
▁İçinde	-10.6182
▁Hint	-10.6182
▁gazeteci	-10.6183
▁başladığımda	-10.619
▁nüfusu	-10.6191
▁geçtik	-10.6193
▁gerçekliği	-10.6195
▁uyumlu	-10.6196
▁çıktığı	-10.6202
▁kaza	-10.6205
▁meselesi	-10.6218
▁dayanıklı	-10.6226
▁istekli	-10.6237
▁gösterilen	-10.6237
▁başardı	-10.6238
▁kurumsal	-10.624
▁yavru	-10.6241
dık	-10.6241
▁ideal	-10.6244
▁başladığı	-10.6245
mis	-10.6258
▁sor	-10.6259
▁olacağına	-10.6259
▁taşıma	-10.6271
▁alması	-10.6272
▁anki	-10.6276
▁babamın	-10.6278
▁gerçekçi	-10.6279
▁toplantı	-10.6281
▁oturur	-10.6282
bo	-10.6285
▁duygular	-10.6285
▁anlatır	-10.6289
▁Yap	-10.6292
▁hayatları	-10.6295
▁yara	-10.6302
▁haberleri	-10.6304
▁hayatında	-10.6305
▁koca	-10.6305
▁nı	-10.6309
▁belirsiz	-10.6313
▁köprü	-10.6317
▁derler	-10.6319
▁bahçe	-10.632
▁resimleri	-10.6323
▁pazarlama	-10.6329
▁hisseder	-10.6329
▁kullanıl	-10.6335
▁hayali	-10.634
▁yaptığımı	-10.6341
▁şurada	-10.6344
▁beyninin	-10.6349
▁benzin	-10.6351
▁kalın	-10.6354
▁oturdu	-10.6356
▁uzayda	-10.6357
▁nehir	-10.6358
▁tümör	-10.636
▁yepyeni	-10.6362
▁öğrencileri	-10.6362
▁böcekler	-10.6363
▁1950	-10.6363
▁Dünyayı	-10.6366
▁boşluk	-10.6366
▁2005	-10.6366
▁Gerçekte	-10.6369
▁Kısa	-10.637
▁tren	-10.6371
▁alırsınız	-10.6375
▁çılgınca	-10.6376
▁içe	-10.6379
▁yapacağını	-10.6382
▁istatistik	-10.6384
▁kavramı	-10.639
▁yapıyorsunuz	-10.6391
▁mahalle	-10.6395
▁Jim	-10.6396
▁kurumlar	-10.6397
▁olmasından	-10.6398
▁zehirli	-10.6398
mda	-10.6401
▁düşünebilir	-10.6405
▁Çevre	-10.6406
▁içlerinde	-10.6408
▁bakma	-10.6408
▁aramak	-10.6414
▁olmayabilir	-10.6414
▁sorusu	-10.6415
maktadır	-10.6416
▁Tasarım	-10.6416
▁Bin	-10.6418
▁derinden	-10.6423
▁programları	-10.6424
mesini	-10.6424
▁İster	-10.6424
▁Roma	-10.6425
▁anladı	-10.6428
fik	-10.6429
▁Toplum	-10.643
▁yaşta	-10.6432
▁bizleri	-10.6432
▁Tahmin	-10.6436
▁diz	-10.6442
▁inanmak	-10.6444
▁akciğer	-10.6444
ıyor	-10.6444
▁Evren	-10.6447
▁çıplak	-10.645
▁sıcaklık	-10.6452
▁geliştirdi	-10.6452
▁örnekleri	-10.6458
▁oynamak	-10.646
▁planı	-10.646
▁alanların	-10.6465
▁Be	-10.6468
▁koyduk	-10.6468
▁tarihin	-10.6469
▁verildi	-10.6472
▁direk	-10.6474
▁stres	-10.6476
▁oldugunu	-10.6479
▁vermesi	-10.6479
▁gerektirir	-10.6487
▁Eminim	-10.6488
▁destekleyen	-10.6489
▁insandan	-10.649
▁etmeliyiz	-10.6491
▁düşüş	-10.6495
▁aklın	-10.6496
▁ışığın	-10.6497
▁düşünürken	-10.6498
▁Hayal	-10.6501
▁Uluslararas	-10.6502
▁temin	-10.6506
▁olmalısınız	-10.6509
▁yaratmaya	-10.6509
▁uyarı	-10.651
mıştım	-10.651
▁sunmak	-10.6512
▁edebilmek	-10.6513
▁Hep	-10.6514
▁şarkısı	-10.6517
▁dönen	-10.6518
▁kendiliğin	-10.6521
▁sunuyor	-10.6522
▁gir	-10.6523
▁oradaydı	-10.6526
▁elini	-10.6527
▁haberi	-10.6531
▁yaratıklar	-10.6534
▁işliyor	-10.6534
▁194	-10.6537
15	-10.6538
▁devrimi	-10.654
▁geliştirdik	-10.6542
▁istemiyor	-10.6549
▁aşık	-10.6551
▁minik	-10.6554
▁mülteci	-10.6557
▁düşünmeniz	-10.6567
▁çatı	-10.6572
▁doğası	-10.6575
▁kısme	-10.6578
▁Kaç	-10.658
▁saç	-10.6591
▁olayın	-10.6594
▁hakim	-10.6601
artan	-10.6602
▁arkadaşlar	-10.6612
▁entegr	-10.6614
▁Önümüzde	-10.6614
▁gerektiren	-10.6614
▁dikey	-10.6615
▁hatırlayın	-10.6617
▁ödülü	-10.6618
▁ler	-10.6628
▁oynar	-10.6634
ymış	-10.6636
os	-10.6641
▁görüşü	-10.6643
ndaki	-10.6644
▁Ev	-10.6645
▁Derek	-10.6646
taki	-10.6647
▁bebekler	-10.6647
▁mimar	-10.665
▁ndan	-10.6652
▁oyunlar	-10.6658
▁yarın	-10.6664
▁verip	-10.6667
▁süresi	-10.667
▁kalanı	-10.6673
▁Art	-10.6679
▁göçmen	-10.6679
re	-10.6679
▁getirecek	-10.6687
▁dönüm	-10.6689
▁yaşar	-10.6691
▁kötüsü	-10.6693
▁yapılır	-10.6695
▁taşımak	-10.6698
▁vakti	-10.6702
▁nedenini	-10.6704
▁gidiyordu	-10.6707
▁Do	-10.6708
larımı	-10.6709
▁ilerliyor	-10.6709
▁Ana	-10.6711
▁göze	-10.6714
▁neydi	-10.6717
▁oyunun	-10.672
▁tekne	-10.6722
▁yaşamaya	-10.6726
▁yanındaki	-10.673
▁değişimin	-10.6731
ford	-10.6731
▁oluşturma	-10.6737
▁verebilir	-10.6741
▁Modern	-10.6742
▁Geçtiğimiz	-10.6742
▁Haiti	-10.6742
▁çelik	-10.6742
▁2011	-10.6743
▁Kongre	-10.6744
▁genom	-10.6746
▁değişir	-10.6747
▁bil	-10.676
▁çıkaran	-10.6763
▁olabildiğin	-10.6771
ay	-10.6773
dü	-10.6776
00	-10.6779
▁Baba	-10.6779
ılabilir	-10.6782
▁mektup	-10.6785
▁koşullar	-10.6788
▁once	-10.6792
ğını	-10.6794
▁şekiller	-10.6796
▁d	-10.68
▁sürpriz	-10.6801
▁kablo	-10.6802
▁mekan	-10.6804
▁ekonominin	-10.6805
▁sayıları	-10.6806
▁Birden	-10.6807
▁istemedi	-10.6811
▁oğlum	-10.6811
▁y	-10.6816
▁koruyucu	-10.6818
▁bilinmeyen	-10.6819
▁özgün	-10.6821
▁olayları	-10.6823
▁haklarını	-10.6824
▁farklılıklar	-10.6829
▁almayı	-10.6833
▁ağacı	-10.6843
▁seyirci	-10.6846
▁tanımı	-10.6848
▁hastanede	-10.6849
▁izledi	-10.685
▁nazik	-10.6852
▁iyiydi	-10.6856
▁mobil	-10.6861
▁yaşlanma	-10.6861
▁fırsatlar	-10.6867
▁adapt	-10.6869
▁sevimli	-10.6872
▁Kırmızı	-10.6872
▁kapsamlı	-10.6872
▁yıldızlar	-10.6874
▁Doğal	-10.6875
▁hayatımız	-10.6875
▁rakamlar	-10.6879
▁dakikalık	-10.6893
▁grupları	-10.6896
▁sistemimiz	-10.6899
▁hastası	-10.6903
▁macera	-10.6903
▁potansiyeli	-10.6905
▁sayılar	-10.6909
▁konuştuk	-10.6912
▁sokakta	-10.6912
▁girdim	-10.6915
▁yönetimi	-10.692
▁söyley	-10.6921
▁birbirlerini	-10.6926
▁canlılar	-10.6927
▁olmama	-10.6927
▁uzağ	-10.6931
▁çağ	-10.6935
▁bakabilir	-10.6938
▁olasılığı	-10.6943
▁olacağım	-10.6947
▁bırakıyor	-10.6947
▁gördüğümde	-10.6953
▁intihar	-10.6953
▁dayanıyor	-10.6959
▁bilen	-10.6959
ürekli	-10.697
▁hayati	-10.697
▁aileleri	-10.6971
▁Ta	-10.6976
▁soruyor	-10.6978
▁güvenliği	-10.6979
▁olgu	-10.698
▁mısır	-10.698
▁alındı	-10.698
▁aşamada	-10.6982
▁çocuklarımızı	-10.6983
▁etmekte	-10.6986
▁balon	-10.6987
▁üretken	-10.6988
▁ağaçları	-10.6988
▁fon	-10.6992
▁cevaplar	-10.6993
▁futbol	-10.7001
▁golf	-10.7003
▁Bob	-10.7003
▁izleyen	-10.7004
BG	-10.7004
▁kentsel	-10.7005
▁içeriği	-10.7005
▁mısın	-10.7006
▁birbirini	-10.7008
▁verdiğim	-10.7008
▁birbirimiz	-10.7008
▁evlilik	-10.7009
▁büyüklükte	-10.701
▁baktığımda	-10.7013
▁dönme	-10.7018
▁düşman	-10.7019
▁gelişimi	-10.7019
▁silahlı	-10.702
▁harcadı	-10.7022
▁keşfetme	-10.7024
▁garanti	-10.7024
▁yarattık	-10.7031
▁anlamamız	-10.7031
▁gereği	-10.7042
▁öz	-10.7045
▁küçü	-10.7045
▁ihtimal	-10.7047
▁şifre	-10.7048
▁seçme	-10.7051
▁gözlerini	-10.7054
▁aramaya	-10.7058
▁izliyor	-10.7059
▁çekim	-10.7062
▁düşer	-10.7068
▁polen	-10.7074
▁üretme	-10.708
▁demir	-10.708
▁bağlıdır	-10.7084
▁ediyordum	-10.7085
▁detay	-10.7097
yordu	-10.71
▁insanla	-10.71
▁yerlerinde	-10.7106
▁havalı	-10.7107
ıyoruz	-10.7112
▁Kalp	-10.7116
▁ada	-10.7119
▁tarama	-10.7119
▁herşeyin	-10.7121
▁kalem	-10.7121
▁gösterecek	-10.7123
gi	-10.7124
▁görü	-10.7124
▁dergi	-10.7125
▁devletin	-10.7125
▁davranışı	-10.7128
▁Kanser	-10.713
▁hâlin	-10.7135
▁Yoks	-10.7136
iyorlar	-10.7137
▁kaplı	-10.7138
▁kusursuz	-10.7139
▁otizm	-10.7141
▁sorum	-10.7143
▁girişim	-10.7148
▁tavan	-10.715
▁sola	-10.7155
▁kalırsa	-10.7166
▁kıyı	-10.7167
▁sıkıntı	-10.7171
▁tutma	-10.7176
▁keşfettim	-10.7179
▁yayıldı	-10.718
▁optik	-10.7192
▁yerli	-10.7193
▁gerektiğin	-10.7199
▁keskin	-10.72
▁yetenek	-10.72
▁öğrenebilir	-10.7201
▁duyar	-10.7202
▁iyimser	-10.7203
miştim	-10.7204
▁patent	-10.7205
▁uygulamalar	-10.7206
▁Hikaye	-10.7207
▁yarısında	-10.7212
▁bağış	-10.7216
▁kuruyor	-10.7216
▁tasarlamak	-10.7216
▁temas	-10.7218
ime	-10.7226
▁durumunu	-10.723
▁tur	-10.724
▁sürecinde	-10.7241
▁çalışanları	-10.7243
▁sahney	-10.7244
▁yapmadı	-10.7245
▁196	-10.7246
▁resmini	-10.7256
▁bölgey	-10.726
▁birçoğu	-10.726
▁inek	-10.7261
▁cihazlar	-10.7263
▁tiyatro	-10.7263
▁oluşturduk	-10.7263
▁onur	-10.7265
▁yetecek	-10.7272
▁PM	-10.7272
▁yayılan	-10.7272
▁bilişsel	-10.7272
▁ileride	-10.7276
▁yazmak	-10.7277
▁göstermeye	-10.7277
▁Rio	-10.7278
▁diyebilirsiniz	-10.7281
▁düşünürsek	-10.7282
▁yazan	-10.7282
▁dünyamızı	-10.7284
▁ilişkisi	-10.7294
▁tedavisi	-10.7297
▁açı	-10.7303
▁hakikat	-10.7307
▁şikayet	-10.731
▁bittiğini	-10.7311
▁sağladığı	-10.7315
▁hepinizi	-10.7324
▁ham	-10.7326
diler	-10.7332
▁listesi	-10.7338
▁algılama	-10.7344
ur	-10.7344
▁akım	-10.7348
▁çıktım	-10.7348
▁renkler	-10.735
▁türlerin	-10.7351
▁attı	-10.7359
▁seslerini	-10.7361
▁telefonları	-10.7369
▁Muhteşem	-10.7369
▁topu	-10.7375
▁yüzeyi	-10.7381
▁tümü	-10.7383
▁keyif	-10.7387
▁bulun	-10.7388
▁duyduğum	-10.7389
▁ülkeyi	-10.7392
▁yüzeye	-10.7392
hattan	-10.7393
▁terörist	-10.7396
▁yönden	-10.74
▁şehirlerin	-10.74
▁Holly	-10.7401
▁ekstra	-10.7409
▁nano	-10.7409
▁CEO	-10.7409
▁üretilen	-10.7409
▁Robert	-10.7412
▁adlandırıla	-10.7414
▁sat	-10.7414
▁anlıyorum	-10.7416
▁aptalca	-10.7418
▁akademi	-10.7421
▁bırakma	-10.7422
▁başlay	-10.7424
caba	-10.7424
▁yaratabilir	-10.7424
▁duyduğunuz	-10.7426
▁gerekecek	-10.7427
▁işlemi	-10.7427
▁sorunların	-10.7431
▁ortamı	-10.7434
▁yollarla	-10.7436
▁anlatan	-10.7445
▁içme	-10.7449
▁götürdü	-10.7453
inizin	-10.7461
▁bölgeleri	-10.7462
▁özgürlüğü	-10.7467
▁egzersiz	-10.747
▁Martin	-10.7481
▁kalmadı	-10.7492
▁artışı	-10.7496
▁girmek	-10.7496
▁internetin	-10.7499
▁parçalarını	-10.75
▁değerini	-10.75
▁bitti	-10.7501
▁ilan	-10.7503
▁Hareket	-10.7506
▁bahseder	-10.7508
▁geçir	-10.7509
▁verilerin	-10.7512
▁Sa	-10.7513
▁gösterme	-10.7513
▁sonuçlarını	-10.7513
▁Hasta	-10.7522
▁konuşmanın	-10.7522
▁düşünmeyi	-10.7533
lığ	-10.7534
▁gezegenler	-10.7539
▁iyice	-10.7541
▁virüsü	-10.7542
▁Uganda	-10.7543
▁elin	-10.7543
▁gidiyorlar	-10.7547
▁Nobel	-10.7548
▁oranını	-10.7548
▁temeli	-10.7548
▁vadeli	-10.7548
▁getirmeye	-10.7557
mıyoruz	-10.7559
▁anlayış	-10.7561
▁uygulamaya	-10.7561
▁Fark	-10.7562
▁boşluğu	-10.7565
▁okumaya	-10.7568
▁tasarımın	-10.757
▁fotoğrafta	-10.7578
▁koyma	-10.758
▁yığın	-10.7583
▁zordu	-10.7583
▁piyasay	-10.7585
▁azalma	-10.7585
▁okullar	-10.7586
▁yapmakta	-10.7588
▁çelişki	-10.759
▁topluluğun	-10.7591
▁öğrendi	-10.7593
▁güçleri	-10.7595
▁evlerin	-10.7606
▁projede	-10.7607
▁finanse	-10.7607
▁kutup	-10.7608
▁durur	-10.7622
▁saati	-10.7623
▁Bil	-10.7626
▁denedik	-10.7628
▁artı	-10.7634
▁Mark	-10.7634
▁buzun	-10.764
nuzu	-10.7642
▁kültürün	-10.7643
▁katman	-10.7645
▁Hepimizi	-10.7647
▁başladığım	-10.7648
▁alıyordu	-10.765
▁otorite	-10.7651
▁çalışanlar	-10.7656
▁cidd	-10.7656
▁süresin	-10.7663
▁röportaj	-10.7664
▁Japon	-10.7667
▁gideli	-10.7671
▁düşünüyorlar	-10.7679
▁benzediğini	-10.7682
▁kararı	-10.7688
▁vb	-10.7689
▁liderleri	-10.7692
▁bırakıp	-10.7692
▁art	-10.7694
▁şehr	-10.7694
▁sorar	-10.7695
▁çıkarak	-10.7696
▁miktarını	-10.7696
▁bakıyorsunuz	-10.7697
▁giren	-10.77
▁hesab	-10.77
ol	-10.7701
▁tümüyle	-10.7701
▁uzaya	-10.7703
▁desteği	-10.7704
▁giderse	-10.7712
▁Oysa	-10.7721
▁programlama	-10.7722
▁kullanıldı	-10.7724
▁istisna	-10.7725
▁şarap	-10.7726
▁sinyalleri	-10.7728
▁nesli	-10.7728
▁Asla	-10.773
▁rolü	-10.7731
▁gazı	-10.7735
▁yıldızların	-10.7738
▁ulaştı	-10.7739
▁puan	-10.7739
▁çerçeve	-10.7743
▁terör	-10.7744
▁bekliyor	-10.7746
lalım	-10.7748
▁Ja	-10.7753
▁pilot	-10.7758
▁simetri	-10.7759
▁çalışmasını	-10.776
▁kalacak	-10.7763
▁gerekmiyor	-10.7763
▁dönüştürmek	-10.7763
▁şart	-10.7767
▁odası	-10.777
▁öğrendiğimiz	-10.7772
▁birisini	-10.7775
▁Ölüm	-10.7776
▁bitkilerin	-10.7776
▁karbondioksit	-10.778
▁çıktık	-10.7786
▁teknolojilerin	-10.7787
abilmek	-10.7792
▁verdikleri	-10.7798
▁Sta	-10.7806
▁favori	-10.7811
▁and	-10.7815
▁birbirimizi	-10.7815
▁c	-10.7816
▁Californi	-10.7817
▁tamamını	-10.7817
▁kurum	-10.7818
▁başlattı	-10.7823
▁erişimi	-10.7823
▁gezi	-10.7826
▁paylaş	-10.7827
▁yerdir	-10.783
▁bozuk	-10.7831
▁GSY	-10.7832
▁esnasında	-10.7832
▁kuyruklu	-10.7833
▁çıktığını	-10.7836
▁hızını	-10.7842
▁yanımda	-10.7848
▁rica	-10.7848
▁kaynaklarını	-10.7848
▁borç	-10.7849
▁fikrine	-10.785
▁edildiği	-10.785
▁yöntemler	-10.7853
▁alanlarında	-10.7855
▁atmosferi	-10.7855
▁yaşa	-10.7856
larımızda	-10.7859
▁Oray	-10.786
▁özü	-10.7862
▁kelimesini	-10.7864
▁büyüklüğü	-10.7866
▁verirse	-10.7869
▁Di	-10.7869
▁sakin	-10.788
▁kompleks	-10.7881
▁fotoğraflarını	-10.7881
teki	-10.7883
▁kartı	-10.7885
▁olmalarını	-10.789
▁taşındı	-10.7894
▁efsane	-10.7894
▁ağları	-10.7894
▁yürüyor	-10.7895
▁metafor	-10.7897
▁Re	-10.7897
▁kurulu	-10.7904
▁çık	-10.7906
▁hatırlıyor	-10.7906
▁yaraya	-10.7906
▁Ba	-10.791
▁yolculuğ	-10.7911
▁Vadisi	-10.7911
▁ölme	-10.7913
yıllardır	-10.7917
▁Gand	-10.7917
▁duy	-10.7918
▁prototip	-10.7918
▁kelimesi	-10.7919
▁eyalet	-10.792
▁şirketin	-10.7924
duk	-10.7931
▁kasaba	-10.7932
▁bayanlar	-10.7936
▁ölümü	-10.7938
▁ülkeden	-10.7944
▁istediklerini	-10.7946
ong	-10.7946
▁insanlarda	-10.7951
▁konuşmamı	-10.7952
▁ilişkileri	-10.7953
▁uyar	-10.7958
▁yuva	-10.7962
ut	-10.7964
▁avukat	-10.7964
▁gönder	-10.7964
▁ekibi	-10.7965
▁durma	-10.797
▁gizem	-10.7971
▁fotoğrafını	-10.7974
▁kaldık	-10.7975
zerinde	-10.7976
▁enteresan	-10.7977
▁Yerel	-10.7978
▁nöronlar	-10.7979
▁yarışma	-10.7979
▁Bakanlığı	-10.7979
▁Street	-10.798
▁ofis	-10.7981
▁özür	-10.7983
▁bilinir	-10.7987
▁yazıyor	-10.7989
▁hatırlar	-10.7989
▁Ed	-10.7992
▁büyür	-10.7995
▁gitmiş	-10.7998
▁kazanıyor	-10.8
▁ulaşılabilir	-10.8
▁Güvenlik	-10.8003
lenen	-10.8003
▁bahsetti	-10.8004
▁gönderme	-10.8004
▁planlama	-10.8006
▁öğrenir	-10.8006
▁kullandıkları	-10.8011
▁yazılı	-10.8012
▁olmasaydı	-10.8014
▁tanrı	-10.8017
▁duyan	-10.8017
▁kavga	-10.8018
▁doğanı	-10.8019
▁davranışlar	-10.8019
▁meslek	-10.8021
▁aynısı	-10.803
▁hareketin	-10.803
ilmiş	-10.8031
▁yaratacak	-10.8031
▁26	-10.8032
▁195	-10.8033
▁mühendisliği	-10.8037
▁inceleme	-10.804
at	-10.8044
hi	-10.8044
▁çıkması	-10.8048
▁toplumlar	-10.8051
▁yapıcı	-10.8052
▁başlarında	-10.8054
▁yapabilirler	-10.8058
▁yılını	-10.8064
▁120	-10.8066
yum	-10.8069
▁otobüs	-10.8073
▁sınıfta	-10.8074
▁sorduğum	-10.8074
be	-10.8077
▁gittiği	-10.8077
▁resmin	-10.8079
▁müziğin	-10.808
▁bölümünde	-10.8082
▁konuştu	-10.8092
▁endüstrisi	-10.8093
▁dizüstü	-10.8096
▁geceleri	-10.8106
▁değiştiğini	-10.8109
▁Devam	-10.8109
▁teknolojisini	-10.811
▁keşfetti	-10.811
▁haritasını	-10.8114
▁700	-10.8114
▁kurmay	-10.8115
▁yaptığımızı	-10.8122
▁olağan	-10.8123
▁çıkardık	-10.8123
▁motive	-10.8123
▁korumaya	-10.8125
▁hastalıkların	-10.8127
▁mühendis	-10.8129
ore	-10.8131
▁95	-10.8132
▁33	-10.8132
▁gereksiz	-10.8133
▁Merak	-10.8135
▁bakımından	-10.814
ün	-10.814
▁Erkek	-10.8145
▁yazmaya	-10.8146
▁çamaşır	-10.8149
▁aynısını	-10.8152
▁MS	-10.8153
▁sent	-10.8154
san	-10.8158
ko	-10.8159
▁Enerji	-10.816
▁kolaylık	-10.816
▁türünü	-10.8161
▁yapıları	-10.8163
▁karikatür	-10.8165
▁çıktığında	-10.8165
▁Co	-10.817
▁konuştum	-10.8171
▁geçecek	-10.8171
▁dön	-10.8172
▁oturma	-10.8174
▁karşılaştığımız	-10.8176
ydü	-10.818
▁bölgeler	-10.8181
▁Ön	-10.8181
ood	-10.8182
▁akışı	-10.8185
▁sebebiyle	-10.819
▁dosya	-10.8191
gide	-10.8192
▁günümüz	-10.8194
mıştır	-10.8196
▁arabası	-10.8198
▁üyeleri	-10.8199
abilecek	-10.82
▁Ar	-10.8201
▁Hepsini	-10.8204
ch	-10.8212
▁deneyimler	-10.8213
▁bireylerin	-10.8217
▁toplamak	-10.8223
▁benlik	-10.8223
▁Pan	-10.8227
▁gelişti	-10.8227
▁orkestra	-10.8231
▁sorunumuz	-10.8232
dığımız	-10.8232
▁çal	-10.8233
▁dönüşüyor	-10.8233
▁800	-10.8239
▁refah	-10.8241
▁öğretmek	-10.8245
▁bağlaya	-10.8247
acaktır	-10.825
▁yatıyor	-10.8253
▁vücudunu	-10.8258
▁koloni	-10.8259
rayı	-10.8264
▁maddi	-10.8272
▁hapse	-10.8272
▁tedarik	-10.8272
▁negatif	-10.8273
▁Geleneksel	-10.8273
▁acımasız	-10.8273
▁söyleyeyim	-10.8274
▁Evrim	-10.8274
▁Ortalama	-10.8274
▁ikincisi	-10.8274
▁Tim	-10.8275
▁güce	-10.8276
▁severi	-10.8276
▁görebiliyor	-10.8277
▁buluyorum	-10.8278
▁şiddeti	-10.8281
▁diğerlerinin	-10.8284
▁farkındalık	-10.8285
▁ilgimi	-10.8289
▁durmak	-10.8289
▁imza	-10.829
▁almıştı	-10.8292
▁beraberinde	-10.8294
▁hepimizi	-10.8301
▁fikr	-10.8301
▁akıllıca	-10.8302
ymiş	-10.8307
▁gay	-10.8308
▁Konuşma	-10.8312
▁kullanılır	-10.8314
▁şartlar	-10.8321
▁mühendisler	-10.8327
▁kapasitesi	-10.8332
▁balıklar	-10.8344
▁riskli	-10.8351
▁halini	-10.8355
▁muyu	-10.8358
▁gerçekleştirmek	-10.836
ılmış	-10.836
lığını	-10.8366
▁Herkesi	-10.8367
nu	-10.8372
▁çiftlik	-10.8372
▁eğitimin	-10.8378
▁emekli	-10.8378
▁arar	-10.8382
▁ölçü	-10.8383
▁gelmeye	-10.8384
▁araştırmacılar	-10.8384
▁yazıcı	-10.8389
▁kadını	-10.8395
▁Aile	-10.8395
▁olanların	-10.8401
▁somut	-10.8406
▁alanlarını	-10.8411
ırsınız	-10.8413
▁ailelerin	-10.8418
▁İnanıyoru	-10.8422
▁arasından	-10.8422
▁fikrimiz	-10.8422
▁Frank	-10.8423
▁Chicago	-10.8424
▁Ebola	-10.8424
▁belediye	-10.8424
▁gerektiriyor	-10.8424
▁Hâl	-10.8424
▁Noel	-10.8425
▁kirli	-10.8426
▁şüphesiz	-10.8427
▁göreceğiniz	-10.8427
▁davranışsal	-10.8428
▁çağında	-10.843
abileceğini	-10.843
▁yenilenebilir	-10.843
▁aranızda	-10.8432
dikleri	-10.8432
▁evrimin	-10.8433
▁yaramaz	-10.8435
▁parçaların	-10.8435
▁sitesi	-10.844
▁başlıyorlar	-10.8444
▁sebepten	-10.8446
▁ailenin	-10.8447
BI	-10.8448
RB	-10.8449
▁kopya	-10.8452
▁çalışacak	-10.8453
▁ağırlığı	-10.8454
▁tutun	-10.8455
▁harcama	-10.8458
▁isterler	-10.846
▁eli	-10.8462
▁hızda	-10.8464
▁aday	-10.8468
▁kurban	-10.8468
▁gövde	-10.8469
▁anladık	-10.847
▁İtalya	-10.847
▁etraf	-10.8473
dirler	-10.8474
▁eti	-10.8476
▁azı	-10.8479
▁çarpışma	-10.848
▁taşır	-10.8483
▁etkilerini	-10.8484
▁felci	-10.8484
▁gözler	-10.8487
▁fikirlerini	-10.8487
▁kazanan	-10.8489
▁odaklan	-10.8495
▁Pazar	-10.8496
▁uzmanlar	-10.8498
lerindeki	-10.8499
▁sev	-10.8499
▁heykel	-10.85
▁akışını	-10.8502
▁sesin	-10.8506
▁gezegeni	-10.8509
▁olmasıydı	-10.8511
miyor	-10.8512
▁elinizde	-10.8517
▁rüya	-10.852
▁ayni	-10.8523
▁dağıtım	-10.8525
▁maaş	-10.8526
▁Aslın	-10.853
▁Normal	-10.8533
▁kişilere	-10.8535
▁tarihini	-10.8536
▁sigorta	-10.8537
▁yuzde	-10.8537
▁derim	-10.8542
▁azaltmak	-10.8544
▁Devlet	-10.8545
▁ederdi	-10.8547
▁söyleyecek	-10.8548
▁köşesinde	-10.8549
▁İç	-10.855
▁fiyatı	-10.8558
▁tuttu	-10.8559
ır	-10.8559
▁alkol	-10.8559
▁okyanusta	-10.856
▁varken	-10.856
▁yazdığı	-10.8563
▁ağrı	-10.8564
▁tavuk	-10.8564
▁ağaçların	-10.8567
▁ilgiliydi	-10.8567
▁Özel	-10.857
▁tanık	-10.8574
▁dar	-10.8576
▁Sonraki	-10.8579
▁dramatik	-10.8579
▁Sahip	-10.858
▁sanıyorum	-10.858
▁tahrip	-10.8582
▁hayatınızı	-10.8582
▁bebeğin	-10.8582
▁düşündüğünüzde	-10.8582
▁dunya	-10.8583
▁robotik	-10.8585
▁dikkatini	-10.8585
▁karıncalar	-10.8587
▁içimizde	-10.8588
▁başladığımız	-10.8594
▁okulun	-10.8597
▁mahkum	-10.8601
▁olasılık	-10.8604
▁söyleyin	-10.8604
▁pound	-10.8614
▁başladığını	-10.8615
▁laboratuvarda	-10.8616
▁Amerikalıları	-10.862
▁çevrede	-10.8622
▁ordu	-10.8628
▁ürünün	-10.8634
▁terim	-10.8634
liyor	-10.8636
▁konuşması	-10.8636
lerdeki	-10.8638
eşke	-10.8639
▁vermişti	-10.864
▁toz	-10.8641
met	-10.8641
▁düşünceler	-10.8642
▁ışıkları	-10.865
▁bulunma	-10.865
▁kaynaklanıyor	-10.8651
▁çalışı	-10.8654
▁hapishane	-10.8654
▁sürecini	-10.8655
▁desteklemek	-10.8655
▁edemez	-10.8659
▁topluluklar	-10.8671
▁ucu	-10.8674
▁sevdiği	-10.8674
▁ah	-10.8674
dığında	-10.8681
▁gelme	-10.8683
▁fil	-10.8685
mde	-10.869
▁slayt	-10.8692
▁ümit	-10.8695
▁olayların	-10.8695
▁istey	-10.8699
▁oh	-10.8704
▁gelmedi	-10.8708
▁yerlerin	-10.8712
▁çocukluk	-10.8717
▁sormaya	-10.8718
▁olasılıkla	-10.8725
▁atıyor	-10.8725
▁moleküller	-10.8729
▁Scott	-10.8729
▁tamamiyl	-10.8729
▁kafasını	-10.8732
▁çikolata	-10.8734
▁kahverengi	-10.8734
▁hakkinda	-10.8734
▁maalesef	-10.8734
▁telif	-10.8735
▁onemli	-10.8735
▁Ford	-10.8735
▁kalkıp	-10.8736
▁ilaçların	-10.8736
▁çizgiler	-10.8739
▁yapacağımız	-10.8747
▁tak	-10.8751
▁çalışacağım	-10.8755
▁geçiren	-10.8755
▁platform	-10.8756
▁sinek	-10.8757
▁hareketler	-10.8759
▁gerçekler	-10.8759
▁görmeyi	-10.8765
▁verdiğini	-10.8767
▁söylerdi	-10.8769
▁alırken	-10.877
▁karşıtı	-10.8772
▁gözü	-10.8776
▁kolayc	-10.8778
▁yetişkinler	-10.878
▁konuşuyordu	-10.878
▁aşamasında	-10.8782
▁Hayatta	-10.8782
▁hayl	-10.8787
▁eğitimli	-10.8793
▁dinleme	-10.8796
▁bazılarının	-10.8797
▁ndaki	-10.8798
▁karşılaştırma	-10.8798
inizi	-10.8802
▁takılı	-10.8805
▁edebilecek	-10.8807
▁fena	-10.8808
ri	-10.8808
▁ikisinin	-10.8809
▁türün	-10.8809
leyici	-10.8812
▁anlattım	-10.8818
▁olacaksınız	-10.8819
L	-10.8822
▁öylesin	-10.8823
▁yapmaktan	-10.883
▁Wall	-10.8832
▁köyde	-10.8836
▁çıkarır	-10.8839
▁arkasın	-10.8841
▁gelmesini	-10.8841
▁etmeleri	-10.8841
▁başladığımızda	-10.8841
▁bırakır	-10.885
▁Kral	-10.8851
▁Kan	-10.8851
▁eksikliği	-10.8853
steli	-10.8854
▁başlamış	-10.8857
▁yürüdü	-10.8858
▁sebze	-10.8859
▁say	-10.8861
▁süt	-10.8861
▁kalitesini	-10.8862
▁gönderdi	-10.8864
▁uzmanları	-10.8866
▁lazer	-10.887
▁izni	-10.8871
▁yapabileceği	-10.8872
▁paralel	-10.8872
▁işimi	-10.8876
▁hita	-10.8884
▁nöroloji	-10.8885
▁Fizik	-10.8891
▁Silikon	-10.8893
▁Stanford	-10.8893
▁dilin	-10.8893
▁Hızlı	-10.8897
▁ilave	-10.8897
▁vermeyi	-10.8898
ire	-10.8898
▁pirinç	-10.8898
▁yaklaşımı	-10.8904
▁azalıyor	-10.8909
▁bağlamda	-10.8909
labilir	-10.891
▁bulunabilir	-10.891
▁aldığını	-10.8918
mayı	-10.8918
▁bulunmakta	-10.8919
▁yardımıyla	-10.8921
▁kabile	-10.8925
▁başladığında	-10.8927
▁ilgileniyor	-10.8929
▁anneler	-10.8936
ter	-10.8937
▁politikacılar	-10.894
▁elinizi	-10.894
▁uğraş	-10.8941
çi	-10.8942
▁travma	-10.8944
▁kelimeleri	-10.8946
▁tatil	-10.895
▁oluşturu	-10.8954
▁örnekte	-10.8955
▁hareketli	-10.8957
▁Çocukların	-10.896
▁Eric	-10.8961
▁sesli	-10.8965
▁Tarih	-10.8966
▁iyileşme	-10.8967
▁unutma	-10.8967
▁tarafına	-10.8968
▁MR	-10.8969
▁faydası	-10.8971
▁kalıp	-10.8976
▁nerde	-10.8976
▁Ray	-10.8978
▁Rus	-10.8979
▁Krallık	-10.8981
▁sade	-10.8981
▁olmalıyı	-10.8982
▁inin	-10.8982
▁kaybetmiş	-10.899
▁bilgisi	-10.8991
▁azaltma	-10.9
▁gelişmeler	-10.9001
▁verilere	-10.9002
▁koşu	-10.9003
▁şiddetin	-10.9005
▁tabiki	-10.9006
▁dönemi	-10.9006
▁elma	-10.9017
▁tüketim	-10.902
▁hastaları	-10.9021
▁bazılarınız	-10.9029
▁radyasyon	-10.903
▁bekleme	-10.903
▁bağlantılar	-10.9037
lke	-10.904
rseniz	-10.9042
▁kullanımını	-10.9043
▁Gülüşme	-10.9043
▁oluşturduğu	-10.9044
▁yıkıcı	-10.9048
▁geçmişi	-10.9048
▁Bankası	-10.905
▁Si	-10.9054
▁çevrimiçi	-10.9054
▁sentetik	-10.9055
▁Iste	-10.9055
▁öncülü	-10.9057
mizde	-10.9058
▁geçirdik	-10.9059
▁Atlantik	-10.9059
▁hani	-10.906
▁ölçekli	-10.9061
▁hükümetin	-10.9076
▁millet	-10.9077
▁gitmesi	-10.9081
▁söylemişti	-10.9084
▁yetenekleri	-10.9087
▁bunda	-10.9087
▁mutsuz	-10.9088
▁tipi	-10.9091
▁hükümetler	-10.9092
sından	-10.9094
▁kanat	-10.9098
▁gittiğimiz	-10.91
▁katın	-10.91
▁ilaçları	-10.9104
▁elbise	-10.9105
▁binanı	-10.9112
▁parası	-10.9112
nızın	-10.9113
▁tutkulu	-10.9116
▁hayvanlarda	-10.9122
▁açıldı	-10.9123
▁seçimi	-10.9125
▁oynayan	-10.9125
▁icinde	-10.9126
▁annemin	-10.9127
▁kaldılar	-10.9127
▁kâr	-10.9128
▁hangisi	-10.9133
it	-10.9134
leyip	-10.9139
ğa	-10.914
▁çöl	-10.914
lerinizi	-10.9142
▁geldiğimde	-10.9143
▁odaklı	-10.9145
▁seviyesini	-10.9149
▁gercekte	-10.9152
▁kutusu	-10.9154
miştir	-10.9155
▁genleri	-10.9161
▁malzemeleri	-10.9162
▁etmekten	-10.9162
▁maden	-10.9163
▁çalışabilir	-10.9165
avid	-10.9167
▁Har	-10.9169
▁silahlar	-10.9169
▁izleyi	-10.9169
▁davranışlarını	-10.9174
▁doları	-10.9174
▁piyano	-10.9176
▁avcı	-10.9178
▁anlatma	-10.9187
▁zorluklar	-10.9191
ayet	-10.9191
▁ölçek	-10.9192
▁düşünmüştü	-10.9196
▁protez	-10.9198
▁kalanını	-10.92
▁kuralı	-10.92
▁kalması	-10.9201
▁şehrinde	-10.9202
▁söyledikleri	-10.9202
▁yaklaşıyor	-10.9203
▁merkezin	-10.9205
▁enfeksiyon	-10.9206
mişti	-10.9211
▁ekledi	-10.9211
▁duvarı	-10.9214
▁rüşvet	-10.9218
▁Kongo	-10.9218
ntarktik	-10.9218
▁üzücü	-10.9218
▁enfekte	-10.9218
▁hiçbirşey	-10.9219
▁Genellikle	-10.9219
▁Benzer	-10.922
▁Ekim	-10.9221
▁tropik	-10.9221
▁sayılır	-10.9224
▁inkar	-10.9224
▁fizikçi	-10.9225
▁yeter	-10.9228
▁gezegenlerin	-10.9233
▁ilki	-10.9233
▁lu	-10.9234
▁içten	-10.9236
▁öykü	-10.9238
▁etkiledi	-10.9239
▁göndermek	-10.9239
▁deneysel	-10.9241
▁güzelliği	-10.9242
▁motivasyon	-10.9252
▁anlamında	-10.9257
▁hastalığ	-10.9261
▁incelemek	-10.9261
▁hatırlatıyor	-10.9262
▁adımı	-10.9265
▁yeme	-10.9267
▁Fikir	-10.9267
▁çıkmaya	-10.9267
▁inanan	-10.9271
▁genler	-10.9272
▁kaynakların	-10.9274
▁duyduğu	-10.9275
▁tanımlamak	-10.9277
iyorsunuz	-10.9278
▁konum	-10.9279
▁değişken	-10.9279
▁katıldı	-10.9279
▁özelliklerini	-10.9285
▁diyalog	-10.9285
▁alınmış	-10.9286
▁ekosistem	-10.9288
▁alırsa	-10.9289
▁Go	-10.9291
C	-10.9295
▁yöntemleri	-10.9295
▁denemek	-10.9299
▁başarısızlık	-10.9303
▁yaradı	-10.931
▁çektim	-10.931
▁Aşağı	-10.9313
▁bölgenin	-10.9315
▁geliştirmeye	-10.9316
▁yürüme	-10.9327
▁gözde	-10.9328
▁geçtim	-10.9333
▁hikayelerini	-10.9333
▁gübre	-10.9338
▁kurumların	-10.9339
▁kanserin	-10.934
▁üretir	-10.9341
▁renkte	-10.9344
▁yangın	-10.9344
▁kalktı	-10.9344
▁Niye	-10.9346
▁yüzeyinde	-10.9347
▁Or	-10.9347
▁akla	-10.9348
▁tadını	-10.9348
▁başlattık	-10.9351
▁Ailem	-10.9351
▁sisteminde	-10.9354
▁geliştir	-10.9356
▁Ber	-10.9358
▁vizyon	-10.9359
▁bilin	-10.9359
▁tanımlama	-10.9363
▁seviyey	-10.9364
▁Demokrasi	-10.9365
cek	-10.9368
ından	-10.9368
▁Ri	-10.9369
▁etmem	-10.9371
▁konuşmaları	-10.9373
▁saha	-10.9375
▁etmedi	-10.9375
▁götürüyor	-10.9376
▁güneşin	-10.9379
▁ödün	-10.9383
▁konuştuğumuz	-10.9384
▁kaybediyor	-10.9384
▁estetik	-10.9385
▁Dijital	-10.9385
▁zarif	-10.9385
▁Britanya	-10.9385
▁büyümeye	-10.9387
▁karşılığında	-10.9387
▁düzine	-10.939
▁mutluyum	-10.939
▁Projesi	-10.9391
▁alırlar	-10.9394
▁Bush	-10.9398
▁İsa	-10.9404
▁Belli	-10.9406
▁yapıldığı	-10.9409
▁miras	-10.9409
emeyiz	-10.9415
▁biten	-10.9416
▁üniversitede	-10.9417
▁doların	-10.9419
▁katılım	-10.9429
▁köle	-10.9432
▁zekice	-10.9441
▁animasyon	-10.9446
layıcı	-10.9446
▁açıklıyor	-10.9447
▁sıradaki	-10.945
mamız	-10.9451
▁maddeler	-10.9457
▁hayatlarında	-10.9458
▁tanım	-10.9463
▁göstergesi	-10.9465
▁kadına	-10.9469
▁boyut	-10.9473
▁genlerin	-10.9473
▁araçların	-10.9477
▁bıraktım	-10.948
▁aykırı	-10.9482
▁öldürmek	-10.9487
▁donmuş	-10.9487
▁yıldızı	-10.9487
▁hareketini	-10.9487
▁filmler	-10.9488
▁sanatın	-10.9488
▁basınç	-10.9488
▁kullanılması	-10.9493
▁ölmüş	-10.9494
▁komşu	-10.95
▁odasında	-10.9506
▁davran	-10.9507
▁birimi	-10.9508
liyiz	-10.9508
▁28	-10.9508
▁robotun	-10.9512
▁felç	-10.9513
▁kanıtı	-10.9513
▁Erkekler	-10.9518
▁yaşı	-10.952
▁Herşey	-10.952
▁örümcek	-10.9524
▁işimiz	-10.9529
▁faaliyet	-10.953
▁çağrı	-10.953
▁sizleri	-10.9531
▁dilini	-10.9534
▁masada	-10.9542
▁AM	-10.9543
▁görüldüğü	-10.9546
▁alakası	-10.9547
▁kırılgan	-10.955
▁alkışlar	-10.9552
▁emniyet	-10.9554
▁mürekkep	-10.9554
▁Wikipedia	-10.9554
▁acayip	-10.9554
▁yükselen	-10.9558
▁görebiliyorum	-10.9559
▁Alan	-10.9559
▁Bilmiyorum	-10.9561
▁getirip	-10.9562
▁bilgisayarların	-10.9563
leyen	-10.9566
biliriz	-10.9567
▁dalış	-10.9568
▁etmeli	-10.9568
▁boyle	-10.9568
▁mağaza	-10.9571
▁bulaşıcı	-10.9571
▁götürmek	-10.9572
▁sağa	-10.9572
▁protesto	-10.9573
▁konuşur	-10.9573
▁ortamında	-10.9576
▁başlayı	-10.9579
▁edildiğini	-10.9587
▁cerrahi	-10.959
▁yaşanan	-10.9591
▁göründüğü	-10.9594
▁satmak	-10.9597
▁dizisi	-10.9599
▁düşündüğü	-10.96
▁oynuyor	-10.9601
▁sınırlar	-10.9604
▁uzaklıkta	-10.9605
▁ciddiye	-10.9609
İH	-10.9613
▁adama	-10.9618
30	-10.962
▁değişiklikleri	-10.9623
▁hikayem	-10.9624
▁Kutbu	-10.9624
▁sahipsiniz	-10.9625
▁önemini	-10.9627
▁Seyirciler	-10.963
▁ormanda	-10.9632
▁kimi	-10.9633
▁geçi	-10.9634
▁öngörü	-10.9642
▁hoşum	-10.9642
▁kalk	-10.9648
▁aleti	-10.9649
▁çekimi	-10.9651
▁Seyirci	-10.9651
▁ilgisini	-10.9654
▁düşündüğümüzde	-10.9658
▁Oradaki	-10.9659
▁ülkelerdeki	-10.9659
▁sinema	-10.9663
▁Hintli	-10.9666
▁bağlantıları	-10.9667
▁yaptığın	-10.9669
▁programlar	-10.967
istan	-10.9672
▁yararı	-10.9673
▁organizasyonlar	-10.9678
▁anahtarı	-10.9679
▁kodu	-10.968
▁gelirse	-10.9681
▁ilgilenen	-10.9682
▁düzen	-10.9682
za	-10.9684
▁parçacıklar	-10.9693
tür	-10.97
▁bağlantısı	-10.9702
▁anlayışı	-10.9704
▁yuvarlak	-10.9705
ber	-10.9705
▁kafatası	-10.9708
▁neşe	-10.9709
▁re	-10.9716
▁siber	-10.9716
▁materyal	-10.9718
▁hissetme	-10.9718
▁modelin	-10.9723
▁Cambridge	-10.9727
▁Florida	-10.9727
▁Yanlış	-10.9727
▁Doğrusu	-10.9727
▁interaktif	-10.9727
▁Örnek	-10.9729
▁yürürken	-10.9729
▁çapta	-10.9729
▁döngü	-10.9735
▁huzur	-10.9735
▁fiyatları	-10.9739
▁görünmüyor	-10.9739
P	-10.974
▁bildirim	-10.9741
▁beynimiz	-10.9746
▁alıyorsunuz	-10.9746
▁yaşıyorum	-10.9746
▁tohum	-10.9747
▁felsefe	-10.9752
▁varlıklar	-10.9752
▁algoritma	-10.9753
▁öğrencilerim	-10.9754
▁ulus	-10.9754
▁istemem	-10.9756
▁düşünürsen	-10.9758
▁bilmiyorduk	-10.976
luyoruz	-10.9761
▁tepesinde	-10.9762
▁maymunlar	-10.9763
▁kilise	-10.9764
▁bel	-10.9764
nizle	-10.9768
▁bakıyorlar	-10.9769
▁tanıştığım	-10.977
▁çalışmalarını	-10.9771
▁uçağı	-10.9771
▁gönderiyor	-10.9772
▁feminist	-10.9774
nizde	-10.9778
▁davranışları	-10.978
lanıyor	-10.9782
▁teması	-10.9785
▁üretmeye	-10.9788
▁sinyali	-10.9789
halde	-10.9794
▁anlamını	-10.9795
▁evreni	-10.9796
▁yöneten	-10.9797
▁Yedi	-10.9798
imin	-10.9798
▁eşitlik	-10.98
▁bağlar	-10.9801
ck	-10.9806
▁hayatımızda	-10.9814
▁tüketimi	-10.9818
▁grub	-10.982
▁Gene	-10.9822
▁vatandaş	-10.9827
una	-10.9828
▁yarış	-10.9834
▁sektör	-10.9836
▁sessizlik	-10.9837
▁kes	-10.9844
▁etmede	-10.9848
▁gününde	-10.9853
▁sistemlerin	-10.9854
▁gerçeğ	-10.9855
▁Bunda	-10.9855
▁anlamsız	-10.9861
▁eşcinsel	-10.9868
▁çalışmamız	-10.987
▁ellerini	-10.987
▁görmedi	-10.9874
▁Na	-10.9874
▁içeride	-10.9876
▁denizaltı	-10.9883
▁biliyorsun	-10.9889
▁yoksun	-10.9894
▁baska	-10.9894
▁ettiklerini	-10.9895
▁Smith	-10.9896
▁Mükemmel	-10.9902
▁İspanya	-10.9902
▁Haziran	-10.9902
▁evvel	-10.9902
▁halihazırda	-10.9902
▁duymuşsunuz	-10.9904
▁Kişisel	-10.9906
▁aklımız	-10.9907
▁başlıca	-10.9908
▁arkadaşlarımı	-10.9909
▁çıkmaz	-10.991
▁yaparım	-10.9911
▁binaların	-10.9912
▁Oyun	-10.9913
▁beton	-10.9916
▁Hal	-10.9918
▁roman	-10.9925
▁üye	-10.9926
▁izi	-10.9928
▁şuan	-10.9932
▁ormanın	-10.9932
▁Kültür	-10.9932
▁isteği	-10.9933
▁iskelet	-10.9934
▁ertesi	-10.9937
▁ağacın	-10.9937
▁eşi	-10.9941
nıza	-10.9942
▁modelini	-10.9946
▁aldıkları	-10.9946
▁işleyen	-10.9946
▁toprağın	-10.9947
▁yetiştirme	-10.9949
▁değilsiniz	-10.9951
▁Altın	-10.9951
▁liberal	-10.9952
▁beyniniz	-10.9953
▁hastaney	-10.9956
▁arabaları	-10.9959
▁seçmek	-10.9959
▁dersler	-10.996
▁sorunlarını	-10.9961
▁görülmemiş	-10.9964
▁Biyoloji	-10.9967
relim	-10.9968
▁oluşturabilir	-10.9969
▁boru	-10.9971
▁adamların	-10.9973
▁elimizdeki	-10.9976
▁yil	-10.9979
▁yasak	-10.9981
▁reçete	-10.9982
▁tabaka	-10.9982
▁mali	-10.9982
▁filmde	-10.9987
▁yapıyordum	-10.9989
mle	-10.999
▁ruhu	-10.9993
▁gölge	-10.9995
▁azaldı	-11.0001
▁kalmıştı	-11.0003
▁kardeşi	-11.0005
▁birbiri	-11.0006
ğini	-11.0007
▁kenarında	-11.001
▁uzana	-11.0019
▁yaşadık	-11.0022
▁Süper	-11.0025
▁senede	-11.0026
▁atar	-11.0026
▁düşünecek	-11.0028
▁oldugu	-11.003
▁kurar	-11.0039
▁antik	-11.0044
▁indi	-11.0046
▁sistemde	-11.0046
▁döndük	-11.0048
▁Müzesi	-11.0055
▁yüzün	-11.0056
▁Film	-11.006
▁yaşımda	-11.0063
▁oranla	-11.0067
seydi	-11.0068
▁King	-11.0071
▁tarayıcı	-11.0073
▁Afgan	-11.0075
▁analizi	-11.0076
▁düşündüğünüz	-11.0079
▁yapıyorsun	-11.0079
▁molekülleri	-11.008
▁oluşmuş	-11.0081
▁Brown	-11.0081
▁dogru	-11.0081
▁LED	-11.0081
▁bulan	-11.0081
▁görülebilir	-11.0083
▁gözüken	-11.0089
▁değiştirerek	-11.009
rebiliriz	-11.0091
▁küre	-11.0091
▁paket	-11.0092
▁bulunmaktadır	-11.0094
▁izleyici	-11.0094
▁Big	-11.0095
▁Günü	-11.0095
▁Sıradaki	-11.0099
▁çalan	-11.0101
▁geçirir	-11.0103
▁yayılıyor	-11.0105
▁ilacın	-11.0106
▁bardak	-11.0107
▁haliyle	-11.0109
▁söylüyordu	-11.011
▁çıkarın	-11.011
▁yakalanma	-11.0115
▁gelirler	-11.0116
▁çocuklarım	-11.0117
▁aramızda	-11.0117
▁duyguları	-11.0119
▁alabilme	-11.0123
▁filmin	-11.0124
▁ülkesi	-11.0127
▁başların	-11.013
▁yapmalarını	-11.0132
alesef	-11.0133
▁şansımız	-11.0134
▁Fi	-11.0138
▁f	-11.014
▁vücudu	-11.0141
▁şehirleri	-11.0142
▁kimlik	-11.0148
▁elleri	-11.0149
▁bugünün	-11.015
▁kategori	-11.015
▁Tıp	-11.0151
▁bal	-11.0151
rmal	-11.0154
▁sanatçılar	-11.0157
▁köşe	-11.0159
▁çabu	-11.0159
▁baktığımız	-11.0161
abiliyor	-11.0162
▁başkasının	-11.0169
▁bakıyordu	-11.0169
▁varsayım	-11.0176
▁ağız	-11.0179
▁konusunu	-11.018
▁arılar	-11.018
▁kapasite	-11.018
▁Jeff	-11.018
▁ötesi	-11.0182
▁evcil	-11.0188
▁Pe	-11.0188
▁bahsettiğimiz	-11.019
▁85	-11.0192
▁duruyordu	-11.0193
▁unutmayı	-11.0202
▁kalkınma	-11.0202
▁tartışmalar	-11.0207
▁hisse	-11.0213
▁umudu	-11.0215
▁anlattığı	-11.0221
▁interneti	-11.0222
▁taze	-11.0227
▁dünyasının	-11.0234
▁devletler	-11.024
▁kısıtlı	-11.0241
▁Veri	-11.0244
▁geleni	-11.0245
▁yapabilecekleri	-11.0246
▁cevabını	-11.0247
▁söylendi	-11.0248
▁askerler	-11.0249
▁gençlerin	-11.0251
▁biçim	-11.026
▁Binlerce	-11.0263
▁Taliban	-11.0263
▁işkence	-11.0263
▁sistematik	-11.0263
▁Simdi	-11.0263
▁şahane	-11.0263
▁Gates	-11.0263
▁beyne	-11.0266
▁makineleri	-11.0266
▁Bron	-11.0267
ilecek	-11.0268
▁kazanç	-11.0268
▁arıyor	-11.0275
▁sanatsal	-11.0275
▁yabani	-11.0276
▁kg	-11.0283
▁motoru	-11.0284
klarını	-11.0284
▁aslin	-11.0291
▁harf	-11.0292
▁tutu	-11.0296
▁Tony	-11.0296
▁araştır	-11.0297
▁hedefi	-11.0298
▁edilecek	-11.0298
▁bilmez	-11.0298
▁başkası	-11.0301
madan	-11.0306
▁bit	-11.0309
▁duyduk	-11.031
▁biliniyor	-11.0313
▁geliri	-11.0315
▁hatalar	-11.032
▁Durum	-11.0322
▁söylemem	-11.0325
▁fırtına	-11.0328
eceği	-11.0328
▁birşeyi	-11.0333
▁aksi	-11.0335
▁işgal	-11.0336
▁Doktor	-11.0336
▁sistemlerini	-11.0337
▁başlığı	-11.034
▁dağınık	-11.0341
▁çeviri	-11.0343
▁sözleri	-11.0344
▁donanım	-11.0346
▁belge	-11.0346
▁etmenizi	-11.035
▁yayılması	-11.0355
▁sınırı	-11.0356
▁duymuş	-11.0364
▁aklımda	-11.037
▁Sam	-11.0371
▁Le	-11.0373
larak	-11.0375
▁ş	-11.0375
▁Yemek	-11.0376
▁Gün	-11.0376
▁Kendini	-11.0379
▁mesafede	-11.038
▁dedikleri	-11.038
▁bilmeniz	-11.0381
▁avantaj	-11.0383
▁as	-11.0385
▁kamp	-11.0385
▁hedefler	-11.0389
▁gecekondu	-11.0391
▁ürünlerin	-11.0391
▁memeli	-11.0391
▁kalmaya	-11.0392
▁kesme	-11.0392
▁açıkladı	-11.0395
▁karmaşıklığı	-11.0395
▁kitabını	-11.0398
▁dost	-11.0399
▁dönüşür	-11.04
▁kış	-11.0402
▁yıldızın	-11.0402
▁cihazları	-11.0408
▁Inc	-11.0411
▁korkusu	-11.0411
labiliriz	-11.0415
▁cazibe	-11.0417
▁kesi	-11.0419
▁kültürünü	-11.0422
▁adamla	-11.0422
▁yüze	-11.0422
▁finans	-11.0426
▁çare	-11.0426
▁yakalamak	-11.0427
▁Hazır	-11.0429
▁açma	-11.0429
▁diyet	-11.043
▁tasarladı	-11.043
▁alkış	-11.0432
▁beyninde	-11.0435
▁dokunma	-11.0436
▁İsviçre	-11.0437
▁yerleştirdi	-11.0437
▁Yunan	-11.0437
▁uğraşan	-11.0442
▁bilgisayarda	-11.0443
▁bahsetmiyoru	-11.0445
▁Sahra	-11.0448
▁bambaşka	-11.0448
▁söylenen	-11.0448
▁coğrafi	-11.0449
▁yüzeyde	-11.0452
▁Vakfı	-11.0452
▁aylar	-11.0452
▁gene	-11.0453
▁Gana	-11.0454
uel	-11.0455
▁konuşuyorum	-11.0455
▁seksi	-11.0456
▁edebilirim	-11.0456
don	-11.0456
▁konuşuyoruz	-11.0462
▁aracın	-11.0468
▁hissetmek	-11.0469
▁açıklaması	-11.0471
▁Jane	-11.0477
▁yüzen	-11.0481
▁kılavuz	-11.0482
muz	-11.0489
▁damla	-11.0489
▁güncel	-11.0495
▁yakaladı	-11.0499
▁buzul	-11.0503
▁Pi	-11.0503
▁ilerleye	-11.0503
▁zorla	-11.0504
▁oluşturmaya	-11.0504
leniyor	-11.0509
▁aralık	-11.0514
ırf	-11.0521
▁ölüme	-11.0521
▁Ödülü	-11.0525
▁kon	-11.0526
▁telefonlar	-11.0528
▁gösterebilir	-11.0531
▁doğdum	-11.0533
▁çoğunda	-11.0533
ıyorum	-11.0539
▁ölçüm	-11.054
▁ürettiği	-11.0541
▁bitirdi	-11.0547
▁lideri	-11.0547
mızda	-11.0549
▁altta	-11.0552
▁etmektir	-11.0553
▁referans	-11.0553
▁ritim	-11.0555
▁Yahudi	-11.056
▁koşul	-11.0561
▁anket	-11.0565
▁öbür	-11.0565
▁pişmanlık	-11.0566
▁Masa	-11.0572
▁anları	-11.0572
▁öğret	-11.0574
▁Suriye	-11.0578
▁bilgisayarı	-11.0581
▁aslı	-11.0583
▁filmini	-11.0583
▁siyaset	-11.0588
▁başkaları	-11.0589
▁renkleri	-11.0591
mıza	-11.0593
▁gittiler	-11.0594
▁sürücü	-11.0596
▁Korku	-11.0597
▁yerdeki	-11.0599
▁yaban	-11.0608
▁aradı	-11.0611
▁29	-11.0613
leştiren	-11.0615
▁kişileri	-11.0615
diklerini	-11.0617
▁hissediyor	-11.062
▁küme	-11.0622
▁Yardım	-11.0623
▁Filistin	-11.0627
▁nota	-11.0628
▁iyiye	-11.0632
▁trajedi	-11.0632
▁tekniği	-11.0633
▁şükür	-11.0636
▁Nihayet	-11.0636
▁Microsoft	-11.0637
luğu	-11.0639
▁oluştuğunu	-11.064
ach	-11.064
▁düşünmeliyiz	-11.0641
▁diyebilirim	-11.0642
dıklarını	-11.0642
▁büyü	-11.0642
ınızı	-11.0647
▁örneğini	-11.065
▁arkadaşlarını	-11.0656
▁kullanılmış	-11.0657
▁uyan	-11.0659
▁saklı	-11.066
▁Koruma	-11.0662
▁kullanıyoru	-11.0662
▁Kev	-11.0663
▁yaşlarında	-11.0664
▁bulunmak	-11.0664
▁bitir	-11.0665
dığınızda	-11.0666
▁ölçmek	-11.0666
▁yaşamını	-11.0668
▁içsel	-11.0668
▁bölgesel	-11.0673
▁aldığınız	-11.0674
▁sorduğu	-11.0677
▁seti	-11.0678
▁yazılımı	-11.068
▁ifadesi	-11.0681
▁At	-11.0681
▁hatırladı	-11.0682
▁kırıklığın	-11.0684
▁denemeye	-11.0689
▁karmaşa	-11.069
▁varlık	-11.0692
▁kurulmuş	-11.0693
▁görünmeyen	-11.0694
▁yetki	-11.0698
▁görüyordu	-11.0699
▁kalori	-11.0704
▁bakterilerin	-11.0717
▁atalarımız	-11.0719
▁toplumların	-11.0722
▁etkileşime	-11.0722
▁yozlaşma	-11.0723
▁kendilerinin	-11.0726
▁ulaştık	-11.0731
▁ç	-11.0734
sha	-11.0736
▁uygulaması	-11.0736
▁erkeklere	-11.0737
▁toplayı	-11.0738
▁bozukluğu	-11.074
▁uzayın	-11.0743
▁hattı	-11.0743
▁kıl	-11.0746
▁boyun	-11.0749
▁çeşidi	-11.075
▁yükseldi	-11.0751
▁Aksi	-11.0753
▁rahatlık	-11.0753
▁gitmeyi	-11.0758
▁katlı	-11.076
▁kağıdı	-11.0761
▁keşfi	-11.0762
tra	-11.0763
▁yasalar	-11.0769
▁olacağımız	-11.077
▁gördüğünde	-11.0772
▁gore	-11.0773
▁dersleri	-11.0773
▁sini	-11.0777
▁hayvanın	-11.0781
acağımızı	-11.0781
▁maliyetini	-11.0782
▁İz	-11.0783
▁üret	-11.0784
▁direnç	-11.0787
R	-11.0791
▁inovasyon	-11.0793
ydik	-11.0794
▁Bi	-11.0795
▁terörizm	-11.0797
▁örtüsü	-11.0798
lerimi	-11.08
▁olurken	-11.0801
▁verdiğiniz	-11.0804
▁geçirmiş	-11.0804
▁Siyah	-11.0805
▁haricinde	-11.0808
▁Arjantin	-11.0809
▁çıkardığı	-11.081
▁çarpma	-11.0811
▁hayvanı	-11.0813
▁roket	-11.0813
▁fit	-11.0814
▁operasyon	-11.0817
▁tasarrufu	-11.082
▁lisede	-11.0822
▁eğit	-11.0826
▁Şarkı	-11.0826
▁izole	-11.0829
▁Berlin	-11.0829
▁Pekâl	-11.0829
▁doğuştan	-11.0829
▁beklenen	-11.083
▁böcekleri	-11.0831
▁zorunlu	-11.0832
▁yürüyen	-11.0835
▁evlerinde	-11.0835
▁Virgin	-11.0835
▁dayanan	-11.0837
▁hic	-11.0837
▁İzleyici	-11.0837
▁hergün	-11.0839
▁arkadaşlarımız	-11.0843
▁söyleyebiliriz	-11.0844
▁başarmak	-11.0846
▁Kara	-11.0846
▁otel	-11.0849
▁yapısal	-11.0849
▁benzersiz	-11.0849
▁profesör	-11.0851
▁evim	-11.0854
▁bilerek	-11.0854
▁şeffaflık	-11.0857
▁has	-11.0858
▁market	-11.0859
▁mikroplar	-11.0861
BC	-11.0861
▁hareketlerini	-11.0867
▁birimiz	-11.0869
▁haftalık	-11.087
▁nesneleri	-11.0877
alıyorum	-11.0878
▁vasıtası	-11.0883
▁kaybetme	-11.0892
miyoruz	-11.0894
▁birşeyleri	-11.0895
▁Gi	-11.0895
▁Okyanusu	-11.09
▁um	-11.0901
▁gösteriyorum	-11.0902
▁programın	-11.0902
dılar	-11.0906
▁diyecek	-11.0907
▁işçiler	-11.0908
▁Bazılarınız	-11.0911
▁küreselleşme	-11.0915
▁azalt	-11.0916
J	-11.092
▁ticareti	-11.0923
▁yayılmış	-11.0923
▁inceledik	-11.0928
▁Yok	-11.0931
▁yollarda	-11.0931
▁olsalar	-11.0932
▁olmayacaktı	-11.0937
lacak	-11.0937
▁açıklamaya	-11.0938
ian	-11.0938
▁şebeke	-11.094
▁döngüsü	-11.0943
▁silahları	-11.0946
▁almamız	-11.0956
▁olanlardan	-11.0957
▁Başkanı	-11.0958
▁Me	-11.0961
▁köşede	-11.0965
▁önceydi	-11.0969
▁Wal	-11.0971
▁oynamaya	-11.0973
▁zirve	-11.0978
▁zamanımız	-11.098
▁eğilimi	-11.098
▁bulmuş	-11.098
▁uğramış	-11.0983
▁çalışmıyor	-11.0984
▁yazın	-11.0985
▁hayatınız	-11.0987
▁konunu	-11.0987
▁işlediğini	-11.0987
▁kuruluşları	-11.0992
▁kılıyor	-11.0995
bir	-11.0996
▁özünde	-11.1006
▁bilmiyordu	-11.1006
▁karaciğer	-11.1007
▁ormanları	-11.101
▁geçirdiğim	-11.1011
▁Sistem	-11.1011
lanabilir	-11.1012
▁geçtiği	-11.1012
▁konuları	-11.1014
▁mekanizması	-11.1015
▁yolsuzluk	-11.1015
ist	-11.1016
▁temelinde	-11.1017
▁hemşire	-11.1019
▁ayrılmış	-11.102
▁masum	-11.1022
▁yaklaş	-11.1022
▁Hollanda	-11.1023
▁Yıl	-11.1023
▁toprağı	-11.1024
▁enjekt	-11.1025
▁yüzme	-11.1025
▁Ruanda	-11.1025
▁Delhi	-11.1025
▁görülür	-11.1026
▁2020	-11.1027
▁Arapça	-11.1028
▁akan	-11.1028
▁mini	-11.1031
▁yayınladı	-11.1032
▁mühendisi	-11.1032
▁org	-11.1033
▁tüket	-11.1034
▁denizin	-11.1037
▁anti	-11.1038
▁g	-11.1038
▁buluş	-11.1041
▁değillerdi	-11.1042
▁yaşandı	-11.1042
▁dikkatinizi	-11.1044
▁giy	-11.1045
▁Düşünün	-11.1046
▁anlayabilmek	-11.105
▁buralarda	-11.1055
▁dokun	-11.1055
▁kameralar	-11.1062
Y	-11.1067
likte	-11.1068
▁kirlilik	-11.1068
▁girmiş	-11.1072
▁bırakın	-11.1076
▁zenginlik	-11.1076
▁Şehir	-11.1076
▁ormanlar	-11.1083
▁ışığ	-11.1091
▁bulabilir	-11.1095
▁seçenekler	-11.1099
▁olmamızı	-11.1099
▁sesle	-11.1101
▁cm	-11.1107
▁çağdaş	-11.1109
▁ilgilenmeye	-11.1109
▁gittiğinde	-11.1112
▁Kendimizi	-11.1115
▁videoda	-11.1115
maları	-11.1116
▁şeffaf	-11.1118
▁katılmak	-11.1118
meyi	-11.112
▁bilinci	-11.1126
▁sinyaller	-11.1127
▁bakıyoru	-11.1128
▁hayran	-11.1128
▁kapsaya	-11.1128
▁gökyüzün	-11.113
▁çalıştıkları	-11.1131
▁yiyecekler	-11.1132
▁okullarda	-11.1133
▁öldürücü	-11.1134
▁sistemimizi	-11.1143
▁seçeneği	-11.1146
▁oku	-11.1149
▁erkeğin	-11.115
yarak	-11.1151
▁Nick	-11.1152
▁arkada	-11.1155
▁Joe	-11.1156
▁aletleri	-11.1157
▁arayı	-11.1158
hur	-11.1158
▁yurt	-11.1161
▁istihdam	-11.1162
▁birlik	-11.1167
▁ısrar	-11.1169
▁yerleştirdik	-11.1172
▁gibiler	-11.1173
▁ailesini	-11.1175
eger	-11.1176
▁cömert	-11.1177
▁zorundadır	-11.1181
ebilecek	-11.1183
▁Hayatımı	-11.1187
▁çocuğunu	-11.1188
▁etiketi	-11.1189
çı	-11.1191
▁doğmuş	-11.1195
▁okyanuslar	-11.1196
ho	-11.1197
▁Yavaş	-11.12
▁tükenmiş	-11.1201
▁yönetici	-11.1202
▁yenilikler	-11.1203
▁muayene	-11.1208
▁ailemi	-11.1209
▁aşina	-11.1213
▁bacak	-11.1213
▁pişirme	-11.1213
▁sokaklarda	-11.1215
▁filtre	-11.1216
▁sever	-11.1217
▁artar	-11.1217
ha	-11.1218
▁yarışı	-11.1219
▁National	-11.1225
▁gütmeye	-11.1225
▁Parkinson	-11.1225
▁eser	-11.1225
▁sivrisinek	-11.1225
▁düşünürsünüz	-11.1225
▁gömülü	-11.1225
▁etnik	-11.1227
▁Görünüş	-11.1228
▁sırrı	-11.123
▁sorabilirsiniz	-11.1231
▁doğaçlama	-11.1231
▁harcıyoruz	-11.1234
▁meslektaşım	-11.1236
NSA	-11.1237
▁Eh	-11.1237
▁yatay	-11.1238
▁36	-11.1242
▁nesnelerin	-11.1243
▁giderseniz	-11.1247
▁odasına	-11.1247
▁nesiller	-11.125
▁girme	-11.1251
▁arkadaşımı	-11.1251
▁Sırada	-11.1254
▁düşme	-11.1255
▁niha	-11.1256
▁nehrin	-11.1259
▁koşulları	-11.1259
▁enerjisini	-11.1261
larımdan	-11.1263
▁Bayanlar	-11.1265
diğinde	-11.1265
▁eşitsizlik	-11.1266
▁butun	-11.127
▁bahsettiği	-11.127
▁gücümüz	-11.1272
▁olsam	-11.1273
▁tartışmaya	-11.1273
▁yargı	-11.1276
▁genişliğinde	-11.128
▁çevirmek	-11.1283
ard	-11.1284
▁yerdi	-11.1285
▁aklınız	-11.1289
layan	-11.129
▁yetiştirmek	-11.1291
▁fiber	-11.1295
▁belirtmek	-11.1296
▁durdurmak	-11.1298
▁hissini	-11.1299
▁hap	-11.1299
▁yaşamayı	-11.13
▁yetenekler	-11.1301
ral	-11.1302
▁ulaşıyor	-11.1302
▁ayır	-11.1302
ville	-11.1303
▁arkadaşlarınız	-11.1303
▁uzerinde	-11.1304
▁seninle	-11.1305
▁firması	-11.1306
▁tekerlekl	-11.1307
şık	-11.1313
▁noktasın	-11.1325
▁paraya	-11.133
▁amaçlar	-11.1336
▁odaklanma	-11.1339
▁Körfezi	-11.134
▁iyileştirmek	-11.1345
▁yaptığında	-11.1349
▁içerir	-11.1349
▁dağın	-11.135
▁baktığınız	-11.1356
▁kadarını	-11.1358
▁yerleştirme	-11.1358
▁öncü	-11.1365
▁yüzeyin	-11.1365
▁durumları	-11.1367
▁maddeleri	-11.1372
▁Problem	-11.1372
▁karanlıkta	-11.1373
sen	-11.1373
▁çoğunluk	-11.1373
▁doktoru	-11.1376
▁yaşayacak	-11.1381
▁dokusu	-11.1382
▁Matematik	-11.1382
emezsiniz	-11.1382
ly	-11.1385
▁hayatınızda	-11.1386
▁ikili	-11.1386
▁teknikler	-11.139
▁internetten	-11.1392
▁depo	-11.1393
▁salgını	-11.1394
▁itibari	-11.1394
▁oynadı	-11.1399
▁bağımlılık	-11.1402
▁açısını	-11.1402
▁lezzetli	-11.1405
▁Öte	-11.1409
▁karakteri	-11.141
▁dediğini	-11.1411
▁otur	-11.1411
▁v	-11.1413
▁devrey	-11.1414
▁sağladık	-11.1414
▁yay	-11.1415
▁vardık	-11.142
▁arkadaşların	-11.142
▁kazanma	-11.1421
▁sevdikleri	-11.1423
▁gündüz	-11.1426
rtesi	-11.1427
▁samimi	-11.1429
attle	-11.1429
▁Nelson	-11.1429
▁obezite	-11.1429
▁spesi	-11.1429
▁Şubat	-11.1429
▁çalar	-11.1432
▁düşünüp	-11.1432
▁GSM	-11.1432
▁gerçekleşir	-11.1434
▁görelim	-11.1436
▁Örgütü	-11.1436
▁yolculuğu	-11.1437
▁kuruluş	-11.1441
▁evrimi	-11.1442
▁anlamayı	-11.1443
▁düşünürdü	-11.1444
▁Brun	-11.1446
▁kablolar	-11.1446
▁elektron	-11.1448
▁Kaçınız	-11.145
▁durumla	-11.1453
▁önlemek	-11.1461
▁Yaptığım	-11.1462
▁engellemek	-11.1462
▁çalıyor	-11.1463
▁duman	-11.1464
▁Cun	-11.1466
▁çalışmaların	-11.1468
▁Aralık	-11.1468
▁saldırgan	-11.1469
▁Bar	-11.1472
▁anatomi	-11.1472
▁şarj	-11.1473
larındaki	-11.1474
▁hapiste	-11.1476
▁başla	-11.1479
▁konuşmasını	-11.1484
▁yarıya	-11.1485
▁yoğunluğu	-11.1486
▁Mac	-11.1487
▁Cola	-11.1487
▁Normalde	-11.1489
▁Dahası	-11.1491
▁gitmemiz	-11.1492
▁tutarlı	-11.1496
▁Diğeri	-11.1498
▁Dikkat	-11.1498
▁Dediğim	-11.1504
▁günleri	-11.1505
▁patlaması	-11.1506
▁gemisi	-11.1507
▁Ku	-11.1508
▁varmak	-11.1508
▁takdirde	-11.1513
▁araştırması	-11.1515
▁pozisyon	-11.1516
▁okuduğum	-11.1516
▁ispat	-11.1517
▁verirler	-11.1518
▁atın	-11.1519
▁faktör	-11.1519
▁toplumlarda	-11.1522
▁Nere	-11.1526
▁atan	-11.1528
acağım	-11.1532
ırken	-11.1534
▁formu	-11.1542
▁Gelin	-11.1543
▁uygulamaları	-11.1548
▁ormanı	-11.1549
▁ilgilenir	-11.1556
▁anlaşılması	-11.1557
▁cihad	-11.1557
▁gereklidir	-11.156
▁193	-11.1563
ğ	-11.1564
▁gideceği	-11.157
▁Muhamm	-11.1573
▁darbe	-11.1573
▁Mutlu	-11.1575
▁Saat	-11.1575
▁kumanda	-11.1576
▁Okulu	-11.1576
▁kafası	-11.1579
▁metin	-11.1579
▁neleri	-11.158
▁umutsuz	-11.1584
▁kapat	-11.1588
▁genomu	-11.1591
▁kavramsal	-11.1592
▁bıçak	-11.1592
▁mahkeme	-11.1593
laşıyor	-11.1595
▁işitme	-11.1598
▁almaz	-11.1601
▁Ayn	-11.1601
▁koş	-11.1603
▁görüntüy	-11.1603
▁Çince	-11.1607
▁yankı	-11.1609
▁Yer	-11.1613
▁Devrimi	-11.1614
▁düşünmenin	-11.1617
▁araştırmak	-11.1618
aten	-11.1619
▁Yaşlı	-11.162
▁medyada	-11.162
▁Bayan	-11.1621
▁üçü	-11.1622
▁başlayacağı	-11.1623
▁muhafaza	-11.1625
▁ulaşır	-11.1625
▁geldiğimiz	-11.1626
▁sınıfı	-11.1627
yacağım	-11.1628
▁Grön	-11.1637
▁Singapur	-11.1637
▁federal	-11.1637
▁Josh	-11.1637
▁Ticaret	-11.1638
▁uygulanabilir	-11.1638
▁Brian	-11.1638
▁Şili	-11.1638
▁sizlerin	-11.1638
▁tanımlayan	-11.1639
▁sezgisel	-11.1639
▁Lester	-11.1639
▁zira	-11.164
▁ayıran	-11.1641
▁Dün	-11.1641
▁etkileyecek	-11.1641
▁prensip	-11.1641
▁götüren	-11.1643
▁ulaşan	-11.1645
▁dönüştürüyor	-11.1645
▁çıkabilir	-11.1645
▁SW	-11.1649
▁düşünürüz	-11.165
▁ebeveyn	-11.1652
▁Sanal	-11.1652
▁üzgünü	-11.1652
▁sırt	-11.1653
▁görüldü	-11.1659
erry	-11.166
▁savaşmak	-11.166
arsanız	-11.166
▁aklı	-11.1661
▁yılları	-11.1661
▁çiçekler	-11.1662
▁bakmayı	-11.1662
▁diyorsunuz	-11.1665
▁çektiğim	-11.1667
▁geldiklerinde	-11.1668
cik	-11.1669
bilirsiniz	-11.1672
▁versiyonunu	-11.1674
▁gerçeğini	-11.1674
▁Hill	-11.1676
▁yarattığımız	-11.1677
▁sıcaklığı	-11.168
dilerim	-11.1681
▁aklınızda	-11.1681
▁eğitmek	-11.1685
▁gerçekleri	-11.1687
▁gökyüzünde	-11.1688
▁aradım	-11.1693
▁uçaklar	-11.1694
▁oluş	-11.1694
lıkla	-11.1695
▁Medya	-11.1695
▁kurula	-11.1697
▁insanoğlunu	-11.1698
▁karışımı	-11.17
▁sopa	-11.17
▁hayattaki	-11.1701
▁okuyor	-11.1702
▁yaratık	-11.1703
▁edeceksiniz	-11.1704
▁olmazsa	-11.1715
▁karşılaş	-11.1726
▁doğrusal	-11.1727
▁sıralarda	-11.1732
▁St	-11.1732
▁ayırmak	-11.1735
▁boyutunda	-11.1747
▁kaybettik	-11.1748
▁trans	-11.1748
▁detaylar	-11.1751
iniz	-11.1753
▁eğilim	-11.176
▁kuşların	-11.1763
▁sağda	-11.1766
▁yaptığımızda	-11.1767
DR	-11.1769
▁asılı	-11.1771
▁seçimleri	-11.1771
O	-11.1772
▁Bell	-11.1777
▁Var	-11.1779
▁seferde	-11.178
▁sayfası	-11.1782
▁Kontrol	-11.1783
▁deprem	-11.1783
▁riskleri	-11.1785
▁arayüz	-11.1788
▁bilgilerini	-11.1791
▁metan	-11.1792
▁Olay	-11.1799
▁eksi	-11.18
▁sayısal	-11.1802
▁geni	-11.1803
▁söylemedi	-11.1803
▁Dışarı	-11.1806
▁teknikleri	-11.1806
▁senaryo	-11.1807
▁girişimciler	-11.1807
▁arttır	-11.1808
▁molekülü	-11.1809
▁çizgisi	-11.1809
▁soyu	-11.1816
▁oday	-11.182
▁pamuk	-11.1822
▁yırtıcı	-11.1824
▁taşıdı	-11.1824
lerimden	-11.1825
▁kuyruk	-11.1826
▁Carl	-11.1826
▁unu	-11.1829
▁bilgisayarları	-11.183
▁güzeldi	-11.183
▁batarya	-11.1831
▁haberdar	-11.1831
▁zar	-11.1833
▁Henr	-11.184
▁CD	-11.1841
▁yunus	-11.1841
▁avuç	-11.1841
▁gelişiyor	-11.1844
yan	-11.1845
▁formları	-11.1846
▁kafam	-11.185
▁Bangladeş	-11.185
▁Elektrik	-11.185
▁Soğuk	-11.185
▁Watson	-11.185
▁makul	-11.185
▁Mayıs	-11.185
▁bozucu	-11.1852
▁fikirle	-11.1853
▁Titan	-11.1855
▁belirt	-11.1857
gras	-11.1857
▁getirerek	-11.1858
▁niyetli	-11.1858
▁yapmalı	-11.1859
▁kalbi	-11.1863
▁iletişimi	-11.1863
▁edeceğini	-11.1866
▁baskın	-11.1869
▁genişlet	-11.1869
▁paylaşacağım	-11.1876
▁ayrıla	-11.1883
▁bulmayı	-11.1886
▁gösterdim	-11.1894
yü	-11.1896
▁işle	-11.1897
▁kafamda	-11.1898
▁bölgelerin	-11.19
▁Ra	-11.1901
▁Kura	-11.1902
▁sembolü	-11.1903
we	-11.1904
▁paradigma	-11.1908
▁başlamada	-11.1909
▁kümesi	-11.1909
▁evler	-11.191
▁Arka	-11.1911
▁katıldım	-11.1912
▁tarzda	-11.1912
▁fenomen	-11.1912
▁sahibim	-11.192
▁zehir	-11.1925
▁işlevsel	-11.1928
▁mantığı	-11.1932
ebiliyor	-11.1934
▁hüküm	-11.1938
▁kampanyası	-11.1942
▁başlı	-11.1946
▁öldürüyor	-11.1947
▁düzeyinde	-11.1951
▁çevir	-11.1954
▁proteinler	-11.1955
▁Gel	-11.1956
▁ettiğinde	-11.1961
▁sunum	-11.1962
▁Pat	-11.1964
▁yerleştirmek	-11.1967
▁harcıyor	-11.1967
▁araştırmayı	-11.1969
▁yapacaklarını	-11.197
▁değerinde	-11.1971
▁boy	-11.1975
▁yanım	-11.1975
▁bağlılık	-11.1977
▁tanımlar	-11.1977
▁ikimiz	-11.1978
▁koşullarda	-11.1979
▁unutu	-11.198
▁anlayabilir	-11.1981
▁patates	-11.1983
▁sağdaki	-11.1985
▁kültürler	-11.1986
kı	-11.1986
▁korunma	-11.1987
▁deneyin	-11.1989
▁Eg	-11.1995
▁avantajı	-11.1995
▁kuram	-11.1997
▁Jack	-11.1998
▁değişimler	-11.2009
lanması	-11.2012
ama	-11.2012
▁olsak	-11.2012
▁yaşamlarını	-11.2016
▁çıkart	-11.2017
▁otomobil	-11.2018
▁dilinde	-11.2022
▁çaldı	-11.2026
▁dörtte	-11.2026
▁bağlanmış	-11.2027
▁araştırmaları	-11.2028
▁bireyin	-11.2029
▁odaklanmak	-11.2034
▁yerleşim	-11.2034
▁yönleri	-11.2037
▁koruyor	-11.2037
▁yaşadıkları	-11.2039
ua	-11.204
yl	-11.204
▁gerçekliğin	-11.2042
▁geçmeye	-11.2044
▁Göz	-11.2044
▁parçasıdır	-11.2045
▁sınırlarını	-11.2046
▁payı	-11.2048
▁kavramlar	-11.2048
▁sonlarında	-11.205
▁dinleyici	-11.2051
▁yapmaz	-11.2052
▁kuralların	-11.2054
▁solunum	-11.2054
▁beklemek	-11.2057
▁göründüğünü	-11.2059
▁bulmamız	-11.206
▁istiyorsun	-11.2062
▁edebileceği	-11.2062
▁Vietnam	-11.2063
ima	-11.2064
▁seyler	-11.2066
▁hissettiğim	-11.2067
▁şartları	-11.2067
▁iPod	-11.2067
▁gayri	-11.2068
▁hikâyeler	-11.2068
▁duyulan	-11.2069
▁yönlü	-11.2069
▁Kaide	-11.207
▁Somali	-11.207
▁başlamalıyız	-11.207
▁kurtardı	-11.2073
▁vatandaşlar	-11.2073
amaz	-11.2074
▁çözümün	-11.2075
▁diyebilir	-11.2076
▁Akıllı	-11.2077
▁kadınla	-11.2077
▁çıktılar	-11.2077
▁Petrol	-11.208
▁eşdeğer	-11.208
▁erkekleri	-11.2083
▁kadarı	-11.2084
▁şempanzeler	-11.2084
▁gittiğinizde	-11.2085
▁matematikçi	-11.2086
▁merkezli	-11.2086
abiliyoruz	-11.2086
▁zamanları	-11.2088
▁Nano	-11.2088
▁cevapları	-11.2089
▁ayrıntı	-11.2091
▁diyen	-11.2094
▁amacım	-11.2097
▁öldürme	-11.2105
▁Steven	-11.2105
▁sizce	-11.2107
▁sorusunu	-11.2108
▁doğasını	-11.2109
▁toplar	-11.211
▁cennet	-11.2111
▁öğretme	-11.2112
▁belirlemek	-11.2114
▁oluşturacak	-11.212
▁yaratıcılığı	-11.2121
▁İncil	-11.2121
▁karmaşıklık	-11.2122
▁dinin	-11.2123
ney	-11.2128
▁sağır	-11.2134
▁Cok	-11.2134
▁Nor	-11.2134
by	-11.2135
▁solda	-11.2136
▁ayar	-11.2142
▁karakterler	-11.2142
▁iyilik	-11.2146
▁meraklı	-11.2147
▁ilginçtir	-11.2148
▁uğultu	-11.2148
facık	-11.215
▁paylaşım	-11.2152
▁restoran	-11.2153
▁hatası	-11.2153
▁örgüt	-11.2156
▁başlangıcında	-11.216
▁almaları	-11.216
▁jenerasyon	-11.2161
niversite	-11.2163
▁çıkardığımız	-11.2163
diğinizde	-11.2166
▁bilmediğimiz	-11.2166
▁hasat	-11.217
▁42	-11.2178
▁iskeleti	-11.218
siydi	-11.2182
▁Etiyopya	-11.2184
▁birkaçı	-11.2184
▁çamur	-11.2184
▁oğlunu	-11.2187
▁şanslıydı	-11.2188
▁Adaları	-11.2189
▁teknolojimiz	-11.2191
malı	-11.2193
▁Beynin	-11.2194
▁önyargı	-11.2202
▁dolaşı	-11.2207
▁yerleştir	-11.221
▁objeler	-11.2212
▁keşfed	-11.2214
▁görevli	-11.2215
rak	-11.2217
▁Charl	-11.2219
▁virüsün	-11.2221
▁gerçeğin	-11.2222
ll	-11.2222
▁olduklarından	-11.2224
üstü	-11.2225
▁yerindeki	-11.2225
▁ekleme	-11.2227
▁isimlerini	-11.2229
▁bekledi	-11.223
▁Kolay	-11.2231
▁bayılıyoru	-11.2236
▁başlık	-11.2237
▁ileriy	-11.224
▁doz	-11.2244
▁düş	-11.2245
▁kullanı	-11.2245
if	-11.2248
▁çağda	-11.225
▁hat	-11.2252
▁sözcük	-11.2253
▁mesajlar	-11.2255
▁yılan	-11.2257
laştırıyor	-11.2259
▁kayıtları	-11.2265
▁kapak	-11.2269
▁çektik	-11.2275
▁nu	-11.228
▁hissetti	-11.228
▁bulunduğunu	-11.2285
▁koyuldu	-11.2286
▁aya	-11.2286
▁Kulağa	-11.229
▁Sıfır	-11.229
▁ürkütücü	-11.229
▁Türkiye	-11.229
▁fevkalade	-11.229
▁Leonardo	-11.229
▁olmamış	-11.2291
▁48	-11.2291
▁nerdeyse	-11.2291
▁sayılmaz	-11.2291
▁okuyan	-11.2293
elanda	-11.2294
▁olanağı	-11.2294
▁akımı	-11.2296
▁kısmın	-11.2298
ander	-11.2298
▁bilirsin	-11.2298
▁yaradığını	-11.2298
▁gram	-11.2298
▁kısmının	-11.2303
▁2002	-11.2303
▁denklem	-11.2304
▁görüyorlar	-11.2305
M	-11.231
▁işinde	-11.231
▁arabaların	-11.231
▁kullanacağım	-11.2313
▁ayakları	-11.2318
▁Sonsuz	-11.2318
▁yeteneklerini	-11.232
▁Dev	-11.2321
▁alabiliriz	-11.2322
▁verilmiş	-11.2326
▁Şirketler	-11.2327
▁söylemiş	-11.2328
▁Brad	-11.2328
süz	-11.2331
▁Proje	-11.2333
▁odak	-11.2333
▁soldaki	-11.2333
▁w	-11.2338
▁seçiyor	-11.2339
▁ebeveynler	-11.2342
▁rolünü	-11.2349
▁çevresindeki	-11.2349
yacağız	-11.235
▁çocuğum	-11.2356
▁muz	-11.2358
▁çaresiz	-11.2361
▁giderler	-11.2371
▁Ortak	-11.2373
▁yıldızları	-11.2376
▁kurallarını	-11.2377
▁edilmişti	-11.2381
▁resimlerini	-11.2382
▁Hu	-11.2383
▁Fo	-11.2386
▁gelişimin	-11.2386
▁döndüğüm	-11.2388
▁kütüphane	-11.2389
▁Kendimiz	-11.2393
▁yolculuğun	-11.2395
▁AB	-11.2398
▁petrolün	-11.2399
▁temizlik	-11.24
ero	-11.2401
▁frekans	-11.2402
▁görünebilir	-11.2403
▁davranıyor	-11.2405
▁kaos	-11.2406
▁organlar	-11.241
sinizdir	-11.2414
mizle	-11.2414
▁böceği	-11.2416
▁katil	-11.2417
▁şeyde	-11.2418
▁yaşayabilir	-11.242
▁indir	-11.2423
▁Şurada	-11.2423
▁EM	-11.2427
▁satır	-11.2428
ic	-11.2431
▁Green	-11.2431
▁Nik	-11.2432
▁sorununu	-11.2434
▁detayları	-11.2437
▁üstündeki	-11.244
▁teker	-11.244
▁okudu	-11.2441
▁Detroit	-11.2443
▁bulmaca	-11.2444
▁Wi	-11.2459
▁performansı	-11.246
▁üretti	-11.246
▁Kar	-11.2465
▁eleştiri	-11.2469
▁öğretiyor	-11.247
mazsınız	-11.2471
▁soy	-11.2472
▁istersen	-11.2475
▁damar	-11.2475
▁olaya	-11.2476
▁etiket	-11.2477
▁yönünü	-11.2478
▁Lu	-11.2481
ven	-11.2483
meyeceğim	-11.2484
▁köpekler	-11.2487
▁ağırlık	-11.2489
▁zorlukları	-11.2492
▁yayınlandı	-11.2492
▁Halk	-11.2492
▁seçilmiş	-11.2494
▁olayda	-11.2495
▁Çinli	-11.2498
▁hevesli	-11.2499
ılıyor	-11.2502
▁başlaması	-11.2504
▁sevgili	-11.2505
▁350	-11.2506
▁kızgın	-11.2507
▁görmüştü	-11.2508
▁yöneticisi	-11.2514
▁anlayan	-11.2515
çüncüsü	-11.2516
▁kraliçe	-11.2517
▁Kızıl	-11.2517
▁entropi	-11.2518
▁kuruldu	-11.2519
▁sahi	-11.252
▁Hawaii	-11.2521
▁gördüğünüzde	-11.2522
▁sembol	-11.2522
▁öldürdü	-11.2523
ry	-11.2524
▁rota	-11.2526
▁şapka	-11.2528
müş	-11.2532
▁etrafımızdaki	-11.2532
▁tuz	-11.2533
▁Patlama	-11.2533
▁şekl	-11.2534
▁başımıza	-11.2537
▁kanıtlar	-11.2537
▁oluşu	-11.2544
▁yapabileceğim	-11.2546
▁Öğrenciler	-11.2548
▁Sal	-11.2549
ebileceğimizi	-11.2549
▁Profesör	-11.255
▁belirleye	-11.255
▁bitiyor	-11.2551
▁çözümleri	-11.2551
▁gitmedi	-11.2552
▁çıkarmaya	-11.2554
▁Başta	-11.2557
▁ettirmek	-11.2558
▁akış	-11.256
▁temsili	-11.256
000	-11.2561
▁dönecek	-11.2562
▁kapitalizm	-11.2562
kları	-11.2562
▁dirençli	-11.2567
▁cerrah	-11.2567
old	-11.2568
▁görünüş	-11.2569
▁yöntemle	-11.2569
▁Aşk	-11.2569
▁İnsanlık	-11.257
▁yapmazsa	-11.2571
▁heyecanlıyı	-11.2571
▁Kapı	-11.2572
▁izler	-11.2575
▁kastediyoru	-11.2577
▁Whit	-11.2578
▁büyülü	-11.2578
ğe	-11.2579
▁becerileri	-11.2579
▁başlama	-11.2583
▁kayak	-11.2583
▁hakkını	-11.2586
iyordum	-11.2588
▁Kendinizi	-11.2591
▁mahallede	-11.2593
▁çay	-11.2598
▁Şehirler	-11.26
▁kanı	-11.2601
▁sunduğu	-11.2604
▁War	-11.2604
▁ka	-11.2605
▁konuşmada	-11.2606
▁yazısı	-11.2608
▁asal	-11.2615
▁yazmıştı	-11.2616
▁kitapta	-11.2619
▁Pa	-11.2621
▁Eşim	-11.2623
▁televizyonda	-11.2624
▁Günde	-11.2627
▁girmeye	-11.2628
▁Sabah	-11.2629
▁yüzeyini	-11.2629
landı	-11.263
▁büyükanne	-11.263
▁William	-11.2632
laşmış	-11.2635
▁kral	-11.2637
▁değiştirmemiz	-11.2642
▁olmadığımız	-11.2643
▁benzetme	-11.2644
▁duvarlar	-11.2645
▁ları	-11.2645
▁şair	-11.2646
▁tercüme	-11.2648
▁belirleme	-11.2652
▁kitabında	-11.2653
▁verilerini	-11.2662
▁kurbağa	-11.2665
▁lüks	-11.2666
▁denetim	-11.2667
▁seviyesin	-11.2667
▁zamanını	-11.2668
▁istatistikler	-11.2672
▁Dur	-11.2674
▁Aristo	-11.2679
▁teorik	-11.268
▁bebeği	-11.2681
▁II	-11.2683
▁uçakta	-11.2684
▁filmleri	-11.2685
▁dibinde	-11.2685
▁Hans	-11.2688
▁delikler	-11.2689
▁gözünde	-11.2689
▁kurumları	-11.269
▁kamyon	-11.2692
▁ihtiyaçlarını	-11.2693
▁Sekiz	-11.2695
▁oynay	-11.2696
▁yağı	-11.2697
▁Cit	-11.2699
▁dindar	-11.27
▁politikası	-11.27
▁robotu	-11.2709
▁meslektaşlarım	-11.2711
▁aracını	-11.2713
▁gezegenimizi	-11.2715
▁şanslıyı	-11.2716
▁düşünceleri	-11.2718
▁çekmeye	-11.2719
▁hemfikir	-11.2719
▁gelenek	-11.2721
▁enstrüman	-11.2721
lanır	-11.2724
▁savunmasız	-11.2725
▁Am	-11.2729
▁tutmaya	-11.2733
▁SS	-11.2735
▁güvercin	-11.2739
▁yaramıyor	-11.2739
▁bulgu	-11.2739
▁55	-11.2739
▁Car	-11.274
▁değişikliğini	-11.2745
▁inandı	-11.2747
▁diger	-11.2749
▁feet	-11.2749
▁Yüzlerce	-11.2749
▁Teksas	-11.275
▁kucuk	-11.275
▁bizzat	-11.275
▁iğrenç	-11.275
▁Diyelim	-11.275
▁simdi	-11.275
▁1930	-11.2751
▁turuncu	-11.2751
▁Tanzanya	-11.2751
▁Ara	-11.2751
▁işlemci	-11.2751
▁konuşalım	-11.2753
▁sürer	-11.2753
mişlerdi	-11.2754
▁dönersek	-11.2755
▁adlandırdığımız	-11.2755
▁dağlar	-11.2755
▁ipucu	-11.2756
▁hissediyorsunuz	-11.2757
▁tarafinda	-11.2758
▁bazlı	-11.276
▁anlaşılır	-11.276
▁hayalini	-11.2761
▁etken	-11.2765
iliyor	-11.2766
▁sözünü	-11.2766
▁eşittir	-11.2767
▁başlarsınız	-11.2767
▁kullandığım	-11.277
abileceğiniz	-11.277
▁otuz	-11.277
▁lif	-11.2773
▁deneyimleri	-11.2774
▁Bugünkü	-11.2774
▁müdür	-11.278
▁ekledik	-11.2781
▁kızları	-11.2784
sunu	-11.2785
▁bırakan	-11.2786
▁dalgalar	-11.2787
▁anlattığım	-11.2788
▁tanımlıyor	-11.279
▁şeylerde	-11.2791
▁içindeydi	-11.2792
▁güne	-11.2792
▁dinler	-11.2792
▁taraftaki	-11.2794
▁türlerini	-11.2795
▁So	-11.2796
▁alacağım	-11.2796
▁çalışmış	-11.2805
▁Jo	-11.2806
▁öneri	-11.2807
▁derse	-11.2807
▁Coc	-11.2813
ebileceğiniz	-11.2813
▁şansınız	-11.2815
▁söyledik	-11.2815
▁ulaşması	-11.2815
▁lanet	-11.2817
▁koyan	-11.2818
▁dilde	-11.2819
▁ilerler	-11.2823
▁güçler	-11.2827
▁kullanıldığını	-11.283
▁dalgaları	-11.2831
▁anlaşıl	-11.2834
▁neresi	-11.2836
▁bahsediyoru	-11.2837
▁edinme	-11.285
▁karşılaşma	-11.2852
▁harcay	-11.2854
▁Linu	-11.2856
▁çalmak	-11.2857
acaksınız	-11.2859
▁sığ	-11.286
▁Yapmak	-11.286
▁yörünge	-11.2863
▁Sayı	-11.2864
▁pompa	-11.2867
ebilirim	-11.2868
lük	-11.2876
▁Hristiyan	-11.2878
▁Yapa	-11.2882
▁sağlay	-11.2885
▁İkisi	-11.2892
▁canlandırma	-11.2894
▁üstte	-11.2895
▁burun	-11.2895
▁istemişti	-11.2899
▁penguen	-11.29
▁kolunu	-11.2902
▁Güç	-11.2903
▁dünyamız	-11.2903
▁Bo	-11.2906
▁tersini	-11.2907
▁boyunda	-11.2908
▁hissettiğiniz	-11.291
▁calisma	-11.291
▁denizde	-11.2912
▁üçgen	-11.2913
▁kaldırmak	-11.2913
▁kapatmak	-11.2914
▁kimler	-11.2915
lerimizde	-11.2922
▁robotların	-11.2922
▁yapabileceğini	-11.2924
▁çektiği	-11.2926
▁Ortada	-11.2926
▁baya	-11.2927
▁poster	-11.2927
▁taraflı	-11.2929
▁ekonomisini	-11.2932
▁birincisi	-11.2934
▁kahkaha	-11.2935
ren	-11.2936
▁emeklilik	-11.2938
▁bölümleri	-11.2942
▁astronomi	-11.2942
▁organları	-11.2943
▁Anti	-11.2943
▁bilmem	-11.2945
▁görebiliri	-11.2947
▁Derin	-11.2947
▁görüşlü	-11.2948
▁gelmede	-11.2951
▁perde	-11.2951
▁almadı	-11.2951
▁gezegenimiz	-11.2955
▁sağlıyorlar	-11.2955
▁opera	-11.2958
▁gündem	-11.2958
▁eklemek	-11.2959
▁sunu	-11.2959
▁yapabilirdi	-11.2959
▁vermez	-11.2967
ydık	-11.2969
▁veriyordu	-11.2973
▁jeo	-11.2974
layabiliriz	-11.2974
▁çeviriyor	-11.2975
lamaz	-11.2976
▁yarasa	-11.298
▁Batılı	-11.298
▁boşa	-11.298
rsanız	-11.298
▁çöküş	-11.2981
▁makinalar	-11.2982
▁bulunması	-11.2983
▁duymaya	-11.2983
▁sektörü	-11.2984
▁kelimelerin	-11.2985
▁World	-11.2987
▁zorundalar	-11.2987
▁Apollo	-11.2987
▁Danimarka	-11.2987
▁Nehri	-11.2988
▁trajik	-11.2988
▁Aşama	-11.2988
▁Görünen	-11.2988
▁mühim	-11.2988
▁LG	-11.2989
▁yapılabilecek	-11.299
▁söylemiyorum	-11.2991
▁Dunya	-11.2991
▁irade	-11.2992
▁problemini	-11.2992
▁kaldığını	-11.2993
▁Mc	-11.2994
▁yıla	-11.2995
▁Neler	-11.2996
▁Mike	-11.2998
▁şempanze	-11.2999
▁dayanır	-11.2999
▁olmamı	-11.3
▁geldiğimizde	-11.3002
▁edebilme	-11.3002
▁izlemeye	-11.3004
▁neresinde	-11.3005
▁doluydu	-11.3006
▁dönüşü	-11.3006
▁arıyoruz	-11.3008
▁beceriler	-11.3009
▁bıraktığı	-11.3009
receğiz	-11.3015
▁romantik	-11.3018
▁genişleme	-11.3018
▁adamdı	-11.3019
▁yeraltı	-11.302
▁düzeltme	-11.3022
▁ölç	-11.3027
▁Çoğunlukla	-11.3036
▁dostu	-11.3038
▁ediyorlardı	-11.3038
▁karın	-11.3038
▁kaygı	-11.3038
▁ayrıldı	-11.3039
▁yaşlandık	-11.304
▁düşünürü	-11.3041
▁götürür	-11.3043
▁bekle	-11.3053
▁Dışarıda	-11.3053
▁eşitliği	-11.3054
▁duvarın	-11.3054
▁sonunu	-11.3055
▁ını	-11.3055
▁arayan	-11.3056
▁Asli	-11.3056
▁Dördüncü	-11.3058
▁vücudunuz	-11.3058
▁seçtik	-11.3061
▁çalışmada	-11.3064
▁kuramı	-11.3065
▁alabiliyor	-11.3066
▁Yemen	-11.307
larımızla	-11.3073
yorlar	-11.3075
▁bahsettim	-11.3078
▁başlayacağım	-11.308
▁saatli	-11.308
▁sınırların	-11.3081
▁yakıtlar	-11.3081
▁toplulukta	-11.3082
▁zekâ	-11.3084
▁karşılaştığım	-11.3086
▁grupların	-11.3088
▁korkuyor	-11.309
▁Avrupalı	-11.3091
▁binaları	-11.3092
▁bileşen	-11.3093
▁merdiven	-11.3099
▁aktivist	-11.31
▁gerekmez	-11.3102
▁farkli	-11.3103
▁transfer	-11.3104
▁üstel	-11.3104
▁ulaşacak	-11.3105
▁öğretmenin	-11.3105
▁ağa	-11.3109
▁istihbarat	-11.3116
▁dördü	-11.3121
▁isimleri	-11.3124
▁geleceğimiz	-11.3124
BM	-11.3125
▁belirler	-11.3132
▁parçacık	-11.3133
▁Git	-11.3135
▁Norveç	-11.3136
▁toplulukları	-11.3137
▁ömür	-11.3137
▁formül	-11.3138
▁olduklarında	-11.3138
▁toprağ	-11.3139
▁düzeltmek	-11.3141
▁kazı	-11.3147
sinler	-11.315
▁sonuçların	-11.3151
▁çapl	-11.3151
▁zıt	-11.3151
eographic	-11.3151
▁elli	-11.3153
▁genetiği	-11.3154
▁mizah	-11.3155
▁beyefendi	-11.3155
▁bacakları	-11.3159
▁tümünü	-11.316
▁edebilirdi	-11.316
▁Yeteri	-11.3165
▁Nefes	-11.3168
▁Okulda	-11.3168
▁güçlerini	-11.3168
▁çarpı	-11.3172
▁şehirdeki	-11.3172
▁beynimizi	-11.3177
▁Karanlık	-11.3178
ira	-11.318
▁geçebilir	-11.3181
▁olanın	-11.3182
▁İtalyan	-11.3183
abileceği	-11.3185
▁beslemek	-11.3189
▁bakımı	-11.319
▁mutfak	-11.3191
▁deneyde	-11.3192
▁evlat	-11.3192
▁edeceğiniz	-11.3193
▁yaprak	-11.3193
lıyor	-11.3195
▁bedeli	-11.3196
▁gülümseme	-11.3199
▁topluyor	-11.3201
▁kodlama	-11.3201
▁Homo	-11.3203
▁sebepler	-11.3203
▁midir	-11.3204
▁aldatma	-11.3205
▁par	-11.3207
▁iyileştirme	-11.3208
▁Der	-11.321
eceğim	-11.3211
▁Mesele	-11.3214
▁72	-11.3215
▁Ken	-11.3215
▁hayalim	-11.3216
▁No	-11.3219
▁fotoğrafçı	-11.3222
▁ihlal	-11.3223
▁ölmek	-11.3224
▁çevreleye	-11.3226
▁tweet	-11.3228
▁teşkil	-11.3228
▁dönük	-11.3229
▁santimetre	-11.3231
▁pizza	-11.3231
▁Disney	-11.3231
▁nispet	-11.3231
▁nazar	-11.3231
▁yatırımlar	-11.3231
▁gümüş	-11.3231
▁kozm	-11.3232
▁olağandışı	-11.3233
▁Long	-11.3233
▁buğday	-11.3233
▁aksiyon	-11.3233
▁1900	-11.3233
▁yapılmıştı	-11.3233
▁açılan	-11.3234
▁bilimciler	-11.3234
▁görevler	-11.3235
▁çekilen	-11.3235
▁Bildiğimiz	-11.3236
▁fiil	-11.3237
▁diğerinin	-11.3238
▁kelimesinin	-11.3238
▁Clint	-11.3239
▁dönüştürme	-11.324
▁sorarsanız	-11.3241
▁varolan	-11.3241
▁deneyelim	-11.3242
▁mor	-11.3243
▁topladık	-11.3245
▁ortama	-11.3246
▁elit	-11.325
▁Afrikalılar	-11.3252
▁dönüştürebilir	-11.3252
▁Carolin	-11.3252
▁uygulay	-11.3256
ince	-11.3257
▁ayırma	-11.3257
iş	-11.3258
▁yapacağınız	-11.3258
▁Rob	-11.3258
▁kabiliyeti	-11.326
▁Düşü	-11.3261
▁geçirme	-11.3264
▁kirliliği	-11.3265
▁keşfetmeye	-11.3271
▁do	-11.328
ebilecekleri	-11.3282
▁mutasyon	-11.3282
▁yakınında	-11.3283
▁duygusunu	-11.3286
lamazsınız	-11.3286
▁olduğuyla	-11.3288
▁gelecektir	-11.3289
▁hatalı	-11.3292
▁oluşturduğumuz	-11.3295
▁bilge	-11.3295
▁ruhunu	-11.3296
▁Tor	-11.3297
▁yapmanızı	-11.3299
▁diğerlerinde	-11.33
▁Ö	-11.3303
▁ağların	-11.3304
▁yaşım	-11.3311
▁görünüşü	-11.3312
▁makinası	-11.3313
▁kıyısında	-11.3317
▁beklentisi	-11.332
▁koymaya	-11.332
▁bulamadı	-11.332
▁amaçları	-11.3322
▁getirdiler	-11.3322
▁Saray	-11.3324
▁söylediğini	-11.3324
▁RNA	-11.3325
▁duydukları	-11.3328
▁olabilirim	-11.3329
▁konuştuğu	-11.333
▁seven	-11.3332
▁görmemişti	-11.3335
▁becerisi	-11.3336
arth	-11.3337
▁haklar	-11.3339
▁pekço	-11.334
▁zamanım	-11.334
klarında	-11.3341
▁kilolu	-11.3342
▁kutunu	-11.3342
▁biriyim	-11.3345
▁yaptığınızı	-11.3345
ooh	-11.3346
▁bahçesinde	-11.3346
▁Sudan	-11.3353
▁yakınlarında	-11.3353
▁nü	-11.3354
▁zorundayı	-11.3355
▁deyin	-11.3356
▁okyanusu	-11.3356
▁ekranın	-11.3357
▁kimseyi	-11.3359
▁fırsatları	-11.3364
▁bulundukları	-11.3365
▁oğlumu	-11.3373
▁inancı	-11.3374
▁üretici	-11.3374
▁kemiği	-11.3375
▁bağlamak	-11.3375
landığını	-11.3376
▁titreşim	-11.3377
▁bakmanız	-11.3378
▁Ro	-11.3378
▁Bölge	-11.3379
▁yapabilirse	-11.3379
▁kavramını	-11.338
▁almanız	-11.3382
▁Tesl	-11.3385
▁olduğunuzda	-11.3385
▁sebebini	-11.3388
▁istediğinizi	-11.3389
▁Bey	-11.3392
▁korteks	-11.3392
▁eserleri	-11.3392
▁üretebilir	-11.3395
▁yiyor	-11.3399
v	-11.3401
▁çocuklardan	-11.3403
kar	-11.3407
▁birilerini	-11.3409
▁değişmesi	-11.3411
▁olmadıkları	-11.3416
▁programını	-11.3418
ıydı	-11.3419
▁gelirli	-11.342
▁amacımız	-11.3424
▁çalışırlar	-11.3427
▁Başlangıçta	-11.3432
ram	-11.3433
▁tesadüf	-11.3434
▁hiyerarşi	-11.3434
nmeyen	-11.3435
▁cezası	-11.3436
▁taşları	-11.3436
▁doktorların	-11.344
▁belirsizlik	-11.3443
▁Milyonlar	-11.3443
▁açabilir	-11.3443
lardaki	-11.3448
▁Life	-11.3449
▁farketti	-11.345
saydı	-11.3453
▁Star	-11.3454
▁katılıyor	-11.3455
▁Ted	-11.3455
▁origami	-11.3457
▁yatakta	-11.3458
▁Matt	-11.3464
▁oranlarını	-11.3468
▁arz	-11.3468
▁köyün	-11.3468
▁Cuma	-11.3469
▁söylediğimde	-11.347
▁çiftleşme	-11.3471
▁tüp	-11.3472
▁harfi	-11.3473
▁ötede	-11.3474
▁çözebilir	-11.3474
layayım	-11.3474
▁Polis	-11.3475
▁bitkileri	-11.3475
▁aktiv	-11.3476
mayız	-11.3476
gün	-11.3477
▁öğrenmiş	-11.3477
▁kuruluşlar	-11.348
▁deneyleri	-11.348
▁soruların	-11.3481
▁Şaşırtıcı	-11.3481
▁yorucu	-11.3481
▁Brooklyn	-11.3481
▁eylemi	-11.3481
▁imha	-11.3481
▁Elimizde	-11.3482
▁Şimdilerde	-11.3484
▁dolaşan	-11.3484
▁Görsel	-11.3485
▁potansiyelini	-11.3486
▁Çalışma	-11.3487
▁demografik	-11.3487
▁Johnson	-11.3487
▁ivme	-11.3488
▁psiko	-11.3488
▁tabanlı	-11.3488
▁yazdığım	-11.3494
▁kola	-11.3494
▁pil	-11.3495
▁alarm	-11.3497
▁engelleye	-11.3498
rest	-11.3498
▁Bakanı	-11.3499
▁çıkarabilir	-11.3501
▁yemeğ	-11.3504
▁filan	-11.3504
▁prensibi	-11.3505
▁şunlar	-11.3507
▁zamanımızı	-11.3507
▁uçuyor	-11.3507
▁testler	-11.3508
▁uzmanlık	-11.3508
▁gösterdik	-11.351
▁kıyafet	-11.351
indeki	-11.3514
▁mülteciler	-11.3514
▁başlıyorum	-11.3515
▁şuradaki	-11.3518
▁antibiyotik	-11.3519
▁halı	-11.3524
▁diken	-11.3524
▁videosu	-11.3526
▁uğraşmak	-11.3527
▁metro	-11.3533
▁yapacağımızı	-11.3535
▁yapacağımı	-11.3538
ste	-11.3538
▁tsunami	-11.3539
▁yapıda	-11.3539
▁öteki	-11.3541
▁babalar	-11.3542
▁ettiğimizde	-11.3545
▁matematiğin	-11.3547
▁çip	-11.3548
▁atıp	-11.3552
▁IM	-11.3552
▁Telefon	-11.3553
lenir	-11.3553
▁parçacıkları	-11.3559
▁ışıklar	-11.3561
▁kalmaz	-11.3564
▁salonda	-11.3564
▁sorabilir	-11.3565
▁inceler	-11.3566
▁asit	-11.357
asyon	-11.3571
▁öğreniyorlar	-11.3572
▁uçağ	-11.3573
▁aktarma	-11.3575
▁tahıl	-11.3579
▁dünyamızda	-11.3581
▁Evde	-11.3584
▁bilme	-11.3585
▁temelini	-11.3587
▁kazanır	-11.3587
▁kanunları	-11.359
▁direnci	-11.359
▁tel	-11.3595
▁çekirdek	-11.3596
▁numune	-11.3598
mizden	-11.3598
▁değiştirebil	-11.3601
▁nakli	-11.3601
▁yaşını	-11.3603
▁kütlesi	-11.3606
▁salgının	-11.3606
▁adımlar	-11.3607
▁kaybeder	-11.3608
▁etkilendi	-11.361
▁yazıyordu	-11.361
▁Ani	-11.3615
▁44	-11.3615
▁çalıştığınız	-11.3616
▁heyecanlıydı	-11.3616
▁zorlama	-11.3617
▁bağlama	-11.3619
▁gerçekleşmesi	-11.3619
cilik	-11.3627
▁girdiğim	-11.3628
▁yapılacağın	-11.3633
▁bilgisini	-11.3634
▁umuyoru	-11.3635
▁bağlıyor	-11.3635
▁inanmayı	-11.3638
▁izini	-11.3639
▁dergisinde	-11.364
▁Suud	-11.3641
▁Yarın	-11.3645
lursunuz	-11.3645
▁yayınlana	-11.3646
▁yapanlar	-11.3646
▁hey	-11.3648
landırıyor	-11.3651
▁dönemin	-11.3652
▁tahmini	-11.3652
▁oksitosin	-11.3652
▁sıçrama	-11.3652
▁perspektif	-11.3652
▁kaçma	-11.3654
lanmıştı	-11.3655
▁Gidi	-11.3656
unun	-11.3657
▁Şüphe	-11.3658
▁gözlerinizi	-11.3658
▁açım	-11.3661
▁taşıyıcı	-11.3661
▁masrafları	-11.3662
▁problemlerin	-11.3664
isinin	-11.3665
arası	-11.3665
▁hesabı	-11.3665
▁balonu	-11.3666
▁Merkez	-11.3666
anlayabilirsiniz	-11.3668
▁İlaç	-11.3671
▁gerçekleştirdi	-11.3673
▁Fazla	-11.3673
▁yürümek	-11.3679
▁düşü	-11.3681
▁tasarlama	-11.3685
▁kararları	-11.3687
▁virüsler	-11.3689
▁dışkı	-11.369
▁görevlisi	-11.3691
▁merkezleri	-11.3691
▁bela	-11.3693
▁ayırıyor	-11.3696
▁üretimin	-11.3698
▁kuvveti	-11.3698
▁oturuyordu	-11.37
▁parasını	-11.37
▁istemiyordu	-11.3702
▁talebi	-11.3702
riye	-11.3704
▁ekonomide	-11.3706
▁fazladır	-11.3707
▁saniyeli	-11.3709
liler	-11.3709
▁kutlama	-11.3716
▁yerle	-11.3716
▁mobilya	-11.3716
▁oluşturuyorlar	-11.3716
mıyorum	-11.3722
▁riskini	-11.3723
▁unsur	-11.3724
▁tartışmalı	-11.3725
▁lezzet	-11.3725
▁çizdi	-11.3725
▁Michel	-11.3728
▁West	-11.3731
▁yaptın	-11.3735
ster	-11.3735
▁ağını	-11.3736
▁Gri	-11.3736
▁davranışını	-11.3737
▁ihmal	-11.3738
▁Ciddi	-11.3738
▁dolaylı	-11.3738
▁Atlanta	-11.3738
▁Yağmur	-11.3738
▁yapışkan	-11.3738
▁Kong	-11.3738
▁inandığım	-11.3739
arry	-11.3739
klerini	-11.3739
▁gürültülü	-11.374
▁açacak	-11.3741
▁fo	-11.3741
▁Lego	-11.3741
▁oyna	-11.3741
▁bilime	-11.3742
▁söylenir	-11.3742
▁öldüren	-11.3743
▁yapamazsınız	-11.3743
▁dönüştür	-11.3744
▁ortalıkta	-11.3744
▁açıklayacağım	-11.3745
▁alışık	-11.3745
▁belgesel	-11.3746
▁koruyan	-11.3747
▁açıklık	-11.3748
▁bulunmuyor	-11.3749
▁oluşturabiliriz	-11.3752
▁aydınlanma	-11.3758
▁gücümüzü	-11.3758
▁Soldaki	-11.3758
▁başlıyorsunuz	-11.376
▁bağı	-11.3762
▁demeye	-11.3765
▁hataları	-11.3769
▁şirkette	-11.377
▁alttaki	-11.3774
w	-11.3776
▁ağzı	-11.3778
▁büyümesini	-11.378
▁çoğumuzun	-11.3785
▁değiştirilmiş	-11.3785
▁çıkarsa	-11.3793
▁retina	-11.3794
▁çanta	-11.3795
▁hissettiriyor	-11.3796
▁kitapların	-11.3798
▁edecekler	-11.3798
▁işaretleri	-11.3799
▁Sistemi	-11.3799
▁yılların	-11.3799
▁hissed	-11.3802
▁çalışanı	-11.3804
▁açıklar	-11.3805
▁hazırlamak	-11.3811
▁düzeni	-11.3812
▁sesimi	-11.3821
▁şansını	-11.3823
▁verirken	-11.3823
▁ulaştım	-11.3824
▁hizmetler	-11.3824
▁girdik	-11.3825
▁kaynaklana	-11.3825
▁Mu	-11.3826
▁ileti	-11.3827
▁geliştirir	-11.3827
cılar	-11.3828
▁görünüyorlar	-11.383
▁dokusunu	-11.3831
▁paylaştı	-11.3832
iyordu	-11.3836
▁Gitti	-11.3843
▁balinalar	-11.3845
▁sattı	-11.3849
▁öğretmenlerin	-11.3851
▁sihir	-11.3855
▁ayakkabılar	-11.3857
▁depolama	-11.3858
▁oranına	-11.3858
▁düşündüğünü	-11.3858
▁Demokrat	-11.386
▁etkiye	-11.3861
▁olmamıştı	-11.3866
▁Diğerleri	-11.3869
▁Ge	-11.3869
▁okumayı	-11.3875
▁tema	-11.3876
▁farklıydı	-11.3886
yo	-11.3886
▁varoluş	-11.3887
▁endüstrisini	-11.3888
▁işlevi	-11.3888
▁yeteneğin	-11.3888
▁ameliyatı	-11.3891
larımıza	-11.3893
▁kurşun	-11.3896
▁arttırıyor	-11.3897
▁içinizde	-11.39
▁Dış	-11.3903
▁havalandırma	-11.3903
eceksiniz	-11.3904
▁duvarları	-11.3905
▁deliğin	-11.3905
▁kaybeden	-11.3906
▁organizmaların	-11.3908
▁katılımcı	-11.3908
▁tutacak	-11.3913
▁İsmi	-11.3913
olly	-11.3915
▁düşündükleri	-11.3917
▁paylaşmaya	-11.3917
▁ipek	-11.3919
▁şef	-11.3921
▁evleri	-11.3921
▁çeyrek	-11.3923
▁gayret	-11.3924
▁balıkların	-11.3924
▁çağın	-11.3924
▁kırıklığı	-11.3925
▁bugünlerde	-11.3926
▁Medi	-11.3928
▁kullanıyordu	-11.3931
▁figür	-11.3932
▁gitmiyor	-11.3933
▁riskler	-11.3936
▁hoşun	-11.3936
▁hapis	-11.3942
neyse	-11.3944
▁olabileceğin	-11.3944
▁ölçer	-11.3947
▁sınıfın	-11.3947
▁verebilecek	-11.3952
▁koltuk	-11.3952
▁dinle	-11.3952
▁klip	-11.3953
▁ge	-11.3954
▁esasın	-11.3957
▁Selam	-11.3958
▁uydular	-11.3962
▁Oda	-11.3965
▁derdim	-11.3965
▁üzeri	-11.3968
▁lamba	-11.397
▁fonksiyon	-11.3971
▁bebeklerin	-11.3972
leşme	-11.3973
▁robotları	-11.3975
▁Gar	-11.3978
▁hiper	-11.3981
▁orjinal	-11.3981
▁Olan	-11.3982
▁dönmeye	-11.3983
▁Bali	-11.3987
▁eğilimli	-11.399
▁fırın	-11.3992
▁dinley	-11.3994
▁sahipliği	-11.3995
▁900	-11.3996
▁geçtiğini	-11.3997
▁Tunus	-11.3998
▁yedek	-11.3999
▁Stephen	-11.4001
▁Temmuz	-11.4001
▁Snow	-11.4001
▁Endonezya	-11.4001
▁zavallı	-11.4001
▁monte	-11.4001
▁ilgilendiren	-11.4002
▁paylaşan	-11.4003
▁yaşımdayken	-11.4003
▁Adem	-11.4003
ırım	-11.4004
▁1999	-11.4004
▁ruhsal	-11.4004
▁kaçak	-11.4007
▁zararsız	-11.4008
▁kuran	-11.4008
▁ödemek	-11.4009
▁bağlamında	-11.4011
▁görüntüsünü	-11.4011
▁yükseliyor	-11.4011
▁muydu	-11.4012
▁canına	-11.4013
▁taşınabilir	-11.4015
▁sözde	-11.4016
▁avlanma	-11.4017
▁aracılığı	-11.4018
▁kayboluyor	-11.4019
▁tuna	-11.4019
▁engelleri	-11.4019
▁gökyüzü	-11.402
▁benzemiyor	-11.402
▁olabilmek	-11.4021
▁olmadığınız	-11.4022
▁Öğrenme	-11.4025
▁yazarken	-11.4027
▁şefkatli	-11.4029
▁Hous	-11.4029
mekte	-11.403
▁mutluluğun	-11.4031
dıkları	-11.4033
▁Fransızca	-11.4033
▁es	-11.4037
▁dileğim	-11.4037
▁tasarlandı	-11.4041
▁gökyüzünü	-11.4042
▁almıyor	-11.4042
abilirim	-11.4043
▁tanıdığım	-11.4043
▁planda	-11.4043
▁düşündüklerini	-11.4043
▁benziyordu	-11.4043
▁grubunu	-11.4044
▁boyutları	-11.4045
atif	-11.4045
▁inşaa	-11.4045
car	-11.4047
▁gözlerim	-11.405
▁soluk	-11.405
▁96	-11.405
▁Çoğunuz	-11.4051
▁sorulan	-11.4051
▁Hükümet	-11.4052
▁babasını	-11.4053
▁götürecek	-11.4057
unuzu	-11.4059
▁dinleyiciler	-11.406
▁Sekoya	-11.4061
▁başını	-11.4062
▁ormanların	-11.4063
▁kartları	-11.4064
▁yapabildiğimiz	-11.4064
▁birsey	-11.4065
▁paralarını	-11.4066
▁satan	-11.4069
▁yönet	-11.4069
▁etmektedir	-11.4072
▁vücud	-11.4074
▁hikayemi	-11.4077
▁Acı	-11.4077
▁faktörler	-11.4078
▁kisi	-11.4078
▁usta	-11.4086
▁gördükleriniz	-11.4087
▁fakirlik	-11.4088
▁dünyasın	-11.4088
▁çevrili	-11.4089
▁servisi	-11.409
▁ressam	-11.409
▁anlatacak	-11.4091
▁yorumlar	-11.4093
▁aşağıdaki	-11.4094
▁dansı	-11.4094
▁idam	-11.4094
▁banyo	-11.4101
▁Ni	-11.4101
litik	-11.4101
▁olmayanlar	-11.4103
▁An	-11.4103
▁Yaptığı	-11.4106
▁esneklik	-11.4106
▁konuşuyorlar	-11.4108
▁formda	-11.4109
▁incelemeye	-11.411
j	-11.4113
▁istemek	-11.4114
▁hepsinden	-11.4115
▁grafiği	-11.4117
▁yerleştirilmiş	-11.4117
▁geldiğin	-11.4118
▁keşfettiğimiz	-11.4118
▁sahil	-11.4123
▁Lo	-11.4126
▁kalanlar	-11.4129
▁getirmiş	-11.4134
▁kardeş	-11.4134
▁alay	-11.4134
mla	-11.4135
▁dilim	-11.4137
▁öğretmenleri	-11.4138
▁bencil	-11.4143
▁gun	-11.4143
▁gezegenimizde	-11.4144
▁evsiz	-11.4144
▁CR	-11.4145
▁projeleri	-11.4148
▁tuğla	-11.415
▁paylaştığımız	-11.4152
▁yazmış	-11.4153
▁bıraktık	-11.4155
ydiler	-11.4155
BA	-11.4156
▁yeryüzünde	-11.4162
▁bilimci	-11.4162
▁gördüler	-11.4162
▁evli	-11.4163
▁modelleme	-11.4164
▁dinleyi	-11.4165
▁Da	-11.4167
▁ışıkta	-11.4171
▁hastayı	-11.4172
▁Mur	-11.4172
▁pazarı	-11.4176
▁omurilik	-11.4177
▁algoritmalar	-11.4178
imizde	-11.418
▁sağduyu	-11.4181
▁ekonomistler	-11.4181
▁İnternette	-11.4187
▁iz	-11.4187
▁önerdi	-11.4187
▁şerit	-11.4189
▁edenler	-11.419
▁uygulamak	-11.419
▁malzemelerin	-11.4193
▁yaşlarda	-11.4194
▁kullanırlar	-11.4195
▁silahı	-11.4197
▁bandı	-11.4201
▁basladi	-11.4202
▁karalama	-11.4203
▁Ağustos	-11.4204
▁tanrım	-11.4205
▁alınması	-11.4206
takım	-11.4207
manız	-11.4209
▁sokağ	-11.421
▁köpekbalığı	-11.4212
▁kaldırma	-11.4214
▁gençlik	-11.4215
▁gelirdi	-11.4216
▁değişmeye	-11.4216
▁inanır	-11.4218
▁sağlamaya	-11.4219
▁rutin	-11.4219
▁Okyanus	-11.422
▁büyümüş	-11.422
▁bilmiyorlar	-11.4221
▁içki	-11.4221
▁biziz	-11.4222
▁yolladı	-11.4222
▁içindi	-11.4227
▁Gör	-11.4228
layacak	-11.4229
▁hatırlamak	-11.4232
▁goz	-11.4232
▁programcı	-11.4233
▁düzene	-11.4233
▁değiştiği	-11.4235
▁diğerini	-11.4239
▁çalma	-11.424
▁yaymak	-11.4241
▁çıkarıyorlar	-11.4243
▁mesajları	-11.4246
▁düşmüş	-11.4246
▁Çocukları	-11.4252
▁oyunlarını	-11.4256
▁grafikler	-11.4257
▁inceledi	-11.4261
▁ter	-11.4262
▁gördüğünü	-11.4262
berg	-11.4263
▁yaptığınızda	-11.4266
▁akraba	-11.4267
▁tasarim	-11.427
▁mahrum	-11.4271
angelo	-11.4271
▁Alaska	-11.4271
▁Craig	-11.4271
▁entellektüel	-11.4271
▁piyango	-11.4271
▁harikulade	-11.4271
▁manevi	-11.4271
▁Aşırı	-11.4271
▁Edward	-11.4271
▁huylu	-11.4271
▁Yunanistan	-11.4271
▁Satur	-11.4272
▁Bhu	-11.4272
▁2014	-11.4273
▁istenen	-11.4273
right	-11.4273
▁Sanıyorum	-11.4273
▁yanılma	-11.4274
▁hük	-11.4274
▁pekala	-11.4275
▁artır	-11.4277
▁kavrama	-11.4279
▁Don	-11.4279
▁izlerken	-11.4279
▁AG	-11.428
▁Kur	-11.4281
▁Tarım	-11.4281
▁göstermeme	-11.4281
▁ayın	-11.4283
▁bakılır	-11.4283
▁anlatıyorum	-11.4287
yip	-11.4288
lenebilir	-11.4288
▁yapıyorlardı	-11.4289
▁ışını	-11.4289
▁yaratabiliriz	-11.4289
▁Hayatımda	-11.429
▁odanı	-11.429
rebilirim	-11.4292
▁bulunduğum	-11.4293
▁ölür	-11.4294
▁gittiğim	-11.4295
▁bildikleri	-11.4297
▁yazmayı	-11.4297
▁büyüktür	-11.4301
▁başlatmak	-11.4301
▁biter	-11.4302
lo	-11.4303
▁Arada	-11.4306
▁yapmamı	-11.4306
▁çıkmıştı	-11.4307
▁Hakları	-11.4308
▁giysi	-11.431
yapabileceğimizi	-11.4311
▁dışa	-11.4312
▁yönetmek	-11.4313
▁tasarımcıları	-11.4313
▁geçiyoruz	-11.4314
▁dövme	-11.4315
▁netice	-11.4315
▁yapabilme	-11.4316
▁beyninizi	-11.4317
▁duyuyordu	-11.4317
▁kontrolünü	-11.4319
▁verimlilik	-11.4323
▁sözler	-11.4327
▁suyunu	-11.4328
▁kanunlar	-11.4329
▁seçkin	-11.433
lim	-11.4331
▁bar	-11.4331
▁insansı	-11.4332
▁Akıl	-11.4333
▁numarası	-11.4334
▁materyaller	-11.4335
▁taksi	-11.4336
▁Ekranda	-11.4336
▁eskisi	-11.4337
▁atma	-11.4339
▁mutluluğu	-11.434
▁Hayatım	-11.4342
▁sürecek	-11.4342
▁görmesi	-11.4346
▁bilgimiz	-11.4348
▁Bina	-11.435
▁şiddetle	-11.4351
▁gördükleri	-11.4353
▁masay	-11.4353
▁tepede	-11.4353
▁kuvvetleri	-11.4355
▁aktarmak	-11.4356
▁geliştirilmiş	-11.4356
▁simetrik	-11.4359
▁tat	-11.4359
▁topluluğ	-11.4363
▁atıldı	-11.4364
▁canlıları	-11.4365
▁seçer	-11.4365
▁acıyı	-11.4366
▁konsept	-11.4368
▁kurumu	-11.4368
▁defalar	-11.437
lendiğini	-11.4371
▁uluslar	-11.4371
▁Kendim	-11.4371
eri	-11.4373
▁bilmediği	-11.4378
▁My	-11.4379
▁ata	-11.4381
men	-11.4382
▁yapmamızı	-11.4383
rmeliyiz	-11.4384
▁ayrılıyor	-11.4385
▁ağırlığında	-11.4386
▁seçenekleri	-11.4386
▁gök	-11.4386
▁hayatlar	-11.4387
▁kullanmış	-11.4388
▁farklılıkları	-11.4389
▁foto	-11.4396
▁görüntülerin	-11.4403
▁karada	-11.4403
▁durdurma	-11.4404
▁yüzleri	-11.4406
▁elektriği	-11.4406
▁sorumluluğu	-11.441
▁Bilgisayarlar	-11.4412
▁aktör	-11.4414
▁konser	-11.4415
▁karşılığı	-11.4415
▁Lin	-11.4416
▁oysa	-11.4416
ciler	-11.4417
DI	-11.4418
ray	-11.442
▁götürü	-11.442
▁kullanacağı	-11.4421
liyim	-11.4422
▁bulundum	-11.4423
▁buldukları	-11.4425
▁kullandığınız	-11.4426
▁İleri	-11.443
▁araştırdı	-11.443
▁kule	-11.4433
▁bölgelere	-11.4437
▁Kişi	-11.4438
▁Yukarı	-11.4439
▁sağlığını	-11.444
▁kaynağını	-11.4448
▁ayırdı	-11.4448
▁mantıksız	-11.445
▁64	-11.4452
▁inanma	-11.4456
▁gününü	-11.4456
▁birleştirme	-11.4456
▁edebileceğimiz	-11.4459
▁Şiir	-11.4461
▁dünyasını	-11.4462
▁sevdiğimiz	-11.4463
▁Işık	-11.4464
▁beyzbol	-11.4465
▁kent	-11.4467
lamak	-11.4467
▁uzunluğu	-11.4469
▁insanoğlu	-11.4469
liydim	-11.4474
sünüz	-11.4474
▁vermiyor	-11.4475
▁işletmeler	-11.4479
▁tepkisi	-11.4479
▁karşılaşıyor	-11.4482
ul	-11.4483
▁çizimler	-11.4484
▁Hayatın	-11.4485
▁ateşi	-11.4487
▁matematiği	-11.4488
▁edinmek	-11.4489
▁deneyimini	-11.4489
▁ömrü	-11.449
well	-11.4491
▁probleme	-11.4496
▁Yaptıkları	-11.4498
▁ekipman	-11.4498
▁miktarlar	-11.4499
▁farkettik	-11.45
▁fotograf	-11.4501
▁ilgileniyoru	-11.4502
▁bileşeni	-11.4502
▁çalıştır	-11.4502
▁dersin	-11.4503
▁etmekle	-11.4508
leşiyor	-11.4511
▁tasarladık	-11.4512
ası	-11.4512
▁anlaşıldı	-11.4515
▁180	-11.4516
▁parçacıkların	-11.4518
▁dönmüş	-11.4518
▁çizme	-11.4518
▁parkı	-11.4521
▁yoğunluk	-11.4521
▁Mar	-11.4523
▁vurdu	-11.4524
▁girecek	-11.4524
▁destekliyor	-11.4527
▁milimetre	-11.4527
▁Kelime	-11.4528
▁oylama	-11.4535
▁istek	-11.4535
▁hamur	-11.4537
▁başlarlar	-11.4537
▁eşya	-11.4537
▁olmamalı	-11.4537
MS	-11.454
▁kaldığı	-11.4541
mayacağım	-11.4542
▁yaşadığınız	-11.4543
▁tasvir	-11.4544
▁andan	-11.4546
▁dünyalar	-11.4547
▁üzgün	-11.4548
▁elverişli	-11.4549
▁sofistike	-11.4549
▁kolektif	-11.4549
▁Avusturya	-11.4549
▁nakit	-11.4549
▁sunulan	-11.455
▁içgüdüsel	-11.455
▁adlandırılır	-11.455
▁uyuyor	-11.455
▁STK	-11.455
▁Prince	-11.455
▁bahsedelim	-11.455
▁itici	-11.455
▁yarasalar	-11.4551
zgünü	-11.4551
▁toplayan	-11.4552
▁çarpan	-11.4553
▁kılar	-11.4553
▁civarı	-11.4553
▁Hav	-11.4554
▁işletim	-11.4557
▁göstermektedir	-11.4558
▁yapmıyorum	-11.456
▁fabrikası	-11.456
▁hay	-11.456
▁gösteriliyor	-11.4561
▁dokuyu	-11.4561
▁hatırlatmak	-11.4563
▁teorisini	-11.4563
ue	-11.4564
▁Öğretmen	-11.4564
ligi	-11.4567
▁ilerledi	-11.4568
▁mutluydu	-11.4569
▁sabahı	-11.4573
▁profesörü	-11.4574
▁askerleri	-11.4576
▁teleskop	-11.4578
▁kaydetti	-11.4578
▁Emma	-11.4579
▁fonksiyonu	-11.458
▁bağları	-11.4581
▁yaka	-11.4582
▁hareketsiz	-11.4582
▁Sanayi	-11.4582
▁to	-11.4584
▁dalgası	-11.4585
▁şeklin	-11.4586
▁gergin	-11.4587
▁gerçekleştirme	-11.4587
▁rengini	-11.4589
▁oturmak	-11.4592
ac	-11.4592
▁gecede	-11.4593
▁oralarda	-11.4594
▁günümüzü	-11.4596
▁şunları	-11.4597
▁yapacaklar	-11.4598
▁Rose	-11.46
▁Söylediğim	-11.4603
cu	-11.4605
▁videolar	-11.4608
▁kanalı	-11.4611
▁bittiğinde	-11.4612
▁koruyacak	-11.4613
▁bulutlar	-11.4613
▁özen	-11.4614
▁ürettiğimiz	-11.4617
▁dönüştürücü	-11.4618
▁diğerinde	-11.462
▁varlığın	-11.4622
▁mektubu	-11.4623
▁kullanabiliyor	-11.4624
amanla	-11.4626
▁kısımda	-11.4628
▁bahar	-11.4628
▁sipariş	-11.4629
▁ucun	-11.463
▁ayrımcılık	-11.463
▁fotoğrafın	-11.4632
ımı	-11.4634
▁katıl	-11.4635
▁00	-11.4638
uther	-11.4642
▁karşımız	-11.4643
▁haberleşme	-11.465
▁çalışıyorduk	-11.465
▁geçmesi	-11.4651
▁ekonomist	-11.4651
▁oyunda	-11.4652
ebileceği	-11.4653
▁etmelerini	-11.4653
▁taşınma	-11.4654
▁basamak	-11.4655
içi	-11.4655
▁Konseyi	-11.4658
▁izleyebilir	-11.466
▁yerlerini	-11.466
▁polisi	-11.4661
▁sahipleri	-11.4661
▁seyirciler	-11.4661
▁altını	-11.4661
▁Sir	-11.4661
▁savaşçı	-11.4664
▁şüpheci	-11.4668
fel	-11.4668
ımıza	-11.4669
▁döneme	-11.467
les	-11.467
▁SE	-11.467
▁çarptı	-11.467
▁sun	-11.4676
▁söylerler	-11.4676
▁hazırladık	-11.4679
▁Wa	-11.468
sler	-11.4683
▁soyle	-11.4684
▁konferansta	-11.4687
▁görülme	-11.4689
▁fikirde	-11.4694
▁tepesin	-11.4695
▁kaçınız	-11.4695
▁hissetmeye	-11.4696
lamaya	-11.4698
ro	-11.4701
▁dizileri	-11.4701
▁Ko	-11.4712
▁yatırımcılar	-11.4713
▁taciz	-11.4716
▁etrafı	-11.4717
▁düşünmüyor	-11.4718
▁levha	-11.4718
miyorsunuz	-11.4722
▁etrafımda	-11.4724
▁azala	-11.4726
▁gide	-11.4727
▁yönlendirme	-11.4727
▁veriliyor	-11.4728
▁andı	-11.4729
▁oyuncağı	-11.4729
▁elimi	-11.4729
▁yaya	-11.473
▁maliyetleri	-11.4733
▁kaplan	-11.4735
▁suçu	-11.4736
▁maske	-11.4737
▁bahsed	-11.474
▁kaldırdı	-11.4741
▁Milli	-11.4741
▁sözlük	-11.4743
▁31	-11.4746
▁okulları	-11.4747
▁dal	-11.4747
▁yapacaktı	-11.4749
▁süreçler	-11.4753
▁fren	-11.4754
▁işaretler	-11.4757
▁gönderildi	-11.4758
▁kademe	-11.4759
▁yemeye	-11.476
▁kullanıcıları	-11.4761
▁konumda	-11.4761
▁hacker	-11.4762
▁sırtında	-11.4763
gie	-11.4763
▁büyümesi	-11.4764
▁alırdı	-11.4764
LP	-11.4766
▁düğüm	-11.4767
▁ülkelerinde	-11.4767
▁Milo	-11.477
▁olmanızı	-11.4771
▁İrlanda	-11.4776
▁çalışanların	-11.4777
▁ortasın	-11.4782
▁başarmış	-11.4784
▁Herşeyi	-11.4785
▁isteyebilir	-11.4788
▁ortamın	-11.4799
gun	-11.4799
▁düşünüyorlardı	-11.48
▁Mi	-11.4801
▁politikacı	-11.4802
▁hayatlarımızı	-11.4802
▁Başarı	-11.4805
▁çubuk	-11.4805
▁tesis	-11.4806
▁ayrılma	-11.4807
▁istese	-11.4808
▁it	-11.4809
▁mülk	-11.481
▁kimyasallar	-11.4811
▁Robot	-11.4812
▁paylaşıla	-11.4814
▁beklenti	-11.4815
▁Yapma	-11.4815
▁Pete	-11.4825
▁barışı	-11.4827
müz	-11.4828
ji	-11.4829
▁üretilmiş	-11.4829
▁mikrop	-11.4831
▁sorunla	-11.4834
ivil	-11.4834
▁Elizabeth	-11.4835
▁çapraz	-11.4835
▁metrekare	-11.4835
▁kronik	-11.4835
▁Benjamin	-11.4835
▁sembolik	-11.4837
▁fantastik	-11.4837
▁kafamı	-11.4837
▁kalir	-11.4838
▁sınırsız	-11.4838
▁JF	-11.4838
▁kalabilir	-11.4838
dığımızda	-11.484
▁edebilen	-11.484
▁yakalama	-11.4841
▁düzenleyen	-11.4841
▁barındırıyor	-11.4841
▁geçin	-11.4842
▁ayrım	-11.4842
▁problemlere	-11.4842
▁Mandela	-11.4843
▁emek	-11.4846
▁kullanırız	-11.4847
▁geçelim	-11.4847
▁tuzlu	-11.4847
▁biçimleri	-11.4848
▁ihtimalleri	-11.4848
▁av	-11.4848
▁işlenmiş	-11.4849
▁tasarlamaya	-11.4849
▁AK	-11.4851
▁zamanlarında	-11.4852
▁düşündüğümü	-11.4854
▁odun	-11.4856
lıkta	-11.4856
▁Verme	-11.4857
▁öldüğünü	-11.4858
ımızdan	-11.4858
13	-11.4861
▁istifa	-11.4861
▁karşılamak	-11.4867
▁istediğinde	-11.4869
▁çözecek	-11.487
▁yasası	-11.4874
▁derecesi	-11.4875
▁ilginçti	-11.4876
▁kurabilir	-11.4877
06	-11.4877
▁yemeğin	-11.4878
▁Tez	-11.4884
▁açtığı	-11.4884
▁terapi	-11.4885
▁Ek	-11.4885
▁inanıyordu	-11.4885
▁Hayvanlar	-11.4885
do	-11.4886
▁çocukla	-11.489
▁bahsetmişti	-11.489
▁inanıyorlar	-11.4898
▁sevdiğiniz	-11.4899
▁kafasında	-11.4902
▁söylüyoruz	-11.4903
tesi	-11.4903
▁se	-11.4904
▁iniyor	-11.4904
▁düştüğünü	-11.4906
▁gelebilecek	-11.4907
▁sabahın	-11.4908
▁dahilinde	-11.4909
▁geçerlidir	-11.4909
▁maddelerin	-11.4911
▁değerlerini	-11.4912
▁kazandığı	-11.4913
▁yapardı	-11.4913
▁bozulma	-11.4915
▁istediğin	-11.492
▁anlatı	-11.492
▁planları	-11.4923
ilir	-11.4923
▁büyüklüğünü	-11.4926
▁keçi	-11.4928
▁bilmede	-11.4928
▁milyonda	-11.4929
▁güveni	-11.493
▁param	-11.493
▁yanınızda	-11.4931
▁tarafındaki	-11.4933
malıyım	-11.4934
▁sevme	-11.4938
▁parçasıydı	-11.4939
▁cadde	-11.4942
▁Diyor	-11.4943
▁toplumumuzu	-11.4944
▁Hall	-11.4946
▁yaşay	-11.4946
▁tasarımları	-11.4946
▁keşifler	-11.4948
▁saldırısı	-11.4948
yorlardı	-11.4949
▁Hepinizi	-11.4949
▁Can	-11.495
▁Venüs	-11.4953
▁47	-11.4954
▁başlamamız	-11.4955
▁üretimini	-11.496
▁obez	-11.4961
▁parlaya	-11.4967
▁zincirini	-11.4967
▁mekaniği	-11.4969
▁arayüzü	-11.4969
▁gitmişti	-11.497
▁tablosu	-11.4973
▁kurtarmaya	-11.4979
▁gözün	-11.498
▁tükenme	-11.498
▁kurduğumuz	-11.4984
▁In	-11.4985
yet	-11.4989
▁Rand	-11.4993
▁soruyorlar	-11.4993
▁olmadığından	-11.4994
▁kır	-11.4997
▁edebilirler	-11.5
▁Konuşmamı	-11.5001
▁dahası	-11.5005
▁yem	-11.5005
▁duyacak	-11.5007
▁hissettiğimiz	-11.501
▁çocuklarınız	-11.5012
▁krizin	-11.5012
▁çember	-11.5014
▁zamandı	-11.5016
▁vatandaşları	-11.5018
▁diğerlerini	-11.5018
▁korkuyordu	-11.5019
▁barışçı	-11.502
▁rejim	-11.5021
▁gerçekleştiği	-11.5023
▁hesaplamalar	-11.5023
▁kalanında	-11.5024
▁tahminler	-11.5026
▁oluşumu	-11.5026
▁konuşmam	-11.5027
ğında	-11.5028
▁Hayvan	-11.5029
▁anlamanız	-11.5034
▁satıyor	-11.5038
▁tum	-11.5038
▁yapamaz	-11.504
▁rüzgâr	-11.504
▁şaşırta	-11.5041
▁cihazın	-11.5041
▁Monter	-11.5042
▁halkını	-11.5047
▁moral	-11.5049
▁Tip	-11.5049
▁soracak	-11.505
▁sunma	-11.5053
▁Mill	-11.5054
▁uzmanların	-11.5056
▁Davranış	-11.5056
▁etse	-11.5057
▁tokuş	-11.5059
▁karşılaştık	-11.5061
▁yörüngesinde	-11.5061
▁arkadaşlık	-11.5061
▁ünü	-11.5063
▁yazarlar	-11.5067
▁canavar	-11.5067
▁ilişkilerini	-11.5068
▁duydun	-11.5069
▁beşinci	-11.507
▁sensör	-11.507
▁Gördü	-11.5071
okyo	-11.5074
▁açtık	-11.5075
▁Yasası	-11.5078
▁kayboldu	-11.5079
▁tanımak	-11.5081
▁uçmak	-11.5084
▁süregel	-11.5086
▁içimde	-11.5089
▁içerisin	-11.509
▁Makine	-11.5092
▁Hay	-11.5092
▁konuştuğum	-11.5094
▁Lab	-11.5094
▁düzensiz	-11.5094
ny	-11.5098
ımda	-11.5098
▁araçlarını	-11.5098
▁mecbur	-11.5105
▁SP	-11.5108
▁füzyon	-11.511
▁130	-11.5111
▁dışarda	-11.5111
▁organı	-11.5113
▁inanmaya	-11.5113
▁Kolombiya	-11.5113
▁ailelerini	-11.5115
▁hayranı	-11.5115
▁keşfedildi	-11.5117
rdiniz	-11.5118
▁jeoloji	-11.5118
▁karşılaştığı	-11.5118
▁ödülünü	-11.5119
▁kökeni	-11.512
lıp	-11.5122
▁öğretim	-11.5124
▁odaklanmış	-11.5125
▁çizer	-11.5125
▁gelişimini	-11.5128
▁hidro	-11.5129
▁sarhoş	-11.5129
▁esrar	-11.5129
▁dayanışma	-11.5129
▁şirin	-11.5129
▁litre	-11.5129
▁sadık	-11.5129
▁vefat	-11.5129
▁hakaret	-11.513
▁Cep	-11.513
▁Lew	-11.513
▁hektar	-11.5131
▁Garip	-11.5131
▁tarafın	-11.5131
▁yerleştiriyor	-11.5131
▁inanmıyorum	-11.5132
▁birebir	-11.5132
lışılmadık	-11.5132
▁Ross	-11.5132
▁Peru	-11.5133
▁çizmek	-11.5133
TI	-11.5135
▁görürdü	-11.5135
▁Nathan	-11.5135
▁müdürü	-11.5136
▁etkisiz	-11.5136
▁istediğimizi	-11.5137
▁farkındayım	-11.5138
▁leri	-11.5138
▁düşünülen	-11.514
▁öğretir	-11.5141
▁çevremizdeki	-11.5142
▁Geçmişte	-11.5144
▁bekliyoruz	-11.5145
▁edeceğimiz	-11.5145
▁şifreleme	-11.5146
▁kutular	-11.5146
▁öncelikli	-11.5149
▁yararına	-11.5149
▁inç	-11.5151
▁görevleri	-11.5151
▁eğitimde	-11.5157
▁peynir	-11.5159
der	-11.5161
▁istiyorlardı	-11.5162
▁heryerde	-11.5163
▁konuşu	-11.5164
▁yatar	-11.5165
▁oluştuğu	-11.5165
▁geçirmeye	-11.5167
▁kırık	-11.5169
▁yatkın	-11.517
▁vücutta	-11.5171
09	-11.5172
ron	-11.5173
▁başarısı	-11.5173
▁yoğunluğunu	-11.5175
▁açılır	-11.5177
▁sokmak	-11.5178
▁çorba	-11.5179
▁vadi	-11.518
▁yapardım	-11.5182
▁görünecek	-11.5183
▁bulduğu	-11.5183
▁97	-11.5183
▁memnuniyet	-11.5183
▁yerçekimi	-11.5183
▁ülkesinde	-11.5186
▁boyutunu	-11.5188
▁inanılmazdı	-11.5188
▁kaldırıyor	-11.5189
von	-11.5189
▁Fort	-11.519
▁yolunun	-11.5192
▁gözlerimi	-11.5194
▁ürünlerini	-11.5195
▁ışığında	-11.5195
▁vücudumuzu	-11.5198
▁mail	-11.5199
▁izledik	-11.5201
▁hissettiğini	-11.5202
▁Black	-11.5204
▁sürücüsü	-11.5209
▁bo	-11.5209
▁olduğumdan	-11.5212
▁arazide	-11.5216
▁aşılar	-11.5217
▁çıkarken	-11.5218
▁yapamayı	-11.5218
mayan	-11.5219
▁Sinir	-11.522
▁işlerde	-11.5221
▁yönlerde	-11.5226
▁balığın	-11.5228
▁kodun	-11.5229
▁demo	-11.523
▁Kimin	-11.5232
▁uçuşu	-11.5234
▁Kendiniz	-11.5237
▁temizlemek	-11.5239
▁öğrenen	-11.524
▁yolumuz	-11.5241
▁getiriyorlar	-11.5243
abileceğimizi	-11.5244
▁edemiyoru	-11.5244
▁bittiği	-11.5245
▁Rüzgar	-11.5245
▁kalmayacak	-11.5249
rinlemesin	-11.5252
▁düşünürler	-11.5254
▁işiniz	-11.5254
▁tarafsız	-11.5263
▁geçişi	-11.5264
▁mimarlık	-11.5269
rey	-11.5269
▁ihtiyacın	-11.5271
▁tutkum	-11.5272
▁Kal	-11.5272
▁olmamak	-11.5273
▁yığını	-11.5275
▁yemin	-11.5275
▁işçileri	-11.5277
▁evimde	-11.5277
▁yeteneğini	-11.5278
▁tehlikesi	-11.5278
▁imalat	-11.5278
▁boşlukta	-11.5279
▁yürümeye	-11.5279
umuz	-11.5279
▁olurum	-11.5282
▁çıkıyorlar	-11.5282
▁bilgili	-11.5282
▁ölçe	-11.5282
luyor	-11.5283
▁görevini	-11.5283
▁vakası	-11.5284
▁ettiğimde	-11.5287
▁yediğimiz	-11.5288
▁acele	-11.5289
▁taban	-11.529
gin	-11.5291
▁kararlı	-11.5293
▁evimiz	-11.5294
▁koştu	-11.5295
▁aklında	-11.5296
▁çözer	-11.5296
eşlik	-11.5299
▁muydun	-11.5301
▁kibar	-11.5301
▁zorladı	-11.5301
▁bahçesi	-11.5301
ington	-11.5307
▁inci	-11.5308
▁konuşmacı	-11.5309
▁Silah	-11.5314
▁görmüyor	-11.5317
dus	-11.5319
▁43	-11.5319
▁birleşimi	-11.532
dor	-11.532
▁verilmesi	-11.5321
▁çocuktu	-11.5321
▁değiştiri	-11.5322
lıyorsunuz	-11.5323
▁krizini	-11.5324
▁göstermişti	-11.5324
▁sayfalar	-11.5328
▁kurtar	-11.533
▁Top	-11.533
▁haritalar	-11.5334
▁eyaletler	-11.5336
▁yüzyıllar	-11.5337
▁eğim	-11.5338
▁görüşüm	-11.5339
▁düşürdü	-11.534
▁Adası	-11.5342
▁araştırmada	-11.5344
▁hizmetlerini	-11.5345
▁bağlanıyor	-11.5346
▁sezon	-11.5347
▁Roy	-11.5352
▁oynayabilir	-11.5354
▁getireceği	-11.5362
▁yemeğinde	-11.5362
▁Çoğumuz	-11.5362
▁liderlerin	-11.5363
▁önündeki	-11.5363
▁biriniz	-11.5364
▁zorluğu	-11.5364
▁Kah	-11.5364
▁basketbol	-11.5365
▁sıralar	-11.5365
▁kanal	-11.5366
▁işlemler	-11.5373
▁cinayet	-11.5374
aalesef	-11.5375
▁dinozor	-11.5377
▁saldırılar	-11.5378
memiz	-11.5386
▁bakmamız	-11.5387
▁Alt	-11.5388
▁çözmemiz	-11.5391
▁Wolf	-11.5391
▁bilimler	-11.5398
ınız	-11.54
▁olabilmesi	-11.5402
▁bulmalıyı	-11.5402
▁Görme	-11.5404
▁Sky	-11.5404
▁ayağı	-11.5408
▁Ladin	-11.541
muzun	-11.541
▁yükselt	-11.5411
ladığımız	-11.5411
▁ipuçları	-11.5411
▁Yaratıcı	-11.5411
▁adamış	-11.5414
▁140	-11.5417
▁arkamda	-11.5418
▁Ti	-11.5418
▁Gülme	-11.5418
▁düşünüyorsun	-11.542
▁notlar	-11.542
▁zorluklarla	-11.5422
ight	-11.5425
elişmekte	-11.5426
▁kast	-11.5427
▁bilmemiz	-11.5427
▁Libya	-11.5427
▁aslın	-11.5429
▁ailede	-11.5431
▁Yan	-11.5431
▁DVD	-11.5432
▁Mevcu	-11.5432
▁Tazmanya	-11.5432
▁floresan	-11.5432
▁kemoterapi	-11.5432
▁Andrew	-11.5432
▁prostat	-11.5432
▁FDA	-11.5432
▁santim	-11.5432
▁kaybolan	-11.5433
▁Galap	-11.5434
▁yıkım	-11.5434
▁araştırmacıları	-11.5434
▁hatırlattı	-11.5435
▁olmaktı	-11.5436
▁başlayınca	-11.5437
▁5000	-11.5438
▁isteyeceğim	-11.5439
▁Birçoğunuz	-11.544
▁tasarlar	-11.544
▁uğruna	-11.5441
▁hikayelerin	-11.5441
▁geliştiriyoruz	-11.5442
▁değişmez	-11.5443
▁çevirdi	-11.5444
▁sal	-11.5445
▁diplomasi	-11.5445
▁Emin	-11.5445
▁atmaya	-11.5445
▁gelmektedir	-11.5448
▁olmaktadır	-11.5451
▁Bas	-11.5452
▁Parkı	-11.5452
▁büyüdüğüm	-11.5453
▁yaşındayım	-11.5456
▁haftalar	-11.5458
▁modellerini	-11.5459
▁ironik	-11.5467
▁sıkıca	-11.5468
▁ulaşmaya	-11.547
▁Kop	-11.5472
▁mikroskop	-11.5473
▁Blue	-11.5473
▁hırslı	-11.5476
▁yolcu	-11.5476
▁yayılır	-11.5476
▁Fas	-11.5478
▁haklıydı	-11.5478
▁satıcı	-11.5479
▁yapmada	-11.5481
▁duyabilir	-11.5482
▁severdi	-11.5484
▁inceledim	-11.5486
▁izleri	-11.5488
▁geliştirdiğimiz	-11.5488
▁sınav	-11.5488
▁lık	-11.5489
▁örnekle	-11.5489
▁kusur	-11.549
▁arkadaşlarımla	-11.5491
PR	-11.5492
▁toplamı	-11.5492
▁tasarımlar	-11.5492
▁Barış	-11.5494
▁geldiklerini	-11.5496
▁çizgisini	-11.5497
▁çekecek	-11.5498
▁adaptasyon	-11.5499
▁sil	-11.5499
ana	-11.5506
▁çatışmalar	-11.5507
▁kaçış	-11.5507
▁tadı	-11.5507
▁geliş	-11.5507
▁felçli	-11.5507
▁gizlilik	-11.5508
▁Nata	-11.5508
▁Lee	-11.5509
▁yapamıyor	-11.5512
ılan	-11.5512
▁h	-11.5512
▁biç	-11.5512
▁böyleydi	-11.5513
▁bakışı	-11.5513
▁Kütüphanesi	-11.5513
▁buluşlar	-11.5513
▁şefi	-11.5514
▁bilincin	-11.5515
▁bebeğim	-11.5517
▁ölümleri	-11.5517
▁yapmama	-11.552
mızdan	-11.5522
▁geliştirildi	-11.5524
▁stresli	-11.5527
▁kullanılacak	-11.5529
▁hemşireler	-11.5529
▁bozukluk	-11.5531
▁geçiyordu	-11.5532
leştirmek	-11.5532
▁aklını	-11.5532
▁gezegenleri	-11.5533
▁anonim	-11.5535
▁içeriğin	-11.5539
▁attım	-11.554
▁Maria	-11.554
zerine	-11.5542
▁yaşadığını	-11.5542
▁söylemeyi	-11.5542
▁katkısı	-11.5542
fi	-11.5543
▁sensörler	-11.5546
▁bizimki	-11.555
RA	-11.5552
rebilmek	-11.5553
▁Geleceğin	-11.5553
▁sanıyor	-11.5554
▁yetisi	-11.5557
▁ad	-11.5561
▁hâlde	-11.5561
▁ışığını	-11.5562
ary	-11.5565
▁yükseklikte	-11.5569
▁borsa	-11.5571
▁fizyoloji	-11.5572
agos	-11.5573
ğin	-11.5574
▁birleşme	-11.5574
lendirilmiş	-11.5575
▁Karşı	-11.5577
▁kurbanı	-11.5578
▁Fl	-11.5578
▁klavye	-11.5589
▁endüstrisinde	-11.5591
▁etmeyin	-11.5591
atılan	-11.5593
fer	-11.5593
▁toplamında	-11.5593
▁geldiğim	-11.5596
▁astım	-11.5597
▁dilimi	-11.5599
▁takas	-11.5601
▁değişecek	-11.5601
▁olmakta	-11.5602
▁yayılma	-11.5603
▁dikkatle	-11.5603
ad	-11.5604
manın	-11.5606
▁sara	-11.561
▁sözcükler	-11.5611
▁yolculukta	-11.5612
niversitesinde	-11.5613
▁balıkçılık	-11.5613
▁kullanması	-11.5614
▁yiyen	-11.5615
▁müzisyen	-11.5615
▁kazandık	-11.5619
▁sok	-11.562
▁soracağım	-11.5621
▁içer	-11.5623
▁kabullenme	-11.5623
lıyım	-11.5623
▁erişilebilir	-11.5626
▁eviniz	-11.5628
▁34	-11.5629
▁metabolizma	-11.5629
▁değişimleri	-11.563
▁yapıların	-11.5631
▁galaksiler	-11.5631
▁maya	-11.5634
▁Hücre	-11.5634
▁düzenledi	-11.5636
▁soykırım	-11.5642
▁çevirir	-11.5642
▁vaat	-11.5646
▁dergisi	-11.5646
▁zamanımı	-11.5647
▁fen	-11.5647
▁tasarımcısı	-11.5651
▁davul	-11.5652
nızda	-11.5652
▁inceliyor	-11.5653
▁kullanıcılar	-11.5659
▁adaleti	-11.566
▁devrimin	-11.566
aktif	-11.5662
▁terimi	-11.5663
▁kullanmıyor	-11.5667
▁kısımları	-11.5667
▁hangisini	-11.5671
▁geliştiriyor	-11.5672
▁mevcuttu	-11.5673
▁verilir	-11.5673
▁katılan	-11.5674
▁Hukuk	-11.5676
▁baskısı	-11.5681
▁kullanmakta	-11.5682
▁özenl	-11.5684
▁boyutlarda	-11.5684
▁döndüğünü	-11.569
▁Marc	-11.5691
▁sokaklar	-11.5692
▁Annesi	-11.5692
▁ziyan	-11.5696
▁tüketiciler	-11.5696
▁gönderir	-11.5699
▁dinledi	-11.5699
▁yüklü	-11.57
▁algısı	-11.5704
▁tartışmak	-11.5704
▁şeklimizi	-11.5704
▁görecek	-11.5707
▁durağan	-11.5709
▁bitiş	-11.571
▁kulübe	-11.5711
▁kalbinde	-11.5711
▁edecekti	-11.5711
▁mitoloji	-11.5713
▁inceley	-11.5714
E	-11.5714
▁klişe	-11.5715
▁kalça	-11.5718
▁edemeyi	-11.572
▁karides	-11.5721
▁eksen	-11.5724
▁telefonunuz	-11.5726
▁karşıt	-11.5728
▁ödüyor	-11.573
▁uçakları	-11.5731
▁paha	-11.5732
ness	-11.5734
▁uğraşıyor	-11.5735
▁yiyecekleri	-11.5735
▁kurtaracak	-11.5736
▁biliriz	-11.5736
▁genin	-11.5737
▁onay	-11.5737
▁aradığımız	-11.5738
▁uyuma	-11.5741
hio	-11.5743
▁bilinçsiz	-11.5743
▁Sürdürülebilir	-11.5744
▁Beraber	-11.5744
▁Kopenhag	-11.5744
▁Mozart	-11.5744
▁Müthiş	-11.5744
▁Tuhaf	-11.5744
▁kızılötesi	-11.5744
▁muamele	-11.5744
▁ihra	-11.5744
▁Arabistan	-11.5744
▁bambu	-11.5744
▁Nairo	-11.5744
▁havlu	-11.5745
▁Daniel	-11.5745
▁General	-11.5745
▁Aranızda	-11.5745
▁teşhisi	-11.5745
▁Sylvi	-11.5745
▁Komik	-11.5745
▁kuzu	-11.5745
▁Jones	-11.5745
▁merhaba	-11.5745
▁Nepal	-11.5746
▁Savunma	-11.5746
igan	-11.5747
▁birleştirmek	-11.5747
▁Sarı	-11.5747
▁herzaman	-11.5748
▁Kasım	-11.5748
keley	-11.5748
▁aşan	-11.5748
▁Geçmiş	-11.5748
▁ömürlü	-11.5749
▁etmeliyim	-11.5749
▁telefonun	-11.575
▁aydınlık	-11.575
▁açıklayan	-11.575
▁işgücü	-11.575
▁göreceli	-11.5751
▁etkileşimi	-11.5753
▁tanıştık	-11.5754
▁Dağı	-11.5754
▁tarafını	-11.5754
▁mühendisleri	-11.5755
▁çeşitliliğin	-11.5755
▁palmiye	-11.5756
▁bulabilmek	-11.5758
▁bulanık	-11.5759
▁mana	-11.5759
16	-11.5759
▁Bizde	-11.576
▁uzlaşma	-11.576
▁Yapı	-11.5761
▁uzaklık	-11.5761
▁galib	-11.5762
▁atılmış	-11.5763
▁Hareketi	-11.5763
▁düşünülüyor	-11.5764
▁alacağız	-11.5765
▁yarayacak	-11.5767
▁işçilerin	-11.5768
▁uzanıyor	-11.5769
▁memeliler	-11.577
bar	-11.577
▁üstteki	-11.5771
▁ortaklık	-11.5775
▁yaptıklarında	-11.5775
▁adlandırdığım	-11.5776
▁aydınlatma	-11.5777
▁hayranlık	-11.5779
▁üçüncüsü	-11.5779
▁yaratığı	-11.5779
▁kafes	-11.578
▁şizofreni	-11.5781
pi	-11.5781
▁tabu	-11.5781
rsek	-11.5782
▁amatör	-11.5782
▁MRI	-11.5786
▁Radyo	-11.5786
▁mücadelesi	-11.5787
lıyorlar	-11.5791
▁delice	-11.5791
▁değişmedi	-11.5792
▁etkinlik	-11.5792
▁To	-11.5794
▁edildiğinde	-11.5794
▁Hastalığı	-11.5795
▁Söz	-11.5796
mışlardı	-11.58
▁Aralarında	-11.58
▁taşlar	-11.58
▁götürebilir	-11.5801
▁kalmasını	-11.5803
▁olmadıklarını	-11.5803
▁söyleniyor	-11.5803
▁gerekliydi	-11.5804
▁dağılımı	-11.5804
ınıza	-11.5805
▁almada	-11.5806
▁gönderdik	-11.5807
▁katılmaya	-11.5807
▁rastladı	-11.581
▁açıları	-11.5811
▁çekiyordu	-11.5813
▁atıklar	-11.5813
▁kalbine	-11.5817
▁etmekti	-11.5821
▁çıkmasını	-11.5825
malısın	-11.5826
▁annelerin	-11.5826
▁fakirler	-11.5828
▁san	-11.5828
▁mevsim	-11.5828
▁yetiştir	-11.5832
▁meseleler	-11.5835
meyecek	-11.5836
▁girişi	-11.5837
▁kil	-11.5838
uza	-11.5839
▁sınıflandırma	-11.5841
▁canlıların	-11.5841
han	-11.5845
▁iklimi	-11.5845
▁koşar	-11.5846
▁kaybettiğimiz	-11.5846
▁değersiz	-11.5848
▁tabakası	-11.5848
ino	-11.5848
▁mahremiyet	-11.5848
▁Hastalık	-11.5849
▁adamlarını	-11.5851
▁disiplin	-11.5854
▁dolaşır	-11.5858
25	-11.5859
▁dönüşümü	-11.5859
▁formunda	-11.586
▁etkilediğini	-11.5861
▁duyduğumda	-11.5863
▁tanış	-11.5863
▁Isa	-11.5864
▁Annemi	-11.5866
▁artması	-11.5867
▁ulaşı	-11.5871
▁şunun	-11.5871
▁harcadık	-11.5872
▁ölçeğinde	-11.5875
▁yarayı	-11.5875
▁farz	-11.5879
▁alanındaki	-11.5879
▁tabir	-11.588
▁etkileşimde	-11.5881
imdir	-11.5882
▁çevirme	-11.5882
▁resimlerin	-11.5882
▁tümörü	-11.5884
▁anlayacak	-11.5885
▁imkanları	-11.5891
▁akıyor	-11.5892
89	-11.5893
▁eşyaları	-11.5894
▁vurgulama	-11.5895
▁olamazdı	-11.5897
▁Lise	-11.59
▁öyküler	-11.5905
▁yapış	-11.5906
▁annesini	-11.5907
▁temizleme	-11.5907
larımla	-11.5909
▁testleri	-11.5912
▁kuruluşu	-11.5915
▁98	-11.5916
▁kaplama	-11.5917
▁satranç	-11.5919
▁gösterin	-11.592
▁röntgen	-11.5921
▁sektöründe	-11.5921
▁nöronların	-11.5923
▁görebileceği	-11.5924
mo	-11.5929
▁Plastik	-11.593
▁kanunu	-11.593
▁hastalıkta	-11.5932
▁mantarlar	-11.5932
ara	-11.5932
▁tık	-11.5932
▁İzlanda	-11.5933
▁fabrikada	-11.5934
ebilmek	-11.5934
▁olduğumuzdan	-11.5938
▁telefonunu	-11.5939
▁üniversitey	-11.594
▁ücreti	-11.5943
▁yazıları	-11.5944
▁öyleydi	-11.5944
▁dinliyor	-11.5944
▁ak	-11.5945
let	-11.5945
▁muhafazakar	-11.5947
▁vermesini	-11.5948
▁nedenleri	-11.5949
lyn	-11.595
▁biyologlar	-11.5953
▁beyinleri	-11.5954
▁gitmesini	-11.5958
▁belirleyici	-11.5959
▁onlari	-11.5959
▁evlerini	-11.5961
▁tasarımcıların	-11.5962
▁barındıra	-11.5964
▁haberlerde	-11.5964
▁bütünü	-11.5965
▁belirtileri	-11.5967
▁uzayı	-11.5971
▁oyunların	-11.5972
▁gelse	-11.5972
▁yapım	-11.5972
▁isminde	-11.5974
▁tekerlek	-11.5978
▁domates	-11.5979
▁çoğunluğunu	-11.5979
▁grafikte	-11.5981
▁komedi	-11.5981
▁ölecek	-11.5982
▁ebeveynleri	-11.5984
▁Evreni	-11.5986
tım	-11.5987
▁filozof	-11.5987
▁bölgeden	-11.5988
▁doğduğu	-11.599
▁öncelik	-11.5991
leşti	-11.5993
▁düşüncelerini	-11.5999
▁dolaş	-11.6002
cal	-11.6003
▁koltuğu	-11.6007
▁karşın	-11.6009
mez	-11.6011
▁noktalarda	-11.6013
▁ekonomiy	-11.6014
▁sını	-11.6017
▁illüzyon	-11.6017
▁yönetme	-11.6019
▁göründü	-11.6019
▁cansız	-11.6021
▁kutuda	-11.6022
▁eğitimini	-11.6022
▁patron	-11.6023
▁hastaneler	-11.6023
▁implant	-11.6025
▁37	-11.6027
▁çevreci	-11.6027
▁bağlan	-11.6028
▁göremiyor	-11.6028
▁sorma	-11.6035
▁göstermiş	-11.6038
▁ima	-11.6039
▁hissediyorlar	-11.6039
dığımda	-11.6044
▁Des	-11.6045
▁oynadığı	-11.6045
▁gördüğünüzü	-11.6045
▁fiziği	-11.6046
▁kesti	-11.6046
▁Kamera	-11.6048
▁Sıtma	-11.6049
▁minnettarı	-11.6049
abilecekleri	-11.6049
▁sektörün	-11.6051
▁söyleyebileceği	-11.6052
▁etrafımızda	-11.6053
▁oturmuş	-11.6054
▁çıkışı	-11.6057
▁yüzünde	-11.6058
▁parazit	-11.6059
▁pop	-11.606
▁açmaya	-11.6063
opi	-11.6065
▁Seks	-11.6066
▁Cal	-11.6066
▁Albert	-11.6067
▁Çılgın	-11.6067
▁Belediye	-11.6067
▁Muhabir	-11.6067
▁Sierra	-11.6067
▁Olağanüstü	-11.6067
▁rock	-11.6067
▁Unutmayın	-11.6067
▁ALS	-11.6067
▁Johnny	-11.6068
▁bahsedeyim	-11.6068
▁harcanan	-11.6068
▁heyecanlandıran	-11.6068
▁1984	-11.6069
▁biyoteknoloji	-11.6069
▁bişey	-11.6071
▁Ordu	-11.6071
▁başarabiliriz	-11.6071
▁kalacağız	-11.6072
▁projem	-11.6073
ga	-11.6073
▁yönlendiren	-11.6073
yordum	-11.6074
▁ağac	-11.6074
▁TS	-11.6075
▁kurucusu	-11.6075
▁gerçekleşecek	-11.6078
▁Sevgili	-11.6079
▁öğretmeni	-11.6079
▁galeri	-11.6081
▁bilişim	-11.6081
▁başınıza	-11.6084
ari	-11.6084
▁bilmiyorsunuz	-11.6084
▁türümüzü	-11.6085
▁şov	-11.6086
▁tutucu	-11.6087
▁uzaklarda	-11.6088
▁Boyle	-11.6088
▁sürüş	-11.6088
▁kapısını	-11.6089
▁Adım	-11.6091
▁sunucu	-11.6091
▁hissediyordum	-11.6092
▁Düşündüm	-11.6093
▁denizler	-11.6097
▁portre	-11.6101
▁sponsor	-11.6103
▁yerleştiri	-11.6106
▁anlaşılıyor	-11.6106
▁Po	-11.6108
▁ansiklopedi	-11.6109
rizon	-11.611
▁demekti	-11.6112
tık	-11.6112
▁imkânsız	-11.6112
▁kadından	-11.6114
▁Seçim	-11.6115
▁olasılıklar	-11.6117
▁dinledim	-11.6118
▁kökleri	-11.6118
▁cevapladı	-11.6119
▁kader	-11.6121
yüz	-11.6121
▁takma	-11.6123
▁çalışın	-11.6124
▁haritada	-11.613
▁yönetiyor	-11.6131
▁arttırma	-11.6133
▁montaj	-11.6133
▁dönüşümün	-11.6135
▁espri	-11.6137
▁bilgilerin	-11.6139
▁ot	-11.614
▁tıbbın	-11.6141
▁oto	-11.6144
▁kökenli	-11.6144
▁mikrofon	-11.6146
▁katta	-11.6148
mu	-11.6149
▁ağrısı	-11.6149
▁savaşlar	-11.6151
▁taşıyabilir	-11.6151
▁kıza	-11.6152
▁adamım	-11.6155
▁unuttu	-11.6159
▁etraflarında	-11.6161
▁elim	-11.6162
▁ortamlar	-11.6162
▁duymaz	-11.6163
▁çalıştıklarını	-11.6163
▁tasarladığımız	-11.6163
▁mide	-11.6164
▁silahların	-11.6165
▁gerektiğinde	-11.6165
▁eşiğinde	-11.6165
▁uzaylı	-11.6166
▁yazıldı	-11.6168
▁uyandıra	-11.6168
▁açılı	-11.6168
▁doğma	-11.617
evi	-11.617
▁kullanın	-11.6174
▁israf	-11.6175
▁duyarı	-11.6177
▁ıslık	-11.6178
to	-11.6179
▁dibin	-11.6181
▁uygulayabilir	-11.6183
▁sar	-11.6183
▁mıknatıs	-11.6183
▁götür	-11.6184
▁Birbirimiz	-11.6184
▁iddialı	-11.6185
▁kurumun	-11.6187
▁neslin	-11.6187
meliyim	-11.6187
▁Line	-11.6189
▁işlev	-11.6194
▁sentez	-11.6194
▁tehlikede	-11.6197
▁190	-11.6197
ğımız	-11.6197
▁koruması	-11.6197
stik	-11.6199
▁öldürüldü	-11.6199
▁hedefimiz	-11.6199
▁bayrak	-11.6201
▁telefonlarını	-11.6202
acağımız	-11.6204
▁boyuta	-11.6205
▁yakalıyor	-11.6207
▁deneyimin	-11.6207
makta	-11.621
▁İlgi	-11.621
▁şırınga	-11.6211
sidir	-11.6216
▁salonun	-11.6216
▁çağırdı	-11.6217
▁ayrılır	-11.6217
▁kaplanmış	-11.6218
mıştık	-11.6219
▁çukur	-11.6219
▁iyimserlik	-11.6219
▁bildiğini	-11.6219
▁kapatıyor	-11.622
▁kazanacak	-11.6221
▁salonunda	-11.6222
▁müslüman	-11.6224
▁öğrenmemiz	-11.6224
▁İspanyol	-11.6225
▁yönlerini	-11.6226
▁çektiğimiz	-11.6227
▁objeleri	-11.623
▁şeklimiz	-11.6231
▁Kızlar	-11.6231
nacak	-11.6232
▁doğrultusun	-11.6232
▁Sovyet	-11.6232
▁tesisi	-11.6232
▁yükü	-11.6232
▁istasyonu	-11.6234
▁koyabilir	-11.6236
▁Hiçbiri	-11.6236
▁insülin	-11.6239
▁gelmekte	-11.624
▁ağzın	-11.6241
▁videoları	-11.6242
▁kalbim	-11.6243
sıra	-11.6244
go	-11.6246
▁cevabım	-11.6246
▁kalitel	-11.6246
▁ebeveynlerin	-11.6249
▁çıkıyordu	-11.625
▁eğiliminde	-11.625
▁kalabilme	-11.625
▁düzelt	-11.6254
▁istismar	-11.6255
▁tanıtma	-11.6256
▁kesim	-11.6257
▁çalışmam	-11.6259
▁Kutup	-11.6264
▁durun	-11.6265
▁cisim	-11.6269
▁Air	-11.6269
▁edindi	-11.627
▁kapsa	-11.6271
▁sağlaması	-11.6271
▁hızında	-11.6277
20	-11.628
▁isteme	-11.6282
▁domuzu	-11.6288
▁azınlık	-11.629
ardı	-11.629
▁kaçan	-11.629
▁favorim	-11.6292
▁doğruluk	-11.6294
▁tüylü	-11.6295
▁gösterisi	-11.6296
▁herkeste	-11.6296
▁açın	-11.6296
▁yapılmasını	-11.6298
▁yaklaştı	-11.63
▁sarf	-11.63
▁görmüyoru	-11.6301
▁noktasını	-11.6302
▁anten	-11.6302
▁sundu	-11.6304
▁reklamı	-11.6306
tta	-11.6306
laştırılmış	-11.6306
▁bakanı	-11.6308
▁edilme	-11.6308
lıktan	-11.6308
▁Oğlum	-11.6308
▁zamanların	-11.631
▁meclis	-11.6313
▁sunar	-11.6313
▁düşündüğümde	-11.6314
▁Model	-11.6314
▁hacim	-11.6314
▁göreve	-11.6316
ell	-11.6318
▁soğutma	-11.632
▁dağılım	-11.6323
▁sperm	-11.6327
düz	-11.633
bilirim	-11.633
▁sürme	-11.6332
▁ipi	-11.6334
▁gördüğümüzde	-11.6335
▁ürettik	-11.6336
▁becerikli	-11.6339
▁160	-11.6341
▁adlandırıyoru	-11.6342
▁dükkan	-11.6343
ranın	-11.6344
▁Ali	-11.6351
▁ölçüsü	-11.6353
▁Tit	-11.6354
▁biteni	-11.6355
▁ekranı	-11.6355
▁verimsiz	-11.6358
▁başlandı	-11.6358
lduğumuz	-11.6358
▁toplulukların	-11.6363
RIS	-11.6363
▁düşüncem	-11.6366
▁paylaşımı	-11.6367
▁düğme	-11.6368
▁ilgilen	-11.6369
▁katmak	-11.6369
▁servet	-11.637
▁severler	-11.6374
▁Sevgi	-11.6374
▁Tibet	-11.6375
muzu	-11.6377
lacağını	-11.6377
▁kahvaltı	-11.6382
▁pazarlık	-11.6383
▁Tayland	-11.6384
▁panik	-11.6387
▁Boş	-11.6388
umuzu	-11.6388
▁ortadaki	-11.6388
▁bitirme	-11.639
▁kısma	-11.6391
▁mirası	-11.6392
▁aklımı	-11.6392
▁katlan	-11.6392
▁vücudunuzda	-11.6393
▁kazanmış	-11.6397
▁paketi	-11.6398
▁gözlü	-11.6398
▁büyükbabam	-11.6399
▁harcamak	-11.6399
▁38	-11.64
▁Philadelphia	-11.64
▁guzel	-11.64
▁reçine	-11.64
▁dopamin	-11.64
▁Chuck	-11.64
▁Gazze	-11.64
▁cuma	-11.64
▁düzinelerce	-11.64
▁çözünürlüklü	-11.64
▁Second	-11.64
▁Şang	-11.64
▁muzdarip	-11.6401
▁Gelecekte	-11.6401
▁gözükür	-11.6401
▁hammadde	-11.6401
▁Louis	-11.6401
▁Kamu	-11.6402
▁havacılık	-11.6402
utube	-11.6402
▁besinler	-11.6403
▁Etrafta	-11.6403
▁Bra	-11.6404
▁ishal	-11.6404
▁izleyerek	-11.6404
▁rehberlik	-11.6405
▁adlandırılıyor	-11.6406
daydım	-11.6407
▁duyarsınız	-11.6408
▁ayrımı	-11.6408
▁akar	-11.641
▁dinlerken	-11.6411
▁cesareti	-11.6412
▁dönüştüren	-11.6412
▁açılardan	-11.6412
▁imal	-11.6413
▁fiziğin	-11.6413
▁rekabetçi	-11.6415
▁üzerimde	-11.6415
▁haz	-11.6417
▁aşaması	-11.6417
▁dayanıklılık	-11.6418
▁çığlık	-11.6419
▁balinaların	-11.642
▁derinliklerin	-11.642
▁kökten	-11.642
▁kimliğini	-11.642
▁Santa	-11.6422
▁Parti	-11.6422
▁merkezlerinde	-11.6423
▁dişli	-11.6423
▁bulutu	-11.6423
▁vermemiz	-11.6424
▁yatırımı	-11.6425
▁Elimizdeki	-11.6426
▁hissettiği	-11.6426
▁edemezdi	-11.6428
▁Carne	-11.6428
▁arttığını	-11.6433
▁kasabada	-11.6433
▁aramızdaki	-11.6434
▁düşmüştü	-11.6435
▁hipotez	-11.6435
leşen	-11.6437
lebilir	-11.6439
▁akıntı	-11.644
▁söylerken	-11.644
▁üretiliyor	-11.644
▁slaytta	-11.6443
▁paylaşıyorlar	-11.6444
▁süresini	-11.6446
▁götürdük	-11.6448
ow	-11.6449
▁vücudunda	-11.6452
▁düzenlemek	-11.6452
▁kemikleri	-11.6453
▁sonucun	-11.6454
▁Mimari	-11.6457
miyorlar	-11.6457
▁Ga	-11.6458
▁yansıta	-11.6459
▁hisseden	-11.646
dison	-11.6462
▁ayakkabıları	-11.6463
▁çekili	-11.6465
▁yorgun	-11.6465
▁kaldığım	-11.6467
▁doktorun	-11.6471
▁uçtu	-11.6471
▁toparlama	-11.6473
way	-11.6477
▁uydurma	-11.6479
lenmesi	-11.6482
▁gösteriş	-11.6483
▁içerisindeki	-11.6484
▁berber	-11.6486
▁biyolog	-11.6489
▁Cin	-11.6489
▁sunan	-11.6493
▁sende	-11.6495
▁kutuları	-11.6496
▁uğradı	-11.6499
▁istiyorsa	-11.65
▁pis	-11.6501
▁vücudumuzda	-11.6502
▁esinlen	-11.6502
▁kısımlarında	-11.6502
▁etmemizi	-11.6503
▁yoksulluğu	-11.6504
▁öldüğü	-11.6505
▁işsiz	-11.6508
▁ayaklı	-11.6509
▁takıntılı	-11.6509
▁söylerse	-11.6511
▁Amaç	-11.6513
▁yukarıdaki	-11.6513
▁masanı	-11.6513
ılması	-11.6514
▁tedavisinde	-11.652
laşma	-11.6521
▁yazılar	-11.6522
▁İstediğim	-11.6522
▁geometri	-11.6523
▁ihtimalini	-11.6524
▁peri	-11.6525
▁dolardı	-11.6533
▁etmeme	-11.6534
▁Denizi	-11.6535
▁yaklaşır	-11.6536
▁fikriniz	-11.6537
▁programların	-11.6538
▁bağımsızlık	-11.6539
▁stratejisi	-11.654
▁tamamının	-11.6542
deyken	-11.6542
▁tören	-11.6544
▁kararını	-11.6546
▁getirmemiz	-11.6546
▁oluşturulmuş	-11.6546
▁torba	-11.6548
▁karışım	-11.6549
▁arkadaşını	-11.655
▁işit	-11.6553
▁çizgide	-11.6553
▁yılımı	-11.6553
▁puzzle	-11.6554
▁Li	-11.656
ation	-11.656
▁ediyorduk	-11.6566
▁hormon	-11.6566
▁problemimiz	-11.6566
▁yapılma	-11.6566
▁konuşacağı	-11.6569
▁Yabancı	-11.6576
▁evdeki	-11.6578
▁iyiler	-11.6581
▁büyüğü	-11.6582
▁Tanı	-11.6583
▁yanıtı	-11.6583
▁Fare	-11.6584
▁Toplam	-11.6584
▁kölelik	-11.6584
▁hara	-11.6585
▁yağış	-11.6586
▁kondom	-11.6593
▁Leon	-11.6595
▁değiştirdik	-11.6596
▁toplumları	-11.6598
▁tahminim	-11.6599
amayacak	-11.6599
▁bölümler	-11.6599
▁kokusu	-11.6608
ja	-11.6608
▁sözleşme	-11.6608
▁dediğinde	-11.6608
▁uyguladık	-11.6609
▁azaltıyor	-11.6611
▁koyduğumuz	-11.6612
▁sicim	-11.6615
▁atıkları	-11.6616
▁lens	-11.6617
▁ettiğimizi	-11.6617
▁öğretebilir	-11.6618
ev	-11.6619
▁etkileşimin	-11.662
▁görevimiz	-11.662
▁kullanmamız	-11.6627
▁bireyleri	-11.663
▁rahatsızlık	-11.6631
▁teknolojide	-11.6631
▁kuşu	-11.6632
▁planlar	-11.6632
▁buluşma	-11.6633
▁korktu	-11.6633
▁şansım	-11.6634
▁gor	-11.6635
▁şekillerini	-11.6636
dırlar	-11.6639
dığınız	-11.664
▁ba	-11.664
▁kılmak	-11.6643
▁toplantısı	-11.6643
artmaya	-11.6645
▁yansı	-11.6648
▁suçlular	-11.6651
▁köpeği	-11.6651
th	-11.6651
▁ilerledik	-11.6651
▁gelene	-11.6652
▁ihtiyacını	-11.6653
▁kullanacak	-11.6654
▁bölünmüş	-11.6654
▁ekonomimiz	-11.6656
larınızda	-11.6656
▁450	-11.6658
▁basma	-11.6659
▁organizasyonu	-11.6659
▁uyandı	-11.6659
▁olmayacağı	-11.6665
id	-11.6665
▁Dokuz	-11.6667
▁kaçın	-11.6667
▁kimliği	-11.6667
▁başvuru	-11.6668
▁yöneticiler	-11.6669
ilen	-11.6672
▁aldığında	-11.6674
▁açılıyor	-11.6676
▁sayıdaki	-11.6678
▁katlama	-11.6679
▁yaşları	-11.668
fasında	-11.6681
▁oluşum	-11.6681
▁melodi	-11.6683
▁kitaplarını	-11.6685
▁istediğinizde	-11.6687
▁Meydanı	-11.6692
▁52	-11.6693
▁bazılarına	-11.6695
▁tarzını	-11.6695
▁paraları	-11.6695
▁pazarın	-11.6696
▁etmişler	-11.6697
▁petrolü	-11.6699
▁buluyorlar	-11.6699
▁kaydetmek	-11.6702
▁gösterebiliri	-11.6704
▁düğmey	-11.6705
▁girdiği	-11.6711
▁üretebiliyor	-11.6711
▁olasılıkları	-11.6712
ımın	-11.6717
▁bırakmaya	-11.6718
▁sokaklarında	-11.6718
▁biyolojide	-11.6719
lanacak	-11.6722
▁sorgulama	-11.6724
▁46	-11.6725
▁yaramadı	-11.6725
▁numaraları	-11.6726
▁belirliyor	-11.6726
▁bilgisayarla	-11.6735
leştirmeye	-11.6738
▁Bang	-11.6738
▁asil	-11.6738
tor	-11.6739
▁gösterim	-11.674
▁durumdalar	-11.6741
▁KA	-11.6742
▁Cha	-11.6743
▁toplandı	-11.6744
▁Temiz	-11.6744
▁Akşam	-11.6745
▁insancıl	-11.6745
▁portakal	-11.6745
▁kâğıt	-11.6745
▁tasavvur	-11.6745
▁galon	-11.6745
▁analog	-11.6745
▁sonda	-11.6746
▁karakteristik	-11.6746
▁kasıtlı	-11.6746
▁Genetik	-11.6747
▁senkroniz	-11.6747
▁Dick	-11.6747
▁MT	-11.6747
▁Christoph	-11.6747
▁yanlız	-11.6748
▁husus	-11.6748
▁kotu	-11.675
▁sanatçısı	-11.675
▁vuran	-11.6752
▁asansör	-11.6752
digim	-11.6752
▁politikasını	-11.6753
▁kontrollü	-11.6753
▁aslan	-11.6754
▁çıkınca	-11.6754
▁kötüydü	-11.6755
▁kolları	-11.6756
▁kızıl	-11.6757
▁Karbon	-11.6758
▁doğar	-11.6759
▁yeniliğin	-11.6759
▁rüzgarın	-11.676
▁koru	-11.676
▁Walter	-11.6762
▁öğreten	-11.6765
▁döngüsünü	-11.6765
▁Büyüme	-11.6766
▁tartış	-11.6766
liğinde	-11.6767
▁Power	-11.6768
▁mimarlar	-11.6771
▁alındığında	-11.6771
▁görebilmek	-11.6773
▁bekleyin	-11.6774
▁salondaki	-11.6775
▁planlaması	-11.6775
▁vazgeç	-11.6777
▁emir	-11.678
▁geometrik	-11.6781
tif	-11.6782
▁kurduğum	-11.6782
▁düşünmemişti	-11.6784
▁isteseydi	-11.6784
meli	-11.6784
▁takımımız	-11.6785
▁vatandaşı	-11.6785
ğım	-11.6785
▁kalıyorlar	-11.6786
▁besleme	-11.6786
▁faydalan	-11.6787
▁kombinasyonu	-11.6789
▁topladım	-11.6792
▁çalışıyorlardı	-11.6795
▁dostum	-11.6795
▁sis	-11.6796
▁hayaller	-11.6796
▁verisi	-11.6798
▁takıyor	-11.68
▁dikkatimizi	-11.68
▁noktalarını	-11.6801
▁gönderi	-11.6802
▁mutfakta	-11.6802
maz	-11.6811
ılır	-11.6813
▁ayrıldım	-11.6815
▁önleme	-11.6816
▁Akademi	-11.6816
▁bacaklarını	-11.6819
▁katmanı	-11.6819
▁kaderi	-11.6821
▁Anna	-11.6824
▁Kansa	-11.6827
▁kaybetmek	-11.6829
▁besleniyor	-11.6829
▁kayıtlar	-11.683
▁ateşli	-11.6833
▁sular	-11.6834
▁üzüm	-11.6836
▁olduğumda	-11.6836
▁malum	-11.6837
layabilirsiniz	-11.6838
▁yoludur	-11.6839
▁Yaşa	-11.6843
▁imge	-11.6845
▁ulaşabilir	-11.6849
▁çakıl	-11.6849
▁bazi	-11.6849
▁olmadığımı	-11.685
▁öldürür	-11.685
▁eleman	-11.6851
▁koro	-11.6852
▁biçimini	-11.6853
▁hamburger	-11.6853
cok	-11.6854
▁bulmakta	-11.6855
▁aldığınızda	-11.6855
rası	-11.6856
riz	-11.6857
▁kuşak	-11.6858
▁karım	-11.6859
▁format	-11.6862
▁binalarda	-11.6863
▁kolaydı	-11.6863
▁makinelerin	-11.6863
▁alışkın	-11.6864
larinda	-11.6864
sıdır	-11.6864
▁kullandıklarını	-11.6864
cektir	-11.6868
▁yaşlılar	-11.6871
▁bölme	-11.6874
▁öğrencilerimiz	-11.6876
▁sayısında	-11.6876
engin	-11.6876
▁çizgileri	-11.6877
▁şaşırttı	-11.6878
▁demiştir	-11.688
▁başardım	-11.6882
▁edeceği	-11.6883
▁tepkiler	-11.6884
▁anıt	-11.6886
▁izlerini	-11.6887
mayacak	-11.6889
▁aşısı	-11.6889
▁taşımaya	-11.6889
▁gösteriyorlar	-11.6891
▁Test	-11.6893
lacağız	-11.6893
▁söylemekte	-11.6893
gas	-11.6893
▁düşüncesini	-11.6893
▁görmemiz	-11.6894
▁anlamış	-11.6896
▁onarma	-11.6896
▁güneşte	-11.6896
▁filmlerin	-11.6897
dayken	-11.6898
▁ilgim	-11.6904
▁alçak	-11.6905
▁kaybettim	-11.6906
▁ülkemde	-11.6908
sky	-11.6908
▁Free	-11.6908
▁yaratılmış	-11.6909
▁kaçını	-11.691
▁değilsin	-11.6912
▁yaptırmak	-11.6914
▁Kendilerini	-11.6915
▁kuşları	-11.6917
lanmamış	-11.6917
▁sağlamış	-11.6918
▁seviyorlar	-11.6918
▁bedenin	-11.6919
▁yöntemini	-11.692
▁ihtimaliniz	-11.6921
▁Sovyetler	-11.6922
▁uçma	-11.6924
▁azaltabilir	-11.6928
▁okuyu	-11.6928
▁ağda	-11.693
leştirilmesi	-11.6932
▁Kadınları	-11.6933
▁yapamam	-11.6935
▁karakterin	-11.6935
üyle	-11.6936
lacaksınız	-11.6936
▁fareler	-11.6941
▁yorumu	-11.6941
▁pozisyonda	-11.6942
▁Askerler	-11.6947
▁reaksiyon	-11.6947
▁ritmi	-11.6948
▁şahs	-11.6954
▁şaşkın	-11.6955
▁değilmiş	-11.6955
▁senelik	-11.6956
▁ulaşabiliyor	-11.6963
▁Ka	-11.6965
▁bloğu	-11.6971
▁gösterilmiş	-11.6971
▁Jud	-11.6971
▁vur	-11.6971
▁iyileştir	-11.6972
▁giyiyor	-11.6973
▁toplumunu	-11.6973
▁yükselişi	-11.6976
▁unun	-11.6977
▁Adamı	-11.6979
▁zincir	-11.6981
▁ortamlarda	-11.6982
▁karadelik	-11.6985
▁Gelişim	-11.6986
▁soya	-11.6988
▁anla	-11.6989
▁kesilmiş	-11.699
▁yetmez	-11.6991
▁pay	-11.6993
▁gitar	-11.6994
▁kazara	-11.6994
▁yürütme	-11.6996
▁politikacıların	-11.7003
▁Geniş	-11.7004
▁geçirecek	-11.7004
▁vermedi	-11.7006
▁bilimadamı	-11.7008
▁akın	-11.7011
▁unut	-11.7012
▁Mich	-11.7014
▁kaçınma	-11.7014
BE	-11.7016
▁şekillendire	-11.7017
▁silikon	-11.7018
▁yöntemin	-11.7018
▁arasın	-11.7022
▁genişliyor	-11.7025
▁iyiyiz	-11.7026
▁icra	-11.7027
lanma	-11.7028
▁sorumlulukları	-11.7028
▁kitaplarında	-11.7028
▁stüdyo	-11.7031
▁kariyerimi	-11.7034
▁katında	-11.7038
▁öneriyor	-11.7038
▁sendromu	-11.7039
▁ellerim	-11.7039
▁bulgular	-11.704
▁Umuyoru	-11.7042
▁korunmuş	-11.7042
▁kardeşimi	-11.7044
▁Oo	-11.7046
▁yüzleşmek	-11.7047
▁anneleri	-11.705
▁başlat	-11.7052
▁belirledik	-11.7052
▁oyuncuları	-11.7052
▁bedel	-11.7052
▁belir	-11.7053
▁mamut	-11.7055
▁hissettire	-11.7056
▁Dala	-11.7058
▁hazırdı	-11.7059
▁Fotoğraf	-11.706
▁Karmaşık	-11.7062
all	-11.7063
▁topladı	-11.7064
▁yemekleri	-11.7064
larınızın	-11.7065
▁üretecek	-11.7066
▁Kep	-11.7068
▁astronot	-11.7068
▁sonuncusu	-11.7069
▁bilirler	-11.7071
▁sitesinde	-11.7071
▁diyeceğim	-11.7071
acağı	-11.7072
▁ırkçı	-11.7073
▁polisler	-11.7073
▁edemedi	-11.7075
▁benliğin	-11.7076
▁itti	-11.7078
▁vardi	-11.7079
▁isabet	-11.7082
▁babaları	-11.7084
▁patern	-11.7084
▁Liberya	-11.7084
▁sure	-11.7086
▁Canlı	-11.7088
▁primat	-11.7089
▁ilahi	-11.709
▁şöyleydi	-11.7092
▁Moda	-11.7093
▁kırıcı	-11.7094
▁başlarda	-11.7094
▁imkân	-11.7096
▁Hastane	-11.7097
▁Lübnan	-11.7098
▁duymuştu	-11.7098
▁vatandaşların	-11.7098
▁kopru	-11.7099
▁Kosova	-11.71
uazzam	-11.7102
▁sörf	-11.7102
▁Adalet	-11.7102
▁Joseph	-11.7102
▁Namibya	-11.7102
▁Nükleer	-11.7102
▁Oklahoma	-11.7102
▁kollektif	-11.7102
▁Alpha	-11.7102
▁ortaklaşa	-11.7102
meyiz	-11.7102
▁Venedik	-11.7103
▁bilimadamları	-11.7103
▁bekar	-11.7103
▁Nisan	-11.7103
▁ölçülebilir	-11.7103
▁sürmek	-11.7103
▁nitelikte	-11.7104
▁yaratılan	-11.7104
▁gerçi	-11.7104
▁besleyen	-11.7104
▁grubunda	-11.7104
▁ruhani	-11.7104
▁yardim	-11.7104
▁1975	-11.7104
▁Güçlü	-11.7104
▁dengeli	-11.7105
▁prova	-11.7105
▁uygulanan	-11.7105
▁1500	-11.7106
▁Umut	-11.7106
▁oluşturulan	-11.7106
▁bekleniyor	-11.7106
▁Gul	-11.7106
▁yapabilen	-11.7107
▁umu	-11.7108
▁ekleyerek	-11.7108
▁ömrünü	-11.7108
▁Engelli	-11.7108
▁evlen	-11.7109
▁otistik	-11.7109
▁Kuantum	-11.711
rim	-11.711
▁yapımcısı	-11.711
▁Cent	-11.711
▁görmediğimiz	-11.7111
▁zafer	-11.7115
▁Kenne	-11.7115
▁çözünürlükte	-11.7116
▁Bati	-11.7116
▁deyimi	-11.7118
▁filler	-11.712
▁düşündüğünüzü	-11.7121
▁geçtiğinde	-11.7121
▁anlayabiliyor	-11.7122
▁Görüyor	-11.7123
▁tanesinde	-11.7123
▁zorlayıcı	-11.7124
▁hükumet	-11.7124
▁geçmişin	-11.7124
▁tüketiyor	-11.7125
▁müzikal	-11.7127
▁tutuluyor	-11.7128
▁ilgilendiğimiz	-11.7128
▁toplumumuz	-11.7129
▁geçirmez	-11.7129
▁sandviç	-11.7131
▁niteliğinde	-11.7133
▁gama	-11.7137
▁merkezde	-11.7137
▁uçta	-11.7139
▁hazırlık	-11.714
▁tanıyan	-11.714
ladığı	-11.714
▁kopyasını	-11.7142
▁coğrafya	-11.7143
▁örgü	-11.7143
▁konuşacak	-11.7144
▁ped	-11.7145
▁sorunlu	-11.7147
▁fi	-11.7147
▁artırma	-11.7148
▁eyaletinde	-11.7148
▁zorlukların	-11.7149
▁seçici	-11.7149
▁Ateş	-11.7151
▁Sesi	-11.7151
▁gelişmesi	-11.7151
▁severiz	-11.7152
▁artırmak	-11.7155
▁yağlı	-11.7158
▁Cumhuriyetçi	-11.7159
▁kariyerim	-11.7161
▁buzulların	-11.7162
▁kurtarabilir	-11.7163
▁başlarken	-11.7166
▁kitab	-11.7167
ban	-11.7168
▁psikolog	-11.7174
▁aklımızda	-11.7175
▁çocuğunuz	-11.7175
▁kazalar	-11.7176
▁Con	-11.7177
▁çerçevesinde	-11.7177
▁deniyoruz	-11.7178
▁isteğim	-11.718
▁çalışırsa	-11.718
▁güvenin	-11.7186
▁kitaplarda	-11.7186
▁yüzlerini	-11.7187
▁yıllarında	-11.7187
▁rasyonel	-11.7187
▁Risk	-11.7188
▁alışkanlık	-11.719
▁meşru	-11.7191
▁uçar	-11.7194
▁şahsi	-11.7195
▁sevin	-11.7198
▁söyleyemez	-11.7198
▁söylediğimiz	-11.72
har	-11.72
▁etkilenen	-11.72
▁tuvaletler	-11.7204
▁Liste	-11.7205
▁sakın	-11.7205
yapılabileceğini	-11.7207
▁binası	-11.7208
▁dalgalarını	-11.7208
ers	-11.7208
▁söylemiştim	-11.721
▁örnektir	-11.7211
▁başladığınızda	-11.7211
▁boşluklar	-11.7211
▁Lak	-11.7215
▁ürettikleri	-11.7215
▁kaçırma	-11.7216
▁arıların	-11.7217
▁vermem	-11.7219
▁email	-11.7219
▁balıkçı	-11.7219
▁Kanadalı	-11.7219
▁büyütmek	-11.722
▁zekanın	-11.722
▁Bebek	-11.7221
▁iletmek	-11.7221
▁İçinizde	-11.7222
▁getirin	-11.7224
▁yazabilir	-11.7227
▁birkaçını	-11.7228
▁açılış	-11.7228
▁yürüyordu	-11.7228
▁diliminde	-11.7229
▁cenaze	-11.723
▁Vinc	-11.7234
▁Çift	-11.7235
▁anlayı	-11.7235
▁dert	-11.7236
▁yayma	-11.7237
▁karma	-11.7237
▁statü	-11.7241
▁büyüklük	-11.7242
▁suçlama	-11.7242
▁yükselmesi	-11.7244
▁başkanlı	-11.7244
▁hayalet	-11.7246
▁anlatın	-11.7247
▁sebeplerde	-11.7247
▁serisi	-11.7248
▁adresi	-11.7249
▁gercek	-11.7249
▁ulaşmış	-11.7252
▁kapattı	-11.7252
▁kapama	-11.7254
▁lük	-11.7255
▁birikim	-11.7256
▁hayvanlarla	-11.7256
▁şema	-11.7257
▁kaçtı	-11.7258
▁yerlerinden	-11.7258
▁kullanıldığı	-11.726
▁hissedebilir	-11.7261
▁hatırla	-11.7262
▁keşfin	-11.7262
▁düşüncelerin	-11.7264
▁mezar	-11.7266
▁zihnin	-11.7267
▁bayrağı	-11.7267
▁plaka	-11.7269
▁yaratı	-11.7272
▁gelişmeye	-11.7273
▁dönemlerde	-11.7274
▁Çağı	-11.7276
▁değişikliğin	-11.7277
aliba	-11.7278
▁du	-11.7279
▁Deney	-11.7279
▁pasta	-11.7283
▁şeylerdi	-11.7284
▁çıkarları	-11.7286
▁kitabımı	-11.7287
▁hazırlanmış	-11.7289
imize	-11.7289
▁tanışmak	-11.729
▁uçurum	-11.7293
▁üçünü	-11.7293
▁amaçla	-11.7293
▁hedefleri	-11.7295
▁oğlan	-11.7296
▁yaklaşı	-11.7297
net	-11.7298
▁yapabiliyorlar	-11.7298
▁zekası	-11.7298
▁hastalığını	-11.7299
▁topluluğunu	-11.7299
erken	-11.7301
▁tabanı	-11.7302
▁düşünmüş	-11.7305
▁kocam	-11.7306
▁çiftçilerin	-11.7307
▁verirdi	-11.7311
▁gösteriyoruz	-11.7316
▁isyan	-11.7317
▁getirilmiş	-11.7326
▁doğuşu	-11.7327
▁karbonu	-11.7327
▁malzemesi	-11.7327
▁anlatabilir	-11.7328
▁dediğimde	-11.7328
▁yaşarlar	-11.7331
▁güçsüz	-11.7332
▁vaaz	-11.7334
▁salgı	-11.7335
▁ö	-11.7337
▁kimseler	-11.7338
▁bekliyorlar	-11.7339
yon	-11.7342
▁anlatım	-11.7343
▁Gol	-11.7343
▁taşıy	-11.7346
▁pantolon	-11.7346
ör	-11.7347
▁çözdü	-11.7347
▁çizimi	-11.735
▁Hindistanda	-11.7355
▁almasını	-11.7355
▁eklem	-11.7356
▁yaptıklarımız	-11.7358
▁danışman	-11.7358
▁önümde	-11.7364
▁eylemleri	-11.7364
HC	-11.7367
▁duruyorlar	-11.7368
▁hatırlay	-11.7368
▁gücünde	-11.7368
▁Hayatı	-11.7372
▁nöronu	-11.7372
▁gösteriyordu	-11.7372
irler	-11.7373
▁derste	-11.7375
▁evini	-11.7377
▁komplo	-11.7378
▁olaydı	-11.7381
▁platformu	-11.7382
▁keser	-11.7382
▁ayrılmak	-11.7382
▁ayrıcalık	-11.7382
▁sigortası	-11.7383
▁çalışırı	-11.7386
▁Şuan	-11.7388
▁iletişimin	-11.7389
▁MA	-11.739
▁içecek	-11.7391
▁saçları	-11.7391
▁aktiviteler	-11.7391
▁Hol	-11.7394
▁dönüştürdü	-11.7395
▁Julia	-11.7397
▁medeniyet	-11.7397
▁kurt	-11.7398
▁erkeği	-11.7399
▁Bruc	-11.7402
▁evinizde	-11.7402
▁enstitü	-11.7402
▁oyuncusu	-11.7403
▁Şiddet	-11.7404
▁Bab	-11.7405
▁hassasiyet	-11.7405
▁değerlerin	-11.7406
▁görmemiş	-11.7407
▁güneyinde	-11.7408
▁bilet	-11.7411
▁Köpek	-11.7411
▁sektörde	-11.7412
▁küp	-11.7414
▁olasılığını	-11.7417
▁kestirme	-11.7419
▁aynıdır	-11.7419
▁sız	-11.742
▁meyilli	-11.7424
▁girebilir	-11.7428
▁destekler	-11.7428
▁gör	-11.743
etho	-11.7431
▁deneyeceğim	-11.7435
▁yabancılar	-11.7441
▁koleksiyon	-11.7441
▁problemlerini	-11.7444
▁genişliği	-11.7446
▁boğa	-11.7449
▁büyüdüğünü	-11.7451
▁Philip	-11.7452
▁Ölü	-11.7456
▁Post	-11.7457
▁kalınlığında	-11.7457
▁salonu	-11.7457
▁Cam	-11.7458
▁bulmuştu	-11.7458
▁aşkı	-11.7459
▁sorgu	-11.7459
▁kullandığını	-11.746
kac	-11.7462
▁Belirl	-11.7464
lemek	-11.7465
▁zorluyor	-11.7466
▁Pho	-11.7466
▁zincirinde	-11.7466
▁saklama	-11.7468
▁bölgesini	-11.7469
▁tutum	-11.7469
▁geçirebilir	-11.7469
▁itme	-11.7469
▁İnşa	-11.7471
▁86	-11.7471
▁Kabul	-11.7471
▁yaşamları	-11.7471
▁sevk	-11.7472
▁teröristler	-11.7472
▁eBay	-11.7473
▁telafi	-11.7473
▁agresif	-11.7473
▁iPad	-11.7473
▁Android	-11.7473
▁Özgürlük	-11.7473
▁Şaka	-11.7473
▁Ailesi	-11.7473
▁işbirlikçi	-11.7473
▁kapsıyor	-11.7473
▁Katolik	-11.7474
▁hücum	-11.7474
▁eroin	-11.7474
▁pul	-11.7474
▁kısır	-11.7474
▁öfkeli	-11.7474
▁alaycı	-11.7474
▁testere	-11.7475
▁köklü	-11.7475
▁orantılı	-11.7475
▁toplayıcı	-11.7475
▁insa	-11.7475
▁yapabilirsin	-11.7476
▁kolera	-11.7476
▁ingilizce	-11.7476
▁Beck	-11.7476
▁öğrenim	-11.7477
▁tahliye	-11.7477
▁büyüktü	-11.7478
▁beyinlerini	-11.7478
▁beslenen	-11.7478
▁sıralama	-11.7479
▁öğrendiğiniz	-11.7479
▁kullanabilirim	-11.7479
town	-11.748
tansa	-11.748
▁eyaleti	-11.7483
▁tarımsal	-11.7483
▁şaşırdı	-11.7483
▁Jenni	-11.7484
▁politikaları	-11.7488
▁sorulardan	-11.7488
▁hissediyoruz	-11.7489
▁kurtaran	-11.749
ecektir	-11.749
▁koşan	-11.749
▁bilmeyen	-11.749
▁Güven	-11.7491
▁Lama	-11.7492
▁gözümü	-11.7492
▁belirten	-11.7492
▁keşfedilmemiş	-11.7493
▁istiyorsan	-11.7495
nlısı	-11.7495
▁eylemler	-11.7496
▁yiyorlar	-11.7496
▁Söylemek	-11.7496
▁değişebilir	-11.7497
▁kahramanlar	-11.7498
▁aşikar	-11.7499
▁omuz	-11.7502
▁Hani	-11.7505
▁dinlemeye	-11.7505
▁videosunu	-11.7506
▁yapmadığı	-11.7506
▁ideolojik	-11.7507
▁yansıma	-11.7507
▁Doktorlar	-11.7507
▁kitlesi	-11.7508
▁felcini	-11.7509
▁imkanlar	-11.7509
digimiz	-11.7509
▁Sorunu	-11.751
▁ar	-11.7512
▁ulaş	-11.7514
▁gezegenlerde	-11.7515
▁duş	-11.7515
▁dinazor	-11.7518
▁sorduğumuz	-11.7518
▁Siyahi	-11.7518
▁hazırda	-11.7519
▁destekli	-11.7522
landığı	-11.7522
▁hikayede	-11.7523
▁sayıların	-11.7524
▁kodunu	-11.7525
▁bilmediğim	-11.7529
▁vücudunuzun	-11.753
▁abartılı	-11.753
▁icadı	-11.7533
▁Van	-11.7534
sizin	-11.7536
▁Öğrendiğim	-11.7536
▁güvenliğini	-11.7537
▁yakınlarda	-11.7539
▁yapımcıları	-11.754
▁parkın	-11.754
▁uzerin	-11.754
▁dusunce	-11.7541
▁yahut	-11.7546
▁mülkiyet	-11.7546
▁görüntünü	-11.7546
▁alışkanlıkları	-11.7547
▁listesinde	-11.7548
▁laboratuvarımda	-11.7549
▁bulunmuş	-11.755
▁harcamaları	-11.755
▁ko	-11.7552
▁girdiğiniz	-11.7554
▁ser	-11.7554
leştirme	-11.7554
emez	-11.7555
▁karlı	-11.7555
▁yükselme	-11.7556
▁yaşamanın	-11.7556
▁duruş	-11.7557
▁olduğumuzda	-11.7557
▁iflas	-11.7558
▁hücresel	-11.7558
▁suçlar	-11.7559
▁anladığım	-11.7559
▁anlaşmalar	-11.7559
art	-11.756
▁milyonun	-11.7562
▁harcadığımız	-11.7565
▁İnsanın	-11.7566
▁açmış	-11.7567
▁Mahkeme	-11.7567
▁damarı	-11.7568
▁yükseklik	-11.7569
▁verimliliği	-11.757
▁şüpheli	-11.7574
▁açıktı	-11.7574
▁aracımız	-11.7576
▁ülkem	-11.7576
▁bakarsan	-11.7578
▁şaşır	-11.7579
▁düzenledik	-11.7579
▁genişleye	-11.758
▁günümüzdeki	-11.7582
▁harcar	-11.7582
▁hücreli	-11.7583
▁basitlik	-11.7589
▁simge	-11.759
▁timsah	-11.7591
layalım	-11.7592
▁resimdeki	-11.7592
▁ilerlemeye	-11.7592
▁bilgisayarlara	-11.7593
ıyordu	-11.7594
▁fikrinden	-11.7594
▁göstermesi	-11.7594
▁kaldığımız	-11.7596
▁Jac	-11.7597
▁kü	-11.7597
▁oturduğunuz	-11.7599
▁Okuma	-11.7599
▁eşitsizliğin	-11.76
▁ölçme	-11.7601
▁anlayabileceği	-11.7601
▁manevra	-11.7602
▁tasarla	-11.7604
▁kaplıyor	-11.7605
▁tanıştır	-11.7605
CD	-11.7606
▁isimler	-11.761
▁elektro	-11.7611
▁itiyor	-11.7612
▁Anneler	-11.7612
▁okuy	-11.7614
▁cazi	-11.7614
▁istemiyorlar	-11.7615
▁zihnimde	-11.7616
▁durumdaydı	-11.7618
▁başları	-11.7618
▁uzanı	-11.7618
▁benzediği	-11.762
▁alabilecek	-11.762
▁ilişkilerin	-11.7621
▁düzeyi	-11.7624
▁seviyelerde	-11.7624
▁Tabiki	-11.7625
▁geleceğimizi	-11.7626
▁tanışma	-11.7627
▁yönlendiriyor	-11.7628
▁Sara	-11.7629
▁olamadı	-11.7629
▁MoM	-11.7629
▁istemiş	-11.7631
▁büyükannem	-11.7632
▁katılımcılar	-11.7632
▁devreler	-11.7632
▁keşfediyor	-11.7634
▁konuşabilir	-11.7634
▁baktığı	-11.7635
▁ödüller	-11.7638
▁içindeyiz	-11.7639
▁savaştı	-11.7639
▁yapımında	-11.7639
▁vizyonu	-11.764
▁dı	-11.7641
▁değişikliklerin	-11.7641
▁yanımız	-11.7644
▁reddetti	-11.7645
▁yolların	-11.7645
▁davranır	-11.7648
▁giderdi	-11.7649
est	-11.7653
▁cins	-11.7658
ill	-11.7658
▁hastalıklarda	-11.7663
▁tekil	-11.7665
▁kalitede	-11.7667
▁gez	-11.7667
▁taşınıyor	-11.7671
▁aktörler	-11.7675
▁vermeme	-11.7679
▁projelerin	-11.768
▁senesinde	-11.7681
▁korkarı	-11.7682
▁problemle	-11.7683
▁teksti	-11.7685
▁data	-11.7686
▁binde	-11.7687
▁sente	-11.7687
▁yiyeceklerin	-11.7687
▁mahkumlar	-11.7688
▁sarmal	-11.7689
▁sahiptim	-11.769
oid	-11.7691
▁kırmak	-11.7691
▁solar	-11.7692
▁rakamları	-11.7693
▁toplay	-11.7693
▁kumaş	-11.7693
meden	-11.7694
▁katılma	-11.7696
▁özünü	-11.7699
▁Çölü	-11.77
▁okyanuslarda	-11.77
▁Bel	-11.7702
▁destekledi	-11.7702
my	-11.7702
▁müziğ	-11.7703
▁gelmemiz	-11.7706
▁başkalarını	-11.7709
▁yapmıyorlar	-11.771
▁Arabalar	-11.7712
▁fizikçiler	-11.7712
▁tura	-11.7713
▁şablon	-11.7713
▁vermelerini	-11.7713
▁olmadığım	-11.7715
▁başlatma	-11.7716
▁deneyimleye	-11.7716
▁notları	-11.7718
▁atmosferin	-11.7721
▁bebekleri	-11.7723
▁bulabiliyor	-11.7731
ünüzü	-11.7731
▁izley	-11.7733
▁parkta	-11.7735
ebileceğini	-11.7737
▁havuzu	-11.7739
▁ihanet	-11.774
▁Kas	-11.7743
▁reform	-11.7744
ünü	-11.7744
▁simülasyonu	-11.7744
▁il	-11.7747
▁Kitabı	-11.7748
laştırma	-11.7748
▁kıyafetler	-11.7752
▁böylesi	-11.7754
▁yosun	-11.7755
▁Günümüz	-11.7757
▁Et	-11.7757
▁kurtulan	-11.7757
▁buzdolabı	-11.7757
▁vaktim	-11.7759
▁korsan	-11.776
kullanılabilecek	-11.7763
▁Motor	-11.7764
ydılar	-11.7765
▁endişeli	-11.7767
▁izleyiciler	-11.7767
▁kova	-11.7767
▁öyküsü	-11.7768
▁dilek	-11.7769
▁evlerde	-11.777
▁birçoğunuz	-11.7771
▁Yol	-11.7772
▁etmediği	-11.7772
▁ettiğimi	-11.7772
▁sebepleri	-11.7773
▁zihni	-11.7775
▁sadakat	-11.7776
▁Kitap	-11.7777
▁toplumumuzda	-11.7778
▁tabak	-11.7779
gini	-11.7781
▁niyet	-11.7782
▁otonom	-11.7782
▁Deneyim	-11.7782
lediğimiz	-11.7783
▁kurtuldu	-11.7784
▁mahkemey	-11.7787
▁kesiminde	-11.779
▁Ur	-11.779
▁çarpıyor	-11.779
▁yüce	-11.7792
lerimize	-11.7792
▁birazını	-11.7793
▁havası	-11.7794
▁mesajını	-11.7797
▁teli	-11.7797
▁gözetim	-11.7799
▁örneklerde	-11.7801
▁em	-11.7801
▁sakat	-11.7801
▁keşfeder	-11.7804
ilmis	-11.7808
▁arıları	-11.7808
▁rehber	-11.7809
▁sünger	-11.7809
▁gezegene	-11.781
▁görünümü	-11.781
▁adanmış	-11.7811
▁Cumhuriyeti	-11.7811
▁sorumlusu	-11.7812
▁matematikte	-11.7813
▁görevim	-11.7815
▁bilimcisi	-11.7815
▁yaratıcılığın	-11.7815
▁koruna	-11.7817
▁kuyruğu	-11.7818
▁İçeri	-11.7819
▁soktu	-11.7823
▁Portekiz	-11.7823
gu	-11.7826
▁Çocuklarım	-11.7828
▁şeridi	-11.7828
▁edilmemiş	-11.783
▁danışmanlı	-11.7831
▁spektrum	-11.7832
▁dağılımını	-11.7833
▁birşeydi	-11.7834
▁Bağımsız	-11.7834
▁bileşenler	-11.7834
▁paramız	-11.7836
▁müfredat	-11.7838
▁besliyor	-11.7839
▁ellerin	-11.784
▁Bahsettiğim	-11.7842
▁yoksullar	-11.7842
lmayacağını	-11.7844
▁Rai	-11.7845
▁bahsediyordu	-11.7845
▁ağacının	-11.7848
▁kalmamıştı	-11.7852
▁okuyacağım	-11.7852
▁yanlarında	-11.7852
▁siteleri	-11.7853
▁tansiyon	-11.7853
▁açılma	-11.7855
hol	-11.7856
▁duyurdu	-11.7857
▁Pantheon	-11.7857
▁Samanyolu	-11.7857
▁Ushahidi	-11.7857
▁başbaşa	-11.7857
▁koordine	-11.7857
iribati	-11.7857
▁kargaşa	-11.7857
▁Özür	-11.7857
▁High	-11.7857
▁ıssız	-11.7857
▁Anlatıcı	-11.7857
▁Hubb	-11.7857
▁apaçık	-11.7858
▁Federal	-11.7858
▁Gördüğümüz	-11.7858
▁Teknik	-11.7858
▁Patent	-11.7858
▁kaplayan	-11.7858
▁eşliğinde	-11.7858
▁Lagos	-11.7858
▁bitireceğim	-11.7859
▁vuru	-11.7859
▁yüzbinlerce	-11.7859
▁kusurlu	-11.7859
▁ekosistemin	-11.7859
▁patoloji	-11.7859
▁ilintili	-11.7859
▁sevdiğini	-11.7859
▁akustik	-11.786
▁idrar	-11.7861
▁ayrıcalıklı	-11.7863
▁yetişe	-11.7863
▁geçirdiği	-11.7863
▁baktığında	-11.7864
▁Şehrin	-11.7865
▁öneriyorum	-11.7865
▁hekim	-11.7866
▁gribi	-11.7867
▁olmayışı	-11.7867
▁geçeceğim	-11.7867
▁anlaşılabilir	-11.7868
▁yollara	-11.7868
▁yıkama	-11.7869
▁zorlaya	-11.7869
▁söylediklerini	-11.7869
table	-11.787
▁sahası	-11.7872
▁verilecek	-11.7872
▁olmalısın	-11.7873
▁gökada	-11.7873
▁Gülmeler	-11.7875
▁doğuyor	-11.7875
▁gazeteciler	-11.7876
▁sürdüğü	-11.7876
▁girdiğinde	-11.7877
▁diyorlardı	-11.7877
▁yüzyıllardır	-11.7878
▁arayış	-11.7881
▁yorumlama	-11.7881
▁maymunların	-11.7881
▁Kent	-11.7881
▁lobi	-11.7882
▁mühendislerin	-11.7884
▁bul	-11.7884
▁zorundasın	-11.7885
▁Yıld	-11.7887
▁deneyimim	-11.7887
▁taşın	-11.7888
▁diyabet	-11.7892
▁oluşumunu	-11.7892
▁â	-11.7894
▁Dil	-11.7894
▁durduru	-11.7895
▁görmekte	-11.7895
▁Sahara	-11.7897
▁nüfuz	-11.7899
▁itiraz	-11.79
▁mekanizmaları	-11.7901
▁uçu	-11.7901
▁hazırladım	-11.7901
▁Aklım	-11.7902
ernik	-11.7902
▁sevmek	-11.7903
▁örtüsünü	-11.7905
▁kanallar	-11.7907
▁hikâyesi	-11.7907
▁televizyonu	-11.7907
▁hayvanat	-11.7907
▁değişimini	-11.7908
▁Mil	-11.7908
▁kuraklık	-11.7908
larini	-11.7911
▁anlatıyordu	-11.7911
▁kanlı	-11.7912
ans	-11.7916
▁noktaların	-11.7916
▁Lord	-11.7917
▁hissettikleri	-11.7918
▁çekilme	-11.7918
▁kapıları	-11.792
▁öğrenin	-11.7922
etmenin	-11.7925
▁bloklar	-11.7925
▁kopyalama	-11.7926
▁satmaya	-11.7926
▁benzerlik	-11.7926
▁helikopter	-11.7927
▁kaydetme	-11.7928
▁Jon	-11.7928
▁sanıyordu	-11.793
▁objeyi	-11.793
lendirme	-11.7931
▁belgeler	-11.7931
▁gecesi	-11.7933
▁oluşturdular	-11.7935
▁İşleri	-11.7939
▁inancım	-11.7939
▁kalıyordu	-11.794
▁haritaları	-11.794
▁duygularını	-11.7941
▁harfler	-11.7942
▁kazası	-11.7942
▁getirmesi	-11.7943
▁filminde	-11.7945
▁imkânı	-11.7946
diğiniz	-11.7946
▁geliştirdiği	-11.7946
▁organizasyonun	-11.7946
▁şehirlerimiz	-11.7949
▁başladıklarında	-11.7951
▁kuşun	-11.7952
▁yazması	-11.7952
▁denizlerde	-11.7952
▁alınıyor	-11.7952
▁gerçeklikte	-11.7952
▁nehirler	-11.7954
▁başarısını	-11.7955
▁başkalarıyla	-11.7957
▁kişilerden	-11.7958
mily	-11.7959
▁Bert	-11.796
▁yükselir	-11.7962
sizlik	-11.7964
▁İşler	-11.7965
▁sesim	-11.7966
▁Evan	-11.7968
▁yönler	-11.7968
lendi	-11.7969
▁hackerlar	-11.7969
▁kurumlarda	-11.7969
▁oranın	-11.7971
▁içeriğini	-11.7972
ık	-11.7972
▁toplanıyor	-11.7975
▁dilleri	-11.7979
▁bilgelik	-11.798
▁olmadığımızı	-11.7981
▁veririz	-11.7981
▁saklamak	-11.7982
▁çabalar	-11.7982
▁başkenti	-11.7983
▁State	-11.7984
▁paneli	-11.7985
▁Arkadaşım	-11.7989
▁bilgilendirme	-11.7993
▁raporu	-11.7994
bes	-11.7996
saydım	-11.7997
▁bildiğimizi	-11.7997
▁sahada	-11.7998
▁azalması	-11.7999
▁alev	-11.7999
▁ölmüştü	-11.8
▁kac	-11.8002
▁insanlardı	-11.8003
▁bağladı	-11.801
▁sırası	-11.8011
▁canlandırmak	-11.8016
▁varil	-11.8016
▁gözlemler	-11.8016
▁karesi	-11.8018
▁büyümekte	-11.8021
▁politikalar	-11.8022
▁NA	-11.8023
▁alınır	-11.8023
▁fırsatını	-11.8024
▁davranışların	-11.8024
▁buralar	-11.8025
meleri	-11.8027
▁olanakları	-11.8028
▁ailesinde	-11.8028
▁sığır	-11.803
▁kesintisi	-11.803
▁tanrılar	-11.8031
▁kaydını	-11.8032
▁birbirlerinin	-11.8034
▁motorlar	-11.8034
leyebilirsiniz	-11.8035
▁uçakların	-11.8036
▁kuzeyinde	-11.8037
▁zalim	-11.8037
▁tasarlay	-11.8039
▁kapatma	-11.804
▁sanatta	-11.804
▁kazma	-11.8041
▁adayı	-11.8042
▁gibiyiz	-11.8043
▁doğasında	-11.8046
▁çekebilir	-11.8048
▁bla	-11.8048
larımın	-11.8048
▁örneğim	-11.8048
▁zenginliği	-11.8051
▁istiridye	-11.8052
▁Yazı	-11.8053
▁Duru	-11.8055
▁dolaştı	-11.8057
▁Kural	-11.8058
▁safi	-11.8063
▁durdurabilir	-11.8069
▁kanalları	-11.8072
▁beşer	-11.8074
▁ilkesi	-11.8075
▁galaksilerin	-11.8076
▁destekleme	-11.8077
▁Devrim	-11.8078
▁çıkarmayı	-11.8078
▁gidebiliyor	-11.8078
edeyim	-11.8079
▁sayfada	-11.8081
▁görebilecek	-11.8082
▁Ger	-11.8082
▁yetkili	-11.8083
▁durduğu	-11.8084
▁proteini	-11.8085
▁istatistikleri	-11.8086
▁koşmak	-11.8086
▁ağırlığını	-11.8086
▁ilerlemeler	-11.8091
inize	-11.8094
▁konut	-11.8094
▁öğrendiği	-11.8095
▁ekleyebilir	-11.8096
▁Ak	-11.8098
▁alabileceğiniz	-11.8099
▁fenomeni	-11.8101
▁Oyuncu	-11.8101
▁yaşamda	-11.8106
▁boyutlar	-11.8108
▁kesimi	-11.811
▁yaratıldı	-11.811
▁Yazar	-11.8111
▁Öğle	-11.8116
▁gelişir	-11.8119
▁Mola	-11.8119
▁kaydettik	-11.812
▁ekibimiz	-11.812
▁olacakları	-11.812
▁dinleyen	-11.8122
▁araçlardan	-11.8123
▁Kağıt	-11.8124
rat	-11.8124
▁çekmiş	-11.8127
ilerinin	-11.8127
▁geliştirebilir	-11.8128
▁bölümün	-11.8129
▁yemeyi	-11.813
▁ekley	-11.8132
▁büyüdüğü	-11.8133
▁teoriler	-11.8134
▁makinesini	-11.8134
▁ES	-11.8136
▁dökme	-11.8137
▁yasaları	-11.8139
▁Gizli	-11.8141
▁varan	-11.8142
▁bozulmuş	-11.8143
▁form	-11.8145
▁memur	-11.8145
▁basar	-11.8145
▁ortalaması	-11.8146
ab	-11.8147
▁ikisinde	-11.8147
RNA	-11.8147
▁sayfaları	-11.8147
▁kapasitesini	-11.815
▁fincan	-11.815
▁ekibin	-11.8151
▁Okyanusun	-11.8152
▁yetişkinlerin	-11.8153
▁pili	-11.8153
▁patladı	-11.8154
▁Politik	-11.8154
▁kocası	-11.8158
▁unutmuş	-11.816
▁tonu	-11.816
▁kabileler	-11.816
▁fonksiyonları	-11.8163
▁çatlaklar	-11.8163
▁değişme	-11.8164
▁prosedür	-11.8167
▁belirtti	-11.8167
▁anlaması	-11.8167
▁işlemleri	-11.8168
ildi	-11.8172
▁Beatb	-11.8173
▁gözlük	-11.8173
▁bastı	-11.8174
▁Akademisi	-11.8175
▁Geliş	-11.8177
▁asfalt	-11.8178
layabileceğimiz	-11.8179
▁boz	-11.8179
▁atış	-11.8181
▁söylememe	-11.8181
MM	-11.8182
leşerek	-11.8182
▁arda	-11.8182
▁bellek	-11.8183
lamalıyız	-11.8184
▁beşi	-11.8186
▁tereddüt	-11.8187
▁sili	-11.8188
ego	-11.8189
▁insanlığı	-11.8192
▁söylemiyor	-11.8193
▁bataklık	-11.8194
▁Pal	-11.8196
▁hapishanede	-11.8197
tum	-11.8198
▁özelliklerin	-11.8198
▁erişti	-11.8201
▁bitmiş	-11.8202
▁Genom	-11.8205
▁uçağın	-11.8206
▁hasıla	-11.8207
[...]
