<unk>	0
<s>	0
</s>	0
▁.	-2.86709
▁,	-3.25711
▁bir	-3.85825
▁"	-4.14935
▁ve	-4.1816
▁	-4.40076
▁bu	-4.60331
n	-4.66573
▁'	-4.76334
k	-4.99639
a	-5.05725
lar	-5.15556
m	-5.16122
▁Bu	-5.19169
e	-5.19284
▁için	-5.21971
▁da	-5.24832
▁de	-5.41464
ler	-5.42566
▁Ve	-5.43345
▁çok	-5.46868
▁?	-5.51636
i	-5.55382
▁daha	-5.60222
t	-5.665
▁ki	-5.83107
▁var	-5.83955
ları	-5.85824
▁)	-5.88308
(	-5.88408
leri	-5.89287
▁:	-5.91315
▁gibi	-5.94273
la	-5.9516
▁olarak	-5.97429
de	-5.98024
da	-5.99729
▁şey	-6.01603
z	-6.06865
▁—	-6.08934
ya	-6.10534
▁ne	-6.11729
▁o	-6.11866
▁olan	-6.127
le	-6.1307
r	-6.15433
li	-6.16898
si	-6.17829
▁kadar	-6.19231
ı	-6.19533
l	-6.2015
den	-6.20366
ye	-6.23736
p	-6.25539
in	-6.26341
▁en	-6.27257
▁her	-6.28647
▁ya	-6.29539
nin	-6.32782
ü	-6.3332
s	-6.34287
dan	-6.35419
▁ile	-6.36702
▁değil	-6.36833
na	-6.377
ce	-6.39263
▁-	-6.44729
er	-6.45543
nın	-6.4619
▁iyi	-6.47645
▁zaman	-6.48023
y	-6.48024
ki	-6.4969
sı	-6.51023
▁olduğunu	-6.51507
▁ama	-6.52319
ma	-6.53627
en	-6.53905
▁büyük	-6.5494
▁Ama	-6.55548
ne	-6.56005
▁Bir	-6.57036
▁bunu	-6.57962
▁sonra	-6.58665
▁nasıl	-6.59898
ların	-6.62751
lı	-6.63199
an	-6.64257
yi	-6.64405
di	-6.65377
▁sadece	-6.6657
lerin	-6.6745
u	-6.68374
▁O	-6.7295
▁çünkü	-6.7498
ın	-6.75014
▁önce	-6.76481
▁şu	-6.7752
▁şekilde	-6.77996
dir	-6.7908
lerini	-6.79867
dır	-6.80257
▁yıl	-6.82029
▁fazla	-6.83139
▁iki	-6.83522
larını	-6.84308
lik	-6.87901
ş	-6.8961
ta	-6.90778
yı	-6.90819
▁aynı	-6.91075
▁;	-6.92003
▁yeni	-6.923
▁kendi	-6.92452
ca	-6.93542
▁insan	-6.93977
▁gerçekten	-6.94014
ni	-6.9624
▁Yani	-6.97707
▁Şimdi	-6.98433
▁hakkında	-6.99082
ti	-6.99466
lık	-7.00744
▁ben	-7.01869
▁benim	-7.03154
▁olduğu	-7.0374
▁mi	-7.04948
▁tüm	-7.05205
me	-7.06302
▁Ben	-7.06372
▁ilk	-7.0824
▁farklı	-7.09116
▁diğer	-7.09422
te	-7.10705
lara	-7.12333
▁başka	-7.12697
▁içinde	-7.13289
o	-7.14044
▁doğru	-7.14623
▁yok	-7.15321
▁insanlar	-7.15469
lere	-7.15801
▁ilgili	-7.16334
▁böyle	-7.16904
▁sahip	-7.16941
▁in	-7.17198
▁bile	-7.17642
▁aslında	-7.17665
sa	-7.18294
d	-7.19759
▁küçük	-7.20068
▁bunun	-7.20204
▁♫	-7.22342
tı	-7.22554
dı	-7.23885
▁burada	-7.2408
▁Gülüşmeler	-7.25276
▁veya	-7.26443
yla	-7.27111
▁biz	-7.27139
▁A	-7.27289
um	-7.28688
▁ise	-7.28852
▁biri	-7.29621
uz	-7.2971
▁önemli	-7.31151
im	-7.31299
▁eğer	-7.31443
▁şeyler	-7.31691
ra	-7.33072
▁gün	-7.334
▁S	-7.33458
▁tek	-7.3349
mak	-7.33953
▁Faka	-7.34321
▁bana	-7.34501
▁an	-7.35633
ini	-7.36647
▁bizim	-7.36707
▁son	-7.37085
▁size	-7.37921
du	-7.38625
mi	-7.40224
▁oldu	-7.40259
▁biraz	-7.40456
tan	-7.41135
f	-7.41297
▁Eğ	-7.41442
ken	-7.42595
sel	-7.43915
▁a	-7.43929
lu	-7.44147
▁yer	-7.44478
▁üzerinde	-7.44662
▁hiç	-7.45972
▁bütün	-7.46092
se	-7.46823
▁bilgi	-7.47152
▁gerçek	-7.47302
▁geri	-7.47389
yle	-7.4748
▁insanların	-7.4801
▁karşı	-7.48051
ri	-7.49895
iz	-7.50012
▁göre	-7.50335
sine	-7.50393
▁neden	-7.50793
ydi	-7.51107
▁Bunu	-7.51222
▁iş	-7.5141
daki	-7.51677
▁vardı	-7.51721
▁az	-7.52052
miz	-7.52103
▁şimdi	-7.52772
▁e	-7.52896
▁diye	-7.53169
nda	-7.53441
un	-7.53468
▁yüzden	-7.54603
▁onu	-7.55452
ç	-7.56357
▁zamanda	-7.56376
mış	-7.56697
re	-7.56757
mek	-7.5729
▁üç	-7.58219
ndan	-7.58762
ir	-7.58843
▁su	-7.59065
sini	-7.59444
ar	-7.59487
▁bazı	-7.59664
▁Çünk	-7.59703
▁yapmak	-7.59763
lardan	-7.60074
arak	-7.60704
▁i	-7.60737
mız	-7.61186
▁tam	-7.61733
ci	-7.61985
▁tarafından	-7.62211
larda	-7.627
▁Kahkaha	-7.63193
▁olacak	-7.63375
tir	-7.63629
lerden	-7.6412
lan	-7.64298
▁olmak	-7.64434
▁olması	-7.64532
larının	-7.64647
niz	-7.64703
h	-7.64823
▁İşte	-7.6491
lerine	-7.6532
il	-7.65322
▁istiyorum	-7.65585
larına	-7.66436
▁dünya	-7.66613
ını	-7.6665
▁mı	-7.67016
▁Çok	-7.67027
▁C	-7.67076
ım	-7.67327
miş	-7.68314
▁hareket	-7.68669
▁Ne	-7.69126
ten	-7.69231
▁soru	-7.69243
ır	-7.69398
▁nın	-7.69426
ydı	-7.69469
nı	-7.69561
▁E	-7.69699
nız	-7.70507
sanız	-7.72044
▁ortaya	-7.72506
▁zor	-7.72615
ip	-7.72719
▁Peki	-7.72872
▁K	-7.73557
▁oldukça	-7.73909
acak	-7.73992
▁bize	-7.7413
nde	-7.75309
g	-7.75688
▁karar	-7.76074
siniz	-7.76085
▁Bunun	-7.76142
▁etmek	-7.76252
lerde	-7.76352
▁kişi	-7.76494
▁birkaç	-7.76528
▁fakat	-7.76647
▁güzel	-7.7676
▁tür	-7.76771
lerle	-7.77126
▁Dünya	-7.77252
▁şeyi	-7.77614
▁yani	-7.77804
lerinin	-7.78014
▁oluyor	-7.78067
▁olabilir	-7.78295
▁10	-7.78318
▁Her	-7.7834
ıp	-7.7864
▁fark	-7.78725
▁beni	-7.78828
lama	-7.78851
▁para	-7.78918
▁tekrar	-7.78944
▁Burada	-7.79104
▁açık	-7.79853
ine	-7.8034
▁uzun	-7.80423
tır	-7.80453
▁Aslında	-7.81055
▁anda	-7.81208
▁teknoloji	-7.82095
▁bunlar	-7.82152
▁kötü	-7.82516
sını	-7.82737
▁Alkış	-7.83116
▁onları	-7.83323
b	-7.84157
▁hayal	-7.84269
larında	-7.84539
tik	-7.84667
▁20	-7.84812
▁te	-7.85032
▁ın	-7.85599
▁devam	-7.85647
c	-7.85709
▁boyunca	-7.85777
at	-7.86019
ba	-7.8616
▁geliyor	-7.86175
▁Alkışlar	-7.86311
deki	-7.86392
maya	-7.86738
va	-7.86756
▁onun	-7.86906
▁olur	-7.87026
▁yol	-7.87064
sına	-7.87951
▁onlar	-7.88667
▁yüzde	-7.88802
▁milyon	-7.90187
erek	-7.90539
ıyor	-7.90595
dim	-7.90674
▁Daha	-7.9082
▁konu	-7.9093
▁B	-7.90969
▁birçok	-7.91155
ecek	-7.9124
seniz	-7.91815
larla	-7.91942
abilir	-7.92099
st	-7.92278
▁yüksek	-7.92624
▁hikaye	-7.92739
▁!	-7.92897
▁çıkar	-7.92919
▁bak	-7.93065
▁Anca	-7.93523
▁Evet	-7.93716
inde	-7.94146
▁000	-7.9453
▁arasında	-7.95328
dur	-7.95392
▁Siz	-7.95404
cı	-7.95409
lığı	-7.96022
▁belki	-7.9633
▁enerji	-7.96548
▁kaç	-7.96815
siz	-7.97204
liği	-7.97526
yu	-7.97712
▁Ya	-7.98029
▁etme	-7.98259
▁orada	-7.98338
sız	-7.98454
▁tamamen	-7.98529
al	-7.98674
▁gelen	-7.98681
▁öyle	-7.98852
sin	-7.98854
▁3	-7.98877
ün	-7.99016
▁aile	-7.99101
ik	-7.99176
▁Biz	-7.99181
▁nokta	-7.9936
▁kat	-7.99401
et	-7.99537
▁siz	-7.99639
▁ta	-8.002
▁durum	-8.00234
▁bugün	-8.00249
▁al	-8.00297
▁birlikte	-8.0039
▁ay	-8.00537
ına	-8.01008
▁Bunlar	-8.01202
▁yakın	-8.01231
▁harika	-8.0171
▁basit	-8.01855
▁ülke	-8.01859
lü	-8.0194
▁dedi	-8.02348
sal	-8.02401
▁olma	-8.02424
▁Ha	-8.03426
▁yapı	-8.03658
▁göz	-8.04017
▁yerine	-8.04195
▁pek	-8.04252
▁gereken	-8.04541
lardı	-8.04635
▁buna	-8.05088
▁işte	-8.05111
ro	-8.05142
▁Afrika	-8.05647
▁süre	-8.05875
ha	-8.06092
▁dünyanın	-8.06989
▁H	-8.07017
▁T	-8.07182
▁çocuk	-8.07245
▁alan	-8.0732
su	-8.07506
▁ev	-8.0751
▁bilgisayar	-8.07878
▁üzerine	-8.07987
el	-8.08006
▁yardım	-8.08039
▁artık	-8.08384
▁şöyle	-8.08459
▁veri	-8.08542
▁dolar	-8.09065
gi	-8.0913
iyor	-8.09219
▁araba	-8.09314
▁hiçbir	-8.09564
▁kadın	-8.09874
▁konuşma	-8.1004
▁proje	-8.10322
▁ye	-8.10328
on	-8.10387
lo	-8.10421
▁daki	-8.10843
▁ederim	-8.11498
▁çalışma	-8.12142
▁eden	-8.12479
▁sene	-8.12589
▁yapma	-8.13051
lerinden	-8.13433
▁temel	-8.13538
▁Böylece	-8.13654
▁ediyor	-8.13904
▁zorunda	-8.13983
▁nin	-8.14059
▁G	-8.14206
ması	-8.14308
▁bilim	-8.14564
▁at	-8.14579
▁fikir	-8.14616
v	-8.14784
▁Amerika	-8.14831
dım	-8.15115
▁vardır	-8.15367
▁geldi	-8.15759
▁konusunda	-8.15765
▁sorun	-8.1594
▁örnek	-8.16056
▁hayat	-8.16431
▁hızlı	-8.16464
▁adam	-8.1699
▁saat	-8.17131
sunuz	-8.17247
sinin	-8.17286
larından	-8.17357
▁çoğu	-8.17397
▁yüz	-8.17767
lerinde	-8.17782
▁Sonra	-8.18121
▁mu	-8.18287
▁araştırma	-8.18514
▁2	-8.18567
▁onların	-8.18692
▁gelir	-8.19005
▁hava	-8.19425
▁Ka	-8.19512
▁tane	-8.19831
▁parça	-8.19954
▁Sade	-8.1996
ebilir	-8.20171
tu	-8.20439
▁bizi	-8.20535
▁yerde	-8.20604
▁Tamam	-8.20681
▁Ma	-8.20911
▁ilginç	-8.2114
▁genç	-8.21165
▁Şu	-8.21409
inin	-8.21836
▁yeniden	-8.21888
sak	-8.22012
▁sosyal	-8.22076
sınız	-8.22089
▁işe	-8.22197
▁ses	-8.22689
sek	-8.22778
▁dört	-8.22832
▁yaklaşık	-8.22836
▁herkes	-8.22953
▁ancak	-8.23143
▁5	-8.23202
▁sonunda	-8.23275
▁çevre	-8.23763
ur	-8.23894
▁yaşam	-8.24049
▁göster	-8.24168
▁hale	-8.24235
w	-8.24706
sinde	-8.25054
mı	-8.25434
be	-8.25554
▁den	-8.25953
▁k	-8.25994
▁istediğim	-8.26512
▁beyin	-8.26519
▁elde	-8.26657
sun	-8.26834
▁onlara	-8.26923
▁sizin	-8.26983
▁U	-8.27224
bi	-8.27297
dum	-8.27368
▁En	-8.27644
▁savaş	-8.2773
ında	-8.27748
nden	-8.27766
meye	-8.27811
▁birşey	-8.28109
ğı	-8.28123
▁hem	-8.28381
▁kız	-8.28415
▁el	-8.2876
▁olmayan	-8.28895
▁eski	-8.2933
▁kontrol	-8.2942
▁ona	-8.2949
▁Benim	-8.29958
▁Teşekkürler	-8.30199
▁herhangi	-8.3021
▁özel	-8.30256
▁hemen	-8.30369
▁eğitim	-8.30907
çi	-8.30933
▁dan	-8.31131
▁inanılmaz	-8.31237
▁Onlar	-8.31372
▁durumda	-8.31513
▁demek	-8.31555
▁hala	-8.32004
▁altında	-8.32238
mizi	-8.323
▁güç	-8.32754
▁kolay	-8.33101
▁şeyleri	-8.33337
▁milyar	-8.33525
▁çalışan	-8.33526
man	-8.33833
▁sürü	-8.34028
▁güçlü	-8.34542
▁insanları	-8.34697
▁geç	-8.3471
▁1	-8.34762
▁4	-8.35143
▁izin	-8.35148
▁yolu	-8.35157
to	-8.35208
▁dünyada	-8.35819
▁I	-8.36031
▁D	-8.36082
▁benzer	-8.36188
▁hafta	-8.36316
or	-8.36333
▁cevap	-8.36423
▁parçası	-8.3649
▁toplum	-8.3668
ça	-8.36873
dik	-8.37139
▁Sa	-8.37278
min	-8.38336
▁etti	-8.3858
sının	-8.39639
ge	-8.39821
vi	-8.39944
diği	-8.40012
▁hasta	-8.40175
▁inşa	-8.40844
ğ	-8.40978
▁başladı	-8.41112
▁dair	-8.41151
▁yine	-8.41269
▁gerek	-8.41303
▁gir	-8.41324
▁söz	-8.4145
▁mümkün	-8.41549
▁Bugün	-8.4188
▁ma	-8.42193
▁hepsi	-8.42261
▁hatta	-8.42507
▁sağ	-8.42593
ıl	-8.43203
▁kimse	-8.43916
mayı	-8.43924
▁Neden	-8.44065
abiliriz	-8.44066
▁edin	-8.44204
dığı	-8.44237
nun	-8.44387
S	-8.44474
imiz	-8.44538
▁tahmin	-8.44567
▁şunu	-8.44787
leme	-8.45093
▁beş	-8.45195
dü	-8.45601
ter	-8.45745
▁30	-8.45941
▁gösteriyor	-8.45945
▁bunları	-8.4651
▁grup	-8.46629
nu	-8.46645
▁un	-8.4719
luk	-8.47432
▁aşağı	-8.47437
cu	-8.47936
muş	-8.48551
▁kabul	-8.48568
▁gördüğünüz	-8.48783
▁bağlı	-8.48862
▁New	-8.48961
▁yaptığı	-8.491
▁yalnız	-8.49397
▁kısa	-8.4942
▁verme	-8.49519
▁Ba	-8.49622
▁öğren	-8.49631
▁u	-8.49686
▁anlama	-8.49739
▁İlk	-8.49831
za	-8.49864
▁hazır	-8.50133
▁J	-8.50163
▁araya	-8.50233
▁bence	-8.50634
▁görme	-8.50666
▁değildir	-8.50681
▁yanlış	-8.50892
▁iç	-8.50959
▁olsa	-8.51335
ö	-8.51544
▁100	-8.51545
▁kullan	-8.51695
us	-8.51829
▁kez	-8.51903
▁doğa	-8.52056
▁insanlara	-8.52109
▁Çin	-8.52438
▁P	-8.52521
▁video	-8.52666
yız	-8.52756
▁neredeyse	-8.52826
ıcı	-8.52831
▁ara	-8.52927
▁film	-8.53177
▁Kendi	-8.53248
▁kal	-8.53256
ız	-8.53451
▁değildi	-8.5364
▁50	-8.5369
unu	-8.5388
▁yapmaya	-8.53938
mızı	-8.54064
▁tanı	-8.54191
▁ka	-8.54218
iyoruz	-8.54416
ebiliriz	-8.54525
nüz	-8.54763
▁değer	-8.54805
yan	-8.55065
dık	-8.5509
▁özellikle	-8.5512
▁dedim	-8.55136
▁alma	-8.55226
▁çıktı	-8.55239
▁tedavi	-8.55254
larımız	-8.55313
▁ak	-8.55341
nizi	-8.55376
ının	-8.56134
▁Ç	-8.56282
▁derece	-8.56378
zi	-8.56475
▁baş	-8.56661
▁Son	-8.56673
▁birisi	-8.56703
▁yapan	-8.5671
▁gelecek	-8.5684
▁sizi	-8.5687
elim	-8.56886
▁gece	-8.56934
▁sistemi	-8.5705
▁200	-8.57236
▁gerekiyor	-8.57438
▁genel	-8.57458
▁yapıyor	-8.57459
▁getir	-8.5757
sın	-8.57773
▁altı	-8.58003
▁ağ	-8.58093
rken	-8.58112
▁üzere	-8.58317
▁yere	-8.58342
yım	-8.58355
▁oyun	-8.58472
▁kelime	-8.58492
▁ifade	-8.58588
▁Hindistan	-8.58859
▁TED	-8.58859
▁ek	-8.59005
▁neler	-8.59142
▁düşünce	-8.59246
▁yaz	-8.59294
▁ışık	-8.59552
lerimiz	-8.59579
ga	-8.5969
çe	-8.59695
A	-8.59731
▁derin	-8.59775
▁M	-8.59889
muz	-8.60026
▁on	-8.60042
▁iletişim	-8.6009
▁olduğuna	-8.60172
▁ana	-8.60273
▁ister	-8.60389
ünü	-8.60441
tim	-8.60501
▁yaptığımız	-8.60596
▁kan	-8.60667
nızı	-8.60728
ch	-8.60943
▁İ	-8.60968
▁doğal	-8.61021
▁ölüm	-8.61082
bo	-8.61617
▁ilişki	-8.61744
▁verici	-8.61777
abilirsiniz	-8.62007
▁yap	-8.62085
▁bölge	-8.62154
▁düşünün	-8.62236
liğin	-8.62286
sında	-8.62336
▁De	-8.62388
ck	-8.62671
▁tak	-8.62766
▁problem	-8.62825
▁ı	-8.62853
mda	-8.62857
▁sanat	-8.62889
▁bakın	-8.63027
▁olmadığı	-8.63098
▁deneyim	-8.63101
▁sayı	-8.63228
▁deney	-8.63398
▁he	-8.63422
▁sistem	-8.63588
▁etki	-8.63684
▁Al	-8.63889
▁dakika	-8.63913
▁15	-8.63935
▁geçen	-8.64219
diğimiz	-8.64441
▁muhtemel	-8.64595
▁Aynı	-8.64626
▁geniş	-8.64708
▁ikinci	-8.6475
▁kullanarak	-8.64939
▁inan	-8.64966
mesi	-8.65087
▁Ko	-8.65115
▁hücre	-8.65164
▁kim	-8.65242
▁karmaşık	-8.6533
▁bundan	-8.65333
co	-8.65582
▁gezegen	-8.65594
▁tasarım	-8.6562
▁güven	-8.65817
▁Tüm	-8.65853
▁yara	-8.65963
▁yoktu	-8.66106
▁olmadığını	-8.66154
▁bin	-8.66243
▁başladım	-8.66363
es	-8.6643
▁biliyor	-8.66484
dığını	-8.66506
▁anne	-8.66611
▁yı	-8.66619
â	-8.66767
▁bağlantı	-8.67099
▁şeyin	-8.67141
çı	-8.6718
▁çeşit	-8.67228
▁deniz	-8.67264
▁arasındaki	-8.67279
▁değiştir	-8.67337
▁uzay	-8.67373
▁ortak	-8.67666
▁bunların	-8.67706
▁okul	-8.67833
▁sonraki	-8.67875
ed	-8.67953
▁Te	-8.68229
diğini	-8.68313
▁düşün	-8.68479
▁ekonomi	-8.68509
▁ihtiyacımız	-8.68557
ılmış	-8.68588
leşme	-8.68605
▁işi	-8.68758
▁sağlık	-8.68779
▁olduğumuz	-8.69143
▁canlı	-8.69153
ydu	-8.69204
▁olay	-8.69227
yiz	-8.69361
▁bırak	-8.6942
imi	-8.69612
▁biliyoruz	-8.69701
▁Belki	-8.70266
▁İnsanlar	-8.70576
▁çalış	-8.70874
▁ayrı	-8.70907
▁yaptık	-8.70937
▁görüyorsunuz	-8.71003
▁erkek	-8.71191
▁F	-8.71193
ğa	-8.71306
po	-8.71382
▁rağmen	-8.71448
▁yılda	-8.71462
▁beraber	-8.71679
▁yapılan	-8.71693
▁ulaş	-8.71733
▁yan	-8.71859
▁Me	-8.71869
▁6	-8.71914
dığımız	-8.71944
2	-8.71986
▁teşekkür	-8.72028
▁yarat	-8.7209
▁düşünüyorum	-8.72113
▁kar	-8.72156
▁kafa	-8.72251
ış	-8.72256
▁çocuklar	-8.72328
▁görebilirsiniz	-8.72399
▁alıp	-8.72619
ru	-8.72658
▁aç	-8.72942
▁di	-8.72952
▁Bo	-8.72956
▁gitme	-8.72995
▁görmek	-8.73069
▁madde	-8.73159
tü	-8.73279
▁bina	-8.73391
ür	-8.73434
▁dolayı	-8.73463
▁ha	-8.73602
▁bakış	-8.73864
it	-8.73873
tur	-8.73947
▁kap	-8.73953
hi	-8.74042
▁uygulama	-8.7417
▁insanın	-8.74299
▁eder	-8.74459
▁gel	-8.74514
▁olursa	-8.74844
ey	-8.74877
▁nedir	-8.74893
▁yanı	-8.74995
mişti	-8.74998
asyon	-8.75072
▁değişim	-8.75107
▁ele	-8.75125
▁koy	-8.75302
kı	-8.7537
sinden	-8.75399
▁seç	-8.75548
▁fikri	-8.75565
▁Ban	-8.75677
inden	-8.75785
▁Avrupa	-8.75862
▁asla	-8.75918
▁içine	-8.76097
▁çizgi	-8.76526
▁ver	-8.76577
▁yardımcı	-8.76587
▁ettim	-8.76656
▁York	-8.76672
▁güneş	-8.7684
▁internet	-8.76959
alım	-8.77345
ici	-8.77451
▁adım	-8.77607
▁sebep	-8.77621
ebilirsiniz	-8.77671
▁adı	-8.77742
▁hayvan	-8.77761
▁bazen	-8.7802
▁dikkat	-8.78042
1	-8.78325
▁ön	-8.78346
▁telefon	-8.78362
▁sıra	-8.78463
▁dolu	-8.78542
▁tamam	-8.7858
is	-8.7865
lamak	-8.78772
▁düşündüm	-8.78885
ilmiş	-8.78899
▁plan	-8.78938
▁başına	-8.79081
▁Ayrıca	-8.79138
▁etmeye	-8.79143
▁olsun	-8.79154
▁L	-8.79154
▁ileri	-8.79219
▁kur	-8.79267
▁yaşayan	-8.79512
▁haber	-8.79543
▁hep	-8.79548
▁yılında	-8.79586
▁oda	-8.79707
▁Büyük	-8.79766
▁olup	-8.79867
▁An	-8.80185
mo	-8.80222
▁şehir	-8.80292
▁hangi	-8.80311
leriyle	-8.80363
▁hoş	-8.80504
acağım	-8.80519
lığın	-8.80634
▁Diğer	-8.80648
▁dışında	-8.80746
▁model	-8.80788
▁merak	-8.80827
ley	-8.80836
go	-8.81026
yken	-8.81051
▁alanı	-8.81061
▁gücü	-8.81142
▁kendini	-8.81162
M	-8.81228
▁hepimiz	-8.81247
kar	-8.81272
▁dünyayı	-8.81306
▁orman	-8.81529
▁ayrıca	-8.81776
▁içerisinde	-8.81817
▁be	-8.82151
▁engel	-8.82195
▁destek	-8.8227
▁me	-8.82281
▁test	-8.8234
▁sebebi	-8.82467
▁defa	-8.82626
▁kısmı	-8.82679
▁fotoğraf	-8.82708
▁s	-8.82733
▁kazan	-8.82744
▁dil	-8.83152
▁küresel	-8.83215
▁İki	-8.83255
diğim	-8.83279
▁ekonomik	-8.83307
ımız	-8.83436
4	-8.8349
ul	-8.8349
▁sürekli	-8.83569
▁kesinlikle	-8.83774
ol	-8.83829
▁mü	-8.8392
▁Mo	-8.84063
layan	-8.84082
▁tabi	-8.8409
▁Di	-8.84144
▁takip	-8.84398
▁verir	-8.84451
▁beri	-8.84508
▁görüyoruz	-8.8466
▁hayatta	-8.84727
▁Yeni	-8.84879
▁yaşında	-8.84937
▁konuda	-8.85084
▁resim	-8.85161
▁almak	-8.8518
ku	-8.85215
▁sık	-8.85306
▁vermek	-8.8534
▁orta	-8.85375
▁olmalı	-8.85405
▁la	-8.85437
▁40	-8.85503
fi	-8.85514
▁bas	-8.85726
▁mutlu	-8.85731
▁et	-8.85861
lanmış	-8.8591
▁sonuç	-8.86157
▁anlat	-8.86221
▁gerektiğini	-8.86384
▁do	-8.86471
▁Su	-8.86496
▁binlerce	-8.86513
▁gerekli	-8.86582
▁ihtiyaç	-8.86613
▁büyü	-8.86748
mıştı	-8.86777
C	-8.86885
▁uygun	-8.8693
▁ko	-8.87061
▁arka	-8.87157
▁kalma	-8.87438
ve	-8.87454
▁Bütün	-8.87469
▁Co	-8.87643
▁çek	-8.87739
▁uzak	-8.87761
▁haline	-8.87928
▁başarı	-8.87971
▁olurdu	-8.88014
▁Teşekkür	-8.88033
D	-8.88049
▁Bizim	-8.8815
B	-8.88174
▁başarılı	-8.88281
ton	-8.88364
▁hedef	-8.88379
▁yaptı	-8.88578
▁bağ	-8.88648
0	-8.88685
meyi	-8.88802
▁gidiyor	-8.88816
▁ait	-8.88834
son	-8.88982
▁acı	-8.89026
dür	-8.89065
yim	-8.89097
▁kök	-8.89117
▁makine	-8.8915
iş	-8.89183
▁çık	-8.89206
bil	-8.89212
▁Hayır	-8.89296
▁nedenle	-8.893
▁bulunan	-8.89397
▁alır	-8.89406
▁ciddi	-8.89413
▁arada	-8.89454
▁ders	-8.89612
ver	-8.89759
larıyla	-8.89787
▁çözüm	-8.89824
▁korku	-8.89889
▁Ro	-8.89924
▁ilgi	-8.90149
▁Ş	-8.90152
▁El	-8.90302
▁seçim	-8.90351
▁Gerçekten	-8.90397
▁meydan	-8.90408
ger	-8.90521
▁evet	-8.90606
▁aşı	-8.90709
▁Buna	-8.9072
▁kalan	-8.90779
ing	-8.90837
▁f	-8.90848
j	-8.90929
lük	-8.90982
▁sor	-8.91022
▁görüntü	-8.9112
▁yemek	-8.91489
▁gen	-8.91545
ıldı	-8.91591
▁dünyadaki	-8.91711
▁iste	-8.91866
▁edecek	-8.9194
▁ediyorum	-8.92065
lanma	-8.92155
▁yaptım	-8.92231
ıyoruz	-8.92297
▁robot	-8.92434
▁başladık	-8.92696
▁ettik	-8.92876
▁gidip	-8.9289
ebilecek	-8.92893
9	-8.92931
▁söylüyor	-8.92981
▁mükemmel	-8.93052
▁metre	-8.93237
▁işaret	-8.93244
▁Ta	-8.93299
ilen	-8.93362
▁açı	-8.93547
▁sen	-8.93601
▁müzik	-8.93628
▁gönder	-8.93672
▁7	-8.93954
▁anlamın	-8.93999
mu	-8.9401
landı	-8.9421
tım	-8.94265
ımı	-8.9429
▁zengin	-8.94401
▁San	-8.94405
▁sayesinde	-8.94411
iyle	-8.94448
▁söyledi	-8.94468
▁çal	-8.94654
ho	-8.94775
▁düşük	-8.9479
▁yavaş	-8.94911
duk	-8.94914
fa	-8.95082
mize	-8.95118
miyor	-8.95146
▁elektrik	-8.95179
sü	-8.9518
▁risk	-8.9537
acağız	-8.95379
▁yazı	-8.95437
mıyor	-8.95534
▁DNA	-8.95571
▁veriyor	-8.95577
▁konuş	-8.95602
▁tabii	-8.95808
san	-8.95849
larımızı	-8.95908
▁araç	-8.95954
▁gerekir	-8.95989
▁geçir	-8.96022
8	-8.9604
şi	-8.9605
▁musunuz	-8.96056
▁varsa	-8.96087
▁yatırım	-8.96116
T	-8.96175
▁kitap	-8.96278
▁sesi	-8.963
▁18	-8.96383
mıza	-8.96516
ste	-8.96547
▁eş	-8.96559
▁asıl	-8.96597
▁mevcut	-8.96756
▁b	-8.96782
▁deki	-8.96803
▁yöntem	-8.969
ist	-8.97195
▁kadınlar	-8.97348
liğe	-8.97488
▁Ra	-8.97612
ko	-8.97635
▁düşünme	-8.97763
▁muhteşem	-8.97955
▁dahil	-8.97961
der	-8.98172
iyorlar	-8.98267
lerimizi	-8.98289
▁büyüme	-8.98462
kan	-8.98489
▁oluştur	-8.98557
▁La	-8.98626
th	-8.98631
▁der	-8.99067
▁nerede	-8.99226
gu	-8.99356
▁kapı	-8.99527
▁9	-8.99634
▁geliştir	-8.99672
▁yukarı	-8.99716
sem	-8.99822
▁zamanlar	-8.99872
mızda	-8.99888
▁veren	-8.99928
eceğim	-8.99993
▁resmi	-9.0008
▁Se	-9.00232
▁olmadan	-9.00248
▁h	-9.00258
▁tut	-9.00294
▁heyecan	-9.00404
▁sinir	-9.00423
▁başlıyor	-9.00513
▁kır	-9.00571
▁g	-9.00586
▁şeye	-9.00613
▁biliyorum	-9.00904
ay	-9.01118
▁ayak	-9.01373
▁yıldır	-9.01385
▁ABD	-9.01431
lıyor	-9.01448
▁öğret	-9.01488
▁hata	-9.01539
▁kas	-9.01632
▁yedi	-9.01643
▁devlet	-9.01666
▁çift	-9.01986
unun	-9.02066
▁normal	-9.02159
▁verdi	-9.02263
▁İş	-9.02405
▁yapabilir	-9.0255
yse	-9.02567
▁anlamak	-9.0297
▁dizi	-9.03076
▁sayfa	-9.03119
▁tıp	-9.03145
P	-9.03276
▁sat	-9.03327
▁göstermek	-9.03358
▁görünüyor	-9.03489
▁Si	-9.03492
▁görüş	-9.03521
abiliyor	-9.03525
nuz	-9.03774
▁diyor	-9.03797
▁bil	-9.03883
▁Li	-9.03991
▁şiddet	-9.04104
▁kullanma	-9.04114
▁çalışıyor	-9.0412
▁sahibi	-9.04162
▁8	-9.04195
▁12	-9.0425
▁anlamı	-9.04294
▁si	-9.04362
▁beyaz	-9.04604
▁tepki	-9.04604
▁yaptığım	-9.04705
E	-9.04743
masını	-9.0497
▁aldı	-9.05129
▁çıkan	-9.05186
▁olduğum	-9.05208
▁başlar	-9.0532
▁olacağını	-9.05428
▁aracı	-9.05493
▁kara	-9.05626
▁bilme	-9.05701
yum	-9.05816
▁kişisel	-9.05898
dığım	-9.05937
ebiliyor	-9.05987
6	-9.06102
▁sev	-9.06223
▁yaş	-9.06251
▁kendisi	-9.06264
▁kendimi	-9.06295
▁dur	-9.064
iyet	-9.06464
▁pa	-9.06654
▁bulmak	-9.06724
▁üst	-9.06889
rt	-9.06943
▁N	-9.07027
▁ortalama	-9.07088
mde	-9.07122
▁paylaş	-9.07192
sam	-9.07205
▁fırsat	-9.07222
▁bilirsiniz	-9.07238
kten	-9.0725
▁emin	-9.07414
▁kanıt	-9.07457
▁mesaj	-9.07491
▁Be	-9.07534
▁şirket	-9.07537
lerdi	-9.07547
▁hâl	-9.07566
▁60	-9.07676
tık	-9.07926
▁oluşan	-9.07928
▁Ku	-9.07939
▁şekli	-9.07955
▁sağlıyor	-9.08151
▁oldukları	-9.08183
▁program	-9.08254
▁herkesin	-9.08342
▁Başka	-9.08413
kları	-9.08519
do	-9.08647
ktan	-9.08806
▁mavi	-9.08817
G	-9.08829
▁nedeni	-9.08846
▁ç	-9.09071
▁ilaç	-9.09155
▁Amerikan	-9.09237
ıyorlar	-9.09238
pi	-9.09441
▁sol	-9.09522
▁tarafta	-9.09572
▁koruma	-9.09761
▁yanında	-9.09809
▁hastalık	-9.09823
▁şarkı	-9.09835
ab	-9.09877
▁Müzik	-9.09897
▁zaten	-9.09897
I	-9.0999
▁yarı	-9.10001
▁gider	-9.10102
▁kaynak	-9.10121
▁söyle	-9.10135
ık	-9.10137
meyen	-9.1021
▁sınır	-9.10246
▁Da	-9.10337
▁sal	-9.10372
uyor	-9.1049
▁art	-9.1066
▁Ga	-9.107
iyorum	-9.1076
▁medya	-9.10807
ah	-9.10814
▁görev	-9.10918
3	-9.10962
▁buraya	-9.11063
▁Artık	-9.11276
▁nun	-9.11317
▁gelişme	-9.11365
▁yerlerde	-9.11391
▁bulma	-9.11421
▁Herkes	-9.11496
▁günde	-9.11543
▁arkadaş	-9.11611
▁pazar	-9.11715
▁silah	-9.11715
▁tip	-9.11766
▁harita	-9.11802
▁öğrenme	-9.11913
▁kanser	-9.11917
▁R	-9.11937
▁Birleşi	-9.11976
▁Le	-9.12009
▁kurtar	-9.12064
▁alın	-9.12067
▁söylemek	-9.12082
▁birinin	-9.12155
▁bakalım	-9.12238
▁bakar	-9.12308
▁yapar	-9.12336
▁tartışma	-9.12461
▁Do	-9.12469
▁alıyor	-9.12474
yo	-9.12515
▁yapacak	-9.12561
▁fakir	-9.12653
▁fiziksel	-9.12676
mın	-9.12738
▁masa	-9.12835
ıyorum	-9.12936
▁algı	-9.13002
▁çöz	-9.13024
▁olsaydı	-9.13028
▁Mi	-9.13052
▁Onun	-9.13068
▁yeterli	-9.13119
▁çocukların	-9.13275
▁lazım	-9.13353
▁yasa	-9.13385
şa	-9.13436
▁ufak	-9.13588
▁kamera	-9.13588
▁yayın	-9.13606
üm	-9.13638
ılan	-9.138
unda	-9.13994
▁Re	-9.14036
▁kol	-9.1414
▁uç	-9.1419
▁Örneğin	-9.14295
▁gördük	-9.14378
7	-9.14407
ysa	-9.1441
▁petrol	-9.14533
▁şeylerden	-9.14564
▁temiz	-9.14648
abilecek	-9.14709
▁olmasını	-9.14796
▁düşünüyor	-9.14959
▁bazıları	-9.15105
▁yu	-9.15219
▁belli	-9.15248
5	-9.15294
▁icin	-9.15354
▁okyanus	-9.15356
▁yaşıyor	-9.15382
▁yıllık	-9.15474
▁temsil	-9.15486
▁Orta	-9.15505
▁alt	-9.15517
▁baskı	-9.15565
▁11	-9.15584
▁üstünde	-9.15631
▁işin	-9.15681
▁Mars	-9.15704
▁mücadele	-9.15726
▁sayıda	-9.15825
▁idi	-9.15966
▁aldım	-9.15983
▁ba	-9.16002
▁üniversite	-9.16028
▁verdim	-9.16216
▁CA	-9.16258
▁yiyecek	-9.16302
ğu	-9.16416
▁şekil	-9.16442
▁ihtiyacı	-9.16474
os	-9.16677
▁olmaya	-9.1676
met	-9.16808
ber	-9.16827
▁sar	-9.16836
▁gerektiği	-9.16976
▁kes	-9.16988
▁içeri	-9.17033
▁derecede	-9.17055
suz	-9.17073
▁yük	-9.17095
▁Bazı	-9.17186
▁çıkıyor	-9.17272
yorum	-9.17327
▁yeşil	-9.17422
▁buradaki	-9.17542
yoruz	-9.17603
▁görsel	-9.17706
▁gördüm	-9.17745
▁suç	-9.17788
▁İnsan	-9.1781
▁noktada	-9.17833
ladı	-9.17906
raya	-9.17956
▁ayır	-9.17989
▁Mesel	-9.18042
▁ö	-9.18053
▁takım	-9.182
▁tanesi	-9.18202
▁düzen	-9.1827
▁sanırım	-9.18419
sıyla	-9.1844
▁konusu	-9.18488
▁19	-9.1852
tör	-9.1866
▁deneme	-9.18672
▁duygu	-9.18779
▁duy	-9.18882
▁bulun	-9.1889
▁söyleme	-9.18927
ıyordu	-9.18958
▁yerinde	-9.18997
▁biçimde	-9.19046
▁W	-9.19051
▁halde	-9.19052
▁katı	-9.19102
▁ediyoruz	-9.19105
ör	-9.19132
▁Google	-9.19145
▁dışarı	-9.19147
▁Orada	-9.19212
anırım	-9.19256
▁örneğin	-9.19427
▁birini	-9.19547
▁yapıyoruz	-9.19581
müş	-9.19597
▁Nasıl	-9.19643
▁kuş	-9.19721
▁kutu	-9.1973
▁Kuzey	-9.19867
▁zamanı	-9.19932
▁geçti	-9.20056
op	-9.20136
▁kaldır	-9.20175
mizin	-9.20231
lenmiş	-9.20254
▁bakım	-9.20404
▁ince	-9.20576
▁iklim	-9.20647
▁dünyaya	-9.20685
▁kalp	-9.20757
▁giy	-9.20852
▁gittim	-9.20877
▁çalışmak	-9.21126
lemek	-9.21224
▁kültür	-9.21251
sından	-9.21288
▁tutu	-9.21342
▁duvar	-9.21422
yon	-9.21466
▁dışı	-9.21493
▁tarih	-9.21501
nize	-9.2151
▁sahne	-9.21715
00	-9.21747
▁zarar	-9.21778
▁aşırı	-9.21819
▁yapılmış	-9.21849
▁iz	-9.21849
▁Güney	-9.21921
una	-9.21933
▁yaratmak	-9.22027
▁şeylerin	-9.22087
▁yerel	-9.22103
▁Hatt	-9.22116
▁işler	-9.22234
ildi	-9.22305
▁25	-9.22311
▁dijital	-9.22428
tif	-9.22494
▁etkileşim	-9.2252
nızda	-9.22547
kleri	-9.22675
ll	-9.22752
▁taraf	-9.22795
▁Tanrı	-9.22798
▁cihaz	-9.22957
▁yaşlı	-9.22979
▁yön	-9.23055
▁se	-9.23075
▁ürün	-9.23144
▁edebilir	-9.23162
malıyız	-9.23171
▁olduklarını	-9.23255
▁biliyorsunuz	-9.2326
▁hizmet	-9.23294
cık	-9.23359
▁düşünür	-9.23402
dikleri	-9.23452
▁olacaktır	-9.23511
▁beynin	-9.23515
bu	-9.23639
▁gelme	-9.23645
▁as	-9.23653
▁Çocuk	-9.23697
▁dağ	-9.23704
▁hayır	-9.2375
▁tanım	-9.23793
bilme	-9.23816
▁çocukları	-9.23917
▁dönüş	-9.2394
ından	-9.23943
▁dayan	-9.23969
▁şaşırtıcı	-9.23987
▁kon	-9.24029
▁numara	-9.24241
siyle	-9.24319
▁saniye	-9.24346
▁evrim	-9.24415
lenme	-9.24416
▁etkili	-9.24447
mez	-9.24508
▁cep	-9.24544
▁Bil	-9.24789
▁kaynağı	-9.24832
▁ilgilen	-9.2489
yor	-9.24932
▁pe	-9.24965
▁dış	-9.24987
▁can	-9.24997
▁sabah	-9.25029
▁milyonlarca	-9.25058
L	-9.25114
▁zamanlarda	-9.25278
▁balık	-9.25427
tar	-9.25606
diğiniz	-9.25629
▁erkekler	-9.25644
▁çeşitli	-9.25661
▁kişiler	-9.25745
▁Pa	-9.25774
▁Böyle	-9.2591
ot	-9.25991
▁sonucu	-9.2612
▁gördüğümüz	-9.26134
tro	-9.26153
üyor	-9.26363
▁amacı	-9.26364
▁gid	-9.26365
▁kişinin	-9.26378
▁hayatı	-9.26427
▁sağlayan	-9.26463
▁azında	-9.26492
▁gizli	-9.26623
▁gösteren	-9.26755
dılar	-9.26777
▁gözlem	-9.26829
▁ortada	-9.26893
▁gerçekleştir	-9.26982
▁istedim	-9.27001
▁geli	-9.2702
rak	-9.2702
cak	-9.27029
▁öğrenci	-9.27044
▁etkisi	-9.27063
eceğiz	-9.27304
▁açısından	-9.27473
▁durumu	-9.27646
▁re	-9.27875
▁istiyor	-9.27894
▁politika	-9.27928
teki	-9.27951
▁yüzünden	-9.27996
O	-9.28053
▁site	-9.28115
▁döndü	-9.28172
▁Yap	-9.2825
iniz	-9.28271
per	-9.2849
▁söylen	-9.28721
▁bununla	-9.28746
▁Bunları	-9.28761
▁edilmiş	-9.28797
cü	-9.28818
▁teşekkürler	-9.28856
▁renk	-9.28887
sh	-9.2889
▁boş	-9.28941
▁bi	-9.28948
▁sınıf	-9.28951
▁adında	-9.28975
▁altın	-9.29194
▁Birkaç	-9.29336
▁mesela	-9.29338
▁hayatın	-9.29356
▁kırmızı	-9.29363
N	-9.29499
umuz	-9.29518
▁v	-9.29552
▁olmuş	-9.29584
kçe	-9.29589
▁ilham	-9.29612
▁merkez	-9.29667
acağını	-9.29765
▁hak	-9.29775
▁yaratıcı	-9.29802
▁Jo	-9.30021
taki	-9.30066
larımızın	-9.30083
▁liste	-9.30188
▁top	-9.30272
▁verdik	-9.30354
▁sayısı	-9.30358
eği	-9.30427
▁arkadaşım	-9.30581
ğimiz	-9.30658
▁ettiği	-9.30676
▁başında	-9.30775
▁80	-9.30787
▁Onu	-9.30844
▁işlem	-9.30883
▁aldık	-9.30996
as	-9.31008
▁olmuştu	-9.31057
▁yüzey	-9.31236
▁li	-9.31275
▁em	-9.31411
▁Batı	-9.31446
▁İyi	-9.31449
▁önünde	-9.31465
▁merkezi	-9.31505
▁insanlarla	-9.31697
eceği	-9.31727
▁anlamda	-9.31729
up	-9.31752
▁keşfed	-9.31769
▁esas	-9.31775
▁köy	-9.31846
▁bilmiyor	-9.3193
▁beceri	-9.32021
▁değilim	-9.32024
eyim	-9.3206
▁na	-9.32175
▁okuma	-9.32344
▁Va	-9.32352
▁dolaş	-9.32444
▁gözü	-9.32542
lerdir	-9.32568
▁Hiç	-9.32685
▁tercih	-9.32693
▁istiyoruz	-9.32769
▁ci	-9.32779
▁Y	-9.32887
▁başar	-9.32906
lardır	-9.32922
ndaki	-9.32987
▁teknik	-9.3299
▁kullanmak	-9.32994
▁yaptıkları	-9.33035
▁sanki	-9.33128
manın	-9.33202
▁üçüncü	-9.3327
eri	-9.33351
▁Ara	-9.33415
abilmek	-9.33516
▁Ge	-9.33527
ği	-9.33624
▁kendilerini	-9.33706
▁yapabiliriz	-9.33719
▁baba	-9.33903
▁ateş	-9.33906
▁göstereceğim	-9.33908
▁amaç	-9.33921
luğu	-9.3397
▁hükümet	-9.34152
yıp	-9.34206
▁ülkeler	-9.34239
▁dalga	-9.34299
▁ol	-9.34315
K	-9.34337
▁Dolayısı	-9.34415
▁karbon	-9.34416
▁çaba	-9.34417
▁umut	-9.34425
▁rol	-9.34458
ebileceği	-9.34484
▁yoksa	-9.34492
▁yüksel	-9.34498
miştim	-9.34546
mamız	-9.34771
▁önceki	-9.34794
liyor	-9.34821
▁He	-9.34991
▁organ	-9.34992
▁hikâye	-9.34995
lendi	-9.35019
men	-9.35093
▁kesin	-9.35103
▁din	-9.35303
bir	-9.35328
▁içindeki	-9.35348
▁arı	-9.35395
ıyla	-9.35434
dıkları	-9.35522
▁hesap	-9.35609
▁getirmek	-9.3564
▁inanıyorum	-9.35646
▁kullanıyor	-9.35898
▁çiz	-9.35925
▁gerçekte	-9.36114
▁ucuz	-9.36156
acağı	-9.3616
▁götür	-9.36207
▁süreç	-9.36208
▁bakarsa	-9.363
▁Baş	-9.36405
▁ısı	-9.36524
▁Tek	-9.36637
maktadır	-9.3664
▁Ev	-9.36651
▁bilimsel	-9.36661
▁yüzü	-9.36708
▁bitki	-9.36741
▁geçmiş	-9.36776
▁görüyor	-9.36792
▁bulduk	-9.36955
▁senin	-9.37019
▁İkinci	-9.37063
▁oran	-9.37203
lanıyor	-9.37267
▁akıl	-9.37291
▁davranış	-9.37322
▁karakter	-9.37405
▁yıllar	-9.37427
▁denge	-9.37469
▁satın	-9.37536
▁uçak	-9.37615
▁ü	-9.37636
eceğini	-9.37814
▁Gerçek	-9.37819
ama	-9.37839
mektedir	-9.3784
ren	-9.37852
▁problemi	-9.37874
▁yaşan	-9.37898
▁kod	-9.37912
▁garip	-9.3795
▁Mu	-9.37954
▁hücreleri	-9.37993
▁eşit	-9.38025
maz	-9.38044
▁yapıyorlar	-9.38132
diniz	-9.38146
ster	-9.38175
▁hayvanlar	-9.38181
▁konuşmak	-9.38212
▁tarz	-9.38241
▁demokrasi	-9.3825
▁yüzlerce	-9.38253
▁karanlık	-9.38253
▁çıkma	-9.38321
sunu	-9.38362
he	-9.38391
▁duruyor	-9.38415
▁üret	-9.38453
▁kere	-9.38525
▁Hepimiz	-9.38531
▁elbette	-9.38551
▁korkunç	-9.38552
▁sanatçı	-9.3859
▁seviyorum	-9.386
▁izle	-9.38631
ğe	-9.38714
▁kendimizi	-9.38743
▁san	-9.38821
▁eylem	-9.38879
▁sağlıklı	-9.38886
diler	-9.38929
laşma	-9.38961
▁günlük	-9.38962
▁anlam	-9.39115
▁Biraz	-9.39182
▁nde	-9.39196
▁Bi	-9.39269
▁evren	-9.39324
nün	-9.39441
▁söylediği	-9.39458
▁Video	-9.39461
▁teori	-9.39498
▁fa	-9.39503
▁bilmiyorum	-9.39547
▁yaklaş	-9.39684
▁tepe	-9.39743
şe	-9.39753
▁Çoğu	-9.39765
gun	-9.39777
muyor	-9.39832
▁mal	-9.39839
▁Sen	-9.39872
▁gösterdi	-9.39907
▁gitmek	-9.39911
▁nerey	-9.40025
▁yoktur	-9.40056
▁zeki	-9.40071
▁Tabii	-9.40084
lanan	-9.40116
mızın	-9.40168
▁gelecekte	-9.40217
▁giden	-9.40247
▁Ar	-9.40289
▁İnternet	-9.40378
▁doku	-9.40495
iliyor	-9.40531
liğini	-9.40554
▁farkında	-9.40588
▁olanlar	-9.40654
▁fikirler	-9.40671
▁sorunu	-9.40695
▁nesil	-9.40868
tra	-9.40916
▁dönem	-9.4095
▁güvenli	-9.4101
▁değişik	-9.41082
▁belir	-9.41273
laştır	-9.41289
lığ	-9.4146
yordu	-9.41474
▁indir	-9.41497
▁it	-9.41521
▁açıdan	-9.41588
ğin	-9.41606
▁alakalı	-9.41615
ral	-9.4169
▁gitti	-9.4199
imizin	-9.42036
▁Gör	-9.4235
▁türlü	-9.42419
▁olduğundan	-9.42496
▁uyan	-9.42684
▁mesele	-9.42729
▁üzerindeki	-9.42738
id	-9.42759
▁olmayacak	-9.42921
▁öte	-9.42926
oloji	-9.42929
▁açıklama	-9.42975
▁edilen	-9.43018
▁geldiği	-9.43047
mizde	-9.43063
▁herşey	-9.43108
▁tarafı	-9.43121
▁köpek	-9.43181
meyecek	-9.43209
▁sırada	-9.43213
▁rahatsız	-9.43216
lerim	-9.43275
aman	-9.4338
yü	-9.43387
▁ila	-9.43469
▁mil	-9.43521
▁yaşama	-9.43524
▁16	-9.43533
▁belirli	-9.4356
▁buldum	-9.43634
▁biyo	-9.43663
▁etrafında	-9.43702
▁hissed	-9.43748
▁piyasa	-9.43816
▁bunlardan	-9.43817
▁icat	-9.43819
▁geleneksel	-9.43836
▁adlandır	-9.43872
▁tarihi	-9.43897
▁uzakta	-9.44062
▁sefer	-9.44106
▁bekle	-9.44209
ğü	-9.44212
mesini	-9.44228
▁av	-9.4425
R	-9.44257
▁olduğunda	-9.44292
▁eve	-9.44351
▁edil	-9.44409
▁ölç	-9.44458
▁önemlisi	-9.4452
▁Onları	-9.44572
ılır	-9.4465
▁yağ	-9.44707
▁bebek	-9.44805
▁hakkı	-9.44861
▁kaya	-9.44872
▁anı	-9.44932
▁girdi	-9.44953
larım	-9.44971
▁oranı	-9.45006
▁rahat	-9.45039
▁90	-9.45052
▁sağladı	-9.45094
▁kayıt	-9.45099
▁ilerleme	-9.45136
▁ülkede	-9.45396
lamaya	-9.45425
▁süper	-9.45429
meliyiz	-9.45548
lüğü	-9.45563
▁gösteri	-9.45572
▁gör	-9.45596
▁örneği	-9.45699
▁Pekala	-9.45743
▁sekiz	-9.45746
▁duyu	-9.45757
▁çocuğu	-9.45886
▁verimli	-9.46075
▁istediğimiz	-9.4609
▁sevgi	-9.46113
imizi	-9.46158
▁dön	-9.46356
▁Man	-9.46375
▁Fi	-9.46484
▁modeli	-9.46484
▁sağlamak	-9.46541
▁virüs	-9.46724
▁duyma	-9.46751
▁ardında	-9.46777
▁dile	-9.46784
▁yetiştir	-9.46833
▁endişe	-9.46866
▁parmak	-9.46882
▁kısım	-9.46906
▁anlamaya	-9.46906
▁kilo	-9.46921
dığınız	-9.47035
▁Birçok	-9.47047
▁Burası	-9.4708
▁Kim	-9.47084
ışı	-9.47171
▁davran	-9.47244
▁ada	-9.47337
▁isteme	-9.47346
▁gerçeği	-9.47358
ıyorsunuz	-9.47432
ize	-9.47445
▁bizler	-9.47451
▁dönü	-9.47495
▁sonsuz	-9.47635
▁başlama	-9.47637
ron	-9.47643
▁git	-9.47742
▁ar	-9.47746
▁yapmayı	-9.47823
▁par	-9.47932
▁70	-9.48004
▁oldum	-9.48057
▁yaparken	-9.48125
▁bölüm	-9.48132
▁sorular	-9.48213
▁park	-9.48234
▁Tam	-9.48263
▁hastalığı	-9.4829
▁Na	-9.48292
▁ediyorlar	-9.48365
▁ziyaret	-9.48369
▁modern	-9.48371
▁bar	-9.48408
▁geldiğini	-9.48446
sen	-9.48496
▁Ni	-9.48615
▁geçme	-9.48645
▁değiştirmek	-9.48676
▁yönet	-9.48688
▁teşvik	-9.48703
▁çalışıyoruz	-9.48843
medi	-9.48857
▁Kar	-9.48946
▁budur	-9.49049
▁düş	-9.491
▁oray	-9.49138
▁genellik	-9.49231
▁politik	-9.49302
▁hal	-9.49337
▁Ak	-9.49388
▁ikisi	-9.49676
▁molekül	-9.49691
▁İnsanların	-9.4971
▁olağanüstü	-9.4971
▁gıda	-9.49713
▁sahibiz	-9.49735
▁As	-9.49787
▁annem	-9.49824
hu	-9.49844
▁yapmamız	-9.49887
▁Ja	-9.50017
dığında	-9.50035
miyorum	-9.50043
▁vücut	-9.50047
▁genetik	-9.50048
▁düşünmeye	-9.50048
▁yetişkin	-9.50059
▁insanı	-9.50089
▁hayatını	-9.50099
▁ten	-9.50161
▁bitir	-9.50177
ndeki	-9.50182
▁sırasında	-9.50207
▁besle	-9.50215
likle	-9.50235
▁halinde	-9.5033
▁toprak	-9.504
▁gül	-9.50408
▁getirdi	-9.50412
▁kitabı	-9.50422
▁ışığı	-9.50433
▁topluluk	-9.50502
▁beden	-9.5051
▁So	-9.50516
ünün	-9.50571
▁bulunma	-9.50594
ji	-9.50623
▁hız	-9.50784
▁boyut	-9.50798
▁fazlası	-9.50906
▁programı	-9.50915
diğinde	-9.51005
▁yağmur	-9.51069
▁odaklan	-9.51164
▁ettiğimiz	-9.51173
▁Beni	-9.51201
▁dahi	-9.51227
ayım	-9.51234
▁olmaz	-9.51287
▁benziyor	-9.51462
imin	-9.51505
ılması	-9.51585
▁taşı	-9.51589
▁verin	-9.51626
▁davet	-9.51675
▁dev	-9.51714
▁sıcak	-9.51728
▁yoğun	-9.51768
▁ikna	-9.51773
▁yeterin	-9.51802
iği	-9.51839
adlı	-9.5188
▁çalışır	-9.51884
▁görün	-9.51903
▁tecrübe	-9.52099
▁kurtul	-9.52117
▁yüzyıl	-9.52166
▁hastane	-9.52264
▁seviye	-9.52288
▁nesne	-9.52337
▁doğu	-9.52382
ydim	-9.52392
▁belirt	-9.52434
leyen	-9.52437
▁çocuğun	-9.52454
▁katkı	-9.52558
▁yaparak	-9.52571
▁yazar	-9.52667
▁taş	-9.52827
▁bit	-9.52907
▁değiş	-9.53019
▁oy	-9.53059
▁alet	-9.53127
▁say	-9.53137
▁televizyon	-9.5314
▁ortasında	-9.53288
lma	-9.53289
▁geriye	-9.53291
ydım	-9.53441
▁çekici	-9.53607
▁uzman	-9.53633
▁demektir	-9.53658
▁mikro	-9.53818
ad	-9.53838
▁zihin	-9.53841
memiz	-9.53893
▁boyutlu	-9.539
▁500	-9.53996
layabilir	-9.54019
▁sey	-9.54096
▁form	-9.54133
▁yıldız	-9.54136
▁şehrin	-9.54141
▁yaygın	-9.54193
▁taşın	-9.54203
▁kimyasal	-9.54214
▁akıllı	-9.54236
▁14	-9.54242
▁gemi	-9.5425
layıcı	-9.54305
▁siyah	-9.54337
▁üretim	-9.54344
▁düşündük	-9.54496
▁isim	-9.54504
▁Geçen	-9.54547
▁Ki	-9.54588
har	-9.54614
▁saldırı	-9.54625
▁erken	-9.54629
▁yarısı	-9.5463
▁otur	-9.54634
F	-9.54742
▁yi	-9.54783
▁yorum	-9.54921
▁fare	-9.54974
▁Demek	-9.55031
▁Vi	-9.5522
▁kalk	-9.55224
luyor	-9.55238
mıştım	-9.55241
▁strateji	-9.55257
▁John	-9.55257
lardaki	-9.55395
▁açıkça	-9.55404
▁öz	-9.55502
▁kenar	-9.55523
▁süreci	-9.55527
isti	-9.55597
▁zeka	-9.55614
▁doktor	-9.55616
mle	-9.55663
▁getiriyor	-9.55668
▁deri	-9.557
▁ülkelerde	-9.55748
▁cam	-9.55912
▁ruh	-9.55959
▁uydu	-9.5596
▁sıfır	-9.55972
▁Öyle	-9.55996
▁arama	-9.56029
▁dinle	-9.56082
▁kendime	-9.561
▁çalışıyorum	-9.56115
▁parti	-9.56165
let	-9.56199
▁hepsini	-9.56236
▁sonuçlar	-9.56247
▁toplam	-9.56273
lığını	-9.5633
abileceği	-9.56354
▁sergi	-9.56354
▁ton	-9.56402
▁olmayı	-9.56404
▁anlaşıl	-9.56438
▁hissetme	-9.56442
▁adet	-9.56504
▁günü	-9.56538
▁söyler	-9.56682
▁kullanıl	-9.56708
H	-9.56725
▁hücreler	-9.56742
▁kare	-9.56773
▁fi	-9.56805
▁tutku	-9.56808
▁malzeme	-9.56832
▁dans	-9.5685
▁kadınların	-9.56857
▁ölçü	-9.56998
▁onunla	-9.57036
▁pi	-9.57127
▁sür	-9.57195
ev	-9.57314
▁sonrasında	-9.57326
▁kuru	-9.57477
▁tur	-9.57554
▁ortam	-9.57577
rek	-9.57596
dy	-9.57665
▁yabancı	-9.57859
▁olmamız	-9.57866
lerimi	-9.57954
▁Ri	-9.57976
▁duydu	-9.58041
lıyız	-9.58074
leştirme	-9.5811
leşmiş	-9.58168
▁güvenlik	-9.58194
▁arazi	-9.5822
▁13	-9.58256
▁Ay	-9.58296
▁çalışmaya	-9.58366
▁bakıyor	-9.58403
▁telefonu	-9.58437
▁devre	-9.58589
▁bağla	-9.58616
land	-9.58682
▁nöron	-9.58799
▁noktası	-9.5886
▁Yüz	-9.58864
▁bağlan	-9.58873
▁seyahat	-9.58887
▁yay	-9.58897
▁şirketler	-9.58949
▁araçlar	-9.58981
▁miktarda	-9.59017
▁bahsed	-9.59028
▁bulunduğu	-9.59062
▁adını	-9.59068
▁tehdit	-9.59257
▁ekran	-9.59274
▁Doğu	-9.59276
▁tehlikeli	-9.59289
▁17	-9.59295
▁Tabi	-9.59295
▁babam	-9.5931
▁olduğumu	-9.59324
tür	-9.59484
▁ağır	-9.59547
▁mühendis	-9.59552
▁girme	-9.59558
▁kaldı	-9.59603
tor	-9.59614
▁pahalı	-9.59629
▁sorunları	-9.59648
ınca	-9.59715
▁hızla	-9.59775
▁Buradaki	-9.59837
larca	-9.59854
▁Öyleyse	-9.60015
▁imkansız	-9.6005
▁polis	-9.60077
iyorsunuz	-9.60128
▁kaybol	-9.60157
▁Bilim	-9.60165
▁lider	-9.60185
miştir	-9.60322
lerimizin	-9.60325
▁dik	-9.6034
▁nefes	-9.60378
▁saygı	-9.60385
▁eğlenceli	-9.60405
▁çalıştığım	-9.60457
▁birşeyler	-9.6047
▁ter	-9.60536
▁eriş	-9.60557
madan	-9.60577
▁benze	-9.60695
▁fabrika	-9.60753
▁suyu	-9.6076
▁cok	-9.60779
▁adına	-9.60803
▁kamu	-9.60814
▁fiyat	-9.6085
▁herşeyi	-9.60853
▁olduk	-9.60854
▁kalbi	-9.60855
larınız	-9.6087
acaktır	-9.60916
▁okuy	-9.61065
▁sektör	-9.61131
▁başta	-9.61151
▁tarım	-9.61158
birine	-9.61187
▁oku	-9.61251
ırken	-9.61268
▁Po	-9.61319
▁geçerli	-9.6144
▁azalt	-9.61499
▁edici	-9.6151
▁şans	-9.61536
▁kurma	-9.61579
▁Adam	-9.61593
▁olduğunuz	-9.61652
lerinizi	-9.6177
▁anlatmak	-9.61807
cılar	-9.61852
▁Gi	-9.61861
▁yaşadı	-9.61878
▁rüzgar	-9.61889
▁tasarruf	-9.61889
▁muazzam	-9.6189
▁199	-9.61896
▁yeri	-9.62039
ınız	-9.62083
▁önem	-9.62084
▁bildiğimiz	-9.62119
▁alanda	-9.62269
▁gor	-9.62284
ans	-9.62343
makta	-9.62374
▁bakma	-9.62386
▁gaz	-9.62394
ss	-9.62427
▁gerekiyordu	-9.62594
▁yana	-9.62635
▁bahçe	-9.6266
▁analiz	-9.62661
ebileceğimiz	-9.62718
▁kesi	-9.62735
▁çapında	-9.6274
amaz	-9.62781
ğim	-9.62808
▁Sonuç	-9.62891
▁ağaç	-9.62892
▁yazma	-9.62896
▁tan	-9.62927
▁değişimi	-9.6293
▁yaklaşım	-9.63009
▁ürünü	-9.63035
▁akşam	-9.63039
▁Bazen	-9.63039
▁kopya	-9.63039
▁ni	-9.63105
▁bakteri	-9.63127
hane	-9.63127
▁Amerikalı	-9.63214
▁dokun	-9.6328
▁yaşındaki	-9.63421
ılıyor	-9.63462
▁öğrendim	-9.63538
▁söyley	-9.63616
▁işçi	-9.63637
▁kısmını	-9.63638
nca	-9.63671
▁hali	-9.63722
▁buz	-9.63739
▁is	-9.63757
▁kay	-9.63875
▁makale	-9.63877
▁yapmış	-9.63963
duğu	-9.63998
▁düşünmek	-9.6402
▁halk	-9.64036
▁organizasyon	-9.64202
▁ederek	-9.64213
▁kavram	-9.64238
▁gücünü	-9.64267
▁olduğumuzu	-9.64354
▁konuşuyor	-9.64356
▁adamı	-9.64418
umu	-9.64436
▁sonu	-9.64475
▁seks	-9.64578
▁sanal	-9.64581
▁ettiler	-9.64585
▁bisiklet	-9.64592
▁Chris	-9.64592
▁işbirliği	-9.64592
▁Güneş	-9.64593
▁bulunuyor	-9.64615
leyici	-9.64643
▁Yine	-9.6465
▁Sizin	-9.64667
▁gaye	-9.6471
▁laboratuvar	-9.64737
▁olmaları	-9.64931
▁okula	-9.64954
▁burası	-9.65087
▁katıl	-9.65101
▁çalıştık	-9.65174
▁barış	-9.65185
kal	-9.65269
▁kapat	-9.65396
▁cevabı	-9.6543
▁sağlayacak	-9.65648
▁Ona	-9.65681
▁verileri	-9.65734
▁edildi	-9.65786
emez	-9.65806
▁neyse	-9.65807
▁sana	-9.65849
▁elimizde	-9.65866
▁beyni	-9.65969
▁so	-9.65976
▁sokak	-9.66042
▁aşama	-9.6607
layacak	-9.66116
▁almaya	-9.66131
▁21	-9.66169
▁mahalle	-9.66171
▁dili	-9.66277
mekte	-9.663
gan	-9.66353
▁biyolojik	-9.6641
▁mimari	-9.66417
▁Hem	-9.6651
fer	-9.66536
syon	-9.66568
tığını	-9.6665
seydi	-9.66693
▁mo	-9.66824
ğım	-9.66832
▁sürdür	-9.66872
▁benzeri	-9.66922
▁gösterme	-9.66925
▁müthiş	-9.66968
▁düşür	-9.6699
▁24	-9.67033
nızın	-9.67103
sidir	-9.67153
▁değişikliği	-9.67188
▁aş	-9.67188
▁kural	-9.6719
larınızı	-9.67237
▁yakıt	-9.67274
▁hayatımı	-9.67299
▁çıkart	-9.67339
▁soğuk	-9.67427
▁kanseri	-9.67442
▁isteyen	-9.675
▁sıkı	-9.67603
▁boya	-9.67644
▁çekti	-9.67673
ladık	-9.67702
▁burda	-9.67703
▁kaçır	-9.67748
▁obje	-9.67773
▁tablo	-9.67773
▁kağıt	-9.67773
ow	-9.67779
nizin	-9.67838
for	-9.67859
süz	-9.67915
▁Ti	-9.68005
▁kuvvet	-9.68056
▁ayı	-9.68062
▁birine	-9.68127
▁görürsünüz	-9.68178
▁vatandaş	-9.68178
▁göreceksiniz	-9.68193
▁sordu	-9.68201
▁olmadı	-9.68387
▁fil	-9.68492
▁çoğunu	-9.68576
▁bağımsız	-9.68584
▁mesafe	-9.68584
▁çöp	-9.68585
▁makina	-9.68586
▁kilometre	-9.68587
▁reklam	-9.68589
▁değiştirme	-9.68668
▁öğrenmek	-9.68719
▁Pi	-9.68725
ff	-9.68732
▁In	-9.68737
▁web	-9.68993
▁buçuk	-9.68998
▁spor	-9.69
gı	-9.69047
▁onlarla	-9.69051
▁motor	-9.69117
▁ettiğim	-9.69125
▁net	-9.69164
▁batı	-9.69177
▁salgın	-9.69278
▁başarısız	-9.69308
▁zayıf	-9.69402
▁Küçük	-9.69403
▁buldu	-9.69445
▁sap	-9.69467
▁hepimizin	-9.69474
▁uyum	-9.69508
▁benimle	-9.69535
▁şa	-9.69558
▁ödeme	-9.69649
▁Devletler	-9.69738
▁sinyal	-9.69754
▁şüphe	-9.69779
▁tehlike	-9.69779
▁anahtar	-9.69814
▁tuhaf	-9.69814
▁İngiltere	-9.69814
▁bomba	-9.69815
▁Hiçbir	-9.69827
▁büyüdü	-9.69921
▁kaza	-9.69971
▁geçiyor	-9.69984
iyordu	-9.6999
idir	-9.70004
▁kum	-9.70053
▁geleceği	-9.70134
▁olacağı	-9.70137
▁düşündü	-9.70137
▁HIV	-9.70227
▁çalıştım	-9.70231
▁ofis	-9.7038
▁arkadaşlarım	-9.70399
▁bilir	-9.70523
gen	-9.70525
▁buydu	-9.70531
▁iddia	-9.70642
▁seçenek	-9.70642
if	-9.70663
lanması	-9.70713
▁yada	-9.70727
▁şansı	-9.70737
ciler	-9.70753
▁sun	-9.70757
▁saç	-9.70786
▁diş	-9.70843
▁koru	-9.70897
▁azal	-9.70922
▁düz	-9.70974
ımın	-9.70979
▁geçiş	-9.71034
▁grafik	-9.71059
▁nefret	-9.71059
▁yeteneği	-9.71059
▁çatışma	-9.71062
▁firma	-9.71076
▁görmeye	-9.71089
▁verilen	-9.71114
▁sessiz	-9.71127
▁rakam	-9.71173
▁devrim	-9.71192
▁sorumlu	-9.71207
ilmesi	-9.7123
▁don	-9.71245
▁yapacağı	-9.71246
▁başı	-9.71385
▁Ses	-9.71454
▁kullandığı	-9.71472
▁yemeği	-9.71479
▁sonuçları	-9.71513
▁aklım	-9.7153
▁şeklinde	-9.71535
▁ayar	-9.71682
▁sordum	-9.71714
▁Dr	-9.71763
abileceğimiz	-9.71774
lıkla	-9.71846
malı	-9.71858
▁standart	-9.71897
▁çarp	-9.71911
▁kullanır	-9.71916
▁kullanıcı	-9.71962
gel	-9.72009
▁Kız	-9.72027
▁uyar	-9.72028
▁geliştirme	-9.72063
▁biyoloji	-9.72065
ebilirim	-9.72067
nıza	-9.72072
▁kendimiz	-9.7208
▁görünen	-9.72095
muştu	-9.72127
mayan	-9.72223
▁keşif	-9.72319
▁protein	-9.72321
▁parçaları	-9.7245
▁İngilizce	-9.72464
▁kullanılan	-9.72513
▁çıkardı	-9.72564
▁boyu	-9.72705
▁çevir	-9.72712
▁Harika	-9.72744
▁yerleştir	-9.72764
▁uzan	-9.72766
▁dergi	-9.72816
▁değiştirdi	-9.72825
▁yapabilirsiniz	-9.72883
▁dönüşüm	-9.72884
▁ölü	-9.72947
▁bakmak	-9.73032
▁alanında	-9.73074
▁hesaplama	-9.73126
▁Elbette	-9.73169
▁Şöyle	-9.73169
▁sıradan	-9.73216
▁dediler	-9.73281
ebilmek	-9.73307
▁uygulan	-9.7336
▁arası	-9.73529
▁kaybed	-9.73534
larındaki	-9.73576
▁sürdürülebilir	-9.73596
▁hafif	-9.73596
▁birleştir	-9.73667
▁doğum	-9.7368
▁inanma	-9.73689
ucu	-9.73758
▁alanlar	-9.73807
▁başa	-9.73864
▁istediğiniz	-9.73953
▁yönlendir	-9.74007
▁The	-9.74071
▁hissi	-9.74077
▁gez	-9.74088
▁ödül	-9.74103
▁verdiği	-9.74108
▁boy	-9.74201
▁yazılım	-9.74246
▁giriş	-9.74263
saydı	-9.74328
▁alış	-9.7435
▁veriler	-9.74407
▁balığı	-9.74456
mıştır	-9.74467
▁yaratma	-9.74468
lerdeki	-9.74504
sünü	-9.74549
▁zorundayız	-9.74556
▁sizinle	-9.74558
▁Mü	-9.74559
▁terk	-9.74646
▁olun	-9.74688
indeki	-9.74713
▁bıraktı	-9.7474
▁olabileceği	-9.74747
▁sevdiğim	-9.74761
▁önemlidir	-9.74888
▁Or	-9.74941
▁duygusal	-9.74946
ac	-9.74977
abilirim	-9.75146
▁gazete	-9.75156
ara	-9.75158
ımızı	-9.75165
▁Asya	-9.75181
▁dediği	-9.75251
▁ünlü	-9.75358
▁Çocuklar	-9.75363
▁Sonun	-9.75399
▁denedi	-9.75407
▁değerli	-9.75458
▁Par	-9.75543
▁gördü	-9.75543
▁miktar	-9.75548
▁boz	-9.75552
▁his	-9.75637
▁matematik	-9.75676
▁değiliz	-9.75755
▁üstüne	-9.75759
▁plastik	-9.75761
▁değiller	-9.758
▁yapıldı	-9.75801
▁giderek	-9.75824
▁Ah	-9.75907
▁farklılık	-9.75991
▁sesleri	-9.76026
▁eyalet	-9.76199
▁Afganistan	-9.762
▁bekliyor	-9.76203
▁oyuncu	-9.76273
▁evrenin	-9.76332
fen	-9.7635
▁pat	-9.76376
▁öldü	-9.76385
▁dal	-9.76411
▁miyi	-9.76442
▁karşılaş	-9.76552
▁kör	-9.76556
▁aktivite	-9.76641
▁hatırla	-9.76696
▁saf	-9.76733
▁sağlama	-9.76742
yacağım	-9.7676
▁etmiş	-9.76796
▁olanı	-9.76841
▁sistemin	-9.76863
▁sağlar	-9.76966
landırma	-9.76993
▁türü	-9.77007
▁suyun	-9.77015
▁asker	-9.77072
▁kü	-9.77074
▁sorunlar	-9.77081
▁maymun	-9.77082
▁yolculuk	-9.7709
▁uçuş	-9.77183
▁Du	-9.77271
▁Car	-9.77353
mıyorum	-9.77357
▁yapıyorum	-9.77406
▁oluşturuyor	-9.77516
▁gelişmiş	-9.77527
▁işleri	-9.77547
▁araştır	-9.77601
ğını	-9.77669
▁keşfetti	-9.77688
▁patlama	-9.77715
▁yolunu	-9.77751
▁taki	-9.77838
▁çeki	-9.77865
▁Ye	-9.7795
▁ameliyat	-9.77973
▁istediği	-9.77983
▁to	-9.78005
▁yenilik	-9.78012
▁Bilirsin	-9.78054
▁eli	-9.78077
fo	-9.78104
▁yaptığını	-9.78158
▁önün	-9.78189
▁evde	-9.78294
▁imkan	-9.78297
▁kanun	-9.7832
▁şeyden	-9.78338
▁öğrendik	-9.7834
▁etmeyi	-9.78383
▁mekanizma	-9.78424
▁öğretmen	-9.78449
▁İç	-9.78594
ğini	-9.78609
▁dönüştür	-9.7864
▁durma	-9.78643
vu	-9.78655
▁kitle	-9.78712
▁arkadaşları	-9.78723
dıklarını	-9.78783
tme	-9.78813
▁itibar	-9.78872
▁kahraman	-9.78872
▁sabit	-9.78872
▁fikirleri	-9.78883
▁yapay	-9.78893
niversitesi	-9.78968
▁paylaşmak	-9.79002
▁görür	-9.79035
ümüz	-9.79121
▁edilme	-9.79121
düğü	-9.79135
▁ceza	-9.7914
üş	-9.79159
▁açtı	-9.7919
▁Anne	-9.79219
▁nevi	-9.79321
mem	-9.79322
▁Gördüğünüz	-9.79324
▁posta	-9.79325
▁edip	-9.79329
ilir	-9.79333
▁yönetim	-9.79359
liğinde	-9.79393
▁oyunu	-9.79409
▁toplantı	-9.79413
▁Yo	-9.79419
▁detay	-9.79435
▁tasarla	-9.7947
▁radyo	-9.79492
▁Bize	-9.79503
▁olabileceğini	-9.79524
▁filmi	-9.79525
▁hissettiği	-9.7956
▁km	-9.79609
▁Hayatı	-9.79647
▁delik	-9.79745
kça	-9.79757
▁önümüzde	-9.79782
▁servis	-9.79784
ırlar	-9.79803
rik	-9.79817
▁salon	-9.79863
hr	-9.79936
▁Doğru	-9.80003
rı	-9.80041
mayacak	-9.80051
▁not	-9.80059
kül	-9.80062
▁vur	-9.80083
inizi	-9.80107
ince	-9.80132
▁dağıt	-9.80155
▁şirketi	-9.80232
▁kemik	-9.80236
▁uluslararası	-9.80236
▁oluşturmak	-9.80281
▁ata	-9.8029
arı	-9.80306
▁dinley	-9.80319
▁hap	-9.80332
ong	-9.80341
larımı	-9.80361
▁işle	-9.8038
W	-9.80402
▁mantıklı	-9.80468
▁gözleri	-9.8061
▁toplumun	-9.80615
▁kaynakları	-9.80636
▁uğraş	-9.80639
▁müşteri	-9.80694
▁yerler	-9.80697
▁verecek	-9.80744
▁Kur	-9.80784
▁tutar	-9.80848
▁Bay	-9.80873
▁tık	-9.80898
uldu	-9.80948
▁hikayeler	-9.81007
▁koku	-9.81044
▁Sta	-9.81061
▁sığ	-9.81136
▁bulut	-9.8114
leşti	-9.81143
▁ayakkabı	-9.81155
▁sarı	-9.81162
▁300	-9.81196
▁Okul	-9.81211
▁karşılaştır	-9.81258
▁fotoğrafı	-9.81306
▁kart	-9.81332
▁kıl	-9.81373
▁yüzyılda	-9.81417
madı	-9.81419
▁bulundu	-9.8142
▁deli	-9.81524
▁belge	-9.81618
▁öldür	-9.81666
▁karış	-9.81685
▁besin	-9.81723
▁araçları	-9.81832
▁endüstri	-9.81851
▁tü	-9.81852
▁yayıl	-9.81872
▁Kan	-9.81939
▁atı	-9.82058
▁karınca	-9.82104
▁adalet	-9.82105
▁etiket	-9.82113
larsa	-9.82129
▁çoğunlukla	-9.8215
▁Eski	-9.82162
lılar	-9.82274
▁yaşamak	-9.82285
▁gerçeklik	-9.82291
▁inanç	-9.82292
▁alacak	-9.82383
▁anladı	-9.82407
▁kullandık	-9.82533
▁yeti	-9.82543
▁sağlığı	-9.82581
▁bo	-9.82683
▁geldik	-9.82747
▁ediyordu	-9.82801
ilebilir	-9.82837
liydi	-9.82874
▁hatırlıyorum	-9.83047
▁Önce	-9.83077
asyonu	-9.83099
▁etkilen	-9.83103
▁istiyorlar	-9.83111
▁bilinen	-9.83134
ic	-9.83184
▁kalıyor	-9.83267
▁açısı	-9.83293
▁olanak	-9.833
▁geldiğinde	-9.83327
▁getirme	-9.83389
lıyoruz	-9.83416
▁Hepsi	-9.83421
▁olabilecek	-9.83436
▁galaksi	-9.83492
▁Davi	-9.83533
▁edebilirsiniz	-9.83572
ırız	-9.83653
▁diyorum	-9.83685
▁içer	-9.83778
▁anlattı	-9.83903
▁bozu	-9.83908
▁altyapı	-9.83966
▁epey	-9.83966
▁sizlere	-9.84005
▁fazlasını	-9.84012
▁yönel	-9.84038
var	-9.84051
▁yılı	-9.84056
▁adamın	-9.84146
rin	-9.84174
▁nüfus	-9.84181
lıyım	-9.84235
▁birinci	-9.84256
▁seçme	-9.84331
▁özgür	-9.84364
▁Londra	-9.84442
▁yarış	-9.84443
▁şeker	-9.84444
▁sü	-9.84469
net	-9.84592
▁şeydir	-9.84601
▁ölme	-9.84614
diklerini	-9.84626
▁buluş	-9.84643
▁ettir	-9.847
▁olasılık	-9.84739
▁sistemleri	-9.84747
ımda	-9.84771
▁Bak	-9.84852
▁artış	-9.84853
▁dokuz	-9.84909
▁gurur	-9.84921
bar	-9.84943
▁yola	-9.84949
maları	-9.85153
▁birbirleri	-9.8523
▁maliyet	-9.85247
▁Birincisi	-9.85325
▁yollar	-9.85357
isi	-9.85361
acaksınız	-9.85366
▁öykü	-9.85402
▁Lo	-9.85418
▁düşündüğümüz	-9.85469
▁neyin	-9.85517
▁dikkatli	-9.85533
▁tasarımcı	-9.85588
▁çekme	-9.85614
ladım	-9.8562
tığımız	-9.85634
▁kapalı	-9.85845
▁eğitimi	-9.85851
yorlar	-9.85876
▁parlak	-9.85887
▁bağış	-9.85898
şim	-9.85968
izm	-9.86
▁oto	-9.86172
▁Aile	-9.8618
▁karşılaştı	-9.86189
▁koyu	-9.86221
▁yanıt	-9.86228
▁bilmek	-9.8624
ğın	-9.86309
▁pro	-9.86369
▁lütfe	-9.8637
▁siyasi	-9.86371
▁taban	-9.86399
▁gelişmekte	-9.86401
▁düşündüğüm	-9.86401
▁aktif	-9.86407
maktan	-9.86473
▁gittik	-9.86562
▁Sh	-9.86586
▁öner	-9.866
▁kıyı	-9.86655
▁ulaşma	-9.86671
ly	-9.86751
▁olabilirsiniz	-9.86846
▁şifre	-9.86857
▁Güzel	-9.86858
▁cümle	-9.86858
▁karıştır	-9.86903
▁dediğimiz	-9.86927
▁ötesinde	-9.86934
je	-9.86957
▁girişimci	-9.86962
▁olayı	-9.87048
▁yaşadığı	-9.8706
▁mimar	-9.87077
▁yaptığınız	-9.87097
▁ters	-9.8716
▁potansiyel	-9.87269
▁tırman	-9.87354
nizde	-9.87409
mis	-9.8743
▁duyar	-9.87454
▁ölçek	-9.875
▁ölçüde	-9.87565
▁ismi	-9.87566
▁Göz	-9.87567
▁sağlay	-9.87591
▁harcama	-9.87607
ırsınız	-9.87609
meli	-9.87627
▁İngiliz	-9.87672
▁geçer	-9.87735
▁depo	-9.87826
▁tespit	-9.8784
▁şiir	-9.87843
▁Der	-9.87844
▁toplama	-9.87862
▁yaka	-9.87875
leniyor	-9.87916
▁adamları	-9.87936
▁çalışmaları	-9.87941
▁görevi	-9.8804
▁yolla	-9.88047
lanır	-9.88079
▁korumak	-9.881
▁Bar	-9.8815
▁halka	-9.88175
▁inanıyor	-9.88258
▁diğeri	-9.88266
gü	-9.88321
▁zihni	-9.88325
▁...	-9.88335
▁biçim	-9.88364
liler	-9.88382
▁başladılar	-9.88383
▁gerekirse	-9.8848
menin	-9.88515
▁görebilir	-9.88601
▁başlay	-9.88815
▁ediliyor	-9.88893
▁bölümü	-9.88894
▁Bazıları	-9.88917
▁birbirin	-9.88926
▁kanal	-9.89025
▁koydu	-9.89035
▁arkasında	-9.89135
manız	-9.89136
ğünü	-9.89166
▁yaptılar	-9.89182
▁toplan	-9.89225
▁nda	-9.89226
▁çılgın	-9.89235
▁nükleer	-9.89333
▁Teknoloji	-9.89333
▁sır	-9.89333
▁yargı	-9.89333
▁cinsel	-9.89346
▁cinsiyet	-9.8936
▁inceleme	-9.89386
▁güney	-9.89414
▁karşısında	-9.8946
▁düzey	-9.89556
▁tarafında	-9.89582
▁değişme	-9.8961
▁sürece	-9.89696
ulmuş	-9.89799
▁kapa	-9.89807
lıkları	-9.89821
▁kullanımı	-9.89851
▁olabil	-9.89919
▁hayata	-9.89924
▁alanları	-9.89957
▁insanlardan	-9.90059
lke	-9.90075
kte	-9.9017
▁günün	-9.9018
▁yaratıyor	-9.90266
lıydı	-9.9027
▁Hu	-9.90313
▁etrafı	-9.90315
▁yansıt	-9.90327
▁vaka	-9.90341
▁taklit	-9.90344
▁kulak	-9.90348
▁koyar	-9.90393
▁mutluluk	-9.90402
örü	-9.9045
▁yürüt	-9.90476
ledi	-9.90495
▁kullanıyoruz	-9.90515
▁çalıştığımız	-9.90515
▁girişim	-9.90559
▁aşk	-9.90591
ebilen	-9.90608
▁Go	-9.90624
▁sorma	-9.90656
▁toplu	-9.9069
▁istey	-9.90695
▁seni	-9.90707
▁uğra	-9.9075
▁Hal	-9.90773
▁suçlu	-9.90798
▁doldur	-9.90809
▁kablo	-9.90837
▁kamp	-9.90842
▁bağımlı	-9.90855
▁harf	-9.90864
▁istedi	-9.90877
▁kaba	-9.90933
▁bahsetmek	-9.90964
▁yarım	-9.90966
▁olmaktan	-9.91019
▁isterim	-9.91101
▁Mil	-9.91138
▁büyüt	-9.91153
▁nereden	-9.91192
▁Afrikalı	-9.91214
▁yılın	-9.91267
▁çalıştır	-9.91274
ard	-9.91288
▁saye	-9.91312
▁öğrenciler	-9.91336
▁tıbbi	-9.91358
▁çiçek	-9.91358
▁Söyle	-9.91359
▁toplay	-9.91403
nuzu	-9.91433
abildiği	-9.91507
▁Bakın	-9.91526
▁araştırmacı	-9.91547
▁ihtiyacınız	-9.91556
sizlik	-9.91587
▁Top	-9.91601
▁Fa	-9.91617
▁Hasta	-9.91726
leyecek	-9.91731
▁çıkarmak	-9.91772
▁Gö	-9.91784
▁hareketi	-9.91811
▁ani	-9.91825
▁konferans	-9.91871
▁bü	-9.91875
▁gö	-9.91909
▁tasarımı	-9.92055
▁değeri	-9.92196
▁İn	-9.92254
▁istedik	-9.92273
▁işletme	-9.9231
▁kaybetti	-9.92341
▁Wi	-9.9236
ja	-9.92378
lendirme	-9.92458
düğünü	-9.92491
▁yaşıyoruz	-9.92578
▁diyoruz	-9.92602
▁Bel	-9.92684
▁du	-9.92858
▁Pe	-9.9286
▁marka	-9.92905
▁dışarıda	-9.92912
▁daire	-9.9298
▁arttır	-9.93017
ttiği	-9.93044
▁vermeye	-9.93057
▁artır	-9.93091
▁Onların	-9.93109
▁şekillendir	-9.93151
▁gelmiş	-9.93176
▁dedik	-9.93205
▁dava	-9.93271
▁yapacağım	-9.93426
▁es	-9.93436
▁Sanat	-9.93443
▁kriz	-9.93653
▁Fe	-9.93785
▁anlaşma	-9.93811
▁etraf	-9.93819
▁arkadaşı	-9.93894
▁grubu	-9.93919
kti	-9.93934
▁sembol	-9.93961
abilen	-9.93965
▁komik	-9.93983
meden	-9.94009
layarak	-9.94036
likten	-9.94038
▁kullandığımız	-9.94068
▁0	-9.9409
▁anlamıyla	-9.94139
▁hakları	-9.94149
▁teknolojiyi	-9.94192
▁bol	-9.94193
yacak	-9.94203
▁yapabileceği	-9.94244
▁ulus	-9.94451
▁sandalye	-9.94475
▁rapor	-9.94475
▁robotlar	-9.94496
▁gittiği	-9.94508
▁Irak	-9.94523
▁edebiliriz	-9.946
▁yapılması	-9.94647
▁musun	-9.94703
▁misin	-9.94707
▁etkin	-9.94733
duğunu	-9.94735
▁düzenleme	-9.94748
▁içi	-9.94766
▁eğilim	-9.94832
▁anlayabil	-9.94866
▁savunma	-9.94921
▁kuzey	-9.94952
▁çök	-9.94998
▁şeydi	-9.9502
▁arzu	-9.95022
▁ülkelerin	-9.95065
▁kişiye	-9.95174
▁gösterir	-9.9521
▁düştü	-9.9521
yalım	-9.95216
amazsınız	-9.9522
yecek	-9.95314
▁Hayat	-9.95314
▁farkı	-9.95514
▁sermaye	-9.95537
▁dürüst	-9.95537
▁ağacı	-9.95541
ladığı	-9.95572
▁sevme	-9.95624
▁performans	-9.9573
▁haklı	-9.95798
▁ürünleri	-9.95798
▁Fr	-9.95821
▁Sol	-9.95863
▁gelişim	-9.95933
lenmesi	-9.95939
▁konum	-9.95958
imde	-9.95961
▁karşılık	-9.95968
▁soy	-9.95972
▁Tekrar	-9.96072
▁kıta	-9.96077
▁tuvalet	-9.96079
▁çalıştığı	-9.96113
▁görüyorum	-9.96208
▁gittikç	-9.96249
rit	-9.96329
▁ün	-9.9635
▁yönde	-9.96391
ğında	-9.965
▁sorunun	-9.96519
▁ücret	-9.96573
▁ihtimalle	-9.96581
▁aktar	-9.96582
▁ekibi	-9.9661
▁karışık	-9.96623
▁To	-9.96648
▁degil	-9.96652
▁bayan	-9.96732
diğinizde	-9.96762
▁kıs	-9.96815
▁kendileri	-9.96872
rke	-9.96873
▁Hava	-9.96879
▁ham	-9.96892
▁hissediyor	-9.9696
▁sok	-9.97015
▁bulmaya	-9.97024
▁özelliği	-9.97046
▁banka	-9.9706
▁yerden	-9.97143
▁İsrail	-9.97149
▁balina	-9.97152
▁yönetici	-9.97178
▁ge	-9.97192
▁denen	-9.97222
▁değişiklik	-9.97249
▁şehirler	-9.97268
▁düşünüyoruz	-9.97314
▁anlatı	-9.97355
▁katman	-9.97428
▁gruplar	-9.9752
lerse	-9.97596
▁yeme	-9.97616
▁Gel	-9.97617
▁yarar	-9.97658
▁deneyimi	-9.9766
▁Bilgisayar	-9.97693
▁berbat	-9.97693
▁serbest	-9.97693
▁yavru	-9.97693
▁mağara	-9.97693
▁ordu	-9.97717
▁kullanan	-9.97726
▁kayıp	-9.97789
▁2000	-9.97834
ven	-9.97845
malısınız	-9.97855
▁koyma	-9.97896
▁kazandı	-9.97915
▁oğlu	-9.97931
▁kurallar	-9.97942
▁ulaşmak	-9.98017
▁pencere	-9.98239
▁şefkat	-9.98239
▁balon	-9.98277
▁kuralları	-9.98278
▁atık	-9.98302
ecektir	-9.98319
▁başladığı	-9.98345
▁başlangıç	-9.98413
▁başlat	-9.98483
▁kor	-9.9851
▁Sağ	-9.98527
▁şe	-9.98528
likte	-9.98611
▁oluşturma	-9.98633
abilirler	-9.98654
▁ez	-9.98687
▁seri	-9.98713
▁kurmak	-9.98769
▁hukuk	-9.98789
mıyoruz	-9.98799
▁atom	-9.98817
miyoruz	-9.98836
▁evrensel	-9.98894
▁Geri	-9.98894
▁söylediğim	-9.98907
▁bilgileri	-9.98933
▁edersiniz	-9.9894
▁bekleme	-9.98941
▁olamaz	-9.99016
▁üretme	-9.992
▁sert	-9.99225
ang	-9.99259
çüncü	-9.9933
▁dizayn	-9.99342
▁kulağ	-9.99362
▁kedi	-9.99364
▁yerlere	-9.99383
▁deniyor	-9.99432
▁yor	-9.99458
amayacak	-9.9946
▁yakında	-9.99571
▁V	-9.99636
cik	-9.99653
▁elinde	-9.99701
▁ihtiyaçları	-9.99756
▁kendinizi	-9.99796
▁olacaktı	-9.9981
abileceğiniz	-9.99815
▁görüşme	-9.99855
▁işim	-9.99883
▁ticari	-9.99897
▁rekabet	-9.99897
▁kampanya	-9.99897
▁günümüzde	-9.99903
▁şehri	-9.99915
▁tanıştı	-9.99978
▁ihtiyacım	-9.99984
▁çizim	-10.0003
▁yöntemi	-10.0005
▁Wal	-10.0016
gar	-10.0016
unuz	-10.0016
ümü	-10.002
▁miydi	-10.0025
▁tanımlama	-10.0026
▁uyu	-10.0031
▁eşi	-10.0037
▁ip	-10.0041
▁düşman	-10.0042
▁cesaret	-10.0043
▁başlangıcı	-10.0046
▁beklenti	-10.0046
▁çağ	-10.0047
▁çalıştığını	-10.0049
▁Biliyorsunuz	-10.0049
▁şaşır	-10.0054
▁bildiği	-10.0066
acağımız	-10.0071
▁anlatıyor	-10.0073
▁krizi	-10.0077
▁lise	-10.0078
▁kimya	-10.0082
▁kapsa	-10.0088
larımızda	-10.0089
▁ser	-10.009
duğumuz	-10.01
▁mercan	-10.0102
▁gözüküyor	-10.0102
▁Yaklaşı	-10.0102
▁kredi	-10.0102
▁bulabil	-10.0107
lerindeki	-10.0122
▁yaptır	-10.0131
▁kıyasla	-10.0137
▁bireyler	-10.0137
▁alabilir	-10.0147
lenen	-10.0148
▁fizik	-10.015
▁parçalar	-10.015
▁benden	-10.0151
▁kok	-10.0155
▁dek	-10.0155
dınız	-10.0156
▁zevk	-10.0158
▁tavsiye	-10.0158
▁gibiydi	-10.0159
▁Sana	-10.016
▁askeri	-10.016
▁görünür	-10.0161
▁domuz	-10.0162
kür	-10.0162
▁ulusal	-10.0165
▁istiyorsanız	-10.0167
▁Sağlık	-10.0173
▁taşıma	-10.0184
▁dünyasında	-10.0187
50	-10.0192
▁yarattığı	-10.0196
ırdı	-10.0201
▁Kal	-10.0204
log	-10.0207
yorsunuz	-10.0207
▁İkincisi	-10.0214
▁uygula	-10.0215
▁Brezilya	-10.0215
▁karşıya	-10.0215
▁memnun	-10.0215
▁gökyüzü	-10.0215
▁sıvı	-10.0216
▁boşluk	-10.022
▁dayalı	-10.0223
▁hikayesi	-10.0226
▁düşünül	-10.0236
▁yerini	-10.0241
mızdan	-10.0243
▁yürüy	-10.0243
▁edebiliyor	-10.0257
▁hassas	-10.0258
▁şanslı	-10.026
▁bırakma	-10.0262
▁tartış	-10.0262
▁çalışmalar	-10.0266
▁engelli	-10.0269
▁Araştırma	-10.0272
▁Facebook	-10.0272
▁gürültü	-10.0272
▁oksijen	-10.0272
▁sivil	-10.0272
▁merkezinde	-10.0272
▁talep	-10.0272
ime	-10.0273
▁198	-10.0274
▁tanrı	-10.0274
▁mekan	-10.0276
▁400	-10.0283
▁görüşü	-10.0298
▁Ö	-10.0303
▁uça	-10.0308
▁Hey	-10.031
▁tas	-10.0315
lması	-10.0322
▁yapabil	-10.0325
▁olmaması	-10.0326
▁kullanım	-10.0328
▁gönüllü	-10.033
▁alkış	-10.033
▁fikrini	-10.0331
▁Sorun	-10.0331
▁Kimse	-10.0341
▁Pro	-10.0347
▁eminim	-10.0348
▁kesim	-10.0349
▁eser	-10.0353
▁edebil	-10.0358
▁göze	-10.0364
▁um	-10.0365
▁Gu	-10.0365
▁çıkı	-10.037
▁döner	-10.0371
▁sistemini	-10.0372
▁ettiğini	-10.0379
müştü	-10.038
▁çıkış	-10.0385
▁kimin	-10.0386
▁ibaret	-10.0387
▁kuruluş	-10.0389
▁Altı	-10.0404
meleri	-10.0404
▁dişi	-10.0413
▁dönme	-10.0417
▁edilebilir	-10.0418
▁yetenek	-10.042
▁le	-10.042
▁yazık	-10.0421
yacağını	-10.043
▁peki	-10.0431
▁sahiptir	-10.0432
bet	-10.0432
▁AIDS	-10.0446
▁kahve	-10.0446
▁kütle	-10.0446
▁bileşen	-10.0448
▁tarzı	-10.0448
▁elektronik	-10.0449
▁bölgede	-10.0453
▁yapabiliyor	-10.0453
lmaz	-10.0457
▁Almanya	-10.0462
▁toplumsal	-10.0463
▁tamamı	-10.0465
ire	-10.0467
▁türden	-10.0471
▁uzaklaş	-10.0472
▁yapama	-10.0477
▁böl	-10.0484
▁yoluyla	-10.0484
▁dönemde	-10.0494
▁bebeği	-10.0504
▁acil	-10.0508
▁gördüğüm	-10.0516
▁durumunda	-10.0517
abileceğini	-10.0523
▁değişti	-10.0528
▁vücudu	-10.0534
▁Şunu	-10.0539
▁hastalıklar	-10.0541
▁oluşturan	-10.0543
▁görü	-10.0552
▁kul	-10.0553
▁zamanlı	-10.0562
▁hafıza	-10.0563
▁kıyafet	-10.0563
▁müdahale	-10.0563
▁bütçe	-10.0563
▁fonksiyon	-10.0563
▁müze	-10.0564
▁gelebilir	-10.0564
melisiniz	-10.0573
ysanız	-10.0574
▁oyna	-10.0577
irken	-10.058
▁dönüştü	-10.0582
▁Pek	-10.0582
ksiyon	-10.0585
▁olmanız	-10.0586
▁kadının	-10.0587
▁duyuyor	-10.059
▁endişelen	-10.0596
▁çağır	-10.0597
iyordum	-10.0604
sindeki	-10.0605
zo	-10.0613
▁hissettir	-10.0617
▁kelimeler	-10.0622
▁materyal	-10.0622
▁Uzun	-10.0622
▁mantar	-10.0622
▁eğit	-10.063
▁çoğunluğu	-10.0631
eceksiniz	-10.0633
▁tanıma	-10.0636
▁bilinç	-10.0637
▁Japonya	-10.0637
nom	-10.064
▁bahsediyor	-10.0645
▁nadir	-10.0652
▁durdur	-10.0654
▁değerlendir	-10.0661
▁takdir	-10.0671
▁fayda	-10.0676
▁Pat	-10.0679
▁duru	-10.0684
▁oranda	-10.0687
▁yapılma	-10.0696
▁koyuyor	-10.0698
▁etmemiz	-10.0705
▁başlayan	-10.0707
umun	-10.0708
etti	-10.0715
▁gerekti	-10.0717
▁Kadın	-10.072
▁tutma	-10.0721
▁tesis	-10.0724
▁maru	-10.0725
▁oluşuyor	-10.0731
▁diz	-10.0733
▁paylaşma	-10.0735
▁istatistik	-10.0741
▁manzara	-10.0741
▁roman	-10.0744
▁istemiyor	-10.0745
▁unutma	-10.0747
ımızın	-10.075
▁yapmıyor	-10.0758
lüyor	-10.0765
▁isterse	-10.0771
çu	-10.0778
ğine	-10.078
▁alarak	-10.0782
▁ulaştı	-10.0785
▁Yaşam	-10.0787
▁kültüre	-10.0788
▁çalışması	-10.0788
▁kendisini	-10.0792
▁yaşamın	-10.0794
▁özgü	-10.0794
▁edilmesi	-10.0799
▁fırsatı	-10.08
▁trilyon	-10.0802
▁faktör	-10.0802
▁imza	-10.0802
▁sıtma	-10.0803
▁baz	-10.0803
▁ilacı	-10.0809
▁Annem	-10.0812
▁yetiş	-10.0815
▁bilgisayarlar	-10.0817
▁hi	-10.0818
▁tüket	-10.0821
▁Kenya	-10.0822
▁çözü	-10.0823
amayacağı	-10.0829
▁Deniz	-10.0841
▁Dedi	-10.0844
▁lerde	-10.0847
▁ağı	-10.0848
▁sistemler	-10.0852
▁etmiyor	-10.0858
▁kurul	-10.086
▁doğdu	-10.0861
▁paket	-10.0862
▁deyişle	-10.0865
▁çocuklara	-10.0874
ladığımız	-10.0876
aj	-10.0881
▁ederken	-10.0886
ğümüz	-10.0888
sıdır	-10.089
▁olduğunuzu	-10.0891
▁dolara	-10.0892
▁Dev	-10.0893
bb	-10.0902
▁tren	-10.0905
▁Sizi	-10.0906
▁izleme	-10.091
▁başlattı	-10.0913
ram	-10.0913
▁durumun	-10.0917
▁finans	-10.092
▁üzeri	-10.0921
▁alternatif	-10.0923
▁teşhis	-10.0923
▁yumurta	-10.0923
▁zemin	-10.0923
▁popüler	-10.0923
▁Yalnız	-10.0923
▁İran	-10.0924
▁tüketici	-10.0925
▁Soru	-10.093
▁yaşa	-10.0931
eğe	-10.0938
▁öğretti	-10.0938
▁köle	-10.0941
gün	-10.0946
▁Am	-10.0954
▁nedeniyle	-10.0957
▁yöne	-10.0957
▁ihtimali	-10.0959
▁anlatma	-10.096
▁kalite	-10.0964
▁bende	-10.0968
▁yapabilecek	-10.097
abildi	-10.0977
muzu	-10.0977
▁tümör	-10.0982
▁ekosistem	-10.0985
▁vakit	-10.0985
▁baktığınızda	-10.0995
ell	-10.1
▁am	-10.1008
▁katılma	-10.101
▁isimli	-10.1013
▁mantık	-10.1015
▁oluşturur	-10.1028
acağınız	-10.1033
▁biçimi	-10.1035
▁Fo	-10.1036
▁takımı	-10.104
▁hükümeti	-10.1043
▁Mısır	-10.1046
▁yörünge	-10.1046
▁Konuşma	-10.1047
▁evin	-10.105
cılık	-10.1051
▁Ulusa	-10.1053
▁getiren	-10.1054
▁yaptıklarını	-10.1057
▁oluş	-10.1058
▁etmesi	-10.1059
▁ahlaki	-10.1059
▁konuşmaya	-10.106
larımıza	-10.106
▁alalım	-10.1062
lerimizde	-10.1063
ılabilir	-10.1063
ecekler	-10.1064
ft	-10.1064
▁çiftçi	-10.1065
▁söylüyorum	-10.1069
▁çağrı	-10.1071
▁uy	-10.1072
▁komşu	-10.108
▁insanlık	-10.1081
▁tutmak	-10.1086
▁harca	-10.1097
▁anlar	-10.1102
▁örnekler	-10.1104
▁bulur	-10.1107
▁kızı	-10.1108
▁profesyonel	-10.1108
▁Genç	-10.1109
▁Özellikle	-10.1111
landığı	-10.1113
▁köşe	-10.1118
▁kişiyi	-10.1119
▁baktı	-10.112
▁Dan	-10.1124
▁tuz	-10.1129
raf	-10.1129
▁sonrası	-10.1132
▁yazdı	-10.1144
▁dünyası	-10.1153
▁saçma	-10.1161
▁olmama	-10.1163
▁bizimle	-10.1163
amadı	-10.1168
▁çerçeve	-10.1171
▁beğen	-10.1171
▁Kanada	-10.1172
altı	-10.1175
▁yalan	-10.1176
▁istemiyoru	-10.1176
▁Gün	-10.1178
▁yaşamı	-10.118
▁anlamlı	-10.1192
▁aldığı	-10.1194
▁organizma	-10.1206
▁çalıştı	-10.1212
ebileceğiniz	-10.1212
▁okulda	-10.1213
▁kaldırı	-10.1215
▁getirir	-10.1228
▁platform	-10.1234
▁heykel	-10.1234
▁rastgele	-10.1234
▁devasa	-10.1237
▁oturuyor	-10.1237
kâr	-10.1237
ınızı	-10.1238
▁bitkiler	-10.1239
▁kalmış	-10.1239
▁hatırlat	-10.1241
▁olası	-10.1243
▁imkanı	-10.1244
▁hissediyorum	-10.1244
▁koş	-10.1246
▁sürdü	-10.1258
▁aklın	-10.1258
▁üretimi	-10.1271
▁bakan	-10.1272
▁seviyor	-10.1274
▁öğrencileri	-10.1277
▁150	-10.1278
▁verdiler	-10.1288
▁Küresel	-10.1297
▁klinik	-10.1297
▁radikal	-10.1297
▁özellikleri	-10.1298
▁finansal	-10.1301
▁milyarlarca	-10.1302
▁mezun	-10.1304
▁eksik	-10.1304
▁konuya	-10.1311
▁yönelik	-10.1314
▁ederiz	-10.1321
▁fon	-10.1321
▁ebeveyn	-10.1334
▁Biri	-10.1342
▁geliyordu	-10.1344
▁küme	-10.1347
▁dönüyor	-10.1348
▁içerik	-10.1348
▁odada	-10.1351
▁şehirde	-10.1353
▁Dünyada	-10.1355
leyebilir	-10.1357
▁çözmek	-10.1357
▁tabaka	-10.1361
▁tarif	-10.1361
leştirmek	-10.1363
▁güvenilir	-10.1363
▁problemleri	-10.1367
düm	-10.1369
▁tel	-10.137
▁Öncelikle	-10.137
▁bal	-10.1372
▁yolda	-10.1374
▁zorundaydı	-10.1374
▁önemi	-10.1374
▁hepiniz	-10.1375
▁Neyse	-10.1375
▁çekmek	-10.1376
▁sınırları	-10.1384
▁terim	-10.1389
▁farkın	-10.1389
▁rastla	-10.1393
mizden	-10.1396
▁boyutu	-10.1405
▁yaşay	-10.1414
▁Adı	-10.1414
dığınızda	-10.1414
▁sonucunda	-10.1414
ore	-10.1418
▁yaşadığımız	-10.142
▁Değil	-10.1425
▁çıkarma	-10.1434
▁uyku	-10.1434
▁Yakın	-10.1435
▁vergi	-10.144
▁internette	-10.144
▁Doğa	-10.1443
▁heyecanlı	-10.145
▁Har	-10.145
▁Time	-10.1454
▁sağlam	-10.1467
▁çekiyor	-10.1468
▁ah	-10.1469
▁sürede	-10.147
▁götürdü	-10.1472
▁yarattı	-10.1477
▁oynama	-10.1482
▁bilimi	-10.1484
▁yaratı	-10.1487
▁maden	-10.1489
▁faaliyet	-10.1489
▁fosil	-10.1489
▁karikatür	-10.1489
▁kurban	-10.1491
▁diyelim	-10.1491
▁bilin	-10.1495
▁kilit	-10.1495
▁baktığımızda	-10.1499
▁biliyordu	-10.15
▁yürü	-10.15
▁Genel	-10.1503
▁sorar	-10.1504
▁içeren	-10.1511
▁kavra	-10.1514
▁asi	-10.1515
▁hâle	-10.1518
ıldığı	-10.1523
▁Bizler	-10.1529
uğu	-10.1531
▁gönderme	-10.1533
▁şişe	-10.1537
▁onay	-10.1539
▁çözümü	-10.1552
▁psikoloji	-10.1554
▁çöl	-10.1555
▁çözümler	-10.1555
▁Ana	-10.1556
▁saha	-10.1556
▁yönetme	-10.1565
▁parayı	-10.1568
▁yatak	-10.1569
▁Ön	-10.1569
ebildiği	-10.1573
bilimci	-10.1574
▁resimler	-10.1576
▁anladım	-10.1576
▁kom	-10.1579
▁dediğim	-10.1583
▁bahsetti	-10.1584
▁arttı	-10.1591
▁çağı	-10.1597
▁haberler	-10.1604
ldukça	-10.1607
uru	-10.1609
▁üçte	-10.1611
▁yürüme	-10.1613
▁verdiğimiz	-10.1615
▁bildiğiniz	-10.1619
▁sınırlı	-10.1619
▁vahşi	-10.162
▁öfke	-10.162
▁Fransız	-10.162
▁seyirci	-10.162
▁vakti	-10.162
▁tatlı	-10.162
▁yenilikçi	-10.1623
▁çıkmış	-10.1625
▁Para	-10.163
▁diyorlar	-10.1631
▁ekip	-10.1632
▁yapması	-10.1633
▁maliyeti	-10.1635
▁bilmiyoruz	-10.1638
▁kazandır	-10.1638
▁atmosfer	-10.165
▁yıllarda	-10.1654
▁bunlara	-10.1656
▁yığın	-10.1659
▁anlıyor	-10.166
acaklar	-10.1664
▁kurdu	-10.1664
▁sebeple	-10.1678
leyerek	-10.168
▁dol	-10.1681
▁avantaj	-10.1686
▁rengi	-10.1686
▁teklif	-10.1687
▁metal	-10.1691
▁geliş	-10.1695
▁alıcı	-10.1703
▁koca	-10.1718
▁Tu	-10.1723
▁küre	-10.1728
▁akım	-10.1728
▁seviyede	-10.1734
ılacak	-10.1734
▁çıkarıyor	-10.1737
▁havada	-10.1738
▁birinde	-10.1743
▁Kesinlikle	-10.1752
▁Uzay	-10.1752
▁hayran	-10.1752
▁civarında	-10.176
▁yaparsa	-10.1766
▁olabilirdi	-10.1767
▁çevresinde	-10.1772
melen	-10.1777
▁döngü	-10.1782
▁yiy	-10.1784
▁Kara	-10.1793
dışı	-10.1798
▁yapılıyor	-10.1801
lemeye	-10.1802
jen	-10.1807
▁kapasite	-10.1812
▁Beş	-10.1813
▁Twitt	-10.1818
▁giriyor	-10.1821
▁olgu	-10.1822
▁türleri	-10.183
abiliyoruz	-10.183
▁değiştirebilir	-10.1831
▁çalışırken	-10.1834
▁satış	-10.1835
▁varlığı	-10.1837
mekten	-10.1839
▁arıyor	-10.1839
▁almış	-10.1843
▁istedikleri	-10.1848
▁yüzyılın	-10.1851
▁edeceği	-10.1855
▁çektiği	-10.1858
▁makinesi	-10.1862
▁grubun	-10.1869
▁yapabileceğimiz	-10.1873
▁Oyun	-10.1877
▁bazılarını	-10.1877
▁bağır	-10.1885
▁bahsettiğim	-10.1885
▁mülteci	-10.1886
▁özgürlük	-10.1888
▁Geliş	-10.1889
ite	-10.189
▁sö	-10.189
▁arta	-10.1899
V	-10.1899
▁35	-10.1901
▁çoğunuz	-10.1902
▁basitçe	-10.1902
▁teknolojileri	-10.1909
stan	-10.191
▁söyleyen	-10.1912
▁başlamak	-10.192
▁bulabilir	-10.1921
▁eğri	-10.1922
▁alıyoruz	-10.1927
▁öngörü	-10.193
▁düzenli	-10.1933
ıldığında	-10.1934
miyordu	-10.1938
▁geçirme	-10.1949
▁sıkıntı	-10.1953
we	-10.1953
uantum	-10.1953
▁Eğitim	-10.1953
▁kocaman	-10.1956
▁Düşü	-10.1958
▁yaşındayken	-10.1959
▁Paul	-10.196
▁vuru	-10.1965
▁gelince	-10.197
▁söyleyebilir	-10.1972
▁gazeteci	-10.1979
erken	-10.1981
▁basın	-10.1984
▁kaydı	-10.1994
▁zordur	-10.1995
▁üstün	-10.2003
▁Yer	-10.2011
iriz	-10.2013
▁seçti	-10.2014
▁anlatacağım	-10.2019
▁birçoğu	-10.2021
▁Umarı	-10.2021
▁düzgün	-10.2022
▁Babam	-10.2022
▁etkileyici	-10.2024
fik	-10.2029
lerimize	-10.2029
lıyorlar	-10.2039
▁Farklı	-10.2039
▁zinciri	-10.2044
▁yolculuğu	-10.2049
▁diğerleri	-10.205
▁inceledi	-10.2052
▁bölün	-10.2059
ildiği	-10.2061
▁ahlak	-10.2076
so	-10.2077
▁hayatlarını	-10.2078
▁algoritma	-10.209
▁cesur	-10.209
▁tohum	-10.209
▁düşüş	-10.2091
▁blog	-10.2091
▁olmuyor	-10.2092
▁Basit	-10.2092
▁kullanmaya	-10.2093
▁durdu	-10.2101
▁zar	-10.2103
▁buzul	-10.2109
▁soyut	-10.2113
meyeceğim	-10.212
eceğiniz	-10.2121
▁Konu	-10.2123
▁Ek	-10.2125
▁etmekte	-10.2126
▁hastalar	-10.2126
▁çatı	-10.2129
▁ederse	-10.2131
▁görmüş	-10.2145
▁çeken	-10.2147
▁felaket	-10.2159
▁merhamet	-10.2159
▁esnek	-10.2159
▁oluşturu	-10.2159
▁Proje	-10.2159
▁buradan	-10.2159
▁kırık	-10.2163
▁işleme	-10.2166
▁koloni	-10.217
▁zorla	-10.217
▁kut	-10.2171
bilirsin	-10.2173
eceğimiz	-10.2174
▁belirsiz	-10.2176
▁Ol	-10.2182
▁Nerede	-10.2188
▁geliştirmek	-10.219
▁hayvanların	-10.2193
lıyordu	-10.2198
▁gelmek	-10.2199
mizdeki	-10.2203
▁teknolojiler	-10.2205
ood	-10.2205
▁bilimin	-10.2211
▁istek	-10.2212
▁kontrolü	-10.2212
▁olmam	-10.2212
▁düşme	-10.2213
nizle	-10.2222
▁hastalığın	-10.2223
▁çeşitliliği	-10.2225
▁böcek	-10.2227
▁ederler	-10.2228
▁Meksika	-10.2228
▁depresyon	-10.2228
▁ziyade	-10.2228
▁sahte	-10.2228
▁sıklıkla	-10.2228
▁ölçüm	-10.2231
▁kutsal	-10.2231
▁sorumluluk	-10.2232
▁ilgisi	-10.2232
▁sanatı	-10.2233
▁ilaçlar	-10.2241
mezsiniz	-10.2246
gram	-10.2246
ebileceğini	-10.2249
▁adamlar	-10.2249
▁yapıyordu	-10.225
▁Biliyor	-10.2252
▁başlıyoruz	-10.2255
▁ağrı	-10.2258
▁kayded	-10.2259
▁genom	-10.2261
▁kitabın	-10.228
▁keşfetme	-10.2284
▁başlayalı	-10.2296
▁çalışıyorlar	-10.2297
▁Müslüman	-10.2298
▁öğle	-10.2298
▁tahta	-10.2298
▁kişilik	-10.2302
▁falan	-10.2305
▁sunum	-10.2305
▁söyleyebilirim	-10.2306
lup	-10.2309
▁miktarı	-10.231
▁Savaşı	-10.2316
▁vereceğim	-10.2325
▁hay	-10.2332
▁yaşı	-10.2335
▁duran	-10.2343
▁yapmanız	-10.2353
▁Ken	-10.2355
▁Açık	-10.2366
▁uçur	-10.2367
▁aracılığıyla	-10.2368
▁İslam	-10.2368
▁idare	-10.2369
▁canlandır	-10.2369
▁Toplum	-10.2369
▁hasar	-10.2369
▁nehir	-10.2369
▁Bill	-10.237
▁örgüt	-10.237
▁zamana	-10.2372
▁oyuncak	-10.2374
▁fikrim	-10.2376
▁beslenme	-10.2377
▁Sal	-10.2383
▁koruy	-10.2385
tığım	-10.2389
▁kanat	-10.2391
▁çözme	-10.2395
▁dinleme	-10.24
lendiği	-10.2402
▁biriydi	-10.2402
▁neyi	-10.2411
▁çıktığı	-10.2414
▁Savaş	-10.2421
▁saatte	-10.2431
▁öldürme	-10.2432
▁birbirlerin	-10.2433
▁Şehir	-10.2439
▁Muhte	-10.2439
▁olumlu	-10.2439
▁Steve	-10.244
▁görünüş	-10.2441
▁sever	-10.2443
lduğu	-10.2444
ebildi	-10.2447
mıyordu	-10.2448
▁bahsedeceğim	-10.2449
line	-10.245
▁denilen	-10.2452
▁yolunda	-10.2455
▁zamanında	-10.2465
imizde	-10.247
▁yerleri	-10.2474
▁hareketleri	-10.2474
▁yoksul	-10.2482
▁olaylar	-10.2484
▁değişiklikler	-10.2487
olog	-10.2491
▁hızı	-10.25
▁geçmişte	-10.2502
▁zamanla	-10.2502
▁duygusu	-10.2502
▁George	-10.2511
▁pozisyon	-10.2511
▁uyuşturucu	-10.2511
▁zirve	-10.2511
▁iyimser	-10.2511
▁otomatik	-10.2511
▁kritik	-10.2511
umuzun	-10.2513
▁dönüştürme	-10.2521
▁etrafta	-10.2523
▁değişken	-10.2524
▁sıkıcı	-10.2527
▁fikrin	-10.2528
▁taşıyor	-10.2531
▁inancı	-10.2532
▁kendiniz	-10.2535
▁üretmek	-10.2538
▁politikacı	-10.2539
ınıza	-10.2546
▁olacağız	-10.2554
▁ırk	-10.2555
▁zorlu	-10.2557
▁yuva	-10.2557
▁45	-10.2561
liyiz	-10.2569
▁Kendisi	-10.2572
▁cihazı	-10.2579
▁Nijerya	-10.2583
▁resme	-10.2583
▁kaybetme	-10.2585
▁Jam	-10.2586
▁biliyordum	-10.259
▁sormak	-10.2591
luğ	-10.2591
▁içeriği	-10.2598
▁Mc	-10.2603
▁konuştu	-10.2603
▁ailem	-10.2608
▁tersine	-10.2614
▁babası	-10.2615
ras	-10.2616
▁dini	-10.2619
▁konuşmayı	-10.2629
▁yapılar	-10.2636
▁ürünler	-10.2638
▁soruyor	-10.2638
▁bakteriler	-10.2639
▁koşu	-10.2641
▁yarışma	-10.2643
▁sahipler	-10.2645
▁göç	-10.2646
▁nihayet	-10.2655
▁simetri	-10.2655
▁şok	-10.2655
▁çoğal	-10.2655
▁blok	-10.2655
▁meslek	-10.2656
▁hesab	-10.2656
emiyor	-10.2659
▁ayında	-10.2661
▁sürücü	-10.2663
▁sakin	-10.2665
▁ısınma	-10.2667
▁kurumlar	-10.2676
▁genişlet	-10.2683
ris	-10.2686
▁gelişimi	-10.2687
ebilirler	-10.2694
▁öğretme	-10.2698
mizle	-10.2702
▁Başkan	-10.2707
▁Hala	-10.2708
▁Bra	-10.2725
mah	-10.2726
▁Eylül	-10.2728
▁avukat	-10.2728
▁demokratik	-10.2728
düşünebilirsiniz	-10.2731
▁izliyor	-10.2732
▁Araba	-10.2739
▁yazdım	-10.2739
biriyle	-10.2743
▁Is	-10.2744
▁edebileceği	-10.2748
lıyorum	-10.2751
istan	-10.2751
ografi	-10.2752
▁elektro	-10.2752
▁ekmek	-10.2759
▁isteği	-10.2768
▁attı	-10.277
▁yaşar	-10.2773
gal	-10.2777
▁altındaki	-10.2789
▁koymak	-10.2793
▁işlev	-10.2796
▁ucu	-10.2798
▁süt	-10.28
▁köprü	-10.2802
▁trafik	-10.2802
▁bireysel	-10.2802
▁Kore	-10.2803
▁patent	-10.2803
▁197	-10.2804
▁arayüz	-10.2804
▁mobil	-10.2804
▁nesli	-10.2805
▁mühendislik	-10.2805
▁moda	-10.2806
▁etkileri	-10.281
▁baktım	-10.2811
▁organik	-10.2811
▁görebil	-10.2813
▁yükselt	-10.2815
ğiniz	-10.2821
▁kızlar	-10.2822
▁dilim	-10.2852
▁Rus	-10.2853
▁Yol	-10.2854
▁öne	-10.2857
ligi	-10.2858
▁gezegende	-10.2858
▁geçirdim	-10.286
emedi	-10.2871
▁olmasa	-10.2875
▁Sosyal	-10.2876
▁korkutucu	-10.2876
▁slayt	-10.2876
▁iğne	-10.2876
▁polen	-10.2876
▁ideal	-10.2876
vet	-10.2877
▁sıradışı	-10.2877
▁kaynaklar	-10.288
▁Bilgi	-10.2885
▁eğlence	-10.2886
▁özet	-10.2886
chi	-10.2897
▁soruları	-10.29
▁uzat	-10.2901
abilirdi	-10.2904
▁hissettim	-10.2906
▁aylık	-10.2915
▁problemler	-10.2917
▁zorluk	-10.2918
▁yapmam	-10.2919
▁Pen	-10.2921
▁sırt	-10.2925
▁testi	-10.293
don	-10.2932
▁Per	-10.2933
▁görünmez	-10.2937
▁buluyor	-10.2939
▁damar	-10.294
▁Avustralya	-10.295
▁ışın	-10.2952
▁niyet	-10.2954
▁Ber	-10.2955
▁verebilir	-10.2957
▁olmasıdır	-10.2962
▁geçiriyor	-10.2965
▁kullanabiliriz	-10.2968
▁mor	-10.2972
▁artıyor	-10.2985
▁gerçekliği	-10.2991
▁renkli	-10.2994
▁oradaki	-10.2998
▁Gü	-10.3005
▁kuram	-10.3013
▁taşıy	-10.3016
▁varsayım	-10.3021
iyeti	-10.3022
▁Kaliforniya	-10.3026
▁hapishane	-10.3026
▁stres	-10.3026
▁sağlayabilir	-10.3027
▁nano	-10.3027
▁organize	-10.3028
▁ikisini	-10.3028
ledik	-10.3028
▁hamile	-10.3029
▁Gelecek	-10.3031
▁oranında	-10.3031
▁bilinci	-10.3033
▁liderlik	-10.3035
▁söyledim	-10.3037
▁At	-10.3038
▁başla	-10.3041
▁gelmişti	-10.3042
▁hizmeti	-10.3047
▁Sev	-10.305
▁hikayesini	-10.3055
▁dusun	-10.3059
▁yo	-10.3062
▁alanlarda	-10.3066
acağımızı	-10.3068
▁kullanılıyor	-10.3069
sındaki	-10.3073
▁Yu	-10.3079
▁ad	-10.3084
sıydı	-10.3084
▁geldim	-10.3087
inizin	-10.3089
▁sevdiği	-10.3095
▁ettikleri	-10.3098
şık	-10.3099
▁Herhangi	-10.3101
▁İnanılmaz	-10.3101
▁kasaba	-10.3101
▁dosya	-10.3101
▁hayret	-10.3102
▁Yunan	-10.3102
▁oturup	-10.3103
▁sesini	-10.3106
▁hisseder	-10.3115
▁dakikada	-10.3119
layabiliriz	-10.312
▁gök	-10.3123
▁erkeklerin	-10.3127
▁planlama	-10.3128
cilik	-10.3134
▁İşin	-10.3139
▁teknolojisi	-10.3142
▁kitapları	-10.3142
lamaz	-10.3143
▁yasak	-10.3145
▁düzeyde	-10.3153
▁başkanı	-10.3158
dunuz	-10.3159
▁ağzı	-10.3164
▁sistemimiz	-10.3171
▁Tasarım	-10.3178
▁kategori	-10.3178
▁Darwin	-10.3178
▁umarım	-10.3178
▁İsveç	-10.3178
▁borç	-10.3178
▁yürüyüş	-10.3179
▁değiştiren	-10.3179
inizde	-10.318
▁aldığımız	-10.3182
▁bugünkü	-10.3183
▁Evren	-10.3184
▁vazgeç	-10.3184
▁gri	-10.3185
▁bağlantılı	-10.3185
▁sunuyor	-10.3186
▁Kral	-10.3188
▁yaşın	-10.3191
▁açma	-10.3193
ıpkı	-10.3201
▁Kat	-10.3207
▁düşen	-10.3214
▁projesi	-10.3219
▁değerlendirme	-10.322
▁derdi	-10.3224
▁kullanıyorlar	-10.3225
bay	-10.3225
▁farkettim	-10.3227
▁başladığımız	-10.3233
▁yasal	-10.3237
▁Yıl	-10.3244
▁sohbet	-10.3255
▁hediye	-10.3255
▁peşinde	-10.3255
▁görülen	-10.3255
▁operasyon	-10.3255
▁birer	-10.3263
▁öldürül	-10.3265
gre	-10.3267
▁kalın	-10.3273
▁koşullar	-10.3276
les	-10.3277
▁gezegenin	-10.328
▁kardeşim	-10.3281
▁günlerde	-10.3282
▁75	-10.3283
maktır	-10.3285
▁Los	-10.3289
▁ihtimal	-10.3291
▁alıntı	-10.3291
▁düzelt	-10.3293
larımdan	-10.3294
▁hiçbiri	-10.3294
▁destekleme	-10.3304
▁oynay	-10.331
▁hip	-10.3315
▁getirdiği	-10.3318
leştirilmiş	-10.3321
▁kabile	-10.3332
▁Hangi	-10.3332
▁konser	-10.3333
▁yolları	-10.3333
▁kurum	-10.3334
▁ekley	-10.3338
▁hakim	-10.3339
▁saklan	-10.3339
▁ağırlığı	-10.3347
▁kariyer	-10.3348
▁avcı	-10.335
▁faydalı	-10.3354
▁yaratan	-10.3357
▁sahipti	-10.3359
▁kalır	-10.336
▁değiştiriyor	-10.336
▁çalışıyordu	-10.3361
▁ortamda	-10.3363
araya	-10.3365
▁erişim	-10.3373
▁ulaşım	-10.3375
▁ölüyor	-10.3378
▁ölçekte	-10.3387
▁Eş	-10.3389
▁mesajı	-10.3391
▁belirley	-10.3391
▁Mar	-10.3393
▁geçmek	-10.3402
▁çeker	-10.3402
emeyeceği	-10.3404
▁Einstein	-10.341
▁mektup	-10.341
▁İtalya	-10.341
▁barındır	-10.341
▁benzeyen	-10.3411
▁lisans	-10.3411
▁şaka	-10.3411
▁şirketlerin	-10.3414
▁99	-10.3415
▁tutuyor	-10.3418
▁tarama	-10.3421
▁ilerley	-10.3421
▁göçmen	-10.3422
▁gelin	-10.3424
▁ticaret	-10.3432
▁tarihinde	-10.3432
▁Merkezi	-10.3439
▁Oh	-10.3441
▁ayakta	-10.3446
▁Hepiniz	-10.3447
▁düşünüyordum	-10.3458
▁süreçte	-10.3459
▁üretil	-10.3463
cağı	-10.3464
siydi	-10.3468
▁azaltma	-10.3471
▁kutup	-10.3472
▁harcıyor	-10.3489
▁gövde	-10.3489
▁sezgi	-10.3489
▁Arkadaş	-10.3489
▁rüya	-10.3489
▁planı	-10.3491
ımızdaki	-10.3492
▁anlayış	-10.3494
▁müdür	-10.3495
▁bulduğumuz	-10.3496
▁elle	-10.3499
▁hücresi	-10.35
▁balıkları	-10.3506
emeyiz	-10.3509
▁nesneler	-10.3516
▁ediyorsunuz	-10.3516
▁tersi	-10.3519
▁Sonuçta	-10.3519
▁görmez	-10.3522
▁Cha	-10.353
▁ardı	-10.3533
▁gidecek	-10.3534
▁siyahi	-10.3536
▁eğlen	-10.3547
▁kitaplar	-10.3552
▁temelde	-10.3556
ümüzü	-10.3556
▁dinamik	-10.3568
▁meşgul	-10.3568
▁otobüs	-10.3568
▁profesör	-10.3568
▁Şirket	-10.3568
▁dayanıklı	-10.3568
▁üreme	-10.357
▁prensip	-10.357
▁üstesinde	-10.3577
▁sorgu	-10.3582
▁memeli	-10.3587
lamıyor	-10.3591
▁söylediler	-10.3593
▁kalmak	-10.3606
▁Gene	-10.3609
▁kurtarma	-10.3611
▁uyarı	-10.3621
▁tav	-10.3626
▁şirketleri	-10.3629
▁yüzeyi	-10.3631
▁haz	-10.3633
▁kalem	-10.3634
▁geçtiği	-10.364
▁Alman	-10.3642
▁istemez	-10.3644
▁Ekonomi	-10.3648
▁vizyon	-10.3648
▁gördüğü	-10.365
▁düşüyor	-10.3652
▁hızlandır	-10.3653
ıyorlardı	-10.3653
▁mekanik	-10.3654
▁tasarlanmış	-10.3654
▁evrende	-10.3658
▁kırsal	-10.3662
▁halkın	-10.3663
▁tutun	-10.3665
▁çoktan	-10.3667
▁Baba	-10.3672
▁şiş	-10.3672
▁ağaçları	-10.3681
▁yaratır	-10.3684
▁önde	-10.3684
dığımızda	-10.3685
▁gezi	-10.3688
▁varsay	-10.369
▁bırakıyor	-10.3701
▁teknolojik	-10.3702
larımın	-10.3707
▁malzemeler	-10.3709
▁savaşı	-10.3709
▁görevli	-10.3716
▁aldığım	-10.3718
▁kişilerin	-10.3721
▁yuvarla	-10.3726
▁ağaçlar	-10.3727
▁süren	-10.3729
▁pozitif	-10.3729
▁şeffaf	-10.3729
▁dükkan	-10.3729
▁kamyon	-10.3729
▁çanta	-10.3729
manyetik	-10.3729
▁Sistem	-10.3729
▁kaybı	-10.373
▁denklem	-10.3731
▁ucunda	-10.3733
▁aklınız	-10.3735
▁yapalım	-10.3738
▁bahset	-10.3738
▁uygulay	-10.3743
▁kayna	-10.3749
mışlardı	-10.3749
▁güvenliği	-10.3759
▁kirli	-10.3772
▁İlki	-10.3774
▁kahkahalar	-10.3775
▁çabuk	-10.3775
lanabilir	-10.3776
▁yakalama	-10.3776
▁bacak	-10.3791
▁sürüyor	-10.3792
▁üste	-10.3795
▁hayatım	-10.3802
▁Fark	-10.3802
▁öğrendiğim	-10.3807
üstü	-10.3808
▁meyve	-10.381
▁mucize	-10.381
▁edelim	-10.381
▁deneyi	-10.3814
▁adapt	-10.3817
▁çıkmak	-10.3818
▁girer	-10.3819
▁çekildi	-10.3822
▁bahsediyorum	-10.3823
▁makineler	-10.3823
▁oluşur	-10.3834
▁fikirlerin	-10.3836
▁küçül	-10.3837
▁kolu	-10.384
dığımda	-10.3846
PS	-10.3847
▁kalanı	-10.3847
leşir	-10.3856
▁şekilleri	-10.3859
▁ilişkiler	-10.3859
▁çeşitlilik	-10.386
cisi	-10.3861
▁topluluğu	-10.3865
▁edeceğim	-10.3866
▁Veri	-10.3866
▁kültürü	-10.3869
▁Beyin	-10.3871
▁eseri	-10.3871
▁22	-10.3876
▁Biliyoru	-10.3878
▁oynat	-10.3887
▁vücudun	-10.3888
▁Richard	-10.3892
▁alışveriş	-10.3892
▁aydınlat	-10.3892
▁masraf	-10.3892
▁Günümüzde	-10.3892
▁mahkum	-10.3892
▁bedava	-10.3892
▁gölge	-10.3894
▁Öl	-10.3895
▁dökü	-10.3896
ino	-10.3897
▁dolayısıyla	-10.3898
▁tatil	-10.3903
▁çiftlik	-10.391
ilecek	-10.3912
▁çalışarak	-10.3919
▁konuşacağım	-10.3919
▁sinek	-10.3922
▁yaratıklar	-10.3937
▁yapısı	-10.3937
▁kullandı	-10.3946
▁Arap	-10.3946
▁aday	-10.3957
▁aptal	-10.3965
▁söyledikleri	-10.3972
▁binalar	-10.3973
▁Ed	-10.3974
▁Yüksek	-10.3975
▁favori	-10.3975
▁Hikaye	-10.3975
▁donanım	-10.3975
▁maaş	-10.3976
▁usta	-10.3976
▁Anders	-10.3978
▁duyarlı	-10.3989
▁oluyorlar	-10.3992
▁geçmişi	-10.4001
▁olasılığı	-10.4003
▁şurada	-10.4005
▁zamanın	-10.4008
uşu	-10.4011
▁utan	-10.4014
▁ayrıldı	-10.4017
▁diyordu	-10.402
▁bölgesinde	-10.4021
layın	-10.4023
▁belirleme	-10.4024
▁Park	-10.4035
için	-10.4037
▁halkı	-10.4042
▁çevirme	-10.4042
▁gibidir	-10.4042
▁biten	-10.4047
▁yakalay	-10.4047
▁yapımı	-10.4052
▁doktora	-10.4052
▁kullanabilir	-10.4054
▁konuşan	-10.4055
▁prototip	-10.4058
▁cadde	-10.4058
▁mutlak	-10.4058
▁ettiğiniz	-10.4062
▁ekoloji	-10.4063
▁büyüklüğünde	-10.4066
▁tipik	-10.4072
▁eşsiz	-10.4073
lıktan	-10.4074
▁direkt	-10.4074
▁anlattığı	-10.4078
▁dün	-10.4082
▁kalıp	-10.4084
▁sanayi	-10.4088
gra	-10.4101
▁sonuçta	-10.4103
U	-10.4103
▁tuttu	-10.4105
str	-10.411
▁toz	-10.4113
▁bırakmak	-10.4117
▁kısmında	-10.4118
▁okulu	-10.412
▁Az	-10.4126
▁çay	-10.4133
▁değişiyor	-10.4138
▁etmeniz	-10.414
▁Washington	-10.4142
▁restoran	-10.4142
▁Fransa	-10.4142
▁yapıştır	-10.4142
▁evrimleş	-10.4142
▁emekli	-10.4143
▁durumlarda	-10.4143
▁döndüm	-10.4158
kinden	-10.4158
▁elimde	-10.4158
▁Pla	-10.416
▁nöro	-10.4163
▁getiril	-10.4166
20	-10.4166
zerinde	-10.4168
▁zorundasınız	-10.4169
▁anında	-10.4179
▁gösterdiği	-10.4186
İ	-10.4188
▁seçimler	-10.4191
▁Dur	-10.4198
▁oluyordu	-10.4207
▁kültürün	-10.4217
▁deneyler	-10.4218
▁Var	-10.4219
müyor	-10.4222
▁dök	-10.4223
▁Gar	-10.4223
▁odaklanma	-10.4225
▁virüsü	-10.4226
▁kömür	-10.4227
▁kütüphane	-10.4227
▁yetersiz	-10.4227
▁sigara	-10.4227
▁oynuyor	-10.4227
▁büyüyen	-10.4228
▁riski	-10.4231
sün	-10.4235
▁puan	-10.4241
lus	-10.4242
▁yaban	-10.4244
▁bekley	-10.4248
▁ayağı	-10.4253
▁dokunma	-10.4255
▁güzellik	-10.4257
▁Sonrasında	-10.4259
▁kurduk	-10.426
▁bakacak	-10.4263
▁birbirimize	-10.4265
dığımı	-10.4266
▁kral	-10.4266
▁resimde	-10.4268
▁çocuğ	-10.4272
▁sunu	-10.4278
▁çalışmayı	-10.4279
▁genleri	-10.4283
▁faydalan	-10.4284
▁yararlı	-10.4294
▁topu	-10.4297
▁algılama	-10.4306
▁bulduğum	-10.4308
▁kısaca	-10.4309
▁oranları	-10.4309
▁Francis	-10.4312
▁NAS	-10.4312
▁dehşet	-10.4312
▁Seyirci	-10.4312
▁düğme	-10.4312
▁sensör	-10.4313
▁macera	-10.4313
▁izledi	-10.4314
▁izleyici	-10.4315
▁ilgilenme	-10.4315
görebiliyorsunuz	-10.4316
▁olabiliriz	-10.4317
▁kurgu	-10.432
▁buyuk	-10.432
▁23	-10.4321
▁2008	-10.4321
▁potansiyeli	-10.4326
▁başardı	-10.4328
▁üretken	-10.433
▁tamir	-10.4339
▁ayna	-10.4341
▁müziği	-10.4346
▁ışığın	-10.4346
▁Yaşa	-10.4348
▁doktorlar	-10.4348
▁Eve	-10.4353
▁üreten	-10.4354
tıcı	-10.436
▁oturma	-10.4363
▁oyunları	-10.4365
fu	-10.4381
▁bölgelerde	-10.4386
lerimden	-10.4391
lebilir	-10.4393
▁egzersiz	-10.4399
▁fırtına	-10.4399
▁senaryo	-10.4399
▁İlginç	-10.4399
▁Doktor	-10.4399
▁Tarih	-10.4399
▁Allah	-10.4399
▁miras	-10.44
▁konuşur	-10.4402
▁kilise	-10.4403
▁bant	-10.4404
▁600	-10.4405
▁kazanma	-10.4405
▁1000	-10.4425
ov	-10.4435
▁üstü	-10.4437
▁lif	-10.4444
▁şart	-10.4447
▁öğreniyor	-10.4462
mıştık	-10.4463
▁Japon	-10.4463
▁pil	-10.4465
▁şeklini	-10.4468
▁İste	-10.4473
▁düşünen	-10.4486
▁MIT	-10.4486
▁enfeksiyon	-10.4486
▁refah	-10.4486
▁görürüz	-10.4486
▁Değiş	-10.4486
▁görülüyor	-10.4486
▁devrimi	-10.4486
▁kafe	-10.4487
▁unsur	-10.4487
▁yazdığı	-10.4489
▁Kah	-10.4489
▁You	-10.449
▁iyisini	-10.4492
▁doğduğu	-10.4494
▁benimse	-10.4501
▁tüy	-10.4503
▁sorduk	-10.4506
▁Temel	-10.4512
▁Öz	-10.4517
▁hizmetleri	-10.4517
▁yürüdü	-10.452
▁Kadınlar	-10.4525
▁gideceği	-10.4527
rayı	-10.4534
▁Hayal	-10.4542
▁istiyordum	-10.4547
▁yetiştirme	-10.455
▁Ru	-10.4552
▁daim	-10.4555
▁yaşındaydı	-10.4556
▁sera	-10.4558
▁harcadı	-10.4562
▁içeriyor	-10.457
▁Angeles	-10.4573
▁Merhaba	-10.4573
▁Normal	-10.4573
▁sözü	-10.4574
▁aletler	-10.4575
▁ölen	-10.4576
▁beynimiz	-10.4576
▁üretici	-10.4578
▁çocuklarını	-10.4583
▁kalıcı	-10.4587
▁değerleri	-10.4587
▁sağladığı	-10.4588
▁diyebilir	-10.4595
▁Bağ	-10.4597
▁Amerikalılar	-10.46
▁Bizi	-10.4605
ınızda	-10.4608
▁yardımı	-10.4614
▁endüstrisi	-10.4617
▁Tanrım	-10.4623
▁saniyede	-10.4627
▁herkesi	-10.4631
▁yazıyor	-10.4631
▁açığ	-10.4633
▁özgürlüğü	-10.4639
▁yeteri	-10.465
▁Harvard	-10.4662
▁pratik	-10.4662
▁havuz	-10.4662
▁Web	-10.4663
▁Tahmin	-10.4663
▁millet	-10.4665
▁terörist	-10.4666
▁cerrah	-10.4666
▁bilmiyordum	-10.467
▁yapmalıyız	-10.4675
▁hatırlay	-10.4677
▁yakalan	-10.4677
▁Büyü	-10.4683
▁beyniniz	-10.4686
▁kova	-10.4691
ydü	-10.4691
ebiliyoruz	-10.4692
▁Tak	-10.4693
▁hat	-10.4695
▁edemez	-10.4698
▁gittiğini	-10.4703
▁dua	-10.4704
▁etkiledi	-10.4705
▁dost	-10.4709
▁baktık	-10.4711
▁kalacak	-10.4713
Y	-10.4717
▁geçirmek	-10.4721
hur	-10.4723
▁yarıyor	-10.4727
▁savaşın	-10.4728
▁annesi	-10.4733
▁fotoğraflar	-10.4735
▁şaşırt	-10.4736
▁gezin	-10.4738
▁Can	-10.4745
▁Ale	-10.4747
▁Öğren	-10.4748
▁gösterdiğim	-10.4748
▁Çevre	-10.4751
▁Hareket	-10.4751
▁teslim	-10.4751
▁gitmeye	-10.4754
▁194	-10.4756
▁öneri	-10.4758
▁matematiksel	-10.4763
▁duyur	-10.4766
▁Kendimi	-10.4766
▁özellikler	-10.4767
▁yapmaz	-10.4768
▁yapabilmek	-10.4773
▁bölgesi	-10.4778
▁toprağı	-10.4783
▁oturdu	-10.4784
▁İz	-10.4785
▁sil	-10.4785
▁haritası	-10.4786
▁Git	-10.4788
▁Deney	-10.479
▁görüntüler	-10.479
bur	-10.4792
▁katıldı	-10.4792
▁oluşma	-10.4794
▁satıl	-10.4815
▁fırlat	-10.4816
▁geleceğin	-10.4819
▁kadınlara	-10.4821
▁sorusu	-10.4829
▁veriyorlar	-10.4833
▁iyidir	-10.4834
▁öğretmenler	-10.4838
▁kullanılabilir	-10.484
▁Cevap	-10.4841
▁akciğer	-10.4841
▁elbise	-10.4841
▁ayağa	-10.4841
▁büyüleyici	-10.4844
▁kaldım	-10.4846
acaba	-10.4848
▁ekledi	-10.485
▁27	-10.4852
▁damla	-10.486
▁yapısını	-10.4862
▁işini	-10.4864
▁yukarıda	-10.4869
▁tarihte	-10.4875
▁hile	-10.4878
▁tüp	-10.4886
▁Kaç	-10.4886
▁inşaat	-10.4888
▁calis	-10.4892
▁farketti	-10.49
rah	-10.4904
lanmıştı	-10.4911
▁hadi	-10.4915
▁onar	-10.4915
▁bilinçli	-10.4917
▁ayda	-10.4921
▁olabiliyor	-10.4921
unuzu	-10.4925
▁seviyesi	-10.4926
skop	-10.4927
▁yaparlar	-10.4931
▁titre	-10.4932
▁2010	-10.4932
▁klasik	-10.4932
▁seçeneği	-10.4932
▁konuştuğu	-10.4933
▁yunus	-10.4933
▁bölgeler	-10.4933
▁Charles	-10.4933
▁yoksulluk	-10.4935
▁oluşu	-10.4936
▁yapın	-10.4936
▁etkileyen	-10.4937
▁çarpıcı	-10.4941
▁Şey	-10.4943
▁hapse	-10.4945
30	-10.4946
▁Roma	-10.4948
▁nüfusun	-10.4959
▁duyduğumuz	-10.4959
▁toplumda	-10.4968
eceğimizi	-10.497
▁oluşturduğu	-10.4972
▁vücudunuz	-10.4976
▁katılım	-10.4978
▁normalde	-10.498
▁hatırlama	-10.4984
▁kaldığı	-10.4991
▁konuşu	-10.4992
labilecek	-10.4993
▁fotoğrafları	-10.4998
▁tutan	-10.4998
▁öncelikle	-10.4999
▁bakmaya	-10.5001
liyim	-10.5003
▁Mal	-10.5006
▁ekleme	-10.5009
▁işlerini	-10.5012
▁Bas	-10.5015
▁bulmuş	-10.5015
▁teorisi	-10.5016
▁Internet	-10.5024
▁empati	-10.5024
▁mahkeme	-10.5024
▁hidrojen	-10.5024
▁büyükanne	-10.5025
▁ajan	-10.5027
▁Film	-10.5028
▁gördünüz	-10.5028
▁oluşturdu	-10.5028
▁çekim	-10.5032
▁bildir	-10.5036
▁duyduğum	-10.5037
▁değerler	-10.5037
leştiği	-10.5038
▁görüntüsü	-10.5047
▁Lu	-10.5051
rey	-10.5052
tiğini	-10.5065
▁toplumu	-10.5066
ılmıştı	-10.5066
▁etkiler	-10.5069
▁hücrelerin	-10.5069
ğr	-10.507
▁bilmediği	-10.5073
▁geride	-10.5077
▁okur	-10.5077
▁üyesi	-10.5079
▁açar	-10.5079
▁çeviri	-10.508
▁değilse	-10.5083
▁gizem	-10.5086
▁hisse	-10.5091
▁yerin	-10.5095
▁yönetimi	-10.5095
▁yararlan	-10.5096
▁güçlendir	-10.5104
▁açan	-10.5106
▁tanıyor	-10.5116
▁boşluğu	-10.5116
▁siyaset	-10.5116
▁Dört	-10.5117
▁anket	-10.5118
▁gömül	-10.5118
rerek	-10.5118
▁umudu	-10.512
▁TV	-10.5121
vo	-10.5122
▁gelenek	-10.5122
▁inek	-10.5122
▁yaprak	-10.5123
▁anlayışı	-10.5124
▁aklımız	-10.5126
▁yaşamış	-10.5128
▁korunma	-10.5128
▁Sırada	-10.5131
▁üretiyor	-10.5138
▁şimdiki	-10.5142
▁Rusya	-10.5145
▁karşılıklı	-10.5155
▁Yapma	-10.5157
▁unut	-10.5161
▁dersi	-10.5164
▁tanıdık	-10.5168
kalı	-10.5177
▁vs	-10.518
▁sıcaklık	-10.518
▁ço	-10.5188
▁korkuyor	-10.519
▁döv	-10.5193
▁hazırladı	-10.5197
▁zorluklar	-10.5204
▁düşüncesi	-10.5205
▁Yarı	-10.5206
▁kaçınılmaz	-10.521
▁şahit	-10.521
▁Obama	-10.521
▁limit	-10.521
▁pilot	-10.5212
▁Birisi	-10.5212
▁başlamıştı	-10.5213
▁Böylelikle	-10.5213
▁adil	-10.5218
▁resimleri	-10.522
▁iniş	-10.522
▁liderler	-10.522
▁yapamaz	-10.522
▁İnsanları	-10.5223
▁inceley	-10.5223
leşiyor	-10.5226
▁tamamıyl	-10.5227
▁bat	-10.5231
▁ilkel	-10.5233
▁Tom	-10.5244
▁istediğini	-10.5247
▁Senin	-10.5248
lduğunu	-10.5257
▁Mac	-10.5259
▁düzeltme	-10.5267
▁görülme	-10.5272
▁Tra	-10.5274
▁hastaların	-10.5278
▁Bey	-10.5281
▁kazı	-10.5282
▁hastalıkları	-10.5285
▁sisteme	-10.5296
▁parçasını	-10.5298
▁penguen	-10.5304
▁sivrisinek	-10.5304
▁ötürü	-10.5304
▁yirmi	-10.5304
▁market	-10.5304
▁tarla	-10.5306
▁devamlı	-10.5307
▁yapılacak	-10.5307
▁Açıkça	-10.5307
▁bulunmakta	-10.5309
▁kimliği	-10.531
▁ücretsiz	-10.531
▁ruhu	-10.5311
▁kozm	-10.5311
lediğimiz	-10.5312
▁savun	-10.5312
▁istiyorsunuz	-10.5315
▁bulunur	-10.5315
▁olayları	-10.5316
▁geçici	-10.5318
▁anti	-10.5319
▁demir	-10.5321
▁özü	-10.5326
▁azalma	-10.5327
▁görüntüleri	-10.5334
nizden	-10.5338
▁yapacağını	-10.5343
▁yetki	-10.5349
▁kimlik	-10.5351
▁katlan	-10.5352
▁kutusu	-10.5354
mayız	-10.5359
▁boşa	-10.5363
▁gitmiş	-10.5363
▁programları	-10.5375
abilecekleri	-10.5375
▁kaynaklı	-10.5375
emezsiniz	-10.5376
▁ayrılma	-10.5385
▁özellik	-10.539
▁haftada	-10.5398
▁dördüncü	-10.54
▁göğüs	-10.54
▁tekerlek	-10.54
▁danışman	-10.54
▁Amazon	-10.54
▁entegr	-10.5402
▁kızın	-10.5403
▁götürme	-10.5403
▁fizikçi	-10.5404
▁pazarlama	-10.5405
▁gec	-10.5406
▁eksen	-10.541
▁seferinde	-10.541
▁topladı	-10.5415
▁gelişen	-10.5421
▁olunca	-10.5421
▁uzmanı	-10.5422
▁mıydı	-10.5434
▁aksin	-10.5436
▁yetenekleri	-10.544
▁tavan	-10.5441
▁dersiniz	-10.5443
▁başlayacak	-10.5449
▁doktoru	-10.5462
▁günümüz	-10.5465
▁gönderdi	-10.5472
▁Far	-10.5478
▁sorumluluğu	-10.5479
▁zararlı	-10.5484
leyip	-10.5487
▁Es	-10.5489
amam	-10.5489
▁küçü	-10.549
▁iPhone	-10.5496
▁Pakistan	-10.5496
▁fenomen	-10.5496
▁tatmin	-10.5496
▁bulgu	-10.5497
▁1960	-10.5497
▁aldılar	-10.5502
▁geldiler	-10.5502
luğun	-10.5505
▁sürme	-10.5507
▁düşünüyorsunuz	-10.5508
▁etik	-10.5509
▁doğrusu	-10.5511
▁CO	-10.5512
▁geçirdi	-10.5515
▁No	-10.5519
▁kızım	-10.552
▁renkler	-10.552
▁yapmaları	-10.5526
▁Che	-10.5527
▁öğrencisi	-10.5529
▁sahil	-10.5533
▁modelleri	-10.5537
▁söyleyecek	-10.5542
cük	-10.5542
yorsun	-10.5546
▁olursunuz	-10.5547
▁modeller	-10.5547
▁istiyordu	-10.5549
yacağız	-10.555
laştırma	-10.5552
▁ayırma	-10.5555
▁konuştuk	-10.5556
▁atar	-10.5556
ladığını	-10.5558
▁kent	-10.5561
laştığı	-10.5562
▁kelimesini	-10.5565
▁yürüyor	-10.5568
▁sahnede	-10.5572
▁özgün	-10.5573
emediği	-10.5574
▁duyuyoru	-10.5586
▁gidebilir	-10.5587
▁sigorta	-10.5593
▁imkân	-10.5593
▁keyif	-10.5593
▁tecavüz	-10.5593
▁Kötü	-10.5593
▁nitelik	-10.5593
▁terapi	-10.5594
▁Ardında	-10.5594
▁heves	-10.5594
▁sözcük	-10.5595
▁bacakları	-10.5596
▁ölümün	-10.56
▁çarpı	-10.5605
▁tasarımcılar	-10.561
▁Pan	-10.5612
▁keşfetmek	-10.5614
▁giderken	-10.5621
▁versiyonu	-10.5627
▁oturan	-10.563
▁tekne	-10.5631
▁sınıfta	-10.5633
▁temas	-10.5634
▁organizmalar	-10.5636
▁Col	-10.5638
abileceğim	-10.5644
▁atmosferi	-10.5646
▁kendisinin	-10.5646
▁birleşi	-10.5651
▁uğraşma	-10.5653
▁bekler	-10.5659
yüz	-10.566
▁çiftçiler	-10.5673
▁dokusu	-10.5679
▁Yıllar	-10.5683
▁ağırlık	-10.5684
▁garanti	-10.5691
▁gülümse	-10.5691
▁kalabalık	-10.5691
▁metafor	-10.5691
▁muhafaza	-10.5691
▁lamba	-10.5691
▁196	-10.5694
▁1990	-10.5694
▁istekli	-10.5696
▁alıyorlar	-10.5699
▁açıyor	-10.5706
▁kuruyor	-10.5715
▁milli	-10.5717
▁nota	-10.5727
▁koyun	-10.5741
▁etkisini	-10.5742
▁edilir	-10.5744
▁döneminde	-10.5747
▁durdurma	-10.5748
▁alınan	-10.5749
▁kuşlar	-10.5751
▁Kuru	-10.5756
▁yoğunlaş	-10.5757
▁kullanacağı	-10.5759
▁meme	-10.5766
▁çocukken	-10.5767
▁direk	-10.5773
▁ürettiği	-10.5777
▁yerleştirdi	-10.5784
▁Arka	-10.5785
▁Dış	-10.579
▁merdiven	-10.579
▁akraba	-10.579
▁Mutlu	-10.579
▁belirgin	-10.579
▁ispat	-10.579
▁dağılım	-10.579
▁medeniyet	-10.579
▁ayrıntı	-10.5791
▁uzağ	-10.5792
▁unutu	-10.5793
▁ilişkileri	-10.5794
▁balıkçı	-10.5796
▁harcan	-10.5798
▁panel	-10.58
▁ilgileniyor	-10.5804
▁insanlığın	-10.5806
▁BM	-10.5812
▁izlemek	-10.5814
sha	-10.5814
▁tanesini	-10.5816
▁liderleri	-10.5827
ıldığını	-10.5829
▁tanışma	-10.583
▁etmez	-10.5836
▁ulaştır	-10.584
▁üretti	-10.5843
▁gelişti	-10.5843
dığımızı	-10.5844
▁hareketli	-10.5851
▁hayatımda	-10.5854
▁kurumları	-10.5855
ttığı	-10.5857
▁bitirmek	-10.5859
▁bırakır	-10.586
▁vermiş	-10.5865
▁Sır	-10.5868
▁tanımlay	-10.5868
▁solu	-10.5868
▁aradı	-10.5869
▁yıldızı	-10.5872
ğına	-10.588
▁kardeş	-10.5888
▁Gezegen	-10.589
▁hemşire	-10.589
▁Çalışma	-10.589
▁Beyaz	-10.589
▁Herşey	-10.5891
sızın	-10.5892
▁direnç	-10.5895
▁kapasitesi	-10.5899
▁görebileceğiniz	-10.5903
▁yoldan	-10.5907
▁sayısını	-10.5914
▁yaşlanma	-10.5915
▁taşıyan	-10.5917
▁bildiğim	-10.592
▁ötesin	-10.5928
▁Sha	-10.5928
▁evlen	-10.5929
▁abart	-10.593
▁kadınları	-10.5934
▁kılan	-10.5934
▁ilgilidir	-10.5939
▁duyguları	-10.5942
▁sınıfı	-10.5946
▁geçtiğimiz	-10.5949
▁yaklaşımı	-10.5955
▁çıkacak	-10.5957
▁ortamı	-10.5958
▁edildiği	-10.5977
▁sürecin	-10.5978
▁Hayvan	-10.5991
▁Michael	-10.5991
▁mağaza	-10.5991
▁stüdyo	-10.5991
▁tesadüf	-10.5991
▁keşfi	-10.5991
▁travma	-10.5991
▁koltuk	-10.5991
▁gerçekleşen	-10.5995
▁ilerliyor	-10.5998
▁hayvanları	-10.5998
▁2007	-10.5999
lenebilir	-10.6001
▁büyüklüğü	-10.6008
▁denir	-10.6009
▁rolü	-10.6011
▁artışı	-10.6015
▁dolan	-10.6016
▁sav	-10.6023
▁düşünceleri	-10.6023
▁getirdik	-10.6025
▁ağın	-10.603
▁Esas	-10.6038
▁üye	-10.6043
▁dinlemek	-10.6044
▁dönemi	-10.6054
▁yazarı	-10.6054
▁iyileştirme	-10.6058
▁yüzünü	-10.6059
▁kazanmak	-10.6061
▁görünme	-10.6076
▁görebiliyor	-10.6079
▁soğu	-10.608
▁niye	-10.6088
▁gelmesi	-10.6092
▁Thomas	-10.6093
▁redded	-10.6093
▁çevril	-10.6093
▁felci	-10.6093
▁nasil	-10.6093
▁otorite	-10.6093
▁animasyon	-10.6095
▁1980	-10.6095
▁uydur	-10.6096
▁boru	-10.6097
▁bahsetme	-10.6098
▁com	-10.6101
▁yurt	-10.6101
▁Burda	-10.6107
▁Res	-10.6114
▁yoğunluğu	-10.6116
▁okyanusun	-10.6118
▁geldiğimiz	-10.6118
▁yapabilme	-10.6118
▁ellerinde	-10.6128
lemiş	-10.6129
▁tanış	-10.6132
▁baktığı	-10.6139
▁eşim	-10.6139
▁verilme	-10.614
▁Devlet	-10.6144
ment	-10.6144
▁şekillerde	-10.6148
▁evim	-10.6165
▁Devletleri	-10.6166
▁öncü	-10.6174
▁ekonomisi	-10.6178
▁nüfusunu	-10.6179
▁kodu	-10.6179
▁çizme	-10.6181
▁çalışıyordum	-10.6182
▁bebekler	-10.6186
▁yazılmış	-10.6189
laşmış	-10.6189
▁keşfettik	-10.6189
▁duymak	-10.619
▁otel	-10.6193
▁açıklamak	-10.6195
▁Dikkat	-10.6196
▁diploma	-10.6196
▁protesto	-10.6196
▁ölümcül	-10.6196
▁davranışı	-10.6196
▁vadede	-10.6196
▁uzunluğunda	-10.6196
▁tavuk	-10.6196
▁iyileşme	-10.6199
▁desteği	-10.6199
▁koyduk	-10.6199
▁ödey	-10.6201
▁Görüyorsun	-10.6201
▁hayatımızı	-10.6203
▁raf	-10.6204
▁yaşımda	-10.6206
▁Korku	-10.6207
▁yarattık	-10.6214
▁edilemez	-10.6215
▁Karşı	-10.6216
larımızla	-10.6222
▁grip	-10.6222
▁amacıyla	-10.6224
▁atmak	-10.6226
ebilmesi	-10.6226
▁öğrenir	-10.623
▁orda	-10.6235
▁yıldızlar	-10.6236
▁65	-10.6244
▁temin	-10.6246
▁atış	-10.6252
▁detaylı	-10.6267
▁düşünmemiz	-10.6271
▁yazıcı	-10.6281
▁düşündüğü	-10.6283
▁eleman	-10.6289
by	-10.6292
▁gelmiyor	-10.6293
▁çalışmanın	-10.6296
▁oldugu	-10.63
▁etmesini	-10.63
▁efsane	-10.63
▁çamaşır	-10.63
▁bayağı	-10.63
▁Süper	-10.63
▁dunya	-10.6301
▁Frank	-10.6301
▁Ter	-10.6303
▁edebilme	-10.6303
▁olmalıydı	-10.6303
▁başlayacağı	-10.6308
▁diyecek	-10.631
▁geleceğ	-10.6318
▁odası	-10.6323
▁gelmez	-10.6328
▁saldır	-10.633
▁noktasında	-10.6338
▁içme	-10.634
ford	-10.6354
mişlerdi	-10.6361
▁söylemeye	-10.6369
▁elma	-10.638
▁Mont	-10.639
▁Yaptığı	-10.6397
▁düşer	-10.6398
▁yaratıcılık	-10.64
▁duvarı	-10.64
▁geliştiril	-10.6402
▁Ger	-10.6405
▁Enstitüsü	-10.6405
▁futbol	-10.6405
▁perspektif	-10.6405
▁pompa	-10.6405
▁karbondioksit	-10.6405
▁röportaj	-10.6405
▁korteks	-10.6405
▁huzur	-10.6405
▁olumsuz	-10.6406
ight	-10.6406
▁Kanser	-10.6406
▁söylemeliyim	-10.6408
▁Ağ	-10.6409
▁memur	-10.6411
▁türün	-10.6414
▁göründüğü	-10.6417
▁oturur	-10.6418
abilmesi	-10.6419
ceği	-10.6426
riyi	-10.6437
▁sokakta	-10.6441
▁ilerledi	-10.6458
▁işlemi	-10.6458
▁onlarca	-10.646
▁edebileceğiniz	-10.6467
▁ölçme	-10.647
lenir	-10.6472
▁söyleyeceğim	-10.6473
▁topluluğun	-10.6476
▁okumak	-10.6481
▁mini	-10.6498
▁antik	-10.65
▁öğrencilerin	-10.6503
▁müzisyen	-10.6512
▁Alzheimer	-10.6512
▁felsefe	-10.6512
▁teleskop	-10.6512
▁tiyatro	-10.6512
▁Geçmiş	-10.6512
▁koleksiyon	-10.6512
▁filtre	-10.6512
▁otizm	-10.6512
▁çelişki	-10.6516
▁dönelim	-10.6518
▁kurulu	-10.6534
▁olacağım	-10.6536
▁değin	-10.6538
luğunu	-10.6539
▁çip	-10.6542
▁terör	-10.6547
▁değiştirir	-10.6558
▁okudum	-10.6563
▁yarasa	-10.6563
▁değiştirecek	-10.6565
▁mutluluğu	-10.6565
▁Sch	-10.657
▁For	-10.6572
▁kayda	-10.658
▁kullanmayı	-10.6581
▁haberi	-10.6586
old	-10.6594
▁aralarında	-10.6598
▁akışı	-10.6604
▁Wa	-10.6614
▁Apple	-10.6619
▁Fotoğraf	-10.6619
▁bağışıklık	-10.6619
▁roket	-10.6619
▁parmağı	-10.6621
▁yönünde	-10.6621
▁Latin	-10.6621
▁Robot	-10.6624
▁diren	-10.6625
▁gerçekleşiyor	-10.6626
▁aktör	-10.6628
▁savaşta	-10.663
▁istiyorsak	-10.663
▁üzgün	-10.6633
▁uyumlu	-10.6635
▁olmazdı	-10.6636
▁kardeşi	-10.6638
▁mühendisliği	-10.6638
▁çocuklarımız	-10.6647
▁Dağ	-10.6647
bire	-10.6654
▁pas	-10.666
▁bakıyoruz	-10.6667
▁yapacağımız	-10.6673
▁sonuc	-10.6675
lanacak	-10.6681
mezler	-10.6683
▁sonun	-10.6683
▁elektron	-10.6689
▁yaşta	-10.6691
▁farketme	-10.6696
▁sars	-10.6698
▁Nor	-10.6721
▁öden	-10.6721
▁derler	-10.6726
▁kompleks	-10.6728
▁canavar	-10.6728
▁felç	-10.6728
▁kucak	-10.6728
▁ümit	-10.6728
▁Dışarı	-10.6729
▁gerçekleşti	-10.673
▁kaydetti	-10.6731
▁Paris	-10.6734
▁evinde	-10.6736
▁etmişti	-10.6737
▁kafatası	-10.6737
▁konuşurken	-10.6738
▁verdiğim	-10.6738
▁yansı	-10.6742
▁bot	-10.6744
▁Birliği	-10.6748
▁bekleyen	-10.6748
▁no	-10.6749
▁Pazar	-10.6751
▁Ölüm	-10.6753
▁Mavi	-10.6755
▁yararı	-10.6758
▁öngör	-10.6765
▁anlatmaya	-10.6769
▁kavramı	-10.677
redeyse	-10.6773
▁nüfusu	-10.6774
▁Fu	-10.6774
▁Tanı	-10.6775
▁içe	-10.678
▁Mary	-10.678
▁Gece	-10.6782
niversite	-10.6786
▁aslı	-10.6792
▁eğitme	-10.6796
▁yönü	-10.6799
▁yaşlarında	-10.68
▁şef	-10.6803
▁yapabileceğiniz	-10.6803
J	-10.6826
▁tasarladı	-10.6828
ayet	-10.6829
▁yarısını	-10.6834
▁yaşadığım	-10.6835
▁güvende	-10.6836
▁bah	-10.6836
▁Higg	-10.6838
▁Hükümet	-10.6838
▁lezzet	-10.6838
▁önyargı	-10.6838
▁sıçra	-10.6838
▁Boston	-10.6838
▁kavga	-10.6838
▁pembe	-10.6838
▁erişimi	-10.684
ymış	-10.6841
ble	-10.6845
▁vereyim	-10.6846
▁kazanan	-10.6846
ıvı	-10.6849
▁yaparsınız	-10.6851
berg	-10.6851
▁ulaşabil	-10.6851
▁kaldık	-10.6853
laşıyor	-10.6854
▁kış	-10.6862
▁ismini	-10.6864
▁vücud	-10.6866
▁birbirlerini	-10.6869
▁umuyorum	-10.687
meliyim	-10.6873
▁şiddetli	-10.6874
▁kurtulma	-10.6876
▁Seni	-10.6879
suzluk	-10.6886
MA	-10.6886
▁kızların	-10.6895
▁oyunun	-10.6897
▁heyecanlandır	-10.6902
▁şirketin	-10.6902
▁seviyesinde	-10.6905
▁doğası	-10.6906
▁tamamını	-10.6927
▁gücüne	-10.6935
▁ettirme	-10.6938
▁görüntüleme	-10.6941
▁görünüm	-10.6942
▁Pasifik	-10.6949
▁köpeği	-10.6949
▁şikayet	-10.6949
▁poster	-10.6949
▁anımsa	-10.6949
▁Ödül	-10.6949
▁kullanabileceği	-10.695
▁görmüyor	-10.695
▁zorunlu	-10.695
▁foto	-10.695
▁ömrü	-10.6951
▁kablosuz	-10.6951
lmüş	-10.6951
▁göreceğiz	-10.6952
▁tasarlama	-10.6953
▁öğrenmeye	-10.6958
▁yaparız	-10.6959
▁düzine	-10.696
▁çekilmiş	-10.696
▁Kafa	-10.6965
▁laboratuvarı	-10.697
▁benzin	-10.6973
▁bulunduğumuz	-10.6977
müz	-10.6977
▁formu	-10.6978
▁arkasındaki	-10.6989
12	-10.6998
▁söylemişti	-10.7
▁gidiyoruz	-10.7001
▁etrafındaki	-10.7006
▁yollarını	-10.7007
▁yil	-10.7013
▁odadaki	-10.7014
▁250	-10.7019
▁oldugunu	-10.7019
▁dalış	-10.7024
▁pu	-10.7033
▁duyduğu	-10.7034
▁başardık	-10.7037
▁neşe	-10.7038
▁bilgisayarın	-10.7044
▁arayı	-10.7044
▁bölümünü	-10.7049
▁yiyor	-10.7057
alesef	-10.706
▁psiko	-10.7061
▁gübre	-10.7061
▁Aşağı	-10.7061
▁cazibe	-10.7061
▁disiplin	-10.7061
▁kılavuz	-10.7061
▁yumuşak	-10.7061
▁Önemli	-10.7061
▁çirkin	-10.7061
▁sıkıştır	-10.7061
▁Yeşil	-10.7061
▁şarap	-10.7061
▁deprem	-10.7061
▁Lüt	-10.7062
▁koruyucu	-10.7062
▁pasif	-10.7063
▁vurgu	-10.7064
▁gücümüz	-10.7066
▁Mart	-10.7069
▁fotoğrafçı	-10.7073
▁umur	-10.7075
laştı	-10.7079
▁Birinci	-10.708
▁çelik	-10.708
▁bariz	-10.7082
▁görünüyordu	-10.7089
▁ülkedeki	-10.7092
▁32	-10.7102
▁bölgelerinde	-10.7107
▁değişen	-10.711
▁yerleş	-10.7122
▁yaratıcılığı	-10.7129
▁kesme	-10.7133
▁lob	-10.7134
▁kabullen	-10.7143
▁dönüm	-10.7146
▁güzelliği	-10.7147
▁göl	-10.715
▁uçağı	-10.7155
meyeceğini	-10.716
▁yerleştirme	-10.716
liğimiz	-10.7164
▁açmak	-10.7166
▁arabanın	-10.7168
▁gülüşmeler	-10.7175
▁motivasyon	-10.7175
▁sürpriz	-10.7175
▁fotograf	-10.7175
▁somut	-10.7175
▁meslektaşları	-10.7175
▁protez	-10.7175
▁Milletler	-10.7175
▁Mark	-10.7176
▁paylaştı	-10.7177
▁biriktir	-10.7178
▁gittiğimde	-10.7178
▁diyebiliriz	-10.7183
▁oluruz	-10.7186
▁görebiliyoruz	-10.7187
▁the	-10.7188
▁hücrelerini	-10.7193
▁olabildiğin	-10.7201
▁edeceğiz	-10.7213
▁harcay	-10.7223
▁dağıtım	-10.7228
▁kolaylaştır	-10.7229
▁Kor	-10.7235
▁cebi	-10.7238
▁edebilecek	-10.7244
▁sayıları	-10.7247
ünüzü	-10.7248
▁genelinde	-10.7254
▁sistemlerin	-10.7257
▁Art	-10.7259
▁toparla	-10.7263
▁geleceğini	-10.7266
▁şartlar	-10.7269
▁karakteri	-10.727
▁etkiliyor	-10.7273
▁çoğumuz	-10.7275
▁koştu	-10.7279
▁ilişkili	-10.728
▁dışındaki	-10.7285
▁frekans	-10.729
▁orkestra	-10.729
▁grafiğ	-10.729
▁Kongre	-10.729
▁Juli	-10.729
▁evlilik	-10.7292
▁gay	-10.7298
digim	-10.7301
▁kalmıyor	-10.7303
▁Cam	-10.7305
▁bez	-10.7305
▁ekipman	-10.7309
▁getirecek	-10.731
▁bulundur	-10.7311
▁orası	-10.7312
▁ulaştığı	-10.7314
▁Yaptığımız	-10.7318
▁dönmek	-10.7328
▁gizemli	-10.7329
ymiş	-10.733
▁gözlü	-10.7337
▁açlık	-10.7337
labilirsiniz	-10.7339
▁yerlerinde	-10.735
▁geçirir	-10.7351
▁tara	-10.7356
▁alabil	-10.7357
▁zehir	-10.7359
▁geliştirdik	-10.7367
rest	-10.7372
▁oluştu	-10.7373
▁üyeleri	-10.7377
▁oluşumu	-10.7393
lüğünü	-10.7395
ska	-10.7396
▁istediler	-10.7397
▁Gülüş	-10.7397
▁düşünüyordu	-10.74
▁dâhil	-10.7406
▁çıplak	-10.7406
▁hariç	-10.7406
▁itiraf	-10.7406
▁Kitap	-10.7406
▁keskin	-10.7408
▁mısır	-10.7408
▁sanmıyorum	-10.7408
▁Başarı	-10.7409
▁utanç	-10.7414
▁sınav	-10.7417
▁korkusu	-10.7417
keresinde	-10.7418
▁dönüştürül	-10.7436
▁istemedi	-10.744
▁kuvvetli	-10.7441
▁istersiniz	-10.7443
▁sevdikleri	-10.7444
▁mikroplar	-10.7445
▁izni	-10.7455
▁dönen	-10.7458
▁oynamak	-10.746
▁neresi	-10.7462
▁meselesi	-10.7464
▁aramızda	-10.7467
▁kapak	-10.7472
▁değiştirmeye	-10.7472
▁gerçekçi	-10.7473
▁boyutta	-10.7475
▁Sür	-10.7479
▁olmalıdır	-10.7481
▁akış	-10.7485
▁Tur	-10.7489
Tub	-10.7504
▁Gor	-10.7506
▁almayı	-10.7506
▁uzmanları	-10.7513
▁düşündüğünüz	-10.7514
▁Kısa	-10.7517
▁bahseder	-10.7517
▁Filistin	-10.7524
▁beklenmedik	-10.7524
▁global	-10.7524
▁rehber	-10.7524
▁sebze	-10.7524
▁İklim	-10.7524
▁tedarik	-10.7524
▁portre	-10.7524
▁endüstriyel	-10.7524
▁resif	-10.7524
▁kaybetmiş	-10.7524
▁sekil	-10.7525
▁baylar	-10.7526
▁mutasyon	-10.7526
▁biyolog	-10.7526
▁parçacıkları	-10.7527
▁ölmüş	-10.7531
▁DH	-10.7532
▁yapılabilir	-10.7532
▁öncesinde	-10.7533
▁sihirli	-10.7535
▁gösterilen	-10.7541
▁haberleri	-10.7545
▁yatağı	-10.7545
▁Gördü	-10.7547
▁önemsiz	-10.755
▁gelmeye	-10.7551
▁etkileme	-10.7552
▁gösterecek	-10.7555
▁verebil	-10.7558
▁ödülü	-10.756
▁güncel	-10.7593
▁yıkıl	-10.7598
▁davranışları	-10.7599
▁kıy	-10.7604
▁topluluklar	-10.7607
▁çalışmıyor	-10.7613
▁anlamamız	-10.7615
ardı	-10.7629
▁eksikliği	-10.7632
▁kullandım	-10.7635
▁ağları	-10.7637
▁korkma	-10.7638
▁durur	-10.764
tığınızda	-10.7643
▁jenerasyon	-10.7643
▁orijinal	-10.7643
▁radyasyon	-10.7643
▁alışkanlık	-10.7643
▁konsept	-10.7643
▁kullanışlı	-10.7643
▁ömür	-10.7643
▁gereği	-10.7643
▁yetenekli	-10.7645
▁1970	-10.7645
▁yolculuğ	-10.7647
▁izleyen	-10.7648
▁Peter	-10.7648
▁matematikçi	-10.765
▁Kısaca	-10.7653
▁kaybettiği	-10.7653
▁taşımak	-10.7654
▁cun	-10.7656
▁müziğin	-10.7658
▁anlayama	-10.7659
▁sent	-10.7662
▁oynar	-10.7663
▁kullanabil	-10.7666
▁varlığını	-10.7668
▁taşındı	-10.7669
▁Birlikte	-10.7674
▁insansız	-10.7681
▁paylaştığı	-10.7683
▁işliyor	-10.7687
▁alabilirsiniz	-10.7688
▁çıkması	-10.7699
▁sorduğum	-10.7702
dor	-10.7706
▁süreli	-10.7707
▁başkalarının	-10.7711
▁çıkarıp	-10.7713
diklerinde	-10.7715
▁kötüsü	-10.7715
▁düşünmüyoru	-10.7722
▁cidd	-10.7725
▁başlangıçta	-10.7725
▁görebilme	-10.7726
▁Ab	-10.7728
▁oluşturduk	-10.7729
▁kullanılma	-10.7731
▁bitme	-10.7733
▁açtığı	-10.7736
▁kusur	-10.775
▁sevdi	-10.7751
▁büyüyor	-10.776
▁şehirlerin	-10.7761
lüğ	-10.7761
▁cömert	-10.7763
▁meşhur	-10.7763
▁Öğretmen	-10.7763
▁golf	-10.7763
▁kemiği	-10.7763
▁kağıdı	-10.7763
▁reform	-10.7763
▁simge	-10.7763
▁Fikir	-10.7764
▁lazer	-10.7764
▁nakli	-10.7765
▁mülk	-10.7766
▁metod	-10.7766
▁komut	-10.7768
▁başladığımda	-10.7769
▁karşılaşma	-10.7773
▁aşkın	-10.7773
▁yapardı	-10.7777
▁kalmadı	-10.7779
▁okulun	-10.7781
▁hattı	-10.7782
▁Hint	-10.7787
▁Hep	-10.779
▁kazanç	-10.7799
▁kurduğu	-10.7809
▁once	-10.7812
▁sıcaklığı	-10.7812
▁özen	-10.7815
▁kalitesi	-10.7817
▁olmayabilir	-10.7818
▁yapıldığını	-10.7824
▁genomu	-10.7829
▁unuttu	-10.7832
▁por	-10.7839
▁düzenley	-10.7841
▁maliyetli	-10.7844
▁kullanıldı	-10.7849
sch	-10.7849
▁ayırt	-10.7849
▁amaçlı	-10.7851
▁rakamlar	-10.7852
▁yakı	-10.7853
▁sunmak	-10.7856
▁tüketimi	-10.7868
▁yaratabilir	-10.787
▁İçinde	-10.7875
▁altta	-10.7875
▁hatırlıyor	-10.7879
▁Mah	-10.7881
▁istisna	-10.7885
▁intihar	-10.7885
▁yapımcı	-10.7886
▁yangın	-10.7886
▁Öğrenciler	-10.789
▁şehirlerde	-10.789
▁kurumsal	-10.7891
▁kurtarmak	-10.7893
▁ekranda	-10.7894
▁36	-10.7905
▁çözmeye	-10.7907
▁paylaşım	-10.7908
tion	-10.7909
▁yayınladı	-10.7912
▁açıp	-10.7917
▁böcekler	-10.7923
▁mantığı	-10.7925
▁Günü	-10.7927
▁temizleme	-10.7927
▁babamın	-10.793
▁evrimin	-10.7931
▁zehirli	-10.7935
▁olacağına	-10.7938
▁sevin	-10.794
▁üretebil	-10.794
erry	-10.7945
▁iskelet	-10.7946
▁katil	-10.7949
▁tasarlamak	-10.7969
▁sure	-10.798
▁yazmak	-10.798
kav	-10.7985
▁malzemeleri	-10.7992
▁bacağı	-10.7994
ling	-10.7997
▁beyninin	-10.8008
▁verildi	-10.8008
▁Telefon	-10.8009
▁yepyeni	-10.8009
▁tarayıcı	-10.8009
▁Söz	-10.8009
▁optik	-10.801
▁bilinmeyen	-10.8011
▁samimi	-10.8012
▁1950	-10.8012
▁konuştuğumuz	-10.8017
▁2005	-10.8019
▁yapmıştı	-10.802
▁değişir	-10.8023
▁olmasından	-10.8026
▁çılgınca	-10.8033
▁alındı	-10.8034
▁alırsınız	-10.8036
ılmasını	-10.804
▁duyduğunuz	-10.8041
▁özür	-10.8043
▁bildikleri	-10.8044
▁inanı	-10.8045
▁öğrendiğimiz	-10.8045
▁İster	-10.8047
▁yapıyorsunuz	-10.805
▁etken	-10.8053
▁ebeveynleri	-10.8061
▁kartı	-10.8067
▁Gerçekte	-10.8071
▁başım	-10.8083
▁yapıldığı	-10.8107
▁yapmasını	-10.8111
▁soyle	-10.8111
▁çalma	-10.8113
duğunuzda	-10.8115
luyoruz	-10.8115
landığını	-10.8123
▁duydukları	-10.8124
▁tanımı	-10.8128
▁umutsuz	-10.8131
▁taşır	-10.8133
▁Uluslararas	-10.8134
▁kromozom	-10.8134
▁örümcek	-10.8134
▁alakası	-10.8134
▁şebeke	-10.8134
▁Eminim	-10.8134
▁gerektirir	-10.8134
▁kabuk	-10.8134
▁rejim	-10.8134
▁sorgulama	-10.8135
▁Martin	-10.8135
▁kapatma	-10.8136
▁Holly	-10.8136
teknoloji	-10.8137
▁ulaşılabilir	-10.8137
▁seyred	-10.8137
▁koyduğu	-10.8139
▁destekleyen	-10.8139
▁yazan	-10.8139
▁sag	-10.8142
▁etmeliyiz	-10.8146
▁aktivist	-10.8147
▁gidin	-10.815
▁metin	-10.8154
▁elini	-10.8154
▁olmalısınız	-10.8156
▁düşünürken	-10.8164
▁yaratmaya	-10.8166
▁yaptığımı	-10.8168
▁çocukluk	-10.8169
▁pop	-10.817
▁Doğal	-10.8172
▁Yazı	-10.8174
▁katılımcı	-10.8175
▁çalışacak	-10.8184
▁yakaladı	-10.8187
▁İnan	-10.8188
dıklarında	-10.8195
▁Jim	-10.8195
▁aldığınız	-10.8201
▁elinizde	-10.8205
▁kaplı	-10.8207
▁başlık	-10.8215
▁zincir	-10.8219
▁konularda	-10.822
ildiğinde	-10.8227
▁fiyatı	-10.8229
▁edebilmek	-10.8235
▁karmaşıklığı	-10.8249
▁sade	-10.8257
▁içgüdü	-10.826
▁Önümüzde	-10.8261
▁Hedef	-10.8261
▁Düz	-10.8261
▁opera	-10.8261
▁perde	-10.8262
▁Siyah	-10.8262
▁gerektiren	-10.8262
▁alkol	-10.8264
▁Vadisi	-10.8265
▁götürüyor	-10.8267
▁minik	-10.8267
▁dizilim	-10.8267
▁mutsuz	-10.8268
▁dikey	-10.8268
▁sonuçlarını	-10.8269
▁yaşıyordu	-10.8272
▁kısme	-10.8275
▁topluyor	-10.8276
▁yapılır	-10.8277
▁disk	-10.828
▁oradaydı	-10.8281
amadığı	-10.8281
▁iyileştir	-10.8288
▁sıkışı	-10.8294
leştiriyor	-10.8294
▁düzenlen	-10.8295
▁Wo	-10.8296
▁öldürdü	-10.8296
metre	-10.8301
▁hazırlama	-10.8305
▁yayıldı	-10.8311
▁Derek	-10.8312
▁Mor	-10.8316
▁çağında	-10.8322
▁yatıyor	-10.8325
▁Asla	-10.8327
▁hatırlayın	-10.8331
15	-10.8334
▁bölümünde	-10.8354
▁işlet	-10.8355
riyoruz	-10.8357
▁yanındaki	-10.8359
▁sili	-10.8364
▁birbirimiz	-10.837
▁örtüsü	-10.8372
▁basar	-10.8373
▁yolcu	-10.8375
▁yapabildiği	-10.8386
▁2011	-10.8389
▁Geçtiğimiz	-10.8389
▁figür	-10.8389
▁çeşidi	-10.8389
▁Jeff	-10.8389
▁Suriye	-10.8389
▁Modern	-10.8389
▁torba	-10.8389
▁Haiti	-10.8389
▁dinler	-10.839
▁nazik	-10.839
▁kuyruklu	-10.8394
▁siber	-10.8397
▁Güç	-10.8398
▁getirebilir	-10.8399
▁öğretmenleri	-10.8405
▁kendiliğin	-10.8406
AR	-10.8411
▁dayanıyor	-10.8417
▁koşul	-10.8422
▁şarkısı	-10.8424
▁duymuş	-10.8429
▁yanımda	-10.843
▁Kalp	-10.8435
▁gerekecek	-10.8437
▁yaşamaya	-10.8443
▁edemedi	-10.8444
▁Alan	-10.8448
▁paylaşıyor	-10.8448
▁yerleşim	-10.8451
▁Okyanusu	-10.8458
▁kabiliyeti	-10.8461
▁yazılı	-10.8466
▁eşyaları	-10.8472
burg	-10.8479
▁yayılması	-10.8479
shi	-10.8485
▁kalmıştı	-10.8486
▁Erkek	-10.8495
▁geliştirdi	-10.8502
ürekli	-10.8513
▁hüküm	-10.8514
▁çember	-10.8518
▁Muhteşem	-10.8518
▁Kırmızı	-10.8518
▁maske	-10.8518
▁korktu	-10.8519
▁sevimli	-10.8519
▁kapsamlı	-10.8519
▁Fizik	-10.8519
seksüel	-10.8519
▁şerit	-10.852
▁hatırlar	-10.852
▁kaygı	-10.8521
▁düşünmüştü	-10.8522
arry	-10.8531
▁şehr	-10.8536
abiliyordu	-10.8537
▁göremedi	-10.8537
▁Yoks	-10.854
▁maç	-10.8559
▁başarma	-10.8561
▁giderse	-10.8571
mezdi	-10.8574
▁kenarında	-10.8576
▁Okyanus	-10.8579
▁yaşanan	-10.8579
▁kalmayı	-10.8599
opi	-10.8602
▁uyuş	-10.8603
▁dakikalık	-10.8603
▁MR	-10.8613
▁çekimi	-10.8616
umuzu	-10.8617
▁hâlin	-10.8647
▁akademi	-10.865
▁kırılgan	-10.865
▁Californi	-10.865
▁Kültür	-10.865
▁astronom	-10.865
▁ısrar	-10.865
▁cennet	-10.865
▁Uganda	-10.865
▁teşkil	-10.865
▁torunları	-10.865
▁Whit	-10.8651
▁Program	-10.8651
▁sentez	-10.8651
▁büyüklükte	-10.8651
▁mikroskop	-10.8651
▁Kullan	-10.8651
▁tören	-10.8651
▁ödev	-10.8652
▁element	-10.8653
▁baktığımda	-10.8653
▁ölçeği	-10.8656
▁kentsel	-10.8658
▁gördüğümde	-10.8661
ilmemiş	-10.8666
leştirdi	-10.867
▁ısır	-10.868
▁takılı	-10.8683
▁gönderiyor	-10.8695
▁yavaşlat	-10.87
▁kurumu	-10.87
▁programlama	-10.87
▁Bob	-10.87
▁tüketim	-10.8705
▁besleme	-10.8709
▁soyu	-10.8712
▁ilişkilendir	-10.8722
▁durumunu	-10.8735
rtesi	-10.8736
▁severi	-10.8739
▁Cas	-10.874
▁bittiği	-10.8743
▁büyüdüğü	-10.8744
▁okuyor	-10.8745
yıllardır	-10.875
▁Tor	-10.8752
woo	-10.8753
▁kazanıyor	-10.8761
mazsınız	-10.8762
▁karşılaştırma	-10.8765
▁gidiş	-10.8766
biliyorum	-10.8781
▁Biyo	-10.8783
▁dördü	-10.8783
▁enstrüman	-10.8783
▁otomobil	-10.8783
▁enstitü	-10.8783
▁ekstra	-10.8783
▁Etrafı	-10.8784
▁doğmuş	-10.8784
▁çarpışma	-10.8784
▁hoca	-10.8784
▁mısın	-10.8784
▁Devam	-10.8785
▁başlamış	-10.8785
▁oluşmuş	-10.8785
▁mezar	-10.8785
▁inanan	-10.8791
▁silahlı	-10.8791
▁kurucu	-10.8796
▁kusursuz	-10.8799
▁kalırsa	-10.8801
▁uğraşıyor	-10.8803
▁içlerinde	-10.8805
▁geçecek	-10.881
▁başladığını	-10.8812
▁bastır	-10.8815
▁kısıt	-10.8819
▁çare	-10.8821
▁salgı	-10.8829
lanmamış	-10.8836
▁bıraktığı	-10.8848
digini	-10.8855
▁yapıcı	-10.8861
▁bazılarınız	-10.8866
▁aşamada	-10.8879
▁ticareti	-10.8881
▁yüzleş	-10.8881
▁benzediğini	-10.8881
▁aramaya	-10.8887
▁gazı	-10.8892
▁izlediği	-10.8893
▁bag	-10.8896
layabileceği	-10.8898
▁düzenledi	-10.8903
fel	-10.8908
▁cerrahi	-10.8911
▁bilişsel	-10.8919
▁hakikat	-10.8919
▁ideoloji	-10.8919
▁yetecek	-10.8919
▁tekniği	-10.8923
▁diyebilirsiniz	-10.8925
▁formül	-10.8925
▁düşünürsek	-10.8933
▁PM	-10.8934
▁sözlük	-10.8936
▁26	-10.8936
▁28	-10.8938
▁Anlat	-10.8939
▁Mimar	-10.894
▁amca	-10.8942
▁hita	-10.8945
▁ödedi	-10.8945
▁Düşündü	-10.8956
▁haklarını	-10.8957
▁okyanusta	-10.8959
▁yayılan	-10.8962
▁ilaçların	-10.8963
▁geçirdik	-10.8968
▁kurar	-10.8969
▁kaldırma	-10.8971
▁Rio	-10.8973
▁bitkilerin	-10.8982
▁yapmadı	-10.8983
▁aleti	-10.8986
▁anlatır	-10.8988
▁hastalıkların	-10.899
▁resmini	-10.8992
▁tanıştır	-10.8998
▁bittiğini	-10.9
▁duyan	-10.9001
▁kalktı	-10.9002
▁birbirini	-10.9003
nizdeki	-10.9005
spa	-10.9005
▁başlayabilir	-10.9007
▁davranma	-10.9016
▁ağız	-10.902
▁isteyeceği	-10.9024
hattan	-10.903
▁bilge	-10.9039
▁devletin	-10.9042
▁atıyor	-10.9055
▁mürekkep	-10.9055
▁CEO	-10.9055
▁Laboratuvar	-10.9055
▁Vücudu	-10.9055
▁dinozor	-10.9055
▁hipotez	-10.9055
▁kapitalizm	-10.9055
▁Enerji	-10.9056
▁bozukluk	-10.9056
▁Yahudi	-10.9056
▁inovasyon	-10.9056
▁zıt	-10.9056
▁Çift	-10.9056
▁Robert	-10.9056
▁patron	-10.9059
▁rica	-10.9059
▁taşıyıcı	-10.9059
▁kaydetme	-10.9061
▁İçeri	-10.9061
▁sürecinde	-10.9062
▁şempanzeler	-10.9065
▁aptalca	-10.9072
▁sorduğu	-10.9074
▁sınırı	-10.9077
▁çıktığını	-10.908
▁anlıyorum	-10.9083
▁kuralı	-10.9084
▁üretilen	-10.9088
▁yapamayacağı	-10.9092
▁sinyalleri	-10.9102
▁düşünmüyor	-10.9106
▁yerleştiril	-10.9112
eşke	-10.9114
▁gidiyordu	-10.9117
▁kardeşleri	-10.9126
▁edinme	-10.9137
işini	-10.9149
▁giysi	-10.9151
▁getirmeye	-10.9155
▁öğretmeni	-10.9158
▁molekülleri	-10.9163
▁yollarla	-10.9166
▁hastanede	-10.917
▁yazılımı	-10.9174
▁saklı	-10.9177
▁anlatan	-10.918
▁işimiz	-10.9186
▁kuyruk	-10.9188
▁yıldızların	-10.919
BI	-10.9193
▁Hollanda	-10.9194
▁antibiyotik	-10.9194
▁liberal	-10.9194
▁uğultu	-10.9194
▁çubuk	-10.9194
▁Nobel	-10.9194
▁piyano	-10.9194
▁sabır	-10.9194
▁vadeli	-10.9194
▁büyükbaba	-10.9194
▁şov	-10.9195
▁santral	-10.9195
▁eğ	-10.9195
▁sopa	-10.9195
▁Dön	-10.9196
▁Hâl	-10.9196
▁vermiyor	-10.9198
▁adres	-10.9199
▁Merak	-10.9203
▁aralık	-10.9205
▁yaramaz	-10.9205
▁Orman	-10.9206
▁beton	-10.9208
▁örtü	-10.9214
▁kutlama	-10.9216
▁kaos	-10.9217
▁kaybediyor	-10.9218
▁yaraya	-10.9222
▁bitti	-10.9226
▁kısıtlama	-10.9229
▁edemiyor	-10.9238
amazdı	-10.9239
▁Öte	-10.924
▁193	-10.924
▁muydu	-10.925
▁göstermeye	-10.9251
▁çıkarır	-10.9251
▁başvur	-10.9257
▁eviniz	-10.9265
▁ödüllendir	-10.9266
▁gözlerini	-10.9273
▁atalarımız	-10.9275
▁aktarma	-10.9277
▁döngüsü	-10.9281
▁sinema	-10.9285
▁Olay	-10.929
▁cins	-10.9293
▁Rob	-10.9296
▁çarpma	-10.9299
üydü	-10.9306
▁yarısında	-10.9306
▁bireylerin	-10.931
▁sorunumuz	-10.9314
▁120	-10.9324
▁isterdi	-10.9329
▁okudu	-10.9334
▁Hristiyan	-10.9335
▁simülasyon	-10.9335
▁çukur	-10.9335
▁fiziği	-10.9335
▁istasyonu	-10.9335
▁sezon	-10.9336
▁tümüyle	-10.9336
▁dizüstü	-10.9336
▁195	-10.934
▁dönüşüyor	-10.9342
▁sokağ	-10.9343
▁yüzeyinde	-10.9345
▁sırrı	-10.9351
▁Haber	-10.9355
▁vb	-10.9357
▁bakıyorsunuz	-10.9361
▁söyleyin	-10.9366
▁düşünmeyi	-10.937
▁bırakıp	-10.9374
▁çıkarak	-10.938
▁jeo	-10.9391
▁Durum	-10.9392
▁kılı	-10.9393
▁değişiklikleri	-10.9395
▁eğil	-10.9399
▁satır	-10.9418
▁yaşayacak	-10.9425
▁boğul	-10.9428
▁önlem	-10.9429
▁istediklerini	-10.9435
▁33	-10.9441
▁tanıştığım	-10.9444
▁yükselme	-10.9446
▁dostu	-10.9448
▁Güven	-10.9455
▁birikim	-10.9456
▁çat	-10.9456
▁ölür	-10.9457
▁tepesinde	-10.9459
▁hissetti	-10.947
▁miktarını	-10.9474
▁değerini	-10.9476
▁mutfak	-10.9478
▁GSY	-10.9478
▁ressam	-10.9478
▁Kutbu	-10.9478
▁esnasında	-10.9478
▁maddi	-10.9478
▁mikrofon	-10.9478
▁güce	-10.9479
▁vermişti	-10.9484
▁metro	-10.9487
▁satıcı	-10.9492
▁Elimizde	-10.9492
▁vereceği	-10.9493
▁buzun	-10.9499
▁mes	-10.95
▁yitir	-10.9503
▁700	-10.951
▁çevirdi	-10.9515
▁dünyamızı	-10.9522
▁trend	-10.9526
▁başarısızlık	-10.9539
▁fikr	-10.954
▁düşünmeniz	-10.9544
▁üretir	-10.9545
▁başlığı	-10.9561
▁ilgimi	-10.9563
▁Doku	-10.9568
▁sanıyor	-10.9576
▁inandı	-10.9577
▁motoru	-10.9581
▁gerekmiyor	-10.9583
leştirir	-10.9587
▁Gand	-10.9591
▁hic	-10.96
▁Hintli	-10.96
▁oturduğu	-10.9601
▁800	-10.9605
▁fotoğrafını	-10.9606
▁vazgeçme	-10.9611
▁eşitlik	-10.9611
▁sundu	-10.9618
▁Körfez	-10.9623
▁enteresan	-10.9623
▁geometri	-10.9623
▁istikrar	-10.9623
▁referans	-10.9623
▁diyalog	-10.9623
▁gergin	-10.9623
▁şablon	-10.9623
▁Street	-10.9623
▁karmaşa	-10.9623
▁Problem	-10.9623
▁emisyon	-10.9623
▁hacker	-10.9623
▁Bakanlığı	-10.9623
▁Kongo	-10.9623
▁Bankası	-10.9623
▁aygıt	-10.9624
▁kumanda	-10.9624
▁terörizm	-10.9624
▁pound	-10.9624
▁bozukluğu	-10.9624
▁eşitsizlik	-10.9626
▁tünel	-10.9626
▁tuttuğu	-10.9626
▁basamak	-10.9627
▁düğüm	-10.9628
▁Yerel	-10.963
▁konuşmamı	-10.964
▁isimlendir	-10.9644
▁Güvenlik	-10.9648
▁dikkatini	-10.9649
▁95	-10.9649
▁açıkladı	-10.9654
▁bilinir	-10.9655
▁uçtu	-10.9663
▁olmasaydı	-10.9665
▁görmedi	-10.9665
▁Hastane	-10.9665
▁grub	-10.9667
▁fikrimiz	-10.9675
BG	-10.9678
sair	-10.9679
▁kesti	-10.9685
▁koşulları	-10.9696
▁pişirme	-10.9712
▁tasarlay	-10.9712
▁pre	-10.9715
▁çocuklarımızı	-10.9744
▁değiştiğini	-10.9746
▁başlatma	-10.9755
▁olağan	-10.9769
▁seti	-10.977
▁gecekondu	-10.977
▁motive	-10.977
▁pirinç	-10.977
▁kalori	-10.9771
▁görünmüyor	-10.9771
▁Evrim	-10.9771
▁çöküş	-10.9772
▁karşılaştığımız	-10.9772
▁kaderi	-10.9774
▁bakımından	-10.9776
▁tükenme	-10.978
▁işgal	-10.9784
liyordu	-10.9785
▁kitapta	-10.9787
▁dolduru	-10.979
▁faydası	-10.979
ılmaya	-10.979
▁Titan	-10.9792
▁oynayan	-10.9801
▁org	-10.9806
▁yosun	-10.9809
▁molekülü	-10.9812
▁uğraşan	-10.9813
▁yayımla	-10.9814
▁gereksiz	-10.9816
▁War	-10.9817
▁sebebiyle	-10.982
▁bitirdi	-10.982
başı	-10.9822
▁pişir	-10.9829
▁davranışlarını	-10.9834
▁başlarında	-10.9839
taşı	-10.9847
▁çalışmasını	-10.9847
▁attığı	-10.9864
▁performansı	-10.9865
▁kuruluşları	-10.9875
▁çıktığında	-10.9883
▁eleştiri	-10.9884
▁alıyordu	-10.989
▁poli	-10.9897
▁oranını	-10.9904
▁birbirimizi	-10.9912
▁hızını	-10.9917
▁Özel	-10.9918
▁Geleneksel	-10.9919
▁Scott	-10.9919
▁hükumet	-10.9919
▁karaciğer	-10.9919
▁koridor	-10.9919
▁reçete	-10.9919
▁Politik	-10.9919
▁negatif	-10.9919
▁çamur	-10.9919
▁Müzesi	-10.9919
▁acımasız	-10.9919
▁Yardım	-10.992
▁ritim	-10.992
▁İzleyici	-10.992
▁paralel	-10.9921
▁aşina	-10.9921
▁söyleyeyim	-10.9923
▁rota	-10.9924
▁gerçeğ	-10.9928
▁basınç	-10.9931
▁yuzde	-10.9934
▁buluyorum	-10.9934
▁çalışacağım	-10.9936
▁düşünecek	-10.9936
▁anlamsız	-10.9936
▁Port	-10.9939
▁Ortalama	-10.9946
▁Erkekler	-10.9946
▁sisteminde	-10.9952
▁öldüğü	-10.9954
▁söyleyeme	-10.9957
▁akıllıca	-10.9961
▁haritasını	-10.9961
▁canlandırma	-10.9961
▁alınmış	-10.9962
leşen	-10.9974
▁birbiri	-10.9976
▁becer	-10.9977
▁farkındalık	-10.998
▁bardak	-10.9981
▁Saat	-10.9993
▁bozulma	-10.9993
▁kısıtlı	-10.9993
▁beraberinde	-10.9996
▁yetkili	-11.0001
▁dinliyor	-11.0005
▁komşuları	-11.0015
olly	-11.0016
▁uçurum	-11.0019
▁yaramadı	-11.002
▁sunduğu	-11.0043
▁yakalanma	-11.0055
▁halini	-11.0063
▁Aslın	-11.0066
▁açılma	-11.0067
▁Britanya	-11.0071
▁Chicago	-11.0071
▁mevsim	-11.0071
▁belediye	-11.0071
▁bıçak	-11.0071
▁helikopter	-11.0071
RNA	-11.0071
▁şapka	-11.0071
▁Ebola	-11.0071
▁transfer	-11.0071
▁gerektiriyor	-11.0072
▁Makine	-11.0072
▁titreşim	-11.0072
▁dağınık	-11.0072
▁göreceğiniz	-11.0072
▁şahs	-11.0076
▁Noel	-11.0076
▁götürür	-11.0081
▁şüphesiz	-11.0084
▁fotoğrafta	-11.0085
▁Dinle	-11.0085
▁yenilenebilir	-11.0086
▁degis	-11.0086
▁parçalarını	-11.0086
▁davranışsal	-11.0087
▁aranızda	-11.0087
▁okuduğum	-11.0093
▁şair	-11.0098
▁bio	-11.0099
▁saklama	-11.0099
▁Hepsini	-11.0104
▁Tür	-11.0104
▁sebepten	-11.0115
▁inceliyor	-11.0125
▁verdiğiniz	-11.0125
▁köşesinde	-11.0131
▁kullanılır	-11.0138
▁bildirim	-11.0143
bilim	-11.0146
▁İnanıyoru	-11.016
▁bahsettiği	-11.0163
▁uçma	-11.0172
▁açıldı	-11.0189
▁fiil	-11.0213
▁kurulmuş	-11.0214
▁hara	-11.0216
▁trans	-11.0224
▁dramatik	-11.0225
▁nöroloji	-11.0225
▁Bölge	-11.0225
▁koltuğu	-11.0225
▁partner	-11.0225
▁kurbağa	-11.0225
▁anatomi	-11.0225
▁emniyet	-11.0225
▁Sahip	-11.0225
▁Mikro	-11.0225
▁rekor	-11.0225
▁bedeli	-11.0225
▁ergen	-11.0226
▁fırın	-11.0227
▁cisim	-11.0228
▁atlat	-11.0228
▁kaynaklanıyor	-11.0231
▁benzetme	-11.0234
▁yoğunluk	-11.0235
▁uçuyor	-11.0236
▁Matt	-11.0236
▁hayatınızı	-11.0236
▁sanıyorum	-11.0238
▁tahrip	-11.0239
▁etkinlik	-11.0242
▁iskeleti	-11.0247
▁odaklı	-11.025
▁robotik	-11.0255
▁Krallık	-11.0258
▁verilmiş	-11.0268
▁öncülü	-11.0268
▁kullanılması	-11.0278
▁alanlarında	-11.028
İH	-11.0291
▁başvuru	-11.0311
▁elektriği	-11.0317
▁akışını	-11.0327
▁şartları	-11.0328
▁duman	-11.0338
▁içimizde	-11.0338
AT	-11.0341
▁yaşamını	-11.0343
▁yapılabil	-11.0345
üzün	-11.0372
▁bağımlılık	-11.038
▁Birçoğu	-11.0381
▁Matematik	-11.0381
▁güvercin	-11.0381
▁kahverengi	-11.0381
▁çikolata	-11.0381
▁İsviçre	-11.0381
▁Biyoloji	-11.0381
▁böceği	-11.0381
▁dinazor	-11.0381
▁reaksiyon	-11.0381
▁onemli	-11.0381
▁akıntı	-11.0381
▁yıkıcı	-11.0381
▁hakkinda	-11.0381
▁mizah	-11.0382
▁edemeyeceği	-11.0382
▁telif	-11.0383
RIS	-11.0383
▁bulamadı	-11.0383
▁solucan	-11.0384
▁maalesef	-11.0384
▁Işık	-11.0386
▁fena	-11.0387
▁umursama	-11.0387
▁bitiş	-11.0388
▁üstte	-11.0391
▁ödün	-11.0391
▁Ford	-11.0392
▁işlevsel	-11.0394
▁düşündüğünüzde	-11.0397
▁eğiliminde	-11.0399
▁kalkıp	-11.04
▁Yemek	-11.0408
BC	-11.0412
▁mod	-11.0415
▁yiyeceği	-11.0416
▁hastalığ	-11.0417
▁adlandırıla	-11.0422
▁galeri	-11.0432
▁verdiğini	-11.0435
▁yansıma	-11.0439
▁aşamasında	-11.0445
▁kaynaklarını	-11.0445
▁köşede	-11.0453
port	-11.0466
▁böcekleri	-11.0493
▁donmuş	-11.0501
▁kariyerim	-11.0506
▁burnu	-11.0509
▁genişleme	-11.0526
▁uzaklaştır	-11.0527
▁gerçekleştiği	-11.0537
▁Afgan	-11.0539
▁William	-11.054
▁rüşvet	-11.054
▁hormon	-11.054
▁paradigma	-11.054
▁trajedi	-11.054
▁şaşkın	-11.054
▁Silikon	-11.054
▁Smith	-11.054
▁Stanford	-11.054
▁batarya	-11.054
▁Hızlı	-11.054
leştirilmesi	-11.054
▁retina	-11.054
▁varoluş	-11.054
▁profil	-11.054
▁Gülme	-11.0541
▁arkadaşlarınız	-11.0543
▁ırkçı	-11.0544
▁Eric	-11.0544
▁esinlen	-11.0545
▁vadi	-11.0546
▁ilave	-11.0548
▁bağlamda	-11.055
▁dönüşür	-11.055
▁beste	-11.0553
▁derinliklerin	-11.0555
▁yapamıyor	-11.056
▁karışımı	-11.0566
▁yardımıyla	-11.057
▁görmüştü	-11.0578
▁sessizlik	-11.0581
▁vurma	-11.0583
▁şansımız	-11.0594
▁ihtiyac	-11.0599
malısın	-11.0599
▁aldığını	-11.0607
▁önemini	-11.0611
▁evlenme	-11.0611
▁programcı	-11.0612
▁zorlukları	-11.0616
▁sınıflandır	-11.062
▁elinizi	-11.063
▁muyu	-11.0635
▁oynadı	-11.0643
▁başladığında	-11.0651
▁çaresiz	-11.0657
▁korkar	-11.0662
▁Hayatta	-11.0663
▁yaşayabil	-11.0667
▁Bazılarınız	-11.0668
▁Gülüşme	-11.0669
lendirdi	-11.0672
▁almıştı	-11.0674
▁hoşlanma	-11.0678
▁Ph	-11.0681
▁Beynin	-11.0683
▁bulaş	-11.0689
▁kalitesini	-11.069
▁devri	-11.0697
▁kolunu	-11.0697
▁Atlantik	-11.0701
▁Demokrasi	-11.0701
▁eşcinsel	-11.0701
▁çevrimiçi	-11.0701
▁sentetik	-11.0701
▁Yavaş	-11.0701
▁kemer	-11.0701
▁çürü	-11.0701
▁imaj	-11.0702
▁ironi	-11.0703
▁Etki	-11.0703
▁darbe	-11.0703
▁eleştir	-11.0703
▁ünite	-11.0703
▁parazit	-11.0703
▁kalkınma	-11.0704
▁denizaltı	-11.0706
▁geçirmiş	-11.0706
▁çekilme	-11.0709
▁kabin	-11.0711
▁kaçak	-11.0712
▁geldiğimde	-11.0714
▁hepinizi	-11.0721
▁duruş	-11.0728
▁tutkulu	-11.0728
▁üçgen	-11.0728
▁Kural	-11.0733
▁Kapı	-11.0737
▁bahar	-11.0738
▁Iste	-11.074
RB	-11.0743
▁yeryüzünde	-11.0746
laşır	-11.0748
▁Bekle	-11.0754
▁gelmesini	-11.0755
▁Dav	-11.0776
▁Kes	-11.0776
▁anlaş	-11.0785
▁biliniyor	-11.0814
▁Cit	-11.0816
▁gideli	-11.0824
▁görülmemiş	-11.0831
▁vücudunu	-11.0835
leştiren	-11.0835
▁kafasını	-11.0838
▁tadını	-11.0844
▁nerde	-11.0845
▁evcil	-11.0854
▁doğma	-11.0856
▁görecek	-11.0861
▁yüzleşme	-11.0861
▁Gazete	-11.0865
▁Kontrol	-11.0865
▁enfekte	-11.0865
▁mıknatıs	-11.0865
▁öbür	-11.0865
▁üzücü	-11.0865
▁Akademi	-11.0865
▁sömür	-11.0865
▁tropik	-11.0865
ntarktik	-11.0865
▁Petrol	-11.0865
▁kumaş	-11.0865
▁hiçbirşey	-11.0865
▁ogren	-11.0866
▁klip	-11.0866
▁Genellikle	-11.0867
▁ölecek	-11.0867
▁Benzer	-11.0868
▁mekaniği	-11.0868
▁çalıyor	-11.0869
▁korsan	-11.0871
▁Hazır	-11.0871
▁sunucu	-11.0872
▁durak	-11.0872
▁kuşak	-11.0873
▁azalıyor	-11.0875
▁sayılır	-11.0876
▁başlayı	-11.0889
▁baska	-11.0891
▁mega	-11.0891
▁işleyen	-11.0892
▁Ekim	-11.0894
▁geleceğimiz	-11.0907
engin	-11.0919
▁fiber	-11.0932
▁arttırma	-11.0933
riyorum	-11.0935
▁calisma	-11.0939
▁üstlen	-11.0941
▁özelliklerini	-11.0951
▁sağlayabil	-11.0952
▁kirliliği	-11.0956
▁tuş	-11.0958
▁bahsettiğimiz	-11.0982
▁cevabını	-11.1009
ER	-11.1012
▁telefonunuz	-11.1014
▁kaçınma	-11.1028
▁gercekte	-11.1028
▁alem	-11.1031
▁Dijital	-11.1032
▁aykırı	-11.1032
▁feminist	-11.1032
▁kombinasyon	-11.1032
▁sipariş	-11.1032
▁Örnek	-11.1032
▁çekirdek	-11.1032
▁prensibi	-11.1032
▁estetik	-11.1032
▁meclis	-11.1032
▁imalat	-11.1032
▁banyo	-11.1032
▁Sabah	-11.1032
▁karşılığında	-11.1032
▁Yaşlı	-11.1032
▁zarif	-11.1033
▁Asker	-11.1034
▁taze	-11.1035
▁nehrin	-11.1036
▁mutluyum	-11.1043
▁yeraltı	-11.1047
▁küreselleşme	-11.1048
▁eğim	-11.1057
ılmamış	-11.1057
▁türünü	-11.1058
▁yankı	-11.1068
RI	-11.1071
▁alabiliyor	-11.1073
BA	-11.1083
▁sahi	-11.1115
lalım	-11.114
▁aldatma	-11.1147
▁istemediği	-11.1153
▁belirlen	-11.1177
▁şempanze	-11.119
▁sürecini	-11.1194
▁Arjantin	-11.1201
▁Mükemmel	-11.1201
▁Sovyet	-11.1201
▁Wikipedia	-11.1201
▁acayip	-11.1201
▁sandviç	-11.1201
▁cinayet	-11.1201
▁rezerv	-11.1201
▁husus	-11.1201
▁Yukarı	-11.1201
▁Green	-11.1201
▁farz	-11.1201
▁enjekt	-11.1202
▁tükenmiş	-11.1202
▁bencil	-11.1202
▁imge	-11.1203
▁bulaşıcı	-11.1203
▁goz	-11.1205
▁Bilmiyorum	-11.1206
▁ortamında	-11.121
▁isyan	-11.1217
▁zıpla	-11.1219
▁görebiliyorum	-11.1223
▁kirlet	-11.1223
▁Çalı	-11.1227
EC	-11.1231
▁dövme	-11.1232
▁lüks	-11.1233
▁kopar	-11.1234
▁uzaklıkta	-11.1244
▁söylerdi	-11.1248
▁stil	-11.1255
▁konuşuyordu	-11.1259
▁kabiliyet	-11.1276
▁Doğrusu	-11.1288
▁edildiğini	-11.129
▁geçirdiğim	-11.132
▁kullanımını	-11.132
▁tarihini	-11.1324
▁Tah	-11.1335
▁çit	-11.1343
▁başarama	-11.1343
digimiz	-11.1344
▁eğitil	-11.1353
▁Cambridge	-11.1373
▁Florida	-11.1373
▁Vietnam	-11.1373
▁Yanlış	-11.1373
▁interaktif	-11.1373
▁çapta	-11.1373
▁kızgın	-11.1374
▁irade	-11.1374
▁psikolog	-11.1374
▁Brun	-11.1374
▁buluşma	-11.1374
▁netice	-11.1376
▁yürürken	-11.1378
▁Kişisel	-11.1379
▁ertesi	-11.1382
▁pişmanlık	-11.1382
▁direnci	-11.1382
▁gittiğimiz	-11.1383
▁Lider	-11.1385
▁Model	-11.1392
awa	-11.14
▁seviyesini	-11.1406
▁Geleceğ	-11.141
agos	-11.1411
lduğunda	-11.1421
halde	-11.1426
▁Bildiğin	-11.144
layabilecek	-11.145
▁dalgalanma	-11.1452
▁teknolojisini	-11.1477
▁destekliyor	-11.1485
▁Ağı	-11.1494
▁görüldüğü	-11.1504
▁döndürü	-11.1504
▁bilmeniz	-11.1529
▁durduru	-11.1547
▁85	-11.1548
▁halihazırda	-11.1549
▁minnettar	-11.1549
▁peynir	-11.1549
▁popülasyon	-11.1549
▁İspanya	-11.1549
▁Haziran	-11.1549
▁haricinde	-11.1549
▁paraşüt	-11.1549
▁mağdur	-11.1549
▁ihlal	-11.1549
▁goster	-11.1549
▁başlıca	-11.1549
▁Bebek	-11.1549
ville	-11.1549
▁evvel	-11.1549
▁masum	-11.1549
▁cihad	-11.155
▁saldırgan	-11.155
▁gereksinim	-11.1552
▁niteliği	-11.1552
▁duymuşsunuz	-11.1553
▁tabu	-11.1554
▁dansçı	-11.1558
▁ayrılmış	-11.1558
▁Nano	-11.1562
ugh	-11.1563
▁çözülme	-11.1564
▁alev	-11.1575
▁olamayacağı	-11.1577
▁dışkı	-11.1582
▁edilecek	-11.1589
▁alarm	-11.1592
▁harcadığı	-11.1599
binlerce	-11.1604
▁Hatırla	-11.1612
▁dürtü	-11.164
▁davranıyor	-11.1665
▁Resim	-11.1674
▁gözükme	-11.1675
hall	-11.1678
▁seçtiği	-11.1683
▁odasında	-11.1688
▁kolaylık	-11.1688
▁sunma	-11.1691
▁kullanmıyor	-11.1694
▁hatırlatıyor	-11.1702
▁yapabiliri	-11.1705
▁LED	-11.1727
▁muayene	-11.1727
▁Şehri	-11.1727
▁Brown	-11.1727
▁dogru	-11.1727
▁İspanyol	-11.1727
▁ampul	-11.1727
▁patates	-11.1727
▁çiğ	-11.1728
▁bayılıyoru	-11.1728
▁ödüyor	-11.1728
▁sakat	-11.1728
▁görülebilir	-11.1729
▁göğsü	-11.173
facık	-11.1737
▁Nick	-11.1737
▁bütünüy	-11.1737
▁lens	-11.1759
▁aslin	-11.1763
▁eşitliği	-11.1794
▁kurabil	-11.1797
▁çabu	-11.1805
▁burun	-11.1821
abilmemiz	-11.1824
▁Str	-11.1825
▁basladi	-11.1829
▁Vo	-11.1834
▁yayılmış	-11.1841
▁olmayacağı	-11.1859
▁bahsetmiyoru	-11.1882
▁çoğunluk	-11.1883
▁aktiv	-11.1892
▁örgü	-11.1904
leştiril	-11.1904
▁uğramış	-11.1905
▁vasıtası	-11.1909
▁Taliban	-11.1909
▁coğrafya	-11.1909
▁istihdam	-11.1909
▁kristal	-11.1909
▁Binlerce	-11.1909
▁fırça	-11.1909
▁spektrum	-11.1909
▁yozlaşma	-11.1909
▁hemfikir	-11.1909
▁arşiv	-11.1909
▁çağdaş	-11.1909
▁Gates	-11.1909
▁beyne	-11.191
▁sistematik	-11.191
▁işkence	-11.191
▁Seçim	-11.191
▁Simdi	-11.191
▁evlat	-11.1911
▁plak	-11.1912
▁şahane	-11.1912
▁yükselişi	-11.1912
▁Kişi	-11.1914
▁gayri	-11.192
▁Tony	-11.1922
▁hekim	-11.1925
▁bankacı	-11.1939
▁içimde	-11.1958
▁zorlama	-11.1962
▁baktığımız	-11.201
▁katılıyor	-11.2023
▁evimiz	-11.2025
▁yayılıyor	-11.2047
▁butun	-11.2054
▁aldat	-11.2068
▁oğlumu	-11.2073
▁edeceğimiz	-11.2087
▁Hücre	-11.2094
▁bambaşka	-11.2094
▁coğrafi	-11.2094
▁eşdeğer	-11.2094
▁istihbarat	-11.2094
▁istismar	-11.2094
▁Özgür	-11.2094
▁cocuk	-11.2094
▁timsah	-11.2094
▁öldürücü	-11.2094
▁Vakfı	-11.2094
▁Şarkı	-11.2094
▁zafer	-11.2095
▁Sahra	-11.2095
▁zira	-11.2096
▁güdü	-11.2096
▁patern	-11.2098
▁ipek	-11.2099
▁denetim	-11.21
▁ikon	-11.2101
▁yolsuzluk	-11.2101
▁öğe	-11.2101
▁göründü	-11.2102
▁Motor	-11.2102
▁penis	-11.2108
▁soktu	-11.2118
▁Şans	-11.212
▁işitme	-11.2122
larinda	-11.2125
▁tamamiyl	-11.2148
▁özünde	-11.2156
▁yönlendirme	-11.216
▁yoksulluğu	-11.2166
▁sokma	-11.2192
▁ışığ	-11.2204
▁baktığınız	-11.2226
▁dönüştürdü	-11.2253
▁idam	-11.2264
▁Microsoft	-11.2283
▁Nihayet	-11.2283
▁Yaratıcı	-11.2283
▁erkeğin	-11.2283
▁illüzyon	-11.2283
▁şükür	-11.2283
▁tahıl	-11.2283
▁statü	-11.2283
▁Değer	-11.2283
▁rakip	-11.2284
▁Koruma	-11.2284
▁görünmeyen	-11.229
▁Görev	-11.229
▁görebileceği	-11.2291
▁oluştuğunu	-11.2293
▁birsey	-11.2293
▁düşünmeliyiz	-11.2296
▁Henr	-11.2301
▁Charl	-11.2318
▁kuşku	-11.2327
▁kültürümüz	-11.233
▁Big	-11.2334
▁bulunduğunu	-11.2353
▁değiştirebil	-11.2356
▁gelebil	-11.2369
▁kullanılmış	-11.237
▁artırma	-11.2375
▁belirtileri	-11.2376
▁gördüğünde	-11.2391
▁koşma	-11.2405
▁düştüğü	-11.241
▁yeryüzü	-11.2433
lendiriyor	-11.2443
▁klavye	-11.2475
▁kuyruğu	-11.2475
▁tweet	-11.2475
▁volkan	-11.2475
▁filozof	-11.2475
▁origami	-11.2475
▁süpür	-11.2475
▁şarj	-11.2475
▁Virgin	-11.2475
▁doğuştan	-11.2475
▁numune	-11.2475
▁Organiz	-11.2475
▁Sokak	-11.2476
▁Yıldız	-11.2476
▁fatura	-11.2476
▁talebi	-11.2476
▁tasvir	-11.2476
▁Pekâl	-11.2476
▁izole	-11.2476
▁Medya	-11.2476
▁gündüz	-11.2476
▁Berlin	-11.2476
▁hasat	-11.2478
▁üzül	-11.2478
▁boğa	-11.2478
▁göründüğünü	-11.2479
▁çene	-11.248
▁anlaşılması	-11.248
attle	-11.2483
▁beklenen	-11.2485
▁Kızıl	-11.2485
mişsinizdir	-11.2488
▁rahatlat	-11.2489
▁beklediği	-11.2492
▁kavramını	-11.2504
▁hayatınızda	-11.2507
▁işlediğini	-11.2507
▁tutuklan	-11.2519
▁hissettikleri	-11.2521
▁yatırımcılar	-11.2523
▁modül	-11.2531
▁oynadığı	-11.2537
▁buralarda	-11.254
▁kapağı	-11.2553
meyeceğiz	-11.2556
▁aktarıl	-11.2582
▁Merkez	-11.2599
▁kaydedil	-11.2603
▁Düş	-11.2611
▁buluştu	-11.2617
▁umuyoru	-11.265
▁gelişiyor	-11.2653
▁gitmiyor	-11.2653
▁sağlığını	-11.2664
▁maka	-11.2668
▁laboratuar	-11.2672
▁beyefendi	-11.2672
▁personel	-11.2672
▁primat	-11.2672
▁semptom	-11.2672
▁zekâ	-11.2672
▁Duygu	-11.2672
▁ritüel	-11.2672
▁yırtıcı	-11.2672
▁Anlaşıl	-11.2672
▁Delhi	-11.2672
▁görülür	-11.2672
▁mineral	-11.2672
▁Ruanda	-11.2672
▁avuç	-11.2672
▁otoyol	-11.2672
▁pamuk	-11.2672
▁küçümse	-11.2672
▁Kelime	-11.2672
▁yatkın	-11.2673
▁kurşun	-11.2674
▁ivme	-11.2675
▁Düşünün	-11.2675
▁kılıyor	-11.2675
▁Arapça	-11.2677
▁görebildiği	-11.2681
▁bandı	-11.2683
▁yıkım	-11.2685
▁fren	-11.2686
▁ilerlet	-11.2687
▁yenme	-11.2697
▁dikkatinizi	-11.2706
▁enzim	-11.2717
▁Aklım	-11.2722
▁çocukluğum	-11.2738
▁Marc	-11.2754
PR	-11.2776
▁Adaları	-11.2812
▁izleyebil	-11.2853
▁keşfe	-11.2862
▁oluştuğu	-11.2863
▁Michel	-11.2872
▁Etiyopya	-11.2872
▁National	-11.2872
▁mecbur	-11.2872
▁mikroskob	-11.2872
▁omurga	-11.2872
▁Kitabı	-11.2872
▁Kütüphane	-11.2872
▁Parkinson	-11.2872
▁düşünürsünüz	-11.2872
▁efekt	-11.2872
▁hayırsever	-11.2872
▁manşet	-11.2872
▁meslektaşım	-11.2872
▁misafir	-11.2872
▁oksitosin	-11.2872
▁sponsor	-11.2872
▁muhabir	-11.2872
▁gütmeye	-11.2872
▁doğaçlama	-11.2872
▁kliniğ	-11.2872
▁çırp	-11.2872
▁Görünüş	-11.2872
NSA	-11.2872
▁Silah	-11.2872
▁haberdar	-11.2872
▁taciz	-11.2873
▁açılış	-11.2873
▁etnik	-11.2873
▁solunum	-11.2873
▁Nehri	-11.2873
▁Duvar	-11.2874
▁okuyucu	-11.2875
▁süzül	-11.2875
▁arayışı	-11.2876
▁Yemen	-11.2876
▁öldürüyor	-11.2878
▁evliliği	-11.2879
▁yatay	-11.2885
▁duyulma	-11.2904
laşan	-11.2925
▁görüldü	-11.2927
▁tanımladığı	-11.2938
▁içinizde	-11.2951
▁jet	-11.2965
▁maliyetini	-11.2969
▁eklem	-11.2982
üldüğü	-11.2994
▁kitab	-11.3
çoğumuzun	-11.3007
▁olanağı	-11.3014
▁uyuyor	-11.3056
▁yaklaşıyor	-11.3068
▁Muhamm	-11.3076
▁spesi	-11.3076
▁Norveç	-11.3076
▁kabuğu	-11.3076
▁halüsinasyon	-11.3076
▁konsantr	-11.3076
▁obezite	-11.3076
▁pantolon	-11.3076
▁tsunami	-11.3076
▁Çocuğu	-11.3076
▁Örgütü	-11.3076
▁levha	-11.3076
▁GSM	-11.3076
▁keyfi	-11.3076
▁talimat	-11.3076
▁çorba	-11.3076
▁editör	-11.3076
▁Nelson	-11.3076
▁Black	-11.3076
▁Hoş	-11.3076
▁Şubat	-11.3076
▁oğlan	-11.3076
▁düşünüp	-11.3076
▁İsmi	-11.3076
▁servet	-11.3077
▁ipucu	-11.3078
▁Kaçınız	-11.3078
▁Cuma	-11.3078
▁sindir	-11.3081
▁West	-11.3082
▁dönüştürüyor	-11.3084
▁Polis	-11.3086
▁şekl	-11.3109
▁destekledi	-11.3112
▁yaklaştığı	-11.3113
▁bilgeliğ	-11.3123
▁sürüklen	-11.3127
▁sosyo	-11.3158
▁boğu	-11.3165
▁eşleş	-11.318
▁saklay	-11.3209
▁değiştiği	-11.3261
▁tahri	-11.3266
ograf	-11.3281
▁Demokrat	-11.3284
▁Dördüncü	-11.3284
▁Grön	-11.3284
▁Profesör	-11.3284
▁Singapur	-11.3284
▁Ticaret	-11.3284
▁asteroid	-11.3284
▁federal	-11.3284
▁festival	-11.3284
▁zanned	-11.3284
▁imparator	-11.3284
▁argüman	-11.3284
▁Sekoya	-11.3284
▁garaj	-11.3284
▁kulübe	-11.3284
▁uyguluyor	-11.3284
▁bayrak	-11.3284
▁İlgi	-11.3284
▁borsa	-11.3284
▁tercüme	-11.3284
▁mühim	-11.3284
▁Brian	-11.3284
▁Life	-11.3284
▁Şili	-11.3285
▁Köy	-11.3286
▁kuyu	-11.3288
▁hidro	-11.33
▁Aşk	-11.33
▁Kapa	-11.3303
▁çapl	-11.3328
▁hassasiyet	-11.3337
▁topladığı	-11.3367
▁versiyonunu	-11.3378
▁insanoğlunu	-11.3444
uther	-11.348
▁Bangladeş	-11.3497
▁Detroit	-11.3497
▁Elektrik	-11.3497
▁hiyerarşi	-11.3497
▁süpermarket	-11.3497
▁örüntü	-11.3497
▁Olimpiyat	-11.3497
▁astronot	-11.3497
▁Watson	-11.3497
▁gereç	-11.3497
▁çizelge	-11.3497
▁Aristo	-11.3497
▁Soğuk	-11.3497
▁sansür	-11.3497
▁baloncuk	-11.3497
▁afet	-11.3497
▁ultra	-11.3497
▁gayret	-11.3497
▁keçi	-11.3497
▁dindar	-11.3497
▁Sekiz	-11.3498
▁ritmi	-11.3498
▁makul	-11.3498
▁logo	-11.3499
▁Mayıs	-11.3499
▁azınlık	-11.35
▁Yoksul	-11.35
▁vaad	-11.35
▁zihniyet	-11.3501
▁yedek	-11.3502
▁giyme	-11.3502
▁Terör	-11.3512
▁yapılacağın	-11.3517
▁alabilme	-11.3519
▁koruyor	-11.3638
▁oğlunu	-11.3645
▁tanımlıyor	-11.3686
▁sihir	-11.3693
▁kavuştu	-11.3704
▁iPod	-11.3714
▁mütevaz	-11.3714
▁röntgen	-11.3714
▁tişört	-11.3714
▁İrlanda	-11.3714
▁şampiyon	-11.3714
▁çiçeğ	-11.3714
▁klişe	-11.3714
▁manevi	-11.3714
▁Bilinç	-11.3714
▁Somali	-11.3714
▁sızıntı	-11.3714
▁meyilli	-11.3714
▁Mühendis	-11.3714
▁öğüt	-11.3714
▁Karanlık	-11.3715
▁Kaide	-11.3717
▁gittiğinizde	-11.3719
▁başlamalıyız	-11.3722
▁Kök	-11.3723
▁Kolay	-11.3726
oksit	-11.3732
▁İncil	-11.3747
▁versiyon	-11.3759
▁olamadı	-11.3843
▁toprağ	-11.3857
▁döndüğüm	-11.39
▁Leonardo	-11.3936
▁Sıfır	-11.3936
▁coşku	-11.3936
▁fakülte	-11.3936
▁fevkalade	-11.3936
▁kastediyoru	-11.3936
▁müslüman	-11.3936
▁omurilik	-11.3936
▁soykırım	-11.3936
▁çekirdeği	-11.3936
▁ürkütücü	-11.3936
▁ipuçları	-11.3936
▁İskoç	-11.3936
▁Bahçe	-11.3936
▁tansiyon	-11.3936
▁Kulağa	-11.3936
▁Homo	-11.3936
▁Türkiye	-11.3936
▁nötr	-11.3936
▁Fazla	-11.3937
▁mucit	-11.3937
▁enkaz	-11.3937
▁gökada	-11.3937
▁talih	-11.3937
▁dibinde	-11.3937
▁nerdeyse	-11.3938
▁Sınır	-11.3938
▁israf	-11.3939
▁cesaretlendir	-11.3947
▁cuma	-11.395
▁hanım	-11.396
▁Şurada	-11.396
▁atlayı	-11.3974
▁karısı	-11.4029
▁değme	-11.4044
▁Tesl	-11.4052
eographic	-11.4164
▁Endüstri	-11.4164
▁Hawaii	-11.4164
▁implant	-11.4164
▁mektubu	-11.4164
▁çeyrek	-11.4164
▁Köpek	-11.4164
▁fizyoloji	-11.4164
▁hoparlör	-11.4164
▁asansör	-11.4164
▁Endişe	-11.4164
▁entropi	-11.4164
▁kraliçe	-11.4164
▁yüzgeç	-11.4164
▁Nefes	-11.4164
▁sıçan	-11.4164
▁İlaç	-11.4164
▁Hukuk	-11.4164
▁alıştırma	-11.4164
▁hatıra	-11.4164
▁Yaptıkları	-11.4166
▁bükül	-11.4166
▁pano	-11.4167
▁prens	-11.4174
▁kalıntıları	-11.418
yahut	-11.419
▁Yeteri	-11.4193
▁karanlığ	-11.4248
▁denetle	-11.4298
ebilmemiz	-11.4358
▁edebiyat	-11.4396
▁Rüzgar	-11.4396
▁Tanzanya	-11.4396
▁ihmal	-11.4396
▁iğrenç	-11.4396
▁montaj	-11.4396
▁müfredat	-11.4396
▁psikiyatri	-11.4396
▁reaktör	-11.4396
▁santimetre	-11.4396
▁transistör	-11.4396
▁veritabanı	-11.4396
▁şizofreni	-11.4396
▁World	-11.4396
▁genetiği	-11.4396
▁turuncu	-11.4396
▁yelpaze	-11.4396
▁slogan	-11.4396
▁Diyelim	-11.4396
▁hırsız	-11.4396
▁milimetre	-11.4396
▁karides	-11.4396
▁Teksas	-11.4396
▁Ağaç	-11.4396
▁kucuk	-11.4396
▁Tunus	-11.4396
▁Şiir	-11.4396
▁feet	-11.4396
▁Yüzlerce	-11.4397
▁Birbirimiz	-11.4397
▁simdi	-11.4397
▁savunucu	-11.4398
▁bizzat	-11.4398
▁feda	-11.4398
▁icadı	-11.44
▁seçkin	-11.44
▁selam	-11.4404
▁kademe	-11.4409
▁Bugünkü	-11.4424
▁sonlandır	-11.4435
▁tarafinda	-11.4442
▁Birbirleri	-11.4451
▁kahkaha	-11.4498
▁fırla	-11.45
ebilseydi	-11.4501
▁düşünebil	-11.4517
▁gördükleriniz	-11.4542
▁tasarlandı	-11.4564
▁anlayı	-11.4573
ound	-11.4613
▁konuştuğunu	-11.4622
▁çevrim	-11.4634
▁döşe	-11.4634
▁Apollo	-11.4634
▁Danimarka	-11.4634
▁kaplumbağa	-11.4634
▁mahremiyet	-11.4634
▁trajik	-11.4634
▁tuğla	-11.4634
▁Görüntü	-11.4634
▁teyze	-11.4634
▁Çoğunlukla	-11.4634
▁Görünen	-11.4634
▁mahrum	-11.4634
▁üzerlerin	-11.4634
▁sağduyu	-11.4634
▁pekço	-11.4634
▁kriter	-11.4634
▁Sıcak	-11.4634
▁rutin	-11.4634
▁piksel	-11.4635
▁tokuş	-11.4635
▁Fakir	-11.4635
▁Milyonlar	-11.4635
▁Aşama	-11.4635
▁tasarlıyor	-11.4635
▁uzlaşma	-11.4635
▁panik	-11.4635
▁Dunya	-11.4636
▁Albert	-11.4636
▁gidişatı	-11.4637
▁yelken	-11.4637
▁yaşlandık	-11.4638
▁Uzak	-11.4638
▁gercek	-11.4639
▁Merc	-11.4672
▁alışkın	-11.4675
▁Ateş	-11.4701
landırıcı	-11.4871
▁Ağustos	-11.4878
▁Disney	-11.4878
▁Ebeveynler	-11.4878
▁Nüfus	-11.4878
▁apartman	-11.4878
▁buzdolabı	-11.4878
▁böbrek	-11.4878
▁döl	-11.4878
▁kıvrıl	-11.4878
▁nispet	-11.4878
▁randevu	-11.4878
▁sadakat	-11.4878
▁senkroniz	-11.4878
▁zahmet	-11.4878
▁Şüphe	-11.4878
▁itfaiye	-11.4878
▁borcu	-11.4878
▁pizza	-11.4878
▁yaptigi	-11.4878
▁Umut	-11.4878
▁gümüş	-11.4878
▁buğday	-11.4878
▁Carolin	-11.4878
▁Dinleyici	-11.4878
▁köpekbalığı	-11.4878
▁nazar	-11.4879
▁çıkıntı	-11.4879
▁Oğlum	-11.4879
▁icra	-11.4879
▁stok	-11.4879
▁olağandışı	-11.4879
▁metabolizma	-11.488
▁varolan	-11.488
▁çete	-11.4881
▁Clint	-11.4883
▁karşılaşıyor	-11.4893
▁uret	-11.4898
▁Seks	-11.4954
▁çeviriyor	-11.4977
Ş	-11.5004
Ç	-12.5024
Ö	-13.0359
!	-13.5647
♫	-13.5648
;	-13.5649
-	-13.565
—	-13.5651
:	-13.5652
)	-13.5653
?	-13.5654
'	-13.5655
"	-13.5656
,	-13.5657
.	-13.5658
