<pad>
<unk>
<s>
<\s>
∇
τ
ú
ZZ
”
777
û
ë
\
̊
Č
ē
Ç
¿
ĂŤ
Ō
â
ì
XX
æ
Ö
¢
lz
ć
ô
QQ
ø
£
*
ā
ê
อร
่
อย
Á
É
ä
ï
ZX
ō
à
ñ
%
▁hotte
▁roommate
ü
▁cyborg
–
electrifie
▁escap
▁discourag
▁orchid
è
▁invisib
▁messenger
▁judg
▁financ
▁whistleblower
▁Anthon
▁perceiv
▁Ji
▁estimat
▁tidy
▁daunt
▁Challenge
ç
▁explod
▁unify
▁ellip
▁Clau
▁balanc
▁puzzling
▁northwest
▁devastation
▁irritat
▁advanc
▁optimiz
fabricat
▁imprison
▁Orchestra
▁menstruati
▁damag
▁seamless
▁necessit
▁99.9
typical
▁persecut
▁whil
▁prestig
▁pollinator
▁behav
▁burglar
transcenden
▁intertwin
▁horrify
▁exoplanet
urricane
▁enlist
▁roam
▁tackl
▁illustrat
^
ã
▁crumbl
▁semester
▁valu
▁wizard
▁Federal
▁Thursday
▁ignor
▁bailout
▁metaboliz
▁retrospect
▁Secret
▁filament
▁purchas
ophis
▁billionaire
nowledge
mobile
▁Picture
borough
▁astounding
▁cherish
@
uestion
▁detergent
▁biomedic
▁Katrina
▁municipal
▁charg
vantage
▁numb
▁Lanka
▁perpetrator
▁evoke
▁practitioner
▁yog
▁Survey
▁prosthes
appropriate
▁unveil
▁Blood
▁perfume
correct
▁Plato
▁appetite
▁inferior
▁hawk
▁Language
▁loom
ö
watch
▁prompt
▁privatiz
symmetr
hapel
▁brillian
sound
▁Traditional
▁uplift
▁abusi
▁Sputnik
▁salad
▁seroton
▁Economist
▁reconfigur
▁pepper
driving
▁scandal
▁Visual
▁rumor
▁prevalen
▁Hispanic
nitiative
▁precursor
▁Panama
▁arithmetic
organic
▁plaster
▁notorious
▁vague
carbon
▁daydream
▁pearl
▁Alexandria
machine
▁multiplicati
percussion
▁latitude
argass
▁transcript
▁artisan
▁Bowl
▁Guatemala
▁windmill
feld
▁ATM
▁DIY
▁arrogan
▁virulen
▁discrete
determin
▁shrunk
tockhol
computer
▁papaya
▁congress
▁grizzl
▁Ecuador
▁malignan
▁Douglas
▁reconciliation
▁omni
▁hygien
▁saturat
junction
▁deflect
elusive
▁plume
▁Burm
▁mortal
▁homosexual
▁twentie
▁underlie
▁byproduct
▁Oscar
▁complian
▁rigorous
▁goddess
▁methodolog
▁congratulat
▁magnify
▁reconcile
▁charisma
mpulsive
▁indulge
▁landfill
▁husk
▁condens
clean
▁Normal
▁gecko
▁Cultural
limited
▁retriev
▁embed
▁quiz
▁Abraham
▁Picasso
▁symboliz
▁mutate
fifth
▁yogurt
▁cursor
urora
▁Understand
mendment
▁supplement
healthy
▁Protect
uza
▁insecticide
sufficien
▁pronounce
▁tapestr
▁trawl
▁ovari
▁mediocr
▁sabbatical
▁pluripotent
▁psychopath
ahren
▁Photoshop
▁whiske
▁courtyard
▁Midwest
▁Origin
gnostic
▁subconscious
▁ceramic
▁expenditure
▁Hondura
▁diabetic
▁rehearsal
▁hostilit
▁amplify
▁anchor
▁Jaw
▁marble
▁Friend
▁Morocc
belief
▁Amazing
explored
▁stockpile
▁blunt
▁Termina
▁hippocamp
entagon
▁tadpole
▁nickname
▁servant
wesome
▁reception
▁nudge
▁superintelligen
▁multiplie
▁garment
rthodox
terroris
▁rejuvenat
erusal
▁vibrant
▁Wednesday
▁sushi
▁Potter
▁slate
▁rupee
▁inquiry
▁frugal
▁mangrove
▁transgender
▁Farmer
▁Clap
▁skydiv
people
▁siege
▁cymatic
▁cemeter
▁convenience
▁energiz
▁skate
▁plural
▁ribbon
protect
▁fountain
▁gorilla
▁Compare
▁subtract
secure
▁clitoris
▁tolerate
▁gloom
quarter
▁modular
▁toddler
▁reciproc
▁clich
▁Laborator
ntelligence
▁ingenious
▁cafeteria
▁disparate
▁eyebrow
▁memorabl
▁touris
▁Jay
▁traumatiz
terior
▁vase
blowing
▁captur
▁intercept
▁Ardu
▁Point
▁conscience
▁deconstruct
▁relocate
▁explosive
▁Psycho
▁convuls
▁verify
▁attorney
▁lemon
▁effic
fitted
supervis
▁reptile
▁patron
▁heartbeat
▁dictatorship
▁Teacher
▁opponent
opolis
▁gossip
▁Evolution
▁Financial
▁Darfur
ehind
▁qualify
▁Engineer
▁visi
▁classifie
▁inclin
▁polish
author
á
species
▁audition
▁sprawl
▁Nichol
▁ecsta
▁communal
▁Wilson
▁megacit
▁Innovation
▁Vienn
▁Cameron
▁multitask
▁gradient
iki
▁resume
culus
▁bargain
▁balcon
▁Medit
▁precipitat
▁offense
▁Jennifer
▁Parad
▁peanut
▁acquisition
▁diffuse
▁Mahmo
▁hippie
▁levitat
▁seizure
▁constitute
▁hummingbird
▁remittance
▁SAR
atomic
▁Effect
▁Close
▁Dreyfus
▁seatbelt
▁microRNA
hrir
▁distill
▁Game
▁feasib
▁Orleans
▁Galile
▁Convention
▁discomfort
▁LGBT
▁repertoire
▁feminis
▁reservoir
▁Essential
▁Progress
▁elastic
▁algebra
▁summon
▁giraffe
▁patriarch
lateral
▁indicat
credit
▁Village
▁MBA
▁sniff
▁petrol
▁hind
welve
▁incubator
▁instructor
▁scour
▁electora
▁demonstrat
spiring
▁obey
▁pneumo
▁intellect
▁Cuba
▁prosecut
▁telecom
disproportionate
▁headphone
▁hike
▁delusion
▁honeybee
▁withdraw
▁Enlighten
gatherer
▁primordial
▁homicide
bacc
▁juni
Planet
▁paranoi
▁Grace
▁unpleasant
present
▁detach
▁infuse
▁tyrann
▁complet
Aid
▁underpin
▁RO
▁bait
▁premier
partisan
▁Democracy
▁utopia
degree
▁ripple
▁irregular
▁sponge
▁southwest
▁northeast
▁kindergarten
▁Network
▁contradict
▁anthropolog
▁grammar
▁comedian
▁Cloud
▁socket
▁Klei
▁solemn
▁embryonic
▁photosynthesi
▁calculator
▁Massac
▁extremism
▁aspire
▁carpenter
▁acknowledg
▁Millenni
▁evaluation
▁recreation
▁bureaucrac
▁allocate
▁inexpensive
▁Broad
▁emulat
▁Netflix
ippi
▁PowerPoint
▁rhetoric
▁vicious
▁prophet
▁tribute
▁notebook
▁Case
▁catalog
▁Susan
▁Soldier
▁pornograph
▁queue
bucks
▁improvisation
▁optimal
▁carcinogen
▁composite
▁slap
fund
▁heartbreak
▁swap
induc
▁skyscraper
▁McDonald
▁holistic
▁slot
▁Murray
▁dictator
▁Hungar
▁anomal
▁influenza
▁mundan
▁rect
▁plaque
communication
▁astonish
▁wreck
▁chord
▁disseminat
▁millenni
▁Lawrence
▁unfamiliar
fetch
▁Algeria
▁reflex
▁unthink
▁fibro
▁extremist
▁worn
▁identification
great
▁instantaneous
▁vegetarian
▁Discover
▁populat
orporation
polar
▁hurdle
▁monarch
▁Odysse
▁tectonic
▁Perfect
▁applaud
▁brute
▁Francis
▁paradi
▁hydrocarbon
▁speculate
fell
▁stagna
▁equator
different
▁Mario
▁excavat
replicating
▁Martian
▁Jacque
▁crochet
▁delegat
▁tumbl
▁immigration
▁asylum
▁reprogram
▁cereal
crony
▁bonobo
▁Euro
▁barbershop
▁knob
▁replicator
sanitary
▁capacit
▁superconductor
▁Prime
▁dictate
▁Palestine
▁circum
▁Type
▁regulator
▁adjacen
▁turbulen
▁1.4
▁doctrine
▁hurricane
▁rainbow
▁cheek
▁ambiguit
▁distress
ovember
▁pivot
▁ambassador
▁Common
▁tinker
izzy
AC
▁Jenn
▁spawn
▁radioactiv
▁superhero
▁draft
▁cosmetic
▁uh
▁uncertain
▁Service
nutrition
plausibl
▁dude
▁royal
literate
▁Politic
▁Conservati
▁Taiwan
▁counterpart
▁Fantastic
▁ballet
▁Saint
▁immersi
▁chalk
▁Virtual
▁recipient
▁scroll
▁Universe
▁Commission
▁thunder
▁delete
▁warrant
▁Group
▁burial
▁empirical
▁decre
▁offshor
▁Dream
▁microwave
▁Sydney
▁sapien
▁reckless
▁strap
▁Strange
▁appliance
▁lettuce
▁biofuel
deli
▁altruis
▁Ukrain
▁shave
▁interrogat
▁intestine
▁Danny
▁turbine
▁manipulat
▁plunge
▁Safe
▁grassroots
▁physiological
▁Veg
withstand
▁mutant
mpact
ibera
▁Armstrong
▁Control
▁Electro
retroviral
▁apparatus
▁Archimed
▁Spider
▁Colli
▁splash
▁hunch
▁Shoot
▁neurosurge
▁taxpayer
▁Tamiflu
▁plutocra
▁Everglade
▁Among
▁metropolitan
▁marvel
▁Physic
▁Lock
▁superstar
▁committee
▁resort
▁nuclei
▁synchronize
▁CIA
▁persuasi
▁catastrophic
sumabl
▁anecdote
▁fundrais
▁Short
▁satisfaction
lcome
▁Current
▁DARPA
▁premature
▁sleeve
▁orientation
▁firefl
▁juvenile
▁unaware
▁moderate
cycle
angular
▁deteriorat
▁Shake
▁biodegrad
▁pediatric
▁Economic
economic
▁accommodate
▁Text
▁squeak
▁Titanic
▁Defen
▁eager
▁semina
▁consultant
▁vector
▁swirl
▁radiat
Mart
▁separat
▁coworker
▁Guinea
▁Beyon
▁ultrasound
▁collage
▁harass
umblebee
plain
▁sec
▁verge
▁catalyst
▁interfere
▁feat
▁refrigerat
▁Desert
▁irrigat
▁Buddha
▁excerpt
▁Falcon
▁vitamin
▁propagat
Corp
chille
▁introduc
▁Jefferson
▁Excuse
▁narrat
public
script
▁glide
▁activis
▁asphalt
▁astronomical
▁compass
▁wetsuit
▁pervasive
counterintuitive
▁responsive
▁Major
▁biomaterial
▁provision
▁sulfur
▁illiterate
▁preschool
▁PRI
▁cochlea
▁vacan
▁Nanopatch
▁vulture
▁commodity
▁Mahat
▁motorcycle
▁unequal
▁Serious
munition
▁unimaginabl
▁vapor
▁kidnappe
▁Though
▁energetic
▁Living
▁redundan
▁glorious
▁throat
▁resonate
▁collide
▁sterile
▁ruling
▁patien
confiden
▁delicate
▁Hyper
▁advertisement
▁desir
▁abortion
▁template
▁Cambodia
week
▁surge
▁releas
▁implicit
loved
▁Forget
▁Philippi
▁packag
▁comprise
▁superior
▁Russe
▁Explor
▁resonance
▁migraine
▁improbab
▁rug
▁Student
ermaid
abbage
market
▁sneak
▁thorough
▁jealous
▁approval
▁resign
fashion
▁immunit
▁biotechnolog
▁relevanc
▁Nu
▁mortgage
sterda
▁consent
▁discard
▁hatred
▁Cooper
▁beekeeper
▁simplify
▁paragraph
▁glory
social
▁hominid
▁Victor
orbital
sensitive
▁Oregon
▁Empire
▁Exact
▁sync
▁nuance
▁enforce
▁cynic
ndex
▁regain
▁corp
naut
▁summar
▁pheromone
▁Roger
▁Norman
▁catastrophe
▁symbio
▁choreograph
▁jacket
▁Victorian
▁Dallas
▁Pixar
▁Margar
▁Balti
▁Drug
▁assessment
ahedron
▁Window
▁Montana
▁hectare
▁Maldiv
▁Scratch
▁metronome
nterviewer
wandering
▁Fair
▁Model
▁devastate
▁Darwinian
▁emphasi
▁dwarf
▁graduat
▁orangutan
trophy
massive
▁monk
▁unacceptabl
▁occupie
▁epic
▁facult
▁feminin
▁matern
▁modify
▁migrant
▁epilep
▁Jean
▁shallow
▁wax
▁treasure
educat
▁praise
▁marvelous
quatic
▁Notice
▁Hundred
▁alternat
▁Mount
Barack
▁arbitrar
▁Stewar
▁embark
▁hive
nourish
▁Know
▁archaeolog
▁curator
Africa
▁Story
▁Simon
▁globaliz
▁ingenu
▁Merc
ó
▁Nazi
▁exclude
▁2,
▁complication
▁certificate
▁quantitative
▁Depressio
▁Colombia
cientific
▁curtain
▁Click
nanometer
▁nanoparticle
▁existential
▁criticism
▁Pantheon
▁novelty
▁warp
piece
▁advent
▁reconnect
▁timber
▁stiff
FL
advert
▁invasion
▁unpredictabl
▁wavelength
▁chemo
▁battlefield
▁laundr
▁token
▁waist
▁prohibit
▁viewpoint
_
▁pension
▁millisecond
▁ozone
Gowan
▁mammogram
▁CMU
▁Ultimate
ithium
utilize
▁Solar
▁Europ
sleep
▁anesthesi
▁dissolve
▁86
▁53
▁Nine
▁unnecessar
▁decentraliz
▁strive
▁fierce
▁mutilat
▁sermon
▁confusing
▁Self
bility
▁payload
structure
▁Fire
▁prioritize
igital
▁haunt
▁coincidence
hili
▁dentist
▁caregiver
▁Full
▁susceptib
▁temptation
positive
▁Android
▁ignit
▁subsequent
▁anxious
cuba
▁cognition
▁Hmm
castle
▁condemn
▁Monday
▁140
▁Beat
▁Skype
disciplinar
▁meadow
▁sentiment
▁compensat
government
▁advoca
▁Rena
▁cathedral
▁intimidat
▁tutor
▁sensibl
▁58
cumen
utheast
▁enslav
▁induce
group
▁Ninety
cultural
▁unifie
▁seize
▁packet
▁halve
▁substitute
▁genital
▁rival
▁patholog
▁Emil
▁biosphere
▁exhilarat
▁Magazine
▁Audi
▁psychiatrist
▁synchron
▁TEDx
▁industrialize
▁diminish
▁modification
▁extrovert
▁aqua
▁deployment
▁dissect
▁regenerati
▁communis
▁salmon
▁submarine
▁testimon
▁Code
▁ballot
▁divergen
▁cylinder
ibati
▁Ushahidi
▁calci
▁RIS
▁declin
▁Secretary
▁mammograph
▁Bonobo
▁reassur
▁chaotic
▁Cassi
ndra
▁revolutionize
▁assault
▁Lago
▁Brit
▁technician
▁snapshot
▁Hubb
rief
▁humiliat
▁lesbian
▁prejudice
▁54
plus
▁Intel
▁rover
▁manipulation
▁polymer
▁gadget
▁grind
▁improvise
▁timing
▁puppet
▁savanna
▁iteration
wash
▁marshmallow
▁Walter
▁Copernic
▁bucket
▁repetiti
▁abnormal
▁undergraduate
▁classmate
▁mandate
▁disparit
▁socio
▁assess
▁generalize
▁differ
▁bore
▁hung
banish
▁symphon
▁Modern
▁shield
▁essay
▁amuse
▁missile
▁Pittsburg
▁inflation
▁OE
▁adversit
▁execution
▁surplus
▁Pink
▁trad
▁lesion
▁gym
▁permit
▁cultivate
í
▁Himalaya
▁Georgia
▁Marine
▁blanket
▁scatter
▁innate
▁secular
▁restorati
▁gland
▁dug
=
▁Kepler
▁plague
▁facilitate
▁Moham
▁Radio
▁neurological
▁crocodile
EO
▁obscure
▁calv
▁marathon
▁reasonabl
▁autonom
lvin
▁Max
▁Indus
▁generator
▁radar
▁Gall
▁grassland
hip
▁boson
▁shepherd
sembl
▁hatch
ctopus
▁tuberc
▁Tele
▁compliment
▁veil
▁parliament
▁measl
▁compil
NG
▁conspirac
▁Tasmanian
▁plumb
▁Swee
▁bulk
▁Luck
process
laughter
broad
▁brainstorm
destructive
▁sensitivit
▁rob
▁Stay
▁prevail
▁legitimate
teem
▁slip
▁hobby
▁remov
▁convincing
▁candle
▁recreate
▁fame
▁bloom
▁album
▁Bio
▁nanotechnolog
▁responsibilit
NC
▁conviction
▁versa
▁introvert
▁retain
▁Vinc
▁smash
▁Large
▁graffiti
▁fog
▁plac
▁neocort
▁pancrea
▁Archi
▁dispute
▁butterfl
▁guideline
▁slaughter
▁visceral
▁mul
▁singular
▁intricate
▁beneficia
▁minor
▁wallet
large
+
craft
▁flick
▁smuggl
sourc
▁cinema
▁SMS
resolution
▁chemotherap
▁mash
ficial
▁Bruc
▁Swed
TO
▁deplet
,200
▁Venezuela
▁contagio
▁neurogenesis
▁Muh
▁chick
▁synthesi
spel
▁laborator
▁atheist
▁Beatbox
▁divine
▁blurr
▁coca
▁functionalit
▁tilt
frontal
▁flap
▁autist
▁Whitopia
▁Rule
▁CRISPR
clusion
▁devise
arriage
▁appoint
▁Certain
front
▁billboard
▁Guard
▁customiz
▁certifi
▁cerebr
▁End
track
▁calculating
sexual
▁choir
▁shelve
minded
▁gait
▁gyr
▁reproductive
▁gaze
▁ladder
▁worship
▁respirator
▁crust
▁voyage
▁psyche
ubert
▁miniatur
▁coheren
▁geometric
▁thrust
▁pharmac
▁urgent
▁Help
▁masterpiece
▁immerse
▁mixture
▁Environment
▁Michigan
SM
▁benign
▁psychiatr
▁prosecutor
▁recession
▁enabl
▁audaci
▁violin
▁headquarter
▁philosophical
▁interdependen
▁grim
▁slam
▁glove
▁gee
▁Doctor
▁minimize
colonial
▁evaluate
▁Dick
▁logistic
▁multinational
▁Golden
sustainabl
inister
arliament
▁ramp
▁KA
▁monsoon
▁Societ
▁superpower
▁rang
▁lamb
ambia
▁tolerance
▁conductor
▁gamma
▁flute
uddin
▁inhibit
volt
▁equilibr
▁maximize
▁Evan
▁irrelevan
▁pric
▁terminal
▁cabinet
▁surrender
▁intervene
▁Learn
▁folk
giv
▁confusion
▁beef
▁virtu
▁accomplishment
▁portray
▁prim
▁rott
▁larva
▁lime
▁pillar
▁embryo
▁fungi
▁hammer
▁affirm
▁fuck
▁alphabet
▁USA
▁prototyp
▁grape
▁claw
▁fraud
▁geological
▁negotiat
school
▁obligation
▁shap
▁fluorescent
▁yell
▁elementary
▁rust
▁deny
▁Thirty
▁erupt
plasma
coli
▁cement
▁governor
CD
▁traffick
▁Ministr
▁Architect
▁Change
onald
▁Hawk
ipping
▁province
worm
▁wool
▁lump
plex
▁resemble
▁Gius
genesis
▁influen
▁stain
▁correlate
conduct
▁fracture
▁Brazilian
▁western
▁Speci
▁46
▁disadvantage
▁romance
▁bonus
▁parameter
centric
▁Similar
▁ideological
▁iPad
▁Oklahoma
▁Jess
▁pollutant
▁browser
▁supercomputer
oma
▁hypothetical
▁checklist
▁guerrilla
▁cybercriminal
▁indication
▁crank
▁43
▁Ground
▁watt
▁gallon
▁medi
▁observer
▁relativ
▁Wonder
▁Data
▁digg
▁cream
▁weakness
▁owe
▁trail
▁meditat
pulsion
▁buzz
▁midst
manda
▁assum
liberation
▁controvers
▁embrac
tention
▁Hand
▁Louis
▁slope
▁nail
▁apologize
▁keen
▁cocktail
▁hamburger
▁flexibilit
percent
▁prolif
shift
▁130
▁intentional
▁ethanol
▁cockroach
▁racial
▁Mexican
Bay
▁Tower
▁dismiss
alai
▁flame
▁Movement
▁Saturday
▁commoditi
▁volcan
▁Sudan
▁module
▁doom
▁Public
▁Hindu
▁98
rado
▁encyclopedia
▁statue
▁escalat
▁Johnny
litary
▁robb
▁ancestr
▁64
▁Auto
▁rhino
▁unsee
▁ambulance
glass
▁vanish
▁Small
▁ALS
▁defect
▁gigant
▁hostile
▁submersible
▁indicator
▁Jamaica
▁NA
walk
lude
far
▁Nav
▁embodie
▁ghost
▁mindful
▁petition
▁Christopher
▁boost
ulosi
▁satisfie
hhh
▁abstraction
▁cartoonist
100
material
▁shade
▁rectangle
▁anthropologist
▁Alpha
▁Chuck
▁juggl
▁bowl
▁flock
uite
▁1.3
▁taxi
PA
▁salar
elect
▁Bett
▁hallway
▁collaborat
▁vagina
▁Bosnia
airo
▁acute
▁envision
▁syringe
▁mustache
▁adaptive
▁comprehensi
nonymous
▁adolescence
▁imperative
▁Shakespeare
effective
million
▁vest
▁gross
▁Patient
▁cease
▁peel
▁Wood
▁Lama
▁antibod
▁curl
link
▁Edward
▁flush
▁Siberia
▁Daniel
spread
▁pul
▁Carne
▁elbow
▁steep
▁Rub
▁Jones
▁critic
▁Peru
▁Mumbai
▁Under
▁52
▁Iraqi
▁bypass
▁bombsight
▁overlap
▁Clear
▁corridor
▁bay
▁dispers
course
▁exquisite
▁fluctuation
▁reverb
stein
▁perceptual
▁Mathematic
▁incremental
▁blockchain
▁accompani
▁captiv
▁entrepreneuri
▁Namibia
▁celebration
▁locomoti
kyo
▁zip
▁eternal
▁triumph
▁pave
▁lawsuit
▁humbl
▁duty
▁inflat
▁TEDster
▁resilien
▁peripher
▁suspicious
▁Cancer
▁monument
▁chess
▁unfair
▁visitor
▁Austria
▁celebrat
▁quo
▁erase
▁Phoenix
▁insult
▁Scientist
ED
▁Interesting
▁empowerment
▁fingertip
▁spade
▁skeptic
▁calendar
▁Fifty
▁interrupt
▁pollut
▁asthma
▁Medicine
▁stratospher
▁Laur
▁enlighten
▁collar
▁propagand
▁8,000
▁macro
▁Nai
▁microscop
osh
▁hollow
▁31
▁adolescent
▁Down
▁imperfect
▁cafe
▁Nathan
lept
▁freez
▁feather
▁postcard
▁Bor
▁Rais
▁swamp
▁carrot
▁restriction
▁34
built
▁Climate
▁Senat
▁absurd
▁spiral
▁vegetati
▁disrupti
▁Rica
vascular
▁Yellow
▁famine
▁Leban
▁simulate
▁Luc
▁opt
AV
▁Arabia
▁Linux
▁metabolism
▁charter
▁JC
▁prevalence
▁Mola
▁slogan
▁Nepal
▁vaccinate
▁steam
▁visionar
▁skeptical
▁incomplete
▁spike
▁Gaz
▁faint
lium
▁silicon
▁plea
▁cardiac
▁Nigerian
qualifie
▁FDA
▁pleasant
▁doubling
▁obsession
▁Buddhis
▁endeavor
▁1,500
▁Liberia
▁opposition
▁negotiate
▁clap
▁scholarship
▁progressive
Tech
▁reproduction
▁towel
▁sympath
risk
fidel
▁stadium
▁Map
▁horrifi
▁Old
▁algae
▁confess
produc
compatib
▁Natural
▁maneuver
▁swarm
▁invitation
▁neglect
▁hypothes
▁outdoor
▁textile
▁Columbia
▁Hospital
▁stereotype
▁nonprofit
▁exit
▁misunderst
SI
▁38
▁48
▁occupation
▁DVD
▁courageous
▁capsule
▁blueprint
profit
▁Phil
▁specimen
▁Maria
▁significan
▁Food
▁extensive
▁unleash
▁zoo
▁irrational
▁physiolog
▁oyster
▁dopamine
▁Sierra
taircase
▁headache
▁squid
▁UK
▁pessimis
openha
▁mic
▁incorporate
elphi
▁Mama
▁speculati
▁Kosov
fensive
▁leopard
▁resurrect
▁authoritarian
reedom
▁convention
▁practic
▁Coc
▁reuse
▁25,000
▁integration
▁sweep
▁Consider
▁astronom
style
▁obsole
▁metabolic
▁electromagnet
lima
ature
▁mammoth
▁contemplat
▁taboo
▁Republic
▁Robot
▁coordinate
▁sexualit
▁fetus
▁virgin
▁thriv
▁enrich
▁sediment
▁fuzz
traumatic
▁tactic
▁intrinsic
▁identit
▁smil
▁progression
▁lobe
▁Show
▁vice
▁Oo
▁expense
16
▁Suppose
▁overlook
▁guitar
▁drama
▁melod
▁lucki
▁scarce
▁coverage
▁classical
▁Step
▁Recent
▁integr
▁manifestation
▁brake
▁Tibet
▁cholera
invasive
▁replacement
▁vocabular
▁characterize
▁spatial
▁assist
▁cooperative
▁angel
▁JF
▁Sylvi
▁guest
▁Journal
skirt
change
page
▁Line
▁processor
▁Bert
▁sovereign
▁import
▁Alaska
▁Pete
▁Milo
▁dragonfl
▁innovator
▁Government
▁diarrhea
▁victor
▁transit
▁institute
▁firing
▁nucle
▁conquer
▁whip
▁1.2
▁tire
▁harsh
▁Milk
securit
conserv
▁anniversar
▁revelation
▁spouse
▁Sex
▁96
▁Uncle
lapse
controll
▁disabilit
▁historian
▁epiphan
▁persuade
diagnose
▁stimulation
▁Office
▁informal
▁depriv
▁summarize
▁justify
▁Bern
▁shatter
▁competitor
18
▁prox
▁minimal
▁preced
▁underestimate
▁Computer
▁exceptional
▁alert
▁Craig
▁Elizabeth
▁Garden
▁trunk
▁pesticide
▁fractal
▁schedule
plat
▁humble
▁hemisphere
▁niece
rank
▁McC
▁guid
▁differentiate
▁straw
▁Machine
▁jungle
▁fever
▁snap
▁Somalia
▁prevention
▁Emma
▁Opera
▁commut
▁intimacy
▁elevator
▁premise
▁exot
▁Juli
▁sulfide
▁optimize
▁Education
▁atmospher
▁deficit
▁Development
▁Post
▁Atlant
month
▁purple
▁Jupiter
dental
▁rigid
▁idiot
▁Light
▁holiday
viation
▁Catholic
▁freeze
▁AK
virus
cast
▁soccer
▁momentum
▁Benjam
proof
▁velocit
ennis
▁cheer
rizon
▁hopeless
▁microbi
bound
▁entitle
▁Nike
▁beetle
closure
istine
▁poke
▁polariz
▁decent
▁Civil
▁Wolf
▁impulse
▁admitted
▁circular
▁modifi
▁Portug
▁wow
▁correlation
▁sequenc
▁prior
▁Roman
▁Commun
▁restrict
▁Syrian
▁lethal
uel
▁cit
▁captain
▁exaggerat
▁evaporat
▁gluco
dad
saw
▁couch
▁therapist
▁crater
angelo
ini
▁Cra
▁mock
▁memorial
▁DR
▁Phila
▁yeast
quality
▁disk
▁MR
▁janitor
▁distinction
Col
▁stagger
range
▁retail
13
▁helmet
▁surgical
pping
▁elaborate
▁prostitut
▁gravitational
▁redefine
▁arrange
▁Fil
pped
▁Business
▁Probab
▁thus
▁assemble
▁Venus
field
▁Swa
▁Berk
▁legend
cles
ibbe
▁Grow
▁constrain
▁nasty
▁spare
▁symbolic
▁Stephen
▁exposure
▁manifest
▁turtle
▁abundant
▁Mean
▁similarit
▁funeral
▁mytholog
▁defining
▁heroin
eigh
▁constitution
▁MT
▁manag
▁costume
▁Scot
▁flipp
▁pursu
▁transformati
▁crude
▁counsel
▁stumbl
corn
▁greet
▁Librar
▁arc
pago
▁Bhutan
▁hint
▁1930
▁entrance
lah
▁tide
imbabwe
▁fuse
rhythm
order
▁bann
▁negotiation
▁Goal
▁performer
▁nitrogen
▁friction
▁transferr
▁squeeze
▁harbor
▁reclaim
▁Indonesia
▁mosque
▁sauce
▁storyteller
▁sake
▁swo
▁slipp
▁armor
urgenc
▁replac
▁Cost
worth
▁manufacturer
▁polite
▁jur
▁vocal
▁toxin
income
▁pipeline
▁explicit
▁banker
▁bacteri
▁deni
▁Santa
▁Pu
▁Clinton
▁mum
▁Too
▁cope
▁annoy
▁achiev
▁prospect
▁journalis
▁Watch
ectar
▁Plan
▁PC
▁priest
▁Add
▁selective
viv
violet
▁Tunisia
▁disgust
▁incarcerat
▁temple
▁helpless
▁Apri
osphere
▁genomic
DI
▁Ask
▁Earl
▁tourist
▁isolation
▁Norden
▁Iceland
▁favela
▁climber
▁prince
▁consensus
screen
▁doodl
▁kingdom
AL
LP
itcoin
▁RNA
▁Libya
▁1.5
▁motivate
▁Happ
▁190
▁assure
speed
▁cosmolog
eval
▁generic
▁cycl
▁blob
▁riot
▁Carl
upreme
▁echo
▁ventilat
▁stunn
▁dropping
▁glimpse
▁arrangement
▁analytic
▁belt
▁translator
▁settlement
venge
▁Thai
▁sanct
▁Keep
▁destination
▁rehabilitat
▁acoustic
▁multiply
▁activate
▁maximum
▁realization
lvani
GM
▁shoe
sense
▁campus
▁injustice
▁protocol
together
▁basement
▁stereo
eopard
▁Jordan
▁vivid
graphic
witzer
▁passage
▁separation
▁Nata
▁convict
▁juice
▁Laden
▁penis
▁Lake
▁scrap
▁empire
▁titan
▁flesh
▁Sub
AG
rah
▁Rand
▁criteri
▁reactor
▁valve
▁brows
▁CR
▁Kir
▁strict
▁odor
rude
▁digitiz
MS
▁trustworth
▁connectome
solv
▁Mandel
▁broader
▁council
tail
▁girlfriend
▁Hav
▁Brooklyn
▁Apollo
▁modest
▁congesti
▁triple
▁Ala
▁nightmare
▁Peace
▁festival
▁occupy
▁devastating
five
▁Late
▁prostate
pecific
▁mill
▁anticipate
rich
▁Power
digit
▁envelope
▁reputation
▁blast
▁yoursel
▁division
▁crab
▁rubber
▁neo
▁myceli
therland
▁assign
▁calculus
▁lever
▁Penn
▁sixth
▁possess
scape
▁index
▁horror
▁Histor
▁rubb
▁uninten
▁flourish
▁Free
▁pencil
▁remix
▁penetrat
▁compet
▁Fund
▁absence
apped
▁honey
▁shak
▁genocide
went
▁tribal
▁emergence
▁airline
▁precis
symmetrical
▁chef
▁insert
▁immortal
▁emphasize
▁chase
▁1900
wrestl
▁Kong
▁tapir
▁controversial
▁Spring
▁migration
▁44
▁atomic
▁collaborate
▁chew
▁grocer
▁eliminate
▁trivial
▁mesh
wide
▁Albert
▁tiger
▁beaten
▁Yu
▁November
▁Kid
▁revolutionar
▁Cur
itz
▁eliminat
▁infra
▁jaw
eastern
▁sperm
▁denial
mira
▁Philip
oil
▁numer
▁friendship
▁bioluminescen
horn
▁diver
▁scheme
▁miserable
▁herita
▁cooperate
▁valid
▁converg
▁pizz
▁vulnerabilit
▁describ
mile
▁neuroscientist
▁synapse
▁artifact
most
▁grip
q
▁lifespan
▁delicio
▁Iranian
▁pirate
▁cage
▁peculiar
▁subjectiv
toleran
▁readers
▁shrimp
▁democrac
▁loose
▁Brother
▁preach
promising
▁associate
▁downtown
▁blade
world
▁350
▁Swiss
▁Pretty
▁creep
▁proposal
▁taxe
nformation
eague
▁indigen
▁devote
shirt
▁pursue
▁Canadian
racing
▁egg
▁tile
▁visualization
▁transcend
▁optic
▁starv
▁popp
▁sibling
▁bleed
▁banana
▁continuously
▁propell
▁adaptation
▁incentive
band
▁voter
▁plank
▁volcano
▁Yo
lmost
▁sale
▁democratiz
▁workshop
▁pond
▁parasite
▁Snow
▁receptor
▁2030
▁summit
three
▁Kha
▁tomato
▁Simpl
▁punishment
▁execute
▁dependenc
▁Jose
▁redesign
▁Live
▁Disney
sky
▁stigma
▁Telescope
▁centimeter
interest
▁spine
▁stamp
▁193
▁deck
▁iceberg
▁Securit
spring
▁EM
▁regenerate
▁Rover
▁regulate
▁impress
▁Gree
▁rode
▁kilogram
oline
▁initiat
20
RA
▁digest
▁refrigerator
▁drain
▁forbid
▁divorce
▁debri
▁Beij
▁aunt
▁swallow
▁exceed
▁mari
▁belly
▁filmmaker
▁Hope
▁proposition
▁anticipat
▁deepest
▁endanger
▁impair
▁chamber
▁Bronx
second
▁loving
case
▁trac
▁rethink
▁harmful
▁Medica
▁abundance
▁Die
▁Laugh
▁warehouse
▁playful
▁useless
▁amateur
▁monster
▁nonviolen
▁hyp
robi
culture
ogether
▁investigation
▁archive
▁mini
▁SP
quat
▁approve
▁accent
▁alum
inum
▁accura
▁arter
stitution
▁lotter
▁insulin
▁conceptual
▁illustration
▁chemist
▁pedestrian
▁Johnson
▁Water
▁teache
▁cosmo
▁bench
▁contest
▁6,000
▁Alexand
tun
▁fatal
▁Hans
▁hom
▁unemploy
▁bamboo
▁Camp
▁Watson
▁dar
▁executive
▁censor
▁warrior
▁consult
77
▁accelerate
▁cliff
▁optical
▁Media
▁recall
▁Rose
▁endur
▁awake
▁indoor
drop
touch
dict
▁container
▁obtain
▁Syria
▁satisfy
creat
▁Mil
▁Moz
▁mapp
▁mild
▁cigarette
▁veteran
▁hug
▁proceed
▁grabb
▁decid
▁preference
write
▁Half
▁subsid
▁planetary
▁innovate
▁Republican
▁LG
▁threshold
▁Social
minute
▁thermo
▁ethic
▁update
▁40,000
▁explorer
▁cruel
SD
▁excess
▁formation
▁recogniz
▁approximate
▁casual
▁configuration
▁punish
ollege
step
pple
frame
▁substantial
▁slim
▁fertilizer
▁basketball
▁rose
▁Van
void
▁Build
▁sufficient
ius
▁Lead
cca
blew
▁Lego
▁cla
uke
▁suppress
▁reporter
▁heavi
adequate
regulat
▁skelet
▁minus
▁chunk
▁appreciat
▁metric
▁Creat
▁Titan
clock
▁Geographic
ounce
▁retreat
▁ego
▁moralit
position
▁tagg
version
▁Try
▁navigat
▁trailer
▁segment
▁Coast
▁Compan
▁Julia
▁pigment
▁cellphone
▁Bali
▁Nel
▁oppress
▁Tanzania
weight
▁attractive
▁Aristot
▁42
▁pursuit
▁Pal
▁aggregate
▁corrupt
▁whisper
▁intensive
▁rank
▁payment
▁Inter
▁Academ
▁Way
▁prayer
▁criticiz
▁Twenty
kill
▁Sara
▁Roo
▁delay
▁stab
▁gorge
▁depict
▁Sound
mple
▁geometr
▁Tur
▁independen
▁Stop
▁specialist
orient
▁rig
▁drift
▁hypothesis
▁geek
▁desktop
▁Bir
▁hallucination
▁syndrome
▁mall
▁blink
▁duck
▁logo
▁Organiz
▁blogg
▁Alex
▁Steven
▁Democrat
▁RS
shape
▁liberat
▁deposit
EC
▁millimeter
▁parachute
▁60,000
▁Mountain
perform
▁dough
▁mutual
▁foi
ament
▁naive
▁neutral
▁800
▁approache
drive
▁Enc
▁phenomena
▁operator
▁chimp
▁membrane
MW
▁surf
▁lobby
▁dragg
▁spinn
▁Lord
▁Mill
▁orphan
▁Koran
▁Accord
▁gig
▁pregnanc
▁Wait
▁torture
▁texture
bacterial
▁Op
▁backyard
▁enzyme
▁teenage
▁Young
▁examine
▁fad
▁insane
▁diagnostic
▁despair
▁erect
▁phenomenal
▁quantit
▁fortune
▁Fri
▁clon
▁Brian
▁pixel
▁Stan
▁frontier
zero
▁contrar
▁exclusive
▁introduction
▁Singapore
▁wheat
▁iPod
▁accountabilit
▁Greenland
▁distort
▁glamo
▁troop
▁outbreak
law
▁dumb
▁sidewalk
▁precious
▁requirement
flow
▁arise
▁thrive
▁episode
▁argu
▁diameter
vian
▁transistor
▁tale
▁shine
▁chronic
▁beam
▁ongoing
adi
▁singer
▁pride
▁Ell
LA
uch
▁virtue
▁nerd
▁proven
▁nurtur
▁whistle
ilia
▁sport
nforcement
▁Edi
▁Acc
▁addiction
▁dispos
▁referr
▁200,000
▁contaminat
ureau
▁developer
▁semi
▁carpet
▁striking
▁Jona
▁horizon
▁forecast
▁masse
▁encouraging
stage
▁drown
▁commit
▁overwhelm
▁mainstream
function
▁frustration
▁selfish
▁Mala
▁unhapp
▁flaw
xcept
▁epi
▁SE
width
▁libert
▁Josh
▁Court
Fi
▁Lester
▁pee
▁ES
▁astronaut
▁Coke
▁Wa
▁strain
▁steer
▁suburb
▁sneaker
▁integrate
▁suspend
▁artwork
heart
▁TEDTalk
▁realistic
▁Work
▁displace
▁defi
▁jewel
▁appearance
▁reinforce
▁sculpt
14
▁Brad
▁tongue
▁magnificent
▁reproduce
known
▁principal
▁Absolute
new
▁blindness
active
▁encode
▁Joe
keep
▁UN
▁Department
▁statistical
▁Monte
path
▁blank
▁Korean
▁infectious
▁pathogen
▁Rock
.5
▁CD
▁55
▁canvas
load
▁historic
▁horizontal
▁Detroit
gli
▁goat
▁Prince
▁Yemen
▁spray
▁drought
nergy
▁Parkinson
plica
▁impression
▁fusion
▁compassionate
▁SW
aeda
▁manuscript
▁protocell
▁Redwood
▁inclusive
▁30,000
▁unlock
▁Newton
▁merg
▁marketplace
▁fault
▁System
▁ironic
efficient
cost
▁unfold
hole
▁impressi
▁tar
▁bust
chu
▁blend
▁dressed
▁cake
ealand
▁hybrid
▁deliberate
last
▁junk
▁crap
▁repli
▁elegant
glo
▁workplace
▁intimate
▁29
▁drunk
▁Carolin
▁antenna
▁frog
▁relax
▁astronomer
generation
▁harness
▁Sudden
▁deriv
▁default
▁immigrant
▁Seattl
dministration
▁computational
bag
▁upward
▁documentar
▁Dutch
▁decorat
itting
▁millennia
▁rear
▁bedroom
▁branche
▁2020
▁Stage
▁span
TI
astro
HC
▁gods
▁auditor
▁Minister
▁Square
▁supermarket
hou
▁microphone
▁temporar
four
▁Citi
▁dawn
▁hunter
▁Mik
▁compress
gur
▁lowest
▁composition
▁helpful
▁hardest
▁lap
▁inhabit
▁racis
▁realiz
▁harmon
▁Church
▁distinguish
▁Michel
▁Sunday
found
ternet
▁margin
▁wrap
▁Fortun
▁elevat
▁Still
▁Shanghai
▁scaffold
▁submit
▁prescription
▁grateful
▁architectur
▁calm
▁Play
▁Profess
▁manner
▁foster
▁retirement
fast
▁altitude
▁AI
▁native
▁mud
▁resilienc
▁wheelchair
▁detection
▁Christ
▁Leonard
▁Neanderthal
▁suggestion
▁awkward
person
▁mobiliz
▁Moor
estate
▁invad
▁kilo
mination
▁visualize
▁glow
▁knife
▁Hill
direct
▁territor
▁quest
▁outrage
▁sponsor
tron
▁terra
▁electro
▁interpretation
▁server
▁Colo
▁ceremon
▁civilian
▁stomach
▁minimum
▁anonymous
▁enterprise
▁circulat
▁Eight
▁potato
▁collision
ison
▁spontaneous
▁previously
▁Jeff
stream
▁static
▁Year
▁crawl
▁mood
▁germ
▁concentration
▁compromise
▁resolve
▁aggressive
conceive
▁uncertaint
▁valley
▁clos
▁schizophreni
▁vent
▁custom
▁Berli
▁comic
aka
▁retire
▁Spanish
▁minorit
▁believ
▁Palestinian
▁serving
▁Open
▁champion
▁wider
▁Henr
▁hierarch
▁barrel
▁celebrit
▁wrapp
org
spen
▁bounc
▁Out
▁innocent
obi
▁pant
mart
related
▁Scr
code
▁chas
▁spec
▁Bangladesh
▁vary
▁keyboard
ggle
▁cube
▁entry
▁Eastern
▁determin
▁unconscious
away
racy
▁dose
▁tendenc
▁monitoring
▁gang
human
▁van
▁logg
▁Harr
▁Homo
▁Charl
▁grandparent
▁vibration
▁ooh
two
▁simulat
▁ignoran
arrow
▁refine
▁theoretical
▁rebel
pox
▁triangle
convenient
▁woke
▁synthesiz
▁spacecraft
▁register
▁reduc
▁MRI
▁spill
▁Gala
▁Shi
▁Taliban
▁Gandhi
▁Chile
▁genuine
▁glad
free
▁homework
▁curriculum
▁align
▁hub
cker
▁silver
▁uniform
▁rope
az
▁diamond
▁cotton
▁Walk
▁Bell
▁mapping
▁gentl
▁devil
▁rabbi
▁declar
wear
▁pandemic
▁Eric
▁wedding
amma
▁bored
▁Kev
▁confine
▁nutrition
▁substance
▁Ko
▁Jane
▁contradiction
▁radi
▁spoken
▁strategic
▁soap
▁Gates
scope
▁192
venue
▁General
▁85
▁commission
▁interconnect
▁probe
▁Gore
iful
▁Bel
▁logical
▁transmit
▁transaction
▁drum
unch
▁portion
▁burned
▁Bab
▁forgive
▁rotat
▁occasion
word
▁poly
▁Nic
▁rape
▁inherit
▁exhibit
▁Obvious
▁warning
▁endless
osi
▁imitat
▁frequent
▁tooth
▁translation
▁Bol
▁mysterious
▁kidney
▁civic
▁leather
▁lamp
▁sheep
▁grasp
▁continuous
▁aspiration
▁utilit
space
▁batter
▁formal
▁scholar
▁merc
▁weekend
▁Jer
▁bizarre
▁annual
▁Port
▁float
evel
▁thread
▁homeless
▁insist
▁Febr
▁fate
▁shore
▁shit
finite
ueen
▁Nick
▁winning
▁makers
▁pathway
▁experimental
▁Pop
▁baseball
▁jumped
▁discriminat
▁stabilit
▁tattoo
oto
vor
▁Marc
▁canopy
ndustrial
▁entrop
▁entit
▁representative
apping
▁Ethiopia
▁collaborator
▁Saturn
▁Vietnam
▁twist
▁astonishing
▁ideolog
▁intersection
▁venture
▁educate
▁calorie
▁defeat
▁cosm
▁detector
▁patch
▁Men
ssociation
▁tsunami
▁Listen
▁Gar
▁romantic
▁excuse
▁Pre
▁urge
▁convey
▁laughing
▁nuts
▁dri
▁reinvent
cou
▁Far
▁Brown
▁reflection
uthern
▁upside
▁hitting
▁agreement
▁purchase
▁participant
shot
▁mineral
▁irre
▁vibrat
▁Hall
▁wrist
▁Islamic
▁manual
▁Asian
▁fence
▁equit
▁Tony
▁dilemma
▁upload
▁expectanc
iz
▁humanitarian
▁Council
▁washing
▁clay
▁2001
▁Long
▁sel
▁jar
▁generous
▁typ
▁jet
▁via
▁subway
▁shelter
▁Dece
▁shin
▁lonel
▁primate
▁bow
osity
ancy
war
▁crossing
▁east
▁Virgin
▁panic
▁violat
▁Third
▁intrigu
▁determined
▁bush
▁journal
▁LED
▁March
▁Florid
▁ethnic
▁agricultural
place
▁competitive
book
▁diagnosi
▁burie
▁Hawaii
▁vacuum
▁paralyz
▁Brun
type
aa
▁deforest
animate
▁scanner
▁Gold
▁punch
▁formula
▁oxy
▁extension
▁donor
▁realm
▁relation
▁furniture
▁0.
ela
▁contribution
▁emit
▁preserve
▁attribute
▁Ever
part
▁Little
▁thrill
▁brutal
▁descend
▁bullet
▁navigate
▁producer
▁sink
▁Jack
▁terrifying
▁hid
▁compell
ji
▁tent
▁restore
▁viral
atrix
▁farming
▁automat
▁Bee
▁automobile
▁brick
▁hydro
▁pipe
▁tragic
▁dear
ara
▁hat
▁stole
▁bribe
▁encrypt
▁Argentin
engineer
▁profession
▁shrink
▁Should
▁ubiquit
▁August
▁4,000
▁Sure
▁crystal
▁overwhelming
ER
▁upset
▁distract
▁luxur
▁delight
friend
▁collaborative
▁routine
▁glue
▁garage
▁augment
▁sensation
▁observe
▁gase
face
▁projection
▁storytell
▁gear
▁intens
▁specialize
▁spell
▁gathering
vity
▁interior
▁electrode
▁healthie
▁wander
▁admir
▁sandwich
▁connectiv
▁Mag
▁bin
,500
▁Northern
▁confirm
▁legislat
look
▁coach
ogen
ugg
lash
▁shopp
fire
cade
▁survivor
▁Child
▁bathroom
▁Ab
▁passive
▁golden
▁neck
▁prosthetic
▁bath
▁Win
▁weapon
▁leaf
▁Gulf
made
▁variable
▁Smith
▁personaliz
▁None
▁unprecedented
▁conc
▁programmer
▁Ni
▁deaf
▁coordinat
▁Bible
▁freak
▁screw
audi
gua
ocin
▁stimulat
▁flavor
▁Arabic
▁copyright
▁disconnect
▁disabl
Y
▁mobil
▁senior
▁expansion
▁fragile
▁consist
tact
▁crush
▁linear
▁burden
▁Moon
▁trajector
▁fulfill
▁lean
▁Oxford
▁Fo
▁rotate
▁pause
▁galler
▁sew
▁sensory
▁darkness
▁Jud
▁alcohol
▁format
▁trash
▁instinct
▁20,000
▁migrat
▁failing
▁assignment
▁fifth
▁Soviet
▁ruin
▁export
▁gradual
▁communicat
▁yard
▁broadcast
▁inherent
▁investor
▁ecolog
alo
▁marry
▁fanc
▁reliabl
▁lane
▁120
▁plain
▁mayor
▁26
▁intend
▁creator
▁trap
▁exhaust
▁pat
▁bold
tangible
▁dece
▁snake
▁mixed
take
▁enthusias
▁damn
▁fed
▁tweet
▁chief
ilicon
round
▁Bush
▁combat
▁district
▁arrow
▁Micros
▁destin
▁genetically
drew
ball
▁pigeon
▁currenc
▁structural
▁prepare
▁ban
▁condom
▁sanit
▁95
▁Put
▁crew
▁anxiety
▁copie
▁spectacular
▁250
▁glamor
▁audio
▁voting
▁Egyptian
▁Italian
▁philanthrop
nia
▁195
▁Home
force
▁computation
▁10-
▁fertil
▁disrupt
▁athlete
▁Love
▁dial
▁boot
▁prov
▁textbook
▁Back
▁occasional
BM
▁contemporar
lihood
aba
▁Design
▁MS
ank
▁fee
▁sharp
▁pharmaceutical
▁Up
▁cheese
▁queen
▁origami
▁analyze
▁strand
▁bound
thermal
▁leak
▁28
▁borrow
▁abilit
▁joint
▁dancer
▁branch
▁feminist
▁advocate
▁Friday
▁Unti
▁Dad
▁Time
bro
▁vacation
▁jelly
▁Jesu
▁Seven
stock
▁gesture
▁palm
▁transparent
▁diabetes
▁neuroscien
▁primitive
▁till
▁Through
▁50,000
▁stor
▁metha
▁manipulate
▁hormone
▁robust
▁retina
▁Dere
▁jihad
arm
▁tension
▁ratio
▁strike
▁industri
▁amaz
▁locate
▁limitation
▁render
▁reserve
▁enhance
▁clock
▁disappoint
▁poison
rapped
▁unclear
▁march
nny
▁fur
brush
▁qualit
▁signature
▁winner
▁tropic
▁bull
▁trauma
▁resist
▁alter
assembl
▁bra
▁philosopher
▁accus
▁activat
▁Trans
▁Cambri
oft
▁highlight
▁systematic
▁chapter
▁pole
▁Research
▁installation
ois
▁acquire
▁initiative
▁bulb
▁transmitt
▁flexibl
▁wise
▁bang
▁calculation
▁rebuild
ench
▁naked
▁fragment
▁uncle
▁excellen
▁classe
▁quit
▁terror
▁intuitive
bil
▁guarantee
▁constraint
▁anatom
▁shout
▁aesthetic
▁disability
stair
▁Turn
▁slave
▁Never
▁tower
▁institutional
▁federal
▁peaceful
▁node
RB
▁Bay
▁SS
▁regulation
▁paradox
▁transmission
▁neat
▁Nation
▁33
▁inspiring
▁struggl
▁rip
▁fraction
hur
▁drawn
▁William
cro
▁profile
▁2006
▁sketch
▁unbelievabl
▁stroke
▁scann
children
ough
▁burst
▁pie
ological
▁dump
▁editor
▁fastest
▁hous
train
▁axis
▁Lab
▁slavery
▁Tim
▁ecological
▁recipe
burg
dominant
▁Fl
▁eradicat
▁helicopter
▁ethical
▁surrounding
ota
▁spark
▁immense
▁Sir
▁acknowledge
▁interpret
▁norm
▁breakthrough
mount
eaten
▁garb
fare
▁cop
▁tick
ndeed
▁bump
▁addict
▁opera
▁vari
▁pun
▁White
▁psychologist
grow
view
▁chocolate
erial
▁array
▁sales
▁advis
▁conclude
ek
gie
▁Manhattan
gon
▁external
evolv
▁salt
▁inventor
▁renewable
▁sacrifice
▁persist
▁Mal
▁Ghana
▁partnership
▁Texas
▁verb
▁Mother
▁figur
▁marker
▁mold
▁Congo
atory
▁sens
▁rent
▁shirt
▁simultaneous
dia
hildren
▁mega
▁universit
▁Technolog
▁Narrat
▁smooth
BI
▁mindset
▁sacred
BC
▁pulse
tasi
ept
▁Rome
▁stunt
▁Israeli
organiz
▁Yorker
▁confident
▁Rea
▁Arm
▁fool
▁decrease
▁slice
▁Prize
ai
▁Lad
▁jam
▁bind
▁Par
▁supplie
▁Tell
morph
▁autonomous
▁stake
▁kiss
third
▁Stanford
▁synthetic
▁laid
▁wage
▁degrad
▁comp
▁artistic
▁analyz
can
▁Rwanda
▁coat
▁cousin
zi
▁agenda
▁relations
▁engagement
▁disagree
▁ticket
hour
▁package
▁grave
▁dig
▁hanging
▁locked
▁charit
▁Miss
uction
forward
▁comparison
▁yield
▁Kar
▁tunnel
▁Va
put
mission
▁football
▁mate
▁pi
▁Octo
ette
▁shooting
▁frighten
point
▁neural
▁shake
▁southern
ibility
rctic
ctor
cellular
▁extinct
▁pioneer
ambi
▁leverage
▁northern
▁nei
pound
▁discipline
century
class
▁fo
▁pose
▁smoke
▁lake
▁explode
▁pray
▁conservative
bble
▁exam
sea
▁Sal
▁preserv
▁distinct
▁infant
▁vol
▁adjust
15
▁Pri
scribe
▁dive
▁abandon
play
▁Revolution
▁resident
▁mad
▁slum
▁repeated
▁smartphone
▁primari
▁courage
▁Uganda
▁wip
▁backwards
▁Ven
zz
▁functional
▁bother
▁essence
▁fabulous
▁Pr
▁identifie
▁tackle
▁faci
kind
▁traged
arch
▁Robert
▁mushroom
▁Matt
▁ceiling
▁underly
▁suppose
▁Nature
▁capita
▁Wal
cus
▁flo
ode
▁Bob
▁biodivers
▁nutrient
▁optimis
▁dialogue
▁hip
▁Was
▁reduction
while
▁demonstration
▁mechanic
▁concentrat
▁tune
▁extinction
▁Rob
▁polar
▁concert
▁priorit
▁improv
▁imag
▁Ital
▁alarm
rid
▁Law
ivity
than
▁breaking
▁600
▁psycho
▁additional
▁Thing
lace
▁colony
▁scream
▁Ocean
▁legac
▁Pan
▁recommend
▁aircraft
▁Foundation
fus
▁bless
▁ridiculous
▁achievement
level
▁intuition
▁heaven
▁guilt
▁recruit
▁clue
▁Olympic
▁twin
▁magical
▁toxic
▁River
▁incident
▁Cal
▁Mark
▁probabilit
▁piano
▁transparency
▁asteroid
ko
▁mutation
▁expedition
▁intention
▁sunlight
state
stan
dollar
,
chan
▁Mac
▁gate
▁lock
rick
gging
▁farmer
▁globally
rim
▁uncomfortabl
▁sweat
▁Next
▁edit
▁prosper
▁description
▁domain
▁permission
▁smok
▁output
▁demographic
van
▁Haiti
▁Atlantic
▁corn
▁clar
▁Wikipedia
bola
▁NGO
▁scratch
▁1950
▁36
▁Holly
xi
grade
▁ambitio
▁Sch
▁Jew
▁Mom
▁trie
▁anger
▁Tri
▁flip
cher
▁terrifi
▁guard
▁tele
▁judgment
▁vegetable
empt
▁genius
▁accumulat
▁assembl
▁beside
▁cash
▁birthday
▁ob
▁craft
▁nano
▁windows
American
▁welcome
▁psycholog
▁brown
▁glacier
▁mask
▁rating
▁loan
▁dictionar
▁antibiotic
▁Nothing
▁Super
▁trigger
▁elect
▁mat
▁utter
▁bend
▁choos
▁boss
▁plent
▁32
▁compound
▁household
▁miracle
▁replicate
ption
▁intense
▁marine
▁ensure
ference
▁pace
▁killer
▁Spa
▁prepar
▁incentives
uous
▁chromosome
▁rainforest
▁pyramid
▁Basic
▁procedure
▁consum
▁parking
▁plug
gun
▁Six
▁Gene
▁candidate
▁pr
▁dust
▁pad
▁shipp
▁debt
ez
▁disturb
▁overcome
▁earthquake
▁afterward
MA
▁cute
use
▁arrive
fold
▁min
ella
▁Peter
ola
▁ought
▁desk
her
▁stack
▁identical
▁apple
▁narrow
▁passenger
▁tight
▁liver
▁International
▁settl
▁distant
▁highway
▁prop
▁proof
bot
▁Martin
▁Del
▁proportion
▁chaos
▁shall
▁scal
▁hook
vill
▁hunger
▁Wall
▁affair
oven
▁club
▁cru
▁Cor
▁optimistic
fil
▁mail
ami
▁experienc
▁corporation
▁manager
▁wound
▁medication
▁Abou
▁reported
▁breed
▁trait
iff
▁transfer
▁vital
▁surveillance
urg
▁suspect
▁Jim
▁excite
▁BF
▁diploma
▁fixed
▁Boy
▁scenario
▁accomplish
matic
▁session
▁Scott
▁wings
▁pink
▁pan
▁murder
▁Korea
▁PM
▁request
▁drag
▁Turk
▁rhythm
▁Global
▁consistent
BG
▁tuna
▁illustrate
▁refuse
▁dominat
▁appeal
▁embedded
▁Blue
▁Russian
fall
▁coin
▁airport
▁House
▁obstacle
▁brave
▁mono
generat
▁subtle
▁reconstruct
▁microbe
▁hill
itch
▁Cap
▁Make
▁mimic
▁recognition
▁diagram
▁hungry
▁philosoph
▁motivation
▁sil
▁mice
▁presence
▁confuse
▁Tra
rous
▁representation
▁psychological
▁revenue
▁cast
▁digni
▁acid
▁fe
▁assistan
▁Age
▁tir
▁ultra
azz
▁measurement
▁column
house
▁poetry
▁fluid
▁conventional
print
all
▁corporate
▁indicate
▁suicide
▁clouds
▁densit
▁knock
▁floating
▁Christmas
▁explosion
▁motivat
ease
▁whale
▁neuron
▁Th
▁diagnos
▁deploy
bul
▁portrait
▁comfort
▁Tu
▁horrible
▁spiritual
ural
▁Kan
▁promote
▁chest
▁review
▁Museum
▁entrepreneur
▁orchestra
▁investigat
▁Pole
▁drove
▁Red
box
▁headline
▁tech
oid
▁Greek
▁boil
▁Chicago
▁isolat
▁accessibl
▁ears
▁pretend
cula
▁desperate
▁productivit
▁shame
▁lad
mbo
▁printer
hop
pit
▁prisoner
ram
row
▁poet
▁stepp
▁shell
▁x
unk
▁intervention
▁parallel
press
▁limb
▁impos
▁laboratory
▁database
▁telephone
▁defense
▁depress
▁fl
▁buck
▁lifestyle
dependent
cop
▁Dur
▁boom
▁seal
▁pitch
Sahara
▁consume
▁Tes
▁worm
▁entrepreneurs
▁golf
▁liberal
▁orange
▁phase
▁Grand
what
tric
▁electron
▁Mary
▁skeleton
▁froze
▁defend
ock
▁adventure
own
▁reject
▁blame
▁elite
▁Nor
▁magnet
▁implant
▁overall
▁DH
▁refer
▁frequenc
▁shadow
▁gr
▁cloth
▁Ed
▁authentic
▁fake
▁mentor
air
▁tri
▁Rememb
▁complain
town
▁Higgs
▁1,
▁footprint
▁5,000
▁Paris
▁selection
▁educational
▁organize
▁afternoon
ook
▁contribute
▁Egypt
▁leap
▁sports
▁cable
▁classic
▁Pat
▁cooperat
▁compos
▁ugl
▁behavioral
▁item
▁skull
▁minister
▁painful
▁engag
▁crucial
▁bug
▁transplant
▁divers
▁danc
▁silent
born
▁Voice
cat
oxide
▁gray
bit
▁youth
▁route
▁lion
▁Count
▁cluster
truck
▁Bost
▁correspond
▁port
▁exception
▁characteristic
▁simulation
▁obsess
▁Jun
▁embarrass
raising
▁gu
▁resolution
▁milk
▁prepared
▁imagin
ulation
▁fisher
▁sensitive
▁physician
ngry
▁meal
▁interactive
▁tap
▁bicycle
▁Latin
▁agreed
▁globe
inary
▁install
▁laser
▁guide
ix
▁theme
▁steal
▁cyber
▁Project
▁invite
▁academic
▁Day
▁Pol
▁vo
▁meme
▁mathematician
▁polio
▁exten
▁asset
berg
▁curiosity
▁dish
▁exploit
▁presentation
▁wash
▁wo
▁arrest
▁sta
▁evil
Something
▁inject
▁trace
▁CEO
tz
▁Girl
▁eggs
▁thanks
▁flood
▁flash
▁wondered
ani
nfortunate
▁Apple
▁Centr
ue
▁exponential
▁Dea
12
▁whales
▁mode
▁weak
▁contrast
▁license
▁officer
▁owner
pr
▁musician
▁magn
▁photographer
▁Steve
▁burning
▁pit
▁Mad
pon
▁confiden
▁1980
▁objective
▁polle
▁Antarctic
eak
▁regret
hold
▁department
▁attitude
▁tank
▁animation
▁gut
▁High
▁observ
▁rap
▁style
▁rescue
ether
▁inequalit
▁committ
pper
▁depth
▁barrier
▁regime
▁2.
▁ga
▁download
▁GPS
▁fabric
▁65
▁absorb
▁weigh
▁citizen
▁framework
▁kit
▁feeding
▁Adam
▁script
▁cord
for
▁cri
▁commitment
▁explor
ada
▁Black
▁geograph
▁plus
▁1990
▁nor
▁meaningful
▁percentage
▁microscope
▁wireless
▁mal
ttle
▁Valle
▁lit
▁tag
▁pile
▁elder
▁solv
▁flie
power
▁div
▁accelerat
gar
▁rocks
ua
▁musical
▁Human
ional
▁chimpanzee
roll
▁immune
▁exhibition
▁thumb
▁Christian
▁emergenc
▁Health
▁improvement
meter
▁Space
▁permanent
▁Ken
▁Hol
▁Sh
▁frustrat
plan
▁lecture
call
▁Swede
▁unexpected
▁stronger
▁cheat
▁grab
▁predator
efore
▁Number
▁frank
▁dress
▁Du
▁privacy
SA
▁loop
▁99
▁September
▁efficienc
▁tour
▁army
read
foot
▁Pakistan
destruction
▁centuries
▁hyper
▁finance
▁greenhouse
▁humor
▁1960
▁pet
▁nerve
▁instruction
ung
▁Ke
▁instant
▁Science
▁flag
▁196
11
▁appropriate
▁monitor
▁apparent
▁contribut
▁integrat
▁repeat
▁angle
▁favor
▁geo
▁vertical
▁sculpture
▁boring
▁domestic
▁relie
▁engaged
▁rely
▁sail
▁sophisticate
▁sphere
▁behave
▁Mar
▁awareness
▁calculate
ump
half
▁beach
surance
rice
▁pregnan
▁younger
▁storm
ura
▁phrase
▁Russia
▁pill
▁grass
▁dogs
▁strip
aging
▁nose
▁rush
▁upper
ridge
▁Amazon
▁file
▁penguin
▁3,000
▁Give
▁auto
▁dense
▁pollution
▁dedicat
▁personalit
well
▁panel
▁raw
▁laptop
net
ica
▁stretch
ris
omb
aria
▁clothes
▁pour
▁grandfather
▁collaboration
▁tip
cho
▁poster
bar
▁password
▁split
▁Col
▁Obama
▁boxe
▁polic
▁admit
tial
▁pool
▁Bang
▁aim
▁su
source
▁oppos
▁colon
ility
▁wine
▁Get
long
▁drill
heimer
▁ritual
▁agent
▁ingredient
▁poem
▁hunt
▁Talk
▁relevant
▁chart
▁innovative
▁mechanical
▁cart
aster
▁Part
50
▁Darwin
▁busy
▁implement
▁habitat
▁thick
▁magnetic
▁Fin
▁Nigeria
▁advice
icity
stone
▁ear
▁Mc
▁educat
▁hall
col
▁teenager
▁shoulder
▁advertis
▁staff
▁demo
▁attend
▁Green
▁Whil
▁obes
▁Anyway
▁spider
▁clever
▁unknown
▁violent
▁king
▁Thom
▁inevitabl
▁myth
▁church
down
▁paradigm
▁former
▁fortunate
▁hotel
▁breathe
▁Te
ole
▁boundar
▁illegal
▁economi
▁194
▁secure
▁prefer
▁productive
▁gravity
▁measur
▁solid
▁illusion
▁propose
J
▁fiction
▁reverse
▁unusual
▁select
▁por
ax
▁Pacific
▁Frank
▁Ru
▁pilot
▁Air
▁Park
▁challeng
▁suck
▁section
▁severe
▁tax
▁rocket
▁habit
zo
▁Japanese
▁School
▁biologist
▁iron
▁England
▁tribe
▁Sea
▁Ar
hood
▁demonstrate
▁Real
▁Wow
win
▁Angel
▁sheet
back
▁jail
ean
▁activist
▁participate
▁Pi
▁tea
▁handle
▁automatic
▁droppe
lock
▁symptom
▁author
▁needle
▁Islam
▁dirt
▁Bi
▁compete
▁mile
▁internal
▁heal
▁status
▁bl
room
▁2010
▁Michael
é
▁vessel
▁Jan
▁false
▁mountains
▁spring
▁harvest
▁nest
▁radiation
▁Arab
▁roads
▁Final
▁abstract
▁harm
▁Los
▁prediction
▁Ju
▁regard
▁molecular
▁peer
▁infinite
▁fruit
▁firm
▁happi
▁observation
▁Lu
▁danger
▁iPhone
▁terroris
▁infection
▁north
▁south
▁transportation
rail
▁grant
▁theater
▁exchange
▁entertain
▁rep
▁crack
▁length
▁23
▁reform
▁vulnerab
ou
▁prototype
▁plot
▁decline
▁bond
▁swim
▁sum
▁symmetr
▁activit
▁circumstance
▁concrete
▁Israel
hen
▁according
za
▁tape
▁Pleas
▁soft
ush
▁client
▁lens
▁Bank
▁Canad
▁passionate
▁reef
ino
▁zoom
▁expectation
▁YouTube
▁logic
▁President
▁autism
▁capitalis
▁label
▁winter
cut
dom
▁2008
▁grain
▁lady
▁graphic
▁prime
▁reference
▁thin
verse
▁Congress
▁icon
▁lawyer
▁primary
▁deserve
▁Harvard
▁Ah
▁studio
▁perceive
▁Center
bra
▁tube
▁democratic
▁broad
▁talent
▁employ
▁bike
▁counter
▁continu
▁technological
▁shoot
▁filter
▁apartment
▁steel
▁seek
▁Island
▁title
▁previous
▁actor
▁kitchen
▁Institute
▁physicist
▁Francisco
▁Ya
▁lie
▁Min
▁Four
▁celebrate
▁comfortabl
▁drone
▁hire
▁worldwide
▁shut
jo
▁Five
▁wi
rtex
▁MIT
▁witness
▁empty
▁NASA
▁privilege
▁threaten
▁novel
▁stranger
▁forgot
▁partners
ories
▁Brita
ik
▁relate
▁knee
ki
iness
▁height
▁burn
▁poll
▁pure
llo
▁recording
▁conservation
tech
▁confront
▁hang
▁expos
▁par
▁assumption
▁evolve
▁implication
han
▁inspiration
▁spectrum
▁hydrogen
▁repair
▁teeth
▁visibl
▁Charles
▁awful
ink
▁neuro
▁crop
▁blog
▁pot
▁videos
▁escape
▁enem
mine
▁pin
▁wheel
▁joke
▁prize
▁surgeon
▁appreciate
▁tear
▁Tom
▁definite
▁distribution
▁Ben
▁sweet
▁statement
br
▁produc
mark
▁yester
▁ill
bel
▁awesome
▁Bar
▁director
▁economist
▁mortality
▁conclusion
▁explanation
▁valuable
▁provid
▁Will
▁Sha
▁criminal
▁Middle
▁peak
▁kick
▁toilet
▁horse
▁telescope
▁battery
▁stock
▁pleasure
gh
▁accurate
▁Ten
▁stupid
▁protest
▁Iran
▁alien
▁react
▁grade
▁programm
▁dolphin
▁propert
▁analog
▁cutting
▁exploration
▁grid
▁Si
▁encounter
▁cup
▁announc
▁Yet
▁swimm
▁Jam
▁clinical
▁Richard
▁22
▁illness
▁mosquito
▁feedback
▁associat
▁para
▁capabilit
▁historical
▁involve
▁Star
▁undern
▁bare
▁hide
fully
▁rational
▁gay
▁laugh
▁plate
▁pump
▁journalist
▁emerge
▁weapons
▁facilit
▁150
▁maintain
▁Mexic
▁silence
▁cow
▁rat
▁abuse
▁disc
▁setting
▁caus
▁official
▁variation
▁bees
▁inform
gue
▁Street
▁transport
ox
▁heavy
af
▁bill
▁importan
▁operate
life
▁determine
▁management
▁Sam
▁lies
top
ula
▁participat
fu
▁heads
▁attach
▁Einstein
▁emissions
▁addition
▁disaster
▁melt
▁button
▁ordinar
▁credit
▁mix
▁folks
ory
▁bla
▁intellectual
▁terrorist
▁establish
▁2000
▁chicken
▁Washing
▁Times
▁France
▁liquid
▁pocket
▁mammal
▁transition
low
▁partner
▁conduct
ult
ney
▁authorit
▁input
▁convert
▁tie
▁smile
▁myster
▁2,000
▁mathematical
▁fiber
lan
▁doubt
▁load
▁initial
▁host
▁protection
▁memori
▁inner
▁clinic
▁45
▁volume
▁Since
sha
▁medium
▁speaker
aking
bb
ina
▁empower
▁writer
▁II
▁translate
▁librar
▁infect
▁battle
▁empath
▁King
▁killing
scale
▁35
▁embrace
▁judge
▁practical
▁loud
▁broke
▁voices
▁fourth
▁intelligent
▁sight
▁snow
▁combination
▁construction
cal
▁recycl
bal
lf
▁evolutionary
corruption
▁sugar
▁discussion
▁volunteer
▁quarter
▁origin
▁gather
ake
▁El
▁season
▁tall
▁electrical
itude
▁lunch
▁govern
▁court
ulate
▁cognitive
▁survey
▁highest
▁lifetime
▁soul
▁Other
▁silk
▁member
▁tail
▁string
▁Y
▁collection
sumption
▁May
▁atom
▁opening
ground
▁surround
▁hell
▁wisdom
▁therap
▁shoes
▁George
▁contract
▁note
▁diet
▁lift
▁processe
▁nurse
work
▁brilliant
▁Har
▁agenc
form
▁rural
▁Dan
▁mirror
▁dry
▁command
▁injur
▁400
▁Last
▁100,000
▁discuss
▁receive
▁puzzle
aker
▁extract
▁Their
U
▁orbit
▁Come
▁shapes
▁wake
atic
▁band
▁weather
▁categor
ose
▁stone
versus
▁ideal
ju
▁brief
een
▁spoke
▁topic
▁chemistr
nna
▁na
▁channel
▁Com
▁attract
ov
▁robotic
▁precise
▁pack
▁scan
▁leaving
▁statistic
▁cartoon
▁invention
▁quantum
rising
▁university
▁quiet
▁nervous
▁unlike
▁Paul
▁grown
▁narrative
▁opinion
▁hop
▁pal
▁foundation
ware
▁clip
▁litera
▁agricultur
ual
▁ignore
▁profit
▁fat
▁applie
▁hidden
daily
▁budget
▁frame
▁property
▁leader
▁Does
▁parent
▁dinner
▁Could
▁marriage
▁debate
▁round
▁im
▁ride
etic
▁mark
▁chip
▁elephant
▁comput
▁customer
▁earn
▁employee
▁restaurant
▁disorder
▁arms
ches
▁expression
▁mouse
▁symbol
ong
▁cure
▁fellow
▁error
▁gold
▁lung
▁shop
▁truck
▁occur
▁honor
▁equivalent
▁compare
▁ancestor
▁resistan
▁variet
▁professor
▁trans
▁names
▁fac
▁crash
▁lu
▁Jo
▁sw
▁ring
▁Po
▁assume
▁comment
rus
▁curious
▁Pe
▁conscious
▁pig
▁US
lit
ping
▁equip
▁distribut
▁marrie
▁homes
fish
▁grandmother
▁bubble
▁stoo
▁independent
▁operat
▁sorr
▁proper
▁cent
▁tens
▁depression
▁calling
▁date
▁negative
wood
▁patent
▁Ge
▁balloon
▁equation
▁carrie
kin
▁row
▁existence
▁score
▁fresh
▁whom
cent
▁belong
fer
▁suffering
▁dozen
▁trillion
▁deeply
▁Fe
▁factory
▁taste
▁cloud
▁roof
▁fell
▁mothers
ight
▁ski
board
ier
▁Gu
▁classroom
▁meat
▁gift
▁lay
▁copy
▁pop
▁insight
mber
▁joy
▁interface
▁sexual
▁Ki
uck
▁stream
▁shark
▁Mr
▁spaces
spect
▁British
▁collapse
▁dollar
▁bias
▁politician
▁discovery
▁garden
▁dreams
art
erson
▁construct
▁Brazil
▁display
▁engine
▁bright
▁circuit
ah
▁Australia
▁weird
▁mathematics
▁metal
▁spin
▁proud
▁closed
▁Twitter
care
▁coast
▁era
▁zone
▁multiple
▁epidemic
▁limited
▁Life
▁bird
▁br
▁harder
▁identify
▁Bill
▁pounds
▁occurr
▁click
▁5
▁universal
▁Big
ade
rew
▁chose
▁bi
▁museum
▁metaphor
▁dinosaur
▁CO
▁AIDS
▁Three
▁graduate
▁odd
▁perception
▁sensor
▁suffer
▁foreign
▁Sp
▁bus
▁driver
V
▁analys
▁photos
▁Web
▁invisibl
▁tradition
▁related
▁newspaper
▁Sun
▁spirit
▁industrial
▁organic
▁master
▁civil
car
tive
▁location
▁flat
W
▁Ph
▁coal
▁Iraq
fa
▁Any
▁miss
ification
▁hurt
▁fashion
▁competition
▁responsibl
▁religious
▁regular
▁French
▁198
▁due
▁yellow
▁party
▁Kenya
▁breast
▁stress
▁Would
light
▁architect
▁worri
▁traffic
▁phenomeno
▁invit
gram
▁fossil
▁curve
▁creation
▁president
▁th
cha
gg
▁desert
▁engage
▁arriv
▁succeed
ana
▁adapt
▁trend
▁reveal
▁artificial
▁identity
▁bat
king
▁Sometime
▁bottle
▁quote
▁attempt
▁pen
▁Art
▁ten
▁conference
ug
▁mid
▁Vi
▁childhood
▁gentlem
gi
ak
val
▁bread
dimensional
port
▁hack
ev
▁Se
▁transformation
▁opposite
▁article
▁faith
▁dynamic
▁1,000
▁root
right
▁sector
▁holding
▁motor
▁300
▁gender
▁include
▁etc
▁husband
▁replace
▁fr
▁Her
ction
▁Da
▁technical
$
ep
▁soil
▁fan
▁recover
▁reward
▁crime
▁encourage
▁sc
▁farmers
▁diversit
▁magazine
▁graph
▁alternative
▁broken
▁Asia
▁chair
▁island
▁dramatic
ology
▁advantage
▁Again
rate
▁refugee
orrow
▁opportunit
▁organiz
▁ecosystem
▁exercise
▁sold
▁See
▁malaria
base
▁Facebook
▁algorithm
▁remote
▁combine
▁civilization
▁wood
▁detect
▁Na
ham
▁Am
▁hopeful
j
▁Have
ee
▁adopt
▁soldier
▁labor
set
▁core
▁funny
▁gap
▁members
▁mouth
of
dge
▁Japan
▁mechanism
mak
▁estimate
▁window
▁definition
▁platform
▁rapid
lin
▁avoid
▁crowd
tar
▁Good
▁bridge
▁held
▁Lo
▁reaction
▁mountain
▁qua
▁strength
▁argue
rk
DP
ft
ologist
ler
▁suit
▁Ho
▁extend
▁Mi
▁monkey
▁Over
▁notion
▁6
▁responsibility
▁Audience
▁researcher
▁application
▁background
▁blow
ka
▁fully
▁pair
▁More
▁kilometer
▁divide
ui
▁coffee
qu
▁boat
▁dimension
▁cry
▁border
▁claim
▁balance
▁fold
▁oh
▁wire
▁continent
▁tremendous
▁oxygen
Ex
▁flower
▁shock
▁Che
▁unfortunate
▁hum
ari
▁justice
▁aspect
▁mess
▁sad
ble
▁electronic
▁European
▁Muslim
▁chain
let
▁hero
▁forever
▁creativ
▁10,000
▁sustain
rit
▁Did
▁seed
▁prove
▁twice
▁500
ley
▁sample
▁Pro
▁birds
ner
▁controll
ile
▁drawing
▁coral
▁struggle
▁victim
▁Wi
▁complexit
▁station
▁dad
▁tumor
▁rough
▁Ta
▁aid
▁component
▁ship
▁contain
▁eating
▁National
▁desire
▁flight
▁afr
▁edge
▁feature
▁correct
▁threat
▁Pa
▁receiv
ger
▁radical
▁efficient
▁sand
gen
▁bag
▁sick
▁plane
▁Mu
▁lack
▁switch
▁Un
▁evolved
▁central
▁trip
▁rid
▁airplane
▁limit
▁missing
▁His
▁babi
▁player
▁emerg
▁reflect
▁campaign
▁hearing
ice
▁method
▁popular
▁climb
ically
▁camp
▁commercial
den
▁total
▁argument
oo
▁gain
fin
lic
▁muscle
▁supply
▁du
ograph
▁anti
▁California
▁motion
istic
night
▁remove
▁vi
▁election
▁loss
▁tough
▁operation
▁legal
▁earth
ray
▁surprising
▁Ka
▁imp
F
▁8
▁seat
wi
▁vast
▁cave
▁base
▁manufactur
▁states
▁Wom
▁rock
▁television
ain
▁math
▁sharing
▁outcome
▁ha
▁sentence
ator
hand
▁cycle
▁below
ible
so
term
▁aware
▁Hi
▁From
▁ancient
▁paid
▁Davi
▁document
▁Great
▁consumer
▁moon
▁John
▁rare
▁Su
▁hate
▁profound
▁vote
▁option
▁surger
▁careful
▁active
▁basi
▁professional
▁disappear
▁Thanks
▁highly
▁serve
▁contact
▁beat
ib
▁giant
▁speech
▁Ver
▁imagination
▁Second
▁agree
▁mistake
▁Per
wise
off
▁capacity
▁promise
ifi
tor
▁failure
▁scene
▁honest
▁sat
▁belief
▁forth
▁cultural
▁convince
▁teaching
▁charge
▁La
▁gun
ped
▁Bu
▁net
▁distance
▁except
▁noise
▁worst
▁app
▁accident
▁catch
▁smell
▁consciousness
▁streets
▁Fa
ja
water
▁laws
▁capture
▁express
▁breath
tuck
♪
har
▁enable
▁k
▁birth
▁Ca
▁bear
▁lo
▁4
▁199
▁infrastructure
▁trouble
▁Chris
▁plann
▁Take
▁farm
ff
ng
▁random
uar
rry
▁emotional
▁sequence
▁citizens
▁interaction
▁town
▁circle
▁ran
ca
▁sing
▁j
qui
▁match
▁nuclear
▁sister
▁Ri
▁prison
▁fle
▁destroy
▁useful
▁influence
▁Hu
▁biological
▁survive
▁anyway
▁apart
▁13
▁Your
▁City
▁none
▁instrument
▁temperature
▁expand
▁website
▁Indian
▁multi
▁London
▁email
▁Think
▁radio
▁double
▁jump
▁satellite
▁sustainabl
ero
men
▁mission
▁passion
▁magic
▁damage
▁insect
▁recent
▁decade
▁typical
ome
izing
▁wealth
▁Co
▁interview
▁vaccine
▁underst
▁Western
▁generate
▁summer
▁introduce
▁perform
▁Universit
▁Many
▁types
▁ca
▁various
▁collective
ging
▁peace
▁forget
▁willing
▁brand
▁Cha
▁dance
▁race
▁prevent
▁drink
▁performance
▁investment
▁career
▁gene
▁stem
▁trade
uff
spite
▁spot
▁fix
▁flu
▁neighbor
▁luck
▁particle
▁dot
ze
▁cook
▁river
▁politic
▁define
▁Like
▁physics
▁decide
▁atmosphere
au
▁minds
▁dog
▁cross
▁driving
log
▁slight
hu
▁web
▁TV
▁technique
▁separate
led
▁micro
▁24
chi
▁landscape
▁military
▁surviv
▁sky
▁significant
▁income
gra
▁production
▁da
▁remarkabl
ward
▁Two
▁consequence
ership
▁Sa
▁familiar
ure
over
▁grand
▁park
▁Car
▁emotion
ect
▁win
▁Which
▁layer
▁cat
▁mobile
▁strateg
che
aid
ex
▁organ
▁values
H
▁wide
▁financial
tion
▁protein
▁14
▁police
▁urban
▁release
▁stopp
▁communicate
▁glass
▁training
▁trial
▁humanit
▁bomb
▁9
▁respect
▁trick
ite
▁roll
▁21
▁straight
eath
ow
▁hair
▁corner
▁rule
▁li
▁genome
0,000
▁instance
▁vehicle
ide
▁fantastic
▁clearly
▁yea
▁reading
▁Chin
▁mom
amp
▁wave
▁board
▁worry
▁writ
▁gra
iv
▁concern
▁demand
▁HIV
00
kept
▁brother
▁Li
▁enjoy
▁user
▁saving
▁crisis
▁international
▁strange
▁path
▁East
▁blind
▁capital
▁freedom
▁neighborhood
▁San
▁beaut
▁moral
▁bodi
▁report
▁target
▁compar
▁weight
▁expensive
▁draw
ship
▁series
▁dangerous
▁Di
▁fascinat
▁terribl
ually
▁photo
▁private
▁tissue
mi
▁reduce
▁becom
▁massive
▁enormous
ack
▁decades
▁apply
▁remind
though
▁critical
▁respond
▁Br
▁mention
▁lesson
▁constant
▁rain
▁content
▁happiness
▁meaning
▁cheap
▁virtual
▁text
▁creature
▁policy
▁positive
▁slide
▁solutions
▁improve
ise
▁element
▁ma
▁bank
▁purpose
fi
/
▁healthy
ga
▁effort
▁galax
▁square
▁memory
▁inter
▁enter
▁unit
▁please
▁rise
▁environmental
▁indeed
▁sh
▁range
ative
▁meter
▁compassion
▁principle
▁drop
▁ultimate
▁relative
▁Ne
▁cr
▁foot
▁heat
▁press
▁excited
▁wild
▁original
▁bunch
▁finger
▁shot
▁explore
▁cap
▁extra
▁impossibl
▁unique
▁stars
ps
▁smaller
▁female
▁ho
▁task
▁ball
▁intelligence
▁biolog
ium
▁pain
▁mental
▁advance
▁invest
▁pressure
ick
▁afford
▁achieve
▁famous
▁organism
▁standard
▁above
▁bone
▁products
min
magine
▁interact
▁activity
refore
ip
▁earlie
▁male
▁mis
▁floor
no
wa
▁hot
like
▁meeting
▁expert
▁Con
▁brains
▁launch
nce
▁check
▁plastic
▁Afghan
▁zero
▁paint
▁painting
▁practice
▁link
▁fuel
▁cold
▁supposed
▁increasing
▁communication
▁architecture
▁feed
▁genetic
older
io
per
▁neurons
L
▁return
▁eventual
▁Act
X
▁larger
ud
▁16
▁visit
ru
▁possibilit
▁address
▁hour
ought
▁German
▁publish
▁warm
▁direction
▁account
▁wife
▁version
▁appear
▁religion
▁sleep
▁West
▁revolution
▁gas
ni
▁shift
▁V
istan
▁complicated
▁worse
▁fail
▁fine
ious
▁college
▁daughter
na
ot
▁quality
▁models
ti
▁letter
▁genes
▁conflict
▁2
▁meant
▁bed
▁chemical
▁lower
▁factor
▁surprise
▁transform
▁dy
▁inspire
▁accept
▁depend
▁higher
G
▁progress
que
▁everywhere
ber
ang
▁famili
▁Man
▁bacteria
▁immediate
▁finding
▁finish
▁creative
ha
▁treatment
▁bio
▁cu
▁led
▁Video
▁position
▁context
▁larges
the
▁North
how
tally
bi
▁fit
▁colleague
▁necessar
▁Dr
▁Are
kay
▁software
▁Ha
▁nation
▁remain
▁print
▁drug
▁writing
▁traditional
ach
▁la
▁carry
ag
▁month
▁sent
▁medicine
ture
▁fill
▁throw
▁exciting
▁manage
▁ready
▁90
▁Be
▁Don
▁drugs
▁onto
▁further
▁leaders
▁democracy
▁poverty
▁faster
▁worker
▁post
▁degree
▁crazy
▁arm
▁suggest
6
ood
▁walking
▁War
▁national
▁detail
▁lose
▁includ
▁aren
ran
▁card
▁price
▁join
▁securit
▁Most
▁materials
by
go
▁office
ub
uc
▁communit
▁successful
▁choose
▁super
▁stick
▁tru
▁en
▁connected
▁favorite
▁adult
ill
▁count
ke
ba
▁fund
▁subject
▁street
▁signal
▁list
do
▁skin
▁After
▁road
end
▁molecule
▁deliver
▁teach
▁English
▁speed
ily
▁waste
▁invent
▁function
time
bu
▁scientific
▁solar
▁Maybe
▁evolution
▁Even
▁hole
▁violen
▁mass
▁require
▁g
▁25
▁flow
▁tend
▁store
ap
▁online
▁designer
▁secret
1
▁class
▁benefit
Q
▁search
▁wish
va
N
▁perspective
▁concept
▁effective
▁visual
▁Ma
▁Ro
more
▁virus
▁fair
▁First
▁character
▁describe
▁Me
▁response
▁equal
side
▁extraordinar
▁mine
▁80
▁vision
▁event
▁evidence
▁bar
tra
▁scar
▁nine
▁gre
live
▁haven
oc
▁sounds
▁predict
▁South
son
▁usual
em
▁connection
▁collect
▁Who
▁wind
▁sell
▁incredibl
▁yes
▁wear
▁song
▁sub
ization
▁clean
▁connect
con
▁medical
▁star
ese
▁institution
▁several
▁represent
▁success
ial
▁box
▁Of
▁Look
▁block
▁Where
ck
▁track
O
▁recognize
▁offer
line
ors
▁rich
▁similar
▁role
▁involv
▁m
▁period
8
▁village
av
▁rules
▁table
▁trust
▁Go
▁door
▁type
▁plan
head
▁among
der
▁Ba
▁journey
▁Bo
▁R
▁smart
▁easi
I
R
▁site
▁general
▁modern
▁By
,000
▁guess
▁World
K
▁carbon
▁N
▁sit
▁product
▁sex
▁dead
▁sp
▁baby
▁goal
▁skill
▁putting
▁avail
▁ex
▁eye
▁Google
▁theory
▁current
▁leg
ard
▁De
▁sun
▁special
▁dream
▁cover
▁affect
▁main
▁studie
▁specific
▁soon
▁region
▁hospital
ize
▁screen
▁industry
▁son
▁recently
▁Mars
▁truth
▁runn
▁fast
▁attack
E
▁serious
▁direct
B
▁worth
ho
▁strong
▁late
specially
▁raise
▁With
▁hit
▁Le
lu
▁wonder
▁page
▁audience
▁lab
▁11
▁60
▁voice
ary
▁source
cy
▁mo
▁W
▁solution
▁touch
▁non
▁artist
mo
▁African
▁Ra
▁meet
me
▁law
▁creat
bo
▁sudden
▁Europe
▁code
▁electric
▁thank
▁chance
▁forest
rote
▁knowledge
▁fire
▁provide
▁miles
▁push
▁train
▁development
▁ice
ating
and
▁spread
▁bottom
▁morning
▁CA
▁situation
▁attention
▁dark
3
ge
if
▁developed
▁write
▁forward
ical
▁giv
▁literal
▁nice
▁break
▁conversation
▁St
ver
▁pull
▁digital
▁essential
▁f
▁understanding
▁innovation
ful
▁books
▁Music
▁tin
▁condition
▁pro
▁potential
▁3
▁photograph
▁sign
▁19
▁shape
4
▁eat
he
▁fun
M
P
▁12
▁Re
▁spen
▁1
▁approach
▁impact
▁material
land
▁dis
▁average
▁H
▁cool
changing
▁Not
▁boy
▁expect
▁clear
▁climate
rought
▁fundamental
▁areas
▁consider
▁cut
▁camera
▁green
▁message
▁stage
▁record
ized
▁complex
▁continue
▁increase
▁doctor
▁blood
pe
▁extreme
▁shows
▁toward
▁18
▁wall
alone
▁access
▁L
v
Z
▁sitt
at
▁key
▁feet
x
▁opportunity
▁white
ab
▁action
▁technologi
▁resource
aught
id
▁ground
▁treat
ut
▁low
com
▁economy
credible
▁gone
▁hold
▁service
▁obvious
▁born
▁present
ond
▁Yes
▁growth
▁absolute
ine
▁M
▁measure
▁perfect
am
▁tried
▁pass
ither
▁personal
9
im
▁People
▁center
▁met
▁die
▁Can
▁value
▁movie
felt
▁slow
▁send
▁map
▁DNA
op
▁Just
▁travel
A
▁solve
▁Right
▁notice
▁Yea
▁Our
▁eight
▁blue
▁add
te
▁rate
▁film
▁organization
pa
T
▁oil
▁teacher
▁begin
ish
▁friend
▁paper
▁rest
ated
ir
▁longer
tic
▁save
▁K
▁stay
▁normal
▁pre
▁fight
vi
▁decision
▁near
▁movement
▁40
▁protect
▁political
▁humans
▁easy
▁sea
▁bas
▁York
▁wonderful
C
ton
▁generation
li
▁O
▁powerful
▁area
▁st
▁kill
▁red
year
▁major
co
▁Mo
▁hands
▁father
ig
▁fall
▁behind
▁Al
▁China
▁eyes
▁behavior
▁physical
▁parents
▁effect
▁full
▁happy
▁safe
▁media
un
▁deep
ol
▁surface
ra
▁reach
▁wait
ul
▁drive
old
moving
▁J
▁o
▁dur
▁size
▁feeling
▁fish
▁pattern
▁local
▁century
▁beginning
▁seven
▁support
▁risk
▁citi
hi
▁fear
ism
▁poor
▁common
▁death
▁explain
▁act
▁third
▁device
▁engineer
▁early
▁focus
▁buy
▁gav
▁relationship
▁scientist
▁won
▁learning
▁OK
▁short
▁listen
ri
▁step
ant
▁scale
▁At
▁exist
▁compani
▁simpl
▁amount
5
2
▁field
▁middle
▁choice
▁systems
▁Oh
▁TED
▁population
▁state
▁God
▁robot
not
▁pick
▁los
▁word
▁outside
ph
▁difficult
▁Then
ling
▁structure
▁produce
ie
▁An
▁news
▁realit
ance
▁along
▁mother
▁100
▁fly
▁tree
▁hours
▁free
▁front
▁program
▁leas
haps
▁bigge
▁Some
ci
▁company
▁network
▁culture
ia
▁sometimes
▁color
▁force
▁India
▁con
▁oursel
where
▁Oka
ta
▁experiment
▁black
man
msel
▁ocean
▁music
▁natural
▁P
▁air
▁stories
▁Or
▁speak
▁view
▁discover
▁questions
▁education
▁America
▁deal
ian
▁15
▁develop
▁kne
ne
▁economic
la
▁spend
’
▁pay
▁object
▁cause
▁cancer
▁hear
▁huge
▁universe
▁house
▁leave
▁decided
▁team
▁species
▁woman
▁D
▁follow
ma
z
▁language
ac
ent
▁since
came
▁200
▁friends
▁must
▁quick
gan
▁sound
▁tool
▁night
▁though
ry
▁phone
against
▁works
D
▁...
▁Every
▁On
▁nature
▁50
▁model
▁issue
▁co
▁happening
▁Unit
▁research
taking
▁words
▁unti
▁Internet
▁environment
▁true
lo
▁past
▁di
▁American
▁State
▁built
▁c
▁30
▁couple
▁heart
▁difference
▁market
▁plant
▁once
less
▁stand
▁entire
▁final
93;
▁result
▁challenge
po
▁heard
up
▁individual
▁control
▁video
▁stop
▁hundred
to
il
▁land
▁term
▁lead
▁Do
▁walk
▁head
▁top
▁large
▁game
ability
▁saying
▁wrong
▁book
▁whe
▁patient
▁test
▁exact
▁war
▁run
▁interest
▁self
▁cost
▁study
▁child
▁p
91
▁beautiful
▁months
▁read
▁six
▁minute
▁student
▁both
▁mind
▁certain
um
ous
▁level
▁figure
▁nothing
▁yet
▁art
age
▁watch
ar
▁public
▁community
ive
▁histor
0
ready
▁while
▁often
▁age
▁girl
▁sure
▁global
▁ra
▁amazing
▁order
▁hope
▁imagine
▁city
stead
▁happens
▁single
▁bad
▁inside
is
▁thousand
▁particular
ten
▁New
▁later
u
f
▁makes
▁disease
▁care
▁F
▁almost
▁health
▁societ
el
▁realize
ch
▁ways
▁name
▁remember
▁days
▁business
▁machine
▁week
▁set
▁science
▁hav
ate
▁men
▁complete
▁else
▁w
▁Earth
▁government
▁young
▁All
▁share
ything
▁far
▁such
k
▁half
▁allow
▁saw
▁job
▁close
an
▁family
▁Africa
▁keep
cross
▁build
▁line
▁As
▁room
▁coming
▁countr
▁possibl
▁side
▁seem
▁dollars
ro
▁prett
▁face
▁piece
▁matter
▁grow
▁probabl
▁image
▁stuff
▁answer
S
▁body
▁animal
▁lives
▁simple
ist
as
▁To
ness
▁hand
▁process
▁best
▁Let
▁less
▁billion
▁energy
▁getting
▁bring
▁times
▁interesting
▁basic
▁mak
▁Wh
ever
▁planet
▁G
quite
b
i
▁left
▁group
▁five
us
ter
▁am
▁These
▁open
▁moment
nough
▁U
▁hard
▁under
▁food
▁social
▁For
▁case
▁form
▁money
▁future
ld
▁B
▁My
▁sense
!
▁man
it
▁One
▁She
▁al
▁home
▁de
▁space
▁high
▁thinking
▁No
▁project
▁b
▁country
ment
▁picture
▁experience
▁old
▁guy
ur
▁computer
▁building
▁reason
▁small
▁four
▁liv
▁10
▁working
▁information
▁T
▁power
▁person
▁move
▁S
g
est
▁second
thing
▁children
▁per
▁always
▁whole
or
▁light
▁ever
▁20
▁E
▁real
▁done
▁women
▁live
ok
▁Bec
▁feel
▁understand
▁car
▁C
▁data
▁believe
▁become
▁too
en
▁un
#
▁cell
ween
▁kid
▁How
▁found
▁question
▁play
▁number
▁school
ally
ves
▁technology
▁again
▁water
out
▁sort
▁learn
▁bet
▁When
th
ers
▁next
be
▁long
▁system
▁brain
▁story
▁ago
ther
▁came
way
▁million
▁design
each
7
▁still
p
▁love
▁help
▁few
▁point
▁together
▁course
▁never
ation
▁better
▁off
▁able
▁before
▁example
▁big
▁might
▁him
▁bit
▁last
▁end
▁should
▁thought
▁Thank
on
▁after
▁important
▁let
▁re
▁create
▁turn
le
▁happen
o
▁why
other
c
w
▁find
▁year
▁own
body
▁fact
▁human
able
ic
▁made
▁well
ity
self
one
▁percent
▁ask
ce
h
▁place
▁day
▁great
▁part
▁three
▁doing
▁may
▁put
nt
▁If
▁try
ion
▁Well
▁problem
l
▁give
▁show
▁e
▁same
▁use
▁tell
▁being
▁mean
▁idea
▁down
day
▁good
▁her
▁through
▁does
▁There
▁Appl
▁change
▁around
in
▁different
▁A
▁many
▁new
▁♫
▁his
▁any
▁she
▁What
▁talk
▁even
.
▁life
▁most
a
▁thing
▁That
▁lot
al
▁back
▁come
▁little
▁got
▁kind
▁call
ll
▁sai
▁In
▁over
lso
▁two
▁He
▁first
▁than
▁work
▁much
▁something
▁say
▁right
▁start
▁no
▁take
hose
▁need
ause
▁make
been
▁Now
▁Laughte
▁where
▁did
▁things
▁years
▁way
▁now
▁don
▁will
▁every
▁could
▁into
▁t
er
▁other
ies
▁then
▁You
▁actual
▁here
▁go
▁world
▁has
▁time
▁Thi
▁want
▁which
▁who
▁really
▁how
▁look
▁their
▁get
▁your
▁would
▁think
▁were
▁he
▁because
▁some
▁had
▁more
▁when
es
ve
▁going
▁by
▁them
▁up
▁if
▁out
very
▁me
▁these
▁see
▁know
▁or
▁But
▁us
▁just
▁We
(
▁)
▁but
▁:
▁our
m
▁from
▁so
▁people
▁like
▁It
▁one
▁there
e
▁do
▁my
r
▁all
▁not
▁an
▁at
▁as
▁The
▁about
re
▁what
-
▁?
▁So
▁be
n
▁can
▁—
▁with
▁have
▁are
▁for
▁on
▁was
d
▁this
t
ly
▁And
▁we
▁you
▁it
▁is
ing
ed
▁
y
▁in
▁I
quot
▁that
▁and
▁of
▁a
apos
▁to
▁&
;
▁the
▁.
s
▁,
