<pad>
<unk>
<s>
<\s>
▁,
▁.
▁the
▁
s
▁to
'
▁of
▁a
▁and
▁that
▁"
▁I
y
▁in
ed
▁s
ing
▁is
▁it
▁you
▁we
ly
▁And
▁this
▁be
n
▁was
▁on
▁t
▁for
▁are
▁have
▁with
▁—
▁can
▁So
m
▁?
-
▁what
e
▁about
▁The
▁re
r
▁as
▁at
▁not
▁all
d
▁do
▁my
▁there
▁one
▁an
▁It
▁like
▁people
▁fro
▁so
▁our
▁:
en
▁but
▁)
(
▁We
▁just
▁us
▁But
▁or
▁see
▁these
▁out
very
▁me
▁if
▁them
▁know
▁m
▁up
▁by
▁going
es
▁when
▁more
▁had
er
▁because
▁he
▁were
▁think
▁would
t
▁get
▁some
▁who
▁their
▁look
▁how
▁ve
▁really
▁your
▁which
▁want
ies
▁time
▁Thi
▁world
▁has
▁go
▁You
▁here
▁actual
▁every
▁other
▁into
▁could
▁will
▁way
▁don
▁now
▁years
▁things
▁did
▁where
▁Laughte
▁Now
▁make
ause
▁need
▁take
▁start
▁right
aid
▁any
hose
▁say
▁no
▁something
▁much
▁work
▁two
▁first
▁than
▁over
▁call
lso
▁kind
▁got
▁little
▁In
▁back
▁lot
▁come
▁That
▁thing
▁most
▁life
▁even
st
▁day
▁talk
al
▁What
▁she
▁his
▁♫
▁new
▁many
in
▁different
▁d
around
▁change
▁Appl
▁There
▁does
▁through
▁her
▁good
▁down
▁A
h
▁being
a
day
▁He
▁human
▁idea
▁use
▁same
▁ll
ion
▁al
l
▁show
▁year
o
▁Well
▁problem
▁try
▁If
▁put
;
▁three
▁e
▁doing
▁great
▁part
▁place
thing
ic
ity
ce
▁tell
▁ask
one
▁percent
▁again
▁made
▁system
▁well
▁long
▁fact
▁give
▁own
w
▁find
le
▁why
other
▁happen
▁important
▁end
▁after
▁Thank
▁should
▁thought
▁let
c
▁S
▁last
went
▁off
▁him
▁might
▁000
▁big
▁before
▁example
▁able
▁better
▁high
▁point
self
▁never
▁together
▁course
▁help
▁few
▁love
▁bit
▁million
▁still
ation
7
▁design
ers
▁story
est
▁ago
each
▁brain
▁came
▁old
▁next
▁When
out
▁learn
▁water
ther
▁sort
▁school
▁technology
able
on
▁number
▁found
▁too
▁play
▁How
▁kid
▁question
▁cell
▁mean
th
tween
▁small
▁10
▁C
ves
▁become
▁believe
▁data
ok
▁car
▁understand
▁feel
▁20
▁turn
▁Bec
▁wom
▁real
▁live
ways
▁done
or
▁ever
▁power
▁create
▁whole
▁light
▁second
▁B
▁away
▁children
▁person
b
▁large
▁may
▁hard
ness
▁four
▁liv
▁un
▁E
us
ment
▁working
▁information
p
body
▁No
u
it
▁building
▁famil
▁computer
▁guy
▁picture
▁experience
▁means
▁country
▁dollar
k
▁thinking
▁reason
▁project
▁home
▁space
▁process
ld
▁She
▁man
▁sense
▁One
▁My
▁U
!
▁Her
▁future
▁form
▁money
▁health
▁moment
▁case
▁hand
▁mak
▁social
▁five
▁am
▁food
▁communit
▁planet
▁T
aybe
▁month
▁group
▁open
▁energ
nough
▁under
▁These
▁close
um
▁For
▁read
▁left
quite
re
▁times
▁To
▁interesting
▁billion
▁Wh
▁walk
▁develop
▁bring
▁getting
▁less
ch
▁Let
▁best
ever
ate
▁body
▁grow
▁de
▁young
▁simple
▁lives
▁face
▁animal
▁answer
▁creat
▁stuff
▁image
▁probabl
▁piece
▁move
▁matter
▁half
▁line
▁prett
▁seem
▁room
▁countr
▁possibl
▁coming
▁As
ist
most
▁build
▁200
an
▁Africa
▁job
▁hour
across
▁saw
▁allow
▁government
such
▁far
▁global
▁share
ar
▁All
▁Earth
▁week
ive
▁b
▁else
▁machine
▁complete
where
▁hav
▁science
g
▁set
ent
▁men
▁business
▁name
▁remember
▁ways
▁societ
▁side
▁care
ur
is
▁term
▁thousand
▁disease
▁makes
▁later
▁New
▁particular
el
ty
▁inside
as
▁age
il
▁bad
▁level
▁city
▁single
▁1
▁keep
▁happens
▁order
▁mov
ter
▁imagine
▁hope
▁amazing
ry
▁sure
▁girl
ta
▁often
▁minute
▁while
▁mind
eady
▁public
▁histor
▁per
▁cost
▁watch
▁nothing
▁interest
▁yet
▁figure
▁G
▁six
▁certain
▁student
▁alr
▁both
▁discover
z
▁beautiful
▁child
less
▁head
▁American
▁study
▁run
la
▁self
0
▁test
▁top
ten
▁patient
▁exact
▁100
▁whe
▁book
▁wrong
▁ra
▁game
▁saying
▁heart
▁Do
▁land
i
▁F
▁lead
once
▁control
▁stop
▁hundred
▁30
▁material
▁video
▁individual
▁fast
f
▁50
[
▁heard
▁challenge
▁result
]
▁market
▁buil
▁war
▁D
▁final
▁art
bility
▁entire
▁plant
▁difference
▁deep
▁couple
▁basically
cy
▁Some
▁past
gan
▁true
▁environment
▁full
▁centur
▁Internet
▁value
▁P
▁unti
age
taking
▁words
▁issue
ian
▁M
▁happening
▁model
▁research
▁Unit
▁night
▁pe
▁nature
▁sound
▁On
▁Every
ia
▁works
▁phone
▁speci
▁pay
▁though
ally
▁view
▁language
▁Or
▁quick
▁friends
▁must
▁follow
came
▁since
▁woman
▁house
▁decided
▁eat
▁leave
▁free
▁hear
▁huge
▁universe
▁bas
▁object
▁cancer
▁speak
▁spend
▁air
▁sometime
▁scale
’
▁team
▁kne
▁America
▁ocean
▁questions
▁education
▁natural
stead
▁stories
▁K
ant
▁black
▁color
▁force
company
msel
▁music
ous
ish
▁Oka
▁experiment
▁oursel
▁India
ri
▁network
▁culture
et
▁solution
▁bigge
▁States
rhaps
▁product
▁program
▁leas
▁economic
▁third
▁fly
▁w
ph
▁tree
▁15
▁state
man
▁opportunit
ol
▁realit
▁along
▁news
▁mother
▁di
▁word
▁An
▁structure
not
▁outside
▁pick
▁difficult
▁size
▁robot
ro
▁front
▁engineer
▁3
co
▁population
ac
▁God
▁2
▁choice
▁TED
▁Oh
▁field
▁middle
▁step
▁recent
▁co
ism
▁rule
po
li
▁exist
▁amount
▁compani
ary
▁drive
▁risk
▁focus
op
▁At
early
lo
▁listen
▁somebody
▁death
▁OK
▁learning
▁won
ut
▁scientist
▁seven
▁buy
▁gav
▁relationship
te
▁turns
▁device
▁act
▁common
▁econom
hind
▁pattern
▁poor
▁explain
v
▁support
▁fear
▁tri
am
▁citi
▁local
▁reach
▁realiz
iz
▁short
▁beginning
▁fish
▁dur
▁surface
▁feeling
ma
tra
D
▁wait
▁f
2
▁arm
▁safe
▁deal
▁o
▁Al
▁effect
▁happ
▁media
▁rest
▁parents
▁generation
ard
ling
▁behavior
▁physical
▁O
▁40
▁major
▁China
▁cause
▁fall
▁eyes
ci
5
▁sea
▁father
▁area
▁powerful
▁kill
▁p
▁fee
ory
▁protect
▁hands
▁low
ance
▁wonderful
▁York
▁easy
▁friend
▁political
▁movement
▁fight
▁decision
▁organization
▁eight
▁near
▁stay
▁save
ig
▁normal
▁teacher
▁simpl
itting
ated
ful
▁rate
▁paper
▁add
▁oil
em
▁begin
▁film
▁Our
▁center
▁blue
▁Right
▁travel
▁Yea
▁Just
ese
▁given
▁send
▁wall
▁born
▁map
▁DNA
felt
▁slow
ine
▁movie
▁yourself
▁red
▁die
▁N
▁known
▁growth
ither
ra
▁lost
▁personal
▁People
ir
▁total
land
▁hold
▁obvious
▁white
▁perfect
▁present
▁service
▁Yes
ul
▁absolute
ond
▁ground
▁gone
ne
credible
S
▁resource
▁key
un
▁treat
at
▁18
ie
▁source
▁technologi
▁action
ton
▁pass
▁shape
aught
▁access
Z
▁met
▁cut
▁blood
▁doctor
▁shows
alone
pa
pent
▁toward
▁stage
▁Mo
▁pro
▁record
▁green
▁con
up
▁extreme
▁increase
▁Can
▁complex
▁message
ill
▁clear
▁camera
▁fundamental
▁industr
▁areas
▁climate
▁average
rought
▁Not
▁expect
▁break
giving
▁cool
▁forward
▁impact
▁condition
tic
▁approach
ot
▁12
▁produce
▁factor
▁tin
▁consider
▁sign
▁25
▁potential
▁H
ver
▁g
▁photograph
▁Music
▁eye
▁train
▁innovation
▁60
▁essential
▁understanding
bo
▁pre
▁digital
▁pull
▁write
▁Go
▁realize
▁fire
ve
▁law
8
▁conversation
▁tools
▁J
▁literal
▁nice
▁Re
▁bottom
ware
▁dark
vi
▁books
9
▁CA
▁situation
▁attention
▁morning
to
▁African
▁sun
▁development
▁fun
▁ice
▁knowledge
mp
▁chang
▁leg
▁push
▁miles
▁specific
▁soft
▁L
▁page
rote
▁class
▁code
ster
▁worth
▁telling
olar
▁stand
▁forest
▁spread
▁touch
▁electric
▁chance
▁voice
▁memor
▁Europe
▁sudden
▁5
▁screen
▁solve
▁meet
▁artist
tion
▁11
▁general
▁19
▁non
x
▁direct
▁audience
▁special
▁raise
▁lab
ba
▁strong
▁wonder
▁late
▁runn
▁With
ting
▁truth
om
▁ex
▁serious
▁measure
▁hit
▁attack
▁studie
▁qualit
▁carbon
▁Mars
▁hospital
▁cover
▁plan
▁soon
▁affect
▁dream
▁thank
▁bar
▁putt
▁current
▁site
▁Google
ial
▁sit
ize
▁baby
▁dead
▁World
▁sex
special
▁availab
▁goal
▁son
▁modern
▁type
▁guess
▁rich
▁By
▁door
▁smart
M
▁easi
▁continue
1
▁box
▁track
▁among
▁clean
▁journey
▁main
▁W
4
▁wind
▁trust
▁speed
▁De
be
▁village
▁basic
▁period
▁block
▁involv
▁similar
▁neuron
▁role
he
▁dis
▁Ra
▁Bo
▁recognize
ip
▁conscious
ical
▁offer
E
▁represent
son
▁Where
▁success
▁Of
tro
▁Look
▁sell
ors
▁effective
▁star
▁several
▁Ma
▁democrac
▁song
▁medical
▁institution
▁region
id
ho
▁connect
▁nine
▁St
▁incredibly
▁gre
▁yes
▁usual
oc
▁collect
▁South
▁Who
ag
▁com
▁connection
▁Be
▁sounds
▁predict
P
ge
▁visual
▁haven
▁vision
ach
▁benefit
▁event
▁evidence
▁Ro
▁genetic
▁First
▁mine
▁wear
▁character
▁extraordinar
▁response
▁equal
▁fair
▁super
▁virus
bi
hi
online
C
im
▁flow
der
▁search
▁concept
ily
▁secret
▁perspective
▁sub
▁80
▁wish
na
more
Q
▁violen
▁designer
▁store
▁function
ga
▁scientific
▁hole
▁4
▁mass
▁waste
▁invent
▁degree
▁tend
▁require
pover
▁Dr
▁fund
▁transform
▁craz
▁Maybe
▁English
▁Me
▁foot
▁Don
▁road
▁lose
▁subject
▁teach
pe
▁After
▁securit
▁connected
▁table
▁skin
▁molecule
▁street
▁signal
▁list
side
▁R
▁stick
ang
av
▁evolution
▁count
ap
▁draw
▁provide
▁tru
ization
▁favorite
▁adult
▁price
▁successful
▁choose
▁Most
▁office
▁includ
▁aren
▁aware
▁join
▁ball
▁War
▁fill
▁national
▁worker
▁V
▁detail
▁suggest
▁onto
▁further
▁leaders
ti
▁park
▁carry
▁exciting
▁throw
▁drugs
T
▁produc
▁Man
▁zero
▁led
▁medicine
▁writing
▁Le
head
nt
lly
▁drug
▁traditional
ood
gen
3
▁nation
▁remain
▁Are
▁necessar
ber
▁finding
kay
▁colleague
I
▁letter
▁genes
R
▁position
▁fit
▁inspire
▁North
▁creative
▁Video
▁context
▁500
▁finish
▁card
▁treatment
▁immediate
ow
▁notice
▁accept
▁bacteria
▁conflict
▁agree
▁progress
standing
older
▁sent
▁Even
▁shift
▁depend
how
6
▁surprise
▁post
▁models
▁chemical
▁daughter
ating
▁lower
▁meant
▁Di
▁tool
▁link
va
▁bed
wife
▁fine
ure
▁college
stan
▁complicated
▁fuel
▁direction
con
▁religion
▁worse
▁fail
▁element
▁gas
▁meter
▁address
ke
▁appear
▁account
▁sleep
▁West
▁feed
▁version
▁publish
▁revolution
▁German
▁c
▁warm
▁90
▁la
▁visit
▁possibilit
▁return
▁check
▁positive
▁Japan
▁paint
▁eventual
X
▁increasing
▁inter
uc
▁manage
ck
▁communication
▁cris
▁architecture
▁practice
▁yea
▁cold
ious
▁painting
▁supposed
▁plastic
▁expert
▁launch
▁wor
▁Cha
▁male
▁floor
▁meeting
▁pressure
▁jump
▁task
▁bone
▁organism
B
▁range
▁brains
refore
▁standard
▁deliver
ide
▁interact
▁famous
▁earlie
▁cap
▁activity
▁boy
▁8
▁farm
▁shot
▁above
▁square
▁caus
▁afford
ni
▁rise
bu
▁mental
▁pain
▁invest
▁intelligence
▁biolog
▁income
▁female
▁saving
ative
▁unique
▁stars
▁press
▁drop
wa
▁relative
▁cr
▁excited
▁extra
▁impossibl
▁nobod
▁original
▁bunch
▁9
▁principle
▁micro
▁ultimate
▁ca
▁meaning
▁heat
▁prevent
▁compassion
▁enter
▁unit
▁please
▁indeed
▁text
O
▁propert
▁purpose
/
▁effort
▁galax
▁hot
ack
ug
▁creature
▁private
▁cheap
upon
▁virtual
▁ho
▁massive
▁policy
ble
▁content
▁happiness
▁weight
▁lesson
ium
▁critical
▁constant
▁respond
▁rain
▁hair
▁alive
▁apply
▁roll
▁remind
though
ect
nce
▁mention
ell
▁6
▁becom
by
▁16
▁enormous
▁decades
▁wide
▁tissue
▁dangerous
▁report
▁San
▁series
▁terribl
▁wild
G
magine
line
▁demand
▁environmental
▁expensive
▁photo
▁finger
▁freedom
▁target
▁sky
▁moral
▁compar
▁capital
▁mom
▁HIV
▁neighborhood
ator
▁beaut
▁writ
▁East
▁win
▁board
▁international
ps
ible
▁strange
▁bodie
▁path
▁blind
▁concern
▁enjoy
▁user
▁driv
▁respect
kept
▁brother
▁farmer
▁militar
▁training
▁worry
▁reading
▁bomb
di
ad
▁wave
▁corner
▁instance
▁vehicle
ick
▁21
▁fantastic
▁clearly
go
▁Chin
▁skills
▁stopp
▁La
▁genome
▁strateg
▁perform
ru
▁trial
▁humanit
▁police
▁protein
▁communicate
▁financial
▁performance
ll
ifi
▁insect
▁layer
▁define
▁14
▁cat
▁mobile
▁organ
▁Ho
da
▁199
▁emotion
▁production
▁Which
▁transport
▁consequence
ership
K
▁familiar
▁web
Two
▁surviv
▁24
▁remarkabl
▁climb
ship
▁significant
if
▁cross
▁flu
▁multi
▁spot
▁landscape
▁politic
▁notic
▁Con
▁brand
▁minds
▁slight
▁TV
▁technique
▁separate
▁Like
▁sustainabl
▁luck
▁physic
▁decide
ural
▁dot
▁atmosphere
▁dog
ca
▁neighbor
▁particle
▁fix
ically
▁types
▁career
▁river
▁trade
▁li
▁drink
spite
▁underst
▁Western
istic
art
▁investment
▁race
▁bio
▁stem
▁decade
▁peace
que
▁forget
▁willing
▁summer
▁seat
izing
▁wealth
▁gra
light
▁typical
▁pound
▁Universit
▁Many
cal
▁various
▁collective
▁vaccine
ka
▁interview
ab
▁double
▁Bu
nstead
▁cl
ise
▁bear
▁explore
▁emerg
▁Indian
▁mission
▁passion
▁temperature
▁sharing
▁damage
▁expand
aging
▁satellite
▁13
▁Your
▁London
▁Ne
▁urban
▁destroy
▁email
▁instrument
▁distance
▁sensor
ha
▁Think
▁Afghani
▁biological
▁City
▁random
▁apart
▁Pa
▁sister
▁grand
▁website
ograph
lin
▁survive
▁anyway
▁useful
▁nuclea
▁circle
▁Vi
▁radio
▁prison
▁town
▁Wi
▁laws
per
▁match
qui
▁bat
▁influence
▁Fa
▁plann
▁300
▁Ha
▁ran
▁solv
▁interaction
ite
▁efficient
▁cultural
▁none
▁net
▁catch
ak
A
▁da
▁describe
▁Take
io
▁express
▁Ri
▁emotional
fa
▁sequence
▁citizens
▁infrastructure
▁noise
▁edge
▁breath
▁trouble
▁capacity
▁birth
▁Mu
fin
▁mo
ture
▁controll
▁Chris
▁fold
▁streets
▁basi
tuck
▁smell
au
♪
▁scene
▁except
▁belief
▁provid
▁app
▁teaching
▁His
▁cook
▁dance
▁states
▁twi
▁forth
▁blow
▁universit
▁vi
▁honest
▁serve
▁cycle
ud
▁convince
men
▁charge
▁ha
▁failure
▁ant
▁mistake
▁Pe
L
▁promise
▁Second
▁improve
led
no
▁moon
ft
▁scar
▁professional
▁Ver
▁imagination
▁contact
▁sat
▁active
we
▁giant
▁speech
▁option
▁paid
▁surger
▁disappear
▁Thanks
▁gold
▁profound
pr
ep
lit
cur
▁careful
▁spin
▁consumer
▁John
▁organiz
▁rare
▁document
▁magic
ham
▁ancient
ja
▁Co
▁election
held
▁Great
▁sentence
▁lo
▁motion
▁below
ger
▁From
▁manufactur
▁Wom
▁earth
▁mess
▁rock
▁television
og
▁outcome
▁Ja
▁player
▁reduce
▁legal
water
▁math
▁identit
▁vast
▁cave
▁straight
▁limit
table
▁surprising
▁loss
ler
ah
▁manag
▁operation
▁br
wise
▁California
▁measur
▁argument
▁sp
▁Un
▁tough
▁print
▁beat
▁gain
▁camp
fu
▁muscle
▁evolved
▁supply
▁Am
▁central
▁commercial
▁gene
▁campaign
▁oh
▁hearing
▁method
▁popular
▁correct
▁spoke
▁airplane
▁Hu
way
▁achieve
▁missing
▁switch
▁babi
▁flight
▁slide
▁Muslim
▁radical
▁trip
▁sand
▁bag
▁contain
▁sick
▁plane
▁lack
▁border
▁afr
▁bough
▁feature
▁threat
▁receiv
▁mis
▁dad
▁European
▁ship
▁related
do
▁glass
▁desire
▁engag
▁component
▁sample
▁National
▁definition
▁mix
▁tumor
▁victim
▁complexit
▁station
▁birds
▁kilometer
chi
▁Ba
▁drawing
▁rough
▁balance
▁fr
▁Hey
▁Ka
▁coral
▁prove
▁chain
▁En
▁seed
▁Ta
▁trick
▁justice
▁oxygen
▁forever
▁creativ
▁Hi
▁Did
▁electronic
ock
▁aspect
▁cry
▁weapon
▁continent
▁k
▁tremendous
▁Actua
▁flower
▁shock
▁Li
ley
▁boat
▁unfortunate
▁claim
log
rus
▁fashion
▁coffee
▁pair
▁dimension
▁core
F
bra
▁background
ward
▁responsibility
ual
▁mouth
▁David
▁bank
ped
▁imp
▁fl
▁More
▁monkey
▁strength
▁Over
▁notion
W
▁Audience
▁Y
▁researcher
▁application
ility
▁avoid
eath
gra
▁platform
▁extend
▁rapid
▁quote
val
▁cu
▁estimate
▁Brit
▁accident
▁j
▁Good
▁bridge
▁adopt
▁soldier
▁labor
▁bi
▁reaction
▁mountain
▁batter
▁mechanism
▁gap
▁malaria
▁window
▁detect
ose
▁base
▁pop
▁funny
▁members
▁party
▁colon
▁vers
car
▁hopeful
▁Any
ju
▁civilization
▁Have
ex
▁reward
▁remote
▁profit
uff
▁corrupt
▁wood
▁odd
▁Facebook
▁exercise
▁See
▁describ
H
▁industrial
▁algorithm
▁Arab
▁alternative
▁broken
ode
▁Asia
▁sum
▁chair
▁island
▁continu
▁dramatic
▁advantage
▁crime
▁Again
▁refugee
orrow
▁ecosystem
▁reflect
▁Col
ng
▁adapt
▁holding
▁rid
▁technical
▁burn
▁encourage
▁diversit
▁Mi
▁magazine
▁graph
▁sector
▁husband
▁motor
mber
$
ner
▁400
▁transformation
▁soil
▁recover
▁sold
▁poll
Ex
ik
tor
pt
▁gender
▁include
▁poet
▁root
▁etc
▁hack
▁150
ff
▁creation
▁opposite
▁article
▁resistan
▁faith
▁dynamic
ua
lic
▁religious
▁engage
▁childhood
care
▁th
▁conference
ou
▁bread
V
▁Sometime
▁bottle
▁carri
ake
▁attempt
▁ray
▁Po
▁Art
und
▁curve
erson
▁master
ari
▁miss
▁reveal
▁artificial
ier
▁symbol
▁stress
▁Ca
▁previous
▁anti
ero
ice
▁traffic
▁arriv
fer
▁boys
▁succeed
▁fossil
uck
▁desert
▁French
▁architect
▁worri
▁yellow
▁phenomeno
night
▁invit
▁Ju
▁president
▁sad
▁breast
▁suit
▁govern
▁hum
▁struggle
▁regular
▁identify
▁198
▁Thre
▁due
▁driver
▁hero
ai
▁Kenya
▁Would
ana
▁civil
▁flat
▁hurt
▁Iraq
▁competition
▁photos
▁Web
▁responsibl
▁crowd
N
▁location
▁click
▁orbit
▁dimensional
▁foreign
▁vote
▁tradition
▁newspaper
ology
▁circuit
▁spirit
kin
▁analys
▁invisibl
▁organic
▁CO
▁AIDS
▁bus
▁occurr
▁Big
▁Sa
▁zone
ong
▁negative
time
gg
▁Bill
▁Bi
har
▁pl
▁enable
▁Pro
▁Sun
▁universal
▁cent
▁coast
▁era
▁perception
ford
▁hate
▁wing
▁suffer
▁museum
▁metaphor
▁dinosaur
▁immun
▁Car
▁engine
▁fascinating
bel
▁chose
▁limited
▁proud
▁metal
▁knowing
▁Twitter
the
ification
▁collapse
▁multiple
▁epidemic
▁Life
▁mathematic
let
cha
▁bright
▁Che
▁weird
▁bird
▁broad
▁spaces
▁politician
▁garden
▁dreams
▁trillion
▁gather
▁Ab
▁Brazil
▁display
▁hop
▁Mr
▁quant
▁suffering
▁operat
▁dozen
▁meat
▁interface
▁stream
▁shark
▁round
▁generate
▁insight
▁joy
▁Gra
▁advanc
▁sexual
▁lay
▁copy
▁mothers
00
▁independent
▁0
j
▁classroom
ade
▁skill
▁gift
▁fell
▁whom
ev
▁belong
▁lock
▁frame
▁expression
orry
▁emission
▁calling
▁dress
▁row
▁grass
▁fresh
▁taste
▁grandmother
▁cloud
▁balloon
▁chip
dor
etic
fi
▁equation
▁tens
▁homes
▁existence
▁score
tu
▁Na
▁stoo
▁proper
▁distribut
▁quarter
▁Th
▁depression
▁marrie
wood
▁Te
▁patent
▁bubble
▁argue
ably
▁release
▁honor
▁equivalent
▁variet
▁pack
▁names
▁earn
▁fac
▁Lin
▁narrative
▁pig
▁US
board
▁ride
▁budget
▁ma
▁ring
▁coal
af
▁comment
▁curious
▁grade
▁grown
▁tail
▁Sp
▁truck
ches
▁occur
▁compare
▁mouse
▁ancestor
▁comput
▁professor
fish
▁crash
▁wire
▁tech
▁mark
▁Ph
▁bits
▁parent
▁cure
▁fellow
▁error
▁Lo
▁marriage
▁lung
port
▁customer
▁evolutionar
▁shop
▁foundation
▁explor
▁GDP
▁elephant
▁precise
▁fat
▁date
▁band
gua
▁employee
▁restaurant
▁disorder
▁applie
▁pal
▁hidden
daily
▁leader
llo
▁Does
▁opening
▁dinner
▁Could
▁debate
▁channel
▁opinion
▁mile
▁float
▁clip
van
▁litera
▁agricultur
ile
▁generat
▁categor
▁Ga
wide
ping
▁abstract
▁invention
zz
▁Jo
▁quiet
▁nervous
▁unlike
▁novel
▁El
▁Paul
▁dive
▁attract
work
▁lifetime
▁scan
▁leaving
▁statistic
▁cartoon
dom
▁emergenc
▁mortal
▁ideal
rising
▁Come
▁brief
gram
iv
▁chemistr
q
▁Ru
▁command
▁Their
▁Nigeria
▁shapes
▁wake
▁topic
▁weather
▁mid
▁fourth
ull
▁stone
▁dry
▁lift
▁chart
▁volume
▁injur
▁atom
ologist
▁Su
▁Last
▁discuss
▁receive
lan
▁puzzle
▁season
▁therap
▁trans
▁infect
set
▁contract
▁extract
▁advance
▁para
sis
▁nurse
▁brilliant
▁gun
▁agenc
▁member
▁note
▁mirror
▁sight
▁cognitive
▁integrat
▁survey
▁capture
▁introduc
▁surround
▁hell
▁wisdom
▁shoes
▁George
▁string
▁Dan
▁diet
▁intelligent
▁court
▁los
hu
▁soul
▁load
▁Bar
over
▁construct
▁Other
▁silk
▁collection
▁sugar
▁discussion
▁establish
app
▁volunteer
▁robotic
▁tape
▁origin
▁doubt
iddle
▁electrical
▁lunch
▁south
▁snow
▁combination
▁Darwin
▁construction
▁fiber
▁recycl
▁empower
ox
▁credit
▁roof
▁judge
mark
▁fi
▁medium
▁por
▁practical
▁peer
▁loud
ina
▁broke
▁writer
nna
▁librar
▁voices
MS
▁terrorist
▁inform
▁wheel
▁clinic
oid
▁improv
▁cutting
▁Since
▁myster
▁speaker
▁Har
▁button
▁disc
▁II
ult
▁battle
▁neuro
▁empath
▁King
▁killing
▁dealing
▁35
▁2000
▁chicken
▁Times
▁pocket
▁mammal
▁mathematical
▁disaster
▁melt
▁initial
▁host
▁conduct
▁Ar
▁protection
▁intellectual
▁seek
ctor
▁inner
▁associat
▁Washing
▁France
ib
▁liquid
ov
▁pen
▁transition
▁heavy
▁importan
▁partner
▁authorit
▁input
▁plate
▁printing
▁convert
▁Einstein
▁Mexic
▁undern
▁addition
▁grid
▁ordinar
▁bill
▁operate
▁Fe
▁swimm
▁setting
▁folks
▁clinical
▁programm
▁heads
▁99
▁ski
▁Street
▁exploration
▁silence
▁gay
▁Iran
▁Australia
▁determine
▁Da
▁spa
▁lies
▁participat
dge
▁facilit
▁historical
▁maintain
▁cow
off
▁rational
▁threaten
▁cru
▁official
▁variation
▁bees
▁feedback
▁capabilit
▁Se
▁involve
▁stock
▁rat
▁hide
▁laugh
form
ue
▁pump
ki
▁22
▁journalist
▁analog
▁scared
▁repair
▁accurate
▁alien
▁encounter
▁cup
▁remov
▁director
▁Yet
▁Jam
▁Richard
▁illness
▁mosquito
▁toilet
▁horse
▁vo
▁gravit
▁arts
▁telescope
▁section
▁equip
▁pleasure
▁Mc
ung
▁releas
▁Ten
▁stupid
▁protest
▁plus
▁achiev
ett
▁dolphin
▁grain
▁conclusion
▁explanation
▁valuable
▁spectrum
▁Will
▁criminal
pp
▁Pi
▁peak
▁kick
▁Sam
PS
▁distribution
600
ulate
▁tour
▁lu
▁joke
▁yester
▁thin
▁awesome
▁Tom
▁Harv
▁steel
▁statement
▁economist
▁escape
▁enem
▁violent
ore
ome
▁hydrogen
▁prize
▁surgeon
▁tear
▁visibl
▁definite
▁Ben
▁resolution
▁conservation
▁sweet
▁replace
▁Israel
▁assumption
ional
▁height
▁smile
▁evolve
▁implication
▁prime
▁inspiration
▁keeps
▁empty
▁teeth
▁Charles
▁awful
▁bias
▁Stan
▁crop
▁blog
▁confront
▁expos
▁videos
arrow
▁Francisc
▁graphic
▁pure
▁bin
▁Ya
▁recording
▁privilege
▁primar
▁fan
▁forgot
za
pit
▁hang
▁priva
utism
▁knee
▁tube
▁north
▁consumption
▁Five
▁combin
▁introduce
▁style
rtex
▁MIT
▁witness
and
▁NASA
verse
▁shoot
▁stranger
ied
▁partners
▁graduate
▁assembl
right
Tube
▁Brita
▁title
▁relate
▁actor
▁democratic
▁lady
▁Atlant
▁kitchen
▁Institute
▁physicist
▁crack
▁lie
▁reference
aking
▁heal
▁23
▁Four
▁gentlem
▁filter
▁comfortabl
▁terroris
▁drone
▁label
▁talent
▁employ
▁bike
▁counter
▁technological
▁laborator
▁length
▁deserve
▁hat
▁sides
▁Ed
▁apartment
▁Island
▁symmetr
▁rhythm
▁Com
▁winter
ight
▁reduc
▁Congress
▁icon
▁lawyer
▁Canad
cle
▁Ah
▁May
▁studio
▁reef
ino
▁bond
▁Center
▁author
▁harvest
▁activit
▁circumstance
▁concrete
▁grant
▁theater
tial
▁according
▁pilot
▁harm
▁pr
▁Pleas
▁molecular
▁client
▁Rob
▁lens
▁Bank
▁passionate
▁shoulder
▁zoom
▁Ge
▁swim
▁expectation
▁logic
▁President
▁infection
▁exchange
▁entertain
▁prediction
▁regard
▁status
ath
▁reform
▁vulnerabl
▁infinite
▁grandfather
▁deploy
▁prototype
▁Ki
▁plot
▁45
▁Sh
▁ob
▁Islam
▁roads
▁dense
▁Final
▁attach
▁Los
▁suck
▁assume
▁divide
▁Lad
cer
lf
▁fiction
▁tall
arch
▁fruit
▁firm
ux
▁observation
▁danger
▁iPhone
▁nest
▁radiation
▁dirt
jo
▁Angel
▁internal
▁vot
▁activist
▁2010
▁Michael
é
▁vessel
▁false
▁automatic
ney
▁droppe
▁mountains
▁spring
met
▁Sea
▁bet
ati
▁par
hood
▁Real
▁Wow
U
spect
lew
▁sheet
▁severe
▁tax
▁habit
▁jail
▁participate
▁School
▁handle
▁biologist
bar
▁iron
▁react
▁Pacific
ank
▁symptom
▁needle
▁loop
▁Park
▁challeng
▁thick
▁danc
▁rocket
▁shirt
▁select
gar
▁England
▁Frank
▁194
▁secure
▁relevant
▁Ke
▁innovative
▁prefer
▁productive
50
▁solid
▁king
▁illusion
ging
udi
▁clock
▁ear
▁Day
ground
ez
▁fortunate
▁confiden
▁reverse
▁unusual
▁boundar
▁obes
▁hunt
▁bla
▁mechanical
▁cart
▁Part
tical
▁Thom
▁inevitabl
▁myth
▁church
▁Si
▁paradigm
surance
▁former
like
▁tea
▁hotel
▁breathe
▁demo
▁attend
▁illegal
uri
▁unknown
▁Talk
▁pin
▁efficienc
bell
▁busy
▁implement
▁pool
▁habitat
▁magnetic
▁advice
▁remove
▁hall
▁teenager
▁advertis
▁staff
▁drill
▁Green
▁Whil
▁agent
▁Anyway
▁spider
▁clever
▁admit
▁auto
▁behave
▁Bang
▁appropriate
▁aim
stone
▁oppos
bal
▁pour
▁angle
▁wine
▁Get
▁sensitive
▁split
heimer
▁ritual
▁ingredient
▁nose
▁poem
▁polic
▁Give
▁improvement
▁pollution
▁Air
▁dedicat
▁observ
▁personalit
▁panel
▁raw
▁laptop
▁stretch
▁embrace
▁Pakistan
▁clothes
▁collaboration
▁Also
▁poster
▁announc
och
▁accelerat
▁disabilit
lock
▁password
▁Obama
▁upper
▁boxe
▁domestic
▁fabric
▁Christian
▁1990
▁Health
▁Fl
▁trend
▁sail
▁sophisticate
▁Per
▁sphere
▁wash
implicit
ris
▁educat
▁beach
col
room
▁pregnan
▁Cal
▁storm
▁phrase
▁Russia
▁finance
▁pill
ax
▁dogs
hor
▁rush
▁Amazon
▁file
▁penguin
▁September
▁instant
▁shut
▁Science
▁flag
▁196
tric
wi
well
▁monitor
▁frequenc
▁apparent
▁contribut
▁script
▁repeat
▁tip
▁favor
▁Wal
▁vertical
▁sculpture
▁boring
▁humor
tude
▁1960
ko
▁continuous
▁absorb
▁Star
▁permanent
back
▁enabl
▁cast
▁obsess
cro
▁sustainab
▁greenhouse
▁fascinat
▁mere
▁nerve
▁instruction
▁nor
▁65
▁Space
▁feeding
▁destructi
▁frustrat
▁lecture
▁pile
▁Swede
▁unexpected
▁rescue
▁stronger
▁cheat
▁grab
▁predator
▁Number
▁frank
▁Cam
▁meaningful
▁animation
▁proof
▁percentage
▁captur
▁microscope
▁abuse
▁wireless
▁State
gro
▁rap
▁Valle
▁tag
▁elder
aker
▁flie
ura
than
▁rocks
▁depth
▁musical
▁Human
▁chimpanzee
▁appreciate
▁1980
▁exhibition
▁thumb
▁weigh
▁citizen
▁framework
ilicon
sha
▁kit
elve
▁Adam
▁cord
▁portrait
▁commitment
▁burning
▁pit
▁Black
▁emerge
SA
▁contrast
iness
▁department
▁attitude
▁tank
▁owner
▁gut
▁struggl
▁High
▁trace
ought
▁brave
rice
▁sustain
▁inequalit
▁horribl
▁committ
ories
han
▁barrier
▁regime
▁Antarctic
▁download
▁mode
▁weak
cut
▁consum
▁license
▁officer
▁curiosit
▁exploit
11
▁elect
▁arrest
▁musician
efore
▁geo
▁flash
▁photographer
▁Steve
▁Mad
▁review
▁objective
▁Dea
▁decline
unk
▁implant
▁regret
▁tap
▁polio
▁backward
▁exten
▁asset
berg
▁presentation
▁organize
▁evil
▁CEO
▁Girl
▁eggs
▁thanks
▁flood
ular
▁wondered
▁physician
nfortunate
▁pot
▁meal
▁Apple
▁interactive
▁Centr
▁exponential
▁meme
▁whales
▁bicycle
▁Latin
vin
▁globe
▁Arm
▁install
▁laser
gh
ttle
matic
▁prepared
▁steal
▁ignore
▁cyber
▁Project
▁invite
▁academic
▁gray
ami
▁mathematician
▁cluster
truck
hand
▁replac
▁footprint
▁Bost
▁correspond
▁exception
▁characteristic
▁simulation
▁Ku
▁defense
▁Jun
▁embarrass
▁combine
▁milk
iff
▁fisher
▁angr
▁pitch
▁item
ret
▁route
▁Pan
▁minister
▁painful
▁crucial
▁bug
▁transplant
▁divers
rous
▁refer
▁afternoon
▁silent
▁Sha
our
▁Voice
▁January
itch
▁mentor
oxide
▁youth
▁lion
▁Count
mine
▁entrepreneurs
▁densit
▁Paris
&
▁selection
▁educational
▁Min
▁contribute
▁shadow
rew
▁Egypt
▁leap
▁cloth
▁sports
▁depress
▁cable
▁classic
▁adventure
▁Cor
▁Pat
▁cooperat
▁compos
▁mal
▁ugl
▁behavioral
▁div
erial
▁skull
rey
▁boil
▁orange
▁phase
ire
▁divid
▁authentic
▁Bas
▁fake
▁Cla
▁Rememb
▁blame
▁pet
▁complain
▁Higgs
▁intervention
▁dominat
▁golf
▁liberal
▁Grand
▁limb
▁electron
▁impos
▁Mary
▁skeleton
▁Act
▁froze
▁defend
put
ether
▁reject
▁elite
▁Tru
▁magnet
▁overall
ini
▁DH
▁Red
▁parallel
▁Chicago
▁database
▁motivat
▁telephone
▁isolat
▁ears
▁east
▁bend
▁raising
▁lad
▁buck
▁lifestyle
▁mimic
▁Dur
▁boom
▁seal
▁Sahara
▁consume
▁worm
▁Gold
town
▁headline
▁Greek
what
▁Christmas
▁barel
▁accessibl
ature
▁Tu
▁pretend
▁desperate
▁productivit
▁shame
▁printer
▁spiritual
▁mail
▁chest
▁axis
▁prisoner
▁Du
ibility
▁killer
urveillance
▁stepp
▁shell
▁simulat
▁presence
▁sanit
▁knock
▁observe
▁explosion
▁boo
▁whale
BM
▁revenue
▁intention
dec
▁comfort
▁column
ella
▁Kan
▁recognition
▁Museum
▁entrepreneur
▁corporate
▁orchestra
▁Pole
ani
▁drove
12
▁confuse
▁prop
▁dig
▁representation
▁Del
▁psychological
atic
▁acid
▁ultra
▁measurement
mbo
▁fluid
▁conventional
zo
all
▁reported
▁Lu
urg
▁hungr
▁suicide
▁clouds
cus
burg
▁motivation
▁illustrate
▁appeal
▁highway
▁embedded
▁Blue
▁Russian
▁coin
▁airport
▁House
▁obstacle
▁affair
▁club
▁session
▁Scott
▁subtle
▁reconstruct
▁microbe
gi
▁hill
▁Make
▁Bra
▁Far
▁diabet
▁breed
▁diagram
▁Turk
▁philosoph
▁mice
▁diploma
▁settl
▁distant
▁fixed
xi
▁argu
▁wi
▁Boy
▁scenario
lash
▁accomplish
▁celebrate
▁32
▁edit
▁pink
▁murder
▁Korea
point
▁PM
▁craft
▁pace
▁request
▁drag
▁Global
▁passenger
▁consistent
▁sil
▁tuna
▁International
▁im
gal
▁Martin
▁proportion
▁trigger
▁chao
▁shall
▁hook
fall
vill
▁earthquake
▁hunger
▁Sal
▁Wall
▁polar
esis
▁magni
▁optimistic
▁experienc
▁corporation
▁manager
▁wound
▁medication
▁smok
▁trait
▁acquir
▁identical
▁radi
▁transfer
▁vital
▁suspect
▁Jim
▁chromosome
▁excite
▁capitalis
▁BF
▁loan
▁procedure
gon
▁discipline
▁Six
▁candidate
▁antibiotic
▁dust
▁pad
▁shipp
▁debt
▁overcome
▁afterward
▁diagnos
▁whi
▁cute
▁disrupt
▁arrive
▁household
▁Peter
▁ought
▁desk
▁stack
▁fifth
▁apple
▁narrow
▁tight
▁glacier
▁liver
▁hip
▁1950
az
▁Nothing
▁Super
▁extinction
▁utter
▁identifi
▁choos
▁mate
▁boss
▁plent
▁prosper
▁compound
▁guns
▁miracle
▁accumulat
▁intense
▁marine
▁ensure
▁incentives
MA
▁brown
▁rainforest
▁Fi
▁pyramid
▁BG
▁NGO
▁scratch
▁Holly
bot
atur
▁Ox
▁Kar
▁Mom
▁stands
▁anger
▁Tri
▁flip
tz
▁imag
▁terrifi
▁pan
house
▁judgment
▁vegetable
▁toxic
ulation
▁domain
▁genius
▁beside
▁cash
▁birthday
▁strip
▁output
gel
▁windows
▁psycholog
▁mask
▁rating
▁ill
▁wise
▁gate
onic
▁Sch
▁preserv
▁guide
▁autonomous
▁uncomfortabl
▁sweat
▁Next
▁Olympic
▁description
▁happie
▁permission
▁demographic
▁Haiti
▁irre
▁corn
▁nutrient
itarian
▁replicat
▁Wikipedia
bola
▁Foundation
tan
obi
▁800
gun
▁ridiculous
▁achievement
▁mechanic
▁functional
▁intuition
▁conservative
▁heaven
▁trie
▁imagin
▁guilt
▁priorit
▁recruit
▁clue
▁translate
▁twin
▁magical
ole
▁Law
▁wage
▁examin
▁River
▁incident
▁probabilit
▁piano
▁transparen
▁asteroid
bit
▁mutation
▁Ni
▁expedition
▁coat
▁optimis
▁dialogue
▁Was
▁reduction
while
▁demonstration
ek
▁confident
some
gur
▁concert
▁tired
ix
cher
▁scann
▁alarm
▁mini
long
▁abandon
ivity
▁ceiling
▁mad
▁activat
▁additional
life
▁capita
▁Ocean
▁legac
▁Bob
▁recommend
▁aircraft
asically
▁comet
▁Free
▁courage
▁Uganda
▁strand
▁Ven
▁smoke
▁hanging
▁bother
▁essence
▁fabulous
glo
▁football
▁wir
▁infant
▁faci
▁spec
▁traged
▁Robert
▁Pri
▁mushroom
▁sens
▁Revolution
▁promote
▁underly
▁suppose
PR
▁Nature
▁Spa
▁extinct
▁biodivers
▁controvers
▁disagree
box
▁northern
▁nei
▁Mac
▁33
▁locat
▁lake
▁fragil
▁conc
▁pray
▁yield
▁tunnel
▁distinct
kind
▁adjust
▁resident
▁neural
▁shake
▁degrad
▁slum
▁repeated
▁smartphone
▁Israeli
▁leverage
▁agenda
▁relations
▁engagement
▁ticket
▁120
▁grave
▁inventor
▁charit
▁Miss
▁sacrifice
▁comparison
▁linear
▁Octo
born
▁quo
▁shooting
▁mold
▁kiss
▁dignit
▁cop
▁laid
▁southern
▁addict
▁geograph
ridge
▁White
cellular
▁pioneer
▁pulse
▁bound
▁Yorker
▁inspiring
▁fool
▁renewable
▁decrease
▁slice
▁van
read
▁Prize
▁jam
▁bind
gging
▁supplie
▁Tell
▁Texa
▁intuitive
▁synthetic
▁rent
pper
bul
▁analyz
▁indicate
▁qua
▁smooth
▁Rwanda
rctic
▁cousin
▁primari
▁array
▁sales
▁advis
▁conclude
▁Manhattan
▁external
▁salt
▁shin
▁calculate
flu
▁fulfill
▁hyper
▁Ghana
▁partnership
bil
▁Mother
load
▁figur
▁marker
uary
▁Congo
▁fed
lime
▁pie
▁Love
▁alter
▁tick
▁simultaneous
▁dependent
hildren
▁Technolog
▁Gi
▁opera
▁Narrat
▁cri
BI
▁mindset
▁sacred
▁sharp
BC
▁Rome
▁stunt
▁regulation
▁demonstrate
▁eradicat
▁helicopter
▁95
▁bulb
▁ethical
▁surrounding
▁graduat
▁flexibl
▁appreciat
ugg
▁profile
▁spark
▁immense
▁interpret
▁norm
▁terror
▁stroke
▁breakthrough
ndeed
▁perceive
▁bump
▁artistic
roll
can
▁psychologist
▁slaver
▁chocolate
▁paradox
▁initiative
▁transmission
▁neat
▁Nation
pend
ough
▁Age
▁fraction
bble
▁William
▁naked
▁fragment
▁sketch
▁unbelievabl
▁slides
children
▁burst
▁jelly
▁garbage
▁dump
▁dial
▁editor
▁hous
▁Titan
bridge
▁slave
▁banks
▁compet
EC
▁institutional
▁Lab
▁Tim
▁ecological
▁recipe
ula
▁Up
▁disabl
▁strike
▁compete
▁lane
▁anxiet
▁Gene
▁transmitt
pping
▁mat
▁bang
▁calculation
▁rebuild
▁poison
▁assum
▁uncle
▁excellen
▁classe
▁quit
▁guarantee
▁constraint
▁signature
▁anatom
ological
▁shout
▁aesthetic
▁makers
stair
▁Turn
▁inject
▁Never
▁tower
▁federal
▁peaceful
▁node
oscop
▁Bay
RIS
▁SS
▁tension
▁hire
▁ratio
▁amaz
▁26
▁Net
▁limitation
▁render
▁reserve
▁char
▁lean
▁disappoint
▁unclear
▁feminist
▁march
▁celebrat
▁fur
▁Time
ith
▁Pre
▁winner
bro
▁bull
▁trauma
15
▁resist
of
place
▁philosopher
▁min
▁accus
▁Trans
▁highlight
are
▁systematic
▁chapter
▁pole
▁Research
▁yard
▁installation
ois
▁currenc
RB
▁jihad
▁analyze
thermal
▁leak
▁Tra
▁28
▁spectacular
▁creator
▁borrow
▁abilit
▁joint
▁dancer
▁Ken
▁Ala
▁glamor
▁audio
▁branch
▁Egyptian
▁Italian
▁philanthrop
▁trends
▁advocate
▁Friday
▁Mal
▁Unti
▁Dad
▁tackle
▁athlete
▁vacation
▁ignor
▁Jesu
▁lett
▁Seven
▁hir
▁gesture
▁palm
▁translat
▁transparent
▁determin
▁neuroscience
▁primitive
▁bored
▁till
▁Through
▁Design
▁stor
▁metha
▁hormone
▁robust
▁retina
▁Dere
▁prepare
▁ban
▁condom
ali
▁marry
▁fanc
▁Put
▁crew
▁mayor
▁propos
▁195
▁Home
▁computation
▁Mar
▁damn
▁chief
▁combat
▁replicate
▁textbook
▁Back
▁occasional
▁contemporar
lace
lihood
▁export
▁pharmaceutical
▁cheese
▁quad
▁queen
▁Span
▁flavor
▁copyright
▁origami
hold
▁reliabl
▁via
AR
▁formal
▁plain
▁intend
▁dish
▁crush
▁exhaust
▁bold
tangible
▁passive
▁snake
▁tweet
▁Cap
▁alcohol
▁Bush
▁format
stock
lus
▁winning
▁competitive
▁district
▁specializ
uke
▁Soviet
▁destin
▁stimulat
drew
▁communicat
▁pigeon
zi
▁pur
▁structural
▁disconnect
▁senior
▁expansion
uction
▁burden
rry
▁Moon
▁trajector
ump
▁Child
▁mono
▁rotate
▁pause
▁galler
▁darkness
▁viral
▁trash
▁variable
▁sensation
▁migrat
oto
▁failing
▁assignment
▁hitt
▁psycho
▁ruin
▁gradual
▁coordinat
▁broadcast
▁inherent
▁investor
▁ecolog
▁Afghan
▁Northern
▁confirm
▁crystal
▁Alexand
▁coach
▁calculat
▁shopp
▁survivor
▁bathroom
▁neck
▁prosthetic
▁stake
rid
▁routine
▁tele
BA
▁leaf
▁Gulf
▁Smith
▁personaliz
▁Mark
▁None
▁unprecedented
▁programmer
▁deaf
vity
▁Bible
▁freak
▁welcome
▁canop
▁screw
▁punch
▁Mag
ocin
▁Should
▁serving
▁August
gie
▁Sure
▁overwhelming
▁attribute
▁Ever
▁upset
▁trap
▁luxur
▁delight
▁Sir
▁collaborative
▁producer
active
▁electro
▁shore
▁perceiv
▁minim
▁glue
▁automat
▁garage
▁augment
▁gase
▁brick
▁projection
▁storytell
▁reflection
▁gear
▁spell
▁Mart
ection
▁gathering
▁bribe
▁Prince
▁pollinat
▁interior
▁electrode
▁healthie
row
▁profession
▁Matt
▁clar
▁sandwich
▁connectiv
▁extension
▁delivery
▁tie
▁donor
▁General
▁embrac
▁realm
▁relation
▁furniture
▁contribution
atomic
▁preserve
▁educate
▁Little
▁thrill
▁crossing
▁Shi
▁brutal
▁descend
▁determined
▁demonstrat
▁bullet
▁pant
▁navigate
▁Mov
J
▁sink
▁Jack
▁terrifying
▁hid
▁compell
▁restore
tine
▁automobile
▁hydro
▁pipe
▁tragic
rick
▁dear
▁stole
▁encrypt
▁Argentin
▁Kh
ifying
▁expectanc
▁shrink
▁washing
ruct
▁Long
▁jar
▁generous
▁typ
▁jet
▁subway
▁collaborator
▁shelter
▁Vietnam
▁venture
diac
▁primate
▁bow
▁defeat
▁propose
unch
▁Virgin
▁tsunami
▁panic
▁Mala
▁Third
▁intrigu
uch
▁bush
▁journal
▁LED
▁tricks
▁March
take
▁transcend
ji
▁Florid
▁dri
▁shit
▁whistle
▁agricultural
atrix
▁Pra
▁mapping
▁diagnosi
▁Microsoft
▁mineral
▁vibrat
▁burie
▁Hawaii
▁vacuum
▁paralyz
▁manual
▁Brun
▁deforest
▁scanner
ette
▁formula
▁oxy
▁grasp
▁representative
▁evaluat
▁Ethiopia
ark
▁85
▁Dece
▁merc
▁Saturn
▁twist
▁astonishing
▁ideolog
▁intersection
▁award
▁calorie
▁detector
▁patch
ssociation
▁Listen
▁Gar
▁romantic
▁excuse
▁urge
▁convey
▁laughing
▁nuts
▁declar
▁reinvent
▁Brown
uthern
▁upside
ference
▁Sorry
▁agreement
▁participant
▁Hall
▁wrist
▁Islamic
▁Asian
▁fence
▁equit
▁Tony
▁stabilit
▁dilemma
▁upload
▁grandparent
ata
▁Council
▁clay
▁neutral
▁ubiquitous
▁aspiration
▁utilit
▁Fift
▁recreat
▁36
▁plug
▁scholar
pox
▁triangle
▁weekend
▁Jer
▁register
▁logical
▁bizarre
▁annual
▁Port
▁cosm
▁thread
▁homeless
force
▁Febr
▁uniform
▁fate
ueen
▁Nick
▁pathway
▁Ti
▁experimental
ira
▁baseball
▁frequent
▁altitude
▁discriminat
▁Bol
▁tattoo
▁Marc
▁speculat
▁sheep
▁entit
▁Palestinian
▁Gates
▁vaccinat
▁192
▁refus
▁commission
▁barrel
▁probe
▁Gore
▁synthesiz
laughter
▁intensive
▁transmit
▁rank
▁transaction
▁drum
▁spill
▁bust
▁Men
▁portion
lov
▁forgive
▁align
▁rotat
▁reinforc
▁occasion
▁poly
▁rape
▁dat
▁inherit
▁exhibit
cat
▁Obvious
▁warning
▁vary
▁cotton
▁Va
▁tribes
▁endless
ada
▁imitat
▁Year
▁dose
▁translation
ball
▁native
▁clos
▁mysterious
▁kidney
▁civic
▁leather
▁lamp
▁Wa
venue
ound
▁package
▁theoretical
convenient
▁woke
▁spacecraft
▁Pal
▁wrapp
▁MRI
▁Gala
▁Taliban
▁Gandhi
▁Chile
▁genuine
▁glad
▁sponsor
▁homework
▁curriculum
▁hub
▁acknowledge
▁silver
▁chas
▁tortur
▁rope
▁diamond
▁promot
▁Walk
▁entry
▁Eastern
▁beating
▁Bell
▁Woo
▁devil
▁Pop
▁pandemic
▁Eric
▁retirement
▁wedding
▁monitoring
▁Kev
frontal
▁confine
▁nutrition
▁resolve
▁substance
▁gang
▁mud
▁investigat
▁guid
▁Jane
▁contradiction
▁retir
entropy
tasi
▁soap
▁minorit
▁believ
▁Open
▁wider
▁Henr
▁kilo
▁hierarch
▁celebrit
gentleman
shine
▁abus
grade
▁payment
▁persist
▁Out
▁displac
▁innocent
nia
▁starv
▁Bangladesh
▁induc
▁keyboard
▁cube
▁unconscious
ram
▁immers
▁commodit
▁tendenc
▁nano
▁crawl
▁aggressive
▁logg
▁Harr
▁Homo
▁vibration
awa
▁ooh
▁dough
▁ignoran
▁mobiliz
▁Moor
▁invad
▁compress
▁visualize
▁glow
▁Carl
▁knife
▁Hill
▁Fin
▁ripp
▁tun
▁mall
▁territor
▁quest
▁Michel
ulu
mart
▁interpretation
▁server
▁insist
▁Scr
▁ceremon
▁civilian
▁stomach
▁Jud
▁anonymous
▁29
▁enterprise
▁Eight
▁potato
ggle
▁collision
chang
▁spontaneous
▁encod
▁Jeff
▁bedroom
▁static
hur
wear
▁manner
▁lip
▁mood
▁germ
▁concentration
▁compromise
▁tribe
▁uncertaint
▁valley
▁schizophreni
▁millimeter
▁custom
▁Berli
▁dominant
▁detection
▁glasse
▁Christ
▁Minister
▁Square
▁supermarket
▁unlock
▁microphone
▁temporar
▁Citi
▁dawn
▁hunter
▁artwork
▁composition
▁helpful
▁relief
▁inhabit
▁racis
▁blend
▁Church
▁distinguish
▁Sunday
▁tune
▁gig
cho
▁junk
▁wrap
▁Fortun
▁maxim
▁frog
▁elevat
fold
▁Still
▁hypothesi
▁Shanghai
▁scaffold
ison
▁submit
▁sufficient
stream
▁prescription
▁immigrant
book
▁grateful
▁architectural
▁calm
▁Play
▁Profess
▁foster
▁AI
▁resilienc
▁Stage
▁wheelchair
▁comic
▁fusion
▁Leonard
▁Neanderthal
▁suggestion
▁awkward
▁inclusive
▁strain
▁dictionar
▁Newton
▁merg
▁evolv
▁marketplace
▁suspend
▁fault
▁System
▁Swi
▁consist
▁Comp
▁ironic
▁enhance
▁unfold
▁impressive
pinning
▁redefin
▁lap
bre
▁cake
ealand
▁Bab
▁hybrid
▁deliberate
▁crap
▁proven
▁elegant
▁nurtur
ropical
press
▁workplace
▁intimate
▁drunk
▁antenna
▁relax
▁astronomer
▁trapp
tta
▁harness
▁blindness
▁Sudden
▁default
▁developer
▁Seattl
▁intensit
▁computational
▁upward
▁documentar
▁Dutch
▁decorat
▁millennia
▁historic
▁conceiv
▁branche
▁2020
▁wandering
▁drought
TI
HC
▁gods
▁compassionate
▁strategic
ament
▁Coke
▁steer
▁sneaker
▁integrate
▁episode
aday
▁TEDTalk
▁Work
▁defi
▁harmon
▁jewel
acco
▁appearance
▁sculpt
ternet
▁Brad
▁Para
▁tongue
▁magnificent
▁reproduce
▁embryo
▁endur
▁Acc
ctur
▁principal
▁addiction
▁dispos
▁Absolute
▁Joe
▁contaminat
cca
▁UN
▁Department
▁statistical
▁blank
▁Korean
▁infectious
▁pathogen
▁Rock
▁Archi
ocation
▁canvas
▁Pol
▁execut
▁horizontal
uous
▁Detroit
▁goat
▁Yemen
▁spray
▁Parkinson
▁fantas
▁impression
▁SW
▁manuscript
▁foi
▁protocell
▁Redwood
▁troop
▁outbreak
▁dumb
estate
▁sidewalk
▁precious
▁requirement
▁arise
▁thrive
▁42
▁diameter
▁Eve
▁transistor
▁tale
lix
▁chronic
▁ongoing
▁Inter
▁dragg
▁singer
▁pride
▁Ell
▁verb
▁virtue
▁nerd
itz
▁pose
▁Jewish
▁texture
▁sport
nforcement
▁Edi
▁referr
▁insane
dia
ado
▁semi
▁carpet
▁striking
▁Jona
▁horizon
▁forecast
▁Mil
▁Monte
path
▁masse
▁encouraging
tub
▁Brian
▁drown
▁commit
▁overwhelm
▁mainstream
▁frustration
▁selfish
gli
▁unhapp
viv
▁flaw
xcept
▁toast
▁manipulate
width
▁libert
▁Josh
▁Court
▁Lester
▁ES
▁astronaut
▁naive
motive
▁geek
▁approache
▁phenomena
▁aggregate
▁operator
▁chimp
▁soup
▁membrane
▁lobby
▁Academ
▁Lord
▁Mill
▁executive
▁Koran
▁Accord
racing
▁assemble
▁pregnanc
▁Wait
▁independen
▁backyard
▁enzyme
▁teenage
▁rig
▁centimeter
▁loving
▁Van
▁Young
▁syndrome
▁fad
▁diagnostic
▁despair
▁erect
▁phenomenal
▁quantit
▁Stor
▁fortune
▁clon
▁pixel
▁subsid
▁minus
▁blogg
▁frontier
▁contrar
▁approve
▁exclusive
▁introduction
space
▁liberat
▁Singapore
▁deposit
▁wheat
▁iPod
▁accountabilit
▁Greenland
ept
▁chat
▁distort
▁glamo
▁Nel
▁oppress
▁Tanzania
▁attractive
▁cosmo
▁Aristot
▁Euro
▁pursuit
▁swing
▁fatal
▁whisper
▁concentrat
RA
▁straightforward
▁Way
▁ambitio
▁prayer
half
▁exam
▁criticiz
▁Twenty
▁assistan
cast
▁Sara
▁mari
▁delay
▁casual
word
14
▁depict
▁Sound
▁geometr
▁Tur
▁Stop
▁specialist
▁drift
▁mount
print
▁desktop
▁explod
▁hallucination
▁blink
▁duck
▁logo
away
▁Yo
▁suppress
▁Alex
▁Steven
▁cultivat
▁Democrat
sky
▁vent
▁RS
conduct
ergy
▁ego
▁parachute
▁Bel
▁tagg
▁Mountain
▁cod
▁segment
▁mutual
LT
▁conceptual
▁Social
▁ethic
▁acre
▁explorer
▁cruel
SD
▁excess
▁wo
▁formation
▁recogniz
▁approximate
▁configuration
▁punish
ollege
▁substantial
▁fertilizer
▁bacterial
▁Op
▁basketball
▁awake
▁Carolina
▁smil
hole
ola
▁Build
▁Lead
keep
blew
▁Lego
▁reporter
▁heavi
adequate
▁skelet
CD
▁chunk
▁hug
▁metric
▁Creat
▁grabb
▁Geographic
▁Half
▁retreat
▁moralit
▁Saudi
▁deck
flo
▁Try
▁navigat
▁trailer
▁EM
▁Coast
▁Compan
▁Julia
▁pigment
▁cellphone
sulin
▁Bali
▁illustration
▁350
▁chemist
▁wip
▁economical
▁pedestrian
▁kilogram
▁Johnson
▁Water
▁teache
Y
▁bench
▁contest
▁Hans
▁dut
▁digest
▁unemploy
▁Rather
▁trivial
▁triple
▁bamboo
fire
▁Camp
▁Watson
App
▁swallow
▁censor
▁warrior
cade
▁consult
▁Canadian
77
▁accelerate
▁cliff
▁optical
▁Media
▁recall
▁animat
▁Rose
▁impair
▁indoor
▁propell
coming
void
▁container
▁obtain
▁Terr
▁Syria
▁satisfy
tif
▁Moz
▁amateur
▁mapp
▁Shar
▁mild
▁cigarette
▁veteran
▁proceed
▁prepar
ubb
▁decid
▁preference
▁stamp
▁innovate
▁Republican
▁LG
▁regulate
▁threshold
▁refuse
▁impress
ima
▁associate
▁Gree
oline
▁initiat
▁org
▁refrigerator
▁drain
▁forbid
▁divorce
▁debri
osh
▁Beij
vil
▁exceed
▁dropping
▁blur
▁Had
▁gorgeous
▁Gui
▁filmmaker
▁Hope
▁proposition
▁optic
▁anticipat
▁endanger
▁chamber
▁declin
▁Bronx
▁rethink
▁Fra
iful
▁harmful
▁Medica
▁abundance
▁Laugh
▁volcano
▁warehouse
▁playful
▁useless
▁monster
▁nonviolen
▁sale
stage
▁Organization
culture
ogether
▁investigation
▁archive
flow
▁SP
berry
ibu
▁accent
▁purchase
▁incorporat
▁reactor
▁accura
▁193
▁Iranian
▁lotter
▁loose
▁Brother
▁Ham
▁preach
promising
▁girlfriend
▁downtown
▁reasonable
▁blade
▁Brookl
▁44
RN
▁presum
▁shy
▁Pretty
▁creep
▁proposal
tenance
▁taxe
▁mesh
nformation
▁tiger
eague
▁indigen
▁devote
▁arrang
▁pursue
▁egg
▁revolutionar
▁packag
▁tile
▁visualization
▁jaw
▁Nic
power
▁popp
▁sibling
▁bleed
▁legislati
▁banana
▁adaptation
▁incentive
cular
▁derive
▁partial
▁voter
▁democratiz
▁workshop
▁pond
▁parasite
▁Snow
▁scream
▁receptor
▁2030
▁summit
▁tomato
▁punishment
▁dependenc
▁redesign
▁Live
▁Disney
▁stigma
▁Telescope
▁iceberg
▁Securit
aba
spring
plankt
▁readers
▁regenerate
▁Rover
▁Spring
▁migration
▁assure
posed
▁explode
▁Mari
▁collaborate
▁chew
▁grocer
▁distract
▁eliminate
▁Albert
▁illuminat
▁November
▁Kid
▁Power
▁eliminat
▁infra
▁sperm
▁lonel
▁denial
▁Philip
▁instinct
▁numer
▁sixth
makers
▁possess
▁friendship
agne
▁bioluminescen
horn
▁ethnic
▁scheme
▁miserable
▁cooperate
▁converg
▁penetrat
▁graf
▁vulnerabilit
▁neuroscientist
▁synapse
▁artifact
▁PC
▁grip
▁lifespan
▁assist
▁delicio
▁pirate
▁cage
▁peculiar
▁shrimp
▁Secret
▁Mandel
ogue
▁council
▁Hav
oul
▁Apollo
▁ventilat
▁modest
▁congesti
▁nightmare
▁Peace
▁festival
▁occupy
▁devastating
▁Sad
▁Chi
▁Late
▁Fil
▁prostate
▁anticipate
ER
▁Bat
▁belt
▁envelope
▁reputation
▁blast
▁yoursel
▁division
▁nast
▁Thai
▁crab
▁rubber
▁tempo
▁myceli
▁acoustic
therland
▁assign
▁realization
▁calcul
▁lever
▁Penn
ique
scape
▁index
▁horror
▁Histor
▁rubb
▁uninten
▁flourish
▁abundant
▁pencil
▁remix
regulat
▁similarit
▁pizza
▁underestimat
▁Fund
▁absence
▁convict
▁penis
▁honey
▁shak
▁scrap
▁genocide
▁tribal
uk
▁titan
▁resembl
▁airline
▁precis
symmetrical
▁chef
▁insert
▁immortal
▁emphasize
▁chase
ndustrial
▁1900
▁Nan
▁wrestl
▁doodl
▁Kong
▁tapir
▁Libya
▁motivate
▁Happ
▁190
▁devastat
▁cosmolog
▁generic
▁cycl
▁blob
▁riot
▁Read
▁Mike
▁echo
▁intact
▁friction
▁pric
▁stunn
direct
▁mosque
▁glimpse
▁arrangement
▁analytic
▁morph
▁Lot
▁margin
▁Swa
▁translator
▁settlement
venge
▁Keep
▁orient
▁destination
▁rehabilitat
▁tenth
▁multiply
▁activate
▁tablet
GM
▁frightening
▁shoe
▁campus
▁injustice
▁protocol
▁administration
▁basement
eopard
▁heritage
▁Jordan
▁vivid
▁defining
witzer
▁passage
▁separation
▁flap
▁Nata
▁prospect
▁juice
▁Lake
lethal
▁empire
▁flesh
▁Sub
AG
▁Add
cock
oma
quat
▁Rand
▁criteri
▁manipulat
weight
▁Charli
▁valve
▁enthusias
▁tourist
▁brows
▁Kir
▁strict
▁multipli
▁odor
▁consensu
▁digitiz
▁kingdom
▁breakfast
▁trustworth
▁connectome
▁bann
▁negotiation
▁locomot
▁performer
▁helmet
▁nitrogen
▁transferr
▁harbor
▁reclaim
▁dar
AK
▁Indonesia
ymphon
▁sauce
▁storyteller
▁swo
▁slipp
▁armor
▁constrain
▁neo
▁manufacturer
▁polite
▁collar
▁disturbing
▁vocal
▁stimulation
▁toxin
▁pipeline
▁mandat
▁explicit
▁stereo
▁banker
▁bacteri
▁deni
▁Santa
▁dishe
▁Clinton
▁Roman
▁cope
▁annoy
▁journalis
▁Watch
▁900
▁Plan
▁Cat
▁Scot
▁priest
▁selective
violet
▁Tunisia
▁disgust
▁incarcerat
▁temple
▁helpless
▁Apri
▁genomic
DI
▁Ask
▁Earl
▁isolation
OL
▁Norden
▁1930
▁Cra
▁Iceland
▁digit
▁favela
▁prince
AL
LP
▁fuse
▁RNA
▁distinction
▁stagger
mination
▁retail
▁purpl
▁surgical
▁elaborate
▁gravitational
▁interven
▁Business
▁offend
▁Probab
▁terrain
▁thus
▁Venus
▁Berk
▁legend
▁Grow
▁unf
▁avatar
▁96
▁spare
#
round
drop
▁Russ
▁Stephen
▁exposure
▁Oo
▁polariz
▁manifest
▁turtle
▁shatter
▁Mean
▁circula
▁modifi
▁funeral
▁mytholog
▁heroin
▁constitution
▁Commun
▁costume
▁diffus
▁flipp
▁pursu
▁exaggerat
▁crude
▁counsel
▁stumbl
▁evaporat
▁alumin
▁greet
position
▁stimul
▁Librar
pago
▁Bhutan
▁hint
▁assistant
▁entrance
▁55
▁shad
imbabwe
osphere
▁deficit
itte
scope
▁Development
▁Government
▁Post
▁update
▁interconnected
▁firing
▁sweep
▁Jupiter
▁conquer
dental
▁rigid
▁idiot
▁Light
▁holiday
viation
ST
▁Catholic
▁freeze
ventual
▁Benjam
found
▁Find
▁velocit
ennis
▁brush
▁carve
▁revelation
▁cheer
rizon
▁enrich
▁rip
▁hopeless
▁entitle
ED
▁Nike
▁beetle
istine
lvani
▁Columbia
▁poke
▁decent
▁Civil
▁Wolf
▁impulse
▁admitted
▁48
▁Portug
▁wow
▁correlation
▁sequenc
▁prior
▁restrict
▁Syrian
▁cit
▁schedule
▁captain
▁Brea
▁spatial
▁emitt
ception
▁gluco
plica
▁snap
▁opt
▁knit
saw
▁couch
▁therapist
▁intimac
▁crater
angelo
imme
▁subjective
▁memorial
▁Phila
▁sulfide
▁disk
▁MR
▁janitor
▁acknowledg
▁authoritarian
▁innovator
▁diarrhea
▁victor
▁transit
▁rail
▁thermo
▁institute
▁copi
▁fleet
▁astronom
▁tire
▁harsh
▁Milk
▁mammoth
▁Canc
upp
▁anniversar
field
▁spouse
▁virgin
▁Old
▁confess
▁Sex
▁tactic
▁Uncle
dding
▁historian
▁epiphan
▁persuade
▁Office
▁biase
▁informal
▁shove
▁depriv
▁expense
band
together
▁summarize
▁overlook
▁justify
▁drama
▁Bern
▁competitor
▁minimal
▁preced
▁Computer
▁exceptional
▁alert
▁Craig
▁Elizabeth
▁Garden
▁trunk
▁pesticide
▁Simpl
▁fractal
pra
rway
hou
▁humble
▁hemisphere
▁niece
▁differentiate
▁straw
▁Machine
▁characteriz
▁jungle
▁fever
▁Somalia
▁Emma
▁Opera
script
▁elevator
▁premise
▁exot
▁import
▁Education
▁atmospher
▁convention
▁practic
▁champion
▁reuse
▁nucle
▁Consider
▁inflat
▁metabolic
▁obsession
▁contemplat
▁violat
▁taboo
▁opposition
▁Republic
▁coordinate
▁sexualit
▁fetus
▁thriv
▁sediment
▁algae
▁fertiliz
▁fuzz
▁adolescence
▁traumatic
▁progression
▁130
▁lobe
▁pollut
▁Show
▁vice
▁Suppose
sense
▁guitar
▁melod
▁38
▁191
▁lucki
trop
▁scarce
▁coverage
▁Financ
▁blueprint
▁classical
▁preparation
▁Step
▁Recent
▁Hold
▁31
▁integr
▁manifestation
▁brake
▁wander
▁Tibet
▁cholera
▁zoo
hill
▁replacement
▁vocabular
corn
▁Band
▁cooperative
▁angel
▁DP
▁JF
▁Sylvi
play
▁guest
▁Journal
skirt
▁processor
▁communi
▁sovereign
▁Alaska
version
▁Pete
▁Milo
▁dragonfl
▁slogan
▁Coc
▁Know
▁bowl
▁Nepal
▁steam
▁visionar
▁skeptical
▁gallon
▁incomplete
▁spike
▁faint
qualifie
▁certifi
▁FDA
▁pleasant
▁doubling
▁squeeze
▁endeavor
▁Liberia
▁negotiate
▁scholarship
▁progressive
▁geolog
Tech
▁reproduction
▁towel
▁sympath
▁verbal
fidel
▁repli
▁stadium
▁Aid
▁Map
▁hut
▁welfare
▁prescrib
▁symbolic
▁Natural
▁happi
▁maneuver
▁swarm
▁invitation
▁neglect
▁empowerment
▁outdoor
▁textile
▁Hospital
▁stereotype
▁stratospher
▁nonprofit
▁exit
minent
▁misunderst
▁occupation
▁DVD
▁courageous
▁capsule
▁microscop
▁flush
▁screaming
▁Phil
▁specimen
▁Maria
▁significan
▁Food
▁adolescent
▁extensive
▁unleash
imi
huma
▁irrational
▁physiolog
▁oyster
▁Mumb
▁dopamine
▁epi
▁Sierra
▁Ross
▁carrot
▁restriction
▁headache
▁squid
openha
lerant
▁Costa
▁dispers
elphi
▁Mama
▁Kosov
fensive
otto
▁leopard
▁resurrect
▁accompani
▁captiv
▁entrepreneuri
▁Namibia
▁celebration
▁43
kyo
▁zip
▁eternal
▁triumph
▁pave
13
▁lawsuit
▁Gaza
lium
▁humbl
▁whip
▁taxi
▁plea
▁obsolet
▁TEDster
▁Mont
▁resilien
▁peripher
▁collid
chu
▁vagina
▁envision
▁suspicious
▁pat
▁monument
▁chess
▁unfair
▁stabiliz
▁visitor
▁Austria
▁fertil
▁erase
▁Phoenix
▁insult
▁Scientist
▁indicat
▁surf
▁regional
▁Less
▁frighten
▁Interesting
▁fingertip
▁spade
▁skeptic
▁calendar
▁interrupt
▁accidental
▁asthma
▁Medicine
▁racial
▁flee
alai
▁enlighten
generative
▁propagand
▁macro
LA
▁hollow
▁chop
▁elbow
▁Andrew
▁Down
▁imperfect
▁cafe
▁Nathan
lept
▁freez
▁feather
▁postcard
▁invasive
▁admir
▁capitalist
▁Rais
▁staircase
▁swamp
▁34
▁Climate
▁Senat
▁bypass
▁absurd
▁spiral
▁vegetati
▁Rica
vascular
▁Yellow
▁famine
animate
▁Leban
▁cue
▁Luc
▁Arabia
tech
▁metabolism
▁Tasmania
▁JC
▁prevalence
▁crank
▁watt
▁flock
▁revolutioniz
PA
▁salar
▁ambition
▁Bett
▁hallway
▁collaborat
▁Bosnia
airo
▁acute
▁syringe
▁outrage
▁articulat
▁mustache
icular
▁dare
▁adaptive
ribbe
▁microbial
nonymous
▁imperative
▁Cheer
aternal
▁tast
hov
▁Shakespeare
▁gross
▁Patient
AA
▁cease
▁peel
▁genero
▁Lama
▁Thirt
▁volcan
▁antibod
▁Nair
▁Edward
▁Siberia
▁Daniel
▁pul
▁Carne
▁dictionarie
▁steep
▁Rub
▁Auto
▁Jones
atter
▁critic
▁Peru
▁Under
▁oven
▁submersible
▁52
▁Iraqi
▁bombsight
▁overlap
▁Clear
▁corridor
▁boost
▁exquisite
▁rang
▁fluctuation
▁illitera
stein
▁perceptual
▁Mathematic
▁incremental
▁conductor
▁blockchain
▁juggl
▁indication
▁Ground
▁relativ
▁equilibr
core
▁Wonder
▁Data
▁parameter
▁digg
▁cream
▁weakness
▁Jew
▁trail
▁meditat
pulsion
▁buzz
▁midst
liberation
▁Australian
▁virtu
▁Hand
▁gyr
▁Louis
▁swap
bla
▁slope
▁nail
▁hammer
▁Twi
▁apologize
▁keen
▁cocktail
assa
▁hamburger
AT
▁flexibilit
▁circulat
▁intentional
▁cockroach
▁Mexican
▁retain
▁gentle
▁bounce
Bay
▁Tower
▁dismiss
▁flame
▁Movement
▁Saturday
▁erupt
fiti
hall
▁curl
▁investigate
▁Sudan
▁module
▁Public
▁Hindu
spread
▁98
▁Kenn
▁encyclopedia
▁statue
▁dysfunction
▁escalat
▁Johnny
▁robb
▁ancestr
▁64
▁Force
▁Reg
▁rhino
▁unsee
▁ambulance
▁stain
▁concentrate
▁correlat
▁vanish
pler
▁Small
▁ALS
▁defect
▁gigant
▁hostile
▁indicator
▁Jamaica
▁ideological
lude
▁Nav
▁embodie
▁temper
▁ghost
▁mindful
▁petition
▁Christopher
▁northeast
▁dune
▁discour
▁diagnose
▁satisfie
hhh
▁cartoonist
▁rectangle
▁anthropologist
▁Alpha
▁Chuck
▁optimize
▁Tami
▁relie
▁inhibit
▁maximize
uite
▁dissolv
▁86
▁irrelevan
▁wipe
▁terminal
▁cabinet
▁surrender
cover
▁Learn
▁folk
istence
▁copie
▁confusion
▁beef
▁accomplishment
▁gait
▁portray
AC
▁rott
▁larva
▁pillar
bound
▁affirm
▁fuck
▁worship
▁alphabet
▁USA
▁prototyp
▁grape
▁claw
▁fraud
▁geological
▁baseline
▁negotiat
▁thrust
▁pharmac
▁obligation
▁shap
▁fluorescent
▁yell
▁purchas
▁rust
▁deny
down
coli
▁cement
▁Canyon
▁140
▁psychiatr
▁traffick
▁rage
▁Ministr
▁Architect
▁Invest
▁equipp
▁Hawk
▁province
worm
▁wool
▁lump
plex
ivor
▁Gius
▁influen
▁fracture
▁Brazilian
▁46
▁disadvantage
▁romance
▁arc
▁NA
▁bonus
▁enforc
centric
▁Similar
▁baker
▁iPad
▁ramp
▁Oklahoma
▁Jess
▁Deep
▁pollutant
▁monsoon
▁grandma
▁browser
▁supercomputer
▁hypothetical
ambia
▁checklist
▁guerrilla
▁cybercriminal
▁devise
▁metropoli
▁suburb
▁Certain
▁billboard
▁CE
▁customiz
▁cerebr
▁hotte
▁synchroniz
▁premi
sexual
▁choir
▁Book
▁shelve
▁Lewi
▁reproductive
▁gaze
▁Color
▁ladder
foot
▁enhanc
▁respirator
▁finite
root
▁hypothes
▁voyage
▁jur
▁psyche
▁geometric
▁urgent
scribe
▁Help
▁Fried
▁masterpiece
▁crow
▁rabbit
▁mixture
▁Environment
▁fog
▁Michigan
▁consol
▁benign
▁prosecutor
▁recession
▁audaci
▁violin
▁headquarter
▁trad
▁philosophical
▁welcom
▁interdependen
▁grim
▁Bruc
▁slam
▁glove
▁varie
aka
▁Doctor
▁minimize
▁Dick
▁logistic
▁multinational
arliament
▁Trad
▁Societ
▁superpower
plat
▁lamb
▁tilt
▁gamma
▁flute
uddin
▁bulk
▁Luck
▁assault
broad
▁53
▁brainstorm
▁destructive
▁sensitivit
▁rob
▁Stay
▁prevail
mission
NN
▁shav
▁legitimate
▁54
▁jazz
▁slip
▁hobby
▁grind
▁convincing
▁candle
▁fame
hili
▁fungi
▁bloom
unny
▁album
▁modify
▁nanotechnolog
OS
▁bureaucrat
▁responsibilit
NC
▁conviction
▁introvert
▁Vinc
▁smash
osi
influenza
▁Large
▁overhead
▁plac
▁neocort
▁pancrea
TA
▁dispute
▁butterfl
▁guideline
▁visceral
▁permit
view
seas
▁singular
▁intricate
utheast
▁beneficia
▁minor
▁undergo
+
▁flick
▁smuggl
▁cinema
▁Sky
▁lure
▁chemotherap
▁mash
▁marathon
▁Swed
▁deplet
ambiguous
▁Venezuela
▁contagio
▁Joseph
▁chick
▁synthesi
quart
▁atheist
▁Beatbox
▁divine
▁inquir
▁coca
▁functionalit
▁admire
▁autistic
▁Whitopia
▁plumb
front
▁continual
▁chaotic
▁Cassi
▁Lago
▁technician
▁electromagnetic
▁snapshot
▁Hubb
rief
▁humiliat
securit
▁injection
▁lesbian
▁prejudice
▁Intel
▁manipulation
▁polymer
▁gadget
▁prioritize
▁improvise
▁timing
▁puppet
▁savanna
▁Start
▁iteration
titude
▁susceptib
▁tempt
▁marshmallow
▁Copernic
▁bucket
coherent
▁abnormal
▁fung
▁undergraduate
▁classmate
▁disparit
▁socio
▁accommodat
▁assess
16
▁cognition
▁differ
banish
▁Modern
▁shield
▁essay
▁160
▁amuse
▁missile
▁Pittsburg
▁geographical
▁inflation
▁adversit
▁execution
▁warfar
▁surplus
▁Pink
▁lesion
▁gym
í
▁Himalaya
▁Georgia
▁Marine
▁blanket
▁scatter
▁AB
▁secular
=
▁plague
▁facilitate
▁Moham
▁neurological
▁colonial
▁crocodile
▁sync
▁calv
▁auditorium
halt
▁reasonabl
▁industrialize
▁diminish
▁autonom
▁Cart
▁extrovert
▁Max
▁Indus
TO
▁aqua
▁generator
▁problematic
▁radar
▁Gall
CA
▁boson
▁shepherd
▁reply
▁hatch
ctopus
▁tuberc
ulosi
▁compliment
▁parliament
▁measl
DC
▁compil
▁cylinder
NG
▁conspirac
▁Bitcoin
▁rabbi
▁Roo
▁Swee
▁Ultimate
▁skat
idden
sleep
▁anesthesi
▁unnecessar
▁decentraliz
▁strive
▁fierce
▁mutilat
▁sermon
▁Aust
▁confusing
▁Self
▁Fire
desirable
▁haunt
▁coincidence
taller
▁dentist
▁caregiver
▁temptation
▁PT
▁compris
▁ignit
▁subsequent
▁Stone
▁anxious
cuba
▁wax
▁Ball
▁Hmm
▁hung
▁praise
▁condemn
▁commerc
▁Monday
▁orphan
▁heroic
▁inmate
▁Skyp
disciplinar
phobia
▁meadow
▁tipp
▁sentiment
▁archaeolog
▁advoca
▁Rena
▁cathedral
▁intimidat
▁tutor
▁urbanization
▁sensibl
▁enslav
▁Nazi
▁unifie
▁seize
▁packet
▁halve
▁substitute
▁genital
▁rival
▁Alright
▁patholog
▁skip
▁Emil
▁biosphere
▁Magazine
▁Audi
▁psychiatrist
▁TEDx
▁RO
▁conserv
▁stripp
▁pupp
▁modification
▁dissect
strong
▁Mind
▁salmon
▁submarine
▁testimon
▁prohibit
ibati
▁Ushahidi
▁calci
▁mammograph
▁Bonobo
▁Model
450
▁reimagin
▁emit
▁emphasi
▁dwarf
▁ease
▁orangutan
▁owe
▁monk
▁relocat
▁cheek
▁unacceptabl
▁occupi
velt
▁epic
▁facult
structure
▁reflectiv
▁enthusiastic
▁feminin
▁surge
▁lapse
▁migrant
▁evident
▁epilep
▁Jean
▁shallow
▁treasure
▁marvelous
quatic
▁Notice
▁Hundred
▁alternat
▁Carol
▁Mount
Barack
bama
▁arbitrar
▁Stewar
▁embark
▁hatred
▁hive
fect
▁potent
▁curator
▁thankful
▁Simon
▁ingenu
▁Merc
cumen
▁Beet
ó
▁Father
▁merit
▁exclude
▁complication
▁agil
▁certificate
▁tackl
▁quantitative
▁Radio
▁Wire
▁Depressio
▁Colombia
▁curtain
▁Supreme
▁Click
▁nanometer
▁nanoparticle
▁Land
▁Such
▁existential
▁criticism
▁Pantheon
▁advent
▁reconnect
▁timber
▁stiff
FL
▁invasion
▁unpredictabl
▁wavelength
▁betray
▁chemo
▁battlefield
▁laundr
▁token
▁waist
_
▁pension
onica
▁millisecond
Gowan
▁hectare
▁mammogram
▁CMU
▁dictat
munition
▁Palestin
▁unimaginabl
▁vapor
▁kidnappe
▁Though
▁Toyota
▁Living
▁redundan
▁glorious
▁throat
▁sterile
▁ruling
▁shuffl
▁fundrais
▁patien
▁moist
▁delicate
▁Hyper
▁advertisement
▁abortion
▁template
▁Cambodia
▁poo
▁sleeve
▁Forget
▁orientation
▁Philippi
▁urgenc
▁firefl
ghett
▁bioma
▁superior
▁Explor
dict
▁resonance
▁migraine
▁uh
▁improbab
▁Student
abbage
▁sneak
▁thorough
▁jealous
▁approval
▁Job
▁recipient
▁resign
▁biotechnolog
▁relevanc
▁Ferr
▁scroll
▁Hunt
▁inefficient
▁mortgage
sterda
▁separat
▁consent
▁discard
▁violation
▁Cooper
▁gentl
▁beekeeper
▁simplify
crim
▁paragraph
▁Slow
▁glory
▁Digital
▁hominid
▁Oregon
▁Empire
craft
▁Exact
▁piss
▁nuance
▁stat
ndex
▁stall
▁regain
▁corp
▁summar
▁pheromone
▁Roger
▁Norman
▁boyfriend
▁catastrophe
▁symbio
▁choreograph
▁jacket
▁Victorian
▁voluntar
▁Save
▁vacan
▁Dallas
▁plugg
▁preschool
▁Margar
▁Balti
▁assessment
ahedron
▁Window
▁Tele
▁Montana
▁Maldiv
▁Scratch
▁metronome
nterviewer
▁Among
▁Plu
▁persever
▁Prime
▁marvel
▁Physic
▁superstar
▁chill
▁committee
▁resort
▁nuclei
▁bounc
▁CIA
▁persuasi
▁catastrophic
surfing
▁Buddhist
▁anecdote
▁Short
▁satisfaction
lcome
▁Current
▁DARPA
▁prima
▁shortcut
▁intent
▁midnight
▁premature
▁juvenile
▁unaware
▁moderate
▁carcinogen
▁composite
▁deteriorat
▁biodegrad
▁intermedia
▁pediatric
▁Economic
▁efficac
▁Text
▁squeak
▁Defen
huh
▁eager
▁semina
▁stir
▁consultant
▁swirl
▁sadness
▁coworker
▁Guinea
▁Beyon
▁ultrasound
▁collage
▁harass
▁Colli
plain
bbe
▁solita
onze
▁poop
▁verge
▁catalyst
▁Dave
▁interfere
▁feat
▁68
▁refrigerat
▁Desert
▁irrigat
▁Buddha
▁excerpt
▁Falcon
▁vitamin
▁propagat
▁humid
▁Death
▁Jefferson
▁Excuse
▁narrat
▁glide
▁activis
▁asphalt
▁astronomical
▁compass
▁wetsuit
▁pervasive
counterintuitive
▁responsive
▁Major
▁biomaterial
amma
▁railway
▁provision
▁Control
▁sulfur
▁circulation
▁Report
screen
▁posture
▁cochlea
▁Nanopatch
▁cookie
▁vulture
▁Mahat
brew
▁motorcycle
proving
▁unequal
▁Serious
▁pluto
▁puff
▁circum
▁Type
▁regulator
▁beast
▁Mayor
▁adjacen
▁turbulen
▁doctrine
▁prostituti
▁hurricane
▁rainbow
▁ambiguit
▁orphanage
▁playground
▁distress
▁pivot
▁ambassador
▁Common
▁glut
▁tinker
▁algebra
izzy
▁Jenn
▁reliev
▁spawn
▁optimal
▁radioactiv
▁slap
▁Levi
▁superhero
istrust
▁draft
▁cosmetic
▁uncertain
▁Service
nutrition
▁dude
▁royal
literate
▁Politic
▁Conservati
▁Taiwan
▁counterpart
▁Fantastic
▁Saint
▁chalk
▁Virtual
▁Connecti
▁Polic
▁Commission
exist
▁thunder
▁steward
▁delete
▁warrant
▁Group
▁burial
▁empirical
▁hover
▁laz
▁offshor
▁Dream
▁microwave
▁Sydney
▁bake
tention
▁sapien
▁reckless
▁Strange
▁appliance
▁lettuce
▁biofuel
▁vegetarian
▁Ukrain
▁intestine
▁Danny
▁turbine
▁plunge
▁Safe
▁rub
▁physiological
▁Veg
withstand
▁mutant
▁worldview
ibera
▁Bridge
▁constructive
▁Electro
▁apparatus
▁olive
▁Spider
▁tumbl
▁hunch
▁Davi
▁neurosurge
▁taxpayer
▁Everglade
▁Millenni
▁bureaucrac
▁allocate
▁inexpensive
utilize
▁emulat
▁PowerPoint
▁bail
▁rhetoric
▁vicious
▁prophet
▁tribute
▁notebook
related
▁comprehensive
▁catalog
▁Susan
▁magnifi
▁pornograph
▁queue
bucks
▁improvisation
▁bladder
▁heartbreak
▁KB
▁untouch
▁360
▁skyscraper
▁suburban
▁Olive
▁McDonald
▁holistic
▁slot
▁Murray
▁dictator
▁anomal
▁validat
▁variant
▁mundan
▁plaque
▁astonish
▁horrific
▁wreck
▁chord
▁disseminat
▁delusion
▁Enlighten
▁millenni
▁Lawrence
▁unfamiliar
▁Algeria
▁reflex
▁unthink
▁unnatural
▁Genom
▁fibro
▁Holo
▁extremist
▁identification
▁instantaneous
▁detach
▁tropic
▁Discover
▁admission
▁simplistic
cientific
▁Word
▁hurdle
▁Independen
▁monarch
walk
▁Cape
▁convers
▁Odysse
▁tectonic
▁utopia
▁Perfect
▁applaud
▁unsustainabl
▁hydrocarbon
▁stagna
▁equator
consistenc
▁instinctive
▁valid
▁outrageous
▁excavat
▁announcement
▁BJ
shift
▁Jacque
▁Bear
▁immigration
▁socket
▁asylum
▁reprogram
▁cereal
▁levitat
▁optimiz
zoning
▁bonobo
▁barbershop
▁knob
▁capaciti
massive
hrir
▁condens
▁distill
▁budd
▁Guy
▁Game
▁feasib
leans
▁Galile
▁Convention
▁discomfort
▁LGBT
▁repertoire
▁curse
▁feminis
▁reservoir
▁Essential
▁Progress
▁elastic
▁menstrua
▁magician
▁disparate
▁giraffe
▁patriarch
produc
▁ethnicit
▁Village
▁petrol
▁Gab
wash
▁explosive
▁incubator
▁scour
▁electora
▁obey
▁pneumo
▁intellect
▁Cuba
▁mainframe
▁breakdown
▁fingerprint
▁camel
▁interpla
▁prosecut
elecommunication
▁telecom
▁Brand
disproportionate
▁hike
▁honeybee
▁withdraw
▁primordial
▁homicide
proof
▁polish
Planet
▁paranoi
▁rib
▁unpleasant
pur
▁tyrann
▁misuse
▁complet
▁Wilson
▁synchron
▁Democracy
▁reshap
piece
▁sponge
awn
▁unexplo
▁cardio
Market
different
▁Program
▁kindergarten
▁contradict
▁varia
▁biotech
▁grammar
▁comedian
▁nudg
▁curv
guel
▁hippie
▁decease
▁Cloud
▁seizure
▁solemn
▁photosynthesi
▁calculator
▁Massac
▁extremism
▁aspire
▁carpenter
▁convenience
▁ribbon
▁fountain
▁pedal
▁gorilla
▁subtract
▁municipal
secure
▁clitori
▁tolerate
▁modular
▁forehead
▁toddler
▁reciproc
▁Laborator
▁ingenious
▁distraction
▁cafeteria
▁eyebrow
▁outfit
▁traumatiz
terior
▁championship
▁intercept
▁Ardu
▁gecko
▁provok
▁Point
▁conscience
▁deconstruct
▁Psycho
▁convuls
▁verify
▁attorney
▁lemon
▁terrestrial
▁reptile
▁patron
▁Conference
▁dictatorship
▁Teacher
▁opponent
▁gossip
▁Evolution
SM
▁Darfur
▁qualify
▁Engineer
▁penalt
▁visi
▁inclin
▁rooftop
á
▁Night
▁Speak
▁psychopath
▁sprawl
▁Nichol
▁ecsta
▁communal
▁crowdsourc
Corps
▁Achill
▁stink
▁Innovation
▁Cameron
▁peek
▁resume
▁interconnect
JA
▁bargain
▁balcon
▁Francis
▁Kind
▁offense
▁Jennifer
▁clap
▁Serg
▁Fall
▁peanut
▁acquisition
▁suitcase
▁constitute
▁rupee
▁educator
▁hummingbird
▁remittance
▁imaginative
▁Effect
▁wetland
▁Corporation
▁Close
▁Dreyfus
▁reconciliation
▁hygien
sippi
▁Equ
▁deflect
▁hurry
elusive
▁plume
▁homosexual
▁numb
▁Mall
ronto
▁underlie
▁esteem
▁byproduct
ntelligence
▁rigorous
▁disruption
BP
▁methodolog
▁congratulat
▁attachment
▁reconcile
▁charisma
▁landfill
▁Normal
▁renew
▁retriev
▁embed
▁quiz
▁Honey
▁hyperbol
▁Abraham
▁Birds
▁mutate
▁yogurt
▁Understand
mendment
▁supplement
▁unhealth
▁Protect
▁rediscover
▁pronounce
▁enroll
▁ovari
▁mediocr
▁McCa
▁rearrang
▁Photoshop
▁courtyard
▁Midwest
▁Origin
▁subconscious
▁ceramic
▁Hondura
▁pepper
▁hostilit
▁amplify
▁anchor
▁marble
HO
▁Friend
editerranea
▁uncover
▁Amazing
▁arithmetic
▁stockpile
▁proliferat
▁nomad
▁blunt
▁Termina
▁hippocamp
entagon
▁Barbie
▁tadpole
▁nickname
▁servant
lbert
▁latitude
▁superintelligen
rthodox
▁Special
erusal
▁exhilarating
▁vibrant
▁Wednesday
▁Leave
▁transgender
▁cemeter
▁Picture
▁astounding
▁cherish
@
uestion
▁loneli
▁biomedic
▁Katrina
▁devou
ophon
▁perpetrator
▁evoke
▁Agnes
▁practitioner
▁parade
▁fiddl
▁UCL
▁Survey
▁handwrit
▁Rick
▁unveil
▁PhD
adi
▁perfume
▁thigh
▁Plato
▁updat
▁appetite
limited
▁Language
▁bore
ö
▁prompt
▁dilut
▁jean
▁Clark
▁decompos
▁fec
▁volatil
▁brillian
▁Traditional
▁complement
▁uplift
▁junior
▁salad
▁seroton
▁nanoscale
EA
▁Economist
▁coerc
▁sanctuar
▁cancel
▁scandal
▁clarify
▁rumor
▁prevalent
▁precursor
▁wilderness
worth
▁notorious
▁vague
▁pearl
▁Agenc
▁Guatemala
▁mitigat
▁chore
feld
▁ATM
▁DIY
▁arrogan
▁discrete
▁shrunk
▁shaman
▁congress
▁antiqu
people
▁malignan
▁Douglas
▁railroad
eautiful
▁Believe
▁suspens
▁squeez
▁sentien
▁imprison
▁absent
▁Orchestra
▁wrinkle
▁bundle
▁damag
▁curb
▁amplifie
▁lend
▁miraculous
▁buffer
▁Pearl
▁seamless
▁pubert
▁Freud
▁rug
▁necessit
▁inflict
▁implie
▁portfolio
▁constellation
▁misconception
▁prestig
world
▁behav
▁plummet
▁immoral
▁bankrupt
▁horrify
▁exoplanet
▁Hurricane
▁prostitute
▁passport
▁illustrat
▁Lyn
^
▁backpack
▁bookstore
▁epidemiolog
ã
▁hijack
▁segregat
▁semester
▁valu
▁Federal
▁balanc
▁Thursday
▁unravel
▁gambl
▁desperat
▁indefinite
▁neurologist
▁metaboliz
▁shuttle
cellulos
▁sequester
▁modul
▁leisure
▁tweak
▁Disease
▁retrospect
▁93
▁patrol
▁aerodynamic
▁Stein
▁snail
▁pub
▁antidepressant
▁billionaire
▁arthriti
▁metasta
▁MK
▁inclusion
▁desalinat
roadway
▁supernova
▁competenc
▁frantic
▁widow
▁clapp
▁Challenge
▁decipher
▁orgasm
▁anonym
ç
credit
break
▁scrutin
▁sociologist
birth
▁litigat
▁utiliz
economic
▁refresh
▁bolt
▁Hungarian
▁quantify
▁Kelly
▁apolog
▁subscribe
clamation
▁Festival
▁ridicule
▁Excellen
▁bruise
▁Club
▁scoop
case
▁Further
▁disguise
▁discharge
biotic
▁coalition
▁rewrit
▁pinpoint
▁monopol
▁compact
Thousands
▁disbelie
▁megawatt
▁outsourc
trude
▁Constitution
▁whistl
▁MO
chlor
▁encompass
▁erotic
▁relentless
▁detain
▁Laptop
▁decay
▁Morgan
▁hydrant
▁disturbance
onologue
▁lightbulb
▁perpetuat
▁teammate
▁Matthew
aggression
▁judg
pocalyp
▁Chief
▁financ
▁academi
▁atrocit
▁marginaliz
▁treadmill
caust
▁perpetual
▁exclusion
▁census
environmentalist
▁Senegal
▁estimat
▁seductive
solicit
▁Record
▁Personal
▁Rachel
▁spear
▁reframe
▁glance
ompassion
▁typeface
▁athletic
▁agnostic
MG
▁mismatch
▁troubling
▁appointment
▁repurpos
▁striving
▁griev
▁grappl
▁phosphor
▁horrifi
peech
▁Nicole
psychotic
▁Solomon
▁redistribut
▁ISI
▁considerabl
▁spreadsheet
▁dung
▁Norwegian
▁grit
▁Different
▁registr
▁champ
▁scissor
▁Dubai
▁Generation
urani
▁altruism
▁teapot
▁Summer
▁acronym
▁Product
▁ineffective
è
▁hypertensi
▁Cyr
▁Voyage
▁Hiroshi
▁Gues
▁pledge
▁incorrect
▁caution
▁imbalance
▁Circle
▁antidote
▁scrambl
▁dominance
▁Nativ
▁Nevada
▁amygdala
▁reservation
▁patriot
▁Whistl
▁stakeholder
course
utu
▁questionnaire
▁fatigue
▁daunting
▁pragmatic
▁suicidal
▁punctuat
▁adrenal
▁Asperg
▁font
▁deception
▁partisan
lender
▁administrator
▁hyena
▁crave
▁Field
▁Athen
▁neutron
▁Send
–
▁Marx
▁Pepsi
traction
▁jurisdiction
▁secre
▁Treat
▁multicultural
▁liar
▁masculin
▁roommate
▁adversar
▁disclose
rexit
ü
▁twentysomething
▁bionic
▁sampl
▁Babylon
▁altruist
NH
▁Sebastia
▁concussion
▁Ferguson
▁nitr
%
▁nanotube
tlantic
▁affluen
▁psychic
ñ
▁outlier
▁loot
angiogen
▁fission
▁collaps
▁RM
▁retrofit
▁Airbnb
à
RL
exting
ï
▁estrogen
Rabbit
ZX
▁ACE
ō
▁PDF
▁contracepti
É
▁GG
ä
ô
QQ
ø
£
*
ā
ê
อร่อย
Á
razine
∇
τ
ú
ZZ
”
777
û
ë
\
̊
Č
▁Lakota
ē
Ç
¿
ĂŤ
Ō
â
ì
XX
æ
Ö
¢
ć
