<pad>
<unk>
<s>
<\s>
▁.
▁,
▁bir
▁"
▁ve
▁bu
n
▁
▁'
k
a
m
lar
▁Bu
e
▁için
▁da
▁de
▁Ve
ler
▁çok
▁?
▁daha
t
i
▁ki
▁var
ları
la
▁)
(
leri
▁:
z
de
▁gibi
▁olarak
da
ya
p
le
▁şey
l
▁—
li
▁o
▁ne
r
▁olan
si
ye
▁kadar
den
s
▁en
ü
▁her
ı
▁ya
ce
nin
▁ile
er
dan
na
▁değil
▁-
y
ma
ki
in
sı
▁iyi
nın
en
▁zaman
▁olduğunu
▁ama
▁büyük
▁Ama
▁Bir
di
▁bunu
▁sonra
▁nasıl
yi
ne
lı
ların
lerin
▁sadece
ş
an
▁O
lerini
u
▁çünkü
dir
▁önce
dır
▁şu
▁şekilde
ta
▁yıl
larını
lik
▁fazla
▁iki
ti
yı
▁aynı
ca
▁;
lık
▁yeni
▁gerçekten
▁kendi
▁insan
ın
te
▁Yani
▁mi
▁Şimdi
▁hakkında
▁ben
me
▁benim
ni
▁olduğu
▁Ben
▁tüm
d
▁diğer
▁ilk
sa
▁farklı
ra
▁başka
▁doğru
▁içinde
▁in
o
▁yok
▁insanlar
▁ilgili
▁bile
▁böyle
lara
▁sahip
f
▁aslında
▁bunun
tı
▁küçük
▁veya
▁♫
um
▁A
uz
▁biri
lere
▁şeyler
▁an
▁burada
▁Gülüşmeler
yla
▁biz
▁ise
▁S
dı
se
ri
▁tek
ini
▁önemli
▁eğer
▁gün
im
▁Faka
▁bana
du
▁son
ken
▁bizim
lu
▁size
mi
▁Eğ
▁a
tan
▁biraz
▁oldu
▁e
mak
re
sel
▁üzerinde
sine
yle
▁yer
▁insanların
▁hiç
▁bütün
▁bilgi
▁geri
miz
daki
▁karşı
▁gerçek
ydi
mız
▁neden
▁göre
▁vardı
nda
▁diye
▁Bunu
h
▁şimdi
▁az
lan
▁zamanda
sini
▁iş
▁yüzden
ci
tir
ç
▁onu
ır
▁C
ını
mış
▁su
arak
sanız
▁üç
ar
▁yapmak
lerine
▁i
ba
▁Çünk
▁bazı
ir
ndan
▁tam
lerden
larına
lardan
▁tarafından
ım
larının
mek
larda
▁Kahkaha
ydı
iz
▁E
▁olacak
un
▁olmak
▁Ne
va
▁İşte
▁nın
▁istiyorum
▁hareket
niz
▁olması
miş
▁mı
▁dünya
▁Çok
ten
▁soru
▁te
acak
b
il
▁zor
▁ortaya
▁Peki
tır
▁bize
lerinin
▁oldukça
ha
tik
▁Bunun
▁tür
▁para
▁Dünya
▁karar
g
▁birkaç
▁şeyi
▁fakat
▁güzel
▁etmek
▁yani
▁açık
▁Her
▁oluyor
▁10
▁beni
sını
siniz
▁K
▁tekrar
▁olabilir
▁anda
▁Burada
▁kişi
▁teknoloji
▁uzun
lerde
▁Aslında
lerle
ip
larında
▁20
sına
▁kötü
st
▁ın
▁bunlar
lama
▁fark
▁Alkış
ine
▁onları
ıp
▁hayal
nız
lo
▁geliyor
▁onun
▁boyunca
▁devam
▁Alkışlar
cı
ro
▁olur
▁yol
at
seniz
▁k
▁onlar
▁ta
▁Ya
lü
erek
ıyor
v
deki
gi
▁yüzde
▁milyon
▁Daha
▁birçok
▁çıkar
▁hikaye
nı
ecek
c
▁yüksek
▁al
on
▁Anca
▁!
▁konu
Ü
inde
▁Evet
▁Siz
▁000
▁Ha
su
dur
abilir
▁arasında
▁yakın
▁belki
sız
▁enerji
▁kaç
▁B
▁H
et
yu
larla
▁3
▁aile
lardı
nde
▁bak
siz
▁tamamen
▁gelen
▁nokta
▁orada
▁öyle
▁siz
sin
▁buna
▁birlikte
▁Biz
▁bugün
▁ye
▁mu
▁yapı
▁etme
▁veri
▁ay
▁harika
▁kat
▁basit
▁dedi
▁durum
be
sal
iyor
el
▁pek
ün
▁yerine
▁gereken
▁işte
▁den
▁dolar
▁Ka
dim
▁göz
▁dan
▁Afrika
▁Bunlar
▁daki
▁nin
▁ülke
▁U
▁dünyanın
lığı
▁yardım
liği
▁bilgisayar
▁süre
▁at
▁üzerine
▁hiçbir
▁artık
▁şöyle
sunuz
▁çalışma
larından
▁ev
▁bilim
▁proje
▁araba
ö
ça
lerinden
ik
▁konuşma
▁ederim
al
▁eden
▁Ma
▁sene
tu
bi
▁kadın
Z
▁temel
▁örnek
▁Böylece
maya
▁vardır
▁hava
▁zorunda
lerinde
▁fikir
▁ediyor
▁Amerika
▁sorun
▁alan
▁konusunda
▁çocuk
w
sun
man
ebilir
▁yapma
▁hızlı
▁onların
▁geldi
▁2
▁saat
▁olma
▁Sonra
▁araştırma
▁gelir
▁çoğu
▁adam
çi
▁bizi
▁tane
to
ter
▁yerde
▁yüz
▁Sade
▁T
▁Tamam
▁işe
▁yeniden
▁genç
▁ilginç
▁Şu
▁Sa
▁çevre
▁En
▁sosyal
▁G
sak
sek
ması
▁5
▁dört
▁yaklaşık
sinde
▁sonunda
▁ancak
▁herkes
▁hale
▁el
▁hayat
▁yaşam
▁parça
sınız
mı
vi
▁elde
▁onlara
sinin
▁istediğim
▁sizin
min
dım
▁beyin
ur
▁ses
▁birşey
x
or
▁ona
ğı
▁hem
ge
▁olmayan
us
ına
cu
▁sürü
▁durumda
▁eski
▁Benim
▁me
▁kontrol
%
▁Teşekkürler
▁savaş
ga
▁hemen
▁herhangi
▁şeyleri
za
▁göster
▁demek
▁inanılmaz
▁Onlar
▁kız
▁altında
▁özel
▁yolu
▁hala
▁eğitim
ında
▁parçası
inin
▁güç
ğ
▁dünyada
▁4
▁çalışan
▁milyar
bo
▁ma
▁insanları
▁izin
▁güçlü
▁toplum
▁kolay
hi
▁hafta
▁1
▁ka
▁benzer
▁cevap
dum
’
▁I
▁gerek
▁söz
abiliriz
dığı
ıl
dü
▁dair
▁Ko
▁kal
▁beş
▁inşa
leme
▁yine
▁Ç
▁hasta
▁mümkün
▁Bugün
▁u
▁İ
S
▁D
▁hatta
▁Me
▁ha
diği
luk
▁geç
▁un
▁gösteriyor
▁Neden
▁hepsi
▁etti
▁kimse
çe
sının
▁şunu
nden
▁başladı
yız
▁gir
▁tahmin
▁Te
tü
▁30
mizi
muş
▁edin
▁bağlı
▁J
▁grup
imiz
▁bunları
▁aşağı
▁kabul
▁değildi
â
unu
yiz
ebiliriz
▁ana
▁doğa
iyoruz
▁sağ
▁iç
▁gördüğünüz
▁New
▁kısa
▁insanlara
yım
▁ı
▁yalnız
yan
dik
▁olsa
▁değildir
ıcı
▁araya
▁alma
▁bence
▁ak
▁öğren
▁İlk
po
zi
meye
▁verme
▁tanı
çı
▁yanlış
ck
sın
▁hazır
▁100
lığın
▁Kendi
▁Çin
▁kez
▁50
▁anlama
▁derin
▁Ban
mayı
▁film
▁video
▁yapmaya
▁neredeyse
▁görme
ch
▁düşünce
▁dedim
asyon
ür
tim
▁neler
▁birisi
▁değer
▁ağ
▁yaptığı
▁ek
A
▁De
▁ayrı
▁çıktı
▁tedavi
▁Son
ru
▁deniz
muz
▁kan
co
▁deney
elim
▁yapan
▁gece
dığını
▁yere
▁oyun
dık
diğimiz
▁200
▁baş
▁Ba
▁sizi
▁kelime
▁gerekiyor
▁özellikle
▁derece
ız
▁yı
ünü
▁P
▁gelecek
▁mü
▁üzere
lerimiz
▁ister
▁he
▁içine
▁ifade
▁Hindistan
abilirsiniz
▁TED
▁yaptığımız
ılmış
▁olduğuna
▁değiştir
▁bölge
▁ışık
tur
▁olmadığı
ici
▁iletişim
larımız
mda
▁doğal
▁yanı
▁bakın
▁ölüm
▁gezegen
▁kim
rken
▁yapıyor
▁verici
nüz
▁tak
▁genel
kı
sında
mızı
▁düşünün
▁ilişki
▁bundan
nizi
▁deneyim
▁Ş
▁15
▁şeyin
fi
▁kar
ış
nun
▁yaz
▁geçen
▁getir
▁la
▁muhtemel
▁Aynı
kar
▁s
▁bin
▁karmaşık
▁olmadığını
▁etki
▁ikinci
▁kullanarak
▁geniş
▁ekonomi
▁on
liğin
▁problem
ku
▁Ta
▁ara
▁başladım
▁Tüm
▁dakika
▁sanat
▁yoktu
▁bunların
nu
▁yara
▁sonraki
leşme
ydu
▁arasındaki
▁ortak
▁sayı
▁Al
▁bağlantı
▁güven
▁uzay
▁çeşit
▁An
go
▁Bo
▁biliyor
▁ihtiyacımız
nızı
▁yapılan
▁si
▁İnsanlar
▁sağlık
▁canlı
▁anlamın
▁inan
▁di
▁olduğumuz
▁okul
▁ele
▁tasarım
ed
▁biliyoruz
▁yaptık
▁f
imi
diğini
▁ko
fa
▁Belki
▁6
▁düşün
ho
▁bina
ebilirsiniz
▁anne
▁görmek
▁görüyorsunuz
▁be
▁işi
▁çocuklar
th
sinden
▁rağmen
inden
j
▁beraber
▁düşünüyorum
üm
▁görebilirsiniz
▁alıp
▁uygulama
▁teşekkür
▁insanın
▁sistem
2
▁kap
▁sistemi
▁kafa
▁madde
▁nedir
▁Büyük
▁dolayı
▁bakış
▁gitme
1
▁erkek
▁altı
▁Su
ber
dığımız
bil
▁hücre
D
▁bırak
▁ver
acağım
▁Di
▁ön
▁olmalı
leriyle
▁ulaş
▁alanı
▁adım
▁kullan
ey
▁asla
▁oda
▁Avrupa
▁ettim
▁eder
▁kur
▁çizgi
▁koy
▁yardımcı
▁York
mişti
ton
▁güneş
▁sebep
ının
▁ileri
▁dolu
▁telefon
▁bazen
der
▁olay
▁yılında
▁Mo
▁olursa
san
▁bakar
4
▁düşündüm
▁dikkat
▁etmeye
▁fikri
▁başına
▁internet
▁Ayrıca
ley
▁olsun
▁değişim
▁Co
dür
▁yaşayan
▁do
alım
▁plan
▁bas
▁olup
▁aç
layan
diğim
lük
▁hangi
yken
▁dışında
▁Diğer
▁verir
▁hoş
ilmiş
▁konuda
▁çalış
▁merak
▁dünyayı
▁model
▁arka
▁hepimiz
▁test
▁kendini
▁orman
▁ayrıca
▁içerisinde
▁seç
▁adı
▁engel
lanma
sü
▁defa
▁kazan
ve
▁ekonomik
M
▁sebebi
▁M
▁gücü
şi
▁dil
▁Li
▁hayatta
▁vermek
▁sıra
▁yan
▁almak
ver
▁İki
mo
▁sen
▁küresel
▁hayvan
▁destek
▁sürekli
▁ders
ist
▁Buna
▁kesinlikle
es
▁alır
▁tabi
▁yılda
▁şehir
▁resim
▁tamam
▁40
rt
▁takip
▁beri
▁haber
▁görüyoruz
ol
▁Yeni
▁fotoğraf
ing
ör
miyor
▁hep
iş
yo
is
bu
sem
▁yaşında
▁ettik
▁gerekli
B
▁kas
▁et
▁F
lamak
▁makine
kan
▁gerektiğini
▁olurdu
it
▁yap
▁Ra
yim
ğa
▁mutlu
▁binlerce
▁sesi
▁metre
ebilecek
ger
mıyor
▁kısmı
▁uygun
▁seçim
▁arada
C
unun
▁kalma
▁başarı
▁sık
▁Bütün
yum
▁yarat
pi
▁başarılı
▁Bizim
mesi
▁haline
▁ihtiyaç
do
lerimizi
▁deki
ıldı
mıştı
▁gen
▁hedef
▁gidiyor
▁h
▁acı
▁Teşekkür
larımızı
▁ait
son
▁nedenle
▁aşı
▁kök
yon
▁çal
▁çözüm
ko
▁bulunan
ıyoruz
▁L
▁Hayır
▁El
ste
▁Ro
▁başladık
▁ilgi
▁Se
▁şeye
▁ciddi
▁yemek
▁Gerçekten
▁evet
▁meydan
▁re
▁büyü
▁dünyadaki
▁kalan
P
▁uzak
▁yaptım
▁pa
▁yazı
▁ediyorum
▁edecek
▁7
▁Ga
▁robot
T
▁kadınlar
▁varsa
iyet
▁yaptı
▁görüntü
eceğim
larıyla
▁gidip
▁mükemmel
▁söylüyor
▁La
▁işaret
▁sonuç
gu
▁orta
cü
▁San
▁açı
▁müzik
▁kol
▁g
ık
ımız
9
▁sayesinde
mu
ul
▁zengin
lanmış
▁risk
▁9
▁yavaş
▁düşük
▁bağ
▁elektrik
▁korku
▁tabii
liğe
tör
▁DNA
▁gerekir
▁büyüme
tro
▁musunuz
▁asıl
▁kara
▁yatırım
ilen
▁18
acağız
▁söyledi
▁İş
▁mevcut
▁kapı
8
▁gönder
▁olmasını
▁dahil
▁muhteşem
şa
▁yöntem
▁zamanlar
▁veren
▁kitap
isti
▁ci
▁tıp
▁resmi
tif
▁Ku
▁başlıyor
▁geçir
mize
▁olmadan
▁eş
▁veriyor
▁N
▁kır
▁nerede
duk
▁yıldır
▁sinir
id
▁geli
▁biliyorum
▁altın
▁sor
▁na
▁oldukları
▁Si
▁diyor
▁yukarı
▁hata
▁anlamak
▁ABD
▁alıyor
▁anlat
▁çalışıyor
▁kullanma
▁ayak
mıza
▁olduğum
▁devlet
▁Do
▁Be
▁dizi
landı
tım
▁göstermek
▁oluştur
▁sat
abiliyor
▁8
▁çift
▁yaptığım
▁sayfa
▁konuş
masını
▁normal
▁görünüyor
▁verdi
▁dur
▁12
ımı
▁düşünme
▁geliştir
▁kon
▁bil
▁yu
▁sahibi
▁yedi
▁beyaz
▁işin
dığım
▁heyecan
▁tepki
▁şiddet
mde
▁birinin
▁çıkan
▁olacağını
▁gel
▁li
▁kendimi
▁aracı
let
▁sal
▁algı
▁program
▁yayın
▁araç
ebiliyor
▁bulmak
▁ö
met
▁pi
▁kişisel
abilecek
▁ç
E
▁yerlerde
▁iste
nuz
▁sağlıyor
meyen
▁Mi
▁b
▁60
00
▁görüş
▁bulma
▁bilme
▁koruma
meyi
▁ortalama
▁emin
▁görev
▁bilirsiniz
ysa
▁sol
6
▁tarafta
lıyor
▁kanıt
▁herkesin
▁Bi
▁öğret
▁Bunları
▁nedeni
▁sınır
▁oluşan
▁başlar
▁mesaj
kları
▁Amerikan
iyle
▁birini
▁yük
▁yanında
▁Da
▁nun
▁mavi
▁şarkı
▁Le
▁gider
▁öğrenme
▁alın
▁söylemek
▁zaten
▁yapacak
▁Müzik
▁ilaç
▁buraya
▁pe
▁şekli
suz
▁tartışma
he
▁gelişme
▁Mu
▁sar
▁fırsat
▁çocukların
▁medya
▁Re
▁oray
▁aldı
▁çek
▁masa
▁Artık
▁yasa
▁Herkes
ladı
▁iz
per
▁Bil
▁tip
▁silah
▁pazar
mızda
▁Onun
▁Birleşi
▁bakalım
3
▁ba
▁şeylerden
▁kendisi
▁noktada
bir
lerdi
▁ü
▁ortada
▁yerinde
lenmiş
sam
▁olsaydı
▁sayıda
▁fakir
▁fiziksel
▁yapabilir
G
lendi
▁yaşıyor
▁yeterli
tık
yse
▁duygu
▁kaynak
▁lazım
▁gördük
nızda
▁ufak
0
▁kamera
▁üstünde
▁Başka
▁19
müş
▁idi
dikleri
▁üst
▁çıkıyor
iyorum
▁Örneğin
▁dışı
▁yapar
▁petrol
▁derecede
▁harita
▁yıllık
▁11
▁dayan
▁İnsan
▁temiz
▁art
uyor
▁kanser
sunu
malıyız
▁örneğin
lığ
▁aldım
▁icin
▁belli
os
I
▁temsil
diğiniz
▁gerçekleştir
▁Orta
sıyla
▁baskı
▁der
▁fa
▁verdim
▁Mars
▁mücadele
7
▁düşünüyor
▁yarı
mın
kleri
▁suç
▁as
ğu
▁şeylerin
5
▁kutu
▁üniversite
▁CA
iyorlar
ab
▁yiyecek
▁Çocuk
har
▁kişiler
▁kurtar
▁çalışmak
▁buradaki
▁ihtiyacı
▁şekil
tar
▁kuş
▁katı
▁gerektiği
▁gördüm
kten
▁yeşil
oloji
[
▁dış
▁Güney
▁is
▁Kuzey
▁olmaya
▁günde
▁se
▁görsel
▁bakım
▁Mesel
▁Na
▁Va
▁v
▁alt
▁tut
▁deneme
▁hâl
▁hastalık
▁sanırım
▁okyanus
eği
▁halde
hu
L
ah
▁geçti
▁zamanlarda
]
▁ediyoruz
anırım
▁biçimde
▁söyleme
▁paylaş
▁döndü
▁beynin
▁tutu
▁Orada
▁Google
▁yapıyoruz
▁Nasıl
▁düzen
▁Jo
ji
▁dünyaya
▁çöz
▁gözü
▁Bazı
▁içeri
▁Kar
▁çık
▁gittim
▁yaratmak
▁kalp
▁yaş
▁ilgilen
▁iklim
▁hizmet
▁azında
▁hayatın
▁şirket
▁Ge
lenme
▁dağ
ay
▁yapılmış
▁25
▁kes
muyor
▁yerel
▁em
ildi
▁dik
cık
▁hak
▁Ara
▁takım
ılan
▁erkekler
▁Hatt
▁zarar
▁bi
▁aşırı
▁yaşlı
▁gelme
▁Fi
▁olduklarını
▁dijital
▁etkileşim
▁ayır
▁R
▁edebilir
▁uç
▁merkezi
▁biliyorsunuz
▁olacaktır
▁it
▁Tanrı
▁düşünür
lanan
▁işler
▁hayır
▁giy
▁konusu
▁şaşırtıcı
larımızın
▁numara
▁dönüş
bilme
▁sahne
▁kaynağı
▁sayısı
▁etkili
▁cep
vu
▁Y
tor
▁biyo
▁can
op
▁sabah
▁sonucu
▁kullanıyor
▁bazıları
sh
▁milyonlarca
umuz
acağını
▁aldık
▁tanesi
▁söyle
unda
▁dışarı
▁kişinin
K
▁duvar
▁etkisi
▁saniye
▁amacı
▁duy
▁gördüğümüz
▁Böyle
▁kendilerini
▁gösteren
▁edilmiş
▁sağlayan
▁verdik
▁ince
▁bununla
lemek
men
▁gözlem
▁gizli
▁istedim
ıyorlar
yü
▁çocukları
▁söylen
iği
▁He
yorum
▁cihaz
▁adında
▁ürün
dıkları
üyor
▁açısından
siyle
miştim
▁politika
eceğiz
▁teşekkürler
▁çeşitli
▁sev
▁olmuştu
▁yüzünden
▁arkadaş
liğini
▁Ev
▁hayvanlar
▁site
rak
▁ter
ren
ster
▁problemi
acağı
ğe
kçe
▁renk
fer
▁san
▁insanlarla
▁önünde
▁ni
gı
▁karbon
▁kullanmak
▁mesela
sından
O
▁okuma
▁başında
▁kırmızı
▁arkadaşım
▁Birkaç
nize
ğin
▁ilham
▁Pa
meliyiz
▁taraf
▁sey
▁balık
▁liste
▁Ar
▁bulun
aman
▁80
ıyordu
▁yön
▁değilim
▁dolaş
N
▁keşfed
mle
▁beceri
▁gid
▁İyi
▁yapıyorlar
▁bilmiyor
▁tarihi
larım
▁Batı
▁yaratıcı
▁anlamda
gun
▁Onu
▁tarih
▁içindeki
▁esas
▁çıkma
▁köy
ktan
▁işlem
▁Sen
▁tanım
▁amaç
▁yıllar
▁tercih
▁anlamı
▁Hiç
▁istiyoruz
▁olmuş
eri
▁fikirler
▁teknik
▁sanki
▁konuşmak
mez
▁üçüncü
▁Ak
▁rol
▁yapabiliriz
▁yoksa
laşma
▁söylediği
meyecek
▁göstereceğim
▁ülkede
liyor
▁evrim
▁kesin
▁So
▁getirmek
▁istiyor
▁önceki
▁hayatını
▁ateş
▁çaba
▁ısı
ow
▁dalga
▁Dolayısı
▁Man
lanıyor
tra
▁yaptıkları
eceği
▁pro
▁kaldır
▁organ
▁hikâye
▁sınıf
▁zamanı
▁kod
▁Tek
▁inanıyorum
▁ettiği
▁bitki
▁karakter
eyim
ebileceği
▁umut
▁bar
▁buz
▁davranış
▁ucuz
▁senin
▁ila
▁gitmek
▁görüyor
▁sırada
▁gelecekte
▁bulduk
▁teori
▁hesap
▁öğrenci
▁gösteri
▁Ki
▁Baş
▁gerçekte
cak
▁duruyor
▁yaklaş
▁arı
▁bilimsel
▁kendimizi
ışı
ılır
şim
▁adlandır
▁süreç
▁uçak
dığında
▁izle
▁İkinci
una
▁bakıyor
▁yüzü
▁yaşan
▁denge
▁satın
ünün
as
sen
▁akıl
▁durumu
▁götür
▁sağlıklı
▁Gerçek
abilmek
mizin
▁boş
▁yüzey
▁garip
▁önem
▁W
▁demokrasi
▁karanlık
▁gösterdi
eceğini
rek
▁yüzlerce
▁süper
▁Yap
▁Hepimiz
▁sanatçı
dılar
▁seviyorum
▁le
▁öz
▁Gör
mektedir
▁olanlar
▁elbette
▁korkunç
▁tarafı
▁eylem
luğu
▁günlük
▁kullanıl
ğü
şe
▁geçmiş
▁eşit
▁geçme
▁Biraz
▁yaşama
▁Video
▁bilmiyorum
▁yoktur
imizin
▁nerey
▁uzakta
maktadır
▁Çoğu
ad
▁annem
▁Tabii
▁giden
▁belirli
tür
▁baba
▁zeki
▁tepe
▁av
lığını
▁hükümet
▁farkında
▁İnternet
▁indir
▁merkez
▁genellik
▁nesil
▁kere
▁sorular
▁Vi
▁ülkeler
▁doğu
▁Kim
▁olduğundan
▁açıklama
▁açıdan
▁mesele
▁mikro
diniz
▁çiz
layabilir
▁alakalı
lerim
▁üzerindeki
ğimiz
▁hepsini
▁kültür
gü
▁Pi
▁başar
▁nde
▁dile
▁bulunma
▁Po
▁türlü
▁bebek
▁bağlan
▁değişik
▁yüksel
▁mil
▁fi
▁uyan
▁eve
▁mo
▁bunlardan
▁önemlisi
▁edilen
▁olmayacak
ron
▁yi
▁modeli
iniz
▁rahatsız
iliyor
▁buldum
ot
▁köpek
ıyorum
▁16
▁kaya
▁etrafında
▁ten
▁oldum
diler
▁geleneksel
▁gül
taki
▁piyasa
teki
▁duyma
▁icat
▁nesne
▁gerçeği
▁güvenli
lerimi
▁tarz
▁sefer
leyen
▁hücreleri
▁oran
▁Ni
▁olduğunda
▁budur
lüğü
ll
lardır
▁ülkelerde
▁yana
▁Onları
▁programı
birine
▁şehrin
▁kalk
▁başlama
▁ardında
▁sağlamak
▁hakkı
▁rahat
▁ilerleme
▁sorunu
▁uzman
manın
▁oranı
▁kayıt
▁istediğimiz
▁doku
▁çocuğun
▁sonsuz
▁yapmamız
lamaya
▁Ja
maz
▁şa
▁sekiz
▁yazma
dığınız
▁pat
▁kilo
▁Pekala
ılması
▁girdi
▁verimli
lerdir
▁sağladı
▁sevgi
ından
gan
▁isteme
yoruz
▁park
yıp
▁gitti
▁As
▁geldiği
▁getiriyor
▁virüs
▁anlamaya
▁dal
▁bekle
▁In
▁Yüz
▁Tam
adlı
▁kısım
medi
▁çalışır
▁yapmayı
▁yağ
▁parmak
▁Burası
▁Birçok
▁arama
▁anı
lerimizin
ıyorsunuz
lerinizi
▁70
▁değiştirmek
▁Mü
▁din
▁getirdi
up
▁girme
▁par
▁Beni
R
▁yönet
▁geldiğini
▁sür
▁bağla
▁evren
▁yaparken
▁modern
▁ziyaret
▁seviye
▁dokun
▁kurma
▁belirt
▁İnsanların
▁çalışıyoruz
▁teşvik
▁endişe
▁deri
ınca
gar
▁hissed
ama
▁topluluk
▁verin
▁ölç
gen
▁sahibiz
▁bölüm
▁herşey
▁ettiğimiz
laştır
seydi
▁düşünmeye
▁çocuğu
▁olağanüstü
▁halinde
bet
miyorum
▁boyut
▁gıda
▁politik
▁ton
▁genetik
▁yetişkin
▁sırasında
mizde
▁duydu
▁beden
▁vücut
▁mal
▁hücreler
▁dahi
▁ruh
▁toprak
hane
▁dön
ff
▁hayatı
ıyla
▁olmamız
▁90
▁belir
▁olmaz
▁alet
▁ediyorlar
mızın
▁yağmur
▁benziyor
▁örneği
▁yeterin
▁ada
▁davet
land
ev
▁dönü
▁geriye
▁sonuçlar
▁ikna
▁davran
▁hastane
▁duyu
▁düşündük
▁dönem
▁git
▁anlam
▁hayatımı
▁tecrübe
duğu
▁molekül
▁öte
▁katkı
▁birine
▁bitir
▁yaparak
▁don
▁besle
▁okuy
▁yetiştir
▁dek
layıcı
▁bit
▁olduğunuz
▁başta
▁Bak
larınızı
▁adamı
ral
▁yüzyıl
▁yorum
▁ortasında
▁değişimi
ndaki
▁doktor
▁13
▁anlaşıl
▁televizyon
▁kendimiz
▁Ri
▁üretim
▁insanı
▁çekici
▁olmayı
tığını
▁edil
▁demektir
▁taşın
▁kesi
▁ikisi
▁sıcak
▁herşeyi
▁top
fo
▁inanma
▁zihin
▁boyutlu
▁erken
▁akıllı
▁Ti
▁Chris
▁14
▁gemi
▁kimyasal
▁alış
▁yaygın
for
▁tur
▁dev
▁Geçen
▁bakteri
▁hal
▁Demek
kal
▁isim
▁düş
▁siyah
▁sap
▁saldırı
▁fare
▁cam
▁kendime
larınız
▁açıkça
▁strateji
▁oy
▁John
acaktır
▁kare
▁araçlar
▁onunla
▁zeka
/
▁kenar
▁dinle
▁form
F
▁kadınların
▁çalışıyorum
▁düz
▁odaklan
▁ayar
▁nöron
▁sıfır
▁dans
▁gör
▁Öyle
▁parti
▁güvenlik
▁sonrasında
▁adını
▁yazar
▁uydu
▁hissetme
▁adet
▁sergi
▁söyler
nün
ayım
▁tan
▁net
▁babam
▁tutku
▁şirketler
▁hali
▁toplam
▁hastalığı
▁görün
bb
ans
▁say
▁yoğun
yordu
▁aş
mesini
▁yaşadı
▁miktarda
▁kom
▁çalışmaya
▁500
▁kısmını
▁polis
▁Sta
▁yabancı
leşmiş
raya
▁ekran
▁dinley
▁yarısı
▁çeki
▁arazi
liğinde
H
▁devre
lardaki
▁düşünmek
▁katıl
▁Amerikalı
▁tehlikeli
▁Buradaki
▁seyahat
▁Dr
ja
mekte
dy
▁olduğumu
▁Ye
▁sorunları
▁es
▁17
▁Bilim
▁çalıştığım
▁Doğu
▁tehdit
imizi
▁kullanır
▁pahalı
▁taş
▁Tabi
diğinde
▁değiş
▁farkın
▁imkansız
▁kurtul
▁eğlenceli
▁bulunduğu
▁gaye
▁Öyleyse
▁kaybol
▁gösterme
ğim
▁saygı
▁hız
▁adına
▁ışığı
▁anlatmak
mıştım
▁nefes
▁ölçü
▁hızla
▁benze
net
▁ortam
▁cok
▁eriş
▁kamu
ğım
▁fil
leştirme
▁fabrika
▁kalbi
muştu
cılar
▁gücünü
▁otur
sünü
▁mühendis
▁sektör
▁tarım
▁geçerli
▁ağır
amaz
hr
▁bildiğimiz
▁edici
▁kitabı
▁Hem
ydım
luyor
▁Adam
▁bizler
▁199
▁gor
▁muazzam
kül
▁tasarruf
ebileceğimiz
abileceği
▁Hayatı
▁rüzgar
ttiği
leşti
ucu
▁Ona
▁günü
▁gerekiyordu
▁telefonu
▁çözü
▁analiz
▁çapında
▁Sizin
▁sıkı
▁taşı
mayacak
▁kanseri
▁hissi
▁bahçe
▁verileri
▁konuşuyor
▁ettiler
▁Bazen
▁Wi
▁kopya
▁çalıştık
▁yıldız
▁olduğumuzu
▁akşam
▁fiyat
▁Sonuç
▁okula
▁kör
▁yaşındaki
▁Sonun
▁Gi
▁ürünü
▁yada
▁çekti
ği
iyorsunuz
▁sistemin
▁öğrendim
▁değiştirme
▁işçi
▁arası
▁batı
▁salgın
▁mimari
▁alanda
▁birşeyler
ize
aj
▁seks
▁makale
▁kaldı
▁organizasyon
▁ederek
▁şe
ilmesi
▁ayı
▁sanal
▁barış
▁durma
ydim
▁bisiklet
yor
▁bulunuyor
▁Güneş
▁sağlayacak
▁bakma
▁Yine
▁malzeme
▁işbirliği
likle
▁Ay
▁boya
▁burası
▁gaz
layacak
lanması
▁sü
▁araçları
▁neyse
▁ettiğim
▁almaya
▁to
▁çoğunu
▁yapmış
▁elimizde
▁değişikliği
süz
▁çıkart
nca
▁biyolojik
▁21
▁alanlar
imin
emez
▁geliştirme
▁sevdiğim
▁sonuçları
▁ata
rik
▁yakıt
▁fazlası
▁mahalle
syon
▁sana
▁yaratma
▁inanıyor
▁burda
▁halk
▁öğrenmek
▁birleştir
▁bakmak
▁benimle
ss
▁sürdür
▁arkadaşları
▁edildi
▁benzeri
▁azalt
▁müthiş
umu
▁kaçır
▁24
▁laboratuvar
▁düşür
▁önün
▁kum
▁soğuk
▁üret
▁onlarla
▁kavram
▁sorunlar
▁bo
▁uyar
▁isteyen
▁yay
▁suyu
▁Lo
▁cevabı
▁olmadı
▁aşama
▁dönüştür
▁tas
▁ulaşma
▁arkadaşlarım
▁deli
▁motor
madan
▁buydu
▁yaklaşım
idir
▁so
▁lider
ümü
▁tablo
▁obje
ndeki
▁kağıt
▁sokak
▁ün
▁ceza
fen
▁vatandaş
▁görürsünüz
▁ol
▁göreceksiniz
larca
je
▁çıkardı
▁ham
▁kuvvet
var
▁mesafe
▁bağımsız
▁kilometre
▁makina
▁du
▁çöp
▁reklam
▁süreci
▁sinyal
▁buçuk
▁sordu
▁spor
▁geçiyor
▁tü
▁öner
▁hepimizin
▁uyum
▁Devletler
▁web
▁zayıf
▁yeri
▁boyu
▁kapat
▁alanında
▁ödeme
▁Küçük
ılıyor
▁anahtar
▁bilir
▁bomba
▁Hiçbir
düğü
leyici
▁suyun
yacağım
▁tuhaf
▁kıl
▁İngiltere
▁şeyden
▁şüphe
▁olacağı
▁çalıştım
▁başarısız
▁HIV
▁etkilen
▁şeklinde
▁tehlike
▁dediler
▁şans
▁ofis
bar
ince
▁toplumun
▁geçiş
▁Bay
ram
▁Bel
▁sistemini
▁iddia
▁kalıyor
▁görmeye
▁parçaları
▁yemeği
miştir
▁seçenek
▁çatışma
▁verilen
▁denedi
▁grafik
▁saç
▁delik
▁sordum
▁yeteneği
▁özgür
▁nefret
▁firma
▁buldu
”
ledi
▁doğum
▁şansı
▁aklım
▁farklılık
▁sıradan
▁devrim
▁standart
gel
if
kti
▁istediğiniz
▁sessiz
▁kaza
▁görünen
▁Kız
▁kullanıcı
ırken
▁koru
▁uygulan
▁kanun
ümüz
mayan
▁keşif
▁karşılaştır
▁hesaplama
▁büyüdü
▁protein
▁İngilizce
▁dönüşüm
▁kullanılan
▁başa
▁kullandığı
▁uzan
▁etrafı
▁rakam
▁bahsed
▁biyoloji
▁Harika
▁taki
▁yapabilirsiniz
▁görebilir
▁dili
▁başlay
▁olayı
▁dergi
▁balığı
“
saydı
▁işim
▁sağlar
larındaki
▁değiştirdi
▁ar
▁ediyordu
▁Elbette
üş
▁Şöyle
▁sorumlu
▁bıraktı
düğünü
makta
▁olabileceği
▁hafif
jen
▁sizinle
▁önemlidir
▁kamp
kür
▁terk
▁sürdürülebilir
▁değiliz
▁yolunu
nızın
mıyorum
▁getirme
▁olanı
▁evrenin
▁noktası
▁Ah
▁şirketi
▁The
▁sorma
▁toplan
lıyoruz
▁giriş
▁değerli
▁olduk
▁yapacağı
▁olun
▁düşündü
▁zorundayız
▁kart
landırma
▁istiyorlar
▁bü
▁yaptığını
tme
ladık
▁kay
▁Asya
▁verdiği
▁diş
▁değiller
▁kuru
▁duygusal
▁ölü
ğın
memiz
▁olmaları
▁öğrendik
▁oluşturuyor
▁üstüne
▁sağlama
▁ünlü
liydi
niversitesi
etti
▁Ses
▁ödül
▁ağaç
▁anlaşma
▁geldik
▁giderek
▁çıkı
▁kaynakları
▁plastik
▁gazete
▁Car
▁kural
▁matematik
▁yaratıyor
▁geleceği
▁İç
▁Du
▁oyuncu
▁Afganistan
▁Fa
▁eyalet
▁öldü
▁bekliyor
▁km
▁kullandık
▁Bize
▁kü
▁yüzyılda
▁sun
▁yapay
▁boy
ımın
▁seçme
▁endüstri
▁saf
▁hi
▁gez
▁um
▁verecek
▁açısı
▁fotoğrafı
▁yönlendir
▁etmeyi
▁uçuş
▁yenilik
▁aktivite
▁gerçeklik
▁koku
▁gelişmiş
▁yolculuk
▁Par
▁tık
▁yapıldı
▁maymun
ilir
lma
▁paylaşmak
▁yapıyorum
▁yazılım
lerimizde
duğumuz
▁çekme
▁karşılaş
ly
▁Mil
▁patlama
▁dediği
▁toplay
ong
▁veriler
▁görür
▁Bilirsin
ebilmek
yacağını
▁keşfetti
liler
▁ameliyat
▁kapa
▁fazlasını
mamız
▁nevi
larımı
nıza
▁mekanizma
▁açtı
▁oluşturmak
dıklarını
▁kitle
▁olabileceğini
▁Doğru
▁söyley
▁hissettiği
▁hap
▁bozu
▁sabit
▁Gö
▁kahraman
meli
▁filmi
▁etmiş
▁yaptığınız
asyonu
▁uy
▁istediği
▁itibar
▁yayıl
▁kaybed
▁toplantı
▁posta
malı
▁işle
▁Gördüğünüz
larımızda
▁Hu
▁yeti
▁şeydir
acaksınız
▁edip
ebilirim
▁asker
▁detay
▁tasarımcı
bay
▁yönetim
▁radyo
▁olabil
ara
▁önümüzde
uldu
▁tasarımı
▁bulundu
▁yaşamak
▁beyni
▁besin
▁kültüre
▁Davi
▁servis
▁salon
▁Kur
lılar
▁not
▁uğraş
▁uluslararası
▁yerler
▁mantıklı
▁sarı
▁yola
▁sığ
▁görevi
▁boz
abileceğimiz
▁kemik
amazsınız
▁azal
▁dışarıda
▁bulut
▁müşteri
▁yönel
▁ayakkabı
▁araştır
▁imkan
▁tutar
▁sesleri
▁eğitimi
▁Okul
ografi
▁dağıt
▁geçer
▁belge
sidir
nizin
W
▁öldür
▁karış
▁nda
▁çoğunlukla
lıkla
▁Eski
▁adalet
ırlar
▁arta
▁anlattı
çu
▁inanç
▁etiket
duğunu
▁karınca
▁biçim
▁çarp
▁anladı
örü
▁miktar
▁Anne
▁nüfus
▁olabilecek
▁olanak
▁Önce
▁yaşadığı
ğını
ladım
▁bilinen
fik
▁koyma
lerdeki
▁İn
▁hatırlıyorum
▁oluşturma
▁hissediyor
▁geldiğinde
▁yeme
▁sorunun
▁koydu
▁Fr
▁bilmek
▁galaksi
▁sizlere
▁yaratı
▁Dan
▁sert
▁diyorum
▁edebilirsiniz
arı
▁yönde
▁birinci
rit
izm
▁epey
▁altyapı
▁değişme
▁olasılık
▁arkadaşı
▁Der
▁ölme
▁neyin
ğini
ırsınız
gram
ilebilir
▁Londra
▁artış
▁dokuz
▁adamın
hur
▁toplama
▁şeker
▁dikkatli
▁gurur
▁anlatıyor
▁dediğimiz
▁bağış
▁oto
▁ani
▁Birincisi
▁parçalar
▁harcama
rin
▁300
▁yerleştir
▁Bar
▁Bazıları
▁uça
▁am
▁ötesinde
indeki
▁Ö
▁Sh
▁güney
▁fikirleri
▁düşündüğümüz
▁gördü
▁yapılması
▁kapalı
▁öykü
▁kıyı
▁oyunu
▁ettir
madı
▁Or
▁başladılar
▁potansiyel
kça
▁Aile
▁yürüt
▁parlak
▁yansıt
X
▁oku
▁türü
▁ip
▁büyüt
▁korumak
▁düşündüğüm
▁kuralları
▁insanlardan
▁gelişmekte
▁hayata
▁girişimci
▁başı
▁lütfe
altı
▁siyasi
▁olabilirsiniz
▁depo
▁kor
▁aktif
▁taban
▁sağlığı
▁karşılaştı
ciler
50
▁ediliyor
▁To
▁Güzel
▁cümle
inizi
▁Hepsi
▁ölçüde
▁karıştır
▁kızı
abilirim
▁hastalıklar
ulmuş
▁şifre
▁Fe
▁yaşay
▁gittik
▁içer
larsa
▁halka
▁tırman
rke
▁Göz
▁his
▁karşısında
▁çıkarmak
▁istey
▁kuzey
▁yaptılar
▁adamları
▁fikrini
ımızı
raf
▁tespit
▁arkasında
▁göze
▁şiir
maktan
diğinizde
▁inceleme
▁krizi
▁İngiliz
▁gerekirse
▁edilme
lıyız
▁Tu
nuzu
ard
▁konum
▁ölçek
▁Kan
▁duyar
▁günün
abildiği
▁zihni
▁ürünleri
▁kok
▁...
▁kaba
▁sistemleri
mıştır
▁kaldırı
▁bölümü
▁alanları
▁yarım
▁ismi
ven
▁şeydi
▁maliyet
▁nereden
▁vur
▁bırakma
▁Hal
▁tarafında
▁kanal
maları
▁cinsel
▁yerden
▁Teknoloji
▁dava
umun
▁çılgın
▁yapacağım
▁Go
▁cinsiyet
▁nükleer
▁Çocuklar
▁yargı
▁sevme
▁Afrikalı
lke
mem
▁daire
▁aşk
iyordu
▁kul
diklerini
▁yollar
▁araştırmacı
▁çalıştığımız
▁yanıt
▁tutma
▁gittikç
▁olmaktan
▁sürece
▁girişim
▁ülkelerin
▁seni
▁vaka
▁bahsetmek
▁mutluluk
▁anlayabil
▁taklit
▁kullanımı
leyecek
▁kullanıyoruz
▁kulak
▁saye
sizlik
cılık
▁tüket
▁yarış
▁mimar
▁çalıştır
▁kablo
▁0
▁harf
▁Onların
▁isterim
▁koyar
▁bulabil
leniyor
▁sır
▁istemiyoru
ırız
▁alacak
lendirme
▁Top
▁üretme
▁Söyle
isi
▁bahsediyor
▁bağımlı
▁yarattığı
▁ihtiyacınız
▁koyu
▁Bakın
▁Sanat
▁Sana
likten
▁tıbbi
▁çiçek
▁öğrenciler
▁düzey
▁eli
▁şekillendir
luğ
▁soy
▁haklı
▁gösterir
▁Hasta
▁şanslı
▁vermeye
ac
gün
▁atı
▁suçlu
▁konferans
▁Pe
▁bulur
▁işletme
▁diyoruz
ınız
▁yaşıyoruz
▁Sol
▁kütle
▁özelliği
▁savunma
▁uğra
▁görüşme
▁tasarla
▁teknolojiyi
lmaz
▁marka
▁buluş
▁kullandığımız
▁istedi
▁kişiye
▁Yer
▁bol
▁düştü
▁etkin
▁gibiydi
▁Gel
▁doldur
▁yapabileceği
lıkları
▁gözleri
▁yapabiliyor
▁komik
▁hatırla
▁düzenleme
▁edebiliyor
▁tarzı
▁Pat
▁paylaşma
şık
▁anlamıyla
▁sembol
ebilen
malısınız
▁hikayeler
meden
▁rapor
ğünü
▁Pro
uğu
▁sonun
▁sandalye
▁musun
▁bekleme
▁seri
▁Gu
▁eğilim
▁edebiliriz
▁ters
▁Irak
▁elinde
▁eşi
▁ulus
▁kurmak
▁yılı
ksiyon
▁edilmesi
▁ez
mis
▁çök
▁arzu
▁karşılık
▁dürüst
abilirler
▁gelmiş
▁tanıma
amayacağı
▁olamaz
▁robotlar
▁durumun
mah
▁sermaye
▁ağacı
▁kaybetti
▁içi
▁ihtiyaçları
▁kurul
▁görüyorum
▁tuvalet
▁yapmıyor
▁kıta
▁çevir
▁seviyor
▁sö
▁At
▁denen
bilirsin
▁arıyor
▁benden
▁Tekrar
olog
▁Ek
▁olmanız
▁hakları
menin
▁yöntemi
▁bazılarını
▁dünyasında
▁olacaktı
▁şehirde
▁taşıma
▁Hey
▁işleri
▁degil
▁ekibi
▁bulmaya
▁karışık
▁ücret
▁ulaşmak
▁deneyimi
rah
▁kendinizi
▁çalışmaları
▁bayan
▁Hava
▁öğrencileri
▁atık
▁katman
▁düşünüyoruz
▁İsrail
▁kullanan
▁yor
▁ser
▁gittiği
▁miydi
les
▁balina
▁düşünül
▁ah
gra
▁yönetici
▁kesim
lenmesi
▁anlatı
▁katılma
▁gruplar
▁birbirlerin
▁yerlere
▁2000
tığımız
▁serbest
▁bildiği
lanır
▁ordu
▁etmemiz
▁başladığı
▁söylediğim
▁mağara
▁tanımlama
▁berbat
▁öğretmen
▁Sağ
▁çalıştığını
▁yavru
▁performans
yalım
▁günümüzde
▁Bilgisayar
▁kayıp
▁değeri
▁tanıştı
▁yürüy
▁hükümeti
▁ge
▁söyleyebilir
▁Sorun
▁toplu
▁çocuklarını
▁yerini
▁biçimi
unuz
▁banka
so
▁etmekte
▁ihtiyacım
rı
▁Geri
▁dönme
▁istedik
▁ihtimali
▁evde
lıydı
▁pencere
▁dişi
▁şefkat
▁balon
▁askeri
acağımız
▁merkezinde
▁edersiniz
▁hukuk
▁atom
▁evrensel
▁lerde
▁çalıştığı
▁Wal
▁Yu
▁çizim
▁dönemde
▁kapsa
▁özellikleri
▁zamana
▁Yo
eğe
ecektir
▁karşıya
▁kulağ
▁fırsatı
▁kitabın
▁olmaması
▁kedi
çüncü
▁dizayn
▁düşman
▁etmiyor
▁kampanya
▁yaptır
▁rekabet
q
▁kıs
amayacak
▁artır
abilen
▁grubun
V
▁kimya
▁ticari
▁başlangıç
ğümüz
▁kimin
▁deniyor
▁Biliyorsunuz
▁başlangıcı
▁kurallar
▁lise
lıyım
istan
▁koyuyor
▁arttır
▁beklenti
▁oğlu
▁sok
▁cesaret
▁zamanlı
▁kredi
▁Yaklaşı
▁gözüküyor
▁başlat
miyoruz
▁takımı
▁mercan
▁Dedi
▁domuz
lenen
▁Sağlık
▁izleme
▁fizik
▁uzaklaş
▁istiyorsanız
▁tavsiye
▁V
▁dedik
▁kendiniz
▁durumunda
▁zevk
▁ulusal
▁kıyasla
ic
▁bireyler
▁görünür
▁yetenek
ore
▁değişiklik
▁görüşü
▁aksin
▁yaşamın
▁sonu
▁boşluk
don
▁sıvı
▁memnun
▁kazandı
▁çıkış
▁gökyüzü
▁misin
▁unutma
▁dayalı
▁uyu
▁Brezilya
▁yazık
▁tümör
▁hastalığın
▁haberler
▁sivil
▁198
▁Kara
melisiniz
▁gö
▁oksijen
▁asi
▁gürültü
▁hassas
▁talep
▁Kadın
▁endişelen
▁çiftçi
▁İkincisi
▁tanrı
müştü
▁mekan
▁Facebook
▁anlatma
▁türden
▁Araştırma
▁ettiğini
▁yapama
▁gönüllü
▁engelli
▁çekiyor
▁döner
▁alkış
▁Kimse
eceksiniz
▁sahiptir
▁yaşın
▁heyecanlı
▁ihtimalle
▁eminim
▁Annem
▁olmama
▁Ana
▁organizma
▁gönderme
▁ibaret
▁edilebilir
▁Gün
▁Altı
▁böl
▁sistemler
▁dolara
▁Deniz
▁yoluyla
▁yolla
lerse
▁AIDS
abileceğiniz
▁Almanya
▁ikisini
yecek
▁Şunu
▁hikayesi
▁birinde
▁toplumsal
▁kahve
▁buradan
ladığımız
ysanız
▁elektronik
▁bileşen
zo
▁acil
▁bebeği
▁alabilir
▁çağır
iyeti
ğında
▁Adı
▁oluşturan
▁yaptıklarını
nom
▁gördüğüm
▁müdahale
▁hissettir
▁bütçe
bilimci
ite
▁baz
▁fonksiyon
ecekler
▁kıyafet
▁Pek
▁çocuklara
▁kadının
▁müze
▁yarar
▁Dev
▁peki
▁hafıza
mıyoruz
▁dini
▁oluşuyor
log
▁Uzun
▁nadir
▁bende
▁okulda
▁kaydı
▁oranda
▁diğeri
▁dönüyor
muzu
▁dol
▁oynama
▁çoğunluğu
▁materyal
▁mantar
▁ulaştı
▁çıkmış
▁takdir
▁Japonya
▁başlayan
▁kişiyi
▁Sizi
▁üretil
sindeki
▁sanatı
▁400
▁maru
abileceğini
▁odada
▁basın
▁Yaşam
▁oluşturur
▁değişti
▁tesis
▁internette
▁manzara
▁kendisini
▁bilinç
▁öğretti
▁başlattı
▁kriz
cik
mızdan
▁tutmak
▁değerlendir
emeyiz
▁dönüştü
▁geçirme
▁roman
mizdeki
▁istatistik
▁hisse
▁alarak
▁bizimle
gre
▁yetiş
▁bölgede
▁biliyordu
▁tartış
▁çağ
layarak
lerindeki
▁trilyon
ebileceğiniz
▁imza
▁Kenya
▁şaşır
▁faktör
ang
▁ilacı
▁bilgileri
▁sıtma
▁grubu
▁konuşmaya
▁Pla
amadı
▁sağlayabilir
▁tren
▁paket
▁imkanı
▁yapabilecek
▁olduğunuzu
▁Fo
▁doğdu
▁içerik
▁Am
▁ederken
▁deyişle
▁tav
▁çalışmalar
▁nedeniyle
▁gelebilir
▁teşhis
▁küme
▁gelişim
▁alternatif
▁Yalnız
▁kullanım
düm
▁zinciri
▁Ön
▁popüler
▁resimler
▁zemin
▁vücudu
▁özgü
▁görü
▁koruy
▁yönetme
▁sonrası
▁İran
▁yumurta
▁köle
▁insanlık
▁tüketici
▁diz
▁finans
▁sınırları
▁Ber
▁yalan
meleri
ımızın
▁isimli
▁baktığınızda
▁bakarsa
▁üzeri
▁sağlay
dınız
ebildiği
▁akım
ğine
▁bunlara
▁zorundaydı
▁vakit
▁çağrı
▁getiren
▁ahlaki
uru
▁ekosistem
▁getirir
▁dediğim
▁anlar
▁olabilirdi
▁yürüme
▁söylüyorum
▁mantık
▁ağı
▁yörünge
▁alalım
▁Ulusa
larımıza
▁kalın
▁Har
▁Mısır
▁Konuşma
▁evin
dığınızda
▁istedikleri
lebilir
▁bakan
▁yapmanız
▁kuruluş
▁hayatlarını
▁kendileri
▁gelişimi
▁taşıyor
▁tuz
▁Genç
▁anlamlı
▁kaynaklar
▁Başkan
▁saçma
▁çağı
▁profesyonel
tıcı
▁Mc
▁hâle
▁yaka
▁konuya
▁çekmek
▁Özellikle
▁çözmek
▁verdiler
▁şehri
▁şehirler
ırdı
▁işleme
▁çerçeve
▁çevresinde
▁Biri
▁beğen
▁sistemimiz
▁Kanada
▁eser
▁seviyede
▁duru
ebileceğini
ğr
▁terim
▁fayda
▁Biliyoru
▁önemi
▁yiy
▁aklın
▁yolculuğu
▁kalite
▁oturuyor
ladığı
▁devasa
▁yaşadığımız
▁hissediyorum
▁platform
▁heykel
kâr
▁rastgele
▁finansal
▁radikal
▁yönelik
▁çözümü
▁klinik
▁Küresel
▁milyarlarca
▁fon
▁mezun
▁ederiz
acaklar
▁aktar
abiliyoruz
▁yapıyordu
▁gelmek
▁geliyordu
▁tabaka
▁tarif
▁Neyse
▁sürede
▁hareketi
acağınız
▁yapılma
abildi
▁düşme
▁sonucunda
▁Para
▁maden
▁Öncelikle
▁çektiği
üstü
▁bitkiler
▁güvenilir
▁rastla
▁şirketlerin
▁kurdu
▁Jam
▁eksik
▁yılın
▁yolda
fu
▁Time
▁sağlam
stan
▁kalmış
iyordum
▁vergi
▁bilgisayarlar
▁etmesi
▁yığın
▁parayı
▁Değil
▁üçte
▁üretimi
▁uyku
▁Yakın
▁pu
▁kilit
ılabilir
▁kurban
▁Bizler
▁kavra
▁boyutu
▁şişe
▁sorar
▁baktığımızda
▁alanlarda
▁birbirleri
▁yapılıyor
▁Soru
▁Genel
▁bulabilir
▁fosil
▁yapabileceğimiz
▁diyelim
▁Doğa
▁Kal
▁fikrim
▁dönüştürme
▁seçti
▁verdiğimiz
▁içeren
▁anladım
kte
▁karikatür
▁faaliyet
▁yazdı
▁inceledi
▁saha
▁Bağ
▁öngörü
abilirdi
▁kazandır
▁olası
▁yatak
▁hatırlat
▁hızı
▁psikoloji
lması
▁yarattı
▁bilin
▁cihazı
▁tamamı
▁zamanla
▁çöl
▁bahsetti
▁bildiğiniz
▁vakti
▁öldürme
▁uygula
▁zamanında
mıyordu
▁yenilikçi
▁döngü
▁ekip
▁tatlı
▁sınırlı
ildiği
▁vahşi
▁kelimeler
▁ederler
▁seyirci
line
▁Fransız
▁vuru
ldukça
▁öfke
▁öğretme
▁bilmiyoruz
ino
▁Is
▁çözme
▁çıktığı
▁alıcı
▁150
▁metal
likte
ime
▁küre
▁birbirin
▁çalıştı
▁avantaj
imde
▁teklif
▁azaltma
vet
meyeceğim
▁rengi
▁babası
▁koca
▁bağır
▁satış
▁saatte
▁baktı
▁Kesinlikle
▁yüzyılın
▁Uzay
▁başlamak
nizde
▁problemleri
ıldığında
▁zar
▁yarışma
▁olgu
▁durdur
melen
▁Beş
▁Ed
▁hayran
▁civarında
▁çözümler
yorlar
▁dinleme
▁çalışırken
▁İz
lerimize
▁Twitt
▁sunum
▁etraf
▁miktarı
▁ekley
▁bahsettiğim
▁çoğunuz
sıdır
▁Düşü
▁Babam
▁başlayalı
▁eğit
▁neyi
▁onay
▁sebeple
▁komşu
▁düzenli
▁geliştirmek
▁biriydi
▁Geliş
▁söyleyen
▁hastalar
▁istek
▁arttı
▁eğri
ınızı
▁mülteci
▁basitçe
▁alıyoruz
inizde
lup
▁özgürlük
▁çeşitliliği
▁belirsiz
▁Oyun
dışı
▁gazeteci
▁yıllarda
▁sıkıntı
▁gelince
▁çalışması
uantum
▁mor
lendiği
▁ışığın
▁anlatacağım
▁kültürün
▁zordur
▁Eğitim
▁kocaman
▁Paul
▁yaşındayken
▁yolunda
▁Yol
▁duyuyor
ebilirler
▁isteği
▁evrende
▁edebil
▁Savaşı
▁olaylar
▁açma
▁maliyeti
umuzun
▁etkileyici
lıyordu
▁düzgün
▁köşe
▁çatı
▁kullanmaya
▁birçoğu
▁Umarı
▁bölün
▁Farklı
▁almış
leştirilmiş
▁ilaçlar
▁ölçüm
♪
▁yapabil
▁soyut
lanabilir
▁Basit
▁vereceğim
▁kontrolü
▁yöne
eceğiniz
▁ağaçları
▁cesur
▁düşüş
▁tohum
▁çeken
▁olmuyor
▁You
▁blog
▁buzul
▁algoritma
▁varlığı
▁Konu
▁derdi
▁Per
▁bilimi
düşünebilirsiniz
▁Proje
▁ahlak
▁kişilik
▁olmam
▁Ol
▁bal
▁diyorlar
▁kırık
▁sevdiği
lemeye
▁esnek
▁yükselt
▁merhamet
▁geçmişte
▁ederse
▁üstün
▁dilim
▁felaket
▁koloni
▁gelmişti
▁sıklıkla
▁tutuyor
▁içeriği
▁ziyade
▁dakikada
ımda
▁yüzeyi
▁kutsal
▁sorumluluk
▁görmüş
▁hayvanların
▁oluşturu
▁Ken
▁farkı
▁depresyon
▁ebeveyn
▁taşıy
▁koş
▁ağrı
▁balıkları
▁sahte
▁Hayat
ceği
▁Meksika
▁Yapma
▁sormak
▁başlıyoruz
▁falan
▁söyleyebilirim
▁duyuyoru
▁edeceği
▁Müslüman
▁örgüt
▁götürdü
▁makinesi
nizle
mekten
▁duran
▁edebileceği
▁sesini
▁hikayesini
▁öğle
▁Bra
▁üretmek
▁tahta
▁İslam
▁idare
▁Toplum
▁yaşar
▁atmosfer
▁No
▁Hala
▁beslenme
lıyorlar
▁hasar
irken
▁sahipler
▁kanat
▁oyuncak
▁koymak
▁aracılığıyla
▁Açık
▁etrafta
▁nehir
▁çıkarıyor
▁etmeniz
▁konuşmayı
▁satıl
▁hip
▁Şehir
▁denilen
mizden
▁politikacı
▁attı
▁hücrelerin
▁kalmak
▁görünüş
▁bahsedeceğim
ımızdaki
▁Muhte
ell
▁olumlu
▁keşfetme
▁gerçekliği
▁Steve
▁olacağız
manız
▁yapması
▁istemiyor
▁pozisyon
▁sürdü
▁inancı
▁değişken
▁sıkıcı
▁geliş
▁kurtarma
▁oynay
▁biliyordum
▁uyuşturucu
▁Pan
▁kritik
lüyor
▁bat
▁ırk
▁süt
▁yoksul
▁ayında
▁George
▁otomatik
▁ürünler
▁iyimser
▁zirve
▁giriyor
▁göç
▁yuva
▁hepiniz
▁gezegenin
▁geldim
▁resme
▁Veri
ligi
▁Nijerya
▁işlev
▁daim
▁tersine
▁uçur
▁adamlar
lduğu
▁aldığı
▁kaybetme
▁ortamda
▁ekmek
emiyor
eceğimiz
▁35
▁Bill
▁nihayet
▁blok
▁kullanılıyor
lanmıştı
▁çeviri
▁hesab
▁sakin
▁Pen
▁genişlet
▁altındaki
▁Sha
▁izliyor
▁kardeşim
▁sürücü
▁olmasa
▁niyet
▁yazdım
▁çoğal
▁meslek
▁ısınma
emedi
▁şok
▁simetri
▁Eylül
▁güvenliği
▁demokratik
▁Savaş
▁yasak
▁moda
▁Araba
▁değişiklikler
▁baktım
▁mühendislik
▁vücudun
landığı
▁Rus
ire
▁konuştu
▁kızlar
luğun
▁avukat
▁ilgilenme
▁istemez
▁üste
▁Kore
▁İşin
▁sırt
acağımızı
▁tarihinde
▁boşa
▁değerlendirme
▁aylık
▁başladığımız
▁yaparsa
▁durdu
▁korkuyor
▁evrimleş
▁trafik
▁mobil
▁geçtiği
▁197
▁sili
larımdan
▁olmasıdır
▁aldığımız
▁Gü
▁Kendisi
▁geçirdim
▁koşu
▁bireysel
▁arayüz
▁oyna
▁söyledim
▁eseri
▁nesli
▁sunuyor
tığım
▁patent
▁organik
▁köprü
▁genom
▁artıyor
▁Sosyal
▁slayt
▁halkı
▁çalışıyorlar
▁Bilgi
▁oradaki
▁sıradışı
▁bilimin
▁gök
▁ideal
▁teknolojik
ebildi
▁hizmeti
lus
▁ışın
▁görünmez
▁uzat
▁düzeyde
ınıza
▁zorla
▁iğne
▁Sev
▁ucu
▁başkanı
▁hissettim
▁çoktan
▁korkutucu
▁damar
▁özet
▁polen
▁oluş
▁süren
▁destekleme
▁kullanabiliriz
▁açığ
▁öne
▁harca
▁geçmek
▁renkli
▁oranında
leyerek
▁eğlence
▁dusun
▁varsayım
▁planlama
▁geçiriyor
▁uygulay
▁liderlik
▁Avustralya
▁canlandır
burg
ıldığı
▁yaşamı
▁tamamıyl
▁Sal
▁Gelecek
▁örnekler
▁zorlu
▁erkeklerin
▁testi
▁ulaşım
mezsiniz
▁ölüyor
▁ilgisi
▁kuram
▁kut
▁bağlantılı
▁organize
▁ağırlığı
üzün
▁hapishane
▁bilinci
▁ağaçlar
▁kurumlar
▁stres
▁tel
▁öldürül
▁hamile
▁buluyor
▁gelin
▁böcek
▁yapın
▁isterse
▁nano
▁Kaliforniya
▁odaklanma
▁oturup
▁Dünyada
▁kasaba
▁hayret
▁Yunan
▁sağladığı
▁elektro
▁gibidir
▁çeker
dığımda
ılacak
▁değiştiren
▁aldığım
▁yasal
▁İnanılmaz
▁geçmişi
▁tarama
▁Herhangi
▁hatırlay
sha
▁tutun
redeyse
▁hisseder
▁dosya
▁sahipti
▁çevirme
▁çıkmak
▁umarım
▁borç
▁çalışıyordu
▁yürüyüş
gal
vo
▁soğu
▁Evren
▁Darwin
▁Los
▁bugünkü
▁Kral
▁ağzı
▁düşen
▁yakalay
chi
▁farkettim
▁Merkezi
▁olayları
▁yaratır
▁Öl
▁yetiştirme
▁İsveç
larımın
Q
▁kategori
cilik
▁gri
▁mesajı
▁Tasarım
kinden
▁peşinde
▁girer
▁eğlen
▁45
▁hakim
▁anlıyor
▁saklan
▁alıntı
▁Ale
▁avcı
▁küçül
▁süreçte
▁görülen
▁hediye
▁sohbet
▁kitapları
▁operasyon
▁görmez
▁yaratan
cisi
▁ölçekte
▁gidecek
▁ilerley
araya
▁hızlandır
▁faydalı
▁ötesin
ümüzü
▁planı
▁ayakta
▁gezi
▁oluyorlar
biriyle
▁konser
▁tuttu
▁diğerleri
yüz
▁gerekti
▁havada
▁kabile
▁Hangi
▁dokunma
▁99
▁oturma
▁üstesinde
▁malzemeler
▁kısmında
▁benzeyen
▁Einstein
▁gideceği
▁yo
▁barındır
▁şaka
▁Hepiniz
▁şeklini
▁anlattığı
ment
▁düşünüyordum
▁Yıl
emeyeceği
▁İtalya
▁lisans
▁kutup
ble
▁kalem
▁siyahi
▁söylediler
▁kazanma
▁günlerde
▁göçmen
▁kurumları
▁mektup
▁yakalama
▁harcıyor
▁Cha
▁Arkadaş
▁rüya
▁Sonuçta
▁müdür
▁kişilerin
▁gövde
▁ucunda
▁kitaplar
▁durumlarda
▁sezgi
ledik
▁kalanı
▁söyledikleri
için
▁bulduğumuz
▁ediyorsunuz
▁prensip
▁kullanıyorlar
▁diyordu
▁otobüs
ıvı
laştırma
▁oluşma
leştirmek
▁meşgul
▁Park
▁yakalan
▁konuşacağım
▁haz
▁memeli
▁Şirket
▁bekley
▁dayanıklı
▁kapasite
▁Az
▁duygusu
▁bölgesinde
▁görevli
▁ayırma
▁bölgelerde
▁elle
▁yaşı
▁çeşitlilik
▁dinamik
▁İlki
▁profesör
▁üreme
▁kariyer
▁çiftlik
sındaki
▁Gene
ras
▁hücresi
▁inceley
▁özellikler
▁düşüyor
▁şaşırt
▁mekanik
▁vazgeç
▁üretiyor
▁dökü
▁Ekonomi
▁Wo
▁ettiğiniz
▁vizyon
▁problemler
▁75
▁Alman
leşir
▁bırakıyor
we
▁hatırlama
▁yuvarla
▁edeceğim
ska
▁kayded
▁tasarlanmış
▁kırsal
▁koşullar
lerimden
▁kamyon
▁Fark
▁çabuk
▁dükkan
▁Sistem
manyetik
▁soruları
▁sorgu
▁oluşur
▁tanımlay
▁kahkahalar
inizin
dunuz
▁Beyin
labilecek
▁direkt
▁kaybı
▁uğraşma
▁denklem
▁yapalım
uşu
▁aklınız
▁pozitif
▁olasılığı
▁hareketleri
▁bırakmak
▁çanta
woo
▁oynat
▁çıkarma
▁şiş
▁şeffaf
▁kapasitesi
PS
▁oluyordu
▁liderleri
▁sonuçta
▁götürme
▁kullandı
▁düzelt
▁kirli
▁öğrendiğim
▁oranları
▁güzellik
▁yapısını
▁bahsediyorum
▁faydalan
▁edelim
▁temelde
▁yaratıklar
▁belirley
▁duyarlı
▁belirleme
▁Gar
▁yerleri
▁meyve
▁mucize
▁önde
▁adapt
lamıyor
▁işlerini
▁Günümüzde
▁değişiyor
▁zorluk
▁Arap
▁doktora
▁teknolojisi
müyor
▁çalışarak
▁alışveriş
▁ticaret
20
▁beynimiz
▁içeriyor
▁gölge
▁mahkum
▁tatil
▁aydınlat
▁sinek
▁benimse
▁Baba
▁bedava
mışlardı
▁ardı
▁dolayısıyla
▁masraf
▁Richard
▁ihtimal
dığımızda
▁usta
lıyorum
▁kalır
▁kayna
▁biten
▁şurada
▁donanım
▁anında
▁büyüklüğünde
▁aptal
yorsunuz
▁yapacağını
▁maaş
▁Biliyor
▁Yüksek
▁görebil
▁Dur
ft
▁konuşan
▁okur
▁verebilir
▁favori
▁utan
▁Hikaye
▁izledi
▁değiştiriyor
▁Anders
▁geleceğin
lıktan
▁genleri
▁döndüm
▁ilişkiler
▁kış
▁algılama
▁hay
▁kullanabileceği
▁tanesini
amam
▁sanayi
cağı
▁mutlak
ğiniz
▁yürü
▁getirdiği
▁kalıp
▁cadde
▁sayısını
tiğini
zerinde
▁toz
▁teknolojileri
▁çarpı
▁kullanacağı
▁eşsiz
▁duyur
▁çalışmayı
▁kızım
▁gördüğü
▁yapmam
▁anlayış
▁sever
▁zamanın
görebiliyorsunuz
▁çay
▁elimde
▁kurduk
▁tipik
▁prototip
▁dün
sıydı
▁haritası
▁ekoloji
▁halkın
▁ettikleri
laştığı
▁şekilleri
▁kullanabilir
▁Washington
▁fikrin
▁Fransa
▁çekildi
▁beyniniz
▁zorundasınız
▁etkileri
▁saniyede
▁Kat
▁bulunmakta
▁kolu
▁Kah
▁Mal
▁yapıştır
▁yapımı
▁restoran
▁22
▁emekli
▁ayna
▁savaşın
lamaz
▁devrimi
▁birbirimize
▁Bizi
▁yukarıda
▁Sonrasında
▁büyüyen
▁kısaca
▁yetersiz
U
▁erişim
▁aday
▁yıldızı
▁kral
▁sunu
▁olabiliriz
sün
▁lif
▁tamir
▁oynuyor
▁tarihte
▁hayatım
▁bahset
▁sorduk
leştiği
▁sigara
▁ayağı
▁projesi
▁puan
▁miras
▁kütüphane
▁Sür
▁yürüdü
▁iyidir
▁Eve
mizle
▁kömür
▁yaşındaydı
▁dönemi
▁yaban
▁Mah
▁dehşet
▁etkisini
▁yararlı
▁2008
▁Oh
▁azalma
▁başardı
▁Francis
30
yacak
▁teknolojiler
▁buyuk
▁Tak
▁kimliği
▁Git
▁düğme
▁NAS
▁üreten
▁oturdu
▁bulduğum
▁Ru
▁olabiliyor
▁sensör
▁bacak
▁izleyici
▁macera
▁tüy
İ
▁savaşı
▁Ph
▁üretken
▁kurgu
str
▁hiçbiri
▁Seyirci
▁tersi
▁virüsü
▁yapılar
▁bakacak
▁ayrıldı
▁ailem
▁herkesi
▁konuşur
▁yapmaz
▁yarıyor
▁yolları
▁normalde
rerek
▁Eş
▁İlginç
▁baktık
▁savaşta
▁bant
▁sonuc
▁senaryo
▁Doktor
▁sözü
▁fırtına
▁Allah
▁kilise
▁toprağı
▁başım
▁Tarih
▁Tanrım
▁sera
abileceğim
▁hücrelerini
▁egzersiz
▁düşünen
▁iyisini
mıştık
▁güçlendir
▁unsur
▁Öz
▁enfeksiyon
▁üstü
▁sürme
▁görürüz
▁oluşu
▁anlayışı
▁refah
▁1000
▁Temel
▁Mar
▁geçirmek
▁görülüyor
▁MIT
▁miyi
▁23
emediği
liğimiz
▁kadınlara
▁konuşu
▁Değiş
unuzu
▁hâlin
▁Japon
▁doğduğu
miyordu
▁Var
▁topu
▁kafe
▁ekleme
▁bekler
▁Yaşa
▁onar
▁bakteriler
▁İste
▁kuruyor
▁istiyordum
▁iyileştirme
▁Can
▁dök
▁etkiledi
▁Roma
▁yararlan
▁Birisi
rey
▁görüntüler
▁Angeles
▁yaşamış
ilecek
▁Merhaba
▁dua
▁gittiğini
▁Hayal
▁varsay
maktır
▁Normal
yıllardır
▁ölen
▁aradı
▁evim
layın
▁üyesi
dığımı
▁öneri
▁ortamı
▁uyarı
▁üretici
▁gitmeye
▁potansiyeli
▁kalıcı
▁riski
▁gezin
▁Far
lduğunu
▁terörist
▁edemez
▁pratik
▁yapmalıyız
▁ölçme
liyim
imizde
▁kurtulma
▁geride
▁fikirlerin
▁havuz
▁bilmiyordum
leşiyor
ris
▁müziği
▁yaparlar
▁durdurma
▁sahnede
▁annesi
▁millet
▁Harvard
▁fırlat
skop
▁doktorlar
▁uzmanı
rayı
▁Tahmin
▁çizme
▁düzeltme
▁dünyası
▁yapabilmek
▁kova
▁Web
▁kaldım
▁atmosferi
▁oyunları
▁Kaç
▁194
▁yaklaşımı
leyebilir
▁veriyorlar
▁şirketleri
▁Çevre
▁Deney
▁türün
▁ellerinde
▁Tra
▁gec
▁resimleri
▁Lu
▁matematiksel
▁yeteri
erken
ıpkı
▁teslim
▁damla
▁Hareket
▁yoğunlaş
▁görünme
▁duyduğum
▁Büyü
▁görüntüleri
▁bilinçli
▁katılım
▁zorluklar
ebiliyoruz
▁Öğren
▁harcadı
▁27
Y
▁inşaat
▁büyüleyici
▁gönderdi
▁hadi
acaba
▁cerrah
▁kullanılabilir
▁ad
bur
▁ayağa
▁ilgileniyor
▁elbise
▁600
▁duvarı
▁vücudunuz
▁kültürü
▁kelimesini
▁gösterdiğim
▁hile
▁Cevap
▁akciğer
▁nöro
▁şart
▁Fu
▁bulmuş
▁diyebilir
▁tüp
▁şirketin
▁soruyor
▁bakmaya
▁değerleri
▁katıldı
▁seçeneği
▁tutan
▁topluluğun
▁ço
▁oluşturdu
▁anti
▁duyduğumuz
▁yapabiliri
siydi
iriz
▁çarpıcı
▁sınıfta
▁Ter
▁titre
▁farketti
▁yazdığı
▁hapse
▁değilse
▁yoksulluk
▁sınıfı
▁Charles
▁2010
▁atar
▁sisteme
▁bacakları
▁etkileyen
▁makineler
▁Şey
▁milli
▁başlamıştı
▁klasik
▁yunus
▁öncelikle
▁ajan
▁geldiler
▁evlen
▁nüfusun
▁pil
▁hidrojen
▁yaşa
▁gördünüz
▁açar
▁inek
▁yönetimi
▁Senin
▁açan
▁yürüyor
▁yazarı
▁Film
▁boşluğu
▁mahkeme
▁hat
▁başlayacak
▁bildir
▁empati
▁büyükanne
▁sorumluluğu
▁Internet
▁sürüyor
ıyorlardı
▁hazırladı
▁direk
▁eşim
▁söyleyecek
▁gelenek
▁vs
▁siyaset
▁anket
▁çocuğ
▁foto
layabiliriz
▁gizem
▁korunma
▁calis
▁özgürlüğü
▁ağın
▁ilkel
▁edildiği
▁getiril
▁gömül
▁yerlerinde
▁öğrenir
▁ayrılma
▁sıcaklık
riyoruz
▁karşılıklı
▁sorusu
▁şimdiki
▁devamlı
▁Rusya
▁umudu
▁TV
▁yaprak
▁İnsanları
▁Dağ
▁binalar
▁Dört
▁tanıdık
▁Sırada
▁iniş
▁Tom
▁aklımız
▁konuştuğu
eceğimizi
▁evinde
▁Kadınlar
▁etkiler
▁ekledi
▁ölümün
▁Wa
▁şahit
▁nüfusunu
▁pilot
▁getirdik
▁limit
▁aldılar
▁topluluğu
▁adil
▁konuştuk
▁kaçınılmaz
▁görüntüsü
▁değiştirebilir
▁hayatımda
▁etmez
▁kimlik
▁yakında
biliyorum
▁yarısını
▁türleri
▁fotoğrafları
▁öğretmenler
▁tekne
▁Böylelikle
▁Obama
▁sahil
▁istediğini
▁mıydı
▁içme
▁pazarlama
▁yirmi
▁market
▁gelişti
▁kozm
▁Yıllar
▁geçici
▁solu
▁fotoğraflar
▁akademi
▁koyun
▁başlayacağı
▁ücretsiz
▁kaynaklı
▁bulunur
▁ürettiği
▁yapılacak
▁Yarı
yacağız
▁topladı
▁istiyorsunuz
▁tarla
▁kazı
▁istiyordu
▁Açıkça
▁öğretmenleri
▁por
▁demir
ılmıştı
▁ötürü
cük
▁kendisinin
▁penguen
▁sivrisinek
mayız
▁gelişen
▁dersiniz
▁geldiğimiz
▁yetki
▁etik
▁fizikçi
▁Es
▁yerleştirdi
▁çat
nizden
▁ayda
▁Kuru
▁kızın
▁değerler
▁tasarlama
▁entegr
▁kurum
▁danışman
▁göğüs
▁döneminde
▁tekerlek
▁Dış
laşmış
▁tavan
ydü
▁dördüncü
▁tanışma
▁keşfetmek
▁zararlı
▁özgün
▁eksen
▁olunca
▁yerleştirme
▁Amazon
▁seferinde
▁olursunuz
▁duymak
▁metro
▁izlemek
▁gitmiş
▁bulgu
▁arayı
▁fenomen
▁yıldızlar
▁Nerede
▁yiyor
▁kent
▁doğrusu
▁CO
▁yapacağımız
▁çıkacak
▁Pakistan
▁verilme
▁öğrencisi
▁görülme
▁döv
▁aralarında
▁meme
▁tatmin
▁sars
▁hareketli
▁yapabilme
▁etmişti
▁istekli
▁pas
▁Che
mişlerdi
▁yoldan
▁1960
▁iPhone
▁yerin
▁seçimler
▁düşünüyorsunuz
▁harcan
▁dost
▁ağırlık
▁giderken
▁nitelik
▁sürecin
▁Sır
▁keyif
▁Res
▁yüzünü
▁Kötü
▁savun
▁Port
▁üretti
▁versiyonu
▁yapardı
▁birbirlerini
▁Ardında
▁bildiğim
▁oturan
▁tecavüz
▁heves
▁unutu
▁edilir
▁günümüz
▁terapi
▁sözcük
lediğimiz
▁ilgilidir
▁kalacak
▁derler
▁sigorta
▁Kendimi
▁hastaların
▁imkân
▁ilişkileri
▁nota
▁yoğunluğu
▁liderler
sızın
lüğ
▁edebilme
▁alıyorlar
▁1990
▁birleşi
▁kalabalık
▁gülümse
AR
▁kurulu
▁lamba
▁Mac
▁Arka
▁no
▁196
▁renkler
▁Dav
▁modeller
▁erişimi
▁özü
▁Amerikalılar
▁bilmediği
▁kaldık
▁garanti
▁muhafaza
▁kesme
▁çocukken
▁okulun
▁okyanusun
▁ettirme
▁öncesinde
▁gösterdiği
▁Bey
▁düşünmemiz
▁etmesini
▁ulaştır
▁Devletleri
▁alınan
▁metafor
▁hizmetleri
fel
▁bölgeler
mezler
bire
▁yararı
▁belirgin
▁uzağ
▁Mutlu
▁endüstrisi
emezsiniz
▁Gor
▁panel
▁ayrıntı
▁harcay
▁medeniyet
▁BM
▁bitirmek
▁uydur
▁kazanmak
▁kadınları
▁çekim
ttığı
▁akraba
▁işini
▁ispat
▁dağılım
▁aletler
▁laboratuvarı
▁insanlığın
▁atış
▁merdiven
▁göl
▁balıkçı
▁nesneler
rest
▁hayatımızı
▁Burda
▁dinlemek
▁kutusu
▁haftada
▁yetenekleri
▁Gezegen
ebilmesi
▁evrimin
▁Herşey
▁sistemlerin
▁koyduk
▁sokakta
▁denir
▁kılan
leyip
▁okumak
▁tamamını
▁yapmaları
▁hemşire
▁Beyaz
▁başarma
▁taşıyan
▁abart
▁Çalışma
▁direnç
▁geçtiğimiz
▁yapısı
▁noktasında
▁görebileceğiniz
▁yaşlanma
▁ilerliyor
larımızla
▁görebiliyor
▁raf
▁yaşta
▁2007
▁keşfi
▁anlamamız
▁dolan
▁büyüklüğü
▁yazılmış
▁değiştirecek
▁yardımı
▁yarattık
▁koltuk
▁Michael
▁öğrencilerin
▁stüdyo
▁tesadüf
▁keşfettik
▁travma
▁gerçekleşen
▁Hayvan
▁doktoru
▁mağaza
▁gelmiyor
▁Esas
▁otorite
▁olacağım
▁eğitme
▁felci
▁şekillerde
▁orda
▁nasil
▁teorisi
▁kapatma
▁mini
▁Thomas
▁süreli
▁yurt
▁Bas
▁boru
▁malzemeleri
▁açıklamak
▁artışı
▁iyileşme
▁gelmez
▁animasyon
tion
▁atmak
▁bahsetme
▁kardeşi
▁çevril
▁redded
▁hastalıkları
▁davranışı
▁çalışıyordum
▁çalışmanın
▁com
▁konularda
▁1980
▁elma
▁diploma
▁Dikkat
▁eleman
▁mutluluğu
▁edilemez
▁saldır
▁severi
lenebilir
▁yaşımda
▁geçirdi
▁elektron
▁düşer
▁ölümcül
▁haberleri
▁Ger
▁olmalıydı
ood
▁yollarını
▁desteği
▁ödey
▁temin
▁Korku
▁durur
▁protesto
▁çalışmıyor
▁uzunluğunda
▁oynar
▁sav
▁yazıcı
▁otel
▁Karşı
▁değiştirir
▁akışı
▁okulu
▁amacıyla
▁vadede
▁resimde
▁detaylı
▁Görüyorsun
▁öğretmeni
▁grip
▁tavuk
▁verdiğim
▁sent
–
▁dokusu
▁çocuklarımız
▁bırakır
▁oldugu
▁bayağı
kav
by
▁dunya
▁hayvanları
ladığını
▁efsane
▁yaratıcılık
▁söylemeye
ünüzü
▁Yaptığı
▁rolü
▁unut
▁gözlerini
▁paylaştığı
▁açıyor
▁gözlü
▁çamaşır
opi
▁küçü
▁mühendisliği
▁baktığı
▁Mont
▁antik
▁Süper
▁diyecek
▁sevdi
▁Frank
▁onlarca
▁ilerledi
▁sil
▁düşünmüyoru
▁olmazdı
▁memur
▁edebileceğiniz
▁Enstitüsü
▁perspektif
▁niye
▁toplumda
ight
▁korteks
▁karbondioksit
▁huzur
▁üye
▁sorduğum
▁deneyler
▁oturur
▁futbol
▁Kanser
▁paylaştı
▁söylemeliyim
▁işlet
▁olumsuz
▁oyunun
ymış
▁açlık
abilecekleri
▁söyleyeceğim
▁For
▁öncü
▁değin
▁pompa
▁modelleri
▁röportaj
▁kodu
▁yarasa
▁dönelim
keresinde
▁bölgelerinde
▁şehirlerde
▁gezegende
▁tiyatro
sair
▁kavramı
▁ismini
▁sisteminde
▁teleskop
▁parçasını
▁Sch
▁kullanmayı
▁müzisyen
meyeceğini
▁çelişki
ford
▁ebeveynleri
▁altta
▁çip
▁formu
▁kayda
▁düşündüğü
▁yaşlarında
▁filtre
▁yapabileceğiniz
MA
▁yaşadığım
▁Geçmiş
▁Alzheimer
▁okudum
▁yönünde
▁koleksiyon
▁terör
▁otizm
▁felsefe
▁tüketimi
▁diren
▁gerçekleşiyor
▁verildi
▁istiyorsak
▁Latin
berg
▁Fotoğraf
▁Robot
▁şiddetli
▁genelinde
▁Birliği
▁Tanı
▁farketme
▁parmağı
▁üzgün
▁işlemi
▁yapabildiği
▁Gece
▁yaratıcılığı
▁aktör
▁öden
▁seviyesinde
▁geliştiril
▁uyumlu
▁geleceğini
▁bakıyoruz
▁Apple
▁bağışıklık
▁şef
▁roket
▁söylemişti
▁Nor
▁felç
▁Paris
▁65
▁Dışarı
▁yil
▁isterdi
▁güvende
▁kuşlar
▁görünüm
▁anlatmaya
▁Mavi
▁Mary
▁konuşurken
▁görebilme
▁deneyi
▁anlatır
▁Seni
▁bekleyen
▁aslı
▁vermiş
▁Pazar
▁istemedi
▁kucak
▁uğraşıyor
▁kaydetti
▁kalmıyor
▁heyecanlandır
laştı
▁bahseder
ınızda
▁canavar
▁bez
▁ümit
▁Ölüm
▁kompleks
▁kafatası
▁kazanan
▁yaparsınız
▁Hükümet
lüğünü
▁bitme
▁Devlet
▁öğrenmeye
▁Boston
▁kalmayı
▁dönüm
▁sıçra
▁vereyim
ildiğinde
▁yazıyor
▁kızların
▁kavga
▁umuyorum
▁getirecek
ğına
▁etkiliyor
▁bilgisayarın
▁maç
▁görüntüleme
▁bot
▁pembe
▁önyargı
▁karşılaşma
labilirsiniz
▁bölümünü
▁açmak
▁çıkması
▁gücüne
▁besleme
▁programları
▁Ağ
laşıyor
▁yapmıştı
▁başardık
liyordu
▁lezzet
▁Higg
▁bulunduğumuz
▁toplumu
▁dağıtım
▁arabanın
▁etrafındaki
▁gidiyoruz
abilmesi
▁benzin
▁ülkedeki
▁odadaki
lemiş
▁koştu
▁çekilmiş
▁duyguları
▁oldugunu
▁düzine
▁geçirir
▁kaybettiği
▁kablosuz
▁paylaşım
▁vereceği
▁müziğin
▁ömrü
▁Ödül
▁dersi
▁anımsa
▁katlan
▁yazmak
J
lanacak
▁geliştirdik
▁uzmanları
▁Mart
▁yaparız
▁görünüyordu
▁kaldırma
▁tanıyor
▁şikayet
dığımızı
▁tasarımcılar
▁poster
▁bah
▁görmüyor
▁Pasifik
▁dalış
▁göründüğü
▁Kafa
▁göreceğiz
▁neşe
▁köpeği
▁genomu
▁arkasındaki
▁zorunlu
old
▁Yeşil
▁yapmadı
▁yapamaz
▁lob
▁ilişkili
▁kullanılma
▁yapıldığı
▁uçağı
▁sıkıştır
▁disiplin
▁hazırlama
▁bariz
▁etkileme
▁başla
digim
▁soyle
riyorum
▁vurgu
▁yumuşak
▁kılavuz
▁dönmek
▁deprem
▁ruhu
ymiş
alesef
▁bulundur
▁koruyucu
▁kalmıştı
▁gerçekleşti
▁elini
▁Önemli
▁pasif
▁değişen
▁Çalı
▁aldığınız
▁şarap
▁çekimi
▁gübre
▁Lüt
▁topluyor
nizdeki
lmüş
▁geleceğ
▁cazibe
▁taşındı
▁gücümüz
▁olabildiğin
▁mes
▁psiko
▁oluruz
▁çirkin
▁Mark
▁bebekler
▁umur
▁Aşağı
▁çiftçiler
▁çelik
▁fotoğrafçı
▁tasarladı
▁somut
▁gittiğimde
ling
▁oynamak
▁kapak
▁iyileştir
▁gelmesi
▁şehirlerin
▁Milletler
▁boyutta
▁the
▁oluşumu
▁cebi
▁özellik
▁biriktir
▁edebilecek
▁varlığını
▁kabiliyeti
▁kurumu
▁taşımak
▁dışındaki
▁cidd
▁toparla
▁düzenley
▁diyebiliriz
ayet
▁meslektaşları
▁düşünüyordu
▁Birinci
▁edeceğiz
▁organizmalar
▁yönü
▁protez
▁haberi
▁sonuçlarını
▁fotograf
▁görebiliyoruz
▁sürpriz
▁sevdikleri
▁hastalıkların
▁kolaylaştır
▁Cam
▁gülüşmeler
▁motivasyon
▁yayılması
luğunu
▁neresi
▁Tur
▁orası
▁tara
▁güzelliği
▁frekans
▁gizemli
▁sıcaklığı
▁davranma
lenir
▁Kongre
▁izni
▁dönüştürül
▁şartlar
▁Tor
▁Yaptığımız
▁istediler
▁32
▁birbirini
▁yayınladı
▁ekipman
▁yükselme
▁evlilik
▁grafiğ
▁kuvvetli
▁şempanzeler
▁orkestra
▁almayı
12
▁Juli
▁eksikliği
▁temas
▁yapmasını
▁itiraf
▁yaşıyordu
▁sanmıyorum
▁aşkın
▁büyüyor
▁işliyor
▁Gülüş
▁oluşturduk
▁keskin
▁ulaştığı
▁istersiniz
▁olmalıdır
▁edinme
▁250
▁rakamlar
▁düşünmeniz
▁çıplak
▁hariç
▁okuyor
▁gerçekçi
▁dönen
▁kurtarmak
▁değiştirmeye
▁sınav
▁gelmeye
▁tanış
▁işimiz
▁bölgesi
▁Başarı
▁başlangıçta
▁oluştu
▁Kitap
▁mikroplar
▁aramızda
▁utanç
meliyim
▁dâhil
▁öngör
▁korkusu
▁mısır
▁yapılabilir
▁Filistin
▁pre
▁kalmadı
▁temizleme
▁sunmak
sch
▁üyeleri
▁gösterilen
▁beklenmedik
▁yatağı
▁sekil
▁bildikleri
▁karşılaştırma
▁kaybediyor
kalı
▁global
▁umutsuz
▁başkalarının
▁önemsiz
▁portre
▁baylar
▁Kısa
▁resif
▁ölmüş
▁sihirli
▁rehber
▁yetenekli
▁sebze
▁biyolog
▁endüstriyel
▁Col
Tub
▁yıkıl
▁fiyatı
▁çoğumuz
▁mutasyon
▁kullandım
▁tedarik
▁zehir
▁kartı
▁kaybetmiş
▁İklim
▁insansız
▁parçacıkları
▁DH
▁haklarını
▁Kısaca
▁öğreniyor
▁vermiyor
▁güncel
▁değişiklikleri
▁çıkarıp
▁once
▁sure
▁cun
▁kullanışlı
▁konsept
▁geçirdik
▁alışkanlık
▁1970
liyiz
ürekli
▁ömür
▁başlayı
▁Birlikte
dor
▁anlayama
▁korkma
▁alabilirsiniz
▁içlerinde
▁düşüncesi
▁kötüsü
▁Peter
▁orijinal
▁izleyen
▁koşulları
▁gereği
▁jenerasyon
tığınızda
▁kaldığı
▁ayırt
▁radyasyon
▁matematikçi
▁komut
▁sürecini
▁özen
▁golf
▁oradaydı
▁nakli
▁mülk
▁kıy
▁kalitesi
▁hattı
▁meşhur
▁İçinde
▁olmayabilir
niversite
▁kusur
▁başladığımda
▁maliyetli
▁lazer
▁gidin
▁açıp
▁ödülü
▁aktarma
▁reform
▁sevin
▁Fikir
erry
▁sihir
▁unuttu
▁kemiği
▁kağıdı
▁metod
▁simge
▁böcekler
▁zehirli
▁kazanç
▁cömert
▁Öğretmen
▁oranını
▁içe
▁yapıldığını
▁tasarlamak
▁başlık
▁düşündüğünüz
▁çözmeye
▁36
▁değişir
▁yarısında
▁yangın
▁sorgulama
üydü
▁beyninin
▁verebil
▁olacağına
▁görmedi
▁yapımcı
▁Öğrenciler
▁hatırlıyor
landığını
▁kurumsal
▁intihar
▁okyanusta
▁istisna
▁duyduğunuz
▁durumunu
▁olmasından
▁Art
▁yaptığımı
▁mantığı
▁karakteri
▁babamın
ıldığını
▁Hint
▁2005
▁kabullen
▁kısme
▁öğrendiğimiz
▁1950
shi
▁Alan
▁parçalarını
▁yapıyorsunuz
▁etken
▁bilinmeyen
▁gazı
▁bazılarınız
▁Martin
▁başladığını
▁çılgınca
▁yazan
▁yepyeni
▁sürecinde
▁Günü
▁çocuklarımızı
▁optik
▁aleti
▁özür
ılmasını
▁alırsınız
▁samimi
▁Telefon
▁İster
▁Söz
▁dayanıyor
▁meselesi
▁Biyo
ilmemiş
▁duydukları
▁eviniz
▁Okyanusu
▁çağında
▁konuştuğumuz
▁katil
▁Asla
▁başlatma
▁hepinizi
▁Jim
▁tarayıcı
BG
▁Uluslararas
▁kuruluşları
yorsun
▁Eminim
▁dostu
▁Holly
▁Doğal
▁katılımcı
▁şebeke
▁minik
▁yakaladı
▁topluluklar
▁Gerçekte
▁sag
▁gidebilir
mezdi
▁sıkışı
▁teknolojisini
▁amaçlı
amazdı
▁etmeliyiz
▁olmalısınız
▁rejim
▁destekleyen
▁alakası
▁aktivist
▁kardeş
▁yaratmaya
▁kitapta
▁ulaşılabilir
▁pop
▁yazılımı
abiliyordu
▁Yazı
▁isteyeceği
▁oluşturduğu
▁çocukluk
▁alanlarında
▁kabuk
▁kendiliğin
▁seyred
▁edebilmek
▁bölümünde
▁gerektirir
▁ticareti
▁örümcek
▁vermişti
▁elinizde
▁kromozom
▁metin
▁geliştirdi
▁düşünürken
▁yatıyor
▁Siyah
duğunuzda
▁götürüyor
▁nüfusu
▁yapılır
▁gidiyordu
▁kaynaklarını
▁Hedef
▁yanındaki
▁opera
▁basar
▁sade
▁Önümüzde
▁gerektiren
▁Vadisi
▁izlediği
suzluk
▁kardeşleri
▁odası
▁yazılı
▁Hep
▁alkol
▁içgüdü
▁taşır
▁mutsuz
▁Düz
▁gösterecek
teknoloji
▁dikey
▁komşuları
▁yerleştiril
▁dizilim
▁perde
▁İnan
▁hatırlayın
▁disk
▁Derek
▁Geçtiğimiz
▁edemedi
▁Modern
▁ilişkilendir
▁düzenlen
▁tanımı
▁Kalp
▁eşyaları
▁akış
▁nazik
▁torba
▁ekranda
metre
▁çeşidi
arry
▁takılı
▁gay
▁Erkekler
▁aşamada
▁Mor
▁yanımda
▁yaşamaya
▁2011
▁siber
▁almıştı
▁hızını
▁ısır
▁figür
▁gördüğümde
▁Jeff
▁Güç
▁Suriye
▁programlama
▁hatırlar
▁Haiti
▁çarpma
▁yerleşim
▁tasarlay
▁kuyruklu
▁yolcu
▁molekülleri
▁yaşanan
▁Kırmızı
▁kapsamlı
▁korktu
▁yapılabil
▁kolaylık
▁alındı
▁sevimli
▁dakikalık
▁Fizik
▁şerit
▁kaplı
▁dünyamızı
▁değerini
▁düşünceleri
layabileceği
▁atalarımız
▁Yoks
dıklarında
seksüel
▁uyuş
▁Gördü
▁hüküm
▁oluşmuş
▁kenarında
▁seviyesi
lalım
▁yerleş
ardı
▁Muhteşem
▁duyduğu
▁göremedi
▁çember
▁kaygı
▁maske
▁düşünmüştü
▁inanan
▁gerekecek
▁Uganda
▁Hepsini
▁Californi
▁bıraktığı
▁tören
▁Program
▁üstte
▁Cas
▁canlandırma
▁yüzeyinde
▁kırılgan
▁element
▁büyüklükte
▁sentez
umuzu
▁çalışacak
▁cerrahi
▁sanıyor
▁mikroskop
▁teşkil
▁kentsel
▁Kullan
RI
▁vurma
▁ölçeği
▁baktığımda
▁açılma
▁örtüsü
▁ödüllendir
▁ısrar
▁ödev
▁kuralı
▁yaşamını
▁yapıcı
▁giysi
▁torunları
▁Kültür
diklerinde
▁gidiş
▁cennet
▁Bob
▁astronom
▁köşede
▁silahlı
▁Whit
▁devletin
▁tanıştığım
leştiriyor
▁saklı
▁vazgeçme
▁enstitü
▁kusursuz
▁bag
▁ekstra
▁açtığı
luyoruz
▁giderse
▁ödedi
ov
▁feda
▁arttırma
▁benzediğini
▁düşünmeyi
▁yavaşlat
▁iskeleti
▁Etrafı
▁yansı
▁bittiği
▁Ab
▁bastır
▁karmaşıklığı
▁mezar
▁kurucu
rtesi
▁bacağı
lendirdi
15
▁dördü
leştirdi
▁hoca
▁otomobil
▁aramaya
▁boğul
▁enstrüman
▁üretebil
▁yaraya
▁doğmuş
▁çarpışma
▁Devam
▁bittiğini
▁Öte
▁çevirdi
▁Düşündü
▁yakı
▁bireylerin
▁bilişsel
▁bitirdi
▁sağlayabil
▁26
▁28
▁buzun
▁davranışları
▁fotoğrafta
▁tanıştır
▁hita
▁diyebilirsiniz
▁kurar
▁çare
▁vücud
▁göstermeye
▁eğil
▁başlamış
▁çıktığını
eşke
▁duyan
▁şarkısı
▁ağız
▁amca
▁duymuş
▁Anlat
▁sözlük
▁yetecek
▁örtü
▁hakikat
▁Kor
▁yayılan
AT
▁formül
▁miktarını
▁tekniği
▁büyüdüğü
▁yapamayacağı
▁çalışmasını
▁kısıt
▁ideoloji
▁ilaçların
▁Mimar
▁önlem
▁birbirimiz
▁PM
▁Rio
▁düşünürsek
▁dolduru
▁Çift
▁yollarla
▁alabil
▁kutlama
hattan
▁kaydetme
▁getirmeye
▁aralık
▁anlatan
▁anlıyorum
▁Yahudi
▁mürekkep
▁Vücudu
▁eleştiri
▁zıt
▁kullanıldı
▁aptalca
▁CEO
▁Laboratuvar
▁bozukluk
▁mısın
▁taşıyıcı
▁Okyanus
▁paylaşıyor
▁Robert
▁düzenledi
▁böcekleri
▁sundu
▁dinozor
▁hipotez
▁rica
▁patron
▁yayıldı
▁kalırsa
▁İçeri
▁Orman
BI
▁Enerji
▁üretir
▁yaşayacak
▁üretilen
▁kapitalizm
▁inovasyon
▁eğitil
▁Durum
▁beton
▁istediklerini
▁gerekmiyor
▁liberal
▁halini
▁kaos
▁bitkilerin
▁sunduğu
▁hastanede
digini
▁muydu
▁davranışlarını
▁vadeli
▁Nobel
▁yakalanma
▁şov
▁sabır
▁büyükbaba
▁fikrimiz
▁Hâl
▁tepesinde
▁yaramaz
▁birbirimizi
▁koşul
▁cins
▁edemiyor
▁söyleyin
▁açıkladı
▁antibiyotik
▁sopa
▁bitti
▁iskelet
▁adres
▁verdiğiniz
▁Dön
▁Hollanda
▁yolculuğ
▁hidro
▁Merak
▁çubuk
▁yayımla
▁zorlukları
▁piyano
▁gideli
▁kuyruk
lanmamış
▁sinema
▁sayıları
▁uğultu
▁kısıtlama
▁santral
▁sorunumuz
▁Hristiyan
▁sırrı
▁sınırı
▁kullanımını
▁söyleyeme
bilim
▁fiziği
▁yıldızların
▁sokağ
▁simülasyon
▁performansı
▁hic
spa
▁pişirme
▁tümüyle
▁başvur
▁birikim
▁geçecek
▁çalma
▁eşitlik
▁bırakıp
▁buluşma
▁soyu
▁yüzleş
▁sezon
▁Rob
▁195
▁bakıyorsunuz
▁jeo
▁dikkatini
▁çukur
▁dönüşüyor
▁istasyonu
▁kılı
▁faydası
▁vb
▁oturduğu
▁yansıma
▁fotoğrafını
▁çıkarak
$
▁Haber
▁alıyordu
▁satır
▁başarısızlık
▁sinyalleri
leştirir
▁dizüstü
▁satıcı
▁kalktı
▁kaydedil
▁maddi
▁esnasında
▁mikrofon
▁120
▁mutfak
▁haritasını
▁muyu
▁Ağı
▁resmini
▁uçurum
▁Güven
▁Hintli
▁başlarında
▁hara
▁Gand
▁isimlendir
▁yosun
▁sokma
▁güce
▁Olay
▁konuşmamı
▁yitir
▁ressam
▁GSY
▁Elimizde
▁Doku
▁Kutbu
olly
▁diyalog
▁Yerel
▁şehr
▁pound
▁bilge
▁olmasaydı
▁geleceğimiz
▁tuttuğu
▁gönderiyor
▁Problem
▁aygıt
▁tünel
▁gergin
▁seti
▁Güvenlik
▁Street
▁Bankası
▁istikrar
▁uçtu
▁fiil
▁ekonomisi
▁kumanda
▁eşitsizlik
▁şablon
▁War
▁geometri
▁Kongo
▁başlığı
▁basamak
ılmaya
▁bilinir
▁Körfez
▁değiştiğini
▁referans
▁bozukluğu
▁Hastane
işini
▁düğüm
▁Bakanlığı
▁33
▁Düş
port
▁terörizm
▁seviyesini
▁trend
▁enteresan
▁döngüsü
▁türünü
▁karmaşa
▁hacker
▁emisyon
▁molekülü
▁şartları
▁olağan
▁95
▁işgal
▁uğraşan
▁700
▁800
▁akışını
▁gereksiz
▁motive
▁org
▁bakımından
▁kalori
▁vücudunu
▁katılıyor
▁söylerdi
▁bulaş
▁sebebiyle
▁kurulmuş
▁Dinle
▁oynayan
▁aktarıl
▁kaderi
▁karşılaştığımız
▁tükenme
leşen
▁pirinç
▁görünmüyor
▁çıktığında
▁yaratabilir
▁Titan
▁yaramadı
▁Evrim
▁kazanıyor
▁sunma
▁ultra
▁arkadaşlarınız
▁çöküş
▁gecekondu
▁Politik
▁bardak
▁yetkili
▁çıkarır
▁sınıflandır
▁kafasını
▁elektriği
▁İnanıyoru
taşı
▁rota
▁şansımız
▁buluyorum
▁yuzde
▁bulamadı
▁Saat
▁Ortalama
▁köşesinde
▁koridor
▁söyleyeyim
▁okuduğum
▁Geleneksel
▁farkındalık
▁kullanılır
başı
▁akıllıca
leştirilmesi
▁Scott
▁bozulma
▁ilgimi
▁öldürdü
▁çamur
▁negatif
▁reçete
▁beraberinde
BA
▁paralel
▁aşina
▁İzleyici
▁evlenme
▁yiyeceği
▁Özel
▁kısıtlı
▁Müzesi
▁dinliyor
▁acımasız
BC
▁bio
▁kesti
▁öncülü
▁Yardım
▁ritim
▁hükumet
▁kullanılması
▁anlamsız
▁tamamiyl
▁basınç
▁düşündüğünüzde
RB
▁karaciğer
▁götürür
▁bildirim
halde
▁hissetti
▁motoru
▁yenilenebilir
▁gelmesini
▁Chicago
▁kariyerim
▁Britanya
▁kalitesini
▁kullanabil
▁degis
▁inceliyor
▁harcadığı
▁adlandırıla
▁belediye
▁fikr
▁transfer
▁donmuş
▁bahsettiği
▁hayatınızı
▁sebepten
▁etkinlik
▁Erkek
▁önemini
▁gerektiriyor
▁ölür
▁mevsim
▁telefonunuz
▁Tür
▁aranızda
▁şüphesiz
▁içimizde
▁göreceğiniz
▁davranışsal
▁Makine
▁şapka
▁Aslın
▁Noel
▁helikopter
▁artırma
▁bıçak
▁saklama
▁şahs
▁dağınık
▁şair
▁titreşim
▁Ebola
RNA
▁okudu
▁Bölge
▁kolunu
▁fırın
▁odaklı
▁uçuyor
▁Krallık
▁duman
▁evimiz
▁robotik
▁sessizlik
▁pişir
▁getirebilir
▁kurduğu
▁yoğunluk
▁sanıyorum
▁cisim
▁verilmiş
▁partner
▁bağımlılık
▁anatomi
▁bedeli
▁gerçekleştiği
▁atlat
▁başvuru
▁benzetme
▁genişleme
▁Matt
▁cevabını
▁ergen
▁trans
▁kurbağa
▁dramatik
hall
▁zorlama
▁Yemek
▁Bazılarınız
▁kaynaklanıyor
İH
▁emniyet
▁Mikro
▁nöroloji
▁koltuğu
▁Sahip
▁tahrip
▁rekor
▁kalkıp
▁tüketim
▁Ford
▁aşamasında
▁özelliklerini
▁Biyoloji
▁çalışacağım
▁Işık
▁yıkıcı
▁İsviçre
▁hakkinda
▁onemli
▁Beynin
▁ödün
▁eğiliminde
▁koyduğu
▁koşma
▁uzaklaştır
▁grub
▁verdiğini
▁inandı
amadığı
▁Bekle
▁görebildiği
▁Matematik
▁Birçoğu
▁sorduğu
▁galeri
▁Hayatta
▁akıntı
▁belirlen
▁fena
▁seçtiği
▁durduru
▁böceği
▁görmüştü
▁biliniyor
▁reaksiyon
▁işlevsel
▁bilmeniz
▁mizah
▁alınmış
▁umursama
▁edemeyeceği
▁duruş
▁yüzleşme
▁çekilme
▁doğası
▁bitiş
▁güvercin
▁kahverengi
▁solucan
▁çikolata
▁maalesef
▁görebileceği
▁programcı
▁telif
RIS
▁dinazor
▁varoluş
▁Afgan
▁yapamıyor
▁konuşuyordu
▁Silikon
▁Vo
▁öldüğü
▁gittiğimiz
▁becer
▁calisma
▁ağları
▁Hızlı
▁azalıyor
▁beste
▁Str
▁William
▁ırkçı
▁paradigma
▁profil
▁şaşkın
▁esinlen
▁batarya
▁hoşlanma
▁ilave
▁alabilme
▁Kes
▁trajedi
▁dönüşür
▁ulaşabil
▁Stanford
▁uçma
▁elinizi
▁Smith
▁korkar
▁başladığında
▁derinliklerin
▁görülmemiş
▁karışımı
▁aldığını
▁Eric
▁çaresiz
▁MR
▁vadi
▁bağlamda
▁Gülme
▁yardımıyla
▁nerde
▁yeryüzünde
▁hormon
▁retina
▁rüşvet
▁geldiğimde
▁Tah
▁Yavaş
▁üçgen
▁Cit
▁maliyetini
▁gercekte
digimiz
▁Iste
▁ünite
▁Kural
▁ironi
▁Etki
▁parazit
▁Kapı
▁eşcinsel
▁yönlendirme
▁tutkulu
▁kemer
▁alabiliyor
▁darbe
▁çürü
▁sentetik
▁bahar
▁görecek
▁tadını
▁çevrimiçi
▁Atlantik
▁imaj
EC
▁kaçak
engin
▁kalkınma
▁dövme
▁zincir
▁denizaltı
▁Gülüşme
▁kabin
malısın
▁Demokrasi
▁hatırlatıyor
▁açıldı
▁kirliliği
▁eğ
▁Benzer
▁yaşayabil
▁mekaniği
▁baska
▁Akademi
▁bahsettiğimiz
▁üzücü
▁öbür
▁klip
▁sömür
▁kumaş
▁sunucu
▁işleyen
▁Ekim
▁Genellikle
▁fiber
▁devri
▁durak
▁Gazete
▁tropik
▁poli
▁enfekte
▁attığı
▁salgı
▁oynadı
▁düşünecek
▁Petrol
▁hiçbirşey
▁Hazır
▁korsan
▁tuş
▁sayılır
▁düşünmüyor
ntarktik
▁kuşak
▁doğma
▁mega
leştiren
▁Kontrol
awa
▁ölecek
▁mıknatıs
▁eğim
▁ogren
▁aldatma
▁küreselleşme
▁mutluyum
▁Yaşlı
ER
▁çekirdek
▁aykırı
▁Örnek
▁kombinasyon
▁yankı
mazsınız
▁tabu
▁feminist
▁yeraltı
▁yayılmış
▁ortamında
▁sağlığını
▁odasında
▁hastalığ
▁banyo
▁zarif
▁Sabah
▁alem
▁Asker
leştiril
▁atıyor
▁taze
▁sipariş
▁prensibi
▁imalat
▁estetik
▁nehrin
▁dinler
▁kaçınma
▁burnu
▁meclis
▁Dijital
▁karşılığında
▁evcil
▁farz
▁Bilmiyorum
▁isyan
▁uzaklıkta
▁edildiğini
▁goz
▁kapağı
▁lüks
▁rezerv
▁üstlen
▁eşitliği
▁Geleceğ
▁acayip
▁görebiliyorum
▁Mükemmel
▁çit
▁Green
▁imge
▁kopar
▁kirlet
▁stil
▁Yukarı
▁zıpla
▁husus
▁Sovyet
▁enjekt
ılmamış
▁Arjantin
▁cinayet
▁bencil
▁tükenmiş
▁sandviç
▁başarama
▁bulaşıcı
▁Wikipedia
▁Kişisel
▁istemediği
▁ihtiyac
▁destekliyor
▁Vietnam
▁uğramış
agos
larinda
▁göründü
▁Lider
▁irade
▁ertesi
▁direnci
▁yürürken
▁gözükme
lduğunda
▁alarm
▁Florida
▁Yanlış
▁kullanmıyor
▁dalgalanma
▁Model
▁edilecek
▁Hatırla
▁Cambridge
▁edeceğimiz
▁çapta
▁netice
▁interaktif
▁psikolog
▁Brun
▁pişmanlık
▁kızgın
▁başlıca
▁duymuşsunuz
▁dışkı
▁kavramını
▁haricinde
▁olamayacağı
▁niteliği
▁goster
▁çözülme
▁dansçı
▁evvel
ugh
▁minnettar
ville
▁mağdur
laşır
▁masum
▁gereksinim
▁Bebek
▁döndürü
▁dürtü
▁Haziran
▁Resim
▁ihlal
▁alev
▁bankacı
û
▁saldırgan
▁Nano
▁ayrılmış
▁İspanya
▁halihazırda
▁popülasyon
▁paraşüt
▁bahsetmiyoru
▁Marc
▁peynir
▁bütünüy
▁cihad
▁yayılıyor
binlerce
▁ampul
▁85
▁Şehri
▁ödüyor
▁sakat
▁aslin
▁dogru
▁çiğ
facık
▁görülebilir
▁tanımladığı
▁topladığı
▁oğlumu
▁LED
▁eleştir
▁göğsü
▁baktığımız
▁lens
▁sahi
▁Nick
▁patates
▁gerçeğ
▁muayene
▁Brown
▁davranıyor
▁yükselişi
▁kılıyor
▁bayılıyoru
▁görüldüğü
▁burun
▁İspanyol
▁hemfikir
▁çoğunluk
▁vasıtası
▁Gates
▁bulunduğunu
▁Simdi
▁gayri
▁Seçim
▁kristal
▁şahane
müz
▁geçirdiğim
▁butun
▁beyne
▁çabu
▁Binlerce
▁evlat
▁Taliban
▁gitmiyor
▁çağdaş
▁buluştu
▁fırça
▁işkence
▁hekim
▁içimde
▁Doğrusu
▁aktiv
▁plak
▁istihdam
▁Kişi
▁arşiv
▁sistematik
▁coğrafya
▁yozlaşma
▁Tony
▁kullanılmış
▁giyme
▁spektrum
▁özünde
▁soktu
▁Özgür
▁öğe
▁Vakfı
▁yoksulluğu
▁Şarkı
▁gelişiyor
▁cocuk
▁zafer
▁penis
▁uyuyor
▁birsey
▁basladi
▁geçirmiş
▁örgü
abilmemiz
▁zira
▁baktığınız
▁Şans
▁denetim
▁ikon
▁bambaşka
▁istismar
▁Hücre
▁ipek
▁Motor
▁kültürümüz
▁eşdeğer
▁işitme
▁güdü
▁öldürücü
▁coğrafi
▁yolsuzluk
▁Sahra
▁istihbarat
▁timsah
▁patern
▁tanımlıyor
▁Henr
▁kuşku
▁oluştuğunu
▁Koruma
▁erkeğin
▁şükür
mişsinizdir
▁illüzyon
▁Nihayet
laşan
▁bilgeliğ
▁düşünmeliyiz
▁Değer
▁rakip
▁belirtileri
▁aldat
▁Microsoft
▁Görev
▁tahıl
▁idam
▁görünmeyen
▁statü
▁izleyebil
▁gördüğünde
▁Charl
▁göründüğünü
▁Yaratıcı
▁Kızıl
▁Sokak
▁şarj
▁işlediğini
▁beklenen
▁boğa
▁tasvir
▁Yıldız
▁talebi
lendiriyor
attle
▁yaklaştığı
▁tutuklan
▁rahatlat
▁Virgin
▁üzül
▁dönüştürdü
▁hissettikleri
▁hayatınızda
▁Organiz
▁fatura
çoğumuzun
▁Medya
▁Pekâl
▁çene
▁buralarda
▁gündüz
▁süpür
▁tweet
▁kuyruğu
▁içinizde
▁yenme
▁doğuştan
▁filozof
î
▁volkan
▁izole
▁klavye
▁modül
▁olamadı
▁numune
▁193
▁hasat
▁yatırımcılar
PR
▁Berlin
▁origami
▁koruyor
▁çocukluğum
▁görüldü
▁yatkın
▁umuyoru
&
▁kurşun
▁yeryüzü
▁primat
▁ilerlet
▁Kelime
▁Düşünün
▁Delhi
▁ivme
▁beyefendi
▁görülür
▁yırtıcı
▁laboratuar
▁personel
▁enzim
▁pamuk
▁duyulma
▁otoyol
▁ritüel
▁Adaları
▁avuç
▁Duygu
▁küçümse
▁çalıyor
▁bandı
▁Aklım
▁mineral
▁Ruanda
▁Anlaşıl
▁fren
▁semptom
▁dikkatinizi
▁yıkım
▁zekâ
▁Arapça
▁Silah
▁Etiyopya
▁jet
▁açılış
▁destekledi
▁manşet
▁Big
▁solunum
▁Nehri
▁düşünürsünüz
▁öldürüyor
▁hayırsever
▁çırp
▁Michel
▁sponsor
▁Kitabı
▁doğaçlama
▁okuyucu
▁efekt
▁kliniğ
▁taciz
▁haberdar
▁omurga
▁meslektaşım
▁süzül
▁misafir
▁olanağı
▁gütmeye
▁ışığ
uther
▁evliliği
▁etnik
▁Duvar
▁muhabir
NSA
▁yatay
▁Kütüphane
▁mecbur
▁National
▁Görünüş
▁arayışı
▁Yemen
▁oluştuğu
▁mikroskob
▁Parkinson
▁oksitosin
▁talimat
▁Nelson
▁saklay
▁Polis
▁West
▁keyfi
▁çorba
▁sindir
▁Hoş
▁sürüklen
▁tsunami
▁Çocuğu
▁servet
▁Kaçınız
▁İsmi
▁ipucu
▁Şubat
▁oğlan
▁anlaşılması
▁düştüğü
▁kabuğu
▁editör
▁pantolon
▁sosyo
▁halüsinasyon
▁spesi
▁obezite
▁dönüştürüyor
▁Black
▁Cuma
▁Örgütü
▁GSM
▁oğlunu
▁Norveç
▁konsantr
▁düşünüp
▁anlaş
▁levha
▁kurabil
▁Muhamm
▁Ticaret
▁uyguluyor
▁değiştiği
▁kabiliyet
▁maka
▁kulübe
▁hassasiyet
▁festival
▁bayrak
▁Şili
▁mühim
▁Köy
▁tahri
▁garaj
▁insanoğlunu
▁tercüme
▁Profesör
▁olmayacağı
▁imparator
▁Kapa
▁Demokrat
▁borsa
▁asteroid
▁Brian
▁İlgi
▁zanned
▁federal
▁argüman
▁Dördüncü
▁kuyu
▁Singapur
▁birbiri
▁Life
▁Merkez
▁Grön
▁Aşk
▁versiyonunu
▁Sekoya
`
▁azınlık
▁süpermarket
▁Aristo
▁hiyerarşi
▁vaad
▁gereç
▁Watson
▁Sekiz
▁logo
▁dindar
▁keçi
▁örüntü
▁eklem
▁Elektrik
▁Olimpiyat
▁Bangladeş
▁kavuştu
▁makul
▁sansür
ograf
meyeceğiz
▁ritmi
▁çizelge
▁afet
▁Soğuk
▁Yoksul
▁Detroit
▁yapılacağın
▁zihniyet
▁baloncuk
▁gayret
▁çapl
▁yedek
▁Mayıs
▁astronot
▁Terör
▁Kolay
▁Somali
▁şampiyon
▁başlamalıyız
▁Mühendis
▁mütevaz
oksit
▁İrlanda
▁tişört
▁klişe
▁değme
▁cesaretlendir
▁Karanlık
▁öğüt
▁manevi
▁Kök
▁sızıntı
layabilecek
▁meyilli
▁Bilinç
▁gittiğinizde
▁çiçeğ
▁İncil
▁röntgen
▁iPod
▁Kaide
▁döndüğüm
▁Sıfır
▁hanım
▁Fazla
▁Şurada
▁çekirdeği
▁fevkalade
▁Kulağa
▁mucit
▁şempanze
▁versiyon
▁enkaz
▁fakülte
▁müslüman
▁cuma
▁ürkütücü
▁konuştuğunu
▁coşku
▁ipuçları
▁tansiyon
▁İskoç
ebilmemiz
▁talih
▁Sınır
▁kastediyoru
▁dibinde
▁denetle
▁nötr
▁karısı
▁Bahçe
▁Türkiye
▁soykırım
▁oynadığı
▁Homo
▁omurilik
▁israf
▁keşfe
▁nerdeyse
▁eşleş
▁atlayı
▁Leonardo
▁Tesl
▁gökada
▁Hukuk
▁anlayı
▁Nefes
▁sıçan
▁Yaptıkları
▁Endişe
▁Köpek
yahut
▁hatıra
▁Yeteri
▁çeyrek
▁bükül
▁çeviriyor
▁pano
▁karanlığ
▁mektubu
▁mod
▁kalıntıları
▁boğu
▁Hawaii
eographic
▁fizyoloji
▁Endüstri
▁alıştırma
▁hoparlör
▁asansör
▁kraliçe
▁prens
▁entropi
▁İlaç
▁yüzgeç
▁implant
▁selam
▁slogan
▁Tanzanya
ound
▁icadı
▁Yüzlerce
▁simdi
▁tarafinda
▁kucuk
▁Diyelim
▁savunucu
▁World
▁veritabanı
▁kitab
riyi
▁iğrenç
▁Birbirleri
▁Teksas
▁şekl
▁turuncu
▁Rüzgar
▁Birbirimiz
▁Şiir
é
▁edebiyat
▁Ağaç
▁Bugünkü
▁seçkin
▁bizzat
▁gördükleriniz
▁montaj
▁genetiği
▁psikiyatri
▁müfredat
▁hırsız
▁tasarlandı
▁şizofreni
▁milimetre
▁Tunus
▁reaktör
▁santimetre
▁ihmal
▁karides
▁yelpaze
▁feet
▁kademe
▁transistör
▁uzlaşma
▁gidişatı
▁Uzak
▁Apollo
▁panik
▁Görüntü
▁Milyonlar
▁yaşlandık
▁Albert
▁üzerlerin
▁kahkaha
▁tokuş
▁sağduyu
▁Çoğunlukla
▁Merc
▁pekço
▁Fakir
▁Ateş
▁yelken
▁Dunya
▁alışkın
▁kriter
▁mahrum
▁tuğla
▁kaplumbağa
▁Danimarka
▁trajik
▁çevrim
▁piksel
▁tasarlıyor
▁fırla
▁teyze
▁rutin
▁Görünen
▁mahremiyet
▁döşe
▁Sıcak
▁Aşama
▁buğday
▁Ağustos
▁sonlandır
▁randevu
▁yaptigi
▁nazar
▁çıkıntı
▁Dinleyici
▁uret
▁buzdolabı
▁senkroniz
▁borcu
▁kıvrıl
▁Ebeveynler
▁toprağ
▁Seks
▁gümüş
▁sadakat
▁icra
▁döl
▁Oğlum
▁Nüfus
▁Carolin
▁nispet
▁apartman
▁zahmet
ebilseydi
▁pizza
▁Clint
▁varolan
▁çete
▁Disney
▁itfaiye
▁olağandışı
▁böbrek
▁Umut
▁Şüphe
▁köpekbalığı
▁stok
▁metabolizma
▁gercek
Ş
▁gelebil
▁değiştirebil
▁beklediği
üldüğü
#
landırıcı
▁tarihini
▁yaklaşıyor
▁başlayabilir
=
‘
▁düşünebil
▁karşılaşıyor
+
_
▁inanı
̈
xx
^
*
Ç
í
@
ó
~
á
⁄
Ö
ã
è
Â
Ğ
ñ
ZX
▁Bildiğin
°
£
ú
ō
©
à
ä
́
ô
QQ
ø
¥
|
ÜZ
ī
€
ê
อร่อย
ï
­
É
Á
∇
τ
ZZ
æ
ë
Č
ää
š
ē
Ō
ì
XX
®
ć
