<pad>
<unk>
<s>
<\s>
▁.
▁,
▁bir
▁"
▁ve
▁
n
k
▁bu
▁'
m
a
lar
t
e
ler
▁Bu
▁için
▁da
▁de
i
z
l
r
▁Ve
▁çok
▁?
li
de
la
leri
▁daha
ları
p
le
da
y
s
si
ma
▁ki
▁var
ya
ı
ü
▁)
(
▁:
▁gibi
▁o
ye
▁olarak
▁şey
▁ne
lı
den
er
an
▁olan
▁—
in
▁ya
ce
ş
▁en
ti
▁kadar
en
sı
u
di
te
me
ta
▁her
ne
lik
dan
▁değil
ra
▁ile
nin
▁zaman
ri
na
ların
▁iyi
ca
▁olduğunu
▁-
▁Bir
o
lerin
lık
yi
▁büyük
dir
▁ama
ki
▁Ama
▁O
ın
▁sonra
nın
f
d
▁bunu
dır
▁nasıl
lerini
sa
larını
re
▁sadece
▁yıl
▁A
lan
▁önce
▁mi
mak
▁çünkü
tı
ni
▁şu
▁şekilde
ba
▁iki
dı
yı
im
se
▁fazla
h
ır
ç
▁yeni
▁insan
▁kendi
ir
▁ben
lara
▁an
▁aynı
mi
ini
▁S
▁;
▁benim
▁gerçekten
ci
um
▁Yani
tan
▁Şimdi
du
▁hakkında
▁yer
▁diğer
lere
mek
▁al
lu
▁farklı
▁a
▁sahip
▁tüm
g
▁Ben
▁olduğu
▁ilk
▁in
▁başka
▁e
ken
▁insanlar
▁doğru
ar
▁E
un
v
▁i
▁ilgili
uz
ecek
▁C
sine
▁içinde
▁biri
▁yok
daki
sini
▁son
▁biz
▁bile
▁böyle
va
ydi
▁aslında
ıyor
▁bunun
▁iş
▁burada
▁gün
b
▁küçük
▁tek
tik
ını
▁yol
▁veya
mış
ğ
acak
▁♫
sel
yla
dü
▁şeyler
▁k
▁oldu
▁Gülüşmeler
▁gerçek
nda
▁ise
ha
ine
maya
▁Ma
▁ha
▁te
ten
▁bizim
miş
ım
▁önemli
▁eğer
tir
iz
ğı
▁Faka
lama
▁bana
ydı
inde
larda
c
▁size
ıp
▁K
▁bilgi
▁karşı
▁Ha
il
▁Eğ
▁biraz
el
larının
deki
▁Ka
▁ta
▁me
▁teknoloji
et
abilir
niz
▁geri
arak
miz
▁Ya
st
▁bütün
gi
▁zor
▁bak
▁ay
▁yapı
▁üzerinde
at
tır
to
lerde
▁ev
▁insanların
▁hiç
ö
▁kişi
ün
▁hareket
lardan
ça
▁şimdi
iyor
▁üç
▁göre
lü
▁ver
lerine
▁neden
▁diye
yle
lo
sanız
▁mı
▁vardı
▁az
ıcı
on
▁soru
larına
▁Bunu
▁olma
▁çıkar
▁at
▁zamanda
lerden
▁para
▁yüzden
ur
ik
cı
▁olacak
▁onu
▁olması
▁tam
hi
▁su
▁tür
▁ma
siniz
▁dünya
▁ak
ro
ebilir
ndan
▁B
▁çalışma
▁yapmak
lerinin
▁f
▁H
▁Çünk
▁bazı
▁etme
ip
be
su
man
sını
ış
larında
▁ba
▁yapma
▁hikaye
▁G
▁mu
▁tarafından
▁olabilir
▁Kahkaha
or
▁konu
▁oluyor
liği
▁olmak
▁Ne
▁İşte
lerle
▁güzel
▁nın
▁istiyorum
siz
sına
0
ması
ıl
po
▁alan
▁kullan
▁ye
▁di
▁Çok
▁göz
dim
▁Biz
▁Dünya
▁etmek
▁fark
lığı
erek
▁kur
meye
▁den
▁süre
▁ka
çi
▁ç
▁Her
▁ortaya
min
▁kal
▁Peki
sız
▁etki
larla
ge
▁el
▁bunlar
▁3
▁bize
▁dedi
▁açık
▁oldukça
ğa
ında
▁olur
▁uzun
▁Bunun
bi
sunuz
ga
▁si
▁geliyor
sü
▁karar
ına
sal
▁birkaç
▁ara
▁fakat
▁şeyi
mayı
▁yani
▁kötü
▁20
ür
▁Ko
nız
sak
▁10
▁Ba
▁beni
▁çocuk
sin
sinde
▁devam
▁tekrar
▁anda
▁Burada
▁İ
tü
tu
▁getir
çe
iyoruz
▁D
vi
dur
▁2
▁Aslında
▁onlar
▁kaç
dum
dım
yu
zi
yor
▁ın
lerinde
▁Siz
▁konuşma
diği
▁kat
▁ko
▁iç
▁orada
▁Alkış
▁onları
▁ö
▁baş
▁hayal
al
lardı
▁geldi
▁onun
▁gerek
w
▁ülke
▁Alkışlar
▁boyunca
▁T
▁yaşam
▁parça
seniz
ru
rken
▁durum
▁sorun
inin
▁yakın
sinin
▁ek
▁Be
▁s
▁pek
cu
nde
▁U
▁adam
▁aile
▁bilgisayar
diğimiz
▁yarat
▁yüzde
▁milyon
▁göster
▁Sa
sun
▁re
▁Daha
▁gelen
▁değiştir
▁basit
▁Afrika
▁birçok
ıyorum
za
▁nokta
▁veri
sek
▁bölge
▁kadın
yan
▁zorunda
▁bilim
▁yüksek
▁Anca
▁!
mız
Ü
▁De
▁Evet
▁000
▁yardım
▁F
▁hiçbir
▁Ge
▁arasında
▁hayat
▁kazan
▁yaş
▁ses
nı
lerinden
▁ulaş
bo
▁belki
▁enerji
▁dolar
▁dan
▁Ö
asyon
sınız
▁tamamen
▁aç
▁öyle
▁do
dığı
▁savaş
▁siz
cü
yo
ve
▁proje
▁bugün
▁birlikte
unu
üyor
▁En
▁buna
ber
▁sev
▁harika
ıyoruz
▁mü
▁kız
ter
▁araba
larından
▁inan
▁örnek
leme
ör
sında
imiz
▁temel
▁çoğu
▁sürü
▁hava
gü
luk
▁yerine
▁yaz
▁ona
▁gereken
▁işte
ch
▁ediyor
ünü
▁saat
rt
mda
larımız
5
▁daki
▁Bunlar
▁değer
▁yap
▁nin
luğu
▁eder
▁dünyanın
▁yerde
lerimiz
▁tanı
dık
kı
yım
▁yüz
▁W
▁çevre
S
▁üzerine
▁Sonra
▁artık
▁şöyle
▁yolu
dik
ku
▁be
▁ü
▁öğren
▁söz
tık
ğu
▁hasta
▁Ç
diğim
dığımız
▁tane
â
▁ederim
bu
▁eğitim
lığın
▁eden
▁sene
▁Şu
▁herkes
Z
▁ter
us
A
elim
▁hem
▁üret
▁fikir
▁Böylece
fi
▁vardır
co
▁çık
çı
tro
▁P
▁toplum
▁Amerika
▁Te
▁konusunda
▁oluştur
▁kontrol
▁düşün
▁Al
▁hızlı
iş
ren
mı
▁onların
▁Ş
▁söyley
▁kim
▁araştırma
▁altında
muş
▁gelir
şi
▁sağ
ının
▁çalış
▁gir
gu
▁ilişki
ley
▁bizi
imi
▁Bil
▁kolay
▁sistem
ebiliriz
go
▁Sade
dığını
▁oda
▁J
▁dair
▁Me
▁4
▁Tamam
▁işe
▁yeniden
▁genç
▁ilginç
raf
▁kaynak
▁Ta
▁geç
▁sosyal
miyor
▁başladı
▁5
▁özel
▁dört
diğini
▁yaklaşık
2
▁iste
▁sonunda
▁sen
▁ancak
▁ister
▁hale
▁ön
▁200
abiliriz
▁yara
▁okul
▁Kendi
şa
tim
sının
▁fotoğraf
▁hafta
▁elde
▁onlara
ul
ol
▁bırak
şe
▁istediğim
muz
▁sizin
▁ayrı
▁beyin
▁grup
▁yanı
▁kelime
▁birşey
▁problem
x
pi
let
▁pa
▁büyü
▁film
▁Di
fa
▁olmayan
▁istiyor
mıştı
ger
▁yı
▁inşa
▁hazır
▁durumda
▁eski
▁şa
▁Benim
%
yim
▁verme
▁Teşekkürler
▁Pa
▁h
▁Se
▁hemen
▁haber
▁Mo
▁herhangi
▁demek
nu
▁şeyleri
▁tak
ck
▁görme
sın
▁inanılmaz
▁Onlar
▁gid
▁hala
ydu
▁he
▁çek
ıyordu
▁pi
▁I
▁yapar
▁parçası
▁yapıyor
▁güç
1
▁na
▁gezegen
ho
▁dünyada
▁çalışan
▁milyar
▁paylaş
▁fikri
▁19
▁görüntü
▁tut
▁resim
▁deney
▁düşünce
▁insanları
▁görün
▁izin
ucu
▁dikkat
▁güçlü
▁kullanıl
lük
iyet
▁kısa
▁İlk
liğin
▁hi
mo
▁edin
▁1
▁kar
▁ölüm
▁benzer
do
per
▁An
▁cevap
▁g
▁doğa
▁Bugün
ilmiş
▁bil
umu
▁bas
▁olay
’
▁yaptı
▁dakika
▁100
ılmış
acağım
▁ele
▁kabul
inden
ist
▁Ban
▁sun
th
lıyor
▁art
▁mo
▁destek
nızı
▁kan
▁geniş
▁eş
▁deneyim
▁Ro
▁din
▁güven
▁anlama
▁tamam
▁ı
▁gö
▁açı
▁u
▁bo
▁la
mızı
▁beş
rek
▁Da
▁dur
▁işi
▁ana
nden
▁yine
masını
▁mümkün
ton
▁iz
▁özellikle
lamak
M
oloji
▁hatta
leşme
dığım
▁kay
▁oyun
met
▁Ga
▁yu
▁plan
▁gösteriyor
unun
ey
ko
üm
iği
▁as
▁Neden
▁hepsi
▁etti
▁kimse
▁yan
▁Bo
suz
bir
▁sanat
▁gönder
mizi
▁şunu
yiz
▁kalma
▁deniz
▁Pe
▁çözüm
ımız
eceğim
▁derin
▁tahmin
▁çocuklar
umuz
▁30
▁üst
nüz
san
▁un
▁gelme
▁bilme
▁hücre
▁şehir
▁gör
eği
isti
▁geçir
▁yazı
▁sınır
▁model
▁bağlı
▁ağ
lanma
▁kap
▁konuş
ğe
mesi
ıyorlar
▁kitap
mde
bil
meyi
abiliyor
▁bunları
▁sayı
▁sebep
▁sor
men
P
▁aşağı
tur
ilen
abilirsiniz
yız
▁değildi
▁gece
mu
▁yaptık
▁söyledi
▁ci
▁Mi
lendi
▁bekle
▁alın
▁makine
6
▁hayvan
▁san
▁gördüğünüz
▁New
tör
ğin
▁insanlara
▁bağlantı
▁yalnız
iyle
▁genel
▁olsa
▁değildir
▁bence
▁araya
ah
▁es
▁görev
der
▁der
▁et
it
▁yanlış
▁kafa
▁hastalık
nizi
mıyor
▁oran
▁yarı
▁tanım
yon
▁olmalı
B
▁düş
▁b
▁düzen
▁Çin
▁li
▁kez
ız
▁fi
▁dön
mişti
3
dür
sinden
▁video
▁neredeyse
▁robot
mez
▁He
▁otur
leyen
▁on
ver
▁dedim
ici
▁İnsanlar
gı
ebilirsiniz
▁neler
▁öğret
▁birisi
▁yaptığı
▁internet
▁karmaşık
liyor
▁bakar
▁varsa
▁oyna
▁anne
ama
▁çıktı
▁tedavi
▁bina
düğü
alım
▁sistemi
▁Son
▁ekonomi
▁gel
kan
ımı
▁yapmaya
hu
▁dolayı
▁La
▁engel
ji
▁sat
taki
▁50
▁diyor
▁yapan
bilme
▁Si
tor
▁yere
▁ser
kar
▁pe
meyen
son
▁sizi
▁Fi
▁6
▁gerekiyor
▁götür
▁hayatı
▁derece
duk
tif
▁gelecek
▁düşünme
▁üzere
▁Ar
▁içine
▁ihtiyaç
▁ifade
▁başlay
▁düşünüyor
▁gücü
▁Hindistan
▁TED
▁geliştir
rak
▁sonuç
duğu
▁yaptığımız
▁gitme
▁korku
▁kol
▁program
▁olduğuna
▁heyecan
▁ışık
ık
▁hak
▁iletişim
tra
▁ilgi
▁R
R
▁doğal
▁L
▁Bi
▁test
iyorum
▁fa
abilecek
4
▁gidiyor
▁San
▁verici
iyorlar
▁mutlu
▁gen
▁beraber
ste
▁düşünün
▁Su
▁bundan
▁belir
▁bit
▁anlat
leyici
▁15
▁bakın
▁şeyin
▁ürün
uyor
for
▁Ara
▁değiş
ledi
▁durumu
ev
▁geçen
ebileceği
▁seviye
▁Ku
dikleri
E
▁dönem
▁sür
▁muhtemel
▁Aynı
▁bin
▁olmadığını
▁ikinci
▁kullanarak
▁Gör
▁Li
8
▁kor
acağız
▁kural
mamız
▁olmadığı
▁kır
▁içeri
leriyle
▁veriyor
▁nerede
▁başladım
medi
▁Tüm
arı
D
▁Co
▁Ev
ildi
T
▁söylüyor
C
▁ettik
▁kısmı
▁yoktu
▁bunların
▁yaşında
▁yöntem
es
▁hâl
▁sonraki
▁se
ing
▁dışında
nun
▁arasındaki
▁alma
▁ortak
▁tasarım
una
mızda
▁telefon
▁uzay
nızda
▁çeşit
▁sık
▁M
ebiliyor
▁9
▁koy
▁bulma
is
▁anlamın
▁tü
▁yön
▁ihtiyacımız
▁çal
▁yapılan
▁biliyor
▁sağlık
▁oluş
▁canlı
ıldı
▁olduğumuz
▁sal
ışı
▁ilaç
▁ilgilen
▁koru
▁biliyoruz
▁kendini
▁ni
▁seçim
▁kalan
▁kuru
larım
▁Belki
sıyla
▁çeki
▁yapacağı
ed
▁öğrenci
▁Va
▁yi
▁hoş
▁Kar
▁top
▁7
▁görmek
▁duy
▁görüyorsunuz
▁davranış
▁koruma
fo
▁rağmen
▁Par
▁kadınlar
▁sebebi
lemek
▁oku
▁tarih
▁düşünüyorum
9
▁ders
▁kutu
▁uygulama
▁önem
▁duygu
▁Ki
▁görebilirsiniz
lerim
▁alıp
▁teşekkür
▁İş
▁madde
▁küresel
▁nedir
▁erkek
rke
▁insanın
▁Büyük
▁bakış
▁sol
▁izle
▁altı
sam
sem
▁kes
▁başlıyor
▁hizmet
▁görüş
I
▁sınıf
ans
▁yaşama
▁şekil
▁risk
▁verdi
sunu
7
▁adım
▁so
lerdi
▁seç
▁asla
▁bilmiyor
▁gider
▁doktor
▁edil
▁hatırla
▁Avrupa
▁ettim
▁fırsat
yorum
j
▁şe
▁kara
▁is
▁kuş
▁geli
▁çizgi
▁yardımcı
▁çalışıyor
▁York
▁şirket
▁alanı
▁güneş
▁Çocuk
▁acı
ladı
▁ileri
▁v
▁harita
▁dolu
▁geçmiş
mizde
▁kü
▁ayak
müş
▁bazen
▁lider
▁yılında
▁yüksel
▁balık
diğiniz
▁olursa
larıyla
▁kon
▁mikro
yse
▁Yap
manın
▁düşündüm
yordu
▁renk
layan
larımızı
▁kas
▁başına
▁Ayrıca
▁değişim
▁olsun
▁yukarı
▁Re
▁çift
▁yaşayan
▁tasarla
▁bağ
▁ayır
▁olup
▁etmeye
▁çarp
▁ihtiyacı
▁söyleme
yum
▁hangi
▁kullanma
yken
▁Diğer
▁verir
▁pro
▁dönüştür
▁merak
▁Mu
▁dünyayı
▁düşünür
▁okyanus
▁arka
▁hepimiz
▁yavaş
yoruz
▁yürü
▁normal
tığımız
▁orman
▁Başka
▁uzak
▁ayrıca
▁içerisinde
▁bulun
▁adı
▁algı
▁defa
▁tabi
▁ekonomik
▁Ti
▁mesaj
lerimizi
kları
▁boş
▁hayatta
▁vermek
▁sıra
▁ortam
▁uç
▁almak
▁görebil
▁İki
▁dil
ster
eceğiz
lanmış
▁sürekli
▁çevir
sen
▁Buna
▁kesinlikle
▁yayıl
▁yasa
▁yılda
nuz
▁bitki
▁takip
lığını
▁takım
▁beri
▁görüyoruz
▁şekli
▁Yeni
▁60
ebilecek
▁Du
▁konuda
▁hep
▁ince
tım
▁duydu
▁gerekli
▁olacağı
gan
▁gerektiğini
▁olurdu
▁Do
▁So
▁resmi
mıza
▁görünüyor
likle
malıyız
▁yatırım
▁şiddet
▁binlerce
▁metre
▁anlam
unuz
▁Ra
ıyorsunuz
ğimiz
▁isteme
▁uygun
▁ciddi
▁yoğun
▁yaptığım
▁dizi
fer
▁yüzey
▁tip
▁devlet
▁Fa
▁Bütün
vu
▁yıldız
iniz
▁başarılı
aj
ından
▁Bizim
▁deki
▁haline
▁Po
ğini
leşti
▁yayın
▁hedef
▁işlem
▁beynin
▁söyle
meliyiz
▁Teşekkür
▁başladığı
▁40
▁yaratıcı
landı
▁öz
▁ait
▁kıl
tar
▁nedenle
▁başarı
▁kök
har
▁ar
▁aldı
▁bulunan
▁Hayır
▁mil
▁sesi
O
▁öldür
▁boyut
▁başladık
▁12
▁pazar
▁şeye
unda
▁yapabilir
ğü
duğunu
▁yemek
▁Gerçekten
nize
▁evet
▁aşı
▁öğrenme
▁meydan
▁sar
▁alır
▁As
▁bi
ll
laştır
▁dünyadaki
eceği
cık
acağını
▁söylediği
▁yerleştir
▁N
▁8
▁say
▁yaptım
▁ediyorum
▁eşit
▁edecek
mekte
▁arada
▁yanında
▁cihaz
maz
▁çıkma
lenme
ad
acağı
▁harca
▁gidip
▁tutu
▁erkekler
▁mükemmel
▁işaret
ünün
▁orta
liğe
▁şarkı
gen
▁müzik
▁Ye
▁vur
id
kten
▁dönüş
liğini
▁sayesinde
▁zengin
▁giy
▁vücudu
▁isim
▁Na
op
iyordu
▁yaşıyor
▁uzman
▁düşük
ılan
▁başlama
▁İkinci
▁süreci
▁elektrik
▁politika
▁gitti
▁tabii
▁geleceği
▁büyüme
G
▁DNA
▁silah
▁kalk
▁gerekir
▁nüfus
▁hükümet
▁ağaç
▁Onları
▁musunuz
yıp
▁asıl
▁av
▁18
▁temiz
▁tarz
▁gül
tür
ılır
tığını
▁mevcut
▁uğraş
▁kom
▁yarar
ebilirim
▁dayan
mize
▁Tanrı
ınız
▁El
▁ağır
▁bilin
teki
▁araç
eyim
▁olmasını
▁dahil
▁muhteşem
▁döndü
eri
▁mühendis
lüğü
▁yapabil
▁başar
▁zarar
▁kapı
▁çeşitli
▁gittiği
▁saniye
▁koş
▁sahne
os
je
▁veren
fen
▁öğretmen
laşma
▁sorunu
▁görü
▁maliyet
▁ölç
▁tıp
▁alıyor
▁zamanlar
▁günü
▁Le
▁pat
memiz
▁olmadan
▁duvar
▁bar
ydım
şim
▁yönet
▁yıldır
▁kesi
▁sinir
▁Orta
inizi
▁biliyorum
▁altın
▁oldukları
▁hücreleri
mayacak
▁Böyle
▁çiz
▁hata
▁malzeme
▁fayda
ral
yü
▁dağ
▁anlamak
uğu
▁ABD
▁sıcak
▁25
▁organ
▁baba
▁olduğum
▁hız
lenmiş
▁konuştu
dılar
▁göstermek
▁bakım
▁alt
▁gözü
▁alet
▁Mü
ron
gar
he
▁dış
▁Yo
▁amacı
▁sayfa
▁can
▁yedi
ğını
sından
▁gez
▁gördük
mın
▁süreç
▁Ja
▁sahibi
▁beyaz
▁katıl
▁tepki
▁biyo
▁git
▁birinin
▁geçme
miştim
▁çıkan
▁olacağını
tme
malı
▁bitir
▁kendimi
▁halk
▁aracı
▁adamı
▁bulmak
▁par
▁kişisel
▁Ak
▁karbon
▁yerlerde
▁em
üş
▁okuma
▁hissed
ab
▁To
▁sağlıyor
▁unut
layabilir
larımızın
▁çalışır
▁ortalama
▁emin
▁yıllar
▁bilirsiniz
cak
▁karşılaş
▁duyu
▁alış
▁tarafta
▁kanıt
cılar
▁herkesin
▁hastalığı
▁Bunları
asyonu
▁kaldı
lardır
mızın
▁oluşan
up
▁evren
▁sıkı
▁nun
▁Ni
abileceği
▁Amerikan
▁birini
▁yük
diler
▁form
▁evrim
▁mavi
kal
▁ol
▁Sen
▁kitabı
▁rol
meli
▁başlar
var
eceğini
▁üretim
▁söylemek
▁zaten
▁sey
▁yapacak
▁Müzik
▁buraya
as
▁No
▁tartışma
▁bozu
▁gelişme
siyle
▁yüzyıl
▁çocukların
▁teori
ven
▁medya
▁miktar
▁oray
ümüz
▁molekül
log
▁masa
▁Artık
▁Vi
▁Herkes
▁hayır
dığınız
▁davran
lamaya
▁amaç
▁Onun
▁Birleşi
lanan
▁nedeni
▁bakalım
▁bağla
▁şeylerden
▁çocukları
▁kendisi
jen
▁noktada
raya
▁ortada
▁yerinde
▁dokun
▁olsaydı
▁ölü
▁işle
▁sayıda
▁fakir
▁fiziksel
▁yeterli
▁80
miyorum
▁sayısı
▁yaklaş
▁lazım
▁olabil
▁umut
▁ufak
▁kaldır
▁kamera
N
▁kültür
ysa
▁üstünde
▁Baş
▁gerçekleştir
▁matematik
▁ısı
▁idi
mıştım
▁virüs
▁karakter
ıyla
▁geldiği
▁hissetti
▁Örneğin
▁açıklama
H
▁işin
▁petrol
▁derecede
▁yıllık
▁kanser
▁11
▁İnsan
ilmesi
▁yetiştir
▁örneğin
▁aldım
▁icin
▁belli
▁sefer
▁temsil
▁öte
▁kurtar
▁baskı
mesini
▁verdim
▁Mars
▁CA
▁mücadele
▁duyma
▁kere
▁istedik
▁his
▁çıkıyor
▁şeylerin
▁sağladı
▁to
diğinde
▁üniversite
▁nesne
▁dışı
▁çağı
▁ışığı
▁yiyecek
▁edeceği
▁kişiler
▁Gerçek
▁olmaya
▁tanesi
▁endüstri
▁diş
▁çalışmak
▁buradaki
▁yaşan
▁bulunduğu
▁Bazı
dıkları
▁odaklan
▁suç
▁gerektiği
▁gördüm
▁yeşil
▁siyah
▁ada
▁ölçü
[
▁Güney
▁Kuzey
▁baktı
▁günde
ow
▁görsel
▁bebek
▁taraf
▁Mesel
lerdir
meyecek
▁doku
▁etrafında
▁dik
▁sanırım
▁halde
L
▁kavram
▁benze
▁sır
▁geçti
▁zamanlarda
]
▁adlandır
▁ediyoruz
▁mesele
▁geliş
anırım
duğumuz
▁biçimde
▁dalga
madan
▁çoğunu
▁ila
.
▁hali
▁asker
ttiği
▁Orada
▁Google
▁yapıyoruz
▁dinle
larımı
hane
▁anı
▁çöz
▁Nasıl
▁azalt
▁Jo
▁saç
▁dünyaya
▁yaka
▁soy
▁deneme
▁azal
▁bazıları
▁tepe
amaz
▁dal
▁gittim
▁arkadaş
▁yaratmak
▁kalp
▁beyni
leştirme
▁bakteri
gre
▁zamanı
▁iklim
▁biçim
▁azında
▁hayatın
▁geliştirme
düğünü
▁getirdi
▁yarısı
abilmek
▁yapılmış
▁kardeş
▁çözme
muyor
▁anladı
liğinde
▁nde
▁yerel
imizin
▁farkında
▁aşırı
▁yeti
▁Hatt
▁yaşlı
▁aşama
▁Kur
▁olduklarını
▁Gi
▁etkili
▁dijital
▁etkileşim
▁olmaz
▁ödül
lma
▁bölüm
▁Anne
▁edebilir
▁yazar
▁biliyorsunuz
▁Sonuç
▁olacaktır
▁toplam
▁Y
▁merkezi
iyorsunuz
▁Tek
▁dili
▁İç
▁konusu
maktadır
▁kızı
▁ruh
▁şaşırtıcı
ımızı
▁işler
▁kullanıyor
▁numara
▁Pro
▁çekme
▁kaynağı
diniz
▁imkan
▁cep
▁kurtul
▁Lo
▁taşın
eceğiniz
▁süper
▁sabah
▁sonucu
sh
ılması
▁milyonlarca
▁kum
ff
▁topluluk
▁aldık
▁uydu
imizi
▁dışarı
▁kişinin
▁gazete
bet
K
makta
▁gördüğümüz
emez
▁doğu
▁kapa
▁kendilerini
▁gösteren
▁edilmiş
▁sağlayan
▁yapıldı
▁verdik
mizin
▁gözlem
örü
▁Amerikalı
▁bununla
▁gizli
▁istedim
▁sok
▁söylen
▁birleştir
▁adında
▁şirketler
▁sana
▁70
▁açısından
▁it
▁hayvanlar
▁Çoğu
▁teşekkürler
acağımız
▁olmuştu
▁yüzünden
▁dönü
▁dolaş
▁düz
▁site
inizde
ımın
sünü
ksiyon
▁Ri
▁tav
dy
▁insanlarla
▁199
▁önünde
▁sordu
▁kullanmak
▁mesela
▁başında
▁kırmızı
▁arkadaşım
▁kod
▁Birkaç
▁rahat
▁uyar
▁İn
▁ilham
▁hastane
mektedir
00
▁önceki
▁yetenek
▁hayatını
▁liste
▁mekan
kçe
▁yaklaşım
▁beceri
▁değilim
▁keşfed
▁babam
▁besle
▁öner
▁İyi
indeki
▁yapıyorlar
▁tarihi
▁yaptıkları
▁köpek
▁Batı
▁anlamda
▁kenar
▁devrim
▁tüket
lanıyor
▁Onu
▁içindeki
▁esas
▁etkisi
ulmuş
▁köy
umun
hr
▁ateş
▁sistemin
ılıyor
▁grubu
▁tercih
▁Hiç
iliyor
▁istiyoruz
▁olmuş
▁ekran
▁akıllı
▁fikirler
▁teknik
▁Bak
▁laboratuvar
▁sanki
▁konuşmak
▁belirt
▁üçüncü
aman
▁ülkede
lerinizi
lardaki
▁Yüz
▁koyma
▁yapabiliriz
ınca
▁yarış
muştu
▁göstereceğim
▁yoksa
▁aş
▁özgür
▁sokak
▁kesin
▁don
▁getirmek
▁Devletler
▁yüzü
▁ettiği
gun
▁çaba
kül
▁Dolayısı
▁söyler
▁fiyat
▁sorma
▁dev
larınız
imin
▁sorumlu
▁hikâye
maktan
ğim
▁inanıyorum
▁uyum
▁verdiği
▁ucuz
▁senin
▁gitmek
▁görüyor
▁sırada
▁gelecekte
▁bulduk
altı
▁ağı
▁hesap
▁kapat
▁fil
▁aldığı
seydi
ğım
▁üretme
▁gerçekte
▁duruyor
▁bilimsel
▁kendimizi
▁Mil
▁tutku
dığında
▁uçak
üstü
▁Soru
▁yaşay
▁oranı
▁anlaşıl
▁olun
▁okuy
▁Dev
▁denge
▁gaz
▁dans
▁satın
ktan
▁akıl
▁sağlıklı
▁taşı
▁garip
▁demokrasi
▁kuvvet
▁karanlık
▁gösterdi
tığım
▁yüzlerce
▁Hepimiz
▁90
▁sanatçı
▁seviyorum
▁ölçek
syon
▁elbette
▁korkunç
▁eylem
▁günlük
▁düzey
▁Biraz
▁yönetim
lıkla
▁Video
▁bilmiyorum
▁arı
▁yoktur
▁nerey
▁uzakta
▁istediği
müştü
▁tarafı
lıyız
▁bahsed
▁annem
▁Tabii
▁durdur
ince
▁giden
ırsınız
▁Go
▁zeki
▁güvenli
▁tur
▁merkez
▁gelişim
▁belirli
▁İnternet
▁indir
▁tanıştı
▁genellik
▁nesil
ja
▁duyar
ümü
▁ülkeler
▁çocuğun
▁dile
▁Kim
▁olduğundan
▁açıdan
▁konuşuyor
▁problemi
▁gelmiş
larınızı
▁keşfetti
▁sorular
▁not
▁bağlan
▁alakalı
▁rakam
▁türü
▁karşılaştır
▁üzerindeki
nızın
▁potansiyel
▁hepsini
▁girdi
▁eğit
▁bulunma
▁şehrin
▁taşıy
▁değişik
▁bahsediyor
nıza
▁türlü
▁buluş
▁uyan
▁eve
▁bunlardan
▁önemlisi
▁edilen
▁olmayacak
şık
▁ulaştı
▁detay
▁çözü
ladık
▁gördü
▁rahatsız
▁buldum
▁sinyal
▁16
▁In
▁kaya
▁oldum
lerimizin
▁geleneksel
▁piyasa
▁icat
▁gerçeği
saydı
diklerini
▁yana
▁koydu
▁motor
▁cevabı
▁başarısız
▁V
▁olduğunda
▁budur
▁ülkelerde
birine
iyordum
▁etmiş
istan
▁ardında
▁sağlamak
▁hakkı
▁ilerleme
mıştır
lmaz
▁kayıt
▁istediğimiz
▁tasarımcı
▁koyu
▁yapmamız
▁ettir
luyor
▁anlamı
▁sekiz
▁biliyordu
▁kilo
▁bulundu
▁Pekala
▁aktar
▁şüphe
bur
▁anlamaya
▁duru
▁verimli
▁kalite
▁artış
▁ahlak
▁sevgi
▁oyunu
▁dağıt
▁500
▁geldiğini
▁yaşadığı
▁park
▁fikirleri
▁girme
▁zorluk
▁kaybed
▁şansı
adlı
▁kısım
▁yapmayı
▁başı
▁parmak
▁yazılım
▁Burası
▁Birçok
▁ihtimal
▁yoksul
▁değiştirmek
▁deri
▁yağ
süz
abileceğimiz
▁değerlendir
ğında
▁uça
▁sessiz
▁Beni
▁yapama
▁bağış
mezsiniz
üzün
▁yaparken
▁modern
▁Düşü
▁ziyaret
▁çalışıyoruz
▁teşvik
ği
▁gösteri
▁arkadaşları
▁İnsanların
▁verin
▁geçirdi
▁katı
sidir
▁Tam
lerimi
acaktır
▁sahibiz
▁herşey
▁şirketi
▁ettiğimiz
▁olağanüstü
▁halinde
▁tas
ebileceğimiz
▁karşılık
▁gıda
▁politik
▁ton
▁genetik
▁yetişkin
yacağım
▁sonsuz
▁sırasında
▁saldırı
▁beden
▁vücut
▁hücreler
▁dahi
▁ettiğini
▁toprak
▁düşünmeye
▁ismi
▁içi
▁olmamız
▁mal
▁ediyorlar
▁arkasında
▁uyu
▁anlatı
▁yağmur
▁benziyor
▁örneği
▁yaşadı
▁yeterin
▁davet
▁ücret
ladığı
▁yazdı
▁şaşır
▁geriye
▁sonuçlar
▁ikna
▁düşündük
▁duyuyor
▁Kız
▁Tu
▁endişe
▁köşe
▁tecrübe
larındaki
▁katkı
▁yaparak
▁hayatımı
▁yönlendir
▁böcek
landırma
▁başta
▁yorum
V
▁ortasında
▁hızla
▁birbirlerin
▁insanı
▁13
▁kablo
▁bildiği
▁televizyon
▁Pi
nizin
▁kendimiz
▁değişimi
▁çekici
▁olmayı
50
gram
▁demektir
▁Yıl
▁ikisi
▁yapabileceği
▁uygula
▁herşeyi
▁değişti
▁ata
▁aşk
liydi
▁zihin
▁boyutlu
▁erken
▁çocuğu
▁Chris
▁Savaş
▁14
▁gemi
▁açtı
▁kimyasal
sizlik
▁yaygın
▁Japon
▁oğlu
skop
▁istedi
▁Geçen
▁Demek
▁Kadın
▁bölümü
▁fizik
▁sap
▁fare
▁geçirme
▁cam
▁kendime
▁açıkça
▁strateji
▁uy
▁Hepsi
ladım
▁sağlay
▁John
▁arama
▁çılgın
▁kare
▁araçlar
▁onunla
▁zeka
/
F
▁şiş
▁kadınların
▁izleme
▁bilinç
▁çalışıyorum
sindeki
▁ayar
▁nöron
▁sıfır
▁Öyle
▁parti
▁güvenlik
▁sonrasında
▁karış
▁adını
▁olası
▁kaybetti
▁Doğru
▁hissetme
▁adet
▁sergi
ırız
layacak
land
▁küçü
▁kurdu
▁terör
luğ
▁bıraktı
▁meslek
▁bü
▁programı
▁polis
▁miktarda
▁dönme
leşmiş
▁çalışmaya
▁kısmını
▁taş
▁yabancı
▁pu
▁198
▁kendisini
yacağını
▁arazi
larımızda
▁bahset
miştir
lıyoruz
▁devre
▁düşünmek
▁etraf
▁anlattı
▁yapmış
▁tehlikeli
▁Buradaki
▁seyahat
▁toplu
▁Car
▁seks
▁olduğumu
▁17
ard
▁Bilim
▁çalıştığım
▁Doğu
▁tehdit
eceğimiz
▁eğlen
▁pahalı
▁eğlenceli
▁Tabi
▁özgü
▁öğrencileri
▁farkın
▁imkansız
▁Hu
▁gaye
▁Öyleyse
▁kaybol
▁gösterme
▁saygı
▁ürünü
▁adına
▁anlatmak
▁nefes
▁şart
▁modeli
▁hal
▁taşıma
▁cok
▁eriş
▁kamu
▁fabrika
▁kalbi
▁başlangıç
▁gücünü
▁doldur
▁kurul
ebilmek
lanması
▁sektör
▁tarım
▁başlat
▁bildiğimiz
▁edici
▁birbirimiz
▁Hem
bb
▁Hasta
▁geçerli
▁Adam
▁çiftçi
▁batı
▁istey
▁gor
▁muazzam
▁tasarruf
▁Hayatı
▁rüzgar
▁verileri
amayacağı
▁Ona
▁veriler
▁gerekiyordu
▁telefonu
▁organizma
▁kıs
▁Yer
▁analiz
▁Fr
▁çapında
▁Sizin
▁bağımlı
ecektir
▁bahçe
▁Bazıları
▁ettiler
▁Bazen
▁kopya
▁çalıştık
▁olduğumuzu
▁akşam
▁bırakma
▁kanseri
▁okula
▁kör
▁yaşındaki
ırken
▁Sonun
▁aklım
▁çekti
▁öldü
ilir
▁öğrendim
▁işçi
▁kapsa
▁salgın
▁mimari
▁boya
▁birşeyler
▁makale
▁doğdu
▁sorunları
▁organizasyon
▁şehirler
▁fazlası
▁ederek
▁çök
▁sanal
▁barış
▁bisiklet
▁etrafı
▁bulunuyor
▁Güneş
▁sağlayacak
▁Yine
▁işbirliği
▁edildi
▁performans
▁burası
▁atmosfer
▁kart
▁neyse
▁ettiğim
▁arttır
▁eğilim
▁elimizde
▁değişikliği
▁biyolojik
▁21
▁almaya
▁yarattı
▁dinleme
▁yazma
▁yakıt
▁mahalle
▁uğra
▁burda
▁eşi
▁öğrenmek
▁bireyler
▁bakmak
▁sürdür
▁önün
▁benzeri
layıcı
▁sonuçları
▁müthiş
▁kaçır
▁24
lerindeki
▁düşür
▁kapasite
▁soğuk
▁onlarla
ayım
▁isteyen
▁suyu
ize
▁arkadaşlarım
▁zihni
▁gördüğüm
lendirme
▁sö
emeyeceği
▁tablo
▁obje
▁Açık
▁kağıt
▁bazılarını
▁ceza
▁boyu
▁vatandaş
▁görürsünüz
▁olmadı
▁göreceksiniz
abilirim
leyecek
▁kul
▁halkı
▁mesafe
▁suyun
▁bağımsız
▁kilometre
▁makina
▁artır
▁çöp
▁reklam
▁keşfetme
▁buçuk
▁spor
dınız
▁özellikleri
▁Rus
▁hepimizin
▁web
ılabilir
▁zayıf
▁uzaklaş
▁alanında
▁ödeme
▁bulduğum
▁Küçük
▁anahtar
▁bilir
▁bomba
▁Hiçbir
▁anlatma
▁tuhaf
▁İngiltere
▁çalıştım
▁eksik
▁HIV
▁şeklinde
▁tehlike
▁şans
▁ofis
▁özü
▁geçiş
▁kuruluş
▁düştü
▁alanda
▁sistemini
▁buluyor
▁farketti
▁iddia
▁Yu
▁yemeği
▁seçenek
▁çatışma
▁verilen
▁öngör
▁ekip
▁Sta
▁dök
▁grafik
▁banka
▁sordum
▁yeteneği
▁görmeye
▁nefret
▁çıkardı
▁firma
▁buldu
”
▁yolunu
▁doğum
▁getiriyor
▁büyüdü
▁sıradan
nom
▁standart
▁istediğiniz
▁edebileceği
▁bakıyor
▁kaza
▁bulabilir
▁görünen
▁ebeveyn
▁kullanıcı
gel
▁uygulan
▁kanun
▁birbirin
▁keşif
▁hesaplama
▁protein
▁İngilizce
▁baktığı
▁dönüşüm
▁parçaları
▁kullanılan
▁diz
▁uzan
▁düzelt
▁biyoloji
▁denedi
▁Harika
▁geçtiği
▁Nerede
▁yapabilirsiniz
leniyor
cılık
▁kahve
mizdeki
▁dergi
“
▁ediyordu
▁Elbette
▁anlayış
▁Doğa
▁edebil
▁Şöyle
dıklarını
▁Sh
▁tren
▁hafif
ilebilir
▁sizinle
▁önemlidir
▁kamp
▁sürdürülebilir
▁değiliz
▁noktası
▁The
▁toplan
▁değerli
▁evrenin
bilirsin
▁düşündü
diğinizde
▁zorundayız
▁gerçeklik
▁yaptığını
▁giriş
▁Asya
bilimci
acaksınız
▁sağlığı
▁duygusal
▁seçme
▁öğrendik
▁oluşturuyor
▁kullanımı
▁üstüne
▁sağlama
▁ünlü
niversitesi
▁olabileceğini
▁Ses
▁değiştirme
lduğu
ografi
▁balon
▁anlaşma
▁giderek
▁çalışıyordu
▁plastik
▁elektro
▁oyuncu
amazsınız
▁Afganistan
▁eyalet
▁bekliyor
▁komşu
▁kullandık
▁yüzyılda
▁yapay
▁aklın
▁koku
▁gri
▁saf
▁olabileceği
▁etmeyi
▁uçuş
▁aktivite
▁bacak
▁gelişmiş
▁değiştirdi
▁yolculuk
▁zincir
▁maymun
▁yiy
▁paylaşmak
▁yapıyorum
▁genom
▁sarı
▁patlama
▁Ah
▁toplay
olog
▁cesaret
▁görür
▁Bilirsin
▁ameliyat
abildiği
▁fazlasını
lenen
▁sistemleri
▁nevi
▁Dr
▁mekanizma
▁oluşturmak
▁kitle
▁hassas
yalım
▁hissettiği
▁toplumun
▁döngü
▁sabit
▁Gö
▁kahraman
▁boy
▁kurtarma
▁yaptığınız
▁itibar
▁balığı
▁toplantı
▁posta
▁Gördüğünüz
▁edip
▁önümüzde
▁hepiniz
▁erişim
▁197
▁besin
▁kültüre
▁Davi
▁servis
▁bahsetti
▁salon
ebilen
▁uluslararası
▁çağ
▁mantıklı
▁Is
▁Genel
▁sığ
▁seçti
▁radyo
▁kemik
▁koşullar
▁dışarıda
▁değişiklikler
▁bulut
ood
▁müşteri
ong
▁basın
▁Muhte
▁yönel
▁çıktığı
▁sevdiğim
▁etkilen
▁geçer
▁ayakkabı
▁topluluğu
▁tutar
▁Okul
▁araçları
uldu
▁araştır
ümüzü
▁belge
W
▁çoğunlukla
▁Eski
▁kullanır
▁adalet
▁geçiyor
▁hissi
▁bulabil
▁inanç
▁etiket
▁olayı
▁karınca
▁anlayabil
▁edilme
▁olabilecek
▁olanak
▁bilinen
▁yansıt
▁fotoğrafı
▁hatırlıyorum
▁geldiğinde
▁kısıt
▁Önce
▁değişme
▁galaksi
▁sizlere
▁diyorum
▁edebilirsiniz
▁birinci
▁epey
▁altyapı
▁bahsettiğim
▁olasılık
▁neyin
▁Londra
▁canlandır
▁dokuz
abilen
▁şeker
▁boz
▁konuşur
▁yönde
▁kullandığı
▁gurur
▁kaldırı
▁inanma
▁Birincisi
▁uçur
▁300
▁por
▁ötesinde
▁güney
▁düşündüğümüz
▁yapılması
▁kapalı
▁öykü
▁kıyı
▁kültürü
▁Hayat
lke
▁Aile
▁yürüt
▁parlak
X
▁utan
▁düşündüğüm
leşiyor
▁gelişmekte
▁girişimci
▁kut
▁lütfe
▁verecek
▁siyasi
▁sorgu
▁olabilirsiniz
▁kalın
▁aktif
▁taban
▁Güzel
▁cümle
▁ölçüde
▁karıştır
▁şifre
▁yapılabil
▁tasarımı
▁Sol
▁tırman
▁Göz
▁karşısında
▁kuzey
▁kullanım
▁ediliyor
▁fikrini
▁anlıyor
▁tespit
▁işlev
▁şiir
▁müziği
▁ırk
▁inceleme
▁İngiliz
▁gerekirse
▁ticaret
▁ölme
▁kaba
▁başardı
▁suçlu
▁tarafında
▁arkadaşı
▁kanal
▁krizi
▁cinsel
▁karşılaştı
▁Teknoloji
▁vazgeç
▁harcama
▁yaratma
▁cinsiyet
▁nükleer
▁yargı
▁girişim
▁çıkarmak
▁hatırlat
ildiği
▁zar
▁araştırmacı
▁çalıştığımız
▁gittikç
▁olmaktan
▁kullandı
▁vaka
▁bahsetmek
▁mutluluk
▁taklit
▁tuttu
▁yakalan
▁kullanıyoruz
▁kulak
leştiril
▁mimar
dığınızda
▁çalıştır
abileceğiniz
▁harf
▁isterim
▁koyar
▁istemiyoru
dışı
▁alacak
▁Top
▁Söyle
▁ihtiyacınız
▁oluşturdu
▁Kral
▁Bakın
▁Sanat
▁tıbbi
▁çiçek
▁İste
▁şekillendir
▁durma
▁iyileştir
▁kayded
▁gösterir
▁gizem
▁şanslı
▁konferans
▁bulur
▁işletme
▁diyoruz
▁kalır
▁yaşıyoruz
▁kütle
▁aptal
uşu
▁özelliği
▁savunma
▁Öğren
▁görüşme
ğümüz
▁marka
ebildiği
▁kullandığımız
▁400
▁haklı
▁katılım
▁kariyer
▁komik
▁edebiliyor
▁anlamıyla
▁sembol
▁rapor
▁düzenleme
▁sandalye
▁musun
▁edebiliriz
▁Irak
▁elinde
▁ulus
▁oluştu
▁arzu
▁ters
▁katman
▁dürüst
▁olamaz
▁sermaye
▁ağacı
▁görüyorum
▁tuvalet
▁yapmıyor
▁kıta
▁cerrah
▁Tekrar
▁olmanız
▁dünyasında
▁bekleme
▁degil
▁ekibi
▁karışık
▁kendinizi
▁bayan
▁Hava
▁hissediyor
▁sevme
▁düşünüyoruz
▁hakları
▁İsrail
▁balina
▁düşünül
▁iskele
▁yönetici
▁endişelen
▁2000
▁kirli
▁serbest
▁ordu
▁mağara
▁tanımlama
▁Geri
leştiği
▁berbat
▁çalıştığını
▁yavru
▁günümüzde
▁Bilgisayar
▁kayıp
▁trans
▁kalıyor
suzluk
▁pencere
▁şefkat
▁edebilme
▁merkezinde
▁edersiniz
▁hukuk
▁edilmesi
▁atom
▁evrensel
abildi
▁çalıştığı
▁Wal
▁çizim
Y
▁kulağ
abileceğini
▁olmaması
▁kedi
çüncü
▁dizayn
▁düşman
▁etmiyor
▁kampanya
▁rekabet
▁gay
q
layarak
▁kent
▁getirme
▁ticari
▁değişiklik
▁Biliyorsunuz
▁başlangıcı
▁lise
▁koyuyor
▁Sağ
malısınız
▁beklenti
▁katılma
▁kredi
melisiniz
▁Yaklaşı
▁gözüküyor
▁kıyasla
▁mercan
▁domuz
▁Sağlık
▁açısı
▁istiyorsanız
▁tavsiye
dunuz
ıldığında
▁zevk
▁ulusal
▁görünür
▁Gün
▁boşluk
▁sıvı
▁memnun
▁çıkış
▁gökyüzü
▁titre
▁dayalı
▁Brezilya
▁tümör
▁sivil
▁oksijen
▁gürültü
▁talep
▁tanrı
İ
▁Facebook
▁Araştırma
▁gönüllü
▁alkış
▁Kimse
emeyiz
▁ihtimalle
▁eminim
▁ibaret
▁gördüğü
▁böl
▁Deniz
▁yetki
▁AIDS
lenebilir
▁edilebilir
▁Almanya
▁Şunu
lenmesi
▁toplumsal
▁elektronik
▁bileşen
▁acil
▁bebeği
▁calis
▁müdahale
▁bütçe
▁fonksiyon
▁kıyafet
▁müze
▁hafıza
▁oluşuyor
▁Uzun
▁Kısa
▁kriz
▁dönüyor
▁çoğunluğu
▁materyal
▁mantar
▁maru
▁zehir
▁tesis
▁manzara
▁dönüştü
▁görülme
▁roman
▁istatistik
▁tartış
▁kahkaha
▁trilyon
▁imza
▁Kenya
▁döv
▁faktör
▁ilacı
▁sıtma
▁sağlayabilir
▁paket
▁yapabilecek
▁deyişle
▁nedeniyle
▁gelebilir
▁teşhis
▁alternatif
▁Yalnız
▁popüler
▁kalmış
▁zemin
▁İran
▁yumurta
▁köle
▁tüketici
▁finans
▁baktığınızda
▁üzeri
▁vakit
▁çağrı
ttığı
▁ekosistem
▁üretil
▁yürüy
▁oynama
▁mantık
▁yörünge
▁kral
▁alalım
▁Ulusa
▁yolculuğu
▁Mısır
melen
▁Konuşma
▁öncü
▁taşıyor
▁tuz
▁Genç
▁başlattı
▁profesyonel
▁görmüş
▁Mc
▁Özellikle
▁çerçeve
lendiği
▁beğen
▁Kanada
▁deniyor
▁sağlam
▁oturuyor
▁devasa
▁yaşadığımız
▁hissediyorum
▁platform
▁heykel
kâr
▁rastgele
▁finansal
▁radikal
▁yönelik
▁görebiliyor
▁klinik
▁Küresel
▁kusur
▁milyarlarca
▁mezun
▁Öncelikle
▁tabaka
▁tarif
▁Neyse
▁yapılma
▁sonucunda
▁birçoğu
▁çektiği
▁yerleş
▁güvenilir
▁rastla
▁düşünmüyor
▁yığın
▁Değil
▁uyku
▁Yakın
▁kilit
▁kurban
▁baktığımızda
▁birbirleri
▁fosil
▁yapabileceğimiz
▁diyelim
▁karikatür
▁faaliyet
▁inceledi
▁saha
▁yatak
▁psikoloji
▁Okyanus
▁çöl
▁bildiğiniz
▁vakti
▁yenilikçi
▁tatlı
▁vahşi
▁seyirci
▁Fransız
alesef
ldukça
▁öfke
▁150
▁şehri
▁metal
▁avantaj
▁teklif
rtesi
meyeceğim
▁Hint
▁rengi
▁satış
▁Kesinlikle
▁Uzay
▁olgu
▁versiyonu
▁hayran
▁civarında
▁kavra
▁yapabiliyor
▁Twitt
▁ekley
▁çatı
▁Oyun
▁kuyruk
▁başlayalı
▁Bay
▁düşündüğünüz
ebildi
▁Geliş
▁eğri
▁mülteci
▁örtü
layın
▁özgürlük
▁çeşitliliği
▁belirsiz
▁sıkıntı
▁gelince
uantum
▁Gülüş
▁Eğitim
▁kocaman
▁Paul
▁yaşındayken
▁etkileyici
emediği
▁düzgün
▁Umarı
▁bölün
▁Farklı
▁psiko
♪
▁soyut
▁Basit
▁savun
▁anlatacağım
▁cesur
▁düşüş
▁tohum
▁olmuyor
▁blog
▁buzul
▁algoritma
düşünebilirsiniz
▁Proje
▁kırık
▁esnek
▁merhamet
▁felaket
▁koloni
▁sıklıkla
▁tutuyor
▁ziyade
▁kutsal
▁sorumluluk
▁depresyon
▁Erkek
▁ağrı
▁sahte
▁Meksika
▁Müslüman
▁örgüt
▁öğle
▁tahta
▁İslam
▁idare
▁Toplum
▁içeriği
▁beslenme
▁hasar
▁oyuncak
▁aracılığıyla
▁alabil
▁nehir
▁Şehir
digim
▁görünüş
▁bahsedeceğim
▁olumlu
▁Steve
▁pozisyon
▁uyuşturucu
▁kritik
▁George
▁otomatik
▁iyimser
▁zirve
▁resme
▁Nijerya
▁kaybetme
▁nihayet
▁blok
▁hesab
▁sakin
▁topladı
▁niyet
▁çoğal
▁ısınma
▁kurumları
▁şok
▁simetri
▁Eylül
▁demokratik
▁kuram
▁çare
▁avukat
▁yarattığı
▁kabiliyet
▁evrimleş
▁trafik
▁mobil
▁pişir
▁başvur
▁bireysel
▁arayüz
▁anlatıyor
▁nesli
▁patent
▁köprü
▁Sosyal
▁slayt
▁sıradışı
▁ideal
▁ışın
▁uzat
▁eleştir
▁iğne
▁korkutucu
▁polen
▁dusun
▁Avustralya
▁tamamıyl
▁organize
▁hapishane
▁tarama
▁stres
▁öldürül
▁hamile
▁nano
▁Kaliforniya
▁oturup
▁evlen
▁kasaba
▁hayret
▁Yunan
▁şempanze
▁ağzı
▁İnanılmaz
▁Herhangi
▁dosya
▁umarım
▁borç
▁duymuş
▁yürüyüş
▁Darwin
▁yakalay
▁Merkezi
▁İsveç
Q
▁kategori
▁Tasarım
▁peşinde
▁saklan
▁bugünkü
▁görülen
▁hediye
▁yüzleş
▁sohbet
▁operasyon
▁ayrıldı
▁ilerley
▁hızlandır
▁konser
▁kabile
için
▁Hangi
▁üstesinde
▁benzeyen
▁Einstein
▁barındır
▁şaka
▁Hepiniz
▁direkt
▁İtalya
▁lisans
▁kalem
▁göçmen
▁mektup
▁harcıyor
▁Arkadaş
▁rüya
▁gövde
▁ucunda
▁sezgi
▁prensip
▁otobüs
▁meşgul
▁Şirket
▁dayanıklı
▁dinamik
▁profesör
▁üreme
▁Ekonomi
▁vizyon
▁yuvarla
▁tasarlanmış
▁kamyon
▁dükkan
▁Sistem
manyetik
▁Beyin
▁kaybı
▁Yoks
▁denklem
▁pozitif
▁çanta
▁şeffaf
▁edelim
leşir
▁yaratıklar
▁meyve
▁mucize
▁adapt
▁Günümüzde
▁alışveriş
▁gölge
▁mahkum
▁tatil
▁aydınlat
laşmış
▁bedava
▁masraf
▁Richard
▁usta
▁şurada
▁donanım
▁büyüklüğünde
▁maaş
▁Yüksek
▁favori
▁Hikaye
▁Anders
lüğünü
▁mutlak
▁cadde
zerinde
▁oluşturma
görebiliyorsunuz
▁prototip
▁Washington
▁Fransa
▁yapıştır
▁restoran
▁emekli
▁büyüyen
▁yetersiz
U
▁oynuyor
▁sigara
▁ayağı
▁kütüphane
▁kömür
▁dehşet
▁Francis
▁düğme
▁NAS
▁sensör
▁macera
▁Seyirci
▁İlginç
▁senaryo
▁Doktor
▁fırtına
▁Allah
▁toprağı
▁Tarih
▁egzersiz
▁güçlendir
▁unsur
▁enfeksiyon
▁görürüz
▁refah
▁Temel
▁MIT
▁Değiş
▁kafe
▁Angeles
▁Merhaba
▁çekiyor
▁Hayal
▁Normal
▁ölen
▁edemez
▁pratik
▁havuz
▁Harvard
▁Tahmin
▁tahri
▁Web
▁Çevre
▁Deney
▁gec
▁yeteri
▁teslim
▁Hareket
▁Büyü
▁ayağa
▁elbise
▁Cevap
▁akciğer
▁nöro
▁seçeneği
▁Charles
▁2010
▁klasik
▁yunus
▁ajan
▁olağan
▁mahkeme
▁empati
▁Internet
▁çocuğ
▁arıyor
▁Yaptığı
–
▁geleceğ
J
▁edildiği
$
û
î
&
`
é
Ş
#
=
‘
+
_
̈
xx
^
*
Ç
í
@
ó
~
á
⁄
Ö
ã
è
Â
Ğ
ñ
ZX
°
£
ú
lığ
ō
©
à
ä
́
ô
QQ
ø
¥
|
ÜZ
ī
€
ê
อร่อย
ï
­
É
Á
∇
τ
ZZ
æ
ë
Č
ää
š
ē
Ō
ì
XX
®
ć
