<pad>
<unk>
<s>
<\s>
▁,
▁.
▁the
▁
s
▁to
'
▁of
▁a
▁and
▁that
▁"
▁I
y
▁in
ed
▁s
▁is
ing
▁it
▁you
▁we
ly
▁And
▁this
▁be
▁was
▁on
▁t
▁for
▁are
▁have
▁with
n
▁—
▁can
▁So
▁?
-
▁what
▁about
▁The
▁at
m
▁as
▁not
▁re
▁an
▁all
▁my
▁do
▁there
▁one
▁like
▁It
▁people
e
▁fro
▁so
d
▁our
▁:
▁)
(
r
▁but
▁We
▁just
▁us
▁But
▁or
▁see
▁these
very
▁out
▁me
▁if
▁know
▁them
▁up
▁by
en
▁going
▁m
▁when
▁more
▁had
▁because
▁were
▁he
▁think
▁would
▁get
▁some
▁who
▁their
▁look
▁how
▁really
▁your
▁which
▁want
▁ve
es
▁time
ies
▁Thi
▁world
▁has
▁You
▁here
▁go
▁actual
▁every
▁other
▁into
▁could
▁will
▁way
▁now
▁years
▁don
▁things
▁did
▁where
▁Laughte
er
▁Now
▁make
ause
▁need
▁take
▁start
▁right
aid
t
hose
▁say
▁something
▁much
▁work
▁two
▁first
▁than
▁no
▁call
lso
▁kind
▁got
▁little
▁over
▁lot
▁That
▁come
▁thing
▁back
▁most
▁life
▁In
▁talk
▁day
▁What
▁she
▁even
▁any
▁his
▁♫
▁many
▁new
▁different
around
▁change
▁Appl
▁There
▁does
▁through
▁good
▁her
▁down
▁being
▁idea
day
▁human
▁use
▁same
▁He
▁ll
▁d
▁A
▁year
st
▁show
▁Well
▁al
▁problem
▁try
▁If
▁put
;
▁three
▁doing
▁great
▁part
▁place
▁tell
a
▁ask
▁percent
▁again
▁made
▁well
▁system
▁fact
ity
▁long
▁own
▁e
▁give
one
▁find
▁why
other
▁happen
▁important
▁after
▁Thank
▁should
▁thought
▁let
al
▁last
in
▁end
▁him
▁off
▁might
▁000
▁before
▁example
▁big
went
▁able
▁better
h
ce
self
▁never
▁high
▁together
▁course
▁help
▁few
▁still
▁million
▁love
▁point
7
▁design
▁story
▁came
▁old
▁brain
▁ago
each
▁bit
▁next
ion
▁When
▁sort
▁school
l
▁technology
▁learn
▁water
▁number
o
ther
▁play
▁How
▁question
▁cell
▁mean
▁kid
tween
▁small
out
▁found
▁10
▁too
▁become
▁believe
▁data
▁understand
▁feel
▁turn
▁wom
▁20
able
thing
▁Bec
ways
▁live
▁done
ves
est
▁real
▁car
▁ever
▁create
▁whole
▁S
▁away
▁power
▁children
▁person
▁large
▁may
ok
▁second
▁four
▁hard
▁liv
ness
w
▁light
▁working
▁information
on
body
▁building
▁famil
▁computer
▁guy
▁picture
▁experience
▁means
▁country
▁dollar
▁No
ic
▁thinking
▁reason
▁process
▁project
▁home
▁space
▁sense
▁One
!
▁My
▁future
▁money
▁She
▁health
▁case
▁mak
▁moment
▁form
▁five
▁food
▁social
▁Her
▁communit
aybe
▁month
▁group
▁open
▁These
nough
▁man
▁left
quite
▁planet
▁read
▁energ
▁interesting
▁close
▁billion
▁times
▁develop
▁bring
▁getting
▁less
▁Let
ld
▁best
▁am
le
▁body
▁grow
▁U
▁simple
us
▁lives
▁face
▁Wh
▁young
▁animal
▁hand
▁answer
▁creat
▁stuff
▁image
ever
▁probabl
▁piece
▁move
▁under
▁matter
▁half
▁prett
▁walk
▁room
▁countr
▁possibl
▁coming
▁line
▁200
ation
▁Africa
▁For
▁build
▁job
▁hour
across
▁saw
most
▁allow
▁government
such
▁seem
▁far
▁Earth
▁week
▁share
▁E
ything
▁To
▁else
▁machine
▁complete
▁global
where
▁hav
▁science
▁As
▁business
▁name
▁ways
th
▁societ
▁All
▁side
▁care
▁disease
▁makes
▁set
▁later
▁men
▁C
▁particular
▁thousand
▁inside
▁term
▁New
▁age
▁B
▁level
▁city
▁single
▁remember
▁keep
▁happens
▁order
▁mov
▁1
▁bad
▁imagine
▁hope
▁amazing
▁sure
▁girl
▁often
▁minute
▁un
▁while
eady
▁histor
▁cost
▁watch
▁nothing
▁interest
▁yet
▁figure
▁certain
▁student
▁alr
▁both
ment
▁six
▁discover
▁public
▁mind
▁beautiful
▁child
um
▁American
▁study
▁self
▁T
▁patient
▁exact
▁100
▁whe
▁book
▁game
▁saying
▁wrong
▁test
▁top
▁run
▁lead
▁control
▁stop
▁30
▁individual
▁fast
▁50
▁material
[
▁heard
▁challenge
▁hundred
▁result
]
▁buil
▁final
once
▁entire
▁video
▁head
▁difference
▁market
▁couple
▁basically
▁Some
▁true
▁deep
▁environment
▁full
▁centur
▁Internet
▁value
▁unti
▁issue
▁words
bility
▁happening
▁research
▁Unit
▁nature
▁On
▁Every
ally
is
▁works
▁phone
▁night
▁though
taking
▁language
▁quick
▁friends
came
▁plant
▁speci
▁must
▁woman
▁art
▁sound
▁house
▁decided
▁heart
▁leave
▁past
▁model
▁hear
▁huge
▁universe
▁cancer
▁since
▁speak
▁spend
▁sometime
▁follow
▁scale
’
▁ra
▁team
▁kne
▁eat
▁America
▁Do
▁questions
▁education
▁stories
▁natural
▁object
▁color
▁force
msel
▁music
0
ers
ry
▁per
▁air
▁ocean
▁free
▁black
▁oursel
▁India
▁Or
▁land
company
▁network
▁culture
▁solution
▁bigge
▁States
▁Oka
rhaps
ty
▁product
▁program
▁economic
▁third
▁pay
▁fly
▁bas
▁tree
▁15
▁state
stead
▁leas
▁opportunit
▁realit
▁along
▁word
▁mother
▁structure
▁experiment
▁news
▁difficult
▁size
▁front
▁engineer
gan
▁robot
▁b
▁population
▁God
▁2
▁choice
▁Oh
▁field
▁middle
▁step
▁outside
▁recent
▁TED
▁3
▁pick
▁exist
▁amount
▁war
▁risk
▁focus
ten
▁somebody
▁OK
▁learning
▁rule
▁won
less
▁scientist
▁death
c
▁drive
▁gav
▁relationship
early
▁pe
▁turns
▁device
▁econom
hind
▁pattern
▁poor
▁explain
▁seven
▁citi
▁compani
▁common
not
▁reach
▁realiz
▁beginning
▁fish
▁buy
▁surface
▁feeling
▁M
▁D
▁support
▁local
▁At
▁effect
▁happ
▁listen
▁view
▁parents
▁generation
cy
▁wait
▁behavior
▁physical
▁40
▁safe
▁major
▁tri
▁act
▁arm
▁China
▁cause
▁eyes
▁dur
▁father
▁area
▁powerful
▁kill
▁fee
▁media
▁low
▁wonderful
▁York
▁deal
▁easy
▁short
▁hands
▁friend
▁political
▁de
▁movement
▁protect
▁decision
▁organization
▁near
▁stay
▁save
▁teacher
▁normal
▁rate
▁oil
▁Our
ory
▁blue
▁Right
▁paper
▁Yea
▁add
▁given
▁send
▁born
▁map
▁begin
▁DNA
felt
▁slow
▁movie
▁yourself
▁simpl
▁known
▁eight
▁film
itting
▁growth
▁fight
an
ither
▁lost
▁personal
▁People
▁w
▁obvious
5
▁present
▁service
▁center
▁Yes
▁absolute
▁travel
or
▁ground
▁total
▁white
▁gone
▁red
ive
▁rest
▁di
▁source
▁action
▁wall
▁Just
▁treat
▁shape
▁access
Z
▁hold
ese
▁perfect
i
▁An
▁doctor
▁toward
▁shows
▁stage
▁fall
▁resource
ish
▁extreme
▁increase
▁fear
▁complex
▁K
▁message
pent
▁o
▁camera
▁areas
ous
▁climate
credible
▁average
as
rought
alone
▁Not
▁expect
▁industr
▁cool
▁cut
▁green
▁forward
▁impact
▁G
giving
▁condition
▁blood
▁approach
▁record
▁sea
▁clear
2
▁produce
▁factor
▁technologi
▁Can
aught
▁break
▁met
▁25
▁potential
▁die
▁Music
man
▁innovation
▁60
▁essential
▁understanding
▁digital
▁write
▁realize
▁pass
▁conversation
▁tools
▁literal
▁nice
▁photograph
▁bottom
ware
▁pull
▁situation
▁attention
▁dark
▁morning
▁consider
▁African
▁key
▁train
▁ice
▁knowledge
▁chang
▁12
▁push
▁fundamental
▁miles
▁specific
▁tin
▁soft
ism
▁books
▁CA
▁telling
▁stand
▁forest
▁touch
▁electric
▁chance
▁sign
▁solve
▁Europe
▁sudden
▁page
▁meet
▁11
▁artist
▁worth
▁voice
▁audience
▁code
▁raise
▁strong
▁wonder
▁late
▁development
▁With
▁lab
▁serious
rote
▁measure
▁non
k
▁studie
▁fun
▁19
▁Mars
▁special
▁cover
▁soon
ond
▁sun
▁dream
▁thank
▁law
▁putt
▁current
▁site
▁truth
▁hospital
▁Google
▁direct
▁sex
special
▁availab
▁goal
▁class
▁hit
▁memor
▁qualit
▁guess
▁rich
▁By
▁smart
ist
▁easi
▁modern
▁baby
▁spread
▁continue
▁attack
▁box
▁plan
▁carbon
▁track
▁among
▁runn
▁World
▁J
▁eye
▁journey
▁type
▁main
▁leg
▁trust
▁son
▁speed
b
land
▁basic
▁involv
▁similar
▁dead
▁neuron
▁sit
8
▁role
▁general
▁conscious
▁represent
▁affect
▁Where
▁Look
▁effective
▁several
▁democrac
▁medical
▁institution
▁region
▁connect
▁nine
▁village
▁fire
D
▁incredibly
▁yes
▁usual
▁song
olar
▁connection
▁sounds
▁sell
ton
▁haven
▁period
▁South
▁vision
▁block
▁benefit
▁event
▁evidence
▁First
▁extraordinar
▁response
▁equal
▁P
▁virus
▁clean
u
▁flow
▁search
▁perspective
▁80
▁wish
Q
▁violen
▁designer
▁store
▁function
▁character
▁5
▁co
▁scientific
▁hole
online
▁wear
▁degree
▁require
ary
more
▁success
▁transform
▁craz
▁Maybe
▁English
it
▁genetic
▁subject
▁teach
▁collect
▁After
▁securit
▁connected
▁visual
▁predict
▁molecule
▁street
▁signal
▁invent
▁list
▁18
▁evolution
▁count
▁favorite
▁waste
▁price
4
▁Who
▁successful
▁choose
▁concept
▁F
▁Most
pover
▁secret
▁lose
▁Of
▁N
▁office
▁includ
▁aren
▁aware
▁join
▁foot
▁onto
ily
▁worker
▁fair
▁detail
▁suggest
▁further
▁leaders
▁park
▁mass
▁carry
▁screen
ful
▁road
▁exciting
▁skin
▁drugs
▁fund
▁produc
▁provide
▁national
▁zero
▁medicine
▁tend
▁writing
9
▁drug
▁traditional
▁adult
▁nation
▁offer
ch
▁remain
▁Al
▁throw
▁necessar
▁4
▁finding
el
▁colleague
▁gre
▁Don
▁letter
▁genes
▁draw
▁position
▁stick
▁inspire
kay
▁creative
▁Video
▁led
▁500
▁finish
▁treatment
▁immediate
▁notice
▁accept
ance
▁table
▁bacteria
▁conflict
▁agree
▁progress
standing
▁Even
▁tru
▁shift
▁depend
how
▁wind
1
▁surprise
▁models
▁chemical
▁L
▁daughter
▁lower
▁meant
▁War
▁H
▁card
▁fine
▁college
▁complicated
▁fuel
▁direction
▁star
▁religion
▁mine
▁worse
▁West
▁element
▁context
older
wife
▁meter
▁address
re
▁door
▁appear
▁sleep
age
▁North
▁Are
▁version
▁revolution
▁link
▁German
▁Man
▁90
▁sent
▁visit
▁bed
▁possibilit
▁fit
▁return
▁positive
▁Japan
▁eventual
X
▁fill
▁increasing
▁manage
▁tool
▁check
▁communication
▁architecture
▁practice
▁cold
▁painting
▁supposed
▁plastic
▁expert
▁launch
▁recognize
▁wor
▁male
ta
▁meeting
▁pressure
▁f
▁account
▁brains
▁task
▁bone
▁organism
▁range
▁deliver
▁interact
▁famous
▁earlie
▁O
▁activity
▁shot
▁above
▁square
stan
▁rise
▁mental
▁invest
▁intelligence
▁biolog
▁income
▁female
▁gas
▁saving
▁publish
▁unique
refore
▁stars
▁relative
▁excited
lly
▁impossibl
▁nobod
▁original
▁bunch
▁W
▁principle
▁ultimate
▁press
▁afford
▁R
▁cris
▁prevent
▁compassion
▁boy
▁please
▁indeed
▁text
▁fail
▁propert
head
/
▁galax
▁pain
▁standard
▁creature
▁private
▁cheap
▁virtual
▁massive
▁policy
▁content
▁enter
▁happiness
▁weight
upon
▁lesson
▁critical
▁constant
▁alive
▁apply
though
▁mention
ian
▁becom
▁16
▁enormous
▁decades
▁tissue
▁dangerous
▁report
▁post
▁series
▁terribl
ood
▁warm
▁demand
▁environmental
▁effort
▁expensive
▁purpose
▁freedom
▁target
▁moral
▁caus
3
▁HIV
▁neighborhood
▁beaut
▁writ
co
magine
▁win
▁international
▁strange
▁super
▁bodie
▁concern
g
▁enjoy
▁driv
ar
▁jump
kept
▁wild
▁brother
▁farmer
▁militar
▁training
▁feed
▁reading
ur
▁user
▁floor
▁respond
▁wave
▁instance
▁vehicle
▁21
▁fantastic
▁clearly
▁yea
▁Chin
▁skills
▁heat
ard
▁stopp
▁Go
ia
▁finger
▁genome
▁meaning
▁perform
6
▁trial
▁humanit
▁board
▁ball
▁police
▁protein
▁communicate
▁performance
▁hair
▁layer
▁strateg
▁capital
▁define
▁14
▁hot
▁Be
▁mobile
▁organ
▁drop
▁wide
▁199
▁citizens
ization
▁emotion
▁production
▁Which
▁unit
▁transport
▁consequence
▁familiar
▁blind
Two
▁surviv
▁Dr
▁paint
▁24
▁remarkabl
f
▁mom
▁significant
ility
ach
▁East
▁landscape
▁politic
▁roll
▁notic
▁brand
ership
▁slight
▁TV
▁technique
▁separate
▁remind
▁Like
▁sustainabl
▁luck
▁physic
▁decide
▁atmosphere
▁minds
▁neighbor
▁particle
▁career
▁drink
▁extra
▁investment
▁race
▁stem
▁decade
▁willing
▁summer
▁typical
▁pound
▁Universit
▁Many
▁various
▁collective
▁vaccine
▁types
▁interview
▁9
▁double
ling
nstead
▁fix
▁path
▁explore
▁passion
▁temperature
▁sharing
▁damage
▁insect
▁respect
z
ine
▁expand
▁satellite
▁Your
▁London
▁destroy
▁email
▁compar
▁distance
ate
▁sensor
▁Think
▁Afghani
▁biological
▁City
▁apart
▁sister
▁website
▁13
▁De
▁survive
▁anyway
▁useful
▁nuclea
▁circle
▁prison
▁farm
▁laws
S
▁radio
▁influence
▁financial
▁underst
▁300
▁interaction
▁efficient
▁cultural
▁none
▁net
▁catch
▁describe
▁Take
▁emotional
▁sequence
▁peace
▁forget
▁infrastructure
▁noise
▁dot
▁edge
▁trouble
▁capacity
▁birth
ne
▁rain
▁Chris
▁streets
▁sky
▁mission
tuck
▁smell
♪
▁scene
▁except
▁belief
▁teaching
▁cook
▁dance
▁c
▁web
▁states
▁improve
▁forth
▁universit
▁wealth
▁random
▁solv
▁honest
▁serve
op
ter
▁cycle
▁urban
▁convince
▁charge
▁dog
▁failure
▁Western
▁seat
▁San
p
▁promise
▁Second
▁sat
▁Indian
▁imagination
▁trade
▁contact
▁active
▁bar
▁giant
▁speech
▁sub
▁option
▁paid
▁surger
▁disappear
▁Thanks
▁gold
▁ant
▁profound
side
▁careful
▁cross
▁consumer
ve
▁John
il
▁breath
▁rare
▁instrument
▁document
▁magic
▁ran
▁ancient
et
▁election
▁Great
▁sentence
▁motion
▁below
▁From
▁bear
▁Wom
▁earth
▁rock
▁professional
▁television
▁outcome
▁player
▁corner
▁reduce
▁twi
▁legal
▁worry
water
▁math
▁identit
▁vast
▁photo
▁pre
▁straight
ol
▁surprising
▁loss
▁manag
wise
▁California
▁spot
▁argument
▁tough
▁print
la
▁beat
▁Pe
▁climb
▁cap
▁gain
▁muscle
▁fold
▁evolved
▁supply
▁emerg
▁campaign
▁oh
▁hearing
▁method
tic
ant
▁airplane
▁achieve
▁missing
▁His
▁cave
▁babi
▁flight
▁slide
▁Muslim
spite
▁sick
▁plane
▁lack
▁border
▁afr
▁bough
▁measur
▁feature
▁threat
▁European
▁related
▁glass
held
▁match
▁desire
▁express
▁engag
▁component
▁sample
▁popular
K
▁National
▁definition
▁mix
▁tumor
▁victim
▁moon
▁complexit
▁station
▁kilometer
▁basi
▁spoke
▁drawing
▁rough
▁organiz
▁balance
▁birds
▁Ver
▁Hey
▁coral
▁town
▁provid
▁Brit
▁commercial
▁plann
▁mistake
▁justice
▁forever
▁creativ
▁Re
▁Did
▁electronic
▁aspect
▁cat
▁gene
▁radical
▁weapon
▁trip
▁continent
▁tremendous
▁limit
▁Actua
▁contain
▁receiv
▁flower
▁boat
▁unfortunate
▁claim
▁ship
▁sand
ver
son
▁fashion
▁pair
▁dimension
▁core
▁background
▁oxygen
▁responsibility
▁mouth
▁David
▁bank
▁More
▁central
▁monkey
▁Over
▁notion
▁Audience
▁researcher
▁application
▁avoid
▁6
eath
▁bag
iz
▁platform
▁extend
▁seed
▁rapid
▁quote
▁estimate
▁accident
▁bridge
▁adopt
▁soldier
▁Mo
▁reaction
▁batter
▁mechanism
by
▁gap
▁malaria
▁window
ural
▁base
▁funny
▁prove
▁members
▁party
▁hopeful
▁Any
▁civilization
▁Have
▁correct
▁controll
up
▁dad
▁reward
▁remote
▁profit
▁corrupt
▁odd
▁Facebook
▁exercise
▁See
▁describ
te
▁coffee
▁industrial
▁switch
▁Arab
▁alternative
▁multi
▁broken
▁Asia
▁chair
▁island
▁continu
▁dramatic
▁advantage
▁crime
▁Again
▁refugee
▁ecosystem
▁reflect
▁holding
▁technical
▁burn
▁detect
▁grand
▁diversit
▁magazine
▁graph
▁flu
▁sector
▁husband
$
▁400
▁transformation
▁p
▁soil
▁Un
▁recover
▁sold
▁8
am
▁operation
▁manufactur
▁gender
▁include
▁root
▁etc
▁opposite
▁article
▁resistan
▁dynamic
▁religious
▁engage
▁childhood
▁conference
▁Sometime
▁attempt
▁ray
x
▁Good
▁curve
▁master
▁reveal
▁artificial
ip
▁stress
ical
▁previous
▁traffic
▁boys
▁succeed
▁encourage
▁bread
▁desert
▁French
▁architect
▁yellow
▁phenomeno
▁invit
▁president
▁river
▁mountain
▁struggle
▁regular
▁identify
▁198
▁Thre
▁due
▁driver
▁hero
▁creation
ble
▁labor
ent
▁Would
▁adapt
▁rid
▁hurt
▁Iraq
▁competition
▁responsibl
ig
▁algorithm
▁crowd
▁location
▁click
▁mess
ated
orrow
▁dimensional
▁vote
ium
▁tradition
▁newspaper
ac
▁circuit
▁spirit
▁photos
▁invisibl
▁organic
▁CO
▁AIDS
▁motor
▁bus
▁miss
▁enable
▁Big
▁zone
▁negative
▁bottle
▁Sun
▁universal
▁perception
hi
▁hate
aging
▁suffer
▁museum
▁dinosaur
▁trick
▁150
▁engine
▁fascinating
▁chose
▁limited
▁Web
▁strength
▁proud
▁knowing
▁Twitter
▁collapse
▁multiple
▁epidemic
▁Life
▁mathematic
▁bird
▁bright
▁blow
▁breast
▁weird
▁spin
▁politician
▁dreams
▁trillion
▁sad
▁faith
▁Brazil
▁display
▁Mr
▁suffering
▁operat
▁dozen
▁meat
▁interface
▁shark
▁civil
▁micro
▁generate
ship
▁insight
orry
▁coast
▁advanc
▁ex
▁sexual
▁lay
▁Y
▁copy
▁cry
▁mothers
▁independent
▁spaces
▁fossil
▁classroom
▁gift
time
▁fell
▁whom
▁metal
▁frame
▁expression
to
▁emission
▁calling
▁row
▁fresh
▁taste
▁grandmother
▁cloud
▁balloon
▁arriv
▁chip
night
▁equation
▁existence
▁Hi
▁stoo
▁occurr
▁proper
▁quarter
▁depression
▁marrie
wood
▁analys
▁poet
▁patent
▁bubble
▁argue
▁quant
▁release
▁honor
▁equivalent
▁Art
ra
▁variet
▁homes
▁era
▁names
▁narrative
▁pig
▁round
▁worri
▁budget
care
▁Ri
ford
▁suit
▁shock
▁curious
▁grown
▁broad
▁truck
▁occur
▁flat
▁compare
▁mouse
▁ancestor
▁La
at
light
▁foreign
▁bits
▁parent
▁cure
▁error
▁marriage
▁lung
▁customer
▁evolutionar
▁score
▁hop
▁foundation
▁GDP
▁garden
▁elephant
▁precise
▁date
ti
▁employee
▁restaurant
▁disorder
▁la
▁applie
▁hidden
▁scar
daily
▁leader
▁Come
▁Does
▁opening
▁dinner
▁Could
▁stream
▁debate
▁opinion
▁vers
▁float
▁litera
▁agricultur
▁generat
▁colon
▁anti
wide
▁invention
▁0
▁orbit
▁lock
ph
▁quiet
▁symbol
▁nervous
▁skill
▁unlike
▁Paul
lo
▁robotic
▁clip
men
▁lifetime
▁scan
▁leaving
▁bio
▁cartoon
▁coal
▁channel
▁mortal
▁chain
▁explor
▁brief
▁V
▁tens
▁topic
▁chemistr
▁metaphor
▁shop
▁wire
▁Their
▁sum
id
▁shapes
▁wake
▁weather
▁fourth
▁dry
▁lift
▁volume
ut
▁Last
▁discuss
▁puzzle
▁infect
▁stone
▁Bill
▁brilliant
▁gun
▁g
▁Kenya
▁agenc
▁member
▁note
▁mirror
▁cognitive
▁survey
▁capture
▁introduc
▁surround
▁hell
▁band
▁wisdom
ci
▁da
▁shoes
▁George
▁string
▁govern
▁diet
▁intelligent
▁tech
▁gather
▁load
▁Ab
ie
▁construct
▁statistic
▁Other
▁collection
▁sugar
▁discussion
▁volunteer
▁recogniz
ied
▁doubt
▁fellow
▁electrical
ting
▁grade
▁combination
▁Ne
▁construction
▁fiber
ize
ang
▁empower
mp
▁pack
▁credit
▁roof
▁judge
▁medium
▁pro
▁practical
▁peer
▁broke
▁writer
▁voices
▁fac
▁terrorist
▁cutting
▁Since
▁atom
▁myster
▁speaker
▁button
v
ative
▁comment
▁cent
▁battle
▁wood
▁tail
▁Am
▁King
▁killing
▁dealing
▁35
▁2000
▁chicken
▁belong
▁Times
tra
▁pocket
▁mammal
▁mathematical
▁disaster
▁camp
▁initial
▁Me
▁protection
▁intellectual
▁inner
▁associat
sis
▁Washing
▁liquid
▁transition
▁heavy
▁soul
na
line
▁importan
▁partner
▁authorit
▁input
▁printing
▁convert
▁Einstein
▁Mexic
the
▁addition
▁grid
▁ordinar
▁operate
▁setting
▁folks
▁clinical
▁programm
▁mile
▁Street
▁exploration
▁silence
▁gay
▁Iran
▁Australia
▁bill
ber
▁determine
ri
▁Dan
▁lies
▁historical
▁maintain
iddle
▁threaten
▁lunch
ley
▁official
▁variation
▁bees
▁feedback
▁capabilit
▁involve
▁undern
▁th
▁dress
▁laugh
▁therap
▁mid
fish
▁pump
▁app
ir
▁22
▁journalist
▁analog
▁scared
▁accurate
ial
▁encounter
▁cup
▁remov
▁director
▁Yet
▁silk
▁Richard
▁hum
▁illness
▁mosquito
▁toilet
▁arts
▁telescope
▁joy
▁section
▁equip
▁pleasure
▁bomb
▁releas
▁stupid
▁plus
▁US
▁categor
▁plate
▁achiev
▁dolphin
▁wheel
▁grain
▁conclusion
▁explanation
▁valuable
▁France
▁spectrum
▁stock
▁los
go
▁Ten
▁peak
▁seek
▁con
▁inter
▁distribution
▁heads
▁improv
▁joke
▁yester
▁loud
▁Th
▁awesome
erson
▁Harv
▁steel
▁extract
▁statement
▁economist
▁advance
PS
▁escape
▁enem
▁violent
▁99
▁hydrogen
▁prize
▁surgeon
▁tear
▁rational
▁visibl
▁definite
▁resolution
▁librar
▁sweet
▁replace
▁assumption
▁smile
▁evolve
▁implication
▁prime
▁nurse
▁keeps
▁rat
▁empty
▁teeth
▁Charles
▁awful
▁bias
▁crop
▁grass
▁videos
▁Israel
▁Francisc
▁pure
▁recording
▁fat
▁privilege
▁primar
▁forgot
table
▁kick
utism
▁knee
▁dis
▁facilit
▁south
▁consumption
▁attract
▁Five
▁introduce
▁style
io
rtex
▁MIT
▁NASA
ro
▁Tom
▁II
▁conduct
▁stranger
▁professor
▁partners
▁graduate
▁assembl
pa
Tube
▁title
▁relate
▁actor
▁democratic
ors
▁north
▁lady
tion
▁kitchen
▁Institute
▁physicist
▁crack
▁lie
▁tape
▁reference
▁repair
▁23
▁hide
▁Four
▁gentlem
▁host
▁filter
▁comfortabl
▁terroris
▁drone
▁label
▁talent
▁clinic
▁pop
▁bike
▁gravit
▁sight
▁technological
om
▁laborator
be
▁length
ture
▁distribut
▁deserve
▁hat
▁season
▁comput
▁sides
▁swimm
▁apartment
ier
▁Island
▁symmetr
▁winter
600
ise
▁bin
▁Congress
▁icon
▁lawyer
▁Canad
▁studio
▁reef
▁bond
▁Center
▁crash
▁harvest
▁activit
▁circumstance
▁concrete
▁grant
▁theater
▁according
▁pilot
▁harm
▁Pleas
▁Ph
▁molecular
▁client
▁reduc
▁Bank
▁passionate
▁shoulder
▁zoom
▁com
▁swim
▁expectation
▁logic
▁President
▁inform
▁infection
▁height
▁exchange
▁entertain
▁prediction
▁regard
▁status
bo
▁criminal
▁vulnerabl
▁infinite
▁grandfather
▁alien
▁45
▁mountains
▁roads
▁dense
▁Final
▁attach
▁abstract
▁Los
▁combin
▁suck
▁assume
▁St
▁receive
vi
▁tall
▁earn
▁fruit
▁firm
▁observation
ham
▁danger
▁iPhone
▁nest
▁radiation
C
▁establish
▁mo
▁graphic
ification
▁Will
▁origin
▁vot
▁activist
▁2010
▁Michael
é
▁vessel
▁false
▁automatic
▁droppe
▁spring
▁immun
hood
▁Real
▁Wow
▁ideal
lew
▁sheet
▁severe
▁jail
▁Le
▁participate
▁School
▁Ca
▁biologist
▁iron
▁Pacific
▁Sea
▁symptom
▁dirt
▁loop
▁Park
▁challeng
▁danc
ong
▁rocket
▁shirt
ka
▁Ben
▁select
▁England
▁Brita
▁secure
▁relevant
▁innovative
▁productive
▁snow
▁king
W
▁thin
▁illusion
▁clock
▁Day
▁fortunate
▁confiden
▁reverse
▁unusual
▁conservation
▁boundar
▁empath
▁Jam
▁obes
▁hunt
▁rhythm
dom
▁mechanical
▁Con
ible
▁Thom
▁inevitabl
▁heal
▁ring
▁myth
▁church
▁paradigm
surance
▁former
▁hotel
▁breathe
▁react
▁illegal
N
▁unknown
M
▁Talk
▁chart
▁efficienc
▁busy
▁implement
▁pool
▁habitat
▁magnetic
▁Nigeria
▁advice
▁remove
H
▁protest
▁novel
lf
▁fan
▁teenager
▁staff
▁drill
▁Green
▁Whil
▁agent
▁Anyway
▁clever
▁admit
li
▁Bang
▁evening
▁appropriate
▁aim
▁witness
bel
▁reform
▁pour
▁shoot
▁prototype
▁angle
▁wine
▁handle
▁sensitive
heimer
▁ingredient
▁nose
▁poem
▁polic
▁participat
nt
▁Give
▁improvement
▁pollution
ero
▁ride
00
em
▁personalit
▁panel
▁raw
▁laptop
▁embrace
▁clothes
▁collaboration
▁Also
ha
▁contract
▁disabilit
▁password
▁Obama
▁upper
▁boxe
led
ng
▁1990
▁Health
▁trend
▁court
B
ating
▁ca
▁sophisticate
▁sphere
llo
▁educat
▁beach
▁pregnan
▁storm
▁phrase
▁Russia
▁finance
▁dogs
▁rush
▁Amazon
ah
▁file
▁penguin
▁September
▁instant
way
▁Science
▁injur
▁196
▁solid
▁monitor
▁frequenc
▁apparent
▁abuse
so
▁integrat
▁repeat
▁tip
▁favor
▁vertical
▁sculpture
▁boring
▁humor
▁1960
▁priva
▁continuous
▁absorb
▁Angel
▁permanent
ure
▁sustainab
▁greenhouse
lz
▁fascinat
▁mere
▁nerve
▁instruction
▁Ta
▁emergenc
▁Space
rising
▁feeding
▁wash
▁enabl
▁destructi
▁lecture
▁pile
▁Swede
▁unexpected
R
▁rescue
▁stronger
▁cheat
▁poster
▁grab
▁predator
▁Number
▁frank
▁spider
▁nor
▁fears
▁meaningful
▁Darwin
▁animation
▁proof
▁percentage
▁inspiration
▁captur
▁internal
▁microscope
▁wireless
▁State
▁Valle
▁tag
▁elder
▁flie
board
▁rocks
▁depth
▁musical
der
▁Sam
▁ritual
▁bet
▁chimpanzee
▁appreciate
▁1980
▁exhibition
▁thumb
▁weigh
▁framework
ni
ma
▁wars
▁Adam
▁cord
▁portrait
▁commitment
▁burning
▁confront
▁hang
▁emerge
▁contrast
▁department
▁attitude
▁struggl
▁tax
▁ear
E
▁trace
ought
▁sustain
▁fiction
▁inequalit
▁horribl
▁committ
▁barrier
▁Antarctic
ft
▁download
▁consum
▁license
▁officer
▁curiosit
▁exploit
11
▁arrest
▁musician
▁recycl
efore
▁advertis
▁photographer
▁Steve
▁objective
▁polle
▁expos
▁decline
▁implant
▁employ
▁polio
▁backward
▁exten
▁counter
▁asset
▁Star
▁pen
▁presentation
▁vi
▁El
▁habit
▁evil
▁CEO
▁script
▁eggs
▁thanks
▁flood
▁Mi
▁wondered
▁physician
nfortunate
▁meal
▁Apple
▁interactive
▁Centr
▁exponential
▁whales
▁tap
▁bicycle
50
▁tour
▁globe
▁install
▁laser
▁divide
▁oppos
▁prepared
▁theme
▁ignore
▁Project
art
ap
▁invite
▁academic
▁gray
ill
▁attend
▁mathematician
▁cluster
truck
▁replac
▁footprint
▁Bost
▁thick
▁Arm
▁exception
▁characteristic
▁simulation
▁defense
▁carri
▁combine
ul
▁May
ak
▁split
▁angr
▁item
▁route
▁domestic
▁minister
▁painful
▁crucial
▁Bot
▁dedicat
▁afternoon
▁silent
▁stretch
▁observ
▁Ah
▁Voice
ge
▁January
▁pill
▁Stan
oxide
ile
▁lion
▁entrepreneurs
▁densit
▁Paris
&
▁selection
mber
▁Pro
▁behave
▁educational
▁contribute
▁shadow
rew
▁Egypt
▁cloth
▁sports
▁cable
▁classic
▁adventure
▁ugl
ana
▁behavioral
▁regime
▁hack
▁skull
▁Islam
▁mode
▁boil
▁orange
▁phase
▁Ma
▁obsess
ja
▁divid
▁Girl
▁trans
▁authentic
▁fake
▁Rememb
▁Higgs
▁intervention
▁Di
ite
▁sail
▁golf
▁65
▁liberal
▁limb
▁electron
▁Mary
▁skeleton
▁froze
ground
ories
▁elite
fa
▁magnet
▁overall
▁DH
▁tank
▁parallel
▁Chicago
▁En
▁database
▁Del
▁telephone
elve
▁Pakistan
▁bend
▁raising
▁lad
ot
un
▁lifestyle
ab
▁review
▁Dur
▁seal
tlantic
▁Sahara
▁consume
▁worm
▁194
▁headline
▁Greek
what
▁Christmas
▁barel
▁accessibl
ped
▁ears
▁pretend
▁desperate
▁deploy
▁productivit
▁shame
nna
▁printer
▁wing
ua
▁chest
▁axis
▁prisoner
▁pitch
▁Black
▁killer
urveillance
▁stepp
▁needle
▁shell
▁presence
▁knock
▁shut
▁explosion
▁whale
▁li
▁revenue
▁rap
▁intention
work
▁comfort
▁column
que
▁recognition
▁Museum
▁entrepreneur
▁corporate
▁Pole
tor
▁drove
▁regret
12
O
▁fabric
▁confuse
▁divers
▁representation
▁psychological
▁elect
▁lens
▁acid
▁ultra
▁Get
ious
▁measurement
▁fluid
▁conventional
▁reported
▁hungr
▁suicide
▁clouds
▁Ra
▁motivation
▁illustrate
▁appeal
▁horse
▁highway
▁transplant
▁embedded
▁Blue
▁organize
▁High
▁Russian
▁airport
▁House
▁obstacle
▁affair
▁club
▁session
▁plot
▁Scott
▁subtle
▁microbe
▁Make
▁Lu
▁Human
▁diagram
▁Turk
▁philosoph
▁mice
▁distant
ches
▁fixed
ju
▁argu
ably
▁Boy
▁scenario
▁accomplish
▁hall
▁hearts
ack
rice
▁celebrate
▁32
▁pink
▁Part
▁flash
▁Korea
▁Jun
▁PM
▁request
▁Global
▁passenger
▁youth
▁meme
▁consistent
town
▁tuna
▁International
▁Martin
▁trigger
▁chao
▁shall
▁hook
▁earthquake
▁hunger
▁Wall
▁optimistic
▁steal
▁experienc
▁corporation
▁manager
▁wound
▁blog
▁medication
▁smok
▁identical
▁transfer
▁vital
▁suspect
▁Jim
▁chromosome
▁excite
▁capitalis
▁BF
▁weak
▁loan
▁procedure
▁discipline
▁candidate
▁antibiotic
▁dust
▁shipp
▁gut
▁debt
▁overcome
▁afterward
▁diagnos
▁cute
▁disrupt
▁milk
▁arrive
▁household
▁geo
▁Peter
▁ought
▁desk
▁stack
▁fifth
▁apple
▁narrow
▁Frank
▁glacier
▁liver
▁Latin
▁lo
▁prefer
▁1950
con
▁Nothing
tro
ow
▁extinction
▁contribut
▁melt
▁choos
▁boss
▁plent
▁announc
▁prosper
▁compound
gen
▁miracle
ell
▁intense
▁marine
▁ensure
right
▁Mu
▁incentives
▁brown
▁rainforest
▁pyramid
▁BG
▁NGO
▁scratch
ice
▁Holly
gun
ner
▁falls
▁motivat
implicit
▁stands
▁anger
▁flip
▁imag
▁terrifi
▁judgment
▁vegetable
▁toxic
▁domain
▁genius
▁beside
▁birthday
▁output
▁windows
▁psycholog
▁mask
▁rating
▁Christian
▁refer
▁wise
izing
ari
▁preserv
▁brave
▁ho
▁guide
▁autonomous
▁uncomfortabl
▁Next
▁Olympic
▁description
▁neuro
▁happie
▁permission
▁demographic
▁corn
▁tight
▁nutrient
▁Wikipedia
▁Foundation
▁800
▁ridiculous
▁achievement
▁pr
▁mechanic
▁functional
▁intuition
▁conservative
▁heaven
▁trie
▁imagin
▁guilt
▁leap
▁priorit
▁recruit
▁Co
▁translate
ether
▁magical
▁Law
▁cooperati
▁wage
▁promote
▁River
▁probabilit
▁piano
▁transparen
▁asteroid
if
▁mutation
▁expedition
▁coat
ud
pe
▁dialogue
▁Red
▁Was
▁Wi
while
tial
▁demonstration
▁confident
▁Ju
oc
▁cast
ag
▁concert
▁tired
ina
▁scann
▁Ital
▁abandon
▁reject
▁ceiling
▁mad
▁additional
life
▁capita
▁Ocean
▁legac
▁aircraft
▁tube
asically
▁comet
▁author
▁Free
▁courage
▁Uganda
▁strand
P
▁citizen
▁flag
▁smoke
▁hanging
ology
▁bother
▁essence
▁fabulous
▁Ka
gra
▁utter
▁football
ca
▁wir
▁faci
▁traged
▁Robert
▁mushroom
▁fisher
▁Revolution
▁underly
▁suppose
▁Cam
▁Haiti
▁Nature
▁trait
▁extinct
▁biodivers
▁Israeli
F
▁northern
▁auto
▁nei
▁Air
▁33
▁lake
▁fragil
▁pray
▁cow
▁yield
▁tunnel
▁defend
▁mate
▁Ro
po
▁tea
kind
▁adjust
▁cyber
▁dive
▁neural
▁shake
▁spiritual
▁repeated
ney
▁smartphone
▁agenda
▁relations
▁engagement
SA
▁hip
▁ticket
▁120
▁dig
▁inventor
▁charit
▁Po
▁sacrifice
▁comparison
▁linear
▁Act
▁Octo
▁x
▁shooting
▁mold
▁dignit
▁laid
▁doors
▁cash
▁southern
▁addict
▁blame
▁bug
▁isolat
▁White
▁pioneer
ug
▁pulse
▁pointed
▁ski
▁mark
▁Yorker
▁inspiring
▁ill
▁renewable
▁decrease
▁slice
▁Prize
val
ga
▁bind
▁bat
▁Tell
▁Texa
▁intuitive
▁guns
▁mail
▁synthetic
▁rent
ba
▁breed
▁artistic
▁analyz
▁indicate
ograph
▁smooth
rctic
▁command
▁cousin
▁Ar
▁primari
▁array
▁sales
▁conclude
▁Manhattan
▁salt
▁calculate
L
▁Ox
▁partnership
▁Mother
▁clue
A
▁marker
▁Congo
▁fed
▁alter
▁simultaneous
▁dependent
hildren
▁Technolog
▁opera
▁ending
▁Narrat
▁bla
BI
▁mindset
▁sacred
▁sharp
▁Rome
▁stunt
bola
▁regulation
▁demonstrate
▁helicopter
▁95
▁bulb
▁ethical
istic
▁surrounding
▁graduat
▁flexibl
▁appreciat
▁Mom
ai
▁identifi
▁profile
▁spark
▁immense
ke
▁interpret
▁norm
ator
▁stroke
▁breakthrough
▁edit
▁twin
house
ndeed
▁perceive
G
tude
▁bump
▁boom
▁orchestra
▁psychologist
▁slaver
▁complain
▁chocolate
▁initiative
▁transmission
▁neat
▁Nation
▁views
▁Age
▁fraction
▁naked
▁fragment
▁unbelievabl
▁slides
gi
children
▁burst
▁jelly
▁garbage
▁hous
bridge
▁slave
▁banks
▁polar
▁Bob
▁ecological
▁recipe
▁div
▁Up
▁leverage
▁disabl
▁strike
▁compete
▁lane
▁anxiet
per
▁bang
▁calculation
▁rebuild
▁assum
▁mis
▁uncle
▁classe
▁navigate
▁quit
▁walks
I
▁guarantee
▁constraint
▁figur
▁signature
▁shout
▁aesthetic
▁Ba
▁makers
▁rivers
▁Turn
▁Never
▁tower
▁federal
▁peaceful
▁node
▁Bay
▁tension
▁hire
▁ratio
har
tan
▁Se
▁26
rey
▁limitation
▁reserve
▁unclear
▁feminist
▁celebrat
▁Time
▁winner
▁trauma
▁resist
▁philosopher
▁mimic
▁pit
▁Mad
▁seas
uc
▁highlight
▁systematic
▁chapter
▁pole
▁installation
cellular
▁currenc
RB
▁analyze
car
▁reduction
▁leak
▁spectacular
▁creator
▁Ya
▁borrow
▁abilit
▁joint
▁dancer
▁Ala
▁glamor
▁audio
▁branch
▁Egyptian
▁Italian
▁trends
▁advocate
▁Friday
▁Unti
▁Dad
▁tackle
▁infant
▁frustrat
▁athlete
▁inch
▁wings
▁vacation
▁ignor
▁Jesu
▁dump
▁lett
▁Bo
▁hir
▁k
▁gesture
▁palm
▁translat
▁transparent
▁diabet
▁slum
▁neuroscience
ex
▁primitive
▁bored
▁till
▁Through
▁stor
▁metha
▁hormone
▁robust
▁retina
▁SS
▁Dere
▁prepare
▁dominat
▁condom
▁marry
▁Put
▁crew
uff
▁mayor
▁ape
ck
▁coin
▁propos
▁Har
vill
lit
▁195
▁computation
▁Ho
▁damn
▁Love
▁chief
bi
▁murder
no
▁combat
▁replicate
▁textbook
▁Back
▁mentor
▁occasional
▁contemporar
▁ha
▁pace
▁pan
▁export
▁Spa
▁pharmaceutical
q
▁depress
▁cheese
▁queen
▁sil
▁flavor
▁copyright
▁origami
▁Ford
▁reliabl
▁via
▁plain
▁intend
▁crush
aking
▁bold
▁passive
▁snake
cal
▁tweet
▁Bush
▁format
▁accelerat
lock
▁winning
▁magni
▁competitive
▁district
over
▁Soviet
▁destin
▁terror
drew
▁pigeon
▁structural
▁bats
▁disconnect
▁senior
▁expansion
▁burden
▁Moon
▁trajector
▁ink
ifi
lin
▁Ghana
cer
▁Child
▁rotate
▁pause
▁Ed
▁Sa
▁galler
▁darkness
▁viral
ilicon
im
▁trash
▁variable
▁failing
▁assignment
▁hitt
T
▁ruin
▁gradual
▁coordinat
▁Tes
▁inherent
▁investor
▁Afghan
▁pin
▁sanit
▁Northern
▁confirm
ide
▁bound
▁shin
qui
▁calculat
▁shopp
iness
af
▁survivor
▁bathroom
tz
▁prosthetic
▁stake
▁reconstruct
▁kiss
▁routine
▁Gulf
ax
▁personaliz
▁Mark
ps
▁None
▁unprecedented
▁programmer
bu
▁Rwanda
▁deaf
▁Bible
▁freak
▁welcome
▁Tim
▁canop
▁screw
▁pet
▁Six
▁Lab
▁punch
ocin
▁Should
▁serving
▁August
hand
▁Sure
▁external
▁overwhelming
▁Cha
▁attribute
▁Ever
▁trap
▁Sir
▁collaborative
▁producer
▁Ki
▁perceiv
▁glue
▁automat
▁garage
▁Pa
▁observe
▁gase
▁brick
▁projection
▁storytell
▁reflection
▁gear
▁spell
▁inject
▁craft
ko
▁gathering
▁imp
▁bribe
▁Prince
▁interior
▁electrode
▁healthie
▁profession
▁clar
▁determin
▁connectiv
itarian
▁extension
▁delivery
▁tie
▁donor
▁General
▁embrac
▁realm
▁furniture
▁Mac
▁contribution
▁dish
▁preserve
▁educate
▁Little
▁thrill
▁crossing
▁fulfill
▁east
▁brutal
▁descend
▁determined
▁demonstrat
▁bullet
let
▁beer
▁sink
▁terrifying
▁hid
▁compell
sha
stone
▁automobile
▁min
▁pipe
▁tragic
▁dear
▁stole
▁encrypt
▁Argentin
▁MS
▁Ke
tu
▁expectanc
▁shrink
▁washing
▁jihad
▁Long
▁jar
▁generous
▁subway
▁collaborator
▁shelter
▁locat
▁Vietnam
▁venture
Ex
▁port
▁owner
▁primate
▁defeat
▁propose
▁Car
▁Virgin
▁tsunami
▁Third
▁intrigu
chi
▁journal
▁LED
▁tricks
ox
▁March
▁sweat
uary
▁Florid
▁march
▁hill
▁agricultural
▁demo
▁strip
▁mapping
▁pot
▁diagnosi
▁Microsoft
▁Ray
▁mineral
▁burie
▁vacuum
▁paralyz
▁manual
▁par
▁deforest
▁scanner
▁Span
▁oxy
▁grasp
▁representative
▁85
▁Dece
▁Grand
▁Saturn
▁twist
▁astonishing
▁28
▁ideolog
▁award
▁calorie
▁Super
▁detector
▁Jo
▁Listen
▁excuse
▁urge
▁convey
▁laughing
▁nuts
▁alarm
▁pie
▁shit
ff
15
▁alcohol
▁reinvent
he
▁activat
ll
uck
▁mal
▁Brown
uthern
▁upside
▁Sorry
▁agreement
▁participant
▁institutional
▁proportion
▁Islamic
▁Asian
▁fence
▁equit
▁Tony
▁stabilit
▁dilemma
▁upload
V
▁grandparent
▁Council
▁clay
▁paradox
▁ubiquitous
▁36
▁plug
pox
▁triangle
▁weekend
▁Fl
▁dies
▁register
▁logical
▁bow
▁bizarre
▁annual
▁Ken
pr
▁cosm
obi
▁thread
▁homeless
force
▁Febr
▁uniform
▁fate
og
▁blowing
▁op
▁Nick
han
▁tone
▁resident
▁pathway
▁Lo
▁experimental
bar
▁baseball
▁bucks
▁frequent
▁outer
▁altitude
▁Research
▁tattoo
▁landing
▁optimis
▁Count
▁sheep
▁entit
▁Palestinian
▁Gates
▁maker
▁commission
▁barrel
ib
▁probe
▁Gore
▁correspond
▁Gra
▁upset
▁intensive
▁transmit
▁transaction
▁mat
▁spill
ris
▁offering
▁portion
▁exhaust
ler
▁align
▁occasion
▁rape
▁dat
▁inherit
▁exhibit
▁Obvious
▁warning
▁vary
▁cotton
▁Che
▁Smith
▁dial
▁tribes
▁endless
ade
▁handed
▁Year
▁dose
ically
▁translation
▁Design
▁native
▁hackers
▁recommend
stock
▁fool
fall
▁mysterious
▁kidney
▁civic
▁disagree
arrow
▁cart
▁package
▁theoretical
▁Per
▁woke
▁spacecraft
▁wrapp
diac
▁MRI
▁jam
▁Taliban
▁distinct
▁Gandhi
▁pant
▁genuine
▁glad
▁homework
▁curriculum
▁hub
▁Li
like
▁acknowledge
▁silver
▁chas
▁rope
▁minim
▁diamond
nce
▁Ga
▁editor
▁sensation
▁entry
▁Eastern
▁Far
▁beating
▁Bell
een
▁Ha
▁devil
▁pandemic
▁Eric
▁retirement
▁wedding
▁monitoring
▁resolve
▁substance
▁mud
pt
▁guid
gh
▁Jane
va
▁contradiction
▁Fi
entropy
▁strategic
tasi
▁soap
▁minorit
▁believ
▁Col
▁Open
▁wider
▁jet
▁celebrit
gentleman
▁luxur
▁payment
lan
▁Out
▁bombs
▁innocent
▁Chile
ster
aker
▁Vi
gar
▁keyboard
▁incident
▁unconscious
ura
▁arrow
▁commodit
▁tendenc
▁Wal
▁crawl
▁wrist
▁aggressive
▁van
za
▁logg
▁Homo
di
▁broadcast
▁vibration
▁ooh
▁formula
▁ignoran
▁Moor
▁compress
▁glow
▁intersection
▁knife
▁Hill
▁tun
▁gate
▁Su
▁bust
do
▁camps
▁quest
▁Lad
▁interpretation
▁Has
▁server
▁insist
gram
▁neck
ew
▁civilian
▁stomach
▁Bas
▁anonymous
▁29
▁Edi
▁gra
▁enterprise
ttle
▁leaf
▁Eight
▁Kan
ueen
▁potato
▁collision
▁spontaneous
▁j
▁Jeff
▁bedroom
▁static
▁Miss
▁augment
▁manner
▁mood
▁wo
▁concentration
▁compromise
▁tribe
▁uncertaint
▁valley
▁clos
▁fr
ick
ki
▁millimeter
▁custom
▁Berli
▁comic
▁span
▁dominant
▁detection
▁glasse
▁Minister
▁Square
▁supermarket
▁unlock
▁Bi
▁microphone
ore
▁crystal
ov
▁dawn
▁transmitt
▁hunter
▁artwork
wi
▁composition
▁helpful
▁realistic
▁relief
ake
▁hyper
▁blend
▁Church
▁distinguish
▁Roo
▁Sunday
▁tune
▁Gar
▁ma
ping
off
▁wrap
▁Fortun
oo
▁frog
▁Sh
▁Still
▁Shanghai
▁scaffold
▁sufficient
▁prescription
▁immigrant
book
▁grateful
▁architectural
▁calm
▁Du
▁Profess
▁foster
met
▁br
▁resilienc
▁Stage
▁anatom
▁wheelchair
▁geograph
▁cube
▁fusion
▁Leonard
▁Neanderthal
▁suggestion
zo
▁awkward
▁inclusive
▁neutral
▁strain
▁fanc
▁dictionar
▁Newton
▁formal
▁evolv
▁marketplace
▁suspend
▁fault
▁System
▁Jer
▁consist
▁ironic
▁abus
ru
▁unfold
▁impressive
ung
▁poison
▁cake
ealand
▁Home
▁hybrid
▁deliberate
▁proven
▁elegant
ropical
▁workplace
▁intimate
▁drunk
▁antenna
atrix
ivity
▁relax
▁astronomer
▁hydro
▁trapp
da
▁harness
▁blindness
▁Sudden
▁Joe
▁default
▁developer
▁Seattl
▁intensit
▁computational
▁upward
▁documentar
▁Dutch
▁historic
tta
wa
▁branche
▁2020
▁planetar
▁wandering
▁seeming
j
ad
▁drought
TI
ep
▁gods
BM
▁compassionate
▁remembering
▁Nel
▁Coke
▁Na
▁aspiration
▁refus
▁steer
▁integrate
▁episode
aday
▁TEDTalk
▁Work
▁lit
▁jewel
▁appearance
▁Bat
ternet
▁grave
▁bath
▁tongue
▁magnificent
rus
▁reproduce
▁embryo
back
▁principal
▁addiction
▁pad
▁Absolute
▁Ge
▁Cal
▁Department
▁statistical
▁log
▁blank
▁Korean
▁infectious
▁compet
▁supplie
▁canvas
▁horizontal
▁Detroit
▁goat
▁spray
▁Parkinson
▁impression
▁SW
▁lamp
▁manuscript
▁protocell
▁Redwood
▁troop
▁Ethiopia
▁outbreak
▁dumb
estate
▁sidewalk
▁precious
▁requirement
▁arise
▁thrive
▁42
▁diameter
▁Eve
▁transistor
▁tale
▁impos
▁shine
lix
▁coach
▁chronic
▁beam
some
▁ongoing
▁dragg
verse
▁worrying
uch
▁singer
▁pride
▁verb
▁virtue
▁Rob
▁nerd
▁pose
▁Jewish
▁ceremon
▁bi
▁texture
▁sport
nforcement
▁sens
▁insane
▁Oo
hur
▁carpet
▁striking
▁Jona
▁horizon
▁forecast
▁masse
▁Play
▁encouraging
▁Gene
▁Brian
▁drown
▁commit
▁overwhelm
▁mainstream
▁frustration
▁selfish
▁Pan
▁Brun
▁flaw
xcept
mar
▁manipulate
▁sandwich
▁Josh
▁Court
ou
▁Lester
ho
▁astronaut
HC
▁naive
▁geek
▁i
▁Henr
▁approache
▁poll
▁im
▁phenomena
▁Carl
▁Swi
▁operator
▁chimp
▁soup
▁membrane
▁Academ
▁Lord
▁executive
▁delight
ani
▁Koran
▁Accord
▁assemble
▁romantic
▁pregnanc
▁Wait
▁ge
▁independen
▁fires
▁sponsor
▁backyard
▁enzyme
▁bite
▁teenage
▁winds
▁centimeter
▁loving
▁shore
▁syndrome
▁diagnostic
▁despair
▁phenomenal
▁quantit
▁fortune
ula
bit
▁pixel
▁Kev
place
▁drag
▁minus
▁frontier
nic
▁contrar
▁eradicat
▁approve
▁exclusive
▁introduction
space
▁Singapore
▁deposit
▁wheat
▁iPod
vity
van
▁accountabilit
▁Greenland
▁glamo
▁oppress
▁Tanzania
ram
▁farms
▁attractive
▁Aristot
▁pursuit
▁swing
▁Net
▁whisper
▁concentrat
▁straightforward
▁ambitio
▁prayer
half
▁Men
▁exam
▁Twenty
▁excellen
▁assistan
▁founder
▁Sara
nia
▁delay
ians
▁Brad
▁Sound
▁geometr
▁Seven
▁Stop
▁specialist
▁drift
▁mount
▁hypothesi
▁desktop
▁explod
▁hallucination
set
▁blink
▁duck
▁logo
▁Yo
▁suppress
▁communicat
▁Alex
▁Steven
▁Democrat
▁vent
▁RS
▁parachute
▁tagg
▁Mountain
▁shower
▁segment
▁leather
▁mutual
LT
▁Social
▁Sp
▁ethic
▁acre
▁visualize
▁explorer
▁cruel
▁kit
▁formation
▁approximate
▁harmon
▁configuration
▁punish
ollege
▁substantial
▁fertilizer
▁restore
▁bacterial
▁basketball
▁Carolina
▁rose
▁dispos
ino
▁smil
▁specializ
▁Lego
▁acquir
▁reporter
▁heavi
ult
▁skelet
ami
▁amaz
▁chunk
▁metric
au
▁Monte
▁grabb
▁Titan
▁Geographic
▁screens
etic
▁Half
▁retreat
▁moralit
▁Saudi
▁deck
▁Try
▁trailer
▁Coast
ois
▁Compan
amma
▁cellphone
sulin
▁dough
▁Bali
▁illustration
▁Sing
▁350
▁chemist
▁economical
▁pedestrian
▁kilogram
▁Johnson
▁Water
▁teache
▁lawn
▁contest
▁Alexand
▁Hans
▁dut
▁digest
▁unemploy
▁Rather
▁trivial
▁bamboo
pinning
▁Watson
▁swallow
▁censor
▁warrior
▁Canadian
77
▁accelerate
racing
▁cliff
▁optical
▁Media
▁recall
ger
▁whistle
▁indoor
▁maxim
▁Mc
▁Young
fus
▁container
▁obtain
▁Fort
▁Syria
▁satisfy
blew
▁amateur
▁mapp
▁mild
▁cigarette
▁veteran
▁tent
▁Sch
▁Hall
▁proceed
▁germ
▁prepar
MA
▁decid
▁para
▁preference
▁purchase
▁SE
▁stamp
fi
▁fantas
▁Republican
▁LG
▁fi
▁ecolog
fin
▁threshold
cut
▁refuse
▁settl
▁impress
▁associate
▁utilit
▁Gree
▁org
sia
▁refrigerator
▁drain
▁Inter
▁divorce
▁debri
▁patch
▁tar
▁lean
▁Beij
▁territor
▁dropping
▁soc
col
▁gorgeous
▁belly
▁filmmaker
▁Hope
▁proposition
▁optic
▁anticipat
▁starv
▁Bangladesh
▁sew
▁endanger
▁bell
lov
▁chamber
▁declin
▁Bronx
▁rethink
pper
▁Tu
▁harmful
fer
▁tick
▁abundance
▁Laugh
▁volcano
▁warehouse
▁playful
▁useless
▁immers
▁monster
▁nonviolen
▁sale
stage
▁Organization
ogether
▁investigation
▁Hawaii
▁em
▁Pre
▁Cat
▁investigat
ode
▁bush
▁passe
▁accent
ik
▁por
▁reactor
▁accura
▁193
MS
▁Iranian
▁ac
▁arter
▁EM
▁closet
▁lotter
▁loose
▁controversial
▁Brother
▁girlfriend
▁wip
▁downtown
▁reasonable
▁blade
▁cosmo
▁Brookl
▁keys
▁44
▁atomic
bot
▁shy
▁Pretty
▁creep
▁proposal
tenance
▁taxe
▁mesh
rry
▁tiger
▁indigen
▁pursue
▁egg
▁revolutionar
▁packag
▁Jack
▁sketch
▁tile
14
▁visualization
▁jaw
▁Rose
power
▁popp
▁sibling
▁Op
▁bleed
▁banana
tine
than
▁Walk
▁adaptation
▁Fift
ison
▁incentive
▁derive
▁partial
▁degrad
▁voter
jo
mate
▁191
▁workshop
▁parasite
▁Snow
▁nano
▁scream
▁receptor
▁2030
▁summit
▁confine
▁punishment
▁dependenc
▁redesign
▁Disney
▁unhapp
▁Telescope
▁tubes
▁spine
▁iceberg
▁Securit
spring
▁readers
▁regenerate
▁Cor
▁Rover
ima
gua
▁diploma
▁Spring
▁migration
▁typ
▁convenient
▁explode
▁rings
▁collaborate
pping
▁gram
▁chew
▁grocer
▁eliminate
▁mall
we
▁Ell
▁November
▁Kid
U
▁Power
▁Hy
▁eliminat
▁infra
pp
▁Michel
▁carrie
▁sperm
▁legislati
▁lonel
▁denial
▁instinct
▁poly
▁embarrassing
▁sixth
▁association
▁friendship
▁bioluminescen
▁ethnic
▁scheme
▁miserable
▁cooperate
ome
▁William
▁vulnerabilit
▁hierarch
▁neuroscientist
▁synapse
gon
▁artifact
▁scare
▁relation
▁cr
▁heel
cro
▁lifespan
▁assist
▁delicio
fu
▁pirate
▁cage
▁peculiar
▁melting
▁shrimp
▁Secret
cus
▁Mandel
▁council
▁Ven
▁sneaker
▁Hav
▁Apollo
▁fatal
▁ventilat
▁modest
▁enhance
▁congesti
▁nightmare
▁Way
▁Peace
▁festival
▁lap
▁occupy
▁devastating
▁Late
▁prostate
▁anticipate
▁belt
▁envelope
▁reputation
tt
▁blast
kin
▁yoursel
▁division
▁nast
▁Thai
▁crab
▁rubber
nal
▁myceli
▁assign
point
▁referr
av
▁realization
▁calcul
▁Penn
▁accus
▁Medica
▁index
▁horror
▁erect
▁flourish
▁abundant
▁pencil
▁remix
▁similarit
lihood
aving
▁pizza
▁absence
▁convict
iv
ional
▁penis
▁honey
▁shak
▁scrap
▁genocide
▁tribal
bro
▁emergence
▁airline
▁precis
symmetrical
▁chef
▁ego
▁insert
▁immortal
▁libert
▁emphasize
▁cod
▁chase
ndustrial
▁Roy
▁1900
ini
▁rains
▁Kong
▁tapir
▁Libya
▁motivate
vin
▁190
▁generic
▁blob
dus
▁riot
▁aggregate
▁Fin
dia
▁Mike
▁kilo
▁intact
▁friction
▁toll
▁mosque
▁glimpse
▁arrangement
▁wi
active
▁junk
▁translator
▁philanthrop
▁settlement
rid
az
▁Pat
long
▁Keep
▁orient
▁destination
▁rehabilitat
▁tenth
▁multiply
▁activate
▁listener
▁scaling
▁frightening
▁shoe
▁Fa
▁campus
▁Da
▁injustice
▁protocol
▁administration
▁basement
▁Mart
▁heritage
▁Jordan
▁Va
▁vivid
▁defining
▁passage
▁separation
▁prospect
▁Fe
▁juice
▁archive
gie
▁Laden
▁Lake
▁discriminati
▁nutrition
▁empire
▁flesh
▁Nor
▁shocking
AG
▁schizophreni
▁criteri
zi
▁manipulat
▁Charli
▁valve
▁Ru
▁Sal
▁tourist
▁Acc
▁Pr
▁Matt
▁strict
▁Gold
▁tide
▁odor
▁consensu
▁kingdom
▁breakfast
▁trustworth
▁connectome
▁conceptual
▁bann
▁negotiation
▁Goal
berg
▁copi
▁performer
▁helmet
▁nitrogen
▁lobby
▁transferr
▁bare
▁drum
▁harbor
▁render
▁reclaim
ature
hu
▁corners
▁aunt
AK
▁Indonesia
▁screening
▁panic
ologist
iest
▁storyteller
don
▁sake
▁armor
▁constrain
ual
eur
▁manufacturer
▁polite
▁stare
▁collar
▁disturbing
▁stimulation
▁toxin
▁pipeline
▁explicit
▁mega
gal
▁semi
▁banker
▁pathogen
bra
▁bacteri
▁deni
▁Santa
▁Clinton
witzer
▁Too
oto
▁Roman
▁Dea
▁journalis
▁Watch
▁900
▁Scot
ull
▁priest
ica
▁selective
BC
violet
▁disgust
▁incarcerat
ala
▁temple
▁helpless
▁Apri
▁innovate
▁genomic
DI
▁Ask
▁Earl
▁isolation
▁Norden
▁1930
▁Ali
▁Iceland
ging
hip
thermal
▁digit
▁favela
▁eyed
▁climber
▁replicat
LP
▁RNA
▁foi
▁spreads
▁distinction
▁stagger
▁192
nda
oline
▁purpl
▁surgical
▁owners
▁cows
▁elaborate
▁triple
▁Port
▁gravitational
▁Ky
ately
gging
▁donation
▁Business
▁forgive
▁Probab
▁terrain
▁thus
▁Venus
▁depict
▁carve
▁Berk
▁legend
▁Grow
▁avatar
itch
▁96
▁spare
#
▁symbolic
round
▁filling
▁controller
▁prototyp
▁Russ
makers
▁Stephen
▁exposure
▁contaminat
▁polariz
▁turtle
▁crap
ek
▁Hu
▁painter
▁Gi
▁shatter
▁Mean
▁circula
▁modifi
▁blogs
▁funeral
▁mytholog
▁earning
▁CD
lic
▁lethal
▁mini
and
▁costume
▁chains
▁Te
▁flipp
▁Sub
▁pursu
esis
▁crude
▁alumin
▁greet
▁Librar
pago
▁Bhutan
▁hint
▁assistant
▁Kir
▁entrance
▁55
imbabwe
▁deficit
▁Development
▁Government
▁horses
▁Hum
▁Post
▁Atlant
▁update
▁interconnected
▁firing
▁sweep
▁Jupiter
▁conquer
RA
▁rigid
▁idiot
▁Light
▁holiday
atic
ath
▁planting
▁Catholic
cast
ventual
▁Si
▁Benjam
▁Find
form
▁velocit
▁brush
tric
▁revelation
▁quo
ji
mel
▁enrich
▁hopeless
cat
▁Nike
▁beetle
▁prey
▁130
▁stair
▁Columbia
ada
▁decent
▁Civil
▁Wolf
▁impulse
▁admitted
▁48
▁Portug
▁wow
can
▁correlation
▁sequenc
▁prior
▁injured
▁restor
▁restrict
urg
BA
▁Syrian
▁Cold
▁SP
▁captain
▁spatial
▁Rand
▁emitt
▁longe
▁gluco
▁couch
▁therapist
▁intimac
▁crater
angelo
ular
▁subjective
▁sulfide
▁simulat
▁yeast
▁disk
fold
▁MR
▁janitor
▁gras
▁acknowledg
▁authoritarian
▁Coc
▁innovator
▁diarrhea
▁victor
▁transit
▁rail
▁institute
▁Citi
▁astronom
▁rank
▁provider
ect
▁harsh
▁Milk
▁squeeze
▁mammoth
▁inhabit
▁lover
▁Canc
▁rotat
▁electro
▁anniversar
field
▁Par
▁spouse
▁virgin
▁Old
▁Uncle
▁historian
istine
▁epiphan
▁ethan
▁Office
▁biase
▁informal
▁spite
▁depriv
▁expense
band
▁Histor
together
▁summarize
▁overlook
▁justify
▁drama
PR
▁guard
▁competitor
▁minimal
▁Computer
▁mum
▁exceptional
▁alert
▁examine
▁Craig
▁Elizabeth
▁Garden
▁trunk
▁fl
▁pesticide
▁Simpl
▁fractal
rway
▁humble
▁hemisphere
▁niece
▁Nata
▁differentiate
mine
▁Bol
▁Machine
▁jungle
▁fever
▁Somalia
▁arc
▁Gala
ette
▁elevator
▁premise
▁acquire
well
▁exot
▁import
▁Gal
▁CR
▁Education
▁atmospher
▁convention
▁practic
▁Wa
▁reuse
ark
▁integration
▁temporar
▁silicon
▁Consider
▁viewing
▁sole
▁metabolic
▁obsession
▁modeling
▁ban
app
▁taboo
▁opposition
▁Republic
tangible
vy
▁kite
▁coordinate
cha
▁Lot
▁sexualit
▁fetus
▁thriv
eley
▁sediment
▁algae
▁fuzz
▁adolescence
▁traumatic
▁declar
▁Philip
▁distribute
▁intrinsic
coming
▁accumulat
▁progression
ggle
▁lobe
▁Show
▁vice
▁nois
▁Suppose
▁fur
uke
sense
▁guitar
▁melod
▁38
▁lucki
▁psycho
▁scarce
▁coverage
▁blueprint
▁decorat
▁classical
▁preparation
▁Recent
▁yard
▁Hold
▁31
▁manifestation
▁brake
dor
▁wander
▁cholera
▁Kar
▁zoo
▁Add
▁Mar
▁noble
▁Yemen
▁replacement
▁gang
▁vocabular
rick
box
ergy
▁Band
▁cooperative
▁angel
▁DP
▁JF
▁receiver
▁Sylvi
▁guest
▁distort
▁Christ
▁Line
▁processor
▁Countr
▁Alaska
▁Pete
▁Milo
▁dragonfl
promising
▁slogan
▁bowl
▁Nepal
▁steam
▁visionar
▁skeptical
▁gallon
▁incomplete
▁faint
▁woods
▁Nigerian
▁FDA
▁pleasant
▁doubling
▁rides
▁scal
▁endeavor
ged
▁frustrating
▁Liberia
lage
▁negotiate
▁scholarship
▁progressive
mart
▁reproduction
▁rear
▁towel
▁verbal
escent
▁repli
▁stadium
▁Tur
▁rebel
▁Aid
▁Map
▁feeds
▁hut
port
▁welfare
▁promot
▁acoustic
▁Natural
▁happi
▁tablet
▁swarm
▁invitation
▁neglect
▁empowerment
traction
lvani
ola
▁textile
▁Hospital
▁stereotype
▁stratospher
▁nonprofit
▁alike
▁marks
▁exit
▁prop
▁clon
▁Den
▁occupation
▁DVD
▁courageous
▁authors
▁capsule
▁microscop
▁Fund
born
▁flush
▁screaming
▁Phil
▁vibrat
▁specimen
▁sp
sance
▁significan
▁Food
▁adolescent
▁extensive
▁Live
▁unleash
▁uninten
▁irrational
▁physiolog
▁oyster
▁ch
▁Mumb
▁dopamine
▁Sierra
▁radi
▁needles
▁Ross
ole
▁carrot
▁restriction
▁headache
▁Marc
▁squid
erial
ati
openha
ose
genes
lerant
▁warmer
▁Costa
rom
▁Phila
elphi
▁Mama
path
▁vo
▁Kosov
▁Camp
ev
▁00
▁fuse
▁leopard
version
inux
▁resurrect
state
▁accompani
▁floors
▁entrepreneuri
▁Namibia
▁celebration
oid
▁43
▁refin
ulate
kyo
▁eternal
▁triumph
zz
13
▁lawsuit
▁Gaza
lium
▁humbl
▁taxi
▁obsolet
▁Heart
▁ripp
▁TEDster
▁persist
▁resilien
▁vagina
▁freeze
▁displac
▁envision
▁suspicious
eb
▁chess
▁unfair
▁visitor
▁Austria
▁fertil
▁Phoenix
▁insult
lime
▁Scientist
▁indicat
▁warn
ase
▁cur
▁regional
▁Less
▁frighten
▁Interesting
▁hom
▁fingertip
▁spade
▁skeptic
▁calendar
▁accidental
▁Medicine
▁racial
▁flee
▁learner
▁cl
▁enlighten
generative
▁propagand
▁macro
▁compos
▁Ni
▁hollow
▁elbow
ank
▁Andrew
oma
▁pun
▁Down
▁cafe
▁Com
▁Nathan
lept
▁tele
▁feather
ith
▁postcard
▁invasive
▁pops
▁admir
▁publication
▁capitalist
▁opt
▁staircase
▁swamp
▁stimul
▁34
▁Climate
▁bypass
▁absurd
▁spiral
▁Say
▁vegetati
▁Pen
▁ward
▁crashe
▁Yellow
▁regulat
▁famine
▁Leban
▁simulate
▁cue
▁Arabia
all
▁metabolism
▁charter
▁JC
▁prevalence
▁Mola
scope
▁crank
▁locomoti
▁watt
▁blessed
▁scholars
▁flock
ran
▁salar
nformation
▁Ted
▁ambition
ump
▁Bett
▁hallway
▁collaborat
▁Bosnia
airo
▁acute
▁syringe
▁outrage
▁mustache
▁dare
▁adaptive
ire
ez
▁Swa
▁fin
ribbe
▁microbial
▁imperative
▁Cheer
▁va
▁awake
▁pl
▁tables
▁manufacture
hov
▁Shakespeare
▁migrate
▁vocal
▁gross
▁Patient
▁cease
▁genero
▁Wood
▁Lama
▁Bar
▁Moz
▁Thirt
▁volcan
▁antibod
▁graf
▁Nair
▁blam
▁cope
▁Edward
▁frontal
▁Lee
▁Siberia
▁Daniel
▁Carne
▁dictionarie
lves
ulation
ira
▁steep
▁Tit
▁Alic
▁Jones
▁critic
▁Under
▁oven
▁compute
gur
▁submersible
▁52
▁Iraqi
▁AM
▁Mill
▁cop
▁bombsight
▁Clear
▁corridor
▁bay
▁memorial
▁DR
▁boost
▁exquisite
▁rang
▁yards
▁fluctuation
rum
ED
▁Gol
▁perceptual
▁incremental
▁conductor
▁liberat
▁blockchain
▁indication
▁towns
▁Ground
tical
eval
▁observer
▁relativ
▁equilibr
▁nucle
▁companion
▁pale
▁Data
SD
▁parameter
▁digg
▁cream
▁weakness
▁owe
▁Albert
▁Jew
▁trail
▁racis
▁criticiz
▁buzz
▁midst
▁Ram
▁Australian
▁controvers
▁minded
▁planner
▁Hand
▁Louis
cho
cher
▁cheer
rizon
mbo
▁guards
▁slope
▁nail
▁hammer
▁Jud
▁dri
▁apologize
ological
▁keen
▁cocktail
▁hamburger
▁flexibilit
eum
▁cleaner
therland
▁disappointed
▁intentional
Y
▁refine
▁vest
▁cockroach
▁Mexican
▁retain
▁gentle
▁butter
▁bounce
stair
Bay
▁Tower
▁dismiss
▁flame
▁Movement
▁invad
▁adequate
▁Saturday
▁democratiz
▁fighter
▁jumps
▁curl
▁investigate
▁Sudan
▁stimulat
▁irre
▁ridge
▁module
▁solo
▁doom
▁Public
▁Hindu
spread
▁98
▁Kenn
▁encyclopedia
▁statue
▁Johnny
▁millennia
▁Pi
▁basket
▁Ninet
▁ancestr
▁UN
▁64
▁grip
▁Force
▁unsee
▁arena
▁ambulance
▁stain
▁concentrate
▁toast
▁vanish
▁western
pler
width
▁Small
▁ALS
▁defect
▁gigant
▁hostile
▁indicator
ept
▁ideological
▁embodie
▁enthusias
▁ghost
▁Bud
▁mindful
▁petition
▁Christopher
▁accumulate
ctor
▁dispers
bul
▁diagnose
▁satisfie
gli
▁regulate
▁abstraction
▁cartoonist
▁penn
▁rectangle
▁anthropologist
▁Alpha
▁Chuck
glo
▁Fly
▁optimize
zone
RIS
▁vaccinat
uri
▁jo
▁maximize
xi
uite
▁Evan
▁blessing
▁86
▁irrelevan
▁pric
▁terminal
▁lighter
unch
▁cabinet
▁surrender
▁Learn
▁folk
▁copie
▁confusion
▁mines
▁beef
▁accomplishment
▁gait
▁portray
▁reinforce
▁unite
▁rott
▁larva
▁pillar
▁fuck
▁merc
venge
▁alphabet
rous
▁temporal
▁liter
▁grape
▁claw
▁fraud
▁professors
▁geological
▁baseline
▁negotiat
eak
ius
▁thrust
▁obligation
ado
▁shap
▁manifest
▁fluorescent
▁yell
▁Lin
▁rust
▁deny
hold
acci
fiti
▁impose
▁cement
▁Canyon
▁Bor
▁governor
▁140
▁behav
▁psychiatr
▁traffick
▁Jas
▁bitter
▁Ministr
▁Change
▁equipp
▁heroin
▁behold
▁ham
▁province
▁wool
▁dealer
▁lump
▁Gius
▁freez
iro
▁fracture
▁stigma
▁Brazilian
pur
▁Building
▁Ag
▁46
▁disadvantage
▁romance
▁Similar
▁baker
▁encode
▁iPad
▁Harr
ight
▁ramp
▁Oklahoma
▁Jess
▁Deep
▁pollutant
▁monsoon
▁browser
▁quad
▁supercomputer
▁polls
ball
ret
▁pigment
▁meta
▁hypothetical
▁flap
▁retire
▁checklist
▁guerrilla
▁cybercriminal
▁devise
motive
▁metropoli
▁Certain
▁billboard
▁CE
cela
▁customiz
▁cerebr
▁hotte
▁End
grade
▁excess
▁redefine
chu
▁choir
▁embarrass
▁consult
▁Book
▁shelve
▁mill
▁Lewi
eck
ward
▁reproductive
▁gaze
▁Color
▁technologist
▁margin
▁transcend
▁Call
▁torture
▁ladder
▁lime
▁bench
▁impair
foot
▁enhanc
▁respirator
▁finite
▁rig
root
▁voyage
▁jur
▁examin
pit
▁Face
▁Lead
▁Whoa
▁urgent
▁Die
▁powder
▁lense
▁menu
▁Help
▁Fried
▁masterpiece
▁purchas
▁rabbit
▁mixture
ibility
▁dishe
▁Michigan
▁Anna
▁tooth
▁benign
▁prosecutor
▁recession
▁audaci
▁pollinat
▁headquarter
▁plott
▁trad
▁awe
▁titan
▁philosophical
▁Sex
▁welcom
▁grim
▁Bruc
ylan
▁conceive
▁glove
▁varie
▁Doctor
▁bombing
▁minimize
▁Emma
▁intangible
▁caps
▁operational
▁multinational
▁Golden
▁nurtur
▁marked
arliament
▁greed
▁Trad
▁carti
▁pore
▁Societ
▁superpower
mas
▁lamb
▁giver
▁tilt
▁tolerance
▁gamma
▁flute
uddin
▁alliance
ogue
▁mobiliz
▁tapp
▁bulk
▁Luck
▁eighth
▁cosmolog
▁assault
laughter
broad
▁fails
▁53
▁brainstorm
▁destructive
▁rendering
▁sensitivit
▁duration
▁Stay
▁prevail
NN
▁Mel
▁legitimate
▁54
▁jazz
▁steady
▁slip
▁MA
▁hobby
▁grind
▁lik
▁convincing
▁candle
▁fame
▁Nic
ao
▁eastern
▁fungi
▁bloom
gate
▁album
▁modify
▁maneuver
▁nanotechnolog
▁disturb
ament
▁Station
▁responsibilit
▁conviction
▁introvert
▁Vinc
▁din
▁smash
alai
eopard
inal
wear
▁Large
▁SB
▁pond
▁fog
▁overhead
CD
▁plac
cur
▁rage
ue
▁neocort
viation
▁pancrea
▁hug
▁dispute
ectar
▁butterfl
▁emergen
▁Cu
▁guideline
▁slaughter
uk
▁visceral
▁Kenyan
seas
▁intricate
sky
sani
▁bark
uous
▁minor
▁viewer
iff
▁vein
▁wallet
corn
▁undergo
+
▁valid
vor
▁animat
▁cinema
▁NA
▁lure
▁chemotherap
▁mash
▁marathon
▁lander
▁Cart
▁pee
▁Swed
▁Peru
▁KA
▁Venezuela
▁contagio
▁Joseph
▁stimulate
▁Muh
▁chick
▁synthesi
▁Dead
▁ES
▁atheist
▁Beatbox
▁divine
▁blurr
▁inquir
▁coca
▁functionalit
▁admire
▁shade
▁autistic
▁Whitopia
▁Rule
rah
▁Rat
sight
▁suburb
▁lith
▁medi
▁initiat
▁thermal
▁Darwinian
▁continual
▁chaotic
posed
▁fleet
▁Cassi
zing
▁Lago
▁technician
▁qualifie
sual
▁matche
▁electromagnetic
flu
▁stunning
▁snapshot
▁indirect
▁illuminat
▁Hubb
ui
TA
eague
▁Williams
rief
▁Inside
▁injection
▁lesbian
▁intervene
▁believer
▁prejudice
▁mono
upp
▁offend
▁morph
ER
▁rover
chan
▁manipulation
▁kin
▁polymer
▁gadget
▁prioritize
▁reader
▁timing
bla
▁heck
▁Start
▁entitle
▁iteration
titude
▁cops
▁tempt
▁marshmallow
▁Walter
lia
▁Copernic
▁bucket
cular
esday
MW
▁fung
▁elevat
NC
▁undergraduate
▁classmate
▁Tra
▁disparit
▁socio
▁assess
16
bre
▁cognition
▁mentors
▁generalize
▁differ
nmark
banish
▁symphon
▁Modern
king
▁shield
▁essay
▁160
▁amuse
rose
coli
▁missile
▁bull
▁Pittsburg
ink
▁geographical
▁inflation
▁Hous
ried
▁blogg
▁adversit
▁AI
▁induc
▁pul
▁disc
▁Step
▁execution
▁Maria
▁warfar
▁surplus
▁Pink
▁lesion
í
▁Himalaya
▁Side
▁58
▁Georgia
ella
▁Marine
▁blanket
aste
▁scatter
▁Str
▁innate
▁AB
▁secular
▁counsel
tif
▁flags
▁gland
▁dug
=
▁plague
▁facilitate
▁Moham
▁miner
skies
▁neurological
▁crocodile
▁sync
▁fairy
▁auditorium
▁reasonabl
▁industrialize
▁diminish
▁autonom
▁Happ
▁mock
▁novelt
▁extrovert
▁doll
▁Max
▁Hawk
▁plankt
▁generator
▁problematic
▁radar
▁Gall
▁grassland
▁Beck
▁boson
▁shepherd
▁reply
▁hatch
ctopus
▁reminder
▁digitiz
lah
▁tuberc
ulosi
▁speculat
opter
▁compliment
▁bomber
▁veil
▁measl
▁paste
net
▁cylinder
NG
▁conspirac
▁Bitcoin
▁rabbi
▁Tasmanian
▁Swee
▁sculpt
rial
▁preach
▁strengthen
▁Ultimate
▁inhibit
▁Use
▁roller
▁hy
▁merg
▁union
core
idden
▁Solar
▁Europ
sleep
▁certifi
▁photon
▁unnecessar
▁decentraliz
▁waterfall
RT
▁strive
▁fierce
▁mutilat
▁Sad
▁exceed
bal
▁torn
▁sermon
▁Aust
▁eco
▁confusing
▁Bad
▁Self
▁180
tron
▁Ap
▁payload
her
▁gyr
▁reinforc
▁Bab
for
▁daylight
▁puppet
▁haunt
▁coincidence
▁organizer
▁tortur
taller
▁dentist
ago
bil
▁forum
gg
▁caregiver
DG
▁dome
▁temptation
▁PT
oil
▁compris
etup
▁Android
▁numer
▁spike
▁subsequent
▁lever
▁submit
scape
▁pal
▁interrupt
OS
▁Tri
▁Trans
▁anxious
cca
▁wax
▁Hmm
▁hung
▁praise
▁Kim
▁condemn
▁commerc
▁PR
hall
▁payoff
▁Monday
▁orphan
▁visualiz
▁submitt
▁heroic
▁Ger
▁constitution
▁MT
are
▁developmental
▁spy
▁inmate
und
▁Skyp
▁meadow
▁tipp
▁execut
bell
▁Rena
▁cathedral
▁intimidat
▁urbanization
lash
▁sensibl
▁overload
utheast
▁enslav
▁dual
▁Nazi
▁Van
▁Tunisia
▁unifie
▁seize
nts
ennis
▁packet
▁stumbl
▁Buy
▁halve
▁substitute
▁rival
▁Alright
awa
▁Emil
▁biosphere
▁Magazine
onic
eith
▁Audi
▁psychiatrist
▁TEDx
▁USA
▁Hell
▁Glass
▁stripp
▁pupp
genic
▁modification
▁warp
iath
▁pur
▁IM
▁deployment
▁Tru
strong
▁Forest
▁Nag
▁Mind
▁salmon
roll
▁hacker
▁submarine
▁testimon
▁Code
▁ballot
▁divergen
imi
▁heated
tech
ibati
▁sketche
▁Ushahidi
▁calci
▁RIS
▁mammograph
▁puncture
▁Bonobo
▁Fair
nel
▁settle
▁Model
▁assure
▁outlet
▁devastat
450
▁emit
▁emphasi
▁dwarf
illin
dental
▁ease
▁orangutan
bling
▁wipe
ound
▁sir
▁monk
▁cheek
▁unacceptabl
plant
▁Chi
▁Had
gio
▁Fil
▁occupi
velt
mi
▁epic
▁Mass
▁facult
▁reflectiv
▁sauce
▁enthusiastic
▁feminin
▁surge
▁cu
unny
▁grace
▁lapse
lus
▁upgrade
dding
cle
▁sock
▁hypothes
▁que
▁Bio
GM
▁migrant
▁Yu
▁recycle
▁persuade
▁evident
▁Jean
▁asthma
▁mobilize
▁shallow
▁treasure
▁scholar
▁eros
▁Fran
▁Got
▁Bern
▁marvelous
▁Christians
old
quatic
▁v
▁Notice
▁Hundred
ough
▁vector
▁lips
▁Mount
Barack
bama
▁arbitrar
▁Stewar
▁embark
▁violin
▁resin
▁hatred
▁tomato
▁vibrate
▁hive
ides
▁Pol
▁Know
▁brut
▁potent
▁curator
▁sword
▁thankful
▁Simon
mark
▁globaliz
▁resemble
▁Merc
▁Tibet
▁PC
iel
▁Beet
ó
▁DM
▁Father
rank
▁hills
och
cies
▁Test
▁exclude
▁complication
▁agil
▁Gri
▁certificate
▁tackl
burg
▁subsid
culture
▁Allen
▁quantitative
App
20
▁Radio
▁Wire
▁Depressio
▁Colombia
▁Les
▁retir
du
▁CC
▁Vent
▁Journal
▁curtain
▁Supreme
▁Click
▁nanometer
▁nanoparticle
▁Land
▁pessimist
▁rip
▁Such
▁existential
▁swear
▁criticism
▁Pantheon
row
aba
▁Rea
▁neo
▁Nan
▁reconnect
▁Eden
▁Cra
▁timber
▁commands
nburg
ock
▁cabin
▁stiff
FL
ara
▁wrestl
▁Julia
▁Pix
▁invasion
▁unpredictabl
▁wavelength
▁185
▁thermo
▁battlefield
ester
▁laundr
ambia
▁token
▁waist
▁viewpoint
▁dodo
_
▁pension
utu
onica
▁millisecond
Gowan
▁Bu
▁hectare
▁juggl
▁mammogram
▁CMU
▁FG
▁intra
munition
▁Palestin
▁paraly
▁unimaginabl
oga
▁retail
▁expressive
▁kidnappe
▁energetic
▁experimentation
▁Toyota
▁redundan
▁glorious
▁bent
▁throat
▁presum
▁devoted
▁contemplat
▁arrang
kill
cover
▁sterile
▁financially
▁venue
▁ruling
▁beard
▁fundrais
▁patien
▁casual
▁analytical
dec
▁moist
▁delicate
▁Hyper
▁Fire
▁advertisement
▁abortion
▁Cur
▁Ron
▁template
▁Cambodia
▁Abu
▁sleeve
▁tinie
▁implicit
▁Ark
▁Forget
▁orientation
▁porn
▁Philippi
▁Amand
▁urgenc
J
▁firefl
▁Incredible
▁originate
▁bioma
▁superior
▁boots
▁Stone
▁forbidd
▁lightn
▁resonance
▁fade
▁migraine
▁Lind
▁uh
SF
▁Terr
▁miser
▁Student
ermaid
ich
abbage
▁sneak
▁thorough
▁jealous
▁composer
usk
gel
▁approval
▁Job
▁recipient
▁Pop
▁immunit
▁biotechnolog
▁relevanc
▁underestimate
▁tender
▁scroll
▁inefficient
▁mortgage
sterda
▁separat
▁consent
tting
▁cri
▁crust
▁discard
▁meaningless
del
▁violation
▁Cooper
▁gentl
arity
▁beekeeper
▁migrat
▁simplify
▁expose
gro
▁fled
▁fad
▁paragraph
▁Slow
▁cultivat
▁schedule
▁sticker
▁glory
▁singular
▁distracted
▁ingenu
▁Digital
AC
▁Las
▁hominid
▁beep
ix
▁gel
▁Oregon
▁Empire
itis
▁Often
▁patholog
▁skip
▁Exact
aka
▁Amy
▁piss
pon
▁propeller
▁nuance
▁dim
ndex
▁stall
▁regain
▁announce
▁summar
▁cha
▁pheromone
▁Roger
▁Norman
▁execute
▁pollut
imme
▁boyfriend
▁dominate
▁incorporate
wards
▁establishment
TO
▁catastrophe
▁straw
▁mystic
▁beg
▁jacket
▁livelihood
▁Victorian
rane
▁Motor
▁voluntar
▁Save
▁unst
▁auditor
▁vacan
▁Dallas
▁runner
▁chat
▁plugg
▁centered
▁preschool
stein
▁Margar
IMS
▁Balti
otto
▁traveler
ridge
frontal
▁assessment
ahedron
▁Window
tts
▁Pra
▁Tele
acco
▁Montana
▁Fear
▁placebo
▁sanitar
▁Maldiv
▁Scratch
▁metronome
nterviewer
▁Among
▁diplomat
▁commander
▁persever
▁Prime
▁marvel
AR
▁infer
▁Pal
▁superstar
▁whip
▁chill
▁committee
▁resort
illa
▁nuclei
▁bounc
▁CIA
▁catastrophic
▁Pass
▁Ku
▁meditat
▁Buddhist
▁Shir
bert
▁Han
▁anecdote
ika
▁str
▁Baby
▁Short
▁satisfaction
▁virtu
lcome
▁soda
▁Current
▁DARPA
ST
▁shortcut
▁erase
▁intent
▁midnight
▁premature
▁casualt
▁worship
▁endur
terior
▁susceptib
▁juvenile
▁unaware
▁moderate
▁carcinogen
▁buck
▁composite
dict
lec
▁encod
▁Shake
▁zo
▁biodegrad
▁mediate
iger
▁Economic
▁Harle
▁improbab
▁efficac
von
▁Grandm
▁accommodate
▁Text
▁rubb
phy
▁causal
▁squeak
▁Stor
▁Titanic
▁incidental
▁leaning
▁Defen
war
▁shortage
▁Mil
huh
▁eager
▁Head
▁consultant
▁seasonal
ike
▁Mur
▁swirl
▁sadness
▁Alr
▁coworker
LA
▁Guinea
▁Beyon
▁ultrasound
▁spa
▁collage
zler
▁Trump
▁backup
▁Colli
ila
▁solita
▁Along
▁poop
of
▁cultivate
▁verge
▁tactic
▁Low
ury
▁catalyst
▁Dave
▁Val
▁Reg
▁grad
▁Fo
▁Bono
▁68
eit
▁refrigerat
bone
▁Desert
▁irrigat
▁basin
▁Buddha
▁animate
▁excerpt
▁Falcon
▁outward
▁vitamin
▁pity
▁bearing
▁underwa
▁humid
▁Death
▁evaluate
▁Jefferson
▁Excuse
▁Dick
bble
▁Lang
top
▁activis
▁Nav
▁asphalt
ection
▁astronomical
▁compass
▁wetsuit
▁pervasive
counterintuitive
▁fundamentalist
▁responsive
▁mic
▁Major
▁spott
▁forc
▁lin
▁Sony
▁biomaterial
▁railway
ibera
▁hazard
▁provision
▁Control
▁83
▁sulfur
everal
▁mari
ambiguous
▁circulation
▁illiterate
▁Report
▁stereo
▁posture
▁PRI
▁cochlea
▁Nanopatch
▁cookie
saw
▁doodl
▁vulture
▁FO
▁Mahat
▁participator
▁Mala
▁fatt
▁motorcycle
▁Juan
▁Whit
▁loser
▁unequal
▁Serious
▁MM
▁puff
▁evaluation
▁eradicate
▁regulator
▁invade
▁beast
▁Mayor
▁adjacen
▁soar
▁rider
▁synthesiz
▁doctrine
▁anesthesi
▁prostituti
▁hurricane
ISA
▁rainbow
▁dar
▁ambiguit
▁violat
▁orphanage
▁hence
▁playground
▁redefin
▁verse
▁distress
▁Mal
ovember
▁pivot
▁supplier
▁ambassador
▁Common
▁whi
▁unto
▁differential
▁stabilize
▁tinker
▁algebra
▁Aw
▁teens
word
idi
aque
▁recreate
▁improvise
▁loyalt
▁mistaken
▁nurture
▁spawn
▁fertiliz
▁Wild
oop
▁mama
▁optimal
▁teen
▁cubic
▁collector
▁hull
▁radioactiv
▁sprint
▁superhero
▁void
▁dam
▁reconstruction
▁dip
▁possession
▁draft
▁cosmetic
▁poke
▁uncertain
▁Service
nutrition
▁mandate
▁contractor
▁peel
▁freeway
pont
▁imitat
▁dude
▁Fox
away
▁Politic
▁Taiwan
▁counterpart
▁Fantastic
▁ballet
▁Saint
▁poetic
▁chalk
▁Virtual
mination
▁penetrate
tica
gle
▁Cap
▁arch
▁Universe
▁Polic
lla
▁OE
▁thunder
hma
▁steward
▁Ban
▁delete
▁warrant
▁Group
▁burial
▁corresponding
▁empirical
▁hover
▁laz
quat
▁Wit
▁56
▁offshor
berry
▁axe
▁Dream
▁microwave
▁signing
▁Sydney
▁Leo
pol
▁merit
▁donate
atter
▁bake
tention
▁sapien
▁reckless
▁Read
▁epi
▁Strange
▁appliance
▁lettuce
▁biofuel
▁vegetarian
▁contributor
▁lightweight
ean
▁intestine
▁Danny
▁turbine
▁Plan
▁aura
nger
▁94
▁plunge
▁messag
▁rub
▁physiological
boat
▁Veg
▁navigation
▁belonging
▁overlap
▁mutant
▁embarrassment
▁brows
▁cru
▁worldview
▁Bridge
▁constructive
▁Dear
▁apparatus
put
▁plea
rink
▁olive
▁sovereign
▁knot
▁Luc
huse
▁Archimed
fensive
icious
▁Spider
▁Award
onze
cumen
▁confrontation
wana
▁Dai
▁Tor
▁tumbl
▁characteriz
▁Mou
▁haul
enberg
▁MP
▁splash
▁hunch
▁lava
▁Cla
▁Davi
▁Shoot
▁fitte
AL
▁taxpayer
▁Fib
▁Tami
▁Jen
▁cobra
▁Everglade
▁relie
▁Millenni
▁Type
▁sighted
▁recreation
▁bureaucrac
▁allocate
▁amaze
▁inexpensive
▁pave
spect
▁usage
▁62
▁Wonder
▁boo
▁intern
uction
▁Nine
▁Minne
▁PowerPoint
▁BMW
leans
▁Fast
▁ru
▁eras
fire
▁resonate
▁Tree
▁inspirational
▁vicious
ama
▁prophet
ob
our
▁Bring
▁tribute
▁monument
▁mantra
▁switche
▁notebook
▁racist
▁comprehensive
▁prim
▁Case
▁Susan
▁poo
▁Soldier
hili
▁Jenn
▁pornograph
▁82
▁queue
bucks
▁improvisation
▁surf
▁bladder
▁propell
▁mast
dge
▁Aim
▁heartbreak
▁KB
▁swap
▁360
▁skyscraper
▁suburban
▁cub
chang
▁persistent
▁Olive
▁McDonald
▁Rebe
▁excellence
▁holistic
▁scarc
▁Ball
▁mimick
▁slot
▁Murray
▁env
▁dictator
rap
avian
▁anomal
▁secondar
down
▁plasma
▁influenza
▁1940
▁po
▁variant
tler
▁mundan
▁slipp
▁geographic
▁plaque
▁astonish
▁depressing
▁horrific
▁wreck
▁employer
eez
▁chord
▁delusion
plain
▁Enlighten
▁millenni
▁gatherer
▁Lawrence
▁consideration
▁courts
▁deer
▁integr
▁unfamiliar
▁diffus
▁Algeria
▁subset
▁geometric
▁gym
▁unthink
▁Near
▁unnatural
ifying
▁boot
▁Genom
▁fibro
▁mature
▁Holo
▁sympath
bin
▁extremist
▁identification
▁strap
▁Kal
▁orbital
▁correlate
▁instantaneous
plan
▁detach
▁tropic
▁Discover
▁phy
ometer
▁admission
▁du
▁simplistic
cientific
olla
▁Word
▁hurdle
viv
▁monarch
walk
▁outdoor
▁conserv
▁Cape
mino
▁AS
tat
▁carrier
▁Intel
▁Odysse
▁tectonic
▁logistic
▁blogger
▁utopia
▁Perfect
▁applaud
▁Warr
▁stat
▁Hard
▁unsustainabl
▁hydrocarbon
▁Isa
▁ruler
▁Rica
BL
▁equator
far
▁uprising
consistenc
▁instinctive
▁northeast
▁outrageous
▁Mario
▁announcement
▁BJ
▁Julian
▁cock
▁Martian
shift
▁Anas
hhh
mira
▁Jacque
ascar
▁crochet
▁Bear
▁Trust
▁Tiger
▁immigration
▁socket
brew
▁asylum
▁reprogram
▁cereal
▁levitat
▁conc
▁optimiz
proving
zoning
▁bonobo
▁Euro
▁barbershop
▁knob
▁replicator
osphere
▁capaciti
▁compil
▁barber
▁superconductor
▁Rais
▁AV
massive
▁Cross
▁energiz
▁distill
ime
▁spik
▁bot
▁budd
▁Dol
▁Missi
▁Guy
▁Game
▁feasib
ugg
▁forbid
▁Galile
child
▁Hud
mba
▁84
▁exile
osh
▁Convention
▁panick
▁gloom
▁twentie
▁defi
▁articulate
▁discomfort
▁LGBT
▁repertoire
▁curse
▁feminis
▁Bach
▁reservoir
▁DJ
▁Essential
▁funder
▁Progress
▁synthesize
PL
▁elastic
▁tether
▁Chan
▁dye
▁magician
▁newborn
▁disparate
▁medal
▁outsider
▁summon
▁giraffe
▁patriarch
llen
▁touris
amorph
▁mob
▁ethnicit
▁posting
aternal
▁Village
▁MBA
▁sniff
ardo
▁petrol
▁circulat
▁inflat
iful
▁relocat
▁explosive
▁abnormal
▁correction
▁downside
▁Um
▁incubator
▁versa
▁instructor
▁stripe
▁nap
▁electora
▁imitate
▁Mont
▁obey
▁misunderst
▁pneumo
▁Rock
▁timeline
▁intellect
▁Cuba
▁mainframe
▁qua
▁Connecti
▁Getting
▁breakdown
▁Carol
▁fingerprint
▁camel
▁starch
elecommunication
▁telecom
▁Brand
disproportionate
▁peril
▁metaphorical
itra
disciplinar
▁headphone
▁61
▁hike
▁hap
▁honeybee
▁sentiment
▁prox
▁withdraw
tted
▁Sit
liberation
▁twenty
▁primordial
▁homicide
▁tutor
emost
▁Cel
▁fetch
▁leverag
▁reflex
▁Frankl
▁permit
▁crown
▁polish
▁Oak
▁paranoi
▁Westerner
▁reluctant
▁bald
▁Dian
▁Grace
▁rib
▁arous
▁tur
▁unpleasant
▁incorporat
▁spor
▁pickle
▁infuse
▁Shar
▁125
▁canal
spective
▁tyrann
▁misuse
craft
▁complet
urine
eddy
▁Wilson
▁ob
▁Scr
▁convergen
▁possess
▁knit
▁booth
ache
▁Run
▁bonus
▁commandment
▁RO
▁bait
▁premier
▁fitting
▁startup
▁synchron
▁respectful
▁Democracy
▁recommendation
▁ranking
▁Spin
▁Shi
▁complaint
▁ripple
math
▁Jan
▁irregular
ater
piece
▁sponge
▁paradi
▁Ash
▁Contra
▁unexplo
fect
▁flick
▁McC
▁annoying
▁kindergarten
▁Network
▁contradict
▁varia
▁millennial
▁biotech
▁anthropolog
▁grammar
▁comedian
▁skirt
▁penetrat
▁princess
▁Julie
▁Fish
▁adviser
▁Irish
▁Top
▁curv
▁parliament
guel
▁vendor
ubb
▁hippie
▁Fat
▁decease
▁Cloud
▁seizure
▁solemn
▁Chad
▁photosynthesi
▁calculator
▁Massac
▁follower
enture
▁extremism
flow
▁optimist
▁obscure
▁accelerator
▁acceleration
▁aspire
▁interference
▁infidel
▁rotation
▁carpenter
▁Indus
uma
RD
▁AO
lab
▁convenience
▁bugg
▁rode
▁Cars
▁cab
▁plural
▁ribbon
▁cycl
▁Sixt
RN
▁fountain
ruct
▁Eco
▁forager
▁appl
▁echo
▁pedal
▁proportional
▁gorilla
▁89
▁sober
▁Robin
▁pac
▁Burm
bad
▁Lady
secure
▁cling
▁humiliat
▁devote
▁clitori
▁insecurit
▁tolerate
▁modular
▁forehead
fe
▁reli
oster
▁chok
▁Jon
▁toddler
▁Robot
▁geologist
▁Laborator
matic
▁IV
▁ingenious
▁distraction
desirable
hell
▁cafeteria
▁eyebrow
▁cough
▁trickle
▁cult
▁Jay
ender
▁traumatiz
▁championship
vets
▁compatib
▁husk
▁intercept
▁Ardu
▁gecko
▁Point
▁conscience
▁dorm
▁foreground
room
▁promotion
▁coherent
▁Fold
▁degradation
▁verify
▁attorney
stream
▁lemon
MI
▁39
▁perfection
▁Patric
▁terrestrial
cuba
▁reptile
▁disagreement
▁patron
▁Conference
▁champion
osi
▁troll
▁heartbeat
▁dictatorship
▁Teacher
▁Truth
▁opponent
run
▁Pack
▁gossip
ule
▁Evolution
▁Financial
▁Nu
▁Darfur
▁annoy
▁qualify
▁Easter
▁Engineer
▁penalt
▁visi
worm
▁classifi
▁inclin
omi
▁flour
▁distinctive
▁Story
▁Ti
▁sewer
▁rooftop
litude
hou
á
▁audition
▁Night
cock
▁beneficia
▁savanna
▁Speak
▁Rub
▁coil
▁arrange
▁psychopath
▁serial
▁evaporate
▁micron
▁sprawl
▁populat
▁Nichol
▁interfere
link
bag
▁builder
▁lu
▁ecsta
▁communal
▁megacit
▁Verm
▁Achill
▁stink
▁attacker
▁teas
▁Innovation
▁Vienn
▁snap
▁Mach
▁TM
▁braver
▁Cameron
▁Senat
▁multitask
logy
▁competent
▁secretar
unk
▁gradient
▁peek
▁Archi
▁resume
▁Hadr
▁Magic
▁shove
▁bargain
▁dragon
▁balcon
▁Francis
▁bead
▁precipitat
▁Page
▁collide
▁Kind
▁gam
lk
▁plantation
ata
▁offense
▁Jennifer
▁Parad
▁clap
▁holder
▁Portland
▁Fall
▁peanut
▁Eye
anzi
▁acquisition
▁aggregat
die
▁conception
▁suitcase
nonymous
▁Inc
▁Master
▁Mathematic
▁Mahmo
▁cone
▁CT
▁bombard
glasse
▁Dun
daho
pad
atar
▁constitute
ickr
vat
▁rupee
hor
▁motive
uant
▁educator
▁hummingbird
▁remittance
▁SAR
▁proton
▁evaporat
▁BC
▁imaginative
▁Effect
bacc
▁wetland
▁Corporation
▁biops
▁prince
▁informant
▁Close
▁Dreyfus
▁Coh
▁Sue
▁carb
▁seatbelt
▁microRNA
▁Bage
▁fir
▁RG
▁beheading
▁Romo
▁diplomatic
▁Road
▁reconciliation
▁Islamist
▁Teach
hire
▁volt
▁comb
▁relational
▁Guardian
ndra
▁1920
▁ador
omen
▁Ready
▁hygien
sippi
log
▁Though
▁rodent
▁distract
▁swell
▁deflect
▁hurry
elusive
▁plume
read
▁rob
▁disappointment
▁homosexual
▁numb
▁Sri
rock
▁Mall
▁Bro
ronto
▁underlie
▁esteem
▁byproduct
▁Oscar
▁cubicle
ntelligence
▁rigorous
▁goddess
▁nurs
▁disruption
▁decode
▁momm
▁methodolog
▁undertake
▁Cod
▁magnify
▁slipper
▁confession
▁Tak
▁attachment
▁beans
▁reconcile
press
▁prescribe
▁charming
▁charisma
▁compost
▁landfill
▁fisherm
▁Normal
▁buyer
▁instrumental
uver
▁Oil
▁NI
▁renew
▁Cultural
▁entr
▁psyche
iform
▁Pur
▁Barry
▁peripher
▁embed
▁Pier
▁portal
▁Abraham
▁joyful
▁Picasso
riff
▁Airport
▁Birds
▁resign
tale
▁gum
▁mutate
▁alarming
▁yogurt
▁dividend
lett
▁publisher
▁boomer
▁cursor
urora
ali
shot
▁Lib
▁reside
▁Understand
mendment
gged
▁supplement
ending
finish
▁rubbl
▁unhealth
▁Protect
▁rediscover
▁tomatoe
▁dysfunctional
▁insecticide
▁disappoint
▁zip
▁Image
▁Mose
bath
tick
▁murderer
▁Pay
▁pronounce
▁tapestr
▁weave
MF
tel
▁enroll
▁massage
ivor
▁systemic
▁trawl
▁robb
▁ovari
▁mediocr
▁sabbatical
lie
▁pluripotent
▁rhino
▁bury
▁Oz
gas
▁Comp
▁Mat
▁Cause
▁Break
urance
pin
▁influen
▁toaster
▁Mov
▁feat
ahren
▁Photoshop
▁whiske
▁courtyard
▁Midwest
scent
CG
▁replica
▁centrifuge
▁snapp
▁subconscious
▁restoration
▁ceramic
▁expenditure
▁Hondura
▁Jamaica
▁confess
▁pepper
▁diabetic
▁Rain
phone
▁persuad
▁rehearsal
▁hostilit
▁Dar
▁slid
▁Rod
▁amplify
▁browse
▁width
pong
▁Bel
▁fax
▁anchor
▁Jaw
▁marble
▁specialize
▁Auto
HO
ique
heart
▁dislike
ef
▁lous
▁administer
▁TR
▁pod
▁ecologist
editerranea
▁droplet
▁uncover
▁Morocc
▁rex
fell
▁Amazing
▁Canal
▁dunes
▁arithmetic
▁proliferat
▁flex
▁discour
▁embody
▁nomad
▁spam
▁rally
▁protester
▁hugg
▁blunt
▁southwest
▁widen
▁hippocamp
iable
▁nun
position
entagon
▁Barbie
▁tadpole
▁IT
▁nickname
▁Brook
▁escalat
weight
ulu
▁servant
wesome
lbert
▁Joy
▁reception
▁latitude
▁doodle
▁Mine
list
▁superintelligen
▁HP
▁multipli
▁garment
▁smuggl
▁chemo
heid
NT
▁Special
▁communist
take
▁IP
▁worrie
national
▁rejuvenat
erusal
▁exhilarating
▁replication
▁activation
▁vibrant
▁Wednesday
▁sushi
▁Potter
▁forgiveness
Card
▁slate
▁frugal
▁exceeding
▁stent
▁fabricate
▁mangrove
▁Coch
itz
▁pacemaker
▁Leave
emia
olm
flo
▁transgender
▁carbonate
▁Gand
▁Farmer
▁groom
bule
▁skydiv
▁suite
▁nurser
▁siege
▁VR
▁Mello
▁cymatic
▁KS
▁cemeter
▁PH
ertie
▁Justine
hrir
venue
▁vapor
▁Lock
▁Picture
borough
▁reimagine
▁astounding
▁cherish
@
uestion
▁Boo
▁loneli
cia
▁Rosling
▁wealthie
▁ze
▁detergent
quin
sota
▁biomedic
▁graceful
▁objection
▁Katrina
▁charg
vantage
actic
GO
▁drums
▁dwell
▁Lanka
▁perpetrator
▁evoke
▁Agnes
▁Rif
▁weep
▁practitioner
▁parade
hook
▁persisten
▁UCL
▁Survey
▁Trip
▁crosse
structure
▁prosthes
▁handwrit
▁Huh
▁deem
▁catalog
▁Rick
▁unveil
HD
▁overfish
▁PhD
▁Jackson
▁handl
▁Blood
sexual
▁altar
arch
▁vitr
eduction
▁perfume
▁tasting
▁clash
▁poisoning
zen
▁wearable
▁Brain
▁Beep
▁thigh
▁Plato
▁updat
▁untouch
▁appetite
▁flatten
▁inspect
▁degenerat
▁inferior
▁anarch
▁Cut
▁spec
▁Leg
limited
AA
ouri
▁temporari
▁preacher
▁shovel
scribe
▁88
▁hawk
▁summ
▁spectra
▁Language
▁Dark
▁loom
▁bore
▁Met
ö
▁semina
▁Leader
▁pos
▁nin
PO
▁prompt
tification
▁preced
▁jean
▁folder
▁Clark
▁underestimat
▁affection
▁Mob
▁fec
▁privatiz
▁residential
▁bloodstream
bee
▁Min
lore
▁mason
▁bra
hapel
▁Plant
▁vend
▁Twin
abul
aria
▁brillian
▁Traditional
▁jamm
▁uplift
istan
▁dadd
▁junior
▁imperfect
▁coded
▁Jami
illi
▁Ep
▁Sputnik
lace
▁slamm
▁fist
imo
▁Check
▁roam
▁salad
▁EB
▁Len
▁fundamentalism
▁probation
via
▁extraction
▁metro
▁seroton
▁nanoscale
▁broc
▁horn
void
▁Palm
hore
▁campfire
▁fet
▁Hol
▁Living
▁Economist
▁Bam
▁reconfigur
▁coerc
▁forger
▁Ve
▁Director
▁advancement
rbie
▁sanctuar
▁cancel
▁scandal
▁Rush
▁Doug
▁Visual
▁clarify
▁rumor
▁halt
▁corp
▁lip
▁psychotherap
span
▁jack
▁knitt
custom
▁prevalent
▁kitten
ora
▁Luk
II
▁Hispanic
hole
▁cam
▁Creative
▁commute
▁facade
▁Money
▁precursor
▁Gre
ema
▁Were
▁Panama
▁crisp
▁commentar
▁vascular
organic
▁tailor
▁wilderness
worth
▁plaster
▁notorious
▁vague
▁enforc
▁daydream
▁Rem
▁initiate
▁Bert
▁linguistic
▁Pri
▁communi
▁simulator
▁unf
▁sunset
▁speculation
▁pearl
▁Alexandria
▁IDE
▁multiplicati
percussion
▁diar
▁Jur
argass
▁Diver
▁Agenc
▁transcript
▁Neuman
ryl
▁diffuse
▁artisan
▁Superma
▁Bowl
▁scout
ngue
▁nam
▁hanger
▁Guatemala
unus
▁Para
▁blo
use
▁chore
▁excessive
▁windmill
feld
▁ATM
foil
▁DIY
shine
▁arrogan
▁Sand
▁Brig
▁AT
▁Hal
▁Pun
▁discrete
▁shrunk
▁assured
▁Stockh
arian
▁shaman
▁plumb
▁cortic
▁papaya
▁Von
▁eater
▁mandat
▁Barbara
▁congress
▁grizzl
people
nect
ansa
▁Ecuador
SDA
▁malignan
▁Douglas
assem
▁Biospher
▁birch
▁TS
▁vaccination
▁Cup
▁champions
▁clinician
▁41
▁railroad
pend
▁culminat
▁benchmark
▁supporter
▁Stu
▁revolutionize
▁coward
eautiful
▁foolish
▁Believe
PA
▁liabilit
▁surfing
▁undo
▁Lan
▁churn
▁Schwarz
▁fond
▁merge
▁sentien
▁laureate
robe
▁imprison
▁confer
▁Million
ssociation
vil
▁Sala
▁blur
▁Hind
▁imam
▁Cro
mah
▁wove
▁absent
▁Robotic
AP
▁humanoid
▁Orchestra
▁criticize
▁menstruati
▁roost
▁BP
amount
▁crease
▁wrinkle
FA
▁barre
▁UC
▁alpha
▁brochure
▁bundle
▁preferr
▁damag
▁curb
▁amplifie
▁standardize
▁92
▁relay
▁lend
▁thoughtful
▁miraculous
▁neon
▁buffer
wash
▁Pearl
▁Vanco
drop
▁seamless
▁projector
mission
▁Build
ahoo
▁nominate
▁pubert
▁Freud
▁epilep
▁Lou
▁bleach
▁prescrib
▁gateway
▁rug
▁cohesi
▁sophistication
▁Grant
▁Sevent
▁necessit
25
▁eel
▁plausibl
▁Honey
▁plank
hoot
▁aisle
▁inflict
made
▁Dra
▁Yar
▁compose
▁implie
wat
▁stir
▁lineage
▁persecut
▁declare
▁analytic
▁portfolio
▁Sho
▁handbag
▁eruption
▁proxim
wine
▁goose
▁numerical
▁sincere
▁constellation
eera
▁Crime
▁Financ
▁whil
▁auction
▁conven
▁thickness
▁daf
▁misconception
▁Architectur
▁dementia
▁prestig
world
▁Osa
▁Bee
▁pollinator
▁pollinate
▁orchard
▁pest
▁nourish
▁Stalin
▁chopp
▁plummet
▁burglar
▁curate
▁unpack
▁Samu
▁outweigh
▁Malaysia
aries
▁immoral
▁Ann
▁interdependenc
▁intertwin
▁horrify
▁Planet
▁exoplanet
▁Hurricane
▁inhabitant
▁Film
oul
▁prostitute
▁drawer
▁McCa
▁Blair
▁arrival
▁vocation
▁enlist
▁craftsman
▁passport
literate
▁paycheck
▁webcam
▁imperfection
▁Gen
▁liberate
dale
▁fridge
iffe
▁flare
▁dresse
▁Wide
astro
^
▁solu
▁backpack
EA
heim
▁bookstore
hran
rill
▁insta
▁Ukrain
ã
tto
▁hijack
▁segregat
▁Citizen
▁Tro
hun
hannel
dder
▁Hero
▁DE
▁Bra
▁crumbl
▁semester
▁Area
▁Maslow
▁bureaucratic
▁Loc
▁Safe
▁microorganism
▁wizard
▁Federal
▁league
▁balanc
▁Thursday
▁unravel
▁royal
▁Infinit
▁Monkey
itte
▁desperat
▁milestone
▁swam
▁indefinite
▁relat
overt
▁withstand
▁classify
▁neurologist
nitiative
▁bailout
▁phi
▁oceanograph
▁advent
▁shuttle
▁hump
▁paleontologist
osa
▁CB
▁Indiana
iller
▁predominant
agement
▁Kamen
oba
▁orchestrat
▁highland
▁cellulos
▁packing
▁disintegrat
vascular
hik
▁sequester
owing
▁Juli
▁Market
▁grandma
▁autobiograph
rie
▁transmitter
▁doc
▁decisive
▁strapp
ssex
▁resembl
▁cou
▁leisure
▁Kha
▁tweak
▁spaceship
▁Disease
▁Serge
amer
▁skinn
▁TD
▁deepen
▁Baha
ynthetic
PEC
▁snack
gue
▁93
▁nudge
▁sued
▁Billi
▁reverberat
ille
virus
▁Sim
▁filament
leg
▁hail
▁Ja
▁Ranger
▁dull
▁Neil
▁guts
onald
▁revolutioniz
OL
▁Commun
▁bon
▁foam
▁disclosure
▁nephew
▁Khan
▁administrative
▁aerodynamic
▁cumulative
▁impairment
▁Stein
▁pup
▁UV
▁moth
▁decoration
rand
plankt
▁snail
▁AD
▁dragline
pun
▁semantic
▁resourceful
▁cite
▁pub
▁wrestle
▁directive
▁Choir
food
▁antidepressant
▁Clean
▁Pakistani
▁lexicon
uran
▁miniaturiz
▁billionaire
atomic
▁arthriti
▁una
▁Ren
▁recurr
mega
▁reverb
▁Dragon
▁Pac
▁Nano
▁radiologist
▁foreigner
▁astrolabe
▁conform
▁Git
▁Nikola
▁oct
▁MK
▁Announcer
For
She
▁progeri
▁pigmentation
▁weaken
▁inclusion
▁landmine
▁defecat
mobile
master
▁zipp
▁desalinat
▁Mechanic
roadway
▁gravel
▁supernova
tune
▁supreme
▁Mari
▁dissolv
▁dissolve
▁inflate
▁isolate
▁competenc
▁thousandth
▁rhetoric
▁peripheral
▁wobbl
working
▁Galax
▁Proto
▁Studio
▁frantic
▁Grove
▁widow
▁nostalgi
▁clapp
▁sav
▁pendulum
▁bushe
▁actua
trophy
▁Challenge
▁decipher
related
▁orgasm
▁sculptor
▁sham
▁Pitt
▁fearless
▁cradle
▁unchar
▁deform
▁anonym
▁Sophi
▁swo
ç
bound
aptain
▁illuminate
▁transcendent
▁insulat
▁ballast
cross
▁simplifie
break
▁tickle
▁blindfold
▁Main
▁sociologist
birth
▁Dam
zhen
▁Animal
▁repetitive
▁reassure
▁Tw
▁ingest
trop
▁litigat
▁pharmac
▁repositor
▁utiliz
economic
uda
▁quiz
▁duct
▁vertebrate
▁refresh
▁bolt
pirac
▁Bull
▁Hot
▁castle
▁soundscape
▁Hungarian
▁quantify
▁Coal
▁Bryan
▁Ferr
▁Feel
storm
▁dataset
▁Jaz
▁geneticist
SM
▁requir
▁Kelly
▁Micro
▁napkin
▁Humanit
ailing
▁Bin
▁Stand
▁hay
▁bumblebee
▁locate
▁apt
crim
pra
▁centraliz
▁contingen
▁empathize
▁63
▁bac
▁infinit
tti
▁cit
clamation
▁staple
▁prehistor
▁Jose
▁inward
▁transcenden
▁Uni
igr
▁handcuff
▁Festival
▁ridicule
▁Kate
▁Pandora
▁memorize
▁lyric
▁Excellen
▁bruise
▁Collect
▁hologram
▁drip
▁genital
▁Club
airy
▁archaeolog
▁scoop
SE
▁tub
▁unify
▁59
EC
▁Az
▁faithful
▁Further
▁Mobil
appointed
▁firework
▁innovat
▁Place
▁tast
▁disguise
▁duplicate
adequate
ollock
Tun
▁incision
▁recorder
▁Dog
▁Sky
▁mist
▁Sar
▁centric
▁discharge
▁bless
skirt
▁Rap
▁coalition
▁pajama
▁dreadful
▁elevation
▁puzzling
▁Environmental
▁pinpoint
▁poker
▁Diamond
▁Buffet
▁unchang
JA
▁holographic
▁schedul
▁termite
▁pavilion
▁Geo
▁monopol
▁cowboy
▁Rocket
▁compact
Thousands
▁Rocke
▁disbelie
▁temperat
▁applica
▁erupt
▁gigawatt
▁Saul
▁megawatt
data
shes
centric
▁Compare
▁latrine
hill
page
▁litter
▁skier
animate
lick
▁philanthropist
▁Masa
▁fragrance
marin
▁barb
▁antiretroviral
▁Boeing
▁yearning
▁unwa
trude
vatar
▁ponder
▁Mag
▁vase
▁embass
▁deplet
▁Commandment
▁Constitution
▁Boom
▁squirrel
▁whistl
▁mailbox
▁synchronize
▁diver
▁Hus
elli
▁marsh
▁devastation
▁Yemeni
▁Juda
teau
▁irritat
▁Operation
uga
eign
▁prolong
▁Drugs
iation
▁dissent
▁airbag
▁potter
aki
▁harp
▁Bever
▁Edu
▁toothp
chlor
▁prohibit
▁NP
▁encompass
▁Lis
▁euro
▁endemic
▁Giant
▁fictional
▁outline
▁ferment
▁saturate
▁nutritional
▁erotic
DT
print
▁chatt
▁credi
▁Scal
▁Mau
▁Calcu
rash
▁relentless
SG
▁Sha
▁Board
▁neurosurgeon
tree
▁Organ
neous
▁detain
▁Laptop
▁sprout
▁spectacle
▁Hawaiian
▁decay
▁Clay
▁colonoscop
▁Chernobyl
▁Critic
▁rebound
▁undermine
▁raft
▁Diet
▁stubborn
▁plutocrat
▁Sandy
TEM
▁Morgan
▁gha
▁Hul
ference
▁Malt
▁poacher
rana
▁calv
▁Dimitr
▁Bilb
▁Committe
▁dictate
▁instruct
▁captiv
▁localiz
▁marketer
OT
▁carriage
▁Por
▁Fifth
▁Physic
▁hydrant
▁retailer
▁Bueno
▁cyclist
▁messenger
▁Tre
▁Saga
▁Gap
▁TB
▁66
▁tradeoff
▁synchroniz
▁lid
▁drastic
▁slash
▁Easy
▁squeez
▁Want
▁collid
▁disturbance
▁Shad
pulsion
▁deput
▁pat
▁breeze
▁shave
▁Chang
▁eloquent
▁furious
▁periodic
▁tacti
▁exert
pod
▁Tech
▁amoeba
▁lightbulb
▁nugget
fidel
▁protagonist
raging
▁impu
▁reliev
ludge
▁settler
▁advised
▁Ashle
▁offset
▁sprinkle
▁Move
▁Fuller
▁inoculat
▁rudder
▁slap
▁teammate
▁Matthew
▁ignite
rset
▁downward
aggression
▁judg
▁tire
▁Exxon
▁pinnacle
▁Mao
▁maze
▁granddaughter
▁Chair
▁Chief
▁funk
hmer
▁tuition
CO
▁Pain
▁inference
▁recreat
▁adulter
▁financ
▁clerk
▁diverge
▁prominent
▁monstro
▁Tour
▁grader
▁deadline
▁oas
▁surpass
▁immunize
▁fo
▁crippl
▁empti
▁Metropoli
▁discount
▁Environment
▁compensate
▁trainer
▁editorial
▁jig
▁Rev
▁photographic
leton
▁fossilize
ova
▁divert
▁whistleblower
▁avenue
▁stance
▁flux
▁Wind
▁modalit
rado
▁eyeball
▁harass
▁lone
▁Donald
▁referen
▁academi
▁batch
▁hostage
▁Anthon
▁atrocit
▁logarithm
▁advoca
▁1800
▁marginaliz
▁imitation
nais
▁treadmill
hocke
▁dread
▁monolith
▁comparative
▁MB
agne
▁torch
▁demons
▁Bart
▁Buck
▁soak
▁clone
spiration
caust
insk
▁bid
▁Harrie
jev
▁barbecue
▁Box
▁downhill
▁Electric
▁limitless
▁chop
▁perpetual
▁Victor
▁Kh
▁characterize
neurotransmitter
▁cocoon
▁topograph
por
▁char
▁biograph
after
▁thinne
▁dogma
polar
▁Mitchell
▁cooperat
▁cargo
▁enact
▁interval
▁exclusion
▁fanci
▁purse
▁pianist
▁Sleep
▁rifle
▁ascend
▁sailor
▁propulsi
▁suspicion
▁pals
▁census
▁spit
▁Conservati
environmentalist
▁republic
▁dazzl
▁detriment
▁Increasing
▁Senegal
▁Stick
▁Viking
▁memoriz
▁estimat
found
▁ravag
▁quota
▁seductive
▁undermin
▁jerk
▁synthesizer
▁Floren
▁mound
▁Bureau
▁compulsive
▁reintroduc
ija
code
eastern
▁Fey
▁repel
pool
▁stockpile
▁integral
▁spac
▁disastrous
▁reunite
▁patche
▁crest
▁cardio
▁regeneration
▁pine
Vision
▁radiat
aya
into
▁Bond
▁Lau
▁Owen
▁Columb
▁Shack
▁saucer
▁ankle
different
▁capsiz
▁terabyte
▁Simpson
▁strangl
significant
▁Record
▁rude
▁repay
▁crunch
▁grazing
▁ranch
▁divin
▁chin
▁Personal
▁mountaintop
▁Aunt
una
▁Rachel
▁coconut
getting
▁inadvertent
▁dumm
▁attain
▁remedi
▁Pope
▁Trini
▁bagg
▁filmmak
▁Thula
▁awaken
ocation
▁shredd
▁Senator
▁glance
▁Johannes
prene
DC
▁Ahmed
▁Transparen
▁1850
▁mitigate
▁amputation
▁toothbrush
ompassion
▁Litera
▁impatient
▁Gut
▁typeface
▁athletic
▁183
▁Architect
▁Rich
loid
▁isotope
▁contextual
▁kidnapping
▁deceiv
▁expir
▁trespass
▁BR
▁underpin
▁colonialis
▁Transition
▁Gehr
screen
▁Naj
▁beaver
▁precaution
▁exaggerat
▁caption
afi
chk
play
▁niche
mour
▁manta
▁shav
▁49
▁aqua
▁cog
▁Mah
▁pastor
▁Drum
▁mistrust
▁accumulation
▁grandmaster
gence
ental
▁pathetic
▁inequit
▁wa
▁tangle
▁SM
▁Left
lider
▁agnostic
▁Doh
▁choreograph
PT
▁Homer
▁Siftable
▁inertia
▁fluent
▁Feminist
▁tidy
isco
▁mismatch
erence
▁Kerr
usie
ultipotentialite
▁troubling
▁Plu
▁shareholder
▁advis
▁Happi
▁appointment
▁kilowatt
▁rebellion
▁cele
▁Bloom
▁repurpos
▁kiosk
▁Genev
▁turbulent
▁saint
▁paddle
▁Heather
▁Cleve
▁joking
▁Study
▁Dance
▁Kay
▁subtract
▁Highway
▁emanat
▁Nash
▁striving
▁Carri
▁sorrow
▁whipp
▁squirt
▁polarit
▁chant
rou
▁paraphras
▁Parent
▁shuffle
▁rack
anguish
▁legg
urek
▁Math
▁revis
cautious
▁stutter
rich
▁tenaci
▁crapp
▁phosphor
▁haircut
▁Allow
▁actress
▁slim
▁horrifi
▁Gh
▁shoreline
▁gloss
▁conservationist
produc
▁fertilize
▁ensur
▁synonymous
▁bitch
adi
▁spiritualit
pour
peech
▁tactical
▁geopolitical
▁dialect
▁villager
chai
▁conjure
▁sensual
rofo
▁prolif
▁enclosure
▁Gabriel
▁paw
▁Nicole
▁badge
utum
▁clutch
stella
▁sledge
▁outdoors
▁tires
▁deconstruct
iscons
▁deteriorat
llin
▁miniatur
psychotic
▁Psycho
▁Plastic
hotom
▁internship
▁unwilling
▁coache
▁laborer
NES
▁Solomon
▁hotspot
▁generalization
▁Cool
▁Clar
▁steroid
▁comprehend
▁escap
▁Reu
▁101
ubert
▁palace
paper
▁trance
spiring
▁sanction
▁blush
▁ISI
regulat
▁considerabl
▁lust
▁utilize
▁overestimate
▁spreadsheet
▁Fine
▁Pu
▁battl
▁decompos
▁taxonom
▁Commission
▁Standard
▁dung
▁testify
▁Communication
exist
▁Papua
▁fram
▁dic
▁Norwegian
▁octave
ilence
ghett
▁fanatic
▁autopsy
▁tenure
▁eff
▁paintbrush
polis
▁soybean
▁twitch
▁compensati
▁inappropriate
▁Sab
arbaric
▁thirst
zero
▁rejection
▁embodiment
▁Different
plex
▁cramm
view
▁conceiv
▁thro
▁Angola
rruption
▁Matter
▁Rubi
▁champ
▁afflict
▁Row
▁schizophrenic
peg
harmonic
Bits
▁Cruz
▁Cath
▁Ryan
▁Advanc
▁reviv
▁exaggeration
▁Wor
▁spoil
▁Sufi
izard
▁Fred
▁Justin
huma
▁crutch
▁ounce
▁Hunt
▁scissor
▁Goodb
▁dire
boxe
▁edition
▁tease
▁provocative
▁multimedia
▁Cornell
▁pu
▁EEG
ketch
convenient
owa
▁dries
hil
ccasional
rigor
beat
▁Kick
air
▁rearrange
▁graze
▁revolt
▁permeate
▁ambien
▁contraction
▁colonize
rez
▁stark
▁Dubai
▁stigmatiz
▁sweater
▁stunn
Corps
▁colonial
▁intermediar
▁Bare
▁flashlight
▁Explor
▁Opera
▁Mona
▁chainsaw
▁enforce
▁Jarre
▁Vivi
▁idealis
▁skyrocket
▁goof
▁Immediate
▁Biolog
▁Cyber
▁archiv
▁Gla
▁dysfunction
USB
▁advise
▁convers
▁robber
▁glide
▁Generation
face
lude
▁quadruple
▁Mongolia
▁humpback
▁violate
▁recyclable
anthrop
▁189
sea
▁hardwir
▁dwindl
▁interdependen
▁volatile
▁Cent
fund
▁distortion
guil
▁tremor
▁triangula
▁dangl
▁depletion
▁tractor
▁aquari
▁symbio
▁Nino
▁Typical
▁Woo
▁padd
▁perimeter
▁speculate
▁evacuat
nman
▁Kurzweil
▁altruism
▁dissect
▁Gee
▁Mayan
▁adverse
▁conductiv
▁canoe
▁hunk
▁reckon
▁hyperbolic
▁carving
▁therapeutic
▁spectroscop
vich
▁Electro
rift
▁rebuil
▁Program
suit
▁exercis
▁Patent
▁Pool
▁delightful
▁188
▁dexter
▁teapot
▁latter
▁alternat
bury
▁impo
verish
▁apprentice
▁perma
▁remark
alga
▁shooter
▁Hopkin
▁Creat
▁defy
▁rhinovirus
▁innocen
▁witnesse
▁Glacier
overboard
▁digitize
assic
▁scarf
phobia
▁Vot
▁cryptograph
▁Orwell
▁wag
▁pois
▁Ferm
▁spher
▁Needles
▁Summer
▁Hanna
▁crucifi
▁Rama
▁Kuwait
▁Must
mitten
utt
▁stitch
▁spotlight
▁abolish
▁morpholog
▁orchid
▁dropout
▁sovereignt
▁Tunisian
▁swimmer
▁Sadd
horn
▁escort
▁fringe
▁Chamb
▁invert
▁noun
▁salamander
▁intersect
▁cynical
▁reframe
▁evaluat
▁retouch
▁crani
ett
▁Eames
▁acronym
▁Mauriti
▁medicinal
▁utilitarian
▁Sela
tah
▁Enter
MD
▁introspecti
▁sensi
▁Madam
▁ineffective
▁betray
▁proactive
▁Skycar
▁hustle
ige
▁algorithmic
▁monet
▁pediatrician
▁PCB
▁Jamaican
▁videotape
mite
lux
▁CP
▁Cole
▁dissection
▁Roug
▁silo
▁Colon
ave
▁joystick
▁indulge
▁Pic
▁Inuit
▁Burk
▁rag
è
▁dune
▁Diplomat
variabl
▁hypertensi
▁bud
▁186
amara
ALL
iku
cam
▁Scrapper
▁adhesive
▁gig
▁invisib
▁DC
▁CPU
▁biomimic
▁assay
▁synagogue
▁Cho
▁Ern
▁Cyr
▁Mathematica
▁Hyde
▁Huge
▁recline
▁Furby
▁Mozambi
▁kettle
▁metasta
▁truffle
▁Toraja
RC
▁legitima
▁powerless
▁constituenc
▁Fan
atal
▁Somali
▁Grey
81
▁hierarchical
▁fifty
▁Trek
endous
ometric
▁eso
teric
▁Voyage
spora
Vo
▁persuasion
▁reel
▁municipalit
diment
▁sonic
▁stretche
▁dignif
▁Hiroshi
▁Ran
mont
▁banjo
▁Doc
▁heterosexual
▁Nar
▁seller
▁submission
▁Adi
ife
ylor
▁righteous
bou
ourne
▁Barn
▁gluten
▁improvis
▁reciprocal
▁confound
▁Gues
▁worthless
▁Match
In
ymphon
▁Urban
▁electrifie
▁Paleo
▁Gui
▁Kat
▁Gwe
▁decod
▁additive
▁increment
▁animator
▁Action
▁Baker
▁guru
▁anatomical
▁articulat
▁outfit
inous
▁ripe
▁pavement
▁whims
▁affirm
▁internalize
▁Team
▁Mori
ucci
▁Buckminster
▁junkie
▁pledge
▁Develop
▁Poet
▁banal
▁Astronom
▁incorrect
▁intractabl
▁ignit
▁pinch
▁Fra
▁dynam
▁furnace
▁aperture
▁porch
▁dedicate
▁hallucinat
▁oblivio
▁Bonne
▁hyperactiv
▁seduce
MRI
▁thirty
▁dispense
post
▁degrade
▁phthalate
▁contaminate
▁pluck
▁nutritio
▁bureaucrat
▁endorse
▁stealth
▁doorstep
▁calligraph
▁caution
▁thorn
hoe
vant
▁marking
boy
▁Future
▁recombin
▁albe
▁definitive
▁alternate
▁Milan
▁umbrella
cule
▁Trac
▁librarian
▁imbalance
▁rect
▁gelatin
▁naught
▁interpla
ander
▁proteomic
uba
▁Rise
▁zap
▁waitress
▁capillar
▁Circle
▁cruise
▁Noise
ophon
▁protector
▁antidote
▁fork
▁cavit
▁Khal
▁Reach
ffer
▁fluke
▁Clo
▁blossom
▁inert
▁overdose
▁jeopard
acle
▁Holland
▁raid
▁coincide
▁gangs
▁Tap
▁Bolt
▁uneas
rahim
▁acu
proof
▁greener
conventional
enuous
linear
▁smack
▁snippet
▁Eleven
▁reassemble
▁List
▁captive
▁interfer
▁ominous
▁Rum
▁engrav
▁pea
▁scrambl
▁butcher
▁Song
▁exoskeleton
▁lb
▁orthopedic
Global
▁jit
▁Embrac
▁clam
trap
▁strawberr
sensitive
zzi
▁PET
ieve
▁grill
▁prairie
▁Search
extraterrestrial
▁Speci
▁typograph
▁Vel
▁clunk
▁critique
▁Full
▁Raise
▁Glenn
▁mitochondria
▁pilgrimage
▁cosmologist
▁neutrino
▁Extreme
▁monaster
▁juxtaposition
monar
▁Forb
▁diaper
▁propagat
▁dominance
▁stumble
▁SL
tooth
etti
▁alienat
▁dock
liv
▁Week
▁paradoxical
▁dizzy
▁calve
ragg
▁constitutional
▁palli
▁Christin
▁narrat
▁prep
▁guardian
▁scaveng
▁Tweet
text
▁Negro
▁Walker
▁influenc
▁calibrat
▁Spirit
▁reshape
▁Gord
▁lord
▁elegan
▁engulf
▁wasteful
▁unconditional
▁slam
▁incompatib
▁rehearse
▁wanna
heard
▁Nativ
▁urbaniz
▁blockage
curable
ML
▁sausage
▁expo
▁symboliz
nnett
famous
▁Northwest
▁synerg
▁Nevada
Cash
▁Chap
▁Emergenc
▁converge
▁issu
▁exhal
CA
▁uni
▁interconnection
▁phon
▁schematic
▁examination
▁monumental
▁Artist
▁coma
▁Prison
▁amygdala
▁Goul
▁successive
▁Vil
▁outsourc
▁thinker
ulp
▁apolog
▁dyslexi
cocc
▁tickl
▁equate
handler
▁courtroom
▁reservation
▁sandwiche
▁megabyte
▁breeder
▁annihilat
▁prophec
▁hitchhik
▁advocat
▁bik
▁glaze
▁patriot
▁attentive
sonar
▁Whistl
bout
▁1500
uf
▁analyst
▁crypto
▁betrayal
▁fratern
▁defensive
▁Willi
▁hundredth
incidence
▁induce
▁Stac
▁floss
▁futurist
▁formulate
▁Mik
▁wav
▁Tai
▁Wiki
wall
▁hoo
▁memetic
▁Marco
▁bitcoin
▁Relat
▁buffalo
▁surfer
▁headlight
▁narcissist
▁splitt
▁Pian
▁stakeholder
▁Elv
▁insurgenc
ulli
atur
▁Stroma
habi
ubun
course
NBC
▁democratize
liance
Jazz
▁delegation
▁arable
▁Kiv
▁Roll
▁tract
▁microsecond
▁infiltrat
▁chimney
▁Authorit
▁assert
▁scarie
▁responder
▁matur
iji
▁outperform
▁transcribe
▁approximation
▁teme
▁conspir
▁predat
▁leuk
▁magnifi
ori
▁rod
hat
▁dent
▁titani
▁cassette
▁herb
▁petri
▁revert
uza
▁Faiza
▁Independent
▁Manch
AM
▁LOLcat
▁disco
▁Jai
NK
▁confinement
▁fellowship
▁orthodox
▁Poem
▁wretche
▁abyss
▁Raja
▁Male
▁Pleuro
itan
dad
▁synesthe
▁diner
▁questionnaire
▁trickster
▁Brent
▁mockingbird
▁cartograph
▁jirga
akash
▁convulsion
▁SDR
▁malari
▁milkweed
▁Hack
hariot
▁Mushroom
▁toolbox
▁reced
nowledge
▁immunization
game
▁fatigue
▁palat
▁lag
make
▁merchant
front
BO
▁shaft
▁spoon
▁Kite
minder
▁Sustainab
njunction
▁agitat
▁centi
▁Mini
▁carpool
mouth
▁Karl
▁trench
▁cannon
▁devour
▁evad
▁dove
▁plow
location
▁Malari
▁vial
▁philanthropic
▁daunting
▁Poor
▁pragmatic
▁unbearabl
▁abduct
▁tense
▁deliberation
undr
▁marit
▁Michelle
▁Hang
▁Robbi
▁fiddle
pecific
▁clich
▁Hippocrat
▁CL
RS
▁Multi
▁accelerometer
▁Dennis
▁Blind
▁Gross
▁remnant
▁allud
▁Clinic
▁oppose
▁shuffl
▁owl
▁recap
▁congratulat
▁displacement
▁speck
▁loudspeaker
avannah
▁kisse
▁purposeful
▁sue
▁advisor
▁Price
▁sanct
▁dice
credit
▁ghetto
▁interven
▁suicidal
▁offender
cycle
▁tack
▁sequ
▁Kickstarter
▁Levin
▁cheetah
▁runway
▁brass
▁Mmm
▁futil
▁relia
▁Explorer
▁Iron
▁contemplate
▁demolish
▁breathtaking
▁palpabl
▁verifi
▁repetition
unction
▁pollute
▁inhale
ofi
NE
▁presumption
▁Female
▁scour
▁squish
▁Twa
sale
▁emperor
roid
▁Erik
▁stereotypical
▁complacen
▁Writ
▁Devil
flection
▁clan
▁lenti
▁missionar
▁overhear
▁merci
▁truthful
neakerhead
▁hype
▁Foot
▁debut
tub
▁vigorous
▁McLuhan
uick
▁Gun
▁occurrence
▁punctuat
▁Hunter
▁pathogenic
▁Agricultur
▁moan
paid
▁subsidiz
▁qualitative
▁demoraliz
▁exchang
▁clutter
▁Bernard
▁cofounde
▁Double
▁flora
▁uncommon
▁biblical
▁almond
▁circulate
▁farmland
iva
▁interpersonal
▁Anti
▁archaeologist
▁idol
▁coup
▁reversal
▁savage
▁Levi
▁Bac
▁Blackberry
▁stalk
▁emulate
▁Fisher
▁complementar
▁recharge
▁adrenalin
▁tempo
alibu
▁launder
▁investigator
▁silkworm
▁kn
▁craving
▁denominator
▁SC
▁peacekeep
▁Champ
authoriz
▁xenophobi
kov
▁Beaut
▁Alberto
▁Cell
▁eagle
ork
▁Governor
Family
▁horr
lese
▁skillful
aux
scale
▁cyborg
▁Weather
LC
▁pelvi
▁Ow
▁Perc
▁dipp
▁categoriz
▁carcass
hru
▁Ezra
▁reintegrat
▁retrieve
▁popul
hot
▁Might
▁Extra
▁Origin
▁fulfillment
▁beginner
▁tab
▁psyched
▁wasp
▁stethoscope
▁intake
▁handheld
▁expend
▁possum
▁Brea
650
▁cadaver
▁gripp
▁Salva
▁interrogate
▁Marl
▁Ol
▁aspirin
▁lymph
▁Asperg
▁bullshit
▁echoe
icha
▁Mak
▁strat
▁pillow
uitar
▁farthe
▁obscur
▁snowflake
▁font
▁reign
▁loyal
▁extrapolate
▁leash
▁disseminat
▁05
▁understate
▁Member
▁cynic
▁rewrite
▁Town
▁institutionaliz
hydrophobic
▁windshield
▁wiggle
▁substrate
▁bunker
▁Conscious
CH
RES
▁gasse
listic
▁wiki
▁Empath
▁myriad
▁comprehensi
▁unres
▁endure
▁deception
▁Train
▁patern
▁Impossib
▁exaggerate
▁Affair
▁partisan
▁Polar
▁counteract
▁yacht
▁Friends
▁thou
▁Occupy
▁obsessive
▁stabiliz
▁debat
▁Dari
City
▁narrator
leigh
milk
▁Chef
ita
▁Chu
lender
▁tedious
▁succumb
urani
▁communicator
▁Culture
▁Shah
▁hospice
▁eternit
▁domesticate
▁regrow
▁Nak
ET
▁Guard
▁headset
▁Elephant
▁Dust
▁Invest
▁adapta
▁Dominican
▁Alf
▁administrator
▁beacon
▁Beatle
▁counselor
▁Termina
▁gigabyte
▁northwest
▁playwright
▁fox
▁replay
MT
ggy
▁swoop
▁gardener
lima
▁symbiotic
TC
▁propagate
▁dressing
▁excavat
▁hyena
▁genitali
▁quotation
▁misinterpret
▁Bess
▁Whale
▁crave
aunt
luster
▁sliver
▁quartz
bject
loud
▁barcode
▁Magn
▁revisit
▁timescale
▁dimm
▁safeguard
▁shutter
▁Smart
▁Marcel
▁Jabb
▁archetype
▁Baghdad
▁psychoanaly
▁Made
▁commemorat
pact
▁Crowd
▁slug
▁Euclid
Demo
▁Div
▁Hoo
frost
usp
▁BE
▁FS
▁conduc
▁advert
▁marginal
oscop
▁Kai
dministration
▁persuasi
▁nut
urgeon
▁pota
erkat
▁Kam
▁Mosco
alph
▁Uru
▁Leib
▁Equal
▁charm
▁genealog
▁glaci
▁forensic
blood
balone
icit
normal
▁lurk
▁Tel
iri
▁regress
▁residual
▁precedent
▁malleab
▁puddle
▁damp
▁accountant
▁crane
▁rigg
▁Athen
fit
plat
▁frown
▁Jak
inister
▁Carbon
▁setback
vicin
▁scooter
▁microprocessor
▁delicac
▁EP
▁plumber
▁lexicograph
AW
zza
▁spear
▁lumber
Choos
▁Bur
russel
▁salv
▁Farm
▁clogg
▁filth
▁Cameroon
▁Buddhis
▁derivative
▁stab
▁mourn
▁dismay
▁helic
haraoh
ninsula
▁propel
▁Damas
▁Burn
▁relegate
▁Shaba
▁Stux
▁justifie
iki
▁eject
▁amputee
▁Latino
▁neutron
RCA
▁Send
▁terrace
▁Linu
▁Table
▁antique
▁cascade
▁armpit
▁circum
▁grenade
della
▁clump
nuck
▁Shephe
▁photoreceptor
▁streamlin
▁Bina
▁LE
▁catheter
▁cannibal
▁prohibition
–
▁EC
▁Lindberg
▁firefighter
ombe
▁Hux
▁Huck
▁Okapi
▁tembere
▁salut
▁civiliz
▁Meli
▁Shri
▁techno
hound
▁condense
▁Burt
▁perch
▁emulat
Strip
▁peasant
▁conceit
▁gasp
▁suspension
illion
▁spook
▁adore
▁configur
rilliant
▁soundtrack
▁ballistic
▁astrophysic
▁Battle
ylon
▁LI
▁McG
goon
▁Wang
ampaign
▁Protest
▁judicia
▁groove
▁Vagina
▁clearance
▁prick
onia
grin
▁comeback
▁Front
▁Mandar
▁Experiment
▁coarse
▁actuator
▁complian
DR
▁roadside
▁Drive
▁Pick
izzy
▁Hai
▁swapp
▁sympathetic
CS
▁Wint
▁destitut
▁pH
▁boundless
olic
▁Aspe
person
▁affirmation
▁watershed
▁Pepsi
▁Access
▁proto
▁experimenter
▁resonat
▁condens
▁elevate
▁fearful
▁Period
ngular
▁scrutin
▁Musk
▁genre
▁surreal
▁glut
▁takeoff
▁coherenc
▁backbone
▁intermedia
▁pediatric
keep
▁bun
▁romanticiz
▁jurisdiction
▁leftover
YU
▁magne
▁camouflage
▁cryptic
▁whack
▁compartment
▁quirk
▁Siri
▁Kafka
vous
▁impossibilit
▁Cage
spoke
▁boycott
▁identifie
▁dodg
▁reappear
▁converg
▁dilut
▁situat
▁Photograph
▁Press
▁LA
▁Smok
▁Spread
▁frail
▁chronological
▁radiate
▁sift
ecutive
▁Olymp
▁milligram
iscal
▁fluctuat
▁consolidat
▁flapp
▁bully
▁alleged
▁venom
▁starve
▁hallmark
▁Choice
▁chap
▁Bau
▁postulate
wire
▁hardship
▁disseminate
▁feast
▁enigma
▁disengage
▁reorganize
▁Share
▁Improv
ncyclopedia
▁secre
▁Mid
▁homeowner
▁Hazara
▁minaret
▁evangelical
▁phantom
▁dash
▁marinat
▁Hat
▁funnel
▁consol
due
▁brittle
▁Gang
escence
▁bubbl
▁Ubu
▁recess
▁pageant
▁interspe
▁Java
▁dehumaniz
donna
▁dessert
ieber
▁Univers
▁vener
glass
shaw
▁semiconductor
▁Angelin
▁caterpillar
▁pasture
▁Capit
wick
▁Dap
▁Egg
▁dictat
▁cobble
▁Hamme
▁renovat
▁Treat
current
▁Alp
Murdo
ocardi
elow
▁epidemiologist
▁smuggler
▁correlat
▁cartel
idal
▁aristocra
ears
▁Carlo
▁Claud
▁multicultural
▁Command
▁liar
social
▁moonshot
▁oblige
▁Curiosit
uz
▁Shark
▁ditch
deli
▁Eagle
▁Born
▁regrett
▁handout
▁Comic
▁motel
practical
tcom
NH
▁quot
inson
▁pharmacolog
▁rattl
▁reconsider
▁Grab
▁spat
▁anecdotal
▁transducer
▁correspondence
▁Express
▁Jet
▁purg
▁inhuman
▁plight
▁heap
▁barbaria
minent
▁agoniz
▁scor
broken
▁masculin
▁Wagner
▁bonuse
▁spru
gmatic
▁entitlement
▁District
halt
▁fright
▁Runn
▁Crick
▁reductionist
lle
awn
▁nav
▁solicit
▁choreographer
▁Rosi
cake
osaurus
▁Eat
inform
▁Entropi
▁Pluto
load
▁Rhode
▁Reef
▁lattice
▁misinform
▁franchise
▁epoch
▁squatter
▁roommate
gali
▁muck
▁driveway
▁commuter
▁Magellan
▁geolog
▁instill
▁discourag
▁effortless
▁Convers
▁Lamb
▁aroma
guard
osses
▁Goldi
father
▁ruthless
consistent
▁graft
▁encapsulate
▁Chev
lliance
▁shad
▁bestseller
▁Found
▁translucen
▁Desc
artes
▁mite
luck
▁patt
▁Tyle
▁undoubted
▁elicit
▁Ham
▁RF
▁Morning
▁Dome
agger
▁Designer
transplantation
▁unprepared
▁Doro
▁imprint
▁navigat
▁proclaim
▁immerse
▁chole
terol
▁Partners
orium
ief
▁Pant
▁stride
▁oversight
▁abid
▁cyberattack
▁Buzz
▁electrochemi
▁substitution
▁hashtag
▁caricatur
pruden
▁shortcoming
▁vaccinate
▁Lof
▁debilitat
tainment
▁Wol
▁Valentin
CR
▁provok
▁Cous
NICE
▁Journalist
▁Rwandan
otho
▁recite
▁Studie
culu
CK
ample
▁patroll
▁Wool
▁kelp
▁usher
▁nann
▁submerge
reconceive
▁Emer
istence
▁Lance
▁Horse
▁pupil
▁deteriorate
ndent
▁retrain
▁disclose
▁thermostat
heav
▁ledge
▁superficial
▁propriet
rush
▁Hart
▁Harris
▁Bangladeshi
▁bount
▁accompany
▁Lucas
▁overlapp
▁Victoria
▁healer
▁Lion
RI
▁dissipate
ieu
▁muse
▁Klein
icular
quest
▁Complete
gora
▁Institution
▁sack
▁mime
▁pseudo
▁novelist
▁IPC
▁locker
▁discern
▁Newcast
▁implicat
▁momentous
▁hopp
ugger
erine
▁forage
▁Guil
▁HT
▁Roth
simplification
IPP
▁uninhabit
sophist
▁eminent
▁Harbor
▁remodel
▁Wonderful
▁Moll
▁revive
▁hinge
▁Goth
▁Arno
ogeno
▁nozzle
▁discriminate
▁Kni
rexit
▁Belgi
▁consultation
▁preoccup
DD
▁mindless
▁Muti
▁laparoscopic
▁neurologic
▁bodi
▁Viagra
iev
▁affectionate
class
▁Cru
▁vow
lvin
uja
▁decoupl
▁advertise
▁Anatom
▁sourc
▁prosc
▁displace
▁brak
▁peeling
step
▁linger
▁gospel
▁Tibetan
▁erode
▁critter
▁archer
▁await
▁Metaphor
▁egalitarian
conclusive
▁Bris
▁attendant
▁Explosi
▁fable
TV
▁petal
▁Yak
quart
▁sandstone
▁excavate
▁enhancement
▁Geoff
▁recursive
Hex
▁Investment
▁externalit
▁Bag
▁Hung
▁spice
▁commonalit
▁contempt
eventeen
▁sectarian
▁socializ
▁Hallow
▁Researcher
▁Fellow
lbatross
▁departure
▁crystalliz
▁experien
hemo
▁rectang
▁quark
▁Rag
www
▁parody
▁flake
▁dissonance
▁randomize
tonia
▁Speed
▁headwind
▁restraint
▁crowdsource
▁babe
platin
▁subtitle
▁Flo
▁caste
ulite
▁cushion
▁Reserv
▁Phone
▁Klei
▁alleviate
rgill
▁Greg
ü
▁Malala
▁WorldWide
▁Collaborator
▁EV
▁Tata
▁retract
▁desiccat
tzman
▁Gayl
▁Brunel
▁Sutherland
▁twentysomething
▁uber
▁Gad
▁arrowhead
▁glider
gham
▁Judge
▁dirigible
ipher
▁germinat
▁Denisovan
▁bimetal
▁Kera
iti
▁legislator
▁nicke
▁stove
efront
▁foul
▁galact
▁Dav
▁Dec
▁Apart
▁unsurprising
▁Cook
▁tireless
▁calamit
▁avert
▁premi
▁Hugh
cted
▁km
▁lumin
▁seren
▁Mai
▁lobbyist
▁babysitter
▁Provinc
▁Idea
▁griev
▁razor
▁Jung
▁tray
▁pistol
▁hijab
▁radicaliz
eanor
▁accord
compromising
gist
▁coloniz
▁Mali
▁boardroom
kinetic
▁scribble
▁infanc
▁Perr
▁Fitz
zu
▁adage
▁EU
▁dissident
grunt
▁jogg
▁flirt
▁murmur
▁Fernand
▁Coral
▁bulldozer
▁Cura
▁magnific
▁tentacle
▁Glori
▁Violen
▁retaliat
▁nude
▁telegraph
ectom
▁residence
▁ballroom
wave
▁ministr
▁biscuit
focal
desic
AT
▁Moderat
▁containment
▁turbulen
▁Rotte
▁provoke
▁bionic
▁Kath
▁Correct
▁nagg
▁Nicola
▁Beside
▁percolat
▁Total
▁tanker
▁boast
▁Bird
elimina
▁sane
▁cataract
idair
▁depiction
▁streak
cumber
ploy
▁Coli
▁bigot
▁darling
▁Meet
▁pedagog
▁cloak
▁sparse
▁sampl
▁Torture
▁scourge
▁Emotion
▁gratuitous
▁Wins
▁crow
▁Ethiopian
known
▁Lick
▁Lie
phage
▁latch
▁Vaccine
▁Burr
▁habituat
▁restroom
▁covet
▁Sacr
Bot
llusion
rmant
▁Aaron
crow
▁breastfeed
▁Physical
▁inconvenience
uru
▁convolut
▁spectator
▁vista
quake
▁Archive
▁Ear
▁Investigat
▁overflow
awkins
▁raisin
CAT
annica
▁Create
▁Kendal
▁remorse
▁territorial
▁sunk
▁youthful
▁eavesdrop
▁Minute
▁hypocri
▁disillusion
▁facilitator
▁Curve
▁Horn
▁console
▁leapfrog
ecession
▁Walt
▁manic
▁blackboard
▁huddle
▁perk
▁Cow
▁Anni
▁Aldo
cero
kee
▁Haz
▁Karen
▁Momm
▁Sto
▁Casa
▁inevitabilit
▁Chek
▁fingernail
▁Chau
▁necklace
▁Frequen
▁Gaga
▁trader
▁revolv
taka
▁Jar
▁cutaway
▁Hour
▁burger
▁Bolivia
▁Kazak
▁Edge
ception
misunderstanding
▁compliance
▁hysterical
etter
▁hideous
▁Adult
▁irresponsibl
nourish
▁savior
▁beehive
▁Gate
conduct
▁Target
▁enthusiast
▁Kara
▁Alto
▁crowdsourc
rogat
pparent
▁LM
▁fleeting
▁Success
▁Scream
▁Goldberg
▁preview
jet
protect
▁Independen
▁Rabbi
▁undergrad
▁devotion
▁commut
Built
▁tornado
ritage
▁bipartisan
▁deregulati
▁Vin
▁longitud
▁Ultra
▁corrosi
▁diagonal
▁styl
▁Macintosh
▁Log
pressive
erox
▁conceal
▁broaden
Ship
▁impart
▁Ventur
▁insufficient
▁chatter
▁Craz
▁sequel
IP
▁Helen
player
▁corona
▁Scandinavia
▁lush
▁burrow
▁angst
▁Complex
▁urchin
▁seaweed
▁succession
▁ESP
dence
▁skim
▁eeri
▁pebble
eeming
▁Jacob
▁Protocol
▁harassment
▁Persian
▁Eli
▁muffin
▁juic
▁Cloni
▁biochemistr
▁Atten
▁concoction
▁mango
▁cricket
still
▁conceivabl
▁snowboard
▁GCSE
▁warden
▁Bit
▁Maya
▁circus
▁trivia
biotic
▁Rust
rbor
▁anthr
▁Beli
▁predictor
▁hypothesize
▁Belt
▁meltdown
low
▁defender
▁retrospect
▁sitcom
fill
▁Blog
▁Silver
▁twirl
▁turkey
▁bride
▁dupe
▁unload
bright
▁bale
plasma
ethyl
▁Commissioner
▁villain
▁prosecution
▁accusation
▁eyewitness
AB
▁sunscreen
▁Dolphin
▁palette
▁sadde
quawk
▁appendage
▁militant
▁Patriot
▁mislead
▁adversar
avail
▁desolate
▁unrel
▁footnote
articular
▁Cliff
▁audit
▁Electronic
tolerance
▁Autonom
▁shorthand
▁leaflet
▁Combin
▁Ancient
udi
▁Fro
▁destabiliz
▁frostbit
▁Purpl
▁progen
▁insurgent
▁delegate
▁jumble
▁beneficiar
restrain
▁qualification
▁granddad
▁Assembl
▁Ahmad
▁runaway
▁Drug
▁subordinate
▁gratifying
▁reminisc
▁gourmet
▁poach
▁ensu
▁breakup
▁Invent
ungu
▁Sinclair
Tech
▁Cheeto
▁infringe
▁feud
▁Liver
▁Bre
▁Ana
▁motivator
▁Connect
▁voicemail
▁illitera
▁Fun
jack
▁categorize
chondr
misphere
raille
ppos
static
▁UFO
▁peck
theism
▁AAA
▁Honk
▁foresee
▁ammoni
ivore
▁Volvo
▁gatekeeper
▁adventur
▁bottleneck
▁Product
▁Popular
▁merger
▁specifi
finance
▁SUV
▁Liquid
erkel
▁Resist
ocracy
▁microfluidic
▁oncologist
nuclea
▁Gravit
▁Uber
▁enshrin
▁binocular
▁sacrific
▁abdomen
▁Tusca
azzo
▁baffl
▁Proust
▁Holm
▁Turbo
▁omni
apest
▁Berg
elle
▁specialization
▁copulat
▁Montre
▁Heath
▁rake
▁Bacteria
▁Wur
catch
▁Blak
llows
▁sentenc
burst
▁irreversibl
▁congregation
▁iterative
▁Vibrio
▁virulen
▁crook
▁unknow
ethos
▁refuge
▁Patagonia
▁Elder
▁Cesar
▁gambl
▁Finger
▁Communist
▁prima
AE
▁commercializ
▁wheeler
▁hoop
▁Shredd
▁inexorabl
▁Coach
▁Aquariu
▁mangle
▁mute
▁involuntar
▁hesitate
▁pathologist
▁Sebastia
dside
▁stagnat
▁bandage
▁Remarkabl
▁intricac
▁decreas
▁Mouse
▁petrochemical
▁lobbie
▁zebra
LL
▁constituent
▁restless
▁Axi
Mail
deal
▁empathetic
▁enchant
▁Ironic
luctu
▁brin
▁Off
sava
▁Responsi
▁Bori
▁overreact
▁filing
▁Sev
▁123
▁bleak
▁epileptic
▁Neuro
▁splint
▁metaboliz
VA
irming
▁Kant
▁leatherback
▁Tamil
▁broadcaster
▁matriarch
wap
▁phenotype
culin
▁concussion
▁procrastinat
▁temperament
▁Fight
▁Sardinia
▁JE
▁Sandr
▁Utopia
▁pessimis
▁underdog
▁infantry
▁Summi
hopstick
ampire
▁weblog
▁bleep
gaga
▁coffeehouse
irstream
▁neuromodulator
▁entail
▁reassuring
▁outlaw
▁wagon
▁propa
ario
▁Darwinis
▁Traffic
utilize
▁Bike
280
process
▁1890
khar
▁serendipit
▁presume
▁Monro
flyer
▁cardiologist
xygen
▁Compar
▁Odd
▁ooze
▁perish
▁idle
▁occupan
▁slack
▁Graduate
▁hoc
▁undef
▁Prussia
▁Holi
▁Sign
▁Appalachia
▁roar
burn
onologue
▁frivolous
▁shard
▁unsafe
▁maim
tute
turn
urk
▁Serbia
▁Slov
woman
▁marche
▁subvert
▁Era
▁extracurricular
▁custod
▁haze
▁Dynamic
▁giga
▁wack
▁cob
▁donkey
▁Faci
▁Loren
▁polyp
▁cingul
▁lifesav
▁Condo
▁capp
ctur
▁Name
▁feedstock
▁preferabl
▁formulation
▁Protei
▁compartmentaliz
▁Fash
▁deficienc
▁augmentation
isplace
▁bliss
ongratulation
factual
▁contraption
istrust
▁Socrat
▁Paper
▁redempti
▁Sag
▁Rosali
▁drape
▁grandson
▁Grandpa
▁Kerm
▁misdiagnos
▁geometrical
▁recapitulate
▁syllable
▁Mira
▁serendipitous
▁evict
▁Opportunit
▁referral
▁Ferguson
▁engender
organiz
▁supervisi
▁bachelor
chromat
bill
GB
▁wit
▁cherr
▁LS
▁condescen
▁Conservative
▁Person
▁redistribut
kit
▁mischie
▁diligent
▁lame
▁Fountain
Write
▁sneeze
▁Jong
▁crate
▁pellet
arcelo
▁heroine
▁prosecut
▁legislature
▁landline
itzer
▁procreati
eligi
CU
▁Cret
▁Ordinar
▁expansive
▁squash
▁scalp
pros
▁botanical
▁Raz
▁extremit
▁dishearten
▁Hamp
▁bilateral
▁neurolog
woosh
▁monoculture
roa
▁hedge
sumption
▁repairab
▁Definit
▁swor
▁depart
▁precipitous
uett
▁warlord
▁freight
▁Giacom
▁relieve
▁savor
▁brigade
▁Obi
▁brace
▁bankruptc
▁archaic
▁Atlas
▁rugged
▁torment
▁Gail
▁Keene
▁eleven
▁Multipl
▁falcon
▁Temple
▁multitude
blanc
▁override
▁wrench
▁theorist
▁exhaustive
▁virtuoso
uvre
▁Liz
quoi
▁Adapt
▁Surpris
▁grit
▁cliche
▁Shaw
▁culprit
▁colossal
▁grandkid
▁reforest
▁versatil
▁Silk
▁osteo
▁reimagin
▁illustrat
▁waterproof
hstan
▁Population
%
trial
hospita
interest
▁absorpti
▁flicker
▁trolley
▁Lauren
▁Bow
▁signifi
▁Joan
▁69
▁HA
▁rejoice
▁circl
▁profan
▁superorganism
▁gigaton
▁Direct
▁ellip
▁catalyze
▁blip
▁successor
▁millionaire
asa
closure
▁bastard
wind
▁Kub
▁Tib
▁Beat
▁gibbon
▁Orange
▁valu
▁Declar
▁Enjoy
▁buff
iyan
▁Vice
▁homophobi
▁pundit
▁perverse
inted
▁gravitate
▁reshap
characterization
▁Path
▁grum
▁elude
▁Official
▁Shuffle
▁Remi
▁typewriter
▁astrolog
otter
▁Enro
▁Kahn
▁Character
▁Myster
▁Spielberg
▁emancipation
▁Dakota
▁resent
fare
▁electromagnet
▁bankrupt
▁landmark
securit
▁quadran
▁biomarker
▁logistical
▁turm
▁alchem
▁Terra
western
▁rot
▁Perform
▁glorifi
▁juxtapose
▁precede
▁Statu
▁cathar
▁Ful
▁Rican
planetar
▁expanse
▁climat
▁Nucle
▁terawatt
▁warhead
▁photovoltaic
▁martyr
▁stroll
bioreactor
▁McKi
▁seedling
▁assassination
▁Sultan
▁exuberan
▁Bright
▁franc
▁outlook
▁smog
▁Mice
▁modulate
atre
29
▁smelt
▁repulsive
▁moonlight
▁dashboard
▁creed
▁rung
▁epiphyte
▁Chao
coma
▁amphibian
▁Drop
▁knight
▁Kool
discreet
▁Race
▁Veteran
▁buffet
addock
▁blaz
▁homeland
▁impediment
shmi
▁Honor
▁subsidize
▁Cave
▁overconfiden
▁Claus
▁Refugee
▁humiliation
▁doughnut
▁tournament
▁youngster
▁swift
▁Yama
▁holo
▁adept
▁palimpsest
▁compel
park
▁sec
▁libertarian
▁Principle
balance
welt
▁pitiful
▁vault
▁gauge
aire
▁pap
▁oversee
▁salien
apoli
▁MOOC
▁Hungar
▁reboot
afel
▁Ignor
▁darn
distinguish
presence
▁graphical
▁encouragement
pression
▁viewers
▁Typ
▁enclos
geant
▁gunshot
pocalyp
▁antioxidant
nthia
▁Salt
▁Flow
vana
adema
▁shiver
▁TE
▁hibernat
▁Matth
▁illustrator
▁Fuku
▁Frankenstein
▁unsettl
▁Paol
▁Grave
▁nanotube
▁verna
▁capitaliz
▁coupl
▁Goose
▁Income
▁virulent
nvisibl
imply
▁Album
fix
▁slapp
church
▁geyser
▁revitaliz
▁Taji
▁retard
▁reiterate
▁Content
▁unsuccessful
▁supernatural
pine
▁spinneret
▁decimal
▁valuation
▁graveyard
system
▁Antoni
▁vigil
▁purifi
▁Grame
▁contend
▁airstrip
coherent
▁sensational
▁Operat
▁Wo
▁coexist
▁contour
▁ferocious
▁ulcer
▁riddle
▁Proct
▁Gamb
keeper
▁subscribe
▁rotor
▁certification
▁Malthus
▁earring
▁Wilk
▁Consumer
▁vine
▁Schr
▁hurd
▁Samar
midst
▁obedien
▁showcase
▁converse
▁compuls
▁mechanistic
▁schism
trium
▁skyline
▁NO
▁mosaic
▁deflation
▁keyhole
nya
▁Stem
ggie
▁disrespect
▁crevasse
▁granular
▁agri
business
▁Cens
▁Eisen
exhausti
▁unpopular
▁shrub
ogi
▁permitt
▁lunchtime
▁consorti
atari
▁Religion
▁fuss
▁affordab
▁trump
▁academ
▁escalator
▁biomechanic
▁spew
▁asthmatic
▁tenant
▁Ottoman
▁Confuci
▁Albania
ennial
▁sculptural
▁Fau
AIDS
▁memo
▁Won
▁opossum
▁affirmative
▁anesthetic
▁Poli
layer
▁Kuznet
▁despi
▁modul
▁Carme
▁affluen
▁megafauna
▁Sahar
hocolate
▁Rad
▁reviewer
▁screenshot
▁rhyme
▁delta
solat
atcher
▁Frost
continent
▁motorbike
▁bidd
▁bloat
▁reformer
▁Leh
mail
▁quadriplegi
▁euthan
DL
▁senator
readnought
▁Hemlock
armac
avage
▁preconception
potent
▁buckle
▁Meta
▁decompi
▁sunrise
▁suffocat
▁cedar
▁bask
▁rhythmic
▁impoten
sitation
MG
▁Cheetah
▁cornerstone
▁Rafi
▁Stephan
plin
▁Emba
ethical
▁manifesto
▁Blank
emise
▁lunat
▁Caucas
▁soprano
▁Disgust
▁unsuspect
▁sophomore
reek
▁Ghanaian
▁Olu
▁visa
▁boulder
▁clot
▁seeker
uinea
▁biennial
etris
▁wingsuit
▁psychic
TP
▁Breath
▁newsroom
▁Gill
▁Ave
▁cigar
saurus
realistic
▁Pleo
crony
conceptualize
▁sulfate
▁Matrix
▁Tamp
▁cauliflower
▁1860
▁Navi
▁moratorium
▁Capital
▁Ferris
▁Clap
umblebee
▁Atkins
▁Okinawa
▁Dew
▁ligament
▁habe
rajan
▁Krishna
▁Lynn
▁Barric
▁tepui
▁constru
▁valentine
▁papercutting
▁Carder
▁Tembere
agenc
▁Rabi
▁Oslo
▁Hama
spirational
▁circumcis
▁landmass
▁thermodynamic
▁stud
▁DU
▁frenz
▁wisp
lios
▁majest
▁foll
▁Knight
▁steriliz
▁dweller
▁Livingston
▁Volunteer
▁Month
▁eclipse
▁coalesce
▁chirp
▁encroach
▁entrenche
▁redirect
▁wrath
▁Jeep
▁Namas
▁Croatia
▁indebted
▁auntie
▁mutter
▁invok
▁Yugoslav
▁alchemist
▁Balkan
hai
cade
▁Marx
▁sponsorship
pock
roni
MPA
SS
▁Limb
AS
▁grappl
consequential
▁perpetuat
arriage
▁Instagram
▁emerald
impos
▁idiosyncra
▁Initia
▁51
▁collateral
▁freezer
▁vigilant
▁inundat
▁Twist
▁misogyn
▁Sexual
▁Integrat
▁lucifer
▁EPA
▁shipment
▁deduce
▁fallac
ux
▁pulley
▁Tribe
▁Inspire
▁avid
cursion
▁lament
▁Gorge
▁Guang
▁cottage
▁Mega
▁bonk
▁handkerchief
▁Frog
▁roast
▁figment
▁convuls
▁hexagon
▁beverage
▁retriev
▁Medic
▁Powel
▁devalu
▁grandpa
▁Berm
▁skater
▁mortar
▁Broad
▁biofluorescen
▁lizard
▁twinkl
▁Folk
▁unintentional
market
▁traitor
▁knuckle
▁Kno
▁Elio
▁Volta
ixon
▁crayon
▁vermi
kara
▁backseat
▁Lear
ñ
▁prose
▁validate
▁Blow
▁wildfire
▁trumpet
▁Seth
▁concession
▁sociolog
bring
▁Spence
xter
▁unsur
▁roaring
romeda
▁inflammat
▁archeologist
▁predictab
▁diversif
▁Charter
▁Beatrice
▁Czech
▁Bulgaria
▁wiretapp
▁overtake
▁doorway
▁Labor
gulf
▁Amunds
▁allergi
▁locust
▁serpent
▁terminat
▁freestyl
▁gruesome
▁reciproc
zanne
bbing
▁Tribun
▁Wheat
▁Reddit
▁syllabus
▁residu
productive
▁adhere
▁Reason
▁sixteen
hri
▁preemptive
▁appalling
▁Philipp
▁subscriber
▁declaration
▁Sister
▁unplug
▁tortoise
▁chariot
▁decree
▁registr
▁amend
▁picket
▁idealiz
▁Concert
▁Mendel
▁Brah
▁Piece
▁GI
▁clown
▁utensil
▁overheat
▁Nova
IUC
▁woodpecker
▁concede
▁Klee
▁Liberal
▁deluge
▁piercing
▁siren
▁sniper
bank
▁captivat
▁conscientious
ault
▁bioengineer
▁coincidental
▁karat
surmount
▁Watt
▁Bomba
▁Kashmir
ulent
etallic
▁voil
▁Kevlar
▁CSI
▁Basin
▁Uzbek
▁GMO
▁Morris
▁Heaven
Sphere
▁overstate
cloth
case
▁saliva
▁outlier
▁elde
evel
▁sabotag
▁dissatisf
▁exhilarati
acama
uterin
▁TEDM
▁altruistic
▁Caraca
▁Fact
educat
▁incubat
upper
▁Chaga
EO
▁buoyan
▁Lex
▁Piazz
▁intensifi
wksb
▁chorus
▁unsolv
▁drench
▁throne
▁prognos
▁braille
difference
▁Bla
▁voucher
bane
▁subscription
▁abbreviat
▁Sally
▁Kardashian
coat
▁vintage
▁handicap
ague
IB
▁canyon
▁meteorite
atchi
▁renegade
▁lagg
▁strait
▁gamble
▁nostril
▁Touch
▁Napoleon
▁Legend
▁ocul
▁loot
▁interconnect
▁Extrovert
▁parse
▁temper
▁Clai
▁unquot
▁Eddi
▁impersona
▁angiogen
ecca
▁congratulation
▁cyclone
▁Terrorist
rucker
▁Twi
▁Industr
▁metabolize
▁panpsychis
▁emblem
▁slick
▁rehab
▁Giulia
▁inventive
▁erection
desk
▁stagna
▁envelop
▁dilute
SP
▁stirring
▁innoc
▁999
▁induction
▁quilt
▁regenerat
iliac
▁Barri
join
▁landlord
▁municipal
▁Mahab
▁Terminal
▁guise
▁Rosa
happiness
▁incapab
▁predecessor
▁shred
▁songwriter
▁upstream
will
▁Correction
▁Branson
▁miserabl
▁Mort
taph
▁ellipse
activity
▁hassle
▁renown
▁plato
uthentic
coast
▁Cartesian
▁Cambria
▁Original
ishop
▁Kelle
▁tenet
▁contaminant
▁Friend
▁postpone
▁Programme
grown
▁interrogati
▁snatch
▁Billion
▁sunflower
▁Bobb
▁Slim
▁echolocati
▁acoustician
▁slur
▁vocaliz
▁discriminat
▁Pax
▁parcel
▁subtl
▁receipt
▁Potato
▁Rita
▁pony
dimensional
▁Shin
▁heighten
▁biochemical
▁quarantine
▁prosod
▁Marie
▁hegemon
▁Fab
▁Googl
▁crossover
▁mesmeriz
▁Spend
▁humongous
▁maximiz
▁Join
Fi
Pro
▁formalize
▁deviate
kut
▁Decade
▁blockbuster
cchi
GF
▁procure
▁narcotic
▁Commerc
cratic
▁unanimous
▁Burundi
rystal
▁wafer
▁abnormalit
▁parochial
comb
▁ebb
▁connotation
▁genu
▁Classic
▁Butler
▁Igbo
▁rodeo
▁luxurious
▁unreason
▁fission
group
▁specify
▁espous
▁Glad
hazard
technology
▁Abdul
▁latte
▁geni
▁perplex
▁hilarious
▁nipple
▁bracket
▁Ada
▁Wales
▁overlay
▁Witt
▁morbid
script
▁Lisb
▁foreg
▁Scripture
▁corpse
▁Frederic
▁Timo
▁euphori
▁funnie
▁assassinate
▁spigot
OC
▁seab
▁catapult
▁proficien
opp
▁Gaia
▁lipid
▁waterfront
olecular
▁McKin
▁preposterous
▁incessant
medicine
▁telephon
powder
▁roadblock
▁Mott
▁perpetuate
▁collaps
▁wiper
▁skat
▁Judi
▁professionalize
▁eulog
▁linkage
▁permea
▁micrograph
▁Frate
▁Dublin
▁volant
▁aphorism
▁WIT
▁PG
valence
▁interruption
▁scold
undra
▁Dinosaur
▁entanglement
▁crumb
setting
Pad
track
▁subversive
▁unmann
▁sunburn
▁provinc
▁Pig
▁Marian
▁endowment
▁exacerbat
▁Fundamental
▁fledg
▁neurosurge
▁Meso
bench
▁myelin
▁injector
▁outfitt
▁painstaking
▁adjective
▁Indo
▁incomprehensi
▁mechaniz
▁Ethan
▁gestat
▁Sheikh
▁retroviral
▁Follow
▁Draw
▁pervert
▁undesirable
▁Extraordinar
▁Gab
▁hypothermi
▁grammatical
▁Nintendo
logg
basket
▁Bhu
▁Travel
cheri
▁circa
▁conquest
ceptive
▁juggler
stopp
hima
qualifie
▁intolera
▁Emmanuel
arily
rapture
▁Shan
▁copepod
▁intelligib
▁decibel
▁Jump
polo
▁dissertation
▁invertebrate
▁juncture
▁coauthor
▁imperialis
▁Wealth
▁Creativ
▁Regard
▁Rough
gai
washer
▁disprove
▁cyst
▁milieu
▁Petri
▁skate
circle
▁retrospective
▁Tea
▁Mulli
▁ephemeral
rofluid
necdo
▁crumple
▁disgrace
negotiable
▁paraplegi
▁lac
▁bathtub
▁Mimi
▁Tumbl
▁locomot
▁molt
▁hippo
▁Exc
▁parch
hemical
▁outlive
▁Sek
TT
weapon
▁precogniti
▁stockpil
▁Arup
▁Route
▁Transport
stoke
▁muffle
▁Flu
▁poignant
▁pragmatis
CM
▁Scholars
▁voracious
baba
▁Cala
▁zin
▁unbe
▁superconduct
▁quarrie
▁Guin
▁1600
▁validat
▁worshipp
▁cramp
hem
▁bristle
▁shrine
▁viper
▁telemet
▁migrator
vik
▁quarti
▁Francesc
▁transgress
▁Centur
▁Dhara
▁battalion
▁Sloan
▁scripture
▁vaporiz
▁mint
▁parliamentar
ntifa
witt
▁Caj
source
▁wield
▁Boulder
WISE
LB
▁Lean
▁reunion
surfing
▁triplet
▁jihadis
▁saunter
▁headrest
tribution
▁parabola
▁Sant
▁plutocra
▁Octavi
▁Movie
▁fang
▁rewild
▁bureau
▁Mujahid
▁Elliot
bread
▁Techno
▁Goat
▁Archae
develop
aggie
PJ
▁Blanc
▁Tomm
▁Arav
▁spectrogra
▁Adventist
▁throwaway
influenza
▁unicorn
▁trekk
▁micrometeorite
▁Tyrannosaur
▁interpenetrat
▁liminal
▁fudg
▁gerontolog
▁geriatric
▁chemokine
▁Sculpey
▁sporulat
▁mycorrhiza
▁hypersonic
▁demobiliz
▁memoir
▁resell
▁Celebrat
▁91
▁crossroad
▁plaza
▁clad
▁ludicrous
▁crescen
▁Nep
▁plead
▁homogeneous
▁superflu
▁fifteen
▁deviation
▁Warrior
▁expel
▁headscar
▁devou
▁queer
▁discord
▁loft
▁bookshel
Tri
▁terroriz
▁bipedal
▁Intelligent
▁Behavior
EM
▁slut
lithi
▁moderat
uixot
▁polygon
▁maverick
▁brothel
▁Feminis
raib
▁trampl
▁Jerem
▁crevice
▁panda
discretion
▁esp
▁nightgown
▁derail
▁Ambassador
▁hotdog
▁indulgence
▁Biological
▁maneuverab
▁torpedo
ttendee
▁KT
▁Ptolem
ductive
▁Benz
▁transient
▁Valdez
▁Obe
▁apocalyptic
▁lucid
▁flask
▁photocopie
▁piling
▁Northeast
iju
▁barricade
▁transgression
▁conjecture
▁heredit
▁royalt
▁obliterate
▁profanit
▁Set
▁Berr
▁drudge
▁craftsm
▁apocryphal
▁dystopia
▁Encourag
▁glitter
smith
Gregor
▁unjust
ontemporar
▁pitche
▁enrag
▁meticulous
uckerberg
▁symbolize
▁cache
▁discontinuit
▁neutralize
▁Memor
▁humming
▁Till
▁Eno
week
▁entic
bump
▁Vote
▁coffin
▁nasal
▁Monet
▁Ade
▁synap
▁regiment
▁Pul
▁aerosol
▁matern
part
▁Incident
▁Bosc
▁Horizon
▁carbohydrate
blow
▁herbicid
▁var
▁precarious
▁recuperat
igma
▁restructur
▁KPI
▁Remove
▁ritualistic
ainforest
▁hoist
uel
▁Hobbes
▁bluff
▁invoke
▁lavish
growth
▁elitist
▁backdoor
▁fixate
▁jumbo
▁metaphysical
▁Shell
▁unavoidabl
▁sentimental
▁Teenage
▁registration
pez
▁Viol
buster
ibu
▁bapti
▁Burg
▁cheerleader
▁Smithson
▁Genetic
▁Henri
▁Taj
▁taint
▁Psychologist
▁screech
▁toenail
▁postmodern
▁Polaroid
▁stump
grease
▁felon
▁Colomb
▁Ganesh
▁salvage
AO
▁Kill
▁inspection
▁wicked
pant
▁Steam
coal
▁Gasp
▁2040
▁Babylon
▁interrelated
vold
assa
▁ghastl
▁Thought
▁bracelet
▁yank
▁comrade
▁Individual
▁hamster
antha
▁observator
▁brainwave
▁unbor
▁underpinning
▁crib
▁alcoholic
▁Pedr
etas
▁Sina
▁Few
▁endow
▁modernist
▁discontinu
shea
MJ
▁spl
▁Argu
▁Rac
▁Hug
▁Shall
▁compli
▁Gramm
wheel
▁unfil
▁electrify
quaint
▁myopic
▁Disabilit
▁probiotic
▁pathological
▁Thor
eau
▁Elect
▁pic
▁sideline
▁cinder
▁monologue
▁teleconferenc
▁uncann
▁pierce
▁aeronautic
arus
▁Rare
▁seafarer
▁Spade
▁Wayne
direct
incarnation
▁olfact
▁assimilat
uent
nister
▁conve
▁deceptive
▁Kelvin
▁Rip
▁inexplicabl
afford
▁dubi
▁rapist
aseball
▁appendi
▁promiscu
speci
▁reinterpret
▁splendor
ilhou
aku
▁Linked
peake
▁bulldoz
▁Garb
▁Donne
affle
▁Libert
▁panoram
▁tentative
▁dispatch
▁gull
▁bunk
▁attribut
rdinand
▁statistician
▁obstruction
▁merchandis
▁salon
harata
▁incredul
ifty
▁Hoffman
withstand
▁cohort
▁unspeakabl
anatomist
▁Dickens
▁waft
▁Daw
▁karm
▁herring
▁atrophie
▁abrupt
citing
coloniz
obo
▁flori
▁Starck
▁Sugar
▁excel
▁Grann
▁explanat
▁Task
differentiate
▁commune
▁Prius
▁criminalize
▁inefficienc
▁predispose
▁cashier
▁woodwork
▁totalitarian
▁grub
▁barrage
▁Nile
▁kernel
▁disassembl
▁defibrillator
▁eukaryot
▁googl
▁tutorial
▁overthrow
▁defendant
nstop
▁meditate
▁congregate
▁chuckle
▁waltz
iquette
trove
discover
▁Biblical
▁Gospel
▁minimiz
▁flea
▁Terroris
▁rationalize
olved
▁Migration
▁Priva
▁commence
▁vomit
▁sweatshop
▁demean
92
▁cutter
rthodox
▁dehydrat
▁fatalit
▁menace
▁Soft
ecture
▁epidemiolog
▁Brin
▁Isabel
▁Cruis
▁decapitat
guide
▁fiddl
Pont
▁Mile
▁Gho
▁nationalist
▁suspens
▁spiderweb
▁Hoove
▁Steel
▁Imag
▁McDo
▁SO
▁VC
▁oscillate
▁dredg
azi
▁Spaniard
▁immu
▁exponent
▁inspector
▁ROM
▁Hirsh
▁communicative
▁exempt
▁spokesperson
▁watercolor
▁fumbl
▁naturalist
▁Meggendorfer
▁formaldehyde
▁Kui
▁malign
▁Danger
▁hmm
▁disorganize
▁perturbation
▁habitual
▁Homs
▁compiler
▁Yve
▁Idiot
▁Guide
▁exhum
▁tomb
▁purport
▁Angr
plica
▁jubil
▁splendid
▁proverbial
▁solidify
▁Eurasia
paleoanthropolog
▁blatant
▁linguist
caps
▁Border
▁Facilit
▁Milit
▁alibi
▁carnival
▁Fische
▁incongru
acin
▁trampoline
▁Charlotte
▁gleam
pilot
▁creationist
▁nauti
SI
▁Gell
▁Charle
▁supervisor
▁inaugurat
▁disembod
▁FAA
▁pothole
▁perpetrat
▁syntax
▁Smile
▁Field
▁McN
▁misnomer
▁limp
▁Translat
▁redeem
▁erod
▁Risk
▁Tasmania
▁squea
▁quintessential
▁RP
▁negat
furt
cogniz
▁Airbnb
▁atomize
▁roundabout
▁buoy
▁Maje
ctive
▁Tab
▁extrapolat
▁egotis
▁UAV
ilapi
▁grasshopper
cray
▁replenish
▁enlarge
mystifie
▁Penguin
▁coastline
▁malfunction
▁dystoni
safe
idge
haul
▁complement
▁201
▁denounce
ostraci
emen
interdisciplinar
▁entangl
▁pervad
à
egitimate
▁divisive
▁galvaniz
▁Bunn
▁servic
▁necrophilia
▁incentivize
▁consultanc
▁Detai
▁Sparta
▁Braun
▁Extrem
capitalize
computer
▁nominee
▁uphill
▁hypnoti
▁Ukrainian
▁Hatz
▁prosaic
▁Ride
▁grapple
▁glaring
▁cardiolog
▁tabletop
agged
▁flank
▁chees
▁Chicken
▁flamingo
▁forefather
▁attenuat
▁Winfre
▁multicellular
▁dishonest
▁snowball
▁Mauri
▁formidabl
▁incurr
lectic
▁enterpris
▁plateau
▁sigmoid
ggling
▁navigator
▁Reich
▁patrol
▁bathe
▁inducte
▁Scout
cane
▁dosage
▁Device
▁glimmer
▁Kip
▁asymmetr
▁brib
dispens
▁Treasur
▁Cheap
▁unlearn
▁Euler
▁Conno
▁Conne
▁soulful
ourgeois
▁Pond
▁Storytell
▁straddl
▁Rail
▁caffein
entious
vastatin
▁revel
▁disenfranchise
▁ginger
▁clueless
▁rewir
▁gymnas
▁laminate
▁steadi
▁Luri
▁unmov
tung
▁fissure
▁Mick
FE
▁detective
▁filtrat
▁magma
▁lobster
▁Christie
▁Famili
▁squint
▁lamprey
▁Bottom
▁resignation
▁refusal
▁Gunshot
▁microbiolog
answer
▁tripp
▁lichen
▁swipe
▁Lovelace
▁antiqu
▁fem
lasting
▁espresso
▁Stefan
▁OMG
▁reenter
▁Kurd
publish
▁cuddl
plausibl
▁auster
bove
▁Nicaragua
▁benevolen
▁Separate
population
▁Niger
▁Chimpanzee
▁shopkeeper
▁encrust
▁salin
▁ventricle
▁stabbe
▁Ambien
▁discipl
▁Brasil
nterprise
FC
▁deconstructiv
nfrastructure
tadium
Damn
▁codif
vocative
ipper
liant
▁rebellio
▁Nya
▁Baptist
▁parrot
▁Mormon
▁halo
▁Corps
▁Begin
▁hetero
▁Scarlet
▁Round
▁homolog
▁Satellite
ARE
▁Aren
▁Cooki
▁detonat
▁Kob
Net
▁unapologetic
▁Meat
▁hoove
▁counterfeit
▁micrometer
▁Pygm
▁photojournalist
▁reveren
▁oncogene
ainment
▁newcomer
▁nanomaterial
▁exemplif
▁Meadow
boriginal
▁spoof
▁Monster
▁Krug
anga
▁Pino
▁terro
▁obituar
▁quadrillion
▁rhetorical
iscus
▁Disp
▁seminar
▁Review
▁Luxemb
▁Lockheed
akir
▁vertebra
▁sneez
▁nematode
▁Winne
▁Disorder
▁tame
obb
▁quantifie
▁subtraction
▁SOLE
Space
▁snare
ophis
▁MacC
▁retrovirus
▁locavore
▁yarn
▁Ode
HE
▁Oma
▁Vander
▁reinnervat
▁Marg
▁hospitaliz
▁citation
▁Debora
▁Brahmin
▁Meyer
▁Pyramid
▁Safeway
▁piazza
▁blazar
▁speleologist
FORM
fabricati
Secret
▁miscarri
armament
▁legitimize
▁banquet
oulevard
▁skateboard
▁Stir
▁omniscien
NY
focus
▁farewell
aturation
▁drawback
▁bail
▁wreak
alactic
▁industrious
▁reignite
▁shrug
▁Lesbo
▁Serb
▁slang
▁RM
ilingual
▁defuse
▁Crisis
▁Bomb
▁opiate
▁axle
▁insidious
dorf
▁hobbi
▁Answer
▁fluff
▁Passion
▁Tutsi
▁excruciating
▁transpir
▁tombstone
▁intersectional
AID
▁crustacean
▁gush
▁wiggl
▁goddam
▁asshole
▁rememb
▁parall
▁Pran
▁tuxedo
▁determinant
temporal
parallel
▁bystander
▁Wake
▁interlock
▁Debb
▁unattainabl
▁seahorse
▁hyperbol
▁Basel
▁proverb
▁garde
▁herald
▁regurgitat
▁Nonviolen
▁Sharp
school
▁squadron
▁leapfrogg
▁archeolog
intestin
▁Conflict
▁Tong
▁sublimat
▁furthe
IN
US
▁cantilever
▁asymmetric
▁Waldo
▁Pioneer
▁gritt
▁disorient
▁bolster
▁bumme
▁scorecard
▁escalate
▁arbitra
▁petrifie
▁obscene
athan
▁deterrent
▁mafia
▁boar
▁amusing
▁tranquil
▁skipp
puncture
▁workaholic
▁insatiab
▁provocation
▁freelance
▁Hayd
▁Aqua
hasa
▁glint
▁keystone
▁Beth
▁Automat
▁uneven
▁Tinker
▁theologian
▁preoccupation
▁Fuji
▁featur
▁unearth
▁slump
▁Limit
▁rearrang
▁Hamburg
▁Maasai
moor
▁nitr
erra
similar
▁surrogate
▁disdain
▁Blee
▁Pilot
▁Copa
▁constipat
▁trembl
▁parasit
▁unimagin
▁calori
glycemi
▁swan
stretch
▁demograph
▁Kins
▁disconcert
▁Kua
reason
▁pleasur
▁Kurt
▁flop
ende
▁Maso
▁whir
▁Block
▁Nokia
▁dismantle
▁erratic
▁GP
▁hotline
PD
▁Struggl
▁popularize
finder
▁Practice
▁embolden
xious
▁nihilis
▁shutt
▁periodical
remarkabl
▁unmar
▁Straus
▁gnaw
▁rehydrat
▁Neuroscien
folia
▁yaw
▁ingrain
▁Style
▁Includ
▁multiplic
▁Memori
▁explorator
▁unambiguous
▁barge
▁Push
▁proponent
▁yo
▁loung
nthropocen
bbe
▁humaniz
▁Additional
▁bli
▁corru
▁shantytown
▁confiscat
▁mattress
▁Lyn
▁prerequisite
▁1910
▁DL
▁Admira
▁pharmacist
important
rwin
▁fig
▁Capitalis
ptococc
▁dart
▁discrepanc
▁stereotyp
▁Score
▁hairdresser
▁predomina
▁Webb
▁Fide
▁infrequent
▁luminescen
▁interchange
▁burqa
▁uncontroll
▁Oval
▁rescu
▁Brave
▁flunk
▁picnic
▁Return
▁Nin
▁boggling
▁seism
buil
▁inflexib
Advisor
▁assort
▁unsatisf
▁treatise
▁overwrit
▁Laz
censor
▁Geni
▁Snake
▁typolog
▁amenit
▁disregard
▁undetect
▁Tempe
▁Material
▁fascist
▁refram
minate
magination
▁scribbl
▁scrutiniz
ij
▁Minor
▁Wilb
Art
▁chisel
▁Limo
berman
▁cavefish
▁comma
▁militia
orta
▁Historical
▁pseudonym
▁clergy
▁accrue
▁conduit
voir
▁whal
▁substitut
▁treasur
▁raindrop
▁tripod
lubber
▁hermit
▁baboon
▁Attack
ruba
▁prune
▁amputate
▁sentinel
▁supercharg
▁Gersh
ahneman
▁denote
▁disobedien
▁Chip
▁Airb
▁pharma
▁pulp
▁bifurcat
▁misunderstand
▁normaliz
▁Eviden
▁sublime
▁Pull
llegal
▁emigrate
▁whirlwind
oplas
▁rupture
▁cannabi
▁Exo
▁Calvin
▁Throne
MV
adic
▁Pavlov
▁Skinner
▁smudg
▁geologic
▁biomimetic
fruit
▁neurotic
▁neurophysiolog
▁stimulant
▁assertive
▁snug
adesh
Hub
▁Prior
▁gaz
▁deduct
▁transact
▁Hitch
▁attest
▁affinit
▁signify
▁Continu
▁tribu
▁motorize
▁averag
▁Imperial
▁ovation
▁Gustav
▁kangaroo
▁Throw
▁profil
▁relic
▁swath
▁Blockchain
▁asbestos
▁estuar
▁landslide
▁conserve
▁sclero
▁stagnation
▁empiricis
▁refute
nsect
▁noodle
▁inaction
▁conferenc
▁sutur
trade
▁Adventure
▁misbehav
arietal
▁gracious
fford
▁pictograph
▁Carolin
▁Rapid
invigorate
▁proportionate
▁inscription
▁Silent
▁mutagen
▁Ami
▁Saf
▁occlude
▁lenticular
▁Excel
▁typesett
▁squad
▁handshak
▁nanosecond
▁Pythagor
normous
▁redistribution
▁masturbat
▁cerebell
▁befriend
▁parodie
▁McNugget
▁biomolecule
▁enlarg
▁fab
▁correspondent
lifie
▁Shut
▁Polynesia
▁Fields
▁Eugen
▁denominat
▁subdivid
▁measurabl
▁unequivocal
▁titillat
▁tabloid
claim
service
upert
▁mustard
▁Pollut
shirt
pressurize
▁Harar
▁conclud
elated
▁coz
▁parox
▁monogam
patio
▁presiden
GA
▁ramification
▁monogamous
▁Process
▁lent
▁misspell
▁credential
▁Cosm
ocyte
▁radiolog
▁heterogeneous
▁ponytail
▁Honest
▁confluen
▁Dictionar
▁trek
thora
▁revision
▁Paralympic
▁decrepit
OW
▁supervillain
RNA
▁rendition
skri
▁enorm
▁indelibl
▁Marri
RL
▁MO
▁embroider
▁undulat
▁Unbelievabl
▁flopp
record
▁kinesthetic
aerobic
▁Ballet
▁combinatorial
▁fantasiz
▁Mesopotamia
▁caretak
urgical
▁Expert
roencephalogra
▁malpractice
▁stimulator
▁cremat
▁Brei
▁veneer
▁hush
▁irreducibl
▁utterance
▁Parag
▁PDA
chev
▁cyberwar
▁refuel
▁bookshop
▁relinquish
▁cleric
▁Otto
▁partition
▁Lotus
acula
▁jettison
▁bridg
reconcil
percepti
stoy
▁gyroscope
patient
▁disma
▁medicate
▁Riker
hhhhhhh
nterpreter
▁Enrique
augh
▁Giv
▁blizzard
▁oxygenat
▁Tara
▁fuselage
▁trope
lumni
▁Alg
▁barter
▁autograph
▁insanit
▁predisposition
▁improper
▁arsenal
▁understandabl
▁servo
▁broom
▁Chech
▁Supermarket
▁incinerat
▁Important
▁demoniz
▁caval
▁Sami
▁memorialize
▁Gambi
irlfriend
▁Kwa
▁Worth
▁Organiz
brandt
▁Remittance
▁accretion
accessibl
▁Okoll
▁Jiha
uisance
▁zeppelin
▁cybercrim
▁TG
▁Habit
▁chute
▁objectify
▁gangsta
▁Wave
▁Brenda
▁Bubble
▁spoofer
▁messiah
▁Kurdi
trawberr
▁reluctan
▁Partheno
▁materialize
▁ninja
▁Jovi
▁1880
▁errand
▁cacophon
ichu
▁machete
▁bewilder
▁Leah
▁headdress
▁Southwest
▁rim
▁umbilica
▁acquaintance
▁dismantl
crabble
▁cruci
▁abort
▁volu
▁scrub
▁affiliation
▁impulsive
▁clog
mediate
▁Barney
▁consequent
▁Copp
▁Volkswag
▁excit
▁Divisi
▁odious
▁accredit
▁scorpion
▁Schul
▁impenetrab
▁stifle
pathetic
▁mortifi
▁groan
▁emphatic
▁Print
▁Sigh
▁serif
▁flutter
▁Chrono
▁volatil
▁Natali
▁reinvest
▁wrongdoing
▁hemorrhag
▁FM
▁Statistical
▁Pala
apprehension
▁eardrum
▁violinist
optic
▁cuff
witz
▁indiscriminate
▁Statistic
▁Associat
▁cosmopolitan
▁anesthetize
▁quarrel
allelujah
▁Crow
▁premeditat
new
fathom
glow
▁forcibl
▁appall
▁Aria
▁Der
▁Peruvian
borg
▁criminaliz
▁symbolism
▁quill
▁unwind
▁Adria
▁radiant
▁Deutsch
▁McL
▁kg
▁genotype
▁bulge
▁kickstart
▁snob
▁extravagan
▁Biafra
▁Depo
istress
▁garner
▁Shape
▁scrubbe
▁traverse
lligator
andem
▁ascertain
exting
▁LOL
▁unpredictab
▁impede
▁Bicycle
▁kaleidoscop
▁gruel
▁deport
tamina
▁grievance
Capri
▁melanchol
▁frack
▁refurbish
▁reticen
▁casino
interrupt
▁biome
▁Shame
▁reevaluate
▁preferential
▁ubiquit
▁ophthalmologist
▁inflammator
▁blister
ueensland
motion
▁Civic
aystack
▁detour
▁deficien
Calc
▁doubl
▁Abb
quench
▁savant
▁deathbed
▁pertain
▁mitt
OMA
▁oak
▁lipstick
▁underrepresent
▁wand
▁erroneous
▁bullie
owitz
▁Petra
ï
▁estrogen
▁laborious
▁Fei
▁breach
▁cervi
▁abate
▁monotonous
▁resonant
ailure
▁pimp
▁Winni
▁SEAL
cense
▁Semit
▁bioterroris
▁handicraft
▁frill
▁theorem
▁superinte
OR
▁uterus
▁undeniabl
▁Cotton
▁Skip
▁quarry
▁recalibrate
▁Ok
▁dispossess
▁abhor
TH
▁Ricard
▁Employee
▁microchip
▁Reformat
ophyll
▁intuit
nucleotide
▁Lega
composition
▁optim
▁tyrant
profe
▁SIM
▁clathrin
extrica
▁footstep
▁mortuar
▁Puer
▁Yankee
▁hiccup
▁certify
▁Milt
▁Production
▁diaphragm
▁theatrical
elma
▁mistreat
▁Strat
funct
▁unaffect
▁precipi
▁Cinema
▁terraform
▁Prosper
Rabbit
▁predetermine
▁coyote
▁kidnap
▁immedia
▁Gott
▁clums
▁McKe
▁Method
▁resurgen
conspicuous
▁hieroglyph
▁Aldri
▁luna
▁Laureate
▁Merri
▁disapprov
philis
▁Cedar
▁catalogu
▁supermodel
▁lucr
▁Trojan
nium
▁smear
▁hermetic
▁imbue
▁Plain
▁Mei
▁artifice
▁Technical
▁cork
SIC
▁Climb
▁circumvent
▁painkiller
▁obligat
▁permissi
▁dissociate
ZX
▁asterisk
▁Predator
▁cucumber
▁mulch
▁discontent
▁ceremonial
▁Gum
▁queas
▁unofficial
▁mania
▁Siemens
▁vinegar
▁Engine
Surf
▁blonde
24
government
▁shale
▁pineapple
▁fortress
▁uncontrollabl
▁Aub
▁rewrit
▁climax
rtificial
▁axon
ecision
nesthesiologist
▁ACE
▁amplification
▁Frei
stadt
▁menopaus
▁menstrua
▁Knee
▁xeno
▁Pia
▁labyrinth
umpster
▁osten
▁hydrate
▁euphemism
▁susceptibilit
▁tamper
▁wristwatch
▁Lumi
▁Mist
▁subdivision
▁zombie
▁Atmospher
trinsic
blot
odium
▁eyelid
▁bikini
boro
apling
▁epitomize
▁Pha
▁unforge
▁velvet
▁gallop
ō
▁posit
▁Identi
▁veterinarian
luent
▁faucet
▁concoct
▁complicate
▁Activis
osmos
▁stylish
▁misrepresent
▁Support
▁Migrant
▁Krem
▁pamphlet
▁supersonic
▁Beau
▁encase
▁Factor
semble
▁nonverbal
▁Camera
▁consonant
▁infirm
▁inhibitor
glob
▁antiviral
▁morgue
▁testicle
▁Slate
▁Miracle
▁predictabl
▁narcissis
▁Rumb
▁PDF
▁deadlie
stroke
▁whiteboard
rateful
▁maladie
▁untouchable
▁nonexisten
▁Forrest
▁Vik
▁aspen
▁Commodit
▁Assum
▁hangover
▁parabol
▁depot
▁firefight
koff
▁Reject
▁Hampton
solicit
▁potenc
▁misfortune
▁plunder
shock
▁inadequac
▁Vladi
▁stylize
▁counterterroris
▁Chemist
▁oxidiz
▁subsidiar
▁pronunciation
▁Sug
▁Whirlwind
▁deflat
▁caravan
▁Visit
▁horticultur
▁inconceivabl
▁Ric
▁aspirate
political
▁capricious
▁incentiviz
▁nudg
▁pedestal
▁outnumber
manuel
▁declassif
▁fervent
▁Manifest
▁Birth
▁Anne
▁Artemi
▁SH
▁untreat
▁Shiv
▁constrict
▁omnivore
▁singularit
▁Reduc
▁Flag
uarter
▁dilat
▁desecrat
▁breadwinner
▁Gro
▁depressive
▁Pentium
▁Preg
▁infest
▁unforgiv
▁cortiso
▁allegation
schel
▁swivel
peace
▁retrofitt
▁Triangle
▁nebula
essori
▁Kraus
▁creak
▁montage
▁API
▁tempest
▁Haitian
▁dislocat
▁Islamophob
▁disinfect
▁sufficien
▁apologiz
▁Bret
▁permutation
CV
▁Hamil
▁interg
document
▁gregarious
▁massacre
▁nightclub
▁Bionic
▁Lynch
▁gynecolog
▁Previous
▁Phillip
tonewall
▁Litt
▁Larami
▁Participant
▁rapper
▁Fuck
É
▁unpla
▁rumbl
▁simul
scrupulous
▁Giz
▁Representative
▁gangster
plast
▁paramedic
▁Gradua
▁Ott
▁Shock
▁Observat
▁neglig
cabana
▁outsource
▁inquisitive
▁clamp
▁Tul
▁Hono
▁remed
▁irrevocabl
▁prosecute
▁Yuk
▁maggot
▁positiv
▁crusade
sparag
▁indulg
▁Lars
vivor
▁canister
grid
▁spearhead
▁Chapter
▁Krypton
▁Kent
▁Augment
▁Fresh
▁Lov
▁licens
▁hydroponic
▁nitrate
▁Kala
▁Level
▁smirk
▁Atomic
▁Serg
▁veterinar
▁username
▁sympathize
▁glean
tria
▁diatom
▁horseshoe
▁beckon
weis
opamine
▁consign
▁Criminal
▁Phel
▁medic
▁hoax
▁lav
▁underperform
▁devolve
brid
perturb
▁Ariel
▁maniac
▁luggage
▁precondition
▁Possibl
▁Tudo
▁Turtle
▁tightrop
▁retrofit
▁payback
▁cascad
rivilege
▁resettl
ä
▁decor
▁mitigat
▁Leon
▁exterminat
▁grandios
▁despot
▁eyelash
▁Random
▁accommodation
▁cadre
▁BRIC
▁Aye
osene
▁Experience
collection
▁freckle
▁Latina
▁Vacan
▁figurative
examine
▁Slav
▁Ridge
▁edifice
arina
▁Flat
▁Leb
▁decarboniz
▁femto
▁NM
▁quizz
vidian
▁Manag
▁quiver
▁ME
bias
▁Babylonian
▁Concord
▁holler
▁zillion
evolution
▁roach
▁Couch
▁solvent
▁squander
▁volition
▁metastasize
KG
▁neurobiologist
▁Lor
▁midwife
▁relapse
▁deba
▁Yah
▁immaterial
hoenix
▁peddl
▁hormonal
▁GH
▁Mui
▁Tahiti
ibo
▁caf
▁Marxis
▁absolve
▁disposition
▁moron
▁meritocrat
▁dispersant
▁gator
▁piston
▁undervalue
▁Famous
▁infertil
▁Govern
▁enthrall
▁deletion
▁invincib
gomer
▁slumber
▁Nurse
CP
▁Federation
flux
▁gimmick
▁revolve
uebec
▁Shadow
▁walkab
phenol
▁PlayStation
▁narco
▁schoolteacher
▁diffract
▁Hick
▁unwitting
▁embalming
▁imbib
▁Pine
▁discourage
channelrhodopsin
▁pooh
Lab
lades
▁beget
▁abolition
▁legislat
odoo
▁casket
▁contraceptive
▁Firefl
▁suburbia
▁fluorescen
▁Surina
▁residenc
▁irrita
▁Honeybee
▁destruct
▁Stress
▁Dodge
▁impartial
ealous
ô
explain
▁cataly
QQ
▁Rive
▁zigzag
zzar
IA
atalog
▁carp
▁Kirk
nfluence
▁beekeep
▁decimat
▁bicycl
▁horoscope
abasc
▁infuriat
therap
▁microbiome
▁misperception
▁recoil
▁negativ
ø
▁Adrian
▁Messi
▁Econom
▁peacebuild
▁dirtie
ermal
▁wrinkl
▁smug
▁populate
tubul
▁GG
FR
▁Lonel
▁marsupial
▁Domingo
▁endocrin
▁SSRI
▁Problem
shade
▁brag
▁indigna
▁Visi
▁Gilli
▁rebreather
£
▁vowel
▁disarm
procrastinate
▁scum
▁Tuc
▁kiln
▁Remote
▁comply
FO
▁Bedouin
▁buttock
▁stomatopod
LOVE
Buster
▁Chop
come
▁meditator
▁illogical
lethal
▁reactivate
▁Schmidt
accurate
▁aphid
▁gentrif
▁aquifer
▁torque
▁Bogota
▁Pai
▁secur
▁Sikh
▁selfie
abba
▁fidget
▁inflame
uition
▁Pepper
trey
▁skylight
▁ailment
▁Michoac
▁prais
▁torrent
anthropomorphize
*
▁antelope
▁Else
▁geoengineer
▁Puppet
▁apprais
▁Marvel
▁debunk
▁Sisyph
▁forearm
▁anthropomorphi
▁Purp
▁Toxo
fight
EMA
▁darkroom
▁supervise
▁Benk
▁widget
▁sarcoma
elope
▁slopp
▁clipboard
arro
pharmaceutical
▁SR
▁Message
anner
▁mantis
ā
ê
▁noninvasive
▁brewer
อร่อย
ENA
▁Lei
▁pronoun
▁PalmPilot
▁bowel
Land
▁shelv
koko
controversial
▁predicat
▁brav
▁yawn
Car
▁etymolog
▁Tric
▁checkpoint
▁Gamo
intelligent
Á
▁Balochi
▁NAND
abha
▁hysteri
▁stomp
▁altruist
▁Novoc
▁briquette
▁Swart
▁dynast
razine
zig
▁autoimmun
▁reflexive
▁kook
∇
τ
ú
▁creek
▁dermatologist
▁adversarial
▁jeep
▁vertic
ZZ
”
▁schema
▁invariant
777
▁Jenni
▁hypothalam
▁Sata
clinical
Graff
▁mumble
▁Splash
▁misfit
û
▁kiloton
ë
▁shipyard
▁Jeh
\
emmel
onnie
▁puppeteer
̊
Č
▁exorcis
▁trott
ucifer
▁lantern
▁bedsheet
▁Stack
▁saddle
▁Lakota
▁unconta
▁Selig
▁Bonnie
AND
ē
▁stru
Ç
wau
¿
ĂŤ
Ō
â
ì
▁technocrat
XX
xchange
▁immens
iq
æ
▁halophyte
ADD
awy
▁hemispheric
umor
Ö
▁genocida
ucky
▁improbabilit
expected
▁KK
LAM
¢
▁SK
▁pluto
▁contracepti
▁Keynes
ć
