<pad>
<unk>
<s>
<\s>
▁.
▁,
▁bir
▁"
▁ve
▁bu
n
▁'
▁
a
▁Bu
▁için
e
▁da
m
k
▁Ve
lar
▁çok
▁de
▁?
▁daha
ler
▁ki
▁)
(
▁var
▁:
▁gibi
▁olarak
i
▁şey
▁—
▁ne
▁olan
t
▁kadar
den
▁o
▁en
la
ları
de
▁her
da
ya
nin
p
leri
le
z
▁ya
ye
▁değil
▁ile
dan
nın
▁-
ki
▁ama
▁iyi
▁zaman
▁olduğunu
▁Ama
▁büyük
ce
na
▁bunu
▁sonra
▁Bir
▁nasıl
er
li
▁sadece
si
ü
ne
r
▁çünkü
s
yi
▁şekilde
▁şu
in
▁önce
▁fazla
▁O
en
▁yıl
▁iki
l
dir
ı
▁;
▁yeni
▁gerçekten
▁aynı
dır
▁Yani
▁hakkında
▁kendi
▁Şimdi
yı
uz
larını
sı
▁benim
di
▁olduğu
▁mi
▁insan
ların
▁ben
lerini
lerin
▁Ben
▁tüm
▁farklı
lı
▁diğer
y
▁ilk
ma
▁içinde
yla
▁böyle
ca
▁aslında
▁yok
▁insanlar
▁bunun
▁doğru
▁ilgili
▁başka
▁küçük
▁sahip
▁veya
▁♫
▁bile
▁şeyler
▁burada
▁Gülüşmeler
▁ise
lik
▁in
▁biri
u
yle
▁önemli
▁eğer
▁biz
▁Faka
▁bana
ş
▁size
ken
▁bizim
▁biraz
▁tek
▁Eğ
▁gün
um
iz
▁üzerinde
ti
te
▁bütün
▁oldu
ni
▁hiç
▁son
▁insanların
lara
lere
▁vardı
▁geri
lık
sa
▁Bunu
▁zamanda
▁şimdi
▁neden
▁yüzden
▁az
ta
▁diye
ın
▁göre
sine
▁Çünk
▁bazı
an
▁onu
▁bilgi
arak
▁tam
dı
du
▁tarafından
▁a
▁yer
▁Kahkaha
sanız
▁üç
▁karşı
tı
▁İşte
▁gerçek
▁nın
▁iş
tan
▁istiyorum
▁an
▁olmak
▁yapmak
▁mı
▁Çok
lerine
me
ndan
sel
niz
▁su
siniz
▁e
▁ortaya
▁S
▁olacak
▁Peki
▁bize
ydi
▁olması
mız
▁oldukça
o
▁Bunun
daki
d
tir
▁şeyi
ten
▁fakat
nız
▁dünya
▁yani
▁oluyor
▁Ne
▁Her
larına
▁10
▁beni
lerden
miz
▁anda
se
▁Burada
mi
▁güzel
▁etmek
nda
▁Dünya
▁hareket
▁birkaç
▁Aslında
lardan
▁ın
▁kişi
▁tekrar
sini
tır
▁bunlar
▁A
▁soru
▁Alkış
▁onları
▁uzun
▁onun
im
▁boyunca
▁devam
▁Alkışlar
▁teknoloji
▁zor
▁olabilir
▁kötü
▁20
▁para
ydı
▁i
▁açık
▁yüzde
▁milyon
▁onlar
▁tür
▁fark
▁birçok
larının
▁geliyor
mış
ini
lerle
lu
▁Anca
▁yol
▁!
Ü
▁karar
▁Evet
▁Siz
▁Daha
▁000
▁belki
f
▁yüksek
▁olur
▁tamamen
▁orada
seniz
dur
▁birlikte
▁Biz
▁buna
▁hayal
erek
▁öyle
▁arasında
▁harika
sını
lardı
▁basit
▁yakın
▁yerine
▁dedi
▁gereken
▁işte
▁Afrika
un
▁E
▁gelen
▁Bunlar
yu
▁daki
▁nin
lerinin
▁dünyanın
g
ını
▁bugün
larda
lerde
▁enerji
▁üzerine
▁pek
larında
▁artık
▁şöyle
sına
▁hiçbir
▁yardım
▁dan
▁hikaye
ç
ip
▁ederim
▁kaç
▁3
▁eden
Z
▁Böylece
▁vardır
▁dolar
larla
▁durum
sunuz
ıp
ar
▁Amerika
▁konusunda
▁hızlı
▁konu
▁onların
▁geldi
▁te
ci
▁C
sınız
▁ediyor
lerinden
▁den
▁kat
▁sene
▁Sade
▁çocuk
▁2
▁Tamam
▁bak
▁işe
▁yeniden
deki
▁Şu
▁sosyal
▁bilim
▁bizi
▁çoğu
▁yaklaşık
▁sonunda
▁ancak
▁nokta
▁herkes
▁hale
▁çalışma
larından
▁Sonra
▁yerde
ım
▁Ya
▁tane
▁siz
▁sorun
▁elde
▁onlara
▁sizin
ba
▁ta
▁örnek
lerinde
▁proje
▁mu
▁dört
x
▁süre
▁hem
▁ona
sin
▁olmayan
▁temel
▁fikir
▁ilginç
▁eski
▁Benim
%
▁bilgisayar
▁zorunda
▁Teşekkürler
▁hemen
▁yapı
▁herhangi
▁şeyleri
ri
▁K
▁yaşam
▁kadın
▁alan
▁insanları
▁göz
▁Onlar
▁altında
▁özel
▁hala
▁beyin
▁durumda
miş
▁ay
▁birşey
▁dünyada
▁milyar
▁saat
▁demek
va
▁kolay
▁1
▁izin
▁inanılmaz
▁istediğim
▁güçlü
▁En
▁adam
ik
▁kontrol
▁B
re
▁araba
acak
on
▁parça
’
▁veri
▁5
▁etti
▁ye
▁dair
nı
▁çıkar
▁çevre
lan
▁yine
▁genç
▁mümkün
tik
▁parçası
nde
dim
▁Ha
inde
▁eğitim
▁hatta
▁T
mı
▁un
▁gelir
ır
▁hafta
▁Neden
▁sürü
▁etme
▁şunu
▁başladı
▁Bugün
et
▁30
▁ülke
▁beş
al
▁benzer
▁yapma
il
▁yüz
mak
▁bunları
cı
▁inşa
▁değildi
▁U
▁tahmin
▁güç
ra
yiz
▁hepsi
h
▁kimse
▁New
▁hava
▁G
▁kabul
▁yalnız
▁insanlara
▁gösteriyor
lo
▁değildir
▁araştırma
▁bence
▁edin
▁İlk
mek
▁100
▁yolu
lığı
▁kez
sal
ine
▁yapmaya
▁neredeyse
siz
▁dedim
▁yanlış
▁kız
▁konuşma
▁neler
ro
▁çalışan
▁birisi
▁gördüğünüz
▁aile
at
▁H
liği
▁kısa
ız
▁olma
▁50
yız
▁k
▁yapan
▁yere
to
▁gerek
▁sizi
▁gerekiyor
▁özellikle
▁hayat
▁araya
▁üzere
▁içine
b
su
▁cevap
▁Hindistan
▁I
▁olduğuna
ça
lama
▁ı
▁ana
ecek
▁doğal
▁bakın
▁TED
▁derece
▁anlama
▁verici
el
▁genel
▁yaptığı
▁düşünün
▁bundan
ir
sun
▁aşağı
▁şeyin
mizi
luk
▁200
sız
▁gelecek
▁geçen
nızı
man
nden
sinde
st
▁muhtemel
▁Aynı
gi
▁bin
▁kim
mızı
▁kullanarak
▁ifade
tu
▁Ban
c
▁başladım
▁Tüm
▁dakika
larımız
▁hasta
▁yoktu
▁bunların
▁Son
▁D
▁sonraki
â
▁arasındaki
▁iletişim
▁15
▁ses
▁4
▁çeşit
▁söz
sek
▁ihtiyacımız
nizi
▁toplum
▁İnsanlar
▁sağlık
▁Ma
▁Çin
▁savaş
▁olduğumuz
▁yapıyor
▁olmadığını
▁tedavi
▁biliyoruz
▁bağlı
▁grup
nüz
▁video
▁Belki
▁olsa
▁tasarım
sın
▁sistemi
▁görüyorsunuz
sak
▁al
▁rağmen
▁gece
▁ister
▁beraber
be
dum
or
▁düşünüyorum
▁görebilirsiniz
▁alıp
▁ele
▁teşekkür
sinin
▁karmaşık
▁on
▁nedir
▁insanın
▁dolayı
▁altı
dım
cu
▁değer
▁problem
▁hücre
lü
▁ışık
▁ikinci
ge
▁asla
▁yaptık
ö
▁ettim
▁deniz
▁he
▁u
▁derin
▁yardımcı
▁York
lerimiz
▁yaptığımız
▁at
▁sebep
muş
▁ev
▁etmeye
▁bazen
▁yılında
▁çocuklar
min
ıyor
▁olursa
▁sanat
▁bakar
▁düşündüm
▁olmalı
▁düşünce
▁başına
▁Ayrıca
▁yapılan
▁görmek
▁olsun
▁yaşayan
▁Büyük
▁olup
▁bakış
▁ortak
▁oyun
▁hazır
▁dışında
▁olmadığı
▁konuda
ha
▁erkek
▁dünyayı
▁6
▁adı
dik
abilir
ydu
▁kendini
▁içerisinde
▁anne
▁ekonomik
nun
▁vermek
yım
▁almak
▁küresel
vi
▁sürekli
▁değişim
▁Buna
▁kesinlikle
▁doğa
▁dikkat
▁yılda
▁beri
▁el
ter
▁Avrupa
▁görüyoruz
▁dolu
▁Yeni
iyor
▁hep
▁kelime
unu
▁işi
▁çıktı
ebilir
▁gerektiğini
us
▁adım
çe
▁binlerce
▁Kendi
▁ölüm
abiliriz
▁kısmı
▁arada
▁bina
imiz
▁güneş
▁takip
▁başarı
▁geç
▁Bütün
ur
▁sık
▁başarılı
▁mü
▁Bizim
bi
▁defa
▁haline
▁test
▁biliyor
liğin
es
▁deki
▁Teşekkür
alım
▁40
▁ait
▁anlamın
▁sebebi
▁nedenle
▁olurdu
▁Diğer
▁bulunan
▁yı
▁Hayır
▁İki
▁ileri
▁varsa
▁şeye
▁yemek
▁Gerçekten
dığı
▁evet
▁meydan
▁dünyadaki
ch
▁uygun
▁sistem
▁yaşında
▁kan
▁hayatta
▁yaptım
▁ediyorum
▁eder
▁alanı
▁kadınlar
dığını
▁yanı
▁fikri
▁geniş
▁yaptı
▁gidip
▁ayrıca
▁mutlu
▁mükemmel
▁metre
▁canlı
ün
▁hepimiz
leme
▁madde
yan
▁iç
ğ
lığın
▁merak
▁sayesinde
mda
▁sen
yken
tur
sinden
▁başladık
▁düşük
▁M
▁ihtiyaç
▁elektrik
maya
v
▁baş
▁tabii
ğı
▁acı
▁DNA
▁gerekir
elim
▁musunuz
▁olay
▁mevcut
yim
is
co
▁ağ
▁El
▁hangi
▁sayı
▁olmasını
▁güven
▁muhteşem
▁ilişki
▁J
▁Ç
▁sonuç
▁ön
▁veren
▁zamanlar
dü
▁film
▁resim
▁müzik
kı
ru
▁korku
leriyle
▁ek
▁olmadan
▁ilgi
▁haber
▁nerede
▁7
▁makine
▁yıldır
▁De
po
▁biliyorum
▁sağ
▁gerekli
ına
▁sıra
▁kapı
▁destek
▁anlamak
▁ABD
▁yavaş
▁araç
▁s
▁çizgi
▁yatırım
▁ciddi
▁ettik
meye
sında
▁göstermek
larımızı
▁gidiyor
▁yaptığım
▁internet
▁normal
▁görünüyor
▁12
▁sesi
▁oda
▁fotoğraf
▁sinir
sının
▁beyaz
▁etki
▁çıkan
▁olacağını
▁bağlantı
▁birinin
hi
▁kendimi
▁dahil
▁söyledi
diği
▁tıp
▁asıl
▁görme
▁şehir
▁gücü
▁göster
▁geli
▁yerlerde
▁kendisi
çi
▁kalan
bo
abilirsiniz
▁okul
▁yaz
▁ortalama
inden
▁emin
▁yazı
▁bilirsiniz
▁San
ında
▁nedeni
▁herkesin
▁yukarı
▁verdi
▁Me
▁Bunları
▁oluşan
liğe
▁kişisel
▁yedi
▁kafa
▁tamam
▁Al
▁birini
▁altın
▁Amerikan
▁verme
▁yanında
▁Su
▁aldı
▁nun
▁mavi
lerimizi
▁la
▁18
▁olduğum
▁model
▁çözüm
▁alma
▁zaten
▁Müzik
dür
▁buraya
▁noktada
▁çocukların
▁deney
▁aşı
▁oray
▁60
▁dil
▁uzak
w
▁Artık
▁arka
1
▁hayvan
▁tepki
ed
▁Onun
▁Birleşi
▁bakalım
▁Mo
▁şeylerden
▁kullanma
▁ortada
▁bulmak
ması
▁olsaydı
▁sayıda
▁fiziksel
▁8
▁yan
▁uzay
▁ara
▁yeterli
ing
ga
▁çalışıyor
▁işin
▁lazım
▁Başka
▁ufak
▁üst
▁heyecan
▁idi
▁resmi
▁İ
▁Örneğin
▁dışı
▁öğrenme
▁derecede
▁yıllık
▁devlet
ku
▁veriyor
▁olmaya
▁aldım
▁belli
2
▁sahibi
▁Herkes
za
▁verdim
▁Mars
▁CA
▁mücadele
go
▁şeylerin
▁ekonomi
▁sağlıyor
▁buradaki
zi
▁si
▁diyor
▁edecek
▁tabi
▁söylemek
▁kitap
▁gördüm
▁bölge
▁verir
▁yeşil
[
▁deneyim
▁alt
▁tarafta
▁sanırım
D
▁bas
▁halde
ılmış
inin
▁zengin
▁zamanlarda
]
▁ediyoruz
▁biçimde
▁görüntü
anırım
▁Google
▁yapıyoruz
S
▁Nasıl
9
▁F
▁telefon
▁dünyaya
▁11
▁Kuzey
▁Bazı
fi
▁şarkı
▁gittim
▁yaratmak
▁kalp
▁oldukları
▁iklim
▁azında
▁katı
▁sayfa
▁düşün
▁orta
▁medya
▁yerel
▁25
▁tanesi
ebilirsiniz
▁aşırı
▁Güney
▁çıkıyor
lerdi
▁Hatt
sam
▁yaşlı
▁düşünme
▁olduklarını
lığ
yse
▁dijital
▁hoş
▁ayrı
çı
▁ihtiyacı
▁hastalık
▁merkezi
▁biliyorsunuz
▁olacaktır
dık
▁Tanrı
▁hayır
▁yerinde
kçe
▁şekli
lanmış
▁işler
▁şaşırtıcı
▁sahne
▁kamera
▁etkili
▁Ş
ve
▁gelişme
der
▁ilaç
▁üstünde
▁bazıları
▁milyonlarca
▁et
▁na
▁dışarı
▁kişinin
ton
▁Sa
▁büyüme
▁seçim
▁petrol
son
▁saniye
▁kanser
▁gördüğümüz
▁Böyle
▁konusu
▁gösteren
▁gerektiği
▁sağlayan
ktan
▁dizi
▁Di
▁bununla
tim
▁istedim
▁kara
ste
mesi
▁adında
kar
▁çalışmak
▁fakir
▁üniversite
bu
▁açısından
▁hâl
larıyla
layan
ko
▁teşekkürler
▁tip
ür
▁olmuştu
▁yüzünden
▁çift
▁gitme
▁işaret
▁kaynak
larımızın
ğa
▁takım
▁yapar
▁insanlarla
diğini
▁bırak
▁örneğin
▁der
▁Mesel
▁mesela
▁başında
▁kırmızı
▁Birkaç
3
▁ilham
▁koruma
▁icin
tü
▁beynin
met
▁80
4
▁değilim
mde
mizin
▁alıyor
▁İyi
ver
▁yaratıcı
▁sonucu
▁anlamda
▁görsel
▁kutu
▁kaynağı
▁Onu
▁içindeki
ebiliriz
cak
fa
▁bakım
▁zarar
▁Sen
▁temsil
lanma
▁tercih
▁Hiç
▁istiyoruz
▁olmuş
▁Te
▁etkisi
▁yıllar
▁dış
▁fikirler
▁gördük
▁harita
▁sanki
▁konuşmak
▁numara
▁İş
▁günde
san
▁yapabiliriz
▁yoksa
▁sayısı
▁N
▁göstereceğim
ol
▁alır
▁önceki
▁değiştir
▁L
▁Dolayısı
▁temiz
▁başlıyor
▁Orada
▁çeşitli
▁ayak
▁robot
▁hizmet
▁inanıyorum
▁Va
sem
▁risk
▁mesaj
▁umut
▁söylüyor
▁buz
▁ucuz
▁plan
▁gelecekte
ab
▁uygulama
gu
▁gerçekte
▁bilimsel
▁kendimizi
▁cep
▁İkinci
▁erkekler
ysa
▁zamanı
▁gizli
mize
▁ten
▁satın
▁re
▁baskı
▁ince
▁tanı
▁akıl
▁durumu
▁sağlıklı
▁Gerçek
▁pazar
▁şirket
▁garip
▁koy
▁R
▁demokrasi
▁Se
▁dur
▁sınıf
▁yu
▁yüzlerce
▁seviyorum
▁olanlar
▁elbette
▁korkunç
malıyız
▁günlük
▁önünde
C
abilecek
▁edilmiş
dığımız
▁hedef
▁geçmiş
▁Biraz
ley
▁Video
B
sıyla
▁bilmiyorum
▁yoktur
▁nerey
▁yapılmış
▁uzakta
▁9
▁getirmek
▁modeli
imi
▁Tabii
▁kullanmak
▁giden
▁me
▁çaba
▁hayatın
▁genellik
▁sorular
▁olduğundan
lük
▁aldık
▁hücreleri
▁ülkeler
▁açıdan
▁masa
▁mesele
▁yapacak
▁İnsan
▁ürün
▁alakalı
▁üzerindeki
▁yara
mın
▁yapıyorlar
▁hepsini
▁kesin
ho
▁nde
▁suç
▁aracı
miyor
▁türlü
it
▁eve
▁değişik
▁üçüncü
os
▁öğrenci
ıldı
▁yasa
▁bunlardan
▁önemlisi
▁edilen
▁gider
ebilecek
▁noktası
▁f
▁yaptıkları
▁oldum
▁buldum
▁Tek
▁etrafında
▁geleneksel
▁süreç
▁anlamı
muz
cık
▁piyasa
▁anlat
▁icat
▁yiyecek
▁güvenli
▁ders
▁Be
▁Orta
▁kendilerini
ının
▁başlar
▁olduğunda
▁budur
▁yi
mıyor
▁Onları
▁programı
birine
▁tarih
acağım
▁ardında
▁gitmek
▁sağlamak
▁ilerleme
▁sorunu
P
ünü
▁fırsat
▁istediğimiz
▁Batı
nca
▁sonsuz
▁kon
▁süper
▁kurma
▁inan
▁sekiz
▁Pekala
▁program
▁Ra
▁anlamaya
▁kalma
▁arkadaşım
ilmiş
▁getiriyor
▁karbon
asyon
mıştı
▁algı
▁sabah
▁geldiği
▁Tam
▁yapmayı
▁eş
▁Burası
▁Birçok
▁rol
▁gönder
▁esas
▁görev
▁kök
▁ç
mo
▁70
▁değiştirmek
adlı
▁Ba
▁içeri
▁kişiler
▁insanı
ici
▁kere
▁Beni
▁ak
▁geldiğini
ist
▁yaparken
▁kal
▁modern
▁hata
▁bitki
mıza
▁He
do
▁İnsanların
▁çalışıyoruz
▁verdik
▁teşvik
▁ısı
▁politika
▁verin
▁bulduk
▁mil
mişti
▁sahibiz
▁herşey
▁bi
▁yaş
▁hayatını
▁olağanüstü
▁halinde
duk
lenmiş
▁gıda
▁politik
▁düşünmeye
7
landı
▁genetik
▁şekil
yum
▁sırasında
▁hücreler
▁Li
▁dahi
eyim
▁toprak
▁kar
▁evrim
▁getir
▁belirli
▁ettiği
▁90
▁deneme
▁Da
▁örneği
▁ediyorlar
acağını
▁P
▁yağmur
▁Ro
▁tartışma
mızın
▁yoğun
▁denge
▁yeterin
▁davet
▁balık
ot
▁geriye
▁sonuçlar
▁ikna
▁senin
▁yana
▁gelme
diğimiz
▁birine
▁Ta
▁boş
▁yaparak
▁okyanus
▁hayvanlar
eceğini
▁başta
▁amacı
▁tepe
▁ortasında
T
kten
bil
▁İnternet
▁biyo
▁kendimiz
▁çekici
▁yaşıyor
▁demektir
▁uç
▁ikisi
K
▁sıcak
yo
▁li
▁zihin
▁boyutlu
▁erken
5
▁akıllı
▁16
suz
▁yaygın
▁Re
▁görüş
▁karanlık
▁aç
▁gel
▁duruyor
ul
yon
şi
▁Geçen
▁sol
▁Demek
▁kullan
▁siyah
unun
▁hastane
▁fare
▁duvar
▁bebek
▁kendime
▁virüs
▁açıkça
ilen
▁kare
ey
▁onunla
▁yarı
▁Bo
/
▁kenar
▁şiddet
dikleri
▁seç
ık
▁araçlar
acağız
▁kadınların
▁dayan
lanıyor
▁yap
▁olmayacak
▁ü
▁La
▁çalışıyorum
▁mal
▁sıfır
▁Öyle
▁güvenlik
▁sonrasında
▁Çocuk
▁yüzü
▁nesil
▁Ku
▁sırada
▁tut
▁düşünüyor
▁babam
A
abiliyor
▁hastalığı
▁telefonu
▁Do
▁şirketler
▁çocukları
▁yaşama
▁miktarda
▁ziyaret
ji
▁çalışmaya
▁adını
▁500
ayım
tör
▁yabancı
▁ülkede
▁yarısı
▁teori
eceğim
▁oranı
ıl
▁devre
▁düşünmek
lüğü
▁tehlikeli
▁Buradaki
▁seyahat
▁Co
▁Kim
lıyor
▁yapmamız
▁olduğumu
leşmiş
▁etkileşim
eceğiz
8
nize
▁Bilim
▁çalıştığım
▁Doğu
▁tehdit
ıcı
lığını
▁pahalı
cü
▁Tabi
▁Ka
ebiliyor
▁farkın
▁tarz
▁imkansız
▁eğlenceli
▁net
▁gaye
▁Öyleyse
sh
ah
▁saygı
▁ha
▁adına
▁ışığı
▁anlatmak
▁nefes
▁zeki
diğim
▁kod
ize
▁kullanıyor
▁cok
▁anlam
liğini
▁di
lanan
▁annem
▁ayı
raya
▁tan
▁gösteri
th
▁ağır
▁bildiğimiz
▁taraf
▁edici
▁olmaları
▁bağ
mayı
▁Hem
▁An
▁bizler
ör
▁almaya
▁muazzam
▁So
▁anı
▁dans
▁ettiğimiz
6
▁geçti
▁getirdi
lerdir
▁Ona
▁pa
▁kap
▁yüzyıl
▁gerekiyordu
▁ton
▁çapında
▁Sizin
ğe
▁adamı
▁yapmış
▁dek
▁ettiler
▁Bazen
▁olmayı
▁olduğumuzu
▁akşam
▁vücut
▁Sonuç
▁birer
▁tecrübe
▁okula
▁yaşındaki
▁yada
iyet
▁sistemin
▁öğrendim
▁arası
▁tarafı
▁sey
▁liste
▁mimari
▁alanda
▁birşeyler
▁makale
▁fazlası
▁okuma
▁cevabı
▁ederek
▁alın
tor
▁amaç
▁sanal
▁köpek
▁bisiklet
▁söylediği
▁bulunuyor
▁Güneş
▁sağlayacak
▁Yine
▁işbirliği
▁Chris
▁rahat
▁teknik
▁Mu
▁geçme
▁burası
L
▁neyse
▁Dr
▁kaya
▁benziyor
▁olduğunuz
▁yaratma
▁çoğunu
▁kayıt
▁günü
▁Çoğu
▁17
▁13
▁Man
▁gitti
bilme
▁biyolojik
▁alanlar
▁saldırı
▁ülkelerde
▁hızla
ımız
▁oy
▁21
▁sana
▁edildi
▁benzeri
▁burda
▁yöntem
▁sonuçları
▁14
▁öğrenmek
▁yeri
iği
▁zeka
▁görebilir
▁benimle
▁bölüm
▁malzeme
▁W
▁hayatı
yıp
▁müthiş
▁suyu
N
▁24
▁sağladı
▁duygu
▁geçir
▁duyu
▁soğuk
▁onlarla
▁strateji
▁sorunlar
▁edebilir
laşma
▁isteyen
▁ko
E
▁gücünü
bir
▁kazan
▁mikro
lendi
▁buydu
▁ma
▁kağıt
şe
iyle
▁görürsünüz
▁kimyasal
▁göreceksiniz
▁gezegen
▁evde
▁hal
▁süreci
▁can
▁sanatçı
▁sor
▁olmaz
▁kilometre
▁Ki
masını
▁problemi
meliyiz
▁buçuk
▁sordu
▁hesap
▁işlem
H
▁hepimizin
▁görmeye
▁Devletler
▁istiyor
▁zayıf
nıza
▁kısım
▁farkında
▁parti
▁Hepimiz
▁Küçük
▁g
▁Sonun
▁hakkı
▁gösterdi
▁endişe
▁doktor
▁tuhaf
▁İngiltere
▁şeyden
▁çalıştım
▁halk
▁Na
▁HIV
▁kilo
▁yaklaşım
▁arazi
▁kamu
▁sefer
▁şeklinde
gen
▁dediler
▁konuş
men
▁arı
▁ka
▁fotoğrafı
▁fa
▁verilen
▁olmamız
unda
siyle
▁yazar
▁sordum
▁kaldır
▁şirketi
▁nefret
▁buldu
”
▁silah
▁çalış
tra
▁sıradan
▁eşit
▁üretim
▁başa
▁devrim
▁standart
yorum
▁tak
▁tarihi
▁tarım
▁görünen
per
▁Kız
▁sevgi
sından
▁bulma
▁İngilizce
▁kullanılan
▁alacak
lıyız
eceği
▁Yüz
▁biyoloji
▁Harika
▁deri
▁yapabilirsiniz
lerimizin
ılması
▁balığı
▁hikâye
“
▁sağlar
▁Elbette
yor
▁Şöyle
▁din
▁ateş
▁hafif
▁hak
▁baba
▁sizinle
▁önemlidir
▁hesaplama
▁sürdürülebilir
op
▁değiliz
as
▁kol
▁olanı
▁yapabilir
dıkları
▁rahatsız
▁arama
kan
▁The
▁rüzgar
▁yolunu
▁dönü
▁evrenin
▁olmadı
rken
▁olun
▁kas
▁zorundayız
nu
ster
▁yaptığını
00
mızda
▁motor
▁değerli
▁Asya
▁olduk
▁değiller
▁söyleme
▁duygusal
lenme
▁gösterme
▁bakteri
▁av
iniz
▁çocuğun
▁değiştirdi
▁üstüne
ck
▁ünlü
▁ver
▁geçerli
▁Adam
ildi
▁giderek
▁sıkı
▁çıkı
▁plastik
▁gazete
maktadır
▁yaratıyor
▁geleceği
▁Afganistan
meyi
iyorum
▁km
tık
▁Bize
▁yüzyılda
▁yapay
▁Le
▁sergi
▁dağ
lanır
▁batı
▁yöntemi
O
▁gemi
lardır
taki
▁gerçekleştir
▁sesleri
▁etmeyi
ndaki
▁kes
▁değişikliği
▁gelişmiş
▁kısmını
▁sistemini
▁yapıldı
▁paylaşmak
▁yapıyorum
ren
▁yazılım
F
▁199
▁spor
▁gaz
▁Pi
▁ağaç
luğu
▁edil
mu
▁paylaş
▁Bilirsin
▁bakmak
▁ada
▁cam
▁fazlasını
tro
▁yılın
▁oluştur
▁nevi
▁art
▁ettiğim
▁bulunduğu
▁alet
▁oluşturmak
▁gir
▁Ar
▁kitle
▁olabileceğini
▁Doğru
▁kuru
▁çöp
▁seviye
ımı
▁molekül
▁sabit
▁hali
nizin
▁duyma
▁ila
▁ölü
▁Kar
▁iste
▁verimli
▁posta
▁kültür
M
▁Gördüğünüz
▁19
▁şeydir
▁önün
▁edip
▁Ev
▁renk
▁radyo
▁kitabı
▁önümüzde
▁le
likle
▁beyni
▁kültüre
▁Davi
▁gözlem
▁parmak
▁aşama
▁uluslararası
▁görüyor
▁açı
▁bilmiyor
▁azalt
▁ün
▁mantıklı
▁mahalle
▁yola
▁hayatımı
▁başarısız
muyor
▁dışarıda
▁Y
▁açıklama
▁dediği
▁dokun
▁açısı
▁Baş
▁söyle
▁sevdiğim
▁yakıt
▁ni
▁yıldız
▁Ah
▁kanıt
▁bil
▁çocuğu
▁sağlığı
▁reklam
▁yönetim
kça
▁bulunma
▁geçer
▁dönüş
▁bağımsız
▁uydu
▁cihaz
▁nda
▁çoğunlukla
▁Eski
▁polis
diniz
▁başlama
▁kalıyor
▁bilme
▁yayın
ıyla
j
▁Önce
▁değiştirebilir
luyor
▁t
▁çalışır
▁miktar
▁hükümet
▁değiştirme
▁nesne
▁Hiçbir
▁olabilecek
▁olanak
▁engel
▁ani
▁yerler
▁bilinen
▁hatırlıyorum
ılan
▁verileri
▁geldiğinde
▁koydu
▁bölgede
▁fikirleri
▁düşünür
▁bilmek
▁geçiyor
▁parçalar
▁yapacağı
▁alanında
mıştım
ği
▁sizlere
▁diyorum
▁edebilirsiniz
▁düşündük
▁kuş
▁sorunları
▁epey
▁altyapı
pi
lamak
▁yük
▁tasarruf
▁iddia
▁dev
▁gerçeği
▁toplumun
▁neyin
▁şehrin
▁Londra
▁John
id
▁dokuz
▁adamın
hu
hr
▁şeker
▁dikkatli
▁çöz
▁dediğimiz
if
▁Birincisi
▁tehlike
▁değişimi
iş
▁300
▁önem
▁Bazıları
▁v
▁ötesinde
▁ülkelerin
▁Yap
▁kapalı
G
▁hissi
▁şans
ndeki
ebileceği
gan
▁başladılar
abilmek
▁ö
▁parlak
X
▁sorumlu
▁ayır
▁çek
▁türü
▁şa
▁korumak
▁insanlardan
▁hakları
▁gelişmekte
▁hayata
▁park
▁lütfe
▁suyun
▁verdiği
▁verecek
▁herşeyi
▁siyasi
iyoruz
▁olabilirsiniz
ış
▁aktif
▁web
▁ediliyor
▁Güzel
▁keşfed
▁cümle
▁davranış
rek
▁san
diğinde
▁Hepsi
▁sessiz
▁ölçüde
dy
▁hastalıklar
▁yemeği
▁oyunu
▁sınır
▁orman
▁gerçeklik
▁gittik
▁halka
▁ödeme
▁yağ
▁Bak
▁seks
diler
lerinizi
▁karakter
▁tur
fer
▁karşısında
▁çıkarmak
▁olabileceği
▁yazma
▁yaptılar
▁düz
▁boya
▁sarı
▁tespit
▁arkasında
mektedir
▁getirme
▁kanseri
dığım
eği
▁doku
▁Vi
▁İngiliz
▁gerekirse
ber
şa
▁evren
▁bitir
imizin
▁sap
mizde
umuz
▁matematik
▁Amerikalı
▁gen
▁...
▁analiz
▁merkez
▁bölümü
▁şeydi
ja
larımızda
teki
▁nereden
▁büyüdü
miştim
▁öğren
▁cinsel
▁yerden
▁Teknoloji
▁dava
▁taş
▁cinsiyet
▁nükleer
▁gruplar
▁keşif
miyorum
▁yollar
abileceği
▁çalıştığımız
▁gittikç
▁se
▁olmaktan
dılar
▁doğum
▁seni
▁bahsetmek
▁mutluluk
lerim
▁taklit
▁kullanımı
land
▁ol
▁kullanıyoruz
▁kulak
▁saye
▁içi
nün
▁istiyorlar
▁top
▁istediğiniz
▁0
layacak
rt
▁Onların
▁isterim
▁site
▁koyar
▁sır
▁istemiyoru
▁elimizde
▁Pa
▁geçiş
▁ihtiyacınız
ay
▁koyu
▁Bakın
▁öldü
▁tıbbi
▁ödül
▁öğretmen
▁istedik
▁öğrenciler
▁kaldı
▁televizyon
▁as
▁nüfus
▁anlaşma
emez
▁ortam
▁gösterir
eri
nuz
▁özgür
▁suçlu
▁girme
▁değeri
▁diyoruz
layıcı
leşme
▁geliştirme
▁görün
▁okulda
▁yaşıyoruz
▁özelliği
▁Ri
▁parçaları
▁görüşme
▁adet
▁teknolojiyi
▁marka
▁tarzı
▁Fi
▁kullandığımız
▁istedi
▁durumun
▁terk
▁aktivite
▁giriş
▁kişiye
▁toplantı
▁toplam
▁yolculuk
▁Lo
▁gibiydi
▁yaşamak
aman
▁Ga
▁vermeye
▁isim
▁taki
larca
▁girdi
▁yanıt
▁anlıyor
▁yapabiliyor
▁ürünü
kları
▁komik
▁besin
▁oluşturuyor
niversitesi
▁sal
▁anlamıyla
▁eylem
▁dönem
sen
▁sandalye
▁musun
▁kopya
▁düşündü
▁edebiliriz
▁kum
▁giy
▁Du
▁ters
▁Irak
nızın
▁elinde
▁kurmak
▁ata
▁arkadaş
▁edilmesi
▁is
▁kural
▁çıkma
amaz
▁bahçe
▁karşılık
▁gelmiş
▁şansı
▁kur
▁robotlar
▁V
▁sermaye
▁yetiştir
he
▁bilir
▁görüyorum
▁durma
▁tuvalet
▁kıta
▁şehri
▁seviyor
▁denen
▁birleştir
▁ci
▁artış
▁galaksi
▁benden
▁Tekrar
iliyor
▁Ja
▁be
R
▁tablo
tar
▁dünyasında
▁olacaktı
▁yılı
▁dik
▁çekme
▁işleri
▁par
▁degil
▁tutku
▁bulmaya
▁ulaşmak
▁kendinizi
▁görevi
▁istediği
▁Hava
▁ruh
▁hikayeler
▁düşünüyoruz
▁İsrail
▁öğrendik
isi
▁kullanan
let
▁gezegende
uyor
▁kullanıl
meyen
▁miydi
umu
▁Bil
▁imkan
▁olacağı
▁ölçü
▁peki
▁krizi
▁es
▁birbirlerin
▁yerlere
lanması
▁2000
iyorlar
▁serbest
▁yarım
▁deniyor
inizi
▁protein
lma
▁Ses
I
▁mağara
lamaya
▁berbat
▁Sağ
▁sistemler
▁kayıp
▁tanıştı
▁yerini
▁tü
sunu
▁ihtiyacım
▁arkadaşları
larım
leyen
▁inanıyor
▁pencere
▁dişi
▁askeri
▁saf
▁anahtar
▁gurur
▁merkezinde
ünün
▁edersiniz
▁hukuk
▁açtı
▁harcama
▁evrensel
▁lerde
imin
▁karşılaştır
▁sert
▁hissetme
▁dal
▁uçuş
▁dönemde
▁sorunun
▁uyar
▁otur
▁zamana
▁duydu
▁kaza
ebilmek
▁karşıya
▁etmiş
▁Anne
▁tutu
rik
▁uyum
▁yapılması
▁kullanıcı
▁yarar
▁olmaması
▁Mi
▁kedi
▁dizayn
▁ihtiyaçları
▁gelebilir
▁etmiyor
▁Po
q
lerimizde
gun
▁b
▁ticari
▁başlangıç
▁giriyor
ara
▁mesafe
▁kimin
▁Biliyorsunuz
▁sev
▁kurallar
▁hikayesi
▁koyuyor
▁ekran
larsa
▁evin
▁zamanlı
▁kredi
▁Yaklaşı
oloji
▁fikrini
▁çalıştık
▁Geri
leniyor
▁bar
leyici
▁mercan
▁Dedi
aj
▁Sağlık
tım
▁fizik
▁Ko
▁aksin
▁istiyorsanız
▁In
▁ameliyat
▁tavsiye
▁fil
▁kendiniz
ydım
▁durumunda
▁zevk
▁inanç
▁ulusal
▁indir
▁yorum
▁bireyler
▁anlatma
▁görünür
▁değişiklik
ğin
▁sonu
▁daire
meyecek
▁fiyat
▁sıvı
▁çılgın
yü
▁misin
▁Si
ılıyor
▁Pe
▁dayalı
▁Brezilya
▁yazık
▁havada
▁hastalığın
▁sivil
▁sistemleri
▁yaşamın
▁oksijen
▁ayar
▁hassas
▁talep
tür
lenmesi
▁İkincisi
▁çiz
▁çıkardı
▁Facebook
▁firma
▁türden
▁beceri
▁ettiğini
▁söyler
nce
▁gönüllü
▁um
▁do
▁Kimse
▁sahiptir
▁araçları
▁Ara
▁ihtimalle
▁eminim
▁endüstri
▁yarat
▁ibaret
▁potansiyel
▁güney
▁bit
▁edilebilir
▁yetişkin
mem
▁Jo
yacağım
▁uyan
▁dolara
▁sevme
▁yoluyla
ydim
▁dile
▁AIDS
▁hız
larımı
▁Almanya
▁planı
lardaki
▁bakma
▁Şunu
▁Çocuklar
▁birinde
▁toplumsal
▁kahve
▁takımı
▁buradan
▁deli
▁uçak
▁elektronik
▁lider
▁alabilir
ümüz
▁bilimi
ana
ıyoruz
▁koyma
▁oluşturan
▁git
▁şifre
▁gördüğüm
▁grubu
▁müdahale
▁bomba
▁birinci
▁kullanır
▁bütçe
▁gördü
▁dalga
abilen
▁Pek
▁eğitimi
▁çocuklara
▁kadının
for
▁müze
▁yaptıklarını
▁hafıza
▁kemik
▁barış
▁oluşuyor
▁Uzun
▁bırakma
▁nadir
▁bol
▁bo
▁bende
▁kaynakları
▁işim
▁bahsed
▁oranda
▁ismi
▁diğeri
▁dönüyor
raf
▁öz
▁Japonya
▁başlayan
▁problemleri
▁Sizi
ilebilir
ışı
▁400
riyi
▁maru
W
▁servis
▁ulaşma
▁odada
▁Yaşam
▁oluşturur
▁değişti
▁davran
▁denedi
▁manzara
▁çatışma
▁em
▁kendisini
leşti
▁kriz
▁grafik
up
▁tutmak
idir
una
ff
ll
▁yönet
arı
▁kıyı
▁dergi
▁alarak
ıyorlar
▁bizimle
▁isteme
▁bahsediyor
▁edebiliyor
▁kurtar
ov
▁ba
▁say
▁tarafında
▁tamamı
▁Kenya
▁geçiriyor
ılır
▁söyley
▁yeteneği
ss
▁bilgileri
▁sıtma
▁konuşmaya
tığını
▁vaka
han
▁sağlayabilir
ore
▁imkanı
▁Biri
ger
▁olduğunuzu
▁arzu
müş
▁doğu
▁içerik
▁diz
▁ederken
▁deyişle
▁nedeniyle
▁kişiyi
▁alternatif
▁Yalnız
▁kullanım
▁öte
▁düzen
▁tanıma
▁adamları
▁rakam
▁Ön
▁tanım
▁popüler
▁olaylar
▁resimler
▁sonrası
▁yumurta
ladı
▁arta
▁insanlık
▁kurdu
▁isimli
▁kendileri
▁baktığınızda
▁bakarsa
▁taşı
▁Kal
mesini
▁önemi
▁bunlara
▁zorundaydı
▁vakit
▁karışık
▁çağrı
▁getiren
▁ahlaki
makta
▁laboratuvar
▁getirir
▁dediğim
▁yenilik
ğu
▁bağış
▁olabilirdi
▁söylüyorum
▁haklı
▁işleme
▁diş
▁filmi
▁alalım
▁Ulusa
ft
muştu
▁çalıştığını
üyor
malısınız
▁itibar
▁performans
▁pi
▁topluluk
imizi
▁girişim
▁hayatlarını
fen
▁taşıyor
▁Genç
▁anlamlı
▁kaynaklar
▁profesyonel
▁hastalar
▁beden
▁kelimeler
▁şiir
▁Am
duğunu
▁hâle
▁veriler
▁konuya
▁kulağ
▁çekmek
▁Özellikle
▁organ
▁çözmek
▁Sal
seydi
ut
▁verdiler
▁düştü
▁Bay
tif
▁Fe
▁engelli
▁şehirler
▁özellikleri
▁sonun
larınızı
▁fayda
▁bulun
▁ölç
▁patlama
▁çalıştığı
mle
▁yapacağım
▁düşme
▁gözü
▁çalışmaları
▁arkadaşı
we
ebileceğimiz
▁seviyede
▁duru
larındaki
▁düzenleme
izm
▁Biliyoru
lerdeki
diğiniz
▁oluşturma
▁Sanat
▁Hu
▁devasa
▁yaşadığımız
▁hissediyorum
▁kır
▁belge
▁heykel
▁rastgele
▁çalışmalar
diklerini
▁finansal
▁sürece
▁radikal
▁yönelik
▁klinik
▁hareketi
▁pat
▁söylen
▁milyarlarca
▁seri
▁mezun
▁ederiz
▁banka
▁değiş
▁kalite
▁deneyimi
▁kaçır
cılar
▁not
▁yavru
üm
▁geliyordu
▁Afrikalı
lke
▁Fa
▁Neyse
▁sürede
▁çeki
▁yaşadı
▁fırsatı
▁sonucunda
▁etmesi
▁sağlama
ıyordu
ebilen
▁Göz
▁sahipti
▁his
▁bitkiler
▁güvenilir
▁günümüzde
▁eksik
▁çekiyor
mızdan
▁Time
▁kesi
▁kalmış
▁dedik
▁vergi
▁Doğa
▁organizasyon
▁parayı
▁Değil
▁değiştiriyor
▁Öncelikle
▁üçte
▁uyku
▁Yakın
▁kilit
▁yolla
▁Bizler
▁girişimci
▁şişe
▁Bill
▁gelişim
▁taşıma
▁baktığımızda
▁alanlarda
▁sınırlı
▁Ay
▁birbirleri
▁yapılıyor
▁Sol
▁gözüküyor
▁Genel
▁arkadaşlarım
layarak
▁fosil
▁yapabileceğimiz
▁diyelim
çu
▁fikrim
▁şüphe
▁dönme
▁yarattı
▁verdiğimiz
abileceğimiz
▁içeren
▁anladım
▁faaliyet
▁yolda
▁Sorun
▁çalışması
▁kalır
▁Pro
▁bildiği
▁olası
▁olduğunun
▁psikoloji
▁bilgisayarlar
▁İç
▁Para
▁bırakıyor
▁Adı
▁olayı
▁yüzey
rak
▁bildiğiniz
▁zamanında
▁yenilikçi
▁yapması
▁ekip
▁ediyordu
▁tatlı
▁baktı
▁birbirin
▁ağı
▁ser
▁kahraman
▁vahşi
▁makina
▁maliyeti
▁etmemiz
▁İn
▁ederler
ldukça
▁kart
▁bilmiyoruz
kte
▁Mü
▁ulus
▁kuvvet
▁alıcı
▁Yer
▁rapor
▁150
▁metal
mayacak
▁çalıştı
▁maliyet
lerimi
mis
lemek
▁çal
▁teklif
▁dönüşüm
▁giri
▁ölme
▁tutma
▁Ana
▁Hayat
kleri
▁dinleme
▁satış
▁saatte
▁Kesinlikle
▁yüzyılın
▁Uzay
▁bakıyor
▁başlamak
▁Savaşı
ac
▁miktarı
ad
abileceğini
▁yapmıyor
melen
▁yaka
▁kimya
▁yükselt
▁civarında
▁dürüst
▁olmanız
▁çalışırken
▁acil
▁rekabet
▁Twitt
sidir
▁paylaşma
ından
▁bahsettiğim
▁çoğunuz
▁çık
▁kullanmaya
▁ettir
▁dağıt
▁zamanla
▁Dan
▁çözümler
▁başlayalı
▁neyi
ram
▁sebeple
▁geliştirmek
▁etkin
▁biriydi
▁atom
▁söyleyen
▁eğri
▁eriş
▁kıyasla
▁yön
▁basitçe
▁alıyoruz
▁seçme
lup
▁özgürlük
▁tanıyor
▁benze
▁istedikleri
dışı
▁gazeteci
▁yıllarda
▁gelince
▁götürdü
▁geldik
▁biliyordu
▁çocuklarını
▁sürdü
cik
manın
kti
▁nöron
▁anlatacağım
▁Har
▁çiftçi
▁zordur
▁Eğitim
▁kocaman
▁ter
▁Paul
▁yaşındayken
▁Araştırma
▁belirt
▁yolunda
▁soy
▁h
▁toplu
▁döndü
▁evrende
▁etkileyici
▁düzgün
▁imza
▁çatı
dıklarını
▁Fo
▁Umarı
▁Farklı
▁almış
▁koku
▁domuz
▁ilaçlar
▁karınca
▁ölçüm
♪
▁kaba
▁anlatıyor
▁aklım
▁Basit
▁vereceğim
▁katıl
lerindeki
▁ücret
▁farkı
maz
▁kör
▁cesur
▁şirketlerin
▁düşüş
▁kazanma
▁çeken
▁olmuyor
▁fabrika
▁blog
▁katman
▁Kol
▁anlar
düşünebilirsiniz
rin
▁ahlak
▁kişilik
▁arıyor
▁sı
liyor
▁iz
▁diyorlar
▁çiçek
sü
▁düşündüğümüz
▁köy
▁merhamet
▁geçmişte
▁ederse
▁şefkat
▁felaket
▁gelmişti
▁sıklıkla
ite
▁üretme
▁görür
▁ziyade
▁şehirde
▁dakikada
▁kutsal
▁görmüş
▁hayvanların
▁trilyon
▁yaşın
▁to
▁savunma
▁depresyon
ans
▁sahte
▁kendim
▁Meksika
▁yaşan
▁sormak
▁başlıyoruz
▁Bilgisayar
▁falan
▁söyleyebilirim
▁duyuyoru
▁Müslüman
▁yazdı
▁testi
▁ar
▁alanları
▁makinesi
▁adalet
▁tasarımı
▁fi
▁bulut
▁duran
▁Hey
▁harf
▁söylediğim
▁yaptığınız
ard
▁hikayesini
▁öğle
miyoruz
ğım
▁sorma
nizde
▁üretmek
lenen
▁oyuncu
laştır
▁kullandığı
▁İslam
▁idare
▁Toplum
▁kuzey
▁uzman
▁yaşar
▁çıkart
▁Hala
▁beslenme
▁düşür
▁dönüştü
larımıza
▁sahipler
▁kızı
ıyorsunuz
▁oyuncak
▁yaratır
▁koymak
▁toplama
▁aracılığıyla
▁Açık
▁etrafta
▁nehir
▁yalan
▁kuralları
▁konuşmayı
▁sürüyor
var
▁lik
▁denilen
▁günün
▁hücrelerin
▁kalmak
▁bahsedeceğim
layabilir
▁Kadın
▁Muhte
▁projesi
▁olumlu
ow
▁mekan
▁eseri
▁salgın
▁düşman
▁olacağız
har
ğümüz
acağı
▁Veya
▁bulundu
▁değişken
▁sıkıcı
▁özgü
▁değerlendir
▁bekleme
▁zihni
dığında
▁biliyordum
▁uyuşturucu
▁kritik
▁adamlar
▁ırk
miştir
▁ayında
▁Ye
▁kok
▁George
▁otomatik
▁ürünler
dığınız
▁koloni
rit
▁yuva
ğimiz
▁hepiniz
▁gezegenin
▁sür
▁geldim
▁Nijerya
ıldığında
▁daim
line
▁tersine
▁işçi
▁arttır
▁Sta
▁ortamda
▁seçenek
▁ekmek
▁mesajı
▁boz
▁Deniz
▁şirketleri
▁değerlendirme
▁35
▁nihayet
cek
▁blok
▁kullanılıyor
▁lı
▁çekti
▁sakin
▁hizmeti
▁boyu
▁Go
▁altındaki
▁As
▁izliyor
ğü
▁olmasa
▁tanrı
▁yazdım
▁araştır
▁meslek
▁günlerde
lılar
▁ısınma
▁şok
▁İşin
▁Eylül
▁demokratik
▁haberler
▁yasak
▁moda
▁yaşadığı
▁Araba
▁Küresel
kal
▁değişiklikler
▁baktım
▁mühendislik
▁ailem
mizden
▁kazandı
mayan
▁yerleştir
▁etiket
▁kızlar
▁istemez
▁çoğunluğu
▁açıyor
çüncü
▁düşündüğüm
▁çözü
▁tarihinde
▁yönde
▁başı
▁aylık
▁katkı
▁yaparsa
▁trafik
isti
▁açma
▁Yo
▁olmasıdır
▁olamaz
▁aldığımız
▁sesini
▁Kendisi
▁geçirdim
▁bireysel
▁Annem
▁söyledim
rı
▁sunuyor
▁organizma
▁patent
▁Kore
▁mimar
ysanız
▁çıkarıyor
▁organik
kinden
▁köprü
▁artıyor
▁üret
▁Sosyal
▁çalışıyorlar
▁Bilgi
▁oran
▁izleme
▁hi
▁oradaki
▁sağlay
▁sıradışı
▁ideal
▁teknolojik
ımızı
▁sağlam
▁Kan
▁du
▁kontrolü
▁görünmez
▁tutar
▁düzeyde
▁kolu
olog
▁iğne
▁başkanı
▁yapılar
▁odaklan
▁hissettim
▁canlandır
▁dili
▁çoktan
▁cihazı
▁korkutucu
▁Jam
▁polen
mıyoruz
▁süren
▁kullanabiliriz
▁Ö
▁öne
mıştır
▁kullanabilir
melisiniz
nizle
rat
▁geçmek
▁renkli
▁oranında
▁eğlence
mez
▁kamp
▁liderlik
ilir
▁Avustralya
▁aldığı
▁depo
▁tamamıyl
▁gidebilir
▁Savaş
▁döngü
▁erkeklerin
▁onay
▁gösterdiği
▁ulaşım
▁ölüyor
▁bilinç
▁bağlantılı
▁organize
▁ordu
dunuz
duğu
▁ağaçlar
▁Gu
▁kurumlar
▁hamile
ic
▁anlatı
▁buluyor
▁gelin
▁böcek
▁öğreniyor
▁yapın
▁isterse
▁Kaliforniya
süz
mamız
▁oturup
▁Dünyada
▁kurtul
▁hayret
▁On
▁çerçeve
▁zemin
▁delik
▁ağzı
▁gibidir
▁yöne
▁çeker
▁kalın
▁değiştiren
▁aldığım
▁geliştir
▁yasal
je
▁İnanılmaz
▁geçmişi
▁Kanada
▁tarama
▁Herhangi
tıcı
ğim
ceği
redeyse
▁hisseder
▁balon
lerse
▁çıktığı
▁yürüy
▁girer
▁umarım
▁cesaret
▁tarif
▁bekliyor
▁söyleyebilir
▁yürüyüş
▁Darwin
▁bekle
▁kullandık
▁Los
hane
50
▁döner
▁bugünkü
bet
▁sat
▁memnun
▁gezi
▁şeyle
▁düşen
▁durdur
▁farkettim
▁Merkezi
▁ürünleri
▁tel
▁yarış
▁işletme
Q
▁kategori
▁ilişkiler
ılabilir
▁peşinde
▁sok
▁bağımlı
▁45
▁fon
▁başlangıcı
▁alıntı
▁Ale
▁avcı
▁sar
▁alış
▁dinle
▁süreçte
▁görülen
▁hediye
▁sohbet
▁taşın
▁görmez
▁ekosistem
▁bilin
▁yaratan
▁hiçbiri
dığınızda
▁bağlan
▁To
▁ölçekte
▁vakti
▁gidecek
▁örnekler
▁edilme
araya
▁yaptır
yoruz
▁tartış
▁faydalı
▁ötesin
▁Soru
▁artır
▁kapasite
▁aşk
▁Gör
ladığı
▁diğerleri
▁çıkarma
▁kaybetti
▁Hangi
▁99
▁üstesinde
▁tren
▁malzemeler
▁kısmında
▁benzeyen
▁görüşü
▁Einstein
▁oranları
▁saç
▁şaka
acaktır
amayacak
▁ayakta
▁düşünüyordum
biriyle
▁basın
ilmesi
▁öykü
▁lisans
▁bulur
▁Beş
▁siyahi
▁söylediler
▁seviyesi
▁Konuşma
▁yaşamı
▁sun
▁göçmen
▁mektup
net
▁getirebilir
▁yörünge
▁atmosferi
gü
larınız
▁rüya
▁Sonuçta
▁oluyorlar
likten
vet
▁Az
hur
meyeceğim
▁kişilerin
▁gövde
▁gelmek
▁ucunda
▁durumlarda
▁İlki
▁gösterdiğim
ografi
▁tüketici
▁Wi
için
▁bulduğumuz
▁ediyorsunuz
ciler
▁kullanıyorlar
▁teşhis
▁hükümeti
▁çevir
▁otobüs
▁inanma
lanabilir
▁terim
▁meşgul
▁konuşacağım
▁olmam
▁aktar
▁başlayabilir
etti
▁düş
▁köşe
▁bölgesinde
▁bölgelerde
▁elle
▁kapat
▁çeşitlilik
▁dinamik
lüyor
▁üreme
▁kariyer
▁çiftlik
şık
medi
kür
▁savaşı
▁hücresi
▁eşi
▁özellikler
▁Gi
▁düşüyor
▁mekanik
▁yarattığı
▁şekilleri
▁üretiyor
▁düzenli
▁Ekonomi
rma
▁ettiğiniz
▁yeti
▁başar
▁hızı
madan
▁75
▁çıkış
▁Alman
▁kapa
▁deneyler
▁buluş
▁sona
▁Babam
▁kazandır
▁İran
▁lerin
nuzu
▁müşteri
tin
▁kalacak
▁edeceğim
▁tasarlanmış
▁inceley
▁kırsal
▁dini
▁sıkıntı
▁kullandı
ime
▁getirdiği
▁çabuk
▁konum
▁dönüştür
yordu
▁oluşur
▁uzaklaş
▁kahkahalar
▁Beyin
▁yarışma
▁kaybı
▁yapalım
▁kampanya
diğinizde
▁pozitif
▁programları
▁bırakmak
woo
▁bakan
▁şekillendir
mizle
▁Eve
landırma
▁oluyordu
▁sonuçta
tme
▁ların
▁ceza
ladık
▁öğrendiğim
lerimize
▁güzellik
▁yapısını
▁bahsediyorum
▁edelim
fik
▁temelde
asyonu
▁tanımlama
▁gören
▁oldular
▁öfke
▁duyarlı
mla
▁riski
▁yerleri
▁meyve
▁mucize
▁Or
▁karikatür
▁işlerini
▁haritası
▁Günümüzde
▁değişiyor
amazsınız
▁Arap
▁diyordu
▁198
▁doktora
▁teknolojisi
▁Ak
▁çalışarak
üş
▁alışveriş
▁Veri
les
▁arttı
▁içeriyor
▁göze
▁gölge
▁görü
▁duy
ebileceğiniz
▁mahkum
▁tatil
▁Gel
▁sinek
▁platform
▁hareketleri
▁bedava
▁ardı
yalım
▁dolayısıyla
ulmuş
▁tümör
▁Richard
log
▁göç
mıyordu
▁Top
▁tutuyor
▁düzelt
ğını
▁ayn
▁soyut
▁görüntüler
▁anında
▁Ge
▁büyüklüğünde
▁soruları
jen
ince
▁Hasta
▁aptal
▁Ni
▁etkileri
▁Yüksek
▁kütle
▁yargı
▁yönlendir
▁konuşan
▁okur
leştirme
▁varlık
▁Hikaye
▁oynat
▁atıyor
▁büyüt
▁biçim
▁Anders
▁tasarımcı
▁geleceğin
▁döndüm
▁bakacak
▁detay
▁bazılarını
▁yapmanız
lendirme
▁uzan
▁kullanabileceği
▁bilen
▁Bi
▁tanesini
▁sanayi
▁mutlak
uantum
▁kalıp
▁cadde
▁sayısını
▁saçma
▁teknolojileri
▁yiy
▁şeklini
▁katkıd
▁oturuyor
▁eşsiz
▁Mc
▁kızım
▁gördüğü
▁uy
▁unutma
▁ihtimali
▁hatırla
▁zamanın
görebiliyorsunuz
madı
▁yoksul
▁elimde
▁kurduk
▁tipik
▁prototip
▁dün
▁oynama
▁takdir
▁babası
▁ekoloji
▁At
▁algılama
cilik
▁Aile
▁Washington
▁Fransa
leşiyor
▁zorundasınız
▁ah
▁saniyede
▁başlat
lması
▁adlandır
▁koca
▁tahta
▁çıkmış
▁restoran
▁ayna
▁savaşın
▁buzul
▁zorluk
▁devrimi
lıyoruz
▁birbirimize
▁Bizi
▁yukarıda
▁uygulan
▁kaldırı
▁Sonrasında
▁büyüyen
▁kısaca
▁bilimin
U
▁larda
▁noktalar
larımdan
liler
▁olabiliriz
▁tamir
▁oynuyor
▁tarihte
▁çalışmayı
▁hayatım
ksiyon
▁sorduk
▁sigara
▁oyna
▁kütüphane
▁uyarı
▁yeme
▁internette
▁mekanizma
▁iyidir
▁çizim
nızda
▁zirve
▁kömür
▁yaşındaydı
▁zorlu
▁dehşet
▁içme
▁etkisini
▁yararlı
▁2008
▁biçimi
▁Francis
ırlar
▁Gö
syon
▁teknolojiler
▁don
▁resimleri
▁buyuk
▁ekibi
▁kıl
▁düğme
▁NAS
▁üreten
▁duygusu
▁oturdu
▁bulduğum
▁Mısır
▁evi
▁lise
▁olabiliyor
▁bat
▁Ek
▁macera
İ
▁yayıl
▁kurgu
str
▁tersi
▁Car
PS
▁herkesi
▁konuşur
▁konuşuyor
ebileceğini
▁yarıyor
▁kurtulma
▁arabalar
▁normalde
sıl
▁başardı
▁pro
▁paket
▁İlginç
▁sız
▁baktık
▁erişim
ron
fo
▁savaşta
inizin
▁bant
▁sonuc
▁senaryo
mekte
▁Doktor
▁sözü
▁fırtına
▁Allah
▁kilise
sıdır
▁konuşu
▁başım
▁boy
luğun
▁bıraktı
unuzu
▁teki
▁Tanrım
ümü
▁egzersiz
▁düşünen
▁iyisini
▁çıkmak
mayız
▁olmama
▁örgüt
▁Oh
ğini
▁görürüz
▁gök
▁ticaret
▁insani
▁1000
▁çevresinde
▁Temel
meli
▁çağı
▁balina
▁geçirmek
▁görülüyor
▁MIT
▁seyirci
▁Hayal
▁miyi
▁Fransız
▁yapabilecek
▁23
▁hasar
▁gürültü
▁kadınlara
▁kanat
▁yardımı
▁Bar
▁Der
▁köle
▁bekler
▁bakteriler
▁yolları
▁kuruyor
▁istiyordum
▁küme
▁sorumluluk
▁Roma
▁etkiler
▁sorar
▁öğretti
▁Angeles
▁resme
▁fotoğraflar
▁Merhaba
▁dua
ral
landığı
▁gittiğini
▁Rus
▁rengi
yıllardır
ırdı
▁ölen
▁üyesi
▁uzmanı
▁çoğal
▁öğret
▁varsayım
▁kom
▁kalıcı
▁oyunları
ırız
▁sinyal
▁yapmalıyız
▁ettikleri
▁Birisi
▁bırakır
saydı
▁kablo
▁isteği
malı
▁çalıştır
ımda
▁kut
▁fikirlerin
▁bilmiyordum
▁yatak
▁yönetimi
▁müziği
▁yaparlar
▁kurum
unuz
▁millet
▁Harvard
▁am
▁pe
▁dünyası
▁Fu
▁ham
▁yapabilmek
▁gitmeye
▁kova
▁Web
▁kaldım
▁konferans
▁Kaç
▁çözme
▁veriyorlar
▁Çevre
▁geride
▁türün
▁ellerinde
▁kullanılabilir
ırken
▁matematiksel
ıldığı
▁ad
▁yeteri
mah
▁sahnede
ıpkı
ong
▁teslim
cılık
▁çağır
▁anlattı
▁il
▁doktorlar
▁tohum
▁bilinçli
▁fotoğrafları
ras
leştirilmiş
▁gönderme
▁öngörü
▁düşünebilir
▁ofis
▁Tasarım
yet
▁tabaka
▁değerleri
▁eşim
▁Per
yorlar
Y
▁içer
▁inşaat
▁büyüleyici
▁hadi
acaba
▁Ter
▁sembol
▁geçirme
▁ayağa
▁damla
▁yığın
▁elbise
▁yapmam
▁600
▁başlay
▁doğdu
▁hile
▁Cevap
▁ağrı
▁akciğer
▁hastalıkları
▁Okul
▁uça
▁maymun
▁şirketin
▁Konu
▁halkın
▁bakmaya
▁duyuyor
▁borç
▁üstü
▁seçeneği
uldu
▁tutan
▁İz
ven
▁isterdi
▁mor
▁oluşturdu
▁anti
▁duyduğumuz
▁yaşamış
▁yapabiliri
ly
▁çarpıcı
▁geliş
▁direkt
▁deneyi
▁sınıfta
▁bal
▁güvenliği
ire
▁Başkan
▁değilse
▁Charles
▁2010
riyoruz
▁kitaplar
▁atar
eğe
▁sisteme
larımın
▁Ber
▁gerekti
▁etkileyen
▁atık
ick
▁Şey
▁milli
▁başlamıştı
▁klasik
▁22
▁yapısı
abilirim
▁yunus
▁öğrenebilir
▁geldiler
▁nüfusun
▁sesler
▁çağ
▁hidrojen
▁yo
▁gördünüz
▁açar
▁gor
▁inek
ıyorum
▁Senin
▁ilgisi
▁açan
▁bölgesi
▁yazarı
▁kültürü
▁Film
▁mahkeme
▁mantar
▁başlayacak
▁empati
▁avukat
▁karşılaş
▁Internet
▁olanları
▁27
▁saha
▁söyleyecek
▁Kara
▁yor
▁gelenek
▁vs
▁siyaset
▁anket
▁projeler
▁Cha
▁gizem
▁doldur
▁vücudun
▁kurtarma
▁ağın
▁ilkel
abiliyoruz
▁gözleri
ebilirim
▁yerlerinde
▁öğrenir
▁ayrılma
▁sıcaklık
▁maden
▁karşılıklı
layın
▁şimdiki
sizlik
▁Rusya
▁197
▁öğretmenler
▁TV
lıyım
▁İnsanları
ama
▁Dört
▁hapishane
▁tanıdık
▁düzey
▁iniş
▁Tom
▁sınırları
memiz
▁dokunma
▁boyutu
▁evinde
▁açığ
▁Kadınlar
▁ailesi
▁şahit
▁nüfusunu
▁pilot
▁getirdik
▁limit
▁aldılar
▁adil
▁yaklaş
▁konuştuk
▁kaçınılmaz
▁Sana
▁karıştır
▁Altı
▁bahsetme
▁anlayış
▁hayatımda
▁elektro
▁etmez
▁kimlik
▁Kat
▁yakında
▁yapabilme
▁kalbi
sha
lediğimiz
▁yarısını
▁türleri
ğın
▁şart
▁tanışma
▁tekne
▁öncesinde
▁bildir
▁Böylelikle
▁boşluk
▁dosya
▁Obama
▁istediğini
▁mıydı
▁uğraş
▁boşa
▁dost
▁pazarlama
▁yirmi
▁kay
▁market
▁ölümün
▁küre
▁anladı
▁Yıllar
▁geçici
▁çekildi
▁inancı
▁akım
▁topluluğu
▁koyun
▁ikisini
▁modeller
▁ücretsiz
▁kaynaklı
▁planlama
▁bulunur
▁yapılacak
▁mülteci
▁istiyorsunuz
▁tarla
▁Açıkça
▁balıkları
▁hücrelerini
▁potansiyeli
▁ötürü
cük
▁iyimser
▁kendisinin
▁slayt
▁halkı
liyiz
▁gelişen
▁kamyon
▁dersiniz
▁durdu
▁gez
vo
▁yetki
▁etik
▁fizikçi
▁demiş
▁aday
▁sanatı
▁duyar
▁Kral
▁hayvanları
▁sizler
▁çıkacak
▁yaratıklar
▁ayda
▁savaşa
▁kızın
▁değerler
▁kardeşim
▁asker
liydi
▁göğüs
▁döneminde
▁kazı
▁tavan
▁dördüncü
▁üstün
▁keşfetmek
▁hastaların
▁hissed
▁zararlı
▁özgün
▁olunca
▁bilgiler
▁içe
▁yansıt
▁kutup
▁Amazon
zo
▁seferinde
▁olursunuz
▁duymak
meden
▁değişimin
▁Fark
▁gid
▁kanun
▁ayakkabı
▁izlemek
▁kurulu
▁bulgu
▁yıldızlar
ty
don
▁Nerede
▁yiyor
▁doğrusu
▁olgu
▁CO
maları
▁erişimi
▁Yıl
ang
mezsiniz
▁Pakistan
▁Kuru
▁öğrencisi
▁görülme
▁aralarında
▁araştırmacı
▁meme
▁tatmin
▁tırman
▁istiyordu
▁etmişti
▁operasyon
▁istekli
▁bayan
▁doktoru
▁yoldan
▁1960
▁çöl
▁iPhone
▁yerin
▁düşünüyorsunuz
ğr
▁Tu
▁kasaba
▁komşu
▁ağırlık
▁giderken
▁üzeri
dınız
▁Wa
▁hakim
▁sürecin
▁Sır
ebildi
▁araştırmalar
▁yüzünü
▁Kötü
▁versiyonu
amayacağı
▁birbirlerini
▁Ardında
sindeki
▁görüntüsü
▁bildiğim
▁oturan
▁kimi
▁tecavüz
▁atmak
▁sürücü
▁işlemi
▁tekerlek
▁obje
▁edilir
bay
ğında
▁ilgilidir
▁hap
▁makineler
▁Kendimi
▁ilişkileri
▁nota
▁ulaştır
▁seçimler
▁liderler
▁Bildiğin
▁edebilme
▁alıyorlar
▁1990
▁kalabalık
rerek
▁istey
▁koru
▁yay
▁zar
▁iyisi
▁getiril
▁Amerikalılar
▁vermiş
▁kaldık
▁garanti
▁Mal
▁çocukken
ınca
▁farklılık
▁okyanusun
▁keşfettik
▁önde
▁soruyor
▁haberi
▁ilacı
▁düşünmemiz
▁You
▁etmesini
▁beğen
ebiliyoruz
▁varlığı
▁Devletleri
▁alınan
▁metafor
▁belirgin
▁uzağ
▁istemiyor
▁sö
▁korkuyor
▁Gor
▁ayrıntı
▁harcay
▁denk
▁medeniyet
ırsınız
tmak
▁bitirmek
▁kazanmak
▁vuru
▁kadınları
ev
▁oku
▁çekim
▁akraba
▁işini
▁topu
▁etrafı
▁insanlığın
▁Ed
▁keşfetme
▁üste
▁merdiven
▁düşüncesi
▁göl
▁Yapma
▁c
▁hayatımızı
▁Burda
▁gri
▁modelleri
▁dinlemek
▁simetri
▁sırt
bire
▁haftada
▁Söyle
abileceğiniz
▁mantık
▁evrimin
▁koyduk
▁sokakta
vu
▁avantaj
bilir
▁denir
▁haberleri
▁kılan
▁anlatır
▁BM
▁sürdür
▁okumak
▁Con
▁tamamını
▁yapmaları
klerini
▁Beyaz
lanacak
▁stres
▁sorusu
V
▁öneri
▁utan
▁öğrencilerin
▁karakteri
▁taşıyan
▁Çalışma
▁dol
▁belirsiz
▁geçtiğimiz
▁kalanı
▁oğlu
▁katılma
▁büyü
▁oluş
▁nesli
▁noktasında
▁görebileceğiniz
▁yaşlanma
acağımız
▁ilerliyor
sızın
▁eğit
lıkla
▁çözümü
ktir
▁yaşta
▁2007
▁kuşlar
manyetik
dor
layabiliriz
▁olacaklar
▁duyguları
▁yazılmış
▁sunum
lıyordu
▁özgürlüğü
▁değiştirecek
▁oynay
▁denklem
▁yapıyordu
gar
▁grubun
▁yarattık
▁Michael
▁bacak
▁çanta
▁stüdyo
▁sera
▁besle
▁Yan
▁gerçekleşen
▁inceleme
▁nesneler
lus
▁St
ih
▁mağaza
▁gelmiyor
▁Esas
düm
▁öncesi
müyor
▁otorite
▁olacağım
▁şekillerde
▁orda
▁nasil
▁yetersiz
▁kavramı
▁yil
▁çocuğ
▁düşünceleri
▁başla
▁Thomas
▁süreli
▁boru
▁kul
▁açıklamak
▁iyileşme
▁Biliyor
▁ndan
▁gelmez
▁animasyon
▁söylemeye
▁Pan
▁kardeşi
▁ger
▁İsveç
▁kalem
▁aletler
▁otel
▁üretimi
▁çalışıyordum
▁çalışmanın
▁com
▁aileler
▁kabile
opi
▁konularda
▁göründüğü
▁1980
ladığımız
▁anlaşıl
▁öncelikle
▁Dikkat
▁edilemez
tığımız
▁kü
▁geçirdi
▁kira
▁elektron
▁düşer
▁ölümcül
ğine
▁faydalan
▁olmalıydı
▁yollarını
▁desteği
▁ödey
▁bekley
▁it
▁gözle
▁temin
▁yazıyor
▁yönetme
▁geliyorlar
▁durur
uru
▁protesto
▁yapmalı
▁çalışmıyor
▁Baba
▁uzunluğunda
▁oynar
▁yazıcı
▁söyledikleri
▁Karşı
▁değiştirir
▁akışı
▁okulu
▁amacıyla
▁vadede
▁resimde
▁detaylı
▁kanı
▁Görüyorsun
▁kararlar
▁grip
▁tavuk
▁verdiğim
▁kaybetme
▁taşıy
▁sevdi
▁sent
▁sayıları
▁genom
–
▁problemin
▁çocuklarımız
▁olabilirler
▁ulaş
▁oldugu
▁Es
▁bayağı
▁alkış
mur
▁dunya
▁tas
▁ekranda
▁davranma
▁dayanıklı
▁efsane
şim
▁yaratıcılık
▁yerli
▁zorla
ford
▁gözlerini
mışlardı
ino
▁çamaşır
▁tesis
▁küçü
▁mühendisliği
▁birliği
▁Süper
rke
▁karşılaştı
uel
▁onlarca
▁düşünmüyoru
▁usta
▁olmazdı
altı
▁edebileceğiniz
ınız
▁Enstitüsü
▁perspektif
▁şehirlerin
▁niye
▁Av
▁tık
▁davranışları
▁gönderiyor
▁toplumda
eceksiniz
▁Ol
▁artışı
▁görünüş
▁karbondioksit
irken
▁yen
so
▁oturur
▁Ab
▁dersi
▁ebeveynleri
▁endişelen
▁futbol
▁so
▁Kanser
▁söylemeliyim
lemeye
▁rolü
▁olumsuz
▁kültürün
▁heyecanlı
bar
iyordu
ymış
▁açlık
▁hisse
▁binalar
▁kitapları
▁pompa
▁ilgilenme
▁benimse
▁röportaj
▁kayded
▁mo
▁dönelim
▁liderleri
▁derdi
▁bölgelerinde
▁oturma
▁şehirlerde
▁tiyatro
sair
▁kavram
▁Evren
▁sokak
▁ismini
▁dökü
▁sisteminde
▁teleskop
▁yakalan
▁yaşa
umun
labilir
ris
▁parçasını
▁sektör
▁ekley
lıkları
▁çalışıyordu
▁kullanmayı
▁toplan
▁Birliği
▁müzisyen
bur
▁kesim
▁çelişki
▁bilgisayarın
▁çip
▁puan
▁kayda
▁konular
▁oyunun
▁yaşlarında
▁filtre
▁öldür
sındaki
▁yapabileceğiniz
acağımızı
▁davranışı
▁Tahmin
▁söyleyeceğim
▁birileri
▁yaşadığım
▁üretken
▁Steve
▁Alzheimer
▁çeşitliliği
▁okudum
▁olasılığı
ladım
▁yönünde
rest
▁terör
▁otizm
▁ge
▁felsefe
▁tüketimi
▁üretil
▁yönel
▁gerçekleşiyor
indeki
▁istiyorsak
keresinde
▁Latin
▁yetenekleri
▁Bende
▁ini
tti
leştirmek
berg
▁kral
▁toz
▁Robot
riyorum
▁büyür
▁şiddetli
▁edebileceği
▁genelinde
▁atma
yer
▁farketme
▁seçti
▁annesi
▁zamanki
▁yaratabilir
▁oluşturu
▁türde
▁j
▁Gece
▁aktör
lıydı
▁gerçekliği
▁seviyesinde
ydü
▁öğrencileri
▁eli
▁uyumlu
▁geleceğini
▁bakıyoruz
▁ilişkin
▁Apple
▁bağışıklık
▁zinciri
▁roket
▁söylemişti
▁yaklaşımı
▁öldürme
▁Paris
▁65
▁pil
▁fikrin
▁kalk
ct
▁açtığı
▁dar
▁anlatmaya
▁Mavi
▁Mary
▁konuşurken
▁gösterecek
▁Seni
▁bekleyen
▁çoklu
▁vatandaş
▁gelmeye
▁Pazar
▁istemedi
▁hâlin
▁Hal
sün
▁rastla
▁karşılaşma
▁uğraşıyor
▁kalmıyor
▁çıkması
▁birey
▁bahseder
▁yapımı
▁Oyun
▁bez
▁Ölüm
▁kompleks
▁kazanan
▁194
lamaz
▁yaparsınız
▁yapmadı
▁prensip
▁toplumu
▁Birden
▁götür
▁bitme
▁Devlet
▁öğrenmeye
▁Boston
▁kalmayı
▁dönüm
ilecek
▁onur
digim
▁vereyim
▁hızlandır
lenir
▁tat
▁kızların
ımın
üsü
wi
▁kavga
▁umuyorum
▁getirecek
▁Japon
▁Mor
▁ayağı
▁etkiliyor
▁görüntüleme
▁belir
▁bot
▁pembe
yal
▁önyargı
▁umudu
labilirsiniz
▁açmak
▁yürüdü
▁gücüne
▁eser
▁gül
ılacak
işi
▁Sam
▁hikayeleri
▁başardık
▁diyecek
gra
▁kanal
▁gezin
▁Higg
▁odaklanma
▁bulunduğumuz
lerimden
▁dağıtım
▁unsur
▁enfeksiyon
▁arabanın
▁etrafındaki
cağı
▁gidiyoruz
▁bıraktığı
▁Par
▁w
▁benzin
▁ülkedeki
lıp
▁biten
▁odadaki
▁donanım
▁koştu
▁foto
▁derken
▁çekilmiş
▁of
▁oldugunu
▁arar
▁geçirir
▁maaş
▁kablosuz
▁Dur
▁müziğin
ymiş
▁hedefi
▁Kur
▁yazmak
▁verebilir
▁birçoğu
▁geliştirdik
▁ilgileniyor
▁Mart
▁yaparız
▁görünüyordu
▁şikayet
▁bölümünü
▁yönü
▁taşır
▁poster
▁görmüyor
▁Pasifik
▁çalışanları
▁genişlet
▁dalış
▁Kafa
▁göreceğiz
▁Art
▁neşe
▁köpeği
▁kazanıyor
▁arkasındaki
▁kartı
▁uzat
▁konuşmalar
▁Yeşil
▁Min
▁pratik
leyebilir
▁demişti
▁ilişkili
▁bebeğin
▁uçağı
sch
▁saldır
▁disiplin
▁varmış
▁güvende
örü
▁Don
▁aşık
▁bariz
▁etkileme
▁bü
▁büyüklüğü
▁yumuşak
stan
▁kaydı
▁kılavuz
▁dönmek
▁deprem
alesef
▁koruyucu
▁kalmıştı
abilirler
▁elini
▁Gar
▁Önemli
▁Var
▁pasif
▁değişen
▁şarap
▁çekimi
▁gübre
MA
▁Lüt
▁topluyor
▁geleceğ
▁cazibe
▁enerjisi
▁yetiş
▁taşındı
mdeki
emedi
▁oluruz
▁çirkin
▁Mark
▁Hepimizi
▁çiftçiler
▁çelik
▁Wal
▁fotoğrafçı
▁eti
ledi
lme
▁gittiğimde
▁ilgilen
▁oynamak
▁kapak
▁co
▁büyüyor
ydık
sünü
▁gelmesi
▁Milletler
▁Park
▁boyutta
leyerek
▁cebi
▁özellik
▁biriktir
car
ment
▁Hepiniz
▁yansı
▁edebilecek
▁değiştirmeye
emeyiz
▁ruhu
▁varlığını
▁kabiliyeti
▁kıyafet
▁taşımak
▁gerçekleşti
▁dışındaki
oz
▁hatırlay
likleri
▁havaya
▁diyebiliriz
▁süt
▁düşünüyordu
▁Kor
▁sitesi
▁lu
▁Birinci
▁edeceğiz
▁organizmalar
▁protez
ney
▁olabildiğin
▁sonuçlarını
▁tasarımcılar
▁arayüz
▁fotograf
▁oto
▁görebiliyoruz
▁sürpriz
▁Col
▁sevdikleri
▁yarın
▁hastalıkların
▁hizmetleri
▁tümü
▁gülüşmeler
▁baz
▁motivasyon
▁ajan
luğ
▁sorum
▁anlayışı
▁Tur
▁orası
▁gö
▁the
▁tara
▁güzelliği
by
▁Tak
▁frekans
▁gizemli
▁sıcaklığı
▁görmedi
▁Kongre
▁izni
▁dönüştürül
▁şartlar
▁okuy
▁Yaptığımız
dırlar
▁sola
▁söylüyorlar
▁istediler
mizdeki
lduğu
▁görüntüleri
▁engeller
▁ip
▁inanı
▁ilan
▁Gelecek
larıdır
▁ekipman
▁üretici
▁evlilik
▁kuvvetli
▁bebekler
▁orkestra
▁etmeniz
▁Tarih
▁ticareti
▁ihtimal
▁mod
▁insandan
▁işareti
▁almayı
▁tüket
▁olayın
▁nano
12
▁eksikliği
bin
ğum
▁yapmasını
▁itiraf
▁yaşıyordu
▁sanmıyorum
▁ülkeye
▁işliyor
▁Gülüş
ue
▁oluşturduk
▁saklan
▁nı
▁Arka
▁yatan
▁keskin
▁çalışacak
▁topluluklar
ligi
rseniz
▁problemler
▁istersiniz
iyeti
▁olmalıdır
▁kent
▁250
▁rakamlar
dirler
▁azaltma
▁düşünmeniz
▁çıplak
▁hariç
▁okuyor
▁ışığın
▁gerçekçi
▁dönen
▁kurtarmak
erken
▁istediğimi
▁sınav
▁konser
▁koşu
ell
▁aleti
nizden
▁başlangıçta
▁düşündüğü
▁oluştu
▁Kitap
▁saatler
▁devamlı
laşmış
meleri
▁korkma
ban
▁yapmakta
▁olurlar
▁utanç
▁günler
▁ileti
lıktan
▁komşuları
▁dâhil
▁öngör
▁doğan
laşıyor
▁kitabın
▁hatırlama
▁çarpma
▁korkusu
▁deneyimleri
▁benlik
evi
▁sahil
▁mısır
▁yöntemler
▁yapılabilir
lüğ
▁silahları
▁kurban
larımızla
▁Bin
▁kalmadı
▁sunmak
▁çeviri
▁tasarımın
▁gösterilen
▁sağladığı
▁beklenmedik
▁gittiği
bü
▁soyle
▁sekil
▁cerrah
yorsunuz
▁bildikleri
▁karşılaştırma
ladığını
▁kaybediyor
▁ayırma
dığımda
▁hissettir
▁global
▁başkalarının
▁önemsiz
▁portre
likte
▁baylar
gin
▁izledi
▁duygular
▁Kısa
rayı
▁sihirli
▁tutun
▁yayınladı
▁muz
▁yetenekli
▁sebze
▁iyiydi
▁endüstriyel
laştı
kta
ry
▁tüp
▁alanların
ınızda
▁eksen
Tub
▁noktaları
lidir
art
▁mutasyon
▁kullandım
▁tedarik
▁tarihini
▁zehir
▁kaybetmiş
▁inanmak
▁birimi
▁İklim
▁insansız
▁ot
▁DH
ydik
▁terörist
▁haklarını
▁Kısaca
▁direk
▁eyalet
▁vermiyor
▁kalitesi
▁değişiklikleri
▁yapılma
lemiş
▁çıkarıp
▁yatağı
▁once
leyecek
siydi
▁cun
▁aramak
▁kullanışlı
▁kimliği
▁lif
▁anki
lıyorlar
▁üye
▁geçirdik
▁1970
▁toplay
▁özü
▁başlayı
ımızın
▁ağaçları
▁adeta
düğü
▁tanış
▁Birlikte
▁kanserin
▁yaşıyorlar
▁196
▁öğretme
▁Dış
üstü
ayet
▁çıkardık
▁belirlen
▁alabilirsiniz
▁içlerinde
▁kötüsü
▁Peter
ucu
ua
▁Is
▁orijinal
▁masraf
▁Can
▁istatistik
▁izleyen
▁çoğumuz
▁katil
▁yapmıştı
▁koşulları
▁gereği
▁jenerasyon
▁ayırt
▁radyasyon
▁matematikçi
▁gide
▁Alt
▁kuruluşları
▁özen
▁aşkın
▁golf
▁çözmeye
▁oradaydı
▁hattı
▁meşhur
▁İçinde
▁gazı
▁olmayabilir
niversite
▁başladığımda
▁beyninin
▁maliyetli
▁lazer
▁gidin
▁açıp
▁ödülü
▁dön
▁yakalay
▁makineleri
oo
tion
▁Fikir
yecek
▁yoksulluk
▁eğilim
▁diyen
▁tuttu
▁kardeş
▁esnek
yacağız
▁yaratmaya
▁işle
▁yürüme
▁yapabileceği
▁izleyici
▁kemiği
▁32
▁yetenek
▁birbirini
▁Büyü
▁kağıdı
▁etmedi
▁simge
▁bulmuş
▁böcekler
▁zehirli
▁kazanç
▁demir
▁cömert
▁kapasitesi
▁atmosfer
▁etmeli
▁yapıldığını
▁tasarlamak
▁sürecini
menin
▁söylemem
▁başlık
▁derinden
fu
▁yaşay
▁tasarlay
lduğunu
lanmıştı
▁Kay
▁arasından
▁seçimi
▁değişir
▁yarısında
▁yangın
▁ölçek
kav
▁sunu
▁başladığı
▁geçtik
▁başlattı
▁öner
▁ağlar
▁amaçlı
▁olacağına
▁Dünyayı
▁tarihin
▁Pat
▁Sha
▁dönüştürme
▁elin
▁vizyon
leştiği
▁ispat
▁entegr
▁Günü
ny
tre
▁dönemi
düğünü
▁Öğrenciler
▁hatırlıyor
▁hissediyor
▁neydi
▁nöro
▁kurumsal
▁kâr
▁intihar
▁ürünün
miyordu
▁okyanusta
▁istisna
▁duyduğunuz
ebilmesi
▁hayali
▁olmasından
▁yaptığımı
▁mantığı
gün
▁yaraya
▁babamın
▁yatır
▁oranını
▁Bey
▁uygulamalar
▁mobil
▁Hint
▁2005
▁edemez
▁kısme
leştiriyor
▁öğrendiğimiz
▁ülkeleri
▁tanımı
▁1950
▁Alan
rey
▁parçalarını
▁yapıyorsunuz
▁odak
ian
▁anlamamız
▁etken
▁bilinmeyen
▁sorgulama
▁şurada
▁yaratı
▁adama
▁Martin
▁hastanede
▁yapacağını
▁geçecek
abildi
▁yılını
▁çılgınca
▁müdür
▁yazan
▁biliyorlar
▁yepyeni
▁sürecinde
muzu
▁çocuklarımızı
▁yürüyor
▁Hareket
▁optik
▁kuralı
▁özür
▁alırsınız
▁uygulay
▁hastası
▁İster
▁beklenti
▁Kon
▁Söz
▁dayanıyor
▁ağacın
▁meselesi
▁bilinci
▁vur
▁çağında
▁konuştuğumuz
▁etmekte
▁Asla
and
▁bileşen
labilecek
▁hepinizi
▁Jim
▁tarayıcı
BG
▁Uluslararas
▁verip
manız
▁gerekecek
▁kalktı
▁Eminim
▁azalma
▁ilerledi
AR
emezsiniz
▁gelişti
▁Holly
▁topluluğun
▁Doğal
▁katılımcı
▁şebeke
▁minik
▁mini
▁girmek
▁gönderdi
▁alanın
▁Gerçekte
▁sag
sinda
dığımızda
▁sili
▁teknolojisini
▁vurma
▁etmeliyiz
▁olmalısınız
▁şiddetin
▁rejim
▁Kah
▁destekleyen
▁alakası
▁aktivist
▁kaybol
▁pozisyon
▁raf
▁ulaşılabilir
▁yazılımı
ğünü
▁duyduğum
▁yaşamaya
▁suda
▁çocukluk
▁alanlarında
▁kabuk
▁Che
▁kendiliğin
▁derler
▁edebilmek
▁görevli
▁bölümünde
▁gerektirir
▁örümcek
▁trend
▁vermişti
▁elma
▁olabil
▁alanlarını
▁elinizde
▁ağacı
▁öğrendi
▁metin
▁algoritma
▁geliştirdi
▁düşünürken
▁çevirme
▁yatıyor
▁verildi
▁götürüyor
▁nüfusu
▁herşeyin
▁yapılır
▁Mutlu
▁çıkarır
▁düzenlen
▁gidiyordu
▁çıktık
▁sürme
▁kaynaklarını
▁Gün
▁teorisi
laştırma
▁refah
▁Hedef
▁yanındaki
mun
▁ulaştığı
▁bazılarınız
▁aşağıda
▁dusun
▁hayvanlarda
▁sade
▁Önümüzde
▁öğretiyor
▁gerektiren
▁Vadisi
▁Düşü
bor
irler
▁soyu
▁arkadaşlar
mıştık
▁odası
▁kitapta
▁yazılı
▁hareketli
▁sezgi
▁Hep
▁yaşamını
müştü
▁terapi
▁şekiller
▁travma
▁çizme
▁keyif
▁alkol
▁insanla
▁görebil
▁mutsuz
▁y
▁Ad
▁dikey
▁alması
▁Okyanusu
▁iyice
▁zorluklar
▁perde
▁alınmış
▁kalması
eb
▁İnan
▁cihazlar
▁hatırlayın
▁Frank
▁Derek
▁Geçtiğimiz
▁devletin
▁Modern
ğiniz
▁bozu
▁aş
▁Kalp
▁çıkaran
▁Eş
▁sistemlerin
▁bulan
▁nazik
▁torba
▁uğraşma
▁başladığını
▁çeşidi
emediği
meyeceğini
▁izlediği
▁katlan
▁gay
▁Yu
rtesi
▁Erkekler
▁aşamada
▁çalıyor
▁yetiştirme
▁kadını
▁yanımda
▁hesab
▁2011
▁siber
▁almıştı
▁hızını
▁gençler
▁ısır
▁bağır
▁figür
▁gördüğümde
▁Pu
▁Yaşa
▁çalışı
▁ekonominin
▁hatırlar
▁roman
▁Haiti
▁yerleşim
▁kast
▁davranışlar
▁oyunlar
▁sinyali
▁genlerin
▁kuyruklu
▁yolcu
▁molekülleri
▁yaşanan
▁Kırmızı
▁kapsamlı
▁ilerley
atif
▁korktu
▁görebiliyor
▁fo
▁kolaylık
▁alındı
▁harcıyor
▁sevimli
▁yetişkinler
▁telefonları
▁dakikalık
▁Fizik
▁şerit
▁dükkan
▁gücün
▁kaplı
▁dünyamızı
emeyecek
▁değerini
ülü
▁Bas
▁beynimiz
▁huzur
▁Yoks
▁koşullar
▁Çinli
▁Tanı
▁seslerini
ria
▁hüküm
▁oluşmuş
▁and
▁kenarında
▁kesme
▁evim
▁Rob
▁olmalarını
▁yılan
▁dolan
▁redded
▁ciddiye
▁güçlendir
lalım
▁danışman
▁edildiği
▁eğitimin
▁Muhteşem
▁çıkarı
▁anlattığı
▁durumunu
cisi
▁kor
▁uyu
▁duyduğu
▁gelişimi
▁oğlum
▁olasılık
▁programlama
▁aklın
▁hayati
▁belirleme
yüz
▁genomu
▁hat
kalı
▁Bina
ero
▁takma
▁adapt
ıldığını
▁kaygı
▁başladığım
▁maske
▁düşünmüştü
▁yöntemleri
▁inanan
▁temas
▁Uganda
▁Hepsini
mıyorum
▁Californi
▁Yunan
▁bag
▁tören
▁yüzeyinde
▁kırılgan
▁element
▁büyüklükte
▁sentez
▁doğada
▁kullanıyoru
▁şanslı
▁cerrahi
▁akademi
▁asi
▁korunma
▁işlev
▁mikroskop
▁arttırma
▁kentsel
▁vermeyi
ürekli
yl
leyip
▁çalma
▁çıktım
▁baktığımda
▁Halk
▁aydınlat
▁fırsatlar
istan
▁yolun
▁ısrar
▁ebeveyn
▁profesör
▁yapıcı
▁işlerin
▁giysi
▁ortamı
▁havalı
▁azı
15
▁bölgeleri
▁Kültür
▁farklılıklar
▁ediyordum
▁izle
▁Hayatı
▁yıla
▁öncü
▁çocuğum
▁girdim
▁inci
▁kısıt
lendiği
▁bağlıdır
▁Oda
▁cennet
▁ör
▁Bob
▁köşede
▁silahlı
▁Whit
▁Yol
▁vermesi
▁tanıştığım
▁ulaşı
▁hayl
▁yaya
▁eğ
ıvı
▁anladık
▁kusursuz
▁nitelik
▁şehrinde
▁ekstra
▁canlandırma
▁giderse
▁yurt
▁has
▁etraf
mus
liydim
▁bulabilir
▁düşünmeyi
▁yavaşlat
▁iskeleti
▁yolculuğun
▁Etrafı
acaklar
▁yönden
imizde
chi
▁şarkısı
▁bastır
▁keşfettim
▁karmaşıklığı
▁mezar
▁fiyatı
lacak
▁Mar
ble
▁öğretmek
iyel
skop
▁üçü
▁isterler
▁sanatın
▁hı
▁Okyanus
▁doz
▁yapabilirler
▁ölür
▁dördü
▁sevdiği
▁desen
▁düşünecek
▁hoca
▁otomobil
▁sigorta
mişlerdi
▁zorlama
▁aramaya
▁enstrüman
▁dilim
▁bahsetti
▁çarpışma
▁Devam
▁yüzme
▁sorunumuz
▁bittiğini
▁Öte
▁yapmaz
eceğimiz
▁dinley
▁nu
▁inanır
▁soğu
▁bireylerin
▁ilişkisi
▁bilişsel
▁bitirdi
▁Mac
30
▁buzun
▁renkler
giz
▁fotoğrafta
▁hita
▁diyebilirsiniz
▁kurar
▁çare
▁boyut
▁tanımlay
▁göstermeye
▁eğil
▁yüzeye
▁başlamış
▁Ken
ecekler
▁çıktığını
▁uzaya
ach
shi
▁duyan
▁temeli
▁ülkeden
▁haz
▁ağız
▁amca
▁olayları
ğına
▁öğrencilerim
▁sözlük
zun
▁Kas
▁yetecek
▁hakikat
▁tesadüf
▁meraklı
▁bel
▁yayılan
▁onda
▁formül
▁tekniği
▁yapamayacağı
▁bozuk
▁internetin
▁çalışmasını
▁bağlantısı
▁canlılar
▁harcadı
▁örnekte
▁kanıtı
▁boğul
▁She
▁ideoloji
▁ilaçların
▁kullanılması
▁kurt
▁kolaylaştır
▁türler
▁birbirimiz
▁sinyalleri
▁PM
▁Rio
▁vatandaşları
▁düşünürsek
▁sivrisinek
▁durmak
▁konuşmanın
▁yollarla
▁çözümün
▁ışıkları
▁eleman
▁kutlama
▁içeriği
hattan
▁çevirdi
▁tasarla
▁istemediği
▁ilgiliydi
▁yaşadık
▁getirmeye
▁denedik
▁aralık
▁Fotoğraf
▁anlatan
▁duyduk
▁gidiyorlar
▁istek
▁bulamadı
▁çarpı
▁anlıyorum
mezdi
ebileceğimizi
ant
▁yaptığımızı
▁Yahudi
▁yazdığı
çü
▁küçül
▁mürekkep
rsak
▁aptalca
▁omuz
▁mar
mızla
▁böl
▁CEO
▁mısın
▁saati
▁taşıyıcı
▁örnekleri
▁Robert
▁almaz
▁böcekleri
▁sundu
▁miktarını
▁mühendis
▁dinozor
▁hipotez
▁rica
▁yayıldı
▁genleri
▁kalırsa
▁verdikleri
▁bağlantıları
▁İçeri
▁Orman
BI
▁Enerji
▁üretir
▁yaşayacak
▁üretilen
▁Bra
▁kapitalizm
▁şartları
▁inovasyon
▁Durum
emiyor
▁harcan
▁uygulamaya
▁fikirlerini
▁beton
▁düşünüyorlar
▁istediklerini
▁ülkeyi
▁başladığımız
▁vazgeçme
▁gerekmiyor
▁gezegenler
▁liberal
▁zordu
▁kaos
▁yaratacak
▁bitkilerin
bilirsin
▁şe
▁gitmiş
▁tıka
mışlar
▁çalışacağım
▁sunduğu
imde
▁sorgu
larak
▁okumaya
leyin
▁davranışlarını
▁benzediğini
▁bakıyoru
▁varsay
▁vadeli
leşir
▁Nobel
▁yakalanma
▁eleştiri
▁geni
▁insanlarda
▁Sev
▁kararlı
▁yaşı
▁fikrimiz
▁Hâl
▁bacağı
▁tepesinde
▁yaramaz
▁birbirimizi
▁koşul
▁alabiliyor
▁cins
abileceğim
▁söyleyin
▁çay
▁antibiyotik
▁sopa
▁bitti
▁iskelet
▁atış
▁kule
▁verdiğiniz
▁cihazları
▁pas
▁Hollanda
▁yapış
▁dokusu
▁ileride
▁psiko
▁Merak
meliyim
▁şeffaf
▁büyükanne
▁tutum
▁çubuk
▁takılı
▁çıkmaya
▁yayımla
▁piyano
▁kapsa
▁gideli
▁kuyruk
▁varken
▁fit
▁Korku
▁yerdir
▁MS
▁finanse
▁sistemimiz
▁sinema
▁penguen
▁fotoğraflarını
▁uğultu
▁emekli
▁Hristiyan
▁sırrı
larınızın
▁kullanımını
▁tuz
▁fikrine
▁yıldızların
yacağını
▁performansı
▁yakaladı
▁attı
▁geçin
▁nöronlar
▁Oysa
▁korteks
▁mat
▁tümüyle
▁arayı
▁nedenini
▁geçirmiş
mezler
▁yoksun
▁eşitlik
▁bırakıp
▁buluşma
▁kullanıldı
▁anımsa
lmaz
▁No
ünüzü
▁koltuk
▁195
▁ekonomisi
▁bakıyorsunuz
▁jeo
▁dikkatini
gram
▁cidd
▁çektiği
▁çukur
▁ekleme
▁dönüşüyor
▁oluşturduğu
nizdeki
▁faydası
▁yararlan
▁dönüştürmek
▁yolculuğ
▁bilgisayarı
▁vb
liyim
▁hayatımız
lamıyor
▁solu
▁yapıştır
▁yerleştiril
▁fotoğrafını
▁tedavisi
▁çıkarak
$
ers
tığım
▁alıyordu
▁düzeltme
▁giren
▁satır
▁Şehirler
▁başarısızlık
▁Amerikalıları
▁Tim
caba
▁hayatında
▁dizüstü
▁sınırlar
▁kutusu
▁desteklemek
▁satıcı
▁etkilerini
▁Sh
▁sınırı
▁maddi
luğunu
▁kavrama
▁endüstrisi
▁esnasında
▁Deney
▁Şehir
▁metro
▁120
▁sıkıştır
▁kozm
▁halini
▁26
▁haritasını
mekten
▁Cas
nom
▁muyu
▁dedikleri
▁Sistem
▁pişirme
▁resmini
▁uçurum
bel
▁hapse
▁katılıyor
▁sevgili
▁Güven
▁Hintli
▁asit
▁başlarında
▁hara
▁inandı
▁Gand
▁hayatları
▁Bağ
▁favori
▁Pen
▁kararı
▁yoğunlaş
▁okun
▁sav
▁yosun
▁okullar
hh
▁Sür
▁ucu
▁güce
▁bah
ham
ılmıştı
▁Olay
▁katılım
▁balıklar
▁hayran
▁ürettiği
▁konuşmamı
▁boşluğu
▁yitir
▁ressam
▁virüsü
▁GSY
▁Kutbu
▁sunma
sıydı
tığınızda
olly
▁kısıtlama
▁Tor
▁diyalog
▁becerileri
▁Yerel
▁şehr
▁pound
▁yürüt
▁üyeleri
▁olmasaydı
▁tuttuğu
▁hareketini
▁kuram
zerinde
▁Problem
▁Eg
▁aletleri
▁hızda
▁arkadaşımı
▁adlandırıla
eceğiniz
▁aygıt
▁sorduğum
▁yapardı
uğun
▁tünel
▁Gü
▁seti
▁Güvenlik
▁hükümetin
▁kullanmıyor
▁tasarlama
▁Street
▁Bankası
▁lideri
▁toplamak
▁olmasın
▁uçtu
▁fiil
▁sağa
▁kumanda
dığımı
▁konuştu
ildiği
▁uzmanları
▁zorundadır
▁eşitsizlik
▁şablon
▁formu
▁İtalya
▁şiddeti
▁köyde
▁Kongo
▁başlığı
▁basamak
lmüş
▁bilinir
▁referans
▁damar
mit
▁bozukluğu
ledik
▁Hastane
▁düğüm
▁Bakanlığı
▁severi
▁33
▁incelemek
port
▁terörizm
▁seviyesini
▁enteresan
▁ümit
▁aynısını
▁türünü
▁karmaşa
▁fonksiyon
▁zorunlu
▁sü
▁hacker
leştiren
▁emisyon
▁molekülü
▁kelimesini
▁tasarımcıları
▁süresin
▁Kom
▁grupları
▁hay
▁hükümetler
▁olağan
▁95
duğumuz
▁teker
▁işgal
▁uğraşan
▁700
▁800
▁eğlen
▁olanların
gı
▁akışını
▁giyin
▁gereksiz
tum
tiğini
▁motive
▁org
▁gelirse
▁bakımından
▁kalori
▁vücudunu
ood
▁eğilimi
▁azaltmak
leridir
▁sığ
rah
▁konuştum
▁söylerdi
▁yazmaya
▁aklınız
emeyeceği
▁korumaya
lıkta
erry
▁Yarı
▁sebebiyle
▁kurulmuş
J
matik
▁kazandığı
▁listesi
▁bunda
▁oynayan
▁kaderi
▁öden
▁zorundayı
▁karşılaştığımız
▁tükenme
▁diğerlerinin
▁kişilere
inize
▁ormanın
▁pirinç
inizde
▁görünmüyor
▁çıktığında
▁değiştiğini
▁göndermek
▁duydukları
▁finans
gal
▁Ağ
▁işçileri
▁Mil
▁deme
▁kullandıkları
▁Evrim
▁diyet
▁inin
▁yararı
▁süresi
meme
▁öncülü
▁gideceği
▁arkadaşlarınız
▁doğası
gide
▁cevaplar
▁eşya
▁kafatası
kül
▁karıncalar
bon
▁sayılar
▁çöküş
▁gecekondu
▁gerçekleştirmek
▁somut
▁bardak
▁satıl
▁yetkili
▁Öz
▁yakalama
▁felci
▁sil
iv
yip
▁kafasını
▁bizde
▁elektriği
▁kirli
▁ilgilenen
▁hepimizi
▁İnanıyoru
▁eşyaları
▁ikincisi
▁rota
luyoruz
▁şansımız
▁geçtiği
yacak
▁mesafede
▁buluyorum
▁yuzde
▁ağırlığı
▁laboratuvarda
▁tanık
▁Saat
▁fiyatları
▁Ortalama
▁getireceği
▁filmini
▁koruy
▁yapmaktan
▁sesin
eşke
▁köşesinde
▁koridor
▁söyleyeyim
▁okuduğum
▁eğitimli
▁taban
▁kadına
▁Geleneksel
▁Fil
▁seçimleri
▁farkındalık
▁gec
▁seçiyor
▁umutsuz
▁kullanılır
▁bağı
başı
▁okulun
▁fen
▁akıllıca
▁görmeyi
leştirilmesi
▁yuvarlak
▁uzmanlar
▁kelimesi
▁Scott
▁günümüz
▁riskli
▁bozulma
▁ilgimi
▁yarışı
gel
▁ailenin
▁moleküller
▁öldürdü
▁çamur
dr
▁geceleri
▁başvuru
▁negatif
▁reçete
▁beraberinde
▁Sonraki
▁balıkçı
▁paralel
▁aşina
▁İzleyici
▁resmin
▁evlenme
▁söylenen
umuzun
▁yiyeceği
▁Özel
▁kısıtlı
▁geçiren
▁memeliler
▁Müzesi
▁dinliyor
▁ulaştı
▁acımasız
BC
▁bio
▁aileleri
▁hissettiğim
▁bağla
▁ağaçların
▁Yardım
▁ritim
▁hükumet
▁anlamsız
▁tamamiyl
▁diken
▁basınç
▁düşündüğünüzde
▁nü
▁karaciğer
▁kış
▁olmasıydı
▁götürür
▁işimi
▁bildirim
miyorlar
▁hissetti
▁yapıldığı
▁salgının
▁toplumlarda
▁motoru
▁gösterdik
▁yenilenebilir
the
▁gelmesini
▁Chicago
▁Altın
▁Britanya
▁sistemlerini
▁kelimeleri
▁kalitesini
▁bey
▁goru
▁ayni
▁inceliyor
▁maymunlar
▁pişir
▁başlıyorlar
▁belediye
▁fikr
▁transfer
▁derim
▁donmuş
▁anları
▁sara
▁bazılarının
▁bahsettiği
▁hayatınızı
▁ölümü
▁sesle
▁yapabileceğim
▁sınıfı
▁sebepten
▁etkinlik
▁Erkek
▁önemini
▁araştırmacılar
▁ikisinin
▁yaratık
▁boyun
▁mühendisler
maktan
▁adımı
▁yaradı
▁gerektiriyor
▁aradı
▁köyün
▁kıs
▁mevsim
▁yaprak
▁Niye
▁aranızda
bilimci
▁ederdi
▁şüphesiz
▁içimizde
▁düzene
▁göreceğiniz
▁davranışsal
▁varlıklar
▁Makine
▁şapka
▁Aslın
▁Noel
▁yoğunluğu
▁mali
▁helikopter
▁Cam
▁bıçak
▁döndük
▁saklama
▁dağınık
▁şair
▁gösterebilir
RB
▁konuşmacı
▁titreşim
▁dilini
▁Ebola
▁kurul
▁güvenme
▁güçleri
▁bağlanma
▁ndaki
▁götürme
▁Bölge
▁konuştuğum
▁fırın
▁Ayn
▁güncel
▁konuşuyordu
▁Proje
çiler
▁uçuyor
▁Krallık
▁duman
▁patlaması
ander
▁evimiz
star
▁robotik
▁sessizlik
▁savun
▁gun
▁Ger
bes
▁yoğunluk
▁sanıyorum
▁cisim
amazdı
▁yaklaşıyor
▁silahlar
▁Str
▁arkadaşlarını
▁organları
▁Normal
▁bela
abildik
▁dilin
▁bayanlar
uşu
▁partner
▁kafe
▁durdurma
▁bağımlılık
▁koş
▁anatomi
▁örtü
▁bedeli
▁miras
▁etkileşimi
▁benzetme
▁duvarı
▁genişleme
▁çalışmamız
▁kaydetti
▁bacakları
▁Matt
iyordum
▁İste
▁bulunabilir
▁Masa
▁Cal
▁trans
▁kurbağa
▁dramatik
▁ailesini
liğinde
▁girdik
▁umur
▁şempanzeler
▁Yemek
▁davranıyor
▁Bazılarınız
▁bağlantılar
▁Gene
▁gelmedi
▁üretimin
▁teknolojilerin
▁kaynaklanıyor
▁projede
İH
▁emniyet
▁olayların
▁Mikro
spa
▁bağlaya
▁dizisi
▁ürünlerin
▁iyileştirme
▁Ali
▁firması
▁nöroloji
▁koltuğu
▁Sahip
▁tahrip
▁keşfetti
▁Bali
▁diploma
▁kalkıp
▁Ham
▁tüketim
▁oh
▁Ford
▁istemem
▁sorunlarını
▁veril
▁ekledi
uğu
▁aşamasında
▁özelliklerini
▁Biyoloji
▁başladığımızda
▁odaklı
of
rmak
▁yüzeyi
▁Işık
▁yıldızı
▁yıkıcı
▁Dav
alıyorum
▁kültürler
▁ilki
▁İsviçre
▁hakkinda
▁onemli
irim
▁calisma
▁malzemeleri
▁Beynin
▁uzayda
▁mühendisi
▁ödün
▁eğiliminde
▁etmekten
▁ağları
▁yapacağımız
▁başlayacağı
▁olacaksınız
▁anlattım
▁çalın
ecektir
istik
ttiği
abilmesi
▁olasılıkla
▁çıkmaz
▁uzaklaştır
▁destekleme
▁Wall
▁karşıtı
▁giyme
▁verdiğini
▁yenilikler
▁alırken
amadığı
▁hikayem
▁Kır
▁Bekle
▁Matematik
▁aktarıl
▁çalışmalarını
▁galeri
▁eserleri
▁Hayatta
▁akıntı
▁renkleri
ebileceğim
▁fena
olojik
larımla
▁kazanır
▁durduru
▁böceği
▁içten
▁yükselme
▁verirse
▁kalanını
▁görmüştü
▁biliniyor
▁reaksiyon
▁işlevsel
laştığı
▁dersleri
▁mizah
▁tipi
▁umursama
▁çarp
▁antik
▁duruş
tici
▁izleyi
▁onar
▁çekilme
▁ilacın
▁Au
tta
▁Gana
▁güvercin
▁kahverengi
▁solucan
▁çikolata
▁maalesef
▁verilere
▁hayatımızda
ebilirler
▁programcı
▁Hayvan
▁telif
▁dinazor
likler
▁varoluş
▁Afgan
▁Tah
▁yapamıyor
▁kullanılma
abilirdi
▁vazgeç
▁geldiğimiz
▁araçların
▁kayak
▁düşündüğümüzde
taşı
▁edebil
▁Silikon
▁salın
▁sıradaki
▁geçirdiğim
▁gittiğimiz
digi
bb
▁becer
▁filmleri
▁görebilme
▁seçer
▁Hızlı
▁azalıyor
▁ez
▁uydur
▁çök
▁evre
ebildiği
▁izi
▁bulunmakta
▁sormaya
▁duyur
ildiğinde
▁sevin
▁öldürmek
▁ırkçı
▁paradigma
▁Çocukların
litik
▁esinlen
▁batarya
▁uyuma
▁etmem
▁dersler
▁hoşlanma
▁elleri
▁ilave
▁tarafına
▁karşılaştık
▁Telefon
▁alabilme
▁hikayelerini
▁sorduğu
▁Res
ros
▁trajedi
▁sesli
ımızda
BA
▁Stanford
▁seçmek
▁tabiki
▁elinizi
▁Smith
▁parmağı
abiliyorlar
▁grafiği
▁başladığında
▁özet
▁yapmama
▁görülmemiş
▁karışımı
▁aldığını
▁Herşey
▁Eric
▁Ray
▁rahatsızlık
▁çaresiz
▁Yedi
▁MR
▁doğma
▁vadi
▁bağlamda
▁ormanları
▁genler
▁yardımıyla
▁nerde
▁hormon
▁We
▁retina
▁yapıları
▁küp
▁rüşvet
▁geldiğimde
▁çıkabilir
ebiliyorlar
▁evlen
▁açıldı
▁yakı
▁kuramı
▁Yavaş
ydiler
▁üçgen
▁Cit
▁İsa
▁keşfi
▁pay
ladığım
▁mühendisleri
▁oluşumu
▁Vo
▁lisede
▁annemin
deydim
▁sure
▁gercekte
▁hani
▁Iste
iriz
▁Lu
▁Hay
▁ünite
▁Kural
▁Sayı
▁doların
▁Etki
▁müşterileri
▁aynısı
▁çizgiler
▁azal
▁parazit
▁Kapı
▁birleştirme
▁eşcinsel
▁bilmediği
av
eceğimizi
▁mes
▁gerçekleşme
▁Öl
▁karşılaşıyor
▁aklımda
▁ayakları
▁yönlendirme
▁devri
▁tutkulu
▁sars
▁darbe
▁çürü
luş
▁dönüşür
▁ulaştık
▁seçtik
▁sahipsiniz
▁sentetik
▁görünme
▁bahar
▁kaldılar
▁alırsa
▁pazarı
▁yıkıl
▁yönetici
▁alırlar
▁canavar
▁Bor
▁çevrimiçi
▁Atlantik
▁imaj
ınıza
▁kaçak
▁Fl
bilecek
▁ölçekli
▁artı
▁yabani
engin
▁formları
muzun
▁kendilerinin
▁kalkınma
unuzda
▁hayatlarında
▁dövme
▁bulundur
▁zincir
▁gezegeni
▁denizaltı
▁Gülüşme
▁kabin
ust
▁Demokrasi
▁mide
▁kolunu
▁bölgenin
▁hazırladı
▁anahtarı
▁hip
▁hatırlatıyor
etmek
▁uçakları
▁kirliliği
▁yaşadıkları
▁Benzer
▁başlattık
▁yüzeyde
▁maliyetini
▁mekaniği
▁28
ther
▁gitmesi
digimiz
▁baska
iyorsunuz
▁kaybeder
▁politikacılar
acaksınız
▁gerçekleşmesi
▁bahsettiğimiz
▁dalgaları
▁yaklaştığı
▁arkadaşlarımı
▁reform
▁kırıklığın
▁inkar
▁üzücü
▁öbür
seksüel
▁bekledi
▁klip
▁kumaş
▁vermez
▁sunucu
▁işleyen
▁işimiz
▁Ekim
▁Genellikle
acakları
▁fiber
lıyorum
▁bitirme
▁durak
▁hissetmek
▁kası
▁öp
▁şiş
▁teması
▁tropik
ira
abilecekleri
▁enfekte
▁Ailem
▁atlama
▁salgı
▁oynadı
dığımızı
▁For
▁gezegenlerin
▁renkte
▁Petrol
▁hastaları
▁hiçbirşey
rip
▁hiper
amıyorum
▁kucak
▁yöneten
▁kurumların
▁ilaçları
▁basma
▁Hazır
▁korsan
▁denemek
▁Fran
▁şeytan
▁tuş
▁tadını
▁gününde
▁gerçekliğin
▁deneysel
lanmamış
▁sayılır
▁heyecanlandır
▁düşünmüyor
ntarktik
▁eksi
▁bölgeler
▁kuşak
▁Tri
▁geçtim
▁çektim
▁yayılması
▁mega
bro
▁Kontrol
▁etkiledi
▁ölçme
▁Projesi
▁tanımlamak
rmal
▁ölecek
▁mıknatıs
▁eğim
▁sınırların
▁aldatma
▁anlamında
▁küreselleşme
▁Plan
ling
▁çözümleri
▁uçaklar
▁ulaşır
▁mutluyum
▁akla
bit
▁konunu
▁gündem
▁Yaşlı
ER
▁çektik
▁bulmamız
▁çekirdek
▁Carl
▁barındır
▁robotun
müz
▁hesabı
▁maka
▁göstergesi
▁aykırı
▁Örnek
▁yeter
▁türlerin
▁uyanı
▁endişeli
mazlar
▁güneşin
▁yakalamak
▁yankı
sinler
▁tartışmalar
▁Nere
▁tabu
▁feminist
▁söylüyordu
▁yeraltı
▁Kura
▁yayılmış
▁farklılıkları
▁ortamında
▁itibari
▁odasında
▁hastalığ
▁kitabını
▁verilerin
▁banyo
ille
▁zarif
▁Sabah
▁aldığınız
▁unuttu
▁pop
▁ellerini
▁çıkardığı
▁Aç
▁analizi
▁taze
ith
▁iyiye
▁Şirketler
▁sipariş
▁Bush
▁prensibi
▁imalat
▁kaldırma
▁geliştirmeye
▁estetik
▁düzine
▁Yazı
kâr
▁Seyirciler
▁nehrin
▁görmekte
▁Balık
▁görecek
▁kurumları
▁değişmesi
▁sayısal
▁zekice
▁meclis
▁büyümeye
▁dağın
▁öğreti
▁yapacağınız
▁döngüsü
▁King
▁Dijital
▁bıraktım
▁kaldığı
▁karşılığında
▁evcil
▁kanalı
▁AM
▁bağlar
▁Far
▁Mah
▁varlığın
▁ülkelerdeki
▁sorunların
▁yapama
▁toplumların
▁ettiklerini
▁felç
▁götürü
madığı
▁şuan
▁katıldı
▁yaşımda
▁36
▁Bilmiyorum
▁isyan
▁parçacıklar
▁Wo
▁uzaklıkta
▁alkışlar
▁yükselen
▁edildiğini
▁boyle
▁goz
▁bilmez
▁memeli
▁dinleyiciler
▁lüks
▁rezerv
▁gör
▁gerçekleştirdi
▁emek
bert
▁Evi
▁İtalyan
▁toprağı
▁grub
▁satmak
▁eşitliği
▁örtüsü
laştırıyor
▁polisi
▁Okulu
▁uygulamaları
▁acayip
▁düzeni
▁görebiliyorum
▁Mükemmel
▁kül
▁Belli
▁ölmüş
▁muhafaza
burg
▁kılı
▁götürmek
▁anten
▁tadı
▁geliştiril
▁akış
▁toplar
▁çit
▁ilgisini
▁Green
▁getirip
ill
▁materyal
▁imge
▁kopar
▁kirlet
▁Tıp
▁Oradaki
▁stil
▁Yukarı
▁zıpla
▁husus
ımıza
▁Çalı
▁askerleri
▁kaynakların
▁enjekt
▁gelişmeler
▁doları
▁sizleri
▁Arjantin
▁faktör
▁açıkladı
fel
▁cinayet
▁çocuklarım
▁sorumluluğu
▁bencil
▁tükenmiş
▁ettirme
▁fırlat
▁kullanılmış
▁sandviç
▁kaybettik
▁dönük
▁bulaşıcı
▁Wikipedia
leşen
▁yarasa
▁organizasyonu
▁Kişisel
▁Hükümet
▁birleşi
▁yaptığında
lenebilir
▁kayna
gre
▁gore
▁ihtiyac
▁destekliyor
▁uçma
▁arkasın
▁Vietnam
▁Geliş
▁fenomen
▁uğramış
▁gram
▁bizimki
▁Lider
▁Bel
▁irade
▁aşma
▁ertesi
▁ömrü
▁anlamını
liğimiz
mekle
▁savaşçı
▁Yü
▁direnci
▁yaşıyorum
▁çalar
▁yürürken
▁Lab
▁yaratıcılığı
ald
▁duymuş
▁toparla
landığını
▁bilmiyorduk
▁doldurma
▁alıyorsunuz
abiliyordu
▁gözükme
▁sürdürme
▁alarm
▁Florida
▁Yanlış
lmak
▁içsel
▁sağladık
▁konuşması
▁dalgalanma
▁kaybettiği
▁Model
▁diyebilir
stik
▁edilecek
layabilecek
▁atan
▁yiyecekleri
▁olacağımız
▁kaçınma
▁sanatçılar
▁Hatırla
▁Cambridge
▁Aşağı
ydılar
▁edeceğimiz
▁çapta
labiliriz
▁izler
▁değişme
▁istiyorsa
▁netice
▁interaktif
▁kuşa
▁evlerinde
▁yüzleş
▁Aksi
▁psikolog
▁artması
▁deneyimler
▁oluşum
▁elit
▁Brun
ardı
▁gene
▁pişmanlık
▁tutarlı
▁kızgın
▁tüy
▁harcadık
▁diren
▁ayrım
▁başlıca
▁duymuşsunuz
▁dışkı
▁üretmeye
amam
▁bakıyordu
▁hatırladı
cal
ıyorlardı
▁enerjisini
▁kavramını
▁birleşme
▁açısını
halde
▁kapatma
▁bakıyorlar
▁aksi
▁haricinde
▁belgesel
▁işlemci
▁icinde
▁biliyorsun
irdi
▁kusur
▁goster
▁sanıyor
▁dansçı
▁evvel
ugh
lebilir
▁ölüme
▁deneyleri
▁evreni
dıklarında
ville
▁mağdur
▁masum
▁gereksinim
▁kalbim
ttığı
▁dersin
▁şaşır
▁Bebek
▁biç
▁sever
▁bulmaca
▁dürtü
▁hangisi
ılmasını
▁uğra
▁askerler
▁toprağın
▁ailemi
▁Arkadaşları
▁yapıyordum
▁öğretmenleri
▁değilsiniz
▁Haziran
▁cevabını
▁Pra
▁elimizdeki
▁etmeleri
▁vurgu
▁Seyirci
▁havuzu
▁Bell
▁akımı
▁ihlal
▁alev
▁bankacı
û
▁yapmalarını
▁saldırgan
ebilecekleri
▁başlaması
▁Nano
▁yetiştiril
▁gemisi
▁ayrılmış
▁İspanya
▁suçlama
▁halihazırda
▁oluşturacak
▁yerleştirme
▁kılıyor
awa
▁paraşüt
▁bahsetmiyoru
▁enstitü
▁kullanıcıları
▁yaparım
▁kayıtları
▁Marc
▁peynir
▁bütünüy
▁cihad
▁haliyle
▁yayılıyor
▁dünyasının
▁konuşmaları
ladılar
▁azaldı
▁kampanyası
▁gelişimin
▁etse
▁ampul
▁85
eger
▁açıklıyor
▁karmaşıklık
▁ayırdı
▁dönüşü
▁Şehri
▁ödüyor
▁havuz
▁Big
ight
▁ormanda
▁sakat
▁aslin
▁dogru
▁oranla
▁inceler
amıyorlar
▁çiğ
▁araştırmak
▁değiştirerek
▁Kullan
▁Br
▁bulunmaktadır
▁çalan
▁kaplan
▁çim
▁kıza
▁okullarda
▁Acı
facık
▁döv
▁unutmayı
▁görülebilir
amadı
▁ima
▁Sir
ümüzü
▁topladığı
▁oğlumu
▁uzaylı
▁döndürü
▁LED
▁göğsü
▁çıkarın
▁bugünün
▁filmler
▁bıraktık
▁baktığımız
▁lens
▁sahi
▁duruyordu
▁baya
▁deyin
▁kirlilik
▁anlaşılması
▁bakıcı
▁başkasının
▁anlayama
tesi
▁binaların
▁direnç
▁Nick
▁patates
▁gerçeğ
▁seyred
▁yapıyorsun
▁muayene
ınızı
▁ped
▁sistemimizi
▁Brown
▁önerme
▁çalışmakta
▁Öğretmen
▁interneti
▁ulaşıyor
▁aklınızda
▁dolaşma
mıyorlar
▁aramızda
▁kesti
▁gözüken
▁rahatlık
▁konusunu
▁çıkmıştı
malıdır
▁gidiş
▁inşaa
▁Sıradaki
▁yüze
▁parmakları
▁arılar
▁yaban
▁Spi
▁çekili
▁yükselişi
▁Bol
▁fabrikası
▁hareketin
▁kanunları
larınızda
▁fok
▁bilgisi
old
▁kaz
▁doğmuş
▁bayılıyoru
▁uçur
▁görüldüğü
malısın
▁peri
▁burun
▁İspanyol
▁hemfikir
▁edeceğiniz
▁çoğunluk
▁vasıtası
▁toplumlar
▁Gates
▁satıyor
▁bulunduğunu
▁Simdi
▁birşeyi
▁temizlik
▁iyileştir
▁arabası
▁gayri
▁Seçim
▁oluşu
▁kg
▁kristal
▁şahane
▁ço
▁no
▁sanatsal
▁almıyor
larinda
▁zenginlik
▁hic
▁duydun
▁butun
imize
▁beyne
▁açıklaması
▁dansı
▁çabu
larıydı
▁kültürünü
▁Binlerce
▁evlat
▁Taliban
▁Ru
▁gitmiyor
▁çağdaş
▁bizleri
▁tanıştır
▁yaşlarda
▁söylendi
▁altta
▁aldıkları
▁buluştu
▁kalmaya
▁niyet
▁ışını
▁fırça
▁Kendimizi
▁sos
▁kabar
▁kibar
▁işkence
▁hekim
▁yüzen
cy
▁çeşitliliğin
▁gülme
▁içimde
▁arkadaşlarımız
▁29
▁erkeklere
▁Bron
▁Dev
▁hayalim
▁Dön
▁demo
▁hayvanı
▁Doğrusu
▁çeviriyor
▁ellerim
▁yerdeki
▁aktiv
▁dinler
lur
▁adamla
▁parası
▁çağın
▁etmenizi
▁kullanacağı
▁istihdam
▁rehber
▁kuşu
▁Düş
▁yolladı
▁hük
▁sattı
SB
▁anlayabiliyor
▁Aklım
▁kullandığım
▁Kişi
▁gençlerin
▁Sor
▁arşiv
▁sistematik
▁beklentileri
▁coğrafya
▁yozlaşma
▁programlar
▁yapabildiği
▁kuruluş
▁çektiğim
▁yerleştirdi
▁Tony
▁Mes
▁gömülü
▁yaşayabilir
▁kodu
▁oyuncuları
▁devletler
▁eğitil
▁özünde
▁çekin
▁öğe
▁Vakfı
▁yoksulluğu
▁Şarkı
▁düşündüğünüz
▁şehirleri
▁gelişiyor
▁çarptı
▁harca
▁değerinde
▁çözdü
▁onlarda
▁nakli
▁zafer
▁kaydır
▁mobilya
▁beklemek
▁Sistemi
0
▁ekonomimiz
▁oluşma
▁donu
▁edebilirim
▁uyuyor
▁birsey
▁basladi
metre
▁kullandığınız
▁olmamızı
▁ayarlama
▁bakımı
▁örgü
▁seksi
▁Pas
▁uzana
▁yıldızın
▁Medi
▁Ödülü
▁çalışanlar
▁Vücudu
▁zira
▁baktığınız
▁söylemiş
▁dolaştı
▁etmektir
▁açılma
▁Şans
▁toplayı
▁giyiyor
▁uçar
▁hevesli
▁yetiştirmek
▁konuşuyorum
▁kayma
▁denetim
▁düşünül
landığında
▁harfi
▁karış
▁doğdum
▁filmin
▁ikon
ustu
▁bulacak
▁bambaşka
▁günleri
▁paylaştığı
lduğunda
▁Pho
▁istismar
▁bölün
▁Hücre
düz
▁elli
▁ipek
▁biyolog
▁sınıfın
▁konuşuyoruz
▁arayan
▁Kuş
▁etkileşime
▁Motor
▁Biyo
▁istekleri
▁ofisin
zdan
▁Ti
▁gittiler
▁kızları
fil
▁Boş
▁eşdeğer
▁işitme
▁bilgisayarların
▁şema
▁güdü
gor
▁cezası
▁öldürücü
▁teknikleri
▁koyduğu
miyorsunuz
▁Kendini
▁coğrafi
▁yolsuzluk
▁Sahra
liyordu
▁istihbarat
▁idam
▁Yapı
▁baskın
▁değin
▁tele
▁taşıdı
bilirdi
▁Fare
▁Jane
▁aklımız
▁engelleri
▁Ani
▁Kurt
▁timsah
▁amaçlar
▁tümörü
illa
▁olanlardan
▁maya
RIS
▁patern
arası
▁Filistin
▁ölçmek
▁bölgesel
▁tanımlıyor
▁Henr
▁Pla
▁yüzeyini
▁Gezegeni
ulu
▁ortaklık
▁savaşmak
giniz
▁oluştuğunu
▁beyinde
▁gerçekler
ou
▁uzayın
yabilir
▁yakınında
▁çarpış
diğimi
laşır
▁bulabil
lerimin
▁Koruma
▁Hayatımı
▁dönüştürdü
▁İleri
▁erkeğin
▁aya
▁önceydi
▁olsam
▁hedefler
▁örneğini
▁şükür
▁sensör
▁illüzyon
▁atı
▁Yapa
acağına
▁düzenley
yarak
▁olurken
▁edemiyor
▁atlet
▁Nihayet
▁arz
▁abart
▁Hayatın
▁Sanal
▁organı
▁katılmak
▁bulunmak
▁kişileri
▁Geçmiş
▁senede
▁bilgeliğ
larini
▁hissini
▁istasyonu
▁yuz
▁hidro
lamıştı
▁Joe
▁Jeff
▁Suriye
abildiği
▁oluşturmaya
▁düşünmeliyiz
▁öğretmeni
▁grupta
▁diyebilirim
▁mirası
▁gitmeyi
▁kanıtlar
▁hoşum
▁Değer
▁rakip
▁belirtileri
▁sayfası
▁büyülü
▁Microsoft
▁Görev
▁Kev
▁ölmek
▁kalça
▁tahıl
▁uygulaması
▁unutu
▁görünmeyen
▁çevirmek
▁proteinler
▁statü
▁gördüğünde
▁liman
▁Ph
▁Charl
▁indirme
▁göründüğünü
▁meslektaşlarım
▁kaybeden
ekli
▁Yaratıcı
▁tasarladı
▁hayvanın
▁Inc
▁Mola
▁kavramsal
▁Siyah
▁Kızıl
▁sokaklarda
▁tanımlar
▁bölgelerin
▁yürüyen
▁eğitme
▁inceledi
▁Sokak
▁Dün
▁şehirlerimiz
▁kaldırım
▁şarj
▁araştırdı
▁beklenen
▁Star
▁politikacı
20
▁Tar
▁tasvir
▁ikili
▁Yıldız
▁hü
▁anla
▁vücudu
▁sayma
▁hergün
▁avantajı
▁beyniniz
▁Et
▁talebi
laması
▁gelirler
▁gökyüzünde
▁hesapla
▁ömür
attle
▁gösteriyorum
▁şanslıyı
▁barışı
▁insa
▁tutuklan
▁rahatlat
▁Git
▁Virgin
▁uyuş
▁teşkil
▁kalmaz
▁bilincin
▁üzül
▁gülümse
▁hissettikleri
▁bağlanmış
▁ayrıla
▁hayatınızda
▁fatura
▁söylemedi
▁söyleyebiliriz
▁iyilik
▁çalı
▁yapısal
▁nesneleri
▁filmde
▁Medya
▁etiketi
▁Pekâl
▁saçı
▁bölme
▁temelinde
▁görüyordu
▁çene
▁karakterler
▁buralarda
▁çocuğunu
▁bağlıyor
od
▁haftalık
▁gündüz
▁resif
▁süpür
▁tweet
▁bulunması
▁bakterilerin
▁sütun
▁mikroplar
▁çaldı
▁Tez
▁işiniz
▁ilerleye
▁Eşim
▁yükseldi
▁Hav
▁içinizde
itler
▁yayınlama
▁doğuştan
▁filozof
▁duvarları
▁ormanlar
▁Gen
ligin
imdir
▁ayırmak
hall
▁eviniz
î
işini
▁halı
▁Anti
▁işçiler
▁karın
akın
▁benzersiz
▁şeffaflık
▁izole
▁başarmak
▁dök
▁seçenekler
▁çimen
▁klavye
▁Sırada
▁bilerek
▁başarmış
▁kaçırma
▁CD
▁gerçekleştirme
yabilirsiniz
▁gerçeğini
▁modül
▁göremedi
▁inceledik
▁br
oid
▁pu
▁tasarrufu
▁bağlılık
list
▁servisi
▁numune
vre
▁yapsa
▁yağı
▁Bilme
▁193
▁gerçeğin
▁hasat
▁ekonomistler
▁yatırımcılar
▁dayanan
▁olmadıkları
PR
▁disk
▁Nor
▁lezzetli
▁Berlin
▁origami
▁koruyor
▁Pri
saydık
▁yetenekler
▁girişimciler
▁Fr
▁çocukluğum
▁beklediği
▁temizleme
▁görüldü
▁kablolar
▁yatkın
▁cm
▁arabaları
▁umuyoru
&
▁kurşun
▁açıklamaya
▁işlediğini
leşmesi
▁denemeye
▁akan
▁yerleştirdik
▁yürümek
▁kütlesi
▁lab
umuzu
▁aşkı
▁uzerinde
▁primat
▁artar
▁atalarımız
▁sunumu
▁anlattığım
▁paylaşım
▁ateşi
▁Kelime
▁köken
▁yazdığım
▁ağlama
▁çıkışı
▁başlı
▁heyecanlıyı
▁verilme
▁zıt
▁Düşünün
▁Delhi
▁paraya
▁devir
▁araştırmaları
▁başarma
▁mail
▁esasın
▁anıt
nmeyen
▁kuralların
▁bırakın
▁hareketler
▁detayları
▁ivme
▁kazandık
▁sınırlarını
▁alınma
▁beyefendi
▁Ata
▁torunları
▁gittiğinde
▁denizin
▁görülür
▁olsalar
▁yırtıcı
▁sinyaller
▁laboratuar
ımızdaki
▁metod
▁fırsatları
▁kitabında
▁attığı
▁Yara
▁Dil
▁indi
▁enzim
▁pamuk
▁yenme
▁nesnelerin
▁gözler
▁çalıştıkları
▁ordusu
▁anlayabilmek
▁otoyol
▁kartları
▁besleme
▁Yok
tasyon
▁ritüel
▁Adaları
▁avuç
▁Sch
▁hatalar
▁Duygu
▁küçümse
rası
▁gitmişti
▁salgını
▁bandı
▁yapabilirdi
▁gözümü
▁yolumuz
▁mineral
▁Ruanda
▁oğlunu
▁Anlaşıl
▁çiçekler
▁almamız
▁gösterge
▁fren
▁ormanı
▁2020
▁kapanı
▁Harr
▁Avrupalı
▁metan
▁çıkartma
▁birbiri
▁semptom
▁balonu
▁dikkatinizi
▁Devrimi
▁kapsaya
▁büyümüş
▁yayılma
▁yıkım
▁form
▁zekâ
▁riskleri
▁Arapça
▁kromozom
▁tabir
▁tartışmaya
rsek
▁öteki
▁Silah
▁kola
▁karanlıkta
▁Etiyopya
rebiliriz
▁yaşamayı
▁ilişkilendir
ımdan
▁birisini
▁harcıyoruz
▁gülümseme
▁etmeme
▁niha
iydi
▁Başkanı
▁açılış
▁yaşandı
▁manşet
▁hazırlama
▁mekanizması
▁sıçrama
▁bilmiyordu
digini
▁solunum
▁Kazan
▁arkada
▁büyüy
▁çevrede
▁gökyüzün
▁Nehri
▁durdurmak
gras
▁şov
▁düşünürsünüz
amanı
▁Lise
▁toplamı
▁Gördü
▁öldürüyor
▁hemşire
▁konuşmasını
▁çırp
▁Michel
▁topladık
▁Bre
▁sponsor
▁evsiz
▁seninle
▁öncelik
▁Kitabı
▁doğaçlama
▁odaklanmak
▁oynamaya
▁yapabilecekleri
gat
▁maç
▁okudu
▁okuyucu
▁Bit
▁Bayanlar
▁Cor
▁efekt
▁kaplama
▁Eh
▁belirtmek
▁kafamda
▁savunmasız
▁taciz
▁haberdar
▁salon
▁omurga
laşan
▁edebileceğimiz
▁pis
▁ötesi
▁kafes
jo
▁hemşireler
▁meslektaşım
▁durumla
▁Körfezi
▁kullanacak
▁giderseniz
▁kaybolma
▁masada
▁duyulma
▁misafir
▁geçirdiği
▁kodlama
▁olanağı
▁iyileştirmek
▁kullanacağım
▁gütmeye
▁ışığ
▁verirler
▁evliliği
▁etnik
▁başkası
▁Duvar
▁dediğini
▁internetten
▁muhabir
▁sözleri
▁karıştırma
liklerini
▁ayakkabıları
▁almadı
▁vücudunuz
▁değillerdi
▁yönelt
▁sektörün
▁gücümüz
NSA
▁yatay
▁dönemin
▁Güç
▁odasına
▁gitmemiz
▁mecbur
▁profesörü
▁kırık
▁doğasını
▁lamba
▁genişliğinde
▁şef
▁National
▁Görünüş
▁tav
▁arayışı
▁Yemen
▁içerir
▁oluştuğu
▁başkaları
▁Parkinson
▁sorabilirsiniz
▁videosu
▁Dar
▁seçenekleri
▁durumlar
▁bağlam
▁oksitosin
▁talimat
▁Nelson
▁hapiste
▁Cola
▁değiştiği
▁kümesi
▁önlemek
▁saklay
▁yürü
▁Polis
▁West
▁itti
▁Aralık
▁ödedi
▁Gelin
▁Dahası
▁Cun
▁yapamaz
▁çorba
▁depolama
▁mutluluğu
▁uza
▁Hoş
▁olsak
ston
▁yaşayacağı
▁lobi
▁keşfediyor
▁sürüklen
▁çat
▁Çince
▁hayatınız
▁tsunami
▁gittiğim
şer
▁kurallarını
▁Normalde
▁sağlığını
▁paylaştı
▁Çocuğu
▁servet
▁ödev
▁ilgilenir
▁sark
▁zamanımız
▁Kaçınız
▁yeteneklerini
▁gerçekleşir
▁öldürül
▁sıralama
▁destekçi
▁İsmi
▁ipucu
▁Brad
▁samimi
▁Derin
▁seçilmiş
▁Şubat
▁oğlan
▁yerleştiriyor
leştiril
▁edinme
▁avlanma
▁kolon
▁yüzeyin
▁yerleş
▁heves
▁engellemek
▁yöneticileri
▁saklı
▁dağlar
▁aracın
▁planla
▁katlı
▁editör
▁pantolon
▁Yaptığım
zyon
▁halüsinasyon
▁spesi
▁kıy
tis
▁varmak
▁obezite
diklerinde
▁dönüştürüyor
▁bilmediğimiz
▁görelim
▁bebeği
▁makinası
▁detaylar
▁niyetli
▁hayranı
▁dilinde
▁Cuma
▁başlangıcında
▁Örgütü
▁yarıya
ılmamış
▁gitmedi
▁Rock
▁Dağı
▁GSM
▁madenci
▁yerleştirmek
▁Norveç
▁objeler
▁yaramıyor
▁çember
▁düşünüp
▁gereklidir
▁karşımız
▁sağdaki
▁Diğeri
▁kölelik
▁geleneği
▁format
▁kemikleri
▁levha
▁yarattığımız
▁ölçer
▁paketi
▁soracak
▁ekonomisini
▁takdirde
uke
▁düşünürdü
▁Muhamm
▁belirsizlik
▁Ticaret
▁gerçekleri
▁Politik
▁Çift
▁ilerler
▁karşıt
▁zamanımızı
▁uyguluyor
▁mutluluğun
▁yaşamlarını
▁kabiliyet
▁sahibim
amadım
lamazsınız
▁çoğunda
acağınız
▁çağda
▁karşılaşır
▁olmazsa
▁yansıtma
▁yerdi
▁yaralanma
▁payı
▁tanımlayan
▁hey
▁mikrofon
▁seven
▁Parça
▁Hill
▁Boy
▁sarf
▁cikar
▁boyutunda
▁harcadığı
▁etkileyecek
▁kulübe
▁Din
▁donat
▁duyacağı
▁ulaşması
▁kısmının
▁hassasiyet
▁düzensiz
▁görüştü
▁verebil
▁geldiklerinde
▁güzeldi
▁festival
eşlik
▁kabullen
▁Ortak
▁anneler
▁götüren
▁bulaş
▁kalkış
▁dinin
▁endişelenme
▁aradım
▁ilgilenmeye
▁itme
▁fikirle
▁üzgünü
▁babasını
yuz
▁anlamayı
▁duvarın
▁doğduğu
▁Anlat
▁II
▁planlıyor
▁koyacağı
▁arayüzü
▁eğitmek
▁sezgisel
▁Jack
▁gösterdim
dilerim
▁aslı
▁bayrak
off
▁Şili
▁girmiş
▁mühim
▁tamamlama
▁katıldığı
▁iletişimi
▁yasalar
▁diyorsunuz
▁Köy
▁tahri
▁sizde
▁bölümleri
▁garaj
▁insanoğlunu
▁bakmayı
▁konuları
▁hayattaki
▁amacım
▁elimi
▁Görme
▁tercüme
▁kardeşleri
▁Profesör
▁çiftleşme
▁olmayacağı
▁Kapa
▁yayma
▁Demokrat
▁sizlerin
▁koleksiyon
▁borsa
▁asteroid
▁Brian
▁İlgi
▁zanned
▁tabanı
▁kontrolünü
▁kavramlar
▁yönleri
▁ayıran
▁kaçın
▁edeceksiniz
▁federal
emedik
▁tabiat
▁mana
▁çayır
▁argüman
▁ettiğinde
▁bölü
▁Dördüncü
▁güldü
▁doğrusal
▁paylaşıyor
▁döneceği
▁dinleyici
▁kuşların
▁kuyu
▁uygulanabilir
▁Bayan
▁Singapur
leştirir
▁okyanuslar
▁düşünürüz
▁düşünmenin
▁asal
▁telefonlar
▁duyacak
▁Life
▁yönlü
▁eşitsizliği
▁halkını
▁Josh
▁Merkez
▁aylar
▁Grön
▁sıralarda
▁Lester
▁ulaşan
▁Aşk
▁anlatacak
▁SW
▁versiyonunu
▁geliri
▁Sekoya
`
▁konuşmuyor
▁azınlık
▁koşullarda
▁süpermarket
▁katıldım
yorsun
▁merkezleri
▁anlayan
▁190
▁dolaş
▁Gezegen
▁Dışarı
▁Aristo
▁hiyerarşi
▁ağını
▁çıkardığımız
▁bireyin
▁parçasıdır
▁sağlayabil
▁nesiller
▁geleni
▁Tre
▁taşları
▁Air
▁ayaklanma
▁asılı
▁Hel
▁sizce
▁giderler
▁duymaya
▁çalışmış
▁ameliyatı
▁verildiği
▁genişletme
çılar
▁delikler
▁vaad
diğimizi
▁edebilirdi
▁modelleme
▁gereç
▁ülkesi
▁Watson
▁Sekiz
▁düşünceler
▁kesimi
▁Okulda
▁kurtardı
▁kadınla
▁logo
▁bozucu
▁dindar
▁şarkıcı
▁koro
▁lanet
▁paylaşacağım
▁keçi
▁yolculuğu
▁adamların
▁araştırmayı
▁eyaleti
▁işaretleri
▁örüntü
▁öğretir
▁seferde
LA
▁Yaptığı
▁eklem
▁videoda
▁yerlerin
▁Ch
▁Elektrik
▁gözünde
▁bilgisayarda
ebiliyordu
▁Olimpiyat
▁Bangladeş
▁kavuştu
▁makul
▁gördükleri
▁Gözleri
▁Diş
▁por
▁içindeydi
ğımız
▁hisleri
▁kırıl
▁bedenim
▁Olan
▁kel
▁cesareti
▁hayalini
▁sansür
▁şekillendirme
yacaktır
▁olaya
▁kanıtlama
▁yanınızda
▁opera
▁evrimi
▁resimlerini
▁Mill
▁bulmayı
well
▁güçlerini
▁atın
▁kürek
▁tırmanma
▁deneyin
▁dükkanı
▁gönderir
uther
▁ritmi
▁yapacaklarını
▁düzeyinde
▁virüsün
▁Gri
▁Öğren
▁çizelge
▁ekranın
▁kuvveti
▁emeklilik
▁bileşeni
▁Pal
▁oturduğu
▁afet
▁sorununu
▁Mat
▁kuvvetleri
▁Soğuk
▁Steven
▁Detroit
▁Titan
▁sevmiyor
▁Batılı
▁organlar
▁toplulukları
▁olgun
▁yapılacağın
▁edeceğini
▁Taş
▁zihniyet
▁astronomi
▁baloncuk
▁dönecek
▁iniyor
▁getirerek
▁gayret
▁işleyişi
▁çapl
▁Gol
▁yedek
▁Mayıs
▁parçaların
▁sözleşme
▁astronot
▁matematiğin
▁şunlar
dra
lemez
▁çıktılar
▁kabullenme
▁Gelecekte
▁kurtarabilir
▁Kolay
▁Somali
▁şampiyon
▁kaydedil
▁çalıştırma
▁kaldırdı
▁başlamalıyız
lacağı
▁erişme
▁42
80
▁44
▁tabakası
▁Mühendis
▁fenomeni
▁bilimci
▁duyulan
lugu
▁Port
▁titre
▁tutkum
meyiz
astro
▁gergin
▁kaynaş
ildiğini
▁İrlanda
▁görevlisi
mişler
▁tişört
▁gezegenimizi
▁durumları
▁konferansın
▁ofisim
tıyor
▁tart
▁Dinle
▁şanslıydı
vey
▁klişe
▁Akıllı
▁belirlemek
▁sihir
▁objeleri
▁bozukluk
▁ifadesi
▁kaldığını
▁cesaretlendir
▁uğraştı
▁yönetiyor
▁endüstrisini
▁teknolojimiz
▁Karanlık
▁öğüt
▁manevi
▁Pop
▁koyuldu
▁Dediğim
▁alabil
▁Kök
▁merkezli
▁dolaşım
▁olduklarından
▁maddeleri
▁sızıntı
▁Çek
▁geliştirdiği
▁hatası
▁adresi
▁tuttur
▁ilginçtir
lendirdi
▁adaptasyon
cilerin
▁Cok
▁komut
sinizdir
lendiriyor
▁meyilli
▁televizyonda
▁Görü
▁ailelerini
▁içeride
▁Bilinç
meyeceğiz
▁göstermişti
▁dolaşıyor
▁kaldırmak
▁koleksiyonu
▁düşündüğünü
▁48
▁isimlerini
▁oluşması
▁aklında
▁bakmanız
▁yazmıştı
▁taraftaki
▁uğraşmak
▁gittiğinizde
▁aydınlatma
▁olmamalı
▁sorusunu
▁başını
▁İncil
labildiği
▁sonlarında
▁bakmamız
▁istiyorsun
cileri
▁röntgen
▁döndür
▁isimlendir
▁iPod
▁yerindeki
▁görünüşü
▁riskini
▁sahası
▁müdürü
▁Kendimiz
▁yaptığımızda
DR
▁hapis
▁Kaide
▁2002
▁bilgilerini
▁döndüğüm
▁uçakta
▁görüyorlar
cıları
▁Sıfır
▁hanım
▁Fazla
▁taksi
▁birleşimi
▁neresi
▁kapattı
▁Şurada
▁soldaki
▁gülü
▁verebilecek
▁çekirdeği
▁fevkalade
▁bakılır
▁Kulağa
▁çevresindeki
▁sektöründe
lendiğini
▁mucit
▁arkamda
▁televizyonu
gini
▁diger
▁Hans
retim
▁yapamadığı
▁beynimizi
▁anlaşılır
▁ışın
abildiğini
▁dörtte
▁konsept
▁Şirketi
▁harcar
▁sistemde
▁versiyon
▁enkaz
▁yaklaşma
▁geçmeye
▁şüpheci
▁erkekleri
▁yöneticisi
▁okuyan
▁Mısırlı
▁yüksel
▁açacak
▁edilmişti
▁tema
▁gününü
▁öğrendikleri
▁ruhunu
▁sembolü
▁müslüman
▁uçuşu
▁izledik
▁cuma
▁hakkını
▁Değiş
▁iplik
elanda
▁katılan
ock
▁ürkütücü
▁yayınlandı
▁rolünü
ano
▁kıyafetleri
▁pist
▁sayılmaz
▁ihtiyaçlarını
▁verilmesi
▁konuştuğunu
▁coşku
▁midir
▁dikil
▁kurtulu
▁ipuçları
▁tansiyon
▁alanını
▁İskoç
ılmaya
▁sarma
▁petrolün
▁kayı
▁insanlığı
layalım
▁üstündeki
▁dilek
▁farkli
▁har
▁engelleye
▁bilirsin
▁laf
ilmemiş
▁alabiliriz
▁Sınır
▁kullanabiliyor
▁Dışarıda
▁kastediyoru
▁öğrenim
▁filan
▁bilmeniz
▁yazısı
▁vatandaşlar
▁dibinde
▁satan
▁nötr
▁yaradığını
▁memnuniyet
▁yaşını
EC
▁boğu
▁yığını
▁sağır
▁Türkiye
▁ortağı
▁önlem
▁soykırım
▁durduğu
▁bulunduğum
▁oynadığı
▁öğrenmiş
▁Homo
▁omurilik
suzluk
▁israf
▁nerdeyse
▁Mag
▁hazırlıyor
▁safha
▁otuz
▁ölçtü
▁çevrili
▁üzgün
▁uğraştığı
▁oyunlarını
▁atmosferde
▁körü
▁atlayı
▁Leonardo
▁EM
▁Tesl
▁geçişi
MS
▁sürmek
▁gökada
▁sürecek
▁kavra
lüğünü
▁anlayabilir
▁350
▁inandığım
▁buhar
▁Mesele
▁isimleri
▁boyunda
▁teorik
▁uzmanlaş
▁Hukuk
▁anlayı
▁Günde
▁kameralar
▁görünebilir
▁maliyetleri
▁verimliliği
▁Patlama
▁komedi
▁Nefes
▁makinalar
▁basar
▁kuruldu
reti
▁bilmeyen
▁boyutları
▁dönüştürebilir
▁sıçan
▁eyaletler
▁Kanun
▁çalmak
▁cephe
▁sıkışı
▁dalgalar
▁vuruş
▁etrafımızdaki
▁evrenimiz
▁sürer
ung
▁üniversitede
▁aslın
▁kapatmak
▁Gidi
maktır
▁Yaptıkları
mediği
▁kurucu
▁ekliyor
▁üstte
masından
▁ebeveynler
▁kurumun
yorduk
▁çalıştığınız
▁yorumlama
▁Endişe
▁dağılımı
▁Laboratuvarı
memiş
relim
▁geliştirir
▁Bat
▁gerekçe
▁Köpek
▁düşünmüş
▁War
▁veriyordu
▁aktarma
▁belirler
▁tarzda
▁sözcük
yahut
▁hatıra
▁Nik
▁Yeteri
▁alabilecek
▁eklemek
▁çeyrek
▁ettirmek
▁hatırlat
▁Kendinizi
▁deneyimim
▁bükül
▁bağlamak
mazsınız
mazdı
▁laboratuvarı
larınıza
▁cevapları
▁bitiyor
▁imkân
omik
emeyen
▁yürütme
▁olduğuyla
▁görüşlü
▁istatistikler
▁yapıda
▁çıkarmaya
▁zorlukları
▁Saray
▁amatör
syonu
▁mektubu
▁haklar
▁İnsanlık
▁denetle
▁Program
▁kalıntıları
▁bağları
▁okuyu
▁Hawaii
▁tavır
▁Başta
▁değiştirmemiz
▁soya
▁yönünü
▁Başlangıçta
▁koç
▁ölçeği
▁tutmaya
▁silahı
▁oranlarını
▁yöntemle
▁emir
▁olmamı
▁meta
▁başlatma
▁kurula
▁55
▁engelle
eographic
▁fizyoloji
▁AB
▁bileşenleri
▁hatırlattı
▁olmadığımız
▁belirley
DI
▁üretti
▁şansınız
▁dirençli
▁alıştırma
▁bilgisayarları
▁hoparlör
▁delil
▁başımıza
▁asansör
▁kraliçe
▁doğduğum
▁entropi
▁Juli
▁İlaç
çüncüsü
▁vermedi
▁Mimar
▁Linu
▁implant
▁birkaçı
▁Ordu
▁selam
▁adlandırdığımız
abileceğimizi
▁öğrenecek
▁Tanzanya
lacağını
▁isteyecek
▁Pre
▁konuşalım
▁etkilen
▁karşılaştığı
▁bağlama
ound
▁söyledik
▁araştırması
▁verimlilik
▁eşittir
▁mülk
▁icadı
▁bilge
▁çıkarsa
▁sokağ
▁medyada
▁64
▁keşfettiğimiz
▁Yüzlerce
▁yıldızları
üydü
▁izlemeye
▁simdi
▁vizyonu
▁karsi
▁tarafinda
▁kucuk
▁elimiz
▁degis
▁feda
▁Diyelim
▁dönersek
▁yapabileceğini
▁bazlı
▁alışkanlık
▁etrafınızda
sünüz
▁veriliyor
▁yetiştiriyor
▁kurtarıl
▁organizasyonlar
▁istemişti
▁Hakları
▁muhafazakar
▁bırakan
▁alacağım
lmasını
▁robotu
▁robotların
▁kullanıldığını
▁romantik
▁temsili
▁hataları
▁World
▁Renk
yacaksınız
▁başlarsınız
▁veritabanı
biliyor
▁kesit
▁Rose
dukları
leşmeye
▁şüpheli
▁sağlıyorlar
▁kitab
▁surat
▁tersini
▁iğrenç
▁katmanı
▁dağıtma
▁Birbirleri
▁koyan
▁hissediyorsunuz
▁benliğin
▁Teksas
▁şekl
▁turuncu
▁çekmeye
▁Rüzgar
▁ekledik
▁açılı
▁içgüdü
▁Birbirimiz
▁Şiir
▁hissettiğiniz
▁Kad
▁hareketlerini
anlayabilirsiniz
lenecek
▁hissedebilir
▁damga
▁kayboluyor
▁gördüğünüzde
▁özetle
▁çalışabilir
▁hikâyeler
▁yansıma
ju
▁dünyamızda
é
▁edebiyat
▁İşim
▁Ağaç
▁beceriler
▁Bugünkü
▁seçkin
▁adamdı
rün
▁bizzat
▁keser
ilmişti
▁sonunu
▁gördükleriniz
▁montaj
▁içeriğin
▁kökeni
▁genetiği
▁yapabilirse
▁Mur
▁bulundukları
▁yaşadığınız
▁edemeyeceği
▁mülteciler
abilsin
▁müfredat
rsa
▁toplulukta
▁hırsız
▁zincirini
▁sözünü
ciliği
▁annesini
▁tasarlandı
▁şizofreni
▁milimetre
▁dergisinde
▁My
▁sığır
▁oturmak
▁Tunus
layabilirsiniz
▁beslemek
▁Devri
▁reaktör
▁arkadaşlık
▁santimetre
HC
ttiğim
▁etkinliği
▁anlatabilir
▁Sonsuz
▁zorladı
▁ihmal
▁şefi
▁açıklık
gas
▁zorluyor
▁1930
▁parçacıkların
▁karides
▁santral
▁ekibin
▁yelpaze
▁ulaşabilir
▁görmemişti
▁Yapmak
▁feet
▁Julia
▁kademe
▁gücünde
▁hazırlık
▁SS
▁transistör
▁beklentisi
▁karışma
loğu
▁konuştuğu
▁uzlaşma
▁yapmazsa
▁uyguladığı
▁toplulukların
▁olmamıştı
▁eylemi
▁şaşırt
▁gidişatı
▁ulaşama
▁Uzak
▁çocuğunuz
▁çözer
▁kala
bot
▁sağlamaya
▁yakma
▁kullanmakta
▁teorisini
▁mantıksız
▁evrimleşme
▁şehirdeki
▁simülasyon
▁arıyoruz
▁Apollo
▁hareketsiz
▁uzunluğu
▁ulke
▁Asli
▁panik
▁Mike
▁Görüntü
ilmis
▁şempanze
▁yapılabilecek
▁taşınabilir
▁kilolu
▁yiyecekler
▁gözünüz
▁değerlerini
▁açım
▁ulaşacak
▁neresinde
▁ağların
▁Milyonlar
▁yaşlandık
▁Albert
▁farketti
▁gürültülü
▁duyarı
▁Barış
▁kahkaha
▁sağda
leştirici
▁almaları
▁izleri
▁ucun
▁yaşları
▁evli
▁atladı
▁kolları
▁tüketiyor
cısı
▁büyükbabam
▁işlet
▁bildi
▁Ayak
▁IM
▁düşünürü
▁çizer
▁Hastalık
▁kelimesinin
meniz
▁tokuş
abildiğimiz
▁doluydu
▁sağduyu
▁yükseliyor
▁Çoğunlukla
▁gerçekleştiği
▁bilmem
▁düzeltmek
▁ortama
▁ediyorlardı
▁pekço
▁Fakir
lenmişti
▁Cap
▁Ateş
▁00
▁yelken
▁ürünlerini
▁sakın
▁işlevi
▁kopyalama
▁Tür
▁şiiri
▁potansiyelini
▁dayanır
▁deneyimini
▁Düzen
▁Dunya
▁kadin
▁grubunu
▁alışkın
▁kriter
bül
▁Test
▁gözlemley
acaklarını
▁mahrum
▁tuğla
▁burs
▁fonksiyonu
▁kaplumbağa
▁kutunu
▁istemek
▁bilmemiz
▁Danimarka
▁ayırıyor
▁başlayacağım
▁derse
▁başlattığı
▁öldürüldü
▁sektörü
▁trajik
▁çevrim
▁yanılma
▁bahsettim
▁anladığım
▁duvarlar
▁gerekmez
▁diğerinin
▁ayrımı
▁çiftliği
▁piksel
▁vali
▁parasını
▁Afrikalılar
▁söylemiyorum
▁tasarlıyor
irsek
▁artırma
▁taraflı
▁unut
▁fırla
▁teyze
▁rutin
rdiniz
▁Görünen
▁mahremiyet
arth
▁döşe
▁çocuklardan
▁sevil
▁teknikler
▁karalama
▁sınırlama
▁boyutlar
▁modelini
▁Rand
▁katlama
▁dileğim
▁dilimi
▁parçacıkları
▁geldiğimizde
▁Deneyim
▁Sıcak
▁katılımı
▁paylaştığımız
▁yüzünde
▁tümünü
▁öğretim
▁LG
▁karşılaştığım
▁panel
▁olmamış
ooh
▁Ağı
▁Aşama
▁yaprakları
▁biriyim
▁edemedi
▁getirdiler
▁buğday
▁gezegenimizde
▁Ağustos
▁olduklarında
abilseydi
▁şirkette
▁randevu
way
laştırmak
▁yaptigi
▁kaydetme
▁nazar
▁geleceğimiz
▁çıkıntı
▁çevreleye
▁Göster
▁sıçra
▁çekilen
▁kahramanı
▁biziz
▁yemin
▁Dinleyici
miyordum
▁ezil
sever
▁pili
▁dis
▁uret
▁yapılmıştı
▁buzdolabı
▁senkroniz
▁gelecektir
▁borcu
▁edeceği
▁alışkanlıkları
▁Ted
▁beste
▁deliğin
▁kıvrıl
▁döndüğünü
▁Long
▁Shi
▁ülkesinde
▁çalışırlar
▁zenginliği
▁götürebilir
▁etmişler
▁hatalı
▁şaşkın
▁kıyısında
▁cami
▁verilmiş
▁mutfak
▁yatakta
▁aklı
▁Ebeveynler
▁döneme
▁söylediğimde
▁hatırlamak
▁toprağ
▁Hy
▁aksiyon
ebildiğimiz
▁Seks
▁düşündükleri
▁doğumu
▁düzeyi
▁gümüş
▁kafası
▁üretilmiş
▁birincisi
▁sadakat
▁icra
▁açılan
▁buldukları
▁döl
▁atlat
▁üretimini
▁vermeme
▁maçı
▁72
▁Nüfus
▁Saç
▁telefonunuz
▁amacımız
▁dinleyi
▁Carolin
▁bahçesinde
▁nispet
▁Bildiğimiz
▁yaptığınızı
▁sosyo
▁oynayabilir
▁Parti
▁apartman
▁köpekler
▁hissettiği
▁açtık
▁gelirli
▁şansını
cca
▁sorarsanız
▁zahmet
▁geçtiğini
▁saçmalık
▁deneyelim
ebilseydi
▁öğrendiği
▁patron
▁söyleyeme
▁dert
amadık
▁yapmanızı
▁eylemleri
▁sezon
▁William
▁olabilirim
▁pizza
▁grafikler
▁duygusunu
▁Clint
▁gezdir
▁Sudan
▁kuruluşlar
▁geçim
▁kimseyi
▁istediğinizi
amayacağını
▁yaymak
▁dalgası
▁bitkileri
▁varolan
▁çete
▁savaştı
▁davranışını
▁Disney
▁öğretmenin
▁havalandırma
▁öl
hol
▁bulduğu
▁görebileceği
umuza
▁oluşturduğumuz
▁Mas
▁ölümsüz
▁bilimciler
▁olağandışı
lursunuz
▁götürecek
▁turist
▁ekonomist
▁böbrek
▁Umut
OL
▁Şüphe
▁Geçmişte
▁köpekbalığı
BM
▁Kir
▁kasları
▁1900
▁stok
▁metabolizma
▁rekor
kins
▁yüklü
▁pul
▁RNA
▁tuna
mazsanız
▁sokakları
▁girdiğim
▁amaçları
▁öğreniyorlar
▁lob
labileceği
▁koruna
▁Tav
▁kaşı
▁doktorların
▁istese
▁dolaşan
bilim
▁gercek
▁yerçekimi
▁şuradaki
▁Bakanı
▁hedefleri
▁kaçırıyor
▁trafiği
▁Brooklyn
▁odaklandı
▁parçacık
▁ayrılıyor
▁Resmi
▁çevreci
▁sevdiğimiz
▁dünyamız
fra
▁başlıyorum
▁beyninizi
▁beyninde
▁beslen
▁Şaşırtıcı
▁Hepinizi
▁dışarda
▁bağımlılığı
▁oluşturabilir
▁Gitti
▁yaklaşır
▁Kamp
▁yazıyordu
▁imha
▁salonda
laşması
▁takıyor
▁Selam
▁yaşım
▁kampı
atılan
▁Johnson
▁görüşüm
ront
dayken
lmesi
▁girecek
▁basıncı
▁çiziyor
▁bebeklerin
▁paylaşır
▁girmeye
▁güvence
▁yapacağımızı
▁Görsel
▁verilerini
▁yazmış
▁geometri
▁anlatıcı
▁yürek
▁uyumsuz
▁isteyeceği
▁tutucu
▁anladığımız
▁verilir
▁vurdu
▁temelini
▁atıkları
▁sperm
▁embriyo
▁attık
▁Oğlum
Ş
▁çözmemiz
▁dilde
▁seçtiği
▁ikram
▁inanmayı
▁paylaşan
▁albüm
▁tesisi
▁gözlerinizi
▁uzanıyor
▁keşfetmeye
▁atıp
▁kader
▁civa
▁edecekler
▁sis
▁izlenim
▁görüntülerin
▁olabilmek
▁uzmanlık
▁genc
▁koymaya
▁birçoğunuz
▁yüklen
▁orjinal
▁zamanım
▁Şimdilerde
▁ödemek
▁demografik
▁edemeyi
▁Seç
▁söylediğini
▁yorucu
▁daral
▁bulanık
▁Mich
▁düşmanı
▁doğuşu
row
▁Bilgisayarlar
▁konumu
▁ikimiz
▁ayrıldığı
▁Elimizde
▁Çocukları
▁bekliyordu
▁Nata
▁mikrop
▁işletmeler
saydım
▁deneyimleme
▁Cent
▁çizgisi
▁yapacağımı
▁Karmaşık
▁heyecanlıydı
▁31
▁alem
▁ezber
▁farklıydı
▁düzlem
▁bitiş
▁ormanların
▁balta
▁genin
▁denekler
▁mülkiyet
▁leke
▁erime
▁politikası
ebiliyorsunuz
▁isabet
▁Tel
▁Suud
▁etmediği
▁çizdi
▁ücreti
▁kaynaklana
▁isteyeceğim
▁füzyon
▁balinalar
▁tabanlı
▁dublör
▁dolaşır
▁duş
▁set
▁büyümesini
▁berber
▁kodun
▁Konseyi
▁Ladin
▁çatışmalar
▁Libya
▁dokusunu
▁kopuk
▁güçsüz
▁tutacak
▁oluşturuyorlar
▁hissettiriyor
▁İst
▁ulaşmış
▁arabaların
▁girişi
▁hacim
▁dostu
▁etmelerini
▁inç
▁Atlanta
▁ray
▁termo
rio
▁taşınma
▁Geç
▁doğruluk
▁tayf
▁söylerler
▁düşünse
lyn
▁robotları
▁hoşun
▁bazi
melerini
▁alay
▁Ciddi
▁yapacaklar
▁ortalıkta
▁işsiz
▁paylaşımı
▁hikayemi
▁oluşturabiliriz
▁kabus
▁bittiği
▁dolaylı
▁kıvrım
▁grubunda
▁görebilecek
▁bakışı
▁Radyo
▁soruların
▁sesimi
▁aktarmak
▁toplandı
▁verirken
▁öleceği
▁açabilir
▁çöktü
lmadı
▁başlarlar
▁okumayı
▁oturuyordu
▁etkisiz
▁kitapların
▁hazırlamak
▁babalar
lmayacağını
▁tablosu
▁konsepti
üzün
▁dişleri
▁oturum
▁öğrencilerimiz
lamayı
▁endüstrisinde
▁yapmamızı
▁tamamladı
▁bulunmuyor
rizon
▁Koca
▁çoğumuzun
▁sömür
▁faktörler
▁algılaya
▁boşluğun
▁suçu
▁istatistikleri
▁geçirecek
▁maddeler
▁malzemelerin
▁ziyan
▁etkilendi
▁gücümüzü
▁oranına
▁tasarim
▁boyama
▁haksız
▁büyüle
▁kanunu
▁Kop
▁Uçak
▁etkiye
▁materyaller
▁yırt
niversitesinde
▁Ofis
▁Sınıf
▁Büyükanne
▁diyeceğim
▁protokol
▁eşiğinde
▁gözetim
▁Lego
▁başlıyorsunuz
▁işinde
▁odaklanmış
▁karakterleri
▁yerleştirilmiş
▁Soldaki
▁Akıl
▁uydurma
▁isteyebilir
▁söylenir
▁melodi
▁tartışmalı
▁koşma
▁geliştirilmiş
▁İnternette
▁beyzbol
▁tepesin
ics
▁Yağmur
▁And
▁suyunu
▁değiştirilmiş
▁anlattıkları
▁çığlık
▁Annemi
▁çadır
▁binaları
▁öldüren
▁titreş
▁uçağ
dığınızı
▁oluşturulmuş
▁gösterim
▁görüntüy
▁domates
▁yapışkan
▁karım
▁istemiyordu
right
▁Kür
▁kostüm
▁becerisi
▁şahs
▁ölçüsü
▁odun
▁gidebileceği
▁dönüştürücü
▁yemeğ
▁ulaştım
▁olmayacaktı
▁ihtiyar
▁aydınlanma
▁Temiz
▁eğilimli
▁alışık
▁Şef
▁açıklayacağım
▁karbonu
stron
▁alttaki
▁mesajlar
▁arttırıyor
▁van
layabilirim
▁sevdiğiniz
▁değiştirdiği
▁alınması
▁algoritmalar
▁görebildiği
▁koruyan
▁kurduğumuz
▁kelimelerin
▁başarama
▁İranlı
▁alırdı
▁yayınlana
▁bulmalıyı
▁yapamazsınız
▁farkettik
▁obez
▁ıslık
▁Gal
▁öğretmenlerin
▁lezzet
▁CR
▁Kong
▁tapir
▁ilgilendiren
larınızla
▁anlayacak
▁benzediği
▁benziyordu
▁Insanlar
▁96
▁kanunlar
▁yapabil
▁söyleyemez
▁canına
▁Cep
▁biçimleri
▁kalkma
▁görünecek
▁47
ebildiğini
▁kullanırlar
▁karma
▁soluk
▁aradığımız
▁kaşif
▁keşifler
▁patlat
▁dostum
▁seyler
ilip
▁fakirlik
▁kask
▁paha
▁Temmuz
▁edindi
▁uygulamak
▁yeteneğini
▁vücud
ilmesini
▁erişti
▁sağlayıcı
▁delikleri
▁başkanlı
▁saplantı
▁bahset
▁istila
▁Yarın
▁yiyen
▁babaları
▁inançları
▁Endonezya
▁Chi
▁paylaşmaya
▁acele
col
▁yolculuğum
▁sorulan
▁içki
▁tanımladı
▁atölye
▁bük
▁yapabildiğimiz
▁Davranış
▁kaldırıyor
▁eleştir
▁yaptığınızda
▁bugünlerde
▁zararsız
▁Will
▁yayınlanma
verdi
▁solda
▁olasılıkları
▁bayrağı
▁sandığı
▁benzemiyor
▁önemseme
▁bölünme
▁sahipliği
▁Çoğunuz
▁yorumlar
▁Şiddet
▁sabırsız
▁önemsiyor
▁kondom
▁alfabe
▁sarhoş
▁hane
▁ulaşabilme
▁Adem
liyorlar
▁bağlanıyor
ebilmemiz
▁masaüstü
▁bloğu
▁aracılığı
▁monte
ella
▁seyirciler
ograf
neyse
▁Stephen
▁iskele
aktif
▁bölünmüş
▁işit
▁kaldığımız
▁salonun
▁diyabet
▁Tra
▁sokma
▁gördüler
▁zavallı
▁kullanıyordu
▁balıkların
▁rengini
▁derinliklerin
▁ayakkabılar
▁cenaze
▁çıkacağı
▁kapasitesini
▁duymadığı
▁öğrettiği
▁çizmek
▁Adası
duğunda
▁formda
▁diktatör
▁beşinci
▁derdim
▁Vatandaş
leştirmeye
▁haberlerde
▁kaçınız
▁yapmamı
▁keşfettiği
▁ortamın
▁gökyüzünü
▁dönmeye
▁anayasa
liğimizi
▁kuran
▁hizmetlerini
▁Snow
▁telefonlarını
▁sözde
▁moral
▁Sky
▁etmektedir
▁bulutlar
▁penis
▁İkisi
▁tanıdığım
▁ayrımcılık
▁üzüm
▁Arı
lışılmadık
▁900
▁gözlerim
▁Maria
▁Hayatımda
▁azalması
▁görüntüsünü
▁Tit
▁Kutup
▁yönlerde
▁ruhsal
▁hepsinden
▁1999
▁esneklik
▁bağlamında
▁dolaşı
▁masrafları
ska
▁önerdi
▁dekor
▁çizimler
▁yazarken
bran
▁motif
▁izleyebilir
▁damarları
▁Doku
▁yeryüzünde
▁belirleye
ırım
▁düzel
▁yaşımdayken
▁gençlik
▁kavray
▁kullanmış
▁Leon
▁rüzgâr
▁istasyonları
▁Mahkeme
▁uzmanların
▁Yabancı
▁boyutların
▁raporu
▁Maymun
▁düşündüklerini
▁Öğrenme
▁Isa
▁organizmaların
lenmeye
▁Parkı
▁şefkatli
▁ogren
▁okyanusu
▁yuvarlan
▁hissettiğimiz
▁aşağıdaki
▁Buzul
▁kullanıldığı
▁Fransızca
▁öğrenen
▁Hous
▁teşhisi
▁Sinir
▁hamur
▁edebilirler
▁konuşacağı
▁bakanı
▁komuta
▁sonbahar
▁girişimi
▁içecek
▁Hisse
▁192
▁yorgun
▁anlayabil
okyo
ranın
▁Kamera
▁Herşeyi
▁bilimcileri
▁Evreni
▁barın
▁kökten
▁şeridi
▁düşmüş
▁kariyerim
▁keşfin
▁Satur
▁gönderildi
▁gezegenimiz
▁alçak
▁gözlemledi
▁diğerini
▁bulutu
▁Bang
▁Nokta
▁dinleyen
▁acik
likli
▁muydun
▁ağırlığında
▁büyüktür
▁kalanında
▁Nöro
▁kalmayacak
▁şiddetle
▁Sanatçı
▁koyduğumuz
▁oylama
▁kıyafeti
▁ilişkilerini
▁plaj
▁acıyı
▁Sıtma
▁yıkama
▁püskürt
▁yaptıklarında
cılığı
▁Sara
▁kek
▁müttefik
▁yapamayı
▁paylaştık
ladığında
▁kukla
▁erdem
▁180
▁Yüzey
▁sabahın
▁Başarı
▁anlatıyorum
▁tanımıyor
▁sihirbaz
▁2014
tay
▁uyarlama
▁planda
▁ayrıştır
▁seyretti
▁kurbanları
▁egemen
▁Yaşadığı
▁canlıları
▁görevler
▁İnşa
▁kimyasalları
▁poli
▁tezgah
mezsin
#
▁yapıyorlardı
▁yönetmek
diğinizi
▁Gelişim
▁Sessiz
AT
▁kesilmiş
▁sörf
▁platformu
▁sallan
▁pekala
▁Çoğumuz
▁çevirir
▁yapil
▁işgücü
▁bulundum
▁birikim
▁hastayı
▁gördüğünü
▁Lind
▁jel
▁problemini
▁büyüklük
▁Ders
▁yükümlü
▁kampüs
▁yazdıkları
von
▁Tat
▁kazma
▁pazarlık
▁havaalanı
▁ayrıcalık
▁çekecek
▁çıkarıyorlar
▁kırp
▁Arkadaş
▁izlerken
▁hangisini
▁Yunus
▁Mont
▁Wolf
▁biter
▁yazmayı
▁Düz
▁duyuyordu
▁sabahı
▁patojen
▁entellektüel
▁istenen
▁oysa
yelim
takım
▁ayrılık
▁geçiyoruz
emeyeceğimiz
▁Tarım
▁ailelerin
▁çalışmalarım
▁planları
▁Edward
▁ekin
▁alamıyor
▁Düşünce
▁olabilmesi
▁Craig
▁başlatmak
▁simetrik
▁Lak
▁far
▁Müşteri
▁burnu
▁Sanıyorum
▁saldırısı
▁gelişimini
▁rakamları
▁hack
▁Aşırı
▁gizlilik
▁olamadı
▁AG
sky
▁Genom
▁Gülme
▁kaçtı
▁Prens
▁evimde
▁harikulade
▁boşaltı
▁Ekranda
▁Yiyecek
▁yoğunluğunu
▁büyükannem
▁incelemeye
▁tasarladık
▁Hol
▁göstermeme
▁bahsettik
▁Kolombiya
▁bölgelere
▁yaratabiliriz
▁dizileri
▁Bhu
▁edemediği
▁biçimini
▁değişmeye
angelo
▁anlayacağı
▁uluslar
▁mimarlık
▁parkın
▁huylu
▁kalbiniz
▁belirleyici
▁dinleri
▁pigment
▁piyango
▁tanrım
▁Alaska
▁matematiği
▁parkı
▁tüketiciler
▁Yunanistan
▁karadelik
▁vaaz
▁paradoks
▁soktu
▁sevk
▁yapmıyorum
▁anlaşıldı
▁etrafımda
▁inanmaya
▁modellerini
▁çalışıyorduk
▁kuşku
▁vatandaşı
▁kısma
▁hasıla
▁çatlaklar
▁yapabildi
▁fiziğin
▁kafasında
▁espri
irsiniz
▁kullanabilme
RA
▁gerektiğinde
▁ayrılır
▁edinmek
▁aklını
▁dezavantaj
▁gecede
yacağımız
▁ürettiğimiz
▁giydiği
▁gitmekte
▁kültürleri
▁koruyacak
▁sorgula
▁önleme
▁kılar
▁şırınga
▁uğrama
amanla
rebilirim
▁söylemekte
▁dünyasını
▁yaşamakta
▁değersiz
▁Avusturya
yüm
▁çalışın
▁hayatlarımızı
duğunuzda
▁işimizi
zgünü
▁ışığında
▁civarı
▁vücutta
▁hazırladık
▁engelliyor
▁mutluydu
▁kavuş
▁neslin
▁uçurma
▁günümüzü
▁bahsedelim
▁Kilise
▁papaz
▁almanız
▁karışım
▁atıklar
▁verebileceği
▁akıyor
▁kaybetmek
▁işletim
▁istediğinde
▁görmesi
▁kabı
▁sebebini
▁jeoloji
▁kopru
▁sunulan
▁adlandırılır
▁dönmüş
▁gözlü
▁Kes
▁kokusu
▁uyandıra
▁STK
▁altını
▁tasarlar
▁oyuncağı
▁sofistike
▁çizgisini
▁gelirdi
▁uçu
▁hatırlatmak
▁memur
▁vaat
▁doyur
▁gitar
▁olmanızı
70
▁klon
▁parçasıydı
▁kazanacak
SA
▁Aşı
viral
▁Portekiz
▁şunları
▁Diyor
▁çocuklarınız
statik
▁toplayan
▁kapsül
▁gönderdik
▁Red
▁mitoloji
▁Harita
▁topluluğ
▁Bahse
▁başlamamız
▁başardığı
▁Söylediğim
▁oralarda
lmez
▁yeteneğimiz
▁Prince
▁yapılandır
lendirici
▁göstermektedir
▁olabilme
▁kaplanmış
▁itici
▁süregel
▁bittiğinde
▁belirttiği
hma
▁içgüdüsel
layacağını
▁problemlere
▁katında
▁Emma
▁gösteriliyor
▁görevini
▁kolektif
▁yemeğinde
▁atıldı
rdım
▁dokuyu
▁yargılama
▁direniş
▁grupların
▁materyali
▁insanoğlu
▁gökyüzü
▁kafamı
abiliyorsunuz
▁Bab
▁kırılma
▁dökme
▁sırtında
▁olmadığınız
▁tanımak
▁istiridye
▁atılmış
dol
▁kaptır
▁anlaş
▁SE
▁haberleşme
▁konferansta
▁fonksiyonları
▁elverişli
▁Gold
▁denizde
▁liderlerin
▁refahı
▁Cumhuriyetçi
▁çarpan
▁kapağı
▁buralar
▁asır
▁koşar
▁Sanayi
▁Haber
▁tüketme
▁Ödül
▁habitat
▁Monter
▁Ölü
▁yarasalar
▁nakit
▁sicim
LP
▁üstel
▁Milo
▁çözecek
▁meşru
▁Mandela
▁görüşleri
▁Ortada
▁düştüğünü
▁kuruluşun
landırıyor
▁öldüğünü
▁Tip
▁Kimin
▁43
▁yasası
▁farz
▁tum
▁fiziği
leyebilirsiniz
▁Hesap
▁Milli
▁yörüngesinde
▁eko
▁keşfedildi
▁büyüklüğünü
▁Karbon
▁edebilen
▁tırnak
▁kronik
▁kalir
▁basari
▁düşünüyorlardı
▁barındırıyor
layabileceği
▁metaboli
üzel
▁umduğum
▁sürüş
▁bağladı
▁bakabilir
▁geçmesi
▁biçimlendir
llah
▁muydu
▁kalabilir
▁dönüşmesi
▁gözlerimi
▁kırdı
▁Ram
▁kıvılcım
▁saçları
▁listesinde
▁kayboldu
▁korkuyordu
▁dahilinde
▁Değişim
▁prostat
▁Benjamin
▁üz
▁uzaklık
mişsinizdir
▁kaldırır
▁İhtiyacı
▁fantastik
▁gösteriş
▁Venüs
▁Birçoğu
▁söylediğimiz
▁karnı
▁söylüyoruz
▁Hayatım
▁Unut
▁mesajları
▁inanıyordu
abiliyorum
▁kırı
▁taktı
▁uğrat
▁materyalleri
▁meslektaşları
▁boşluklar
▁sürükley
▁yetişti
▁basketbol
▁Tayland
▁başbakan
▁kurtuldu
▁Philip
▁Değişik
▁partikül
▁kullanırız
▁istifa
▁uçmak
▁hissetmiyor
▁büyüdüğü
ington
▁büyüdük
▁evlerini
▁tonu
▁fili
▁Hayvanlar
▁torunu
▁görmediği
▁korkar
▁tempo
▁Kaza
leştirdik
▁uygular
▁astım
▁gelebilecek
ınızın
▁geçerlidir
▁toplumumuzu
▁karşılamak
▁deneyde
▁Sarı
▁baktığım
▁uygarlık
ivil
▁mevzu
▁sürücüsü
▁geçelim
▁düşündüğümü
▁edilmemiş
▁eleştirme
▁okulunda
▁Oyuncu
▁yürüttü
▁reddetti
▁bahsetmişti
elişmekte
▁anonim
▁hissedil
▁ilginçti
▁olmadığından
▁Pac
▁ayrıldı
▁baktığı
▁olmakta
▁Haberler
▁dönüşme
▁duymuyor
▁Elizabeth
▁tasarlamaya
▁üzerimde
▁Hall
cektim
▁bedenin
▁yüzleşme
▁prensipleri
▁barışçı
▁Post
▁düşünürler
▁tarafındaki
daydım
low
▁Banka
▁uzatma
▁sınırsız
▁Tibet
▁kasırga
▁adaleti
▁düşüncelerini
▁taslak
bileceği
▁rahip
▁ciğer
hav
rinlemesin
▁aksanı
▁öldüğü
▁evleri
▁düşündüğümde
▁bayılır
▁görevleri
▁işlenmiş
▁özlem
▁hissetmeye
▁kahvaltı
liyoruz
▁ekmeği
▁konumda
▁Kendiniz
▁AK
▁kainat
▁rakamı
layayım
▁ışınları
▁durağan
▁Akademi
▁ihtimalleri
rmeliyiz
▁Verme
▁JF
▁hedefimiz
▁pervane
▁çapraz
▁döndürme
▁kaçış
▁34
▁metrekare
abildiğim
▁paylaşıla
▁engelleme
▁sembolik
▁karo
▁asfalt
▁kızıl
▁sınıflandır
▁mesleği
▁ettiğimizde
▁Yolu
▁Bağımsız
▁İzlanda
▁tuzlu
▁yakıtlar
▁bilgimiz
▁kuzeni
▁andı
▁düzenleyen
▁olduğumdan
▁kuraklık
▁sualtı
▁ES
▁Yasası
▁gözlük
▁hamuru
▁yaratıcılığın
▁Pete
günün
▁çatışmaları
▁tarafsız
▁konuşuyorlar
▁müzakere
▁öğrenmemiz
▁yararına
▁Konuş
▁prosedür
▁olduğunuzda
▁metropol
▁genişliği
▁zamanımı
▁gülüyor
▁işlediği
▁heryerde
▁koyacak
▁taşıdığı
▁bitmiş
13
▁adayı
▁boşlukta
üldüğü
▁buluşlar
▁esrar
▁parlaya
▁edemem
▁Hum
▁beğenme
▁Televizyon
▁kardiy
▁Arşi
▁97
▁paneli
▁vücudumuzu
▁sayısında
▁yediğimiz
▁soğutma
▁yavaşlama
dikal
▁birikimi
receğiz
▁sektörde
▁davul
▁adamış
▁görürdü
▁çıkarken
▁kurtaracak
▁bekliyoruz
▁inanmıyorum
▁ödülünü
▁uğray
▁kaçan
▁düşünülen
lanıyordu
▁Mevcu
olo
▁sağlamış
▁boyutunu
▁kurumu
▁ilgileniyoru
▁Hafta
layacağım
▁sakal
▁sabır
▁vefat
▁yattı
▁aktiviteler
▁takıntılı
▁Lew
▁yükü
▁açılır
▁İhti
▁Garip
▁yatar
▁Kadınları
▁bozma
▁Sihir
▁birebir
▁niyeti
▁farkındayım
▁faktörü
▁Adamı
▁hakaret
▁getirmiş
▁azala
▁canım
▁Sesi
▁geliştiriyor
▁faktörleri
▁mantarlar
▁yapardım
▁inancım
▁karşılığı
▁temizlemek
▁toplamında
▁şirin
▁şişir
▁önündeki
▁proto
▁sokmak
▁bilinçsiz
▁litre
▁Fort
▁inanılmazdı
▁uygulayabilir
▁maksim
▁inanıyorlar
▁Cevabı
▁kanıtları
▁tarihçi
▁çevremizdeki
▁130
▁galib
▁sendromu
▁plaka
▁olmamak
▁bilmediğim
▁notlar
ES
▁Konuşmamı
▁kestirme
▁mekanı
▁ufuk
▁kırıklığı
▁eylemci
▁Black
▁hikâyeleri
▁vücudunuzda
▁söylerse
▁Mesaj
▁tabak
▁buluşu
▁hissettiğini
▁adlandırıyoru
▁tıkla
▁Suç
▁yapmadığı
▁kılmak
tansa
▁Kariyer
▁çöker
▁Liste
▁Denizi
▁duymaz
▁ansiklopedi
▁dayanışma
▁süresini
▁komplik
▁yolculukta
▁çocuktu
▁SP
▁izleyiciler
▁şifreleme
▁severdi
▁lifi
▁olurum
▁öneriyor
▁Nathan
▁tuzak
▁Dağ
▁Peru
▁taşıyabilir
▁dinledi
şte
▁görselleştirme
=
TI
▁ilkesi
▁bastı
▁Kamu
▁Ross
▁isteğim
▁gizlen
▁sözcükler
▁tanıyabil
▁istiyorlardı
▁ipi
▁öncelikli
‘
▁ağac
▁kişiliği
▁sadık
▁düşüncesini
▁sistemlerinde
▁yakınlaştır
▁tekrarlama
▁kitaplarını
▁baca
▁Beden
▁ilgilendiği
▁Nesne
▁yasaları
▁balıkçılık
▁besliyor
▁yağış
▁Roy
▁hektar
▁tohumları
▁soruyorlar
▁Sonuc
▁cansız
▁epi
▁anlaşmazlık
▁Kosova
▁bilgisini
▁palmiye
▁puzzle
▁kökenli
▁Plastik
▁insülin
▁ihtimalini
▁Neandertal
▁dikdörtgen
▁penguenleri
▁iyimserlik
▁diplomasi
▁Meydanı
▁kalmasını
▁geldiklerini
▁yükseldiği
▁kızar
▁vakası
▁sürdüğü
▁hayatlarımız
▁yürümeye
▁üretiliyor
▁Eğlence
▁eğlenme
▁kaplıyor
▁çağırdı
mayacağınız
▁düşünüyorsun
▁semt
▁korunmuş
çilik
▁harcamaları
▁Tıbb
▁geçiyordu
▁katkısı
▁atomları
▁arayış
▁bulmakta
▁günah
▁olamazdı
▁ulaşmaya
▁Arkadaşım
▁şeref
▁söylemeyi
▁sessizliği
alim
▁kac
▁ironik
▁itiraz
müzü
▁Fas
▁yaratılmış
▁terimi
▁yaklaştır
▁yaşadığını
▁attım
▁Blue
lendirilme
▁biliriz
▁kuruş
▁yaşındayım
▁fabrikalar
▁vermesini
▁satranç
▁söyleyebileceği
▁hiza
▁yükseklikte
▁kabloları
▁Uyum
▁geliştiriyoruz
▁nitelendir
▁tutulma
▁tasarımcısı
lacaksınız
▁Birçoğunuz
▁yapacaktı
▁sempati
25
▁sensörler
malıydım
▁koyabilir
▁öyküler
▁koşuyor
▁öldürür
lanmıyor
▁kesici
▁ağrısı
▁kocası
▁Gücü
▁bacaklarım
▁resifleri
▁Cur
▁Yüzyıl
▁ilgilenmiyor
lduğumuz
▁inceledim
▁öyleydi
▁arkadaşlarımla
▁zırh
▁Ash
▁değişecek
▁kuyruğu
▁Emin
▁kurtarmaya
▁geçebilir
▁kurbanı
▁maddelerin
▁kapatıyor
▁süzül
▁uğruna
laştırılmış
▁becerikli
▁çıkmasını
▁numarası
▁Resim
▁tanesinde
▁göremeyeceği
▁santim
▁bişey
▁salonunda
▁kullanılacak
▁hâlde
▁evlendi
▁Geniş
▁5000
▁floresan
▁soracağım
ddin
▁volkan
▁dağları
▁gelmektedir
▁Adalet
▁tehlikesi
▁zorluklarla
▁kıskan
▁büyüdüğüm
▁imkânsız
▁Sevgili
▁37
▁üretecek
▁faz
emiyorlar
▁vazgeçti
▁Okuma
▁DVD
▁ülkemizde
▁sıkıca
▁üstlen
▁üzüntü
▁şaşırta
▁140
▁düşürdü
▁büyüdüğünü
▁inanmıyor
▁stresli
▁erişilebilir
▁bebeğim
▁Söyley
▁göremiyor
▁batır
▁kalbinde
▁çökme
▁Algı
aygı
▁manası
▁kardeşimi
▁tükettiği
▁geçirmeye
▁kitaplarında
▁sinaps
▁Geleceğin
▁dileme
landırılmış
▁haklıydı
▁değişmez
▁takas
▁kaybolan
▁Andrew
▁Hükümeti
▁yayılır
▁hayalet
▁yemeye
▁yarayı
▁uydular
▁PC
▁sivri
▁kaldığım
fasında
▁başlayınca
▁mamut
▁bağdaştır
▁atmaya
▁boyutlarda
▁filminde
▁nakled
▁olmaktadır
▁olamayacağı
▁çalışanı
▁yapılabil
▁felçli
▁etkileş
▁pasta
▁anlamış
▁Çölü
utube
▁geliştirdiğimiz
▁yaratılış
▁Kütüphanesi
▁cehennem
▁melek
▁uzaklarda
▁alıkoya
▁Galap
agos
TM
▁38
▁ithal
▁kemoterapi
▁şeklimizi
▁geliştirildi
▁kimliğini
▁profil
▁karışmış
▁lav
▁asistan
▁zorluğu
▁çıt
▁kalabalığı
▁hırslı
▁Karar
▁barındıra
▁ekosistemin
▁oturmuş
opter
▁bodrum
▁Lübnan
▁karavan
▁Luc
▁düzenlemek
▁İsveçli
▁bla
▁Tazmanya
▁vat
▁stratejisi
▁Gerek
▁yararlanma
▁satma
▁kullanın
▁yıkan
▁etmeliyim
▁Eyalet
▁Nepal
▁aşılama
▁jet
▁sınıflandırma
▁cevapladı
▁çekiyordu
▁cocuk
▁edilmek
▁çözüyor
▁isminde
▁görüşünü
▁yaşayabil
▁kullanılmaya
▁Programı
▁grafikte
▁üstteki
▁Müthiş
▁büyüğü
▁gezegenleri
▁hacmi
▁çekildiği
▁söyleniyor
▁telefonunu
▁operatör
lerinizde
▁email
▁dolduru
▁FDA
▁vurgulama
▁erit
▁nöronların
▁şekillerini
▁Power
▁ihti
▁kaybettiğimiz
▁sistemimizde
▁alanındaki
▁çevirebilir
▁bambu
▁MRI
▁minnettarı
malıyım
▁hızında
▁ölçeğinde
▁edildiğinde
▁Gid
▁uğradı
▁onurlandır
▁Saf
▁ilahi
▁Liberya
▁koymuş
▁Kasım
▁odaklanıyor
▁çevril
▁belirliyor
▁kavanoz
▁bulduğunuz
▁fısılda
▁uyguladık
PA
▁tutabilir
▁delice
▁kemeri
▁kapatı
▁Tuhaf
▁karıştı
▁bedenini
▁problemimiz
▁kızılötesi
▁aşan
▁Dene
▁yarayacak
▁anlayamıyor
▁fedakarlık
abileceklerini
▁verimsiz
keley
▁muamele
▁kalbine
▁duyabiliyor
▁ömrünü
▁tüylü
▁Bakteriler
▁Komik
▁gerekliydi
▁ulaşabil
▁okulları
▁formunda
▁ilkeleri
▁bilgisayarınız
▁adlandırdığım
▁zeminin
▁kabuğu
leştirdi
▁boyuta
▁tablet
▁gitmesini
▁kumar
▁kapısını
▁dokunulma
▁herzaman
▁General
▁Tepe
hoo
▁havlu
▁vereceğini
▁imkanları
▁gelse
▁oyuncusu
▁samimiyet
▁dönüşümün
▁Aralarında
▁Wood
▁konuşacak
▁ördek
▁Annesi
▁Lama
▁aydınlık
▁Savunma
▁düzenledi
▁olasılıklar
▁etkilediğini
▁nüfuz
▁Mozart
▁Not
▁derinliği
▁duyduğumda
▁oğul
▁tavşan
▁Gazeteci
▁Spor
▁160
▁antikor
▁bulabilmek
▁yapılmamış
▁göreceli
▁arabanız
etho
▁kuşağı
▁Nairo
▁bulabiliyor
▁muhbir
▁Dokuz
▁vazgeçi
cret
▁patronu
▁Meme
▁açıklayan
ışını
▁Daniel
▁98
▁merhaba
▁Karo
▁girdiğiniz
▁yükseliş
▁mekân
▁hayranlık
▁zorlukların
▁karşınızda
▁edemezdi
ring
▁sepet
▁ihra
▁çıkarabilir
▁Beraber
eceğinizi
▁takımımız
▁Asker
▁ilerlet
▁uyuya
▁Jones
▁alacağız
▁Filistinli
▁ceset
▁Aranızda
pont
▁buharlaş
▁cüzdan
▁fincan
▁yaşanmış
▁açıları
zerine
▁bilmeme
▁olmadıklarını
▁yaramadı
▁bırakılma
▁algılayıcı
▁sarmal
▁vatan
lendirilmiş
▁kazanmış
▁yüce
▁hükümetleri
▁tarafını
▁ödüllendir
▁Sylvi
▁yaratığı
▁korunması
▁Hastalığı
▁şaşırdı
▁iri
▁nereler
▁nöbet
▁Hata
▁çoğunluğunu
▁Kopenhag
▁Bahsettiğim
▁kanalları
▁Had
▁şaşırma
▁Sürdürülebilir
▁düşü
▁emri
▁ilçe
▁Ceza
▁tanımladığı
▁Bert
▁düşünülüyor
▁metodu
war
▁tesisat
▁vücudumuzda
▁Arabistan
▁karikatürist
▁ömürlü
▁Şefkat
▁yanılsama
▁optimiz
▁kurak
▁tolerans
▁açlığı
▁sivrisinekleri
▁kuzu
▁konektom
▁çözülebil
işleri
▁sokaklar
mazsa
▁Anlam
▁tasarladığımız
▁gerilim
▁felcini
▁merkezlerinde
▁Düşündüm
cağınızı
▁volt
▁doğrultusun
▁mekanizmaları
▁etrafımızda
▁durgun
▁değişmedi
▁Belirl
▁Belediye
▁destekledi
▁sunar
maması
▁Gaz
▁harcanan
▁silikon
▁Boyle
▁okumuş
▁canlıların
▁ettiğimde
▁etmemizi
▁göründü
▁gideceğim
▁doğrult
▁açmaya
▁etraflarında
▁Evde
▁yüzüyor
▁kaka
▁gerçekleşecek
▁anlaşılıyor
▁sürdürüyor
▁Kalbi
▁başınıza
etmiş
▁kalabilme
▁Virüs
▁dönüşümü
▁fabrikada
▁etkilenen
▁54
▁bağışı
▁uyandı
▁kucaklama
▁tanıtma
▁keman
▁Çocuklarımız
▁Yazar
▁yakalıyor
▁sensörleri
▁arazide
Tech
▁ailesinde
▁defteri
▁kurs
▁sonuncusu
▁unutmuş
▁kesmek
▁sağlaması
▁Duru
▁kurtulan
luruz
▁donduru
▁şaşırttı
▁bilmiyorsunuz
▁aklımı
▁hatları
▁yetmez
▁programını
▁müşteriler
▁başarabilir
▁ışıld
▁kısımları
▁görevlendiril
▁donanımı
▁düzenliyor
▁kökleri
▁değiştirebil
▁heyecanlandıran
lock
▁Hmm
▁döküman
▁Bati
▁vah
▁durduk
RI
▁deyimi
▁Brit
spekt
▁göstermiş
▁politikasını
▁Çılgın
▁yönlendiren
▁üçüncüsü
16
ladığınız
▁kısımlarında
▁görebilmek
▁kötülük
▁hikâyesi
abileceğimi
▁sarılma
▁Free
artmaya
▁kalacağız
▁rock
▁kazancı
▁bahsedeyim
▁başarabiliriz
▁bariyer
▁aldat
▁telaş
▁biteni
▁cilt
▁yapabildikleri
▁topluluğunu
▁yönlerini
▁MT
▁maaşı
▁döviz
▁bakı
▁gönderdiği
▁Aşağıda
▁Hindu
▁şeklimiz
▁türümüzü
▁mikropları
bilirim
▁Johnny
▁kabileler
▁Çağı
▁cay
▁çıkıyordu
▁domuzu
▁Hareketi
▁iflas
▁Rub
▁mahallede
▁anlamanız
▁yeğeni
▁Leo
▁biyologlar
▁dağılma
▁yürütüyor
mily
▁çalıştıklarını
▁benzerlikler
▁Justin
▁hamburger
▁biyoteknoloji
▁kurucusu
▁katılmaya
▁kitaplarda
▁Sierra
▁okyanuslarda
▁olabileceğimiz
▁büyümesi
+
lacağız
▁Kep
▁ALS
▁tıbbın
▁kaydetmek
▁Vücut
uçlu
all
▁Meclis
▁dinledim
▁taşımacılığı
▁yükleme
▁piramidin
▁ölçebil
▁cogu
▁52
▁TS
▁İlişki
▁yanıtı
▁tutuluyor
▁izleyebil
▁hissediyordum
▁otonom
▁bilişim
▁Olağanüstü
▁çektiğimiz
▁bilimadamı
▁gelmekte
▁KA
▁reddetme
▁bahçesi
▁Sahil
▁tepkisi
▁gezegenlerde
▁karşılaşacağı
▁Line
▁yüzleşmek
▁bombası
▁1984
PT
▁Unutmayın
▁demekti
▁pes
▁Bitkiler
▁komplo
▁Canlı
▁Muhabir
▁adlandırılıyor
▁gitmeniz
▁mayın
▁kongre
▁kurmuş
▁ishal
▁Hiçbiri
▁yollarda
▁memurları
▁getirmemiz
▁yürür
▁450
▁Teori
▁pozisyonu
▁gözlemci
▁seleksiyon
▁Bisiklet
▁Gazze
▁iletken
▁tanıtım
▁Evan
▁zalim
▁davrandı
▁tırmanış
▁guc
▁dusunce
▁hazir
▁kullanması
▁çözülmesi
▁düzinelerce
▁kombinasyon
▁vücudumuz
▁önsezi
▁iletmek
▁Dans
▁alçakgönüllü
▁aradığım
▁düşecek
▁edebildiği
arry
▁çapı
▁pozisyonda
binlerce
ding
▁iddialı
▁duyuru
▁bırakıldı
▁düşünmemişti
▁açılıyor
▁söylerken
▁güvensiz
▁parmağını
▁profili
▁kırıcı
▁tereddüt
▁harman
▁akıt
▁Organizasyon
▁sezonu
▁büyüttü
▁olasılığını
▁yapımcısı
▁Çalışan
▁kulübü
▁Louis
▁aracını
▁ürettik
▁derste
▁akademisyen
▁zarf
▁geçeceğim
▁kalemi
▁seçimlerini
▁favorim
▁yazıldı
▁yapımcıları
▁yönetmeni
▁poz
▁birimleri
▁itiyor
▁rüzgarın
▁bacaklarını
▁öfkeli
▁muzdarip
▁dipte
▁tortu
▁larva
▁dalgalarını
▁tutunma
▁bırakacak
▁ilgilendi
layabilmek
▁dokuları
▁rehberlik
amazsın
TA
▁Takım
▁paylaşıyorlar
▁sitesinde
▁standard
▁aldığında
▁ülkemde
▁personeli
▁salonu
▁duyarsınız
▁hissediyorlar
▁aramızdaki
▁toplayıcı
▁getirilmiş
▁manevra
▁çalışırsa
▁parmaklarını
leyeceğim
▁tıpta
▁Kağıt
▁guzel
▁gorme
▁Bio
▁Bomba
▁teksti
▁cevre
ymuş
▁büyükbaba
▁sokaklarında
▁dişli
acaktım
▁yılımı
lenmemiş
▁heyecanlandı
leyebiliriz
▁söylemiyor
▁taşınıyor
▁lastik
▁dönüştüren
▁rastladı
▁dibin
▁topları
▁anlatımı
▁yapamadı
▁Ruh
▁kombinasyonu
▁propaganda
▁Sovyet
▁gidebiliyor
▁burnunu
▁serisi
▁işlemleri
▁uzaklaştı
▁gribi
▁kaydediyor
▁rekabetçi
▁Etrafta
▁gösterilmiş
▁tecrübeleri
▁açımız
▁46
▁birkaçını
▁ihracat
▁toparlama
▁Yuva
▁ayrıldık
▁sunan
▁çakış
▁akar
▁düşmüştü
▁Mimari
▁açılardan
▁Carne
▁reçine
▁hortum
▁bahsediyordu
▁Elimizdeki
▁vücudum
▁Görüş
▁vuruyor
▁bağımsızlık
▁koşucu
▁arttığını
▁Çocuklarım
▁dalları
anj
▁yerimiz
▁Santa
▁yukarıdaki
▁rasyonel
▁yaratılması
▁aklımızda
CA
▁Yoksul
▁Cerrah
▁İstediğim
▁tuval
▁ofiste
▁toplumunu
▁sertifika
▁Kha
▁dopamin
▁hologra
▁izleyerek
▁mikroskobu
▁kalkan
▁gözükür
▁kalınlığında
▁öyküsü
▁tedavisinde
▁eşleş
▁skor
▁aydın
▁hisseden
▁evrimleşti
▁uçta
▁Şang
▁kemer
▁çözünürlüklü
▁görevimiz
▁dinlerken
▁pişman
▁prova
▁kararını
▁fikriniz
▁unutuyor
aylarca
▁evdeki
▁sorumluluğunu
▁siteleri
▁alışma
▁dağılım
▁Doug
dison
▁krater
▁havacılık
▁balinaların
▁vermemiz
▁bozulmuş
▁dayanıklılık
▁piramit
▁kalkar
▁başlandı
hio
▁sünger
▁mola
▁bildiğini
▁Ayrı
▁canavarı
▁uygarlığı
▁Philadelphia
▁çoban
▁spektrum
▁anlamıyor
▁Papa
▁simül
▁ekranı
▁Sevgi
▁parçacığı
▁formlar
▁slaytta
▁hazırlanmış
▁üretebiliyor
▁iletme
▁Second
▁hammadde
AA
▁Chuck
▁Gezgin
▁teröristler
▁eyaletinde
▁kazandırdı
▁kasabada
▁genişliyor
▁cazi
▁banliyö
▁kullandıklarını
▁memuru
▁mutfakta
▁galon
▁öğreten
▁tasarlanma
▁gideceğini
▁açılmış
▁aşaması
▁çakıl
▁simülasyonu
▁Toplam
▁tasavvur
▁parlama
▁çıkartıyor
▁olamayacak
▁niteliği
▁sorumlulukları
▁etkilendiği
▁Opera
▁Akşam
▁keyfi
▁teknisyen
▁Gul
kac
▁süs
▁besinleri
▁kurduğum
▁yaslan
▁yaptırmak
▁salınımı
▁vuran
▁algısı
▁kullanmamız
abilmemiz
▁Bosna
▁belirledik
▁iade
▁Gizli
▁Sorunu
▁duymuştu
▁peş
▁Cumhuriyeti
▁bilmeli
▁zorlandı
▁bırakmaya
▁yorumu
▁habersiz
▁South
▁çalışıyorlardı
▁İşletme
▁olmadığımı
▁norm
▁getirmişti
▁ayaklı
▁fırlatma
▁edecekti
▁bekleyin
▁fera
▁Tarihi
▁Gazete
▁görmemiz
▁insancıl
▁üniforma
▁muhalif
▁sözcüğü
▁aşikar
▁yeryüzü
▁kimyager
▁ısıtma
▁şişman
▁kireç
▁onarma
▁Jud
▁ateşli
▁atışı
▁yengeç
▁düzenledik
▁Öğle
▁yanlız
▁Walter
▁azaltıyor
▁Mantar
▁Laboratuvar
▁Umuyoru
▁vücudunda
▁kasıtlı
▁karşılaştırırsa
▁kurcala
bilecegi
▁kotu
▁asil
▁endişelendi
▁geometrik
▁anormal
▁Trans
▁kazara
iger
melisin
▁Gökyüzü
▁Sıkı
▁Anlama
ünüzdür
▁kırmak
▁çıkınca
▁severler
▁kültürümüz
▁Sahne
▁farkettiği
▁davranır
▁verirdi
▁dizilim
▁genişleye
▁ortamlarda
▁gelişir
▁Sovyetler
▁yıkma
▁Çatı
▁varyasyon
▁üretebil
▁önünüzde
▁reklamı
igan
▁Anna
▁bağırsak
leştirebilir
▁kötüydü
▁alındığında
ray
▁evinizde
▁durumdaydı
▁ayrıldım
▁belirtti
▁toplantısı
▁ihtimaliniz
▁topladım
▁yöneticiler
▁istendi
▁Çözüm
▁ironi
▁düşünülme
▁dikkatimizi
▁köyü
▁isteseydi
▁baskısı
▁malum
▁bulacağım
▁Genetik
▁kontrollü
▁Nazi
▁Las
▁katmak
▁nörobilim
▁kromozomu
EG
▁alabileceğiniz
▁karakteristik
▁kanadı
▁gördüklerimiz
▁popülasyonu
▁seyretme
▁özetley
▁Jil
▁kariyerimi
▁hayırsever
▁araştırmacıları
▁hissedebiliyor
▁Balon
▁yoludur
▁Mad
▁Dick
eau
▁yapılandırma
▁kısaltma
▁zekası
abileceğinizi
▁ağırlığını
▁yazılan
▁nakliye
▁aldığınızda
▁fraktal
▁bahane
▁pusula
yapılabileceğini
▁izlerini
▁sergiledi
▁dudak
▁Christoph
▁doğura
ilmek
▁yaklaştık
▁santrali
▁tembel
▁analog
▁salondaki
▁hoşnut
▁deneyimleye
▁Kansa
▁besleniyor
▁güreş
▁kâğıt
BE
▁döngüsünü
▁Terör
lenmesini
▁kavramları
▁imal
sari
▁portakal
▁ulaşabiliyor
▁astronom
▁tabağı
nlısı
▁Büyüme
▁vereceği
▁yusufçuk
▁çözümleme
▁dolduruyor
▁giderdi
▁esir
▁deneyimlerimiz
▁Namibya
▁örgütü
▁başarısını
▁kupa
▁tahminim
▁değiştireceği
▁doğuyor
▁menzil
▁severiz
▁önümde
▁Venedik
▁ilgisiz
▁zincirinde
▁gidebilme
ecegim
▁tanıyan
▁sokağın
▁bekleniyor
▁uydusu
▁fışkır
▁havza
▁1975
▁yatırımı
▁Kuantum
▁Super
▁yaratacağı
▁Mari
▁adanmış
▁yardim
▁konusma
▁calisiyor
▁İletişim
▁Ağır
▁berrak
▁nöronu
▁mutfağı
rebilmek
▁oluşturulan
▁takıl
▁kapama
ttikleri
▁çalışacağı
▁ürettikleri
leştirecek
▁kalacağı
▁fakülte
▁ışıkta
▁vajina
▁koşmak
▁Seyahat
▁çerçevesinde
▁iktidar
▁yetimhane
▁zannet
▁yalvar
▁bekar
▁yaratılan
▁kolej
▁mücevher
▁giydi
▁avukatı
▁kardeşlerim
▁danışmanlı
▁kalmamıştı
▁Kanadalı
▁elçi
▁ilişkilendiril
▁değişmişti
▁sez
▁almasını
▁gezgin
▁Rahat
▁Risk
▁niteliğinde
▁koltukları
▁zorlayıcı
leyebilme
AC
▁çözünürlükte
uazzam
▁kesiminde
▁gerçi
▁yürüyordu
▁kahramanları
▁Askerler
▁kliniğ
▁yetisi
▁toplumumuzda
liğimi
▁doy
▁başlarken
▁fonu
▁yayıyor
▁söndü
▁gaziler
▁rehabilitasyon
▁geçirmez
▁akustik
▁satar
table
▁Engelli
▁uzuv
ernik
▁kollektif
▁ilgilendiğimiz
▁ulas
▁sonuçlandı
▁minyatür
▁Jean
▁bürokrat
▁geleceğimizi
▁Güçlü
▁masal
▁evrimleş
▁Vinc
▁konuşabilir
▁kandırma
▁ruhani
▁menü
▁diliminde
▁sorunlu
▁politikacıların
▁getirmekte
▁başladığınızda
▁müzikal
▁senfoni
▁titiz
▁tezi
▁başkenti
▁edilmeye
▁bellek
▁götürdüğü
▁sanatçısı
▁kitabımı
▁notları
▁hakimiyet
▁Bulut
▁çölü
▁içeriğini
▁savaşıyor
▁genomunu
▁dönemlerde
▁ölçülebilir
▁nitelikte
▁Basın
▁özgürlüğünü
▁başlarsa
▁kıldı
▁Kenne
▁dokunuyor
▁sigortası
▁koordinasyon
▁Kutu
▁artırmak
▁uygulanan
▁çemberi
▁Kabul
▁paragraf
▁İçinizde
▁zedele
▁yağma
▁Himalaya
▁misyonu
▁Bruc
▁seçici
▁Mantık
▁River
▁Home
▁rap
▁geçtiğinde
▁damarı
layabileceğimiz
▁görmediğimiz
▁büyütmek
▁güneyinde
▁Siber
▁deniyoruz
▁ekleyerek
▁idrar
▁yaptıklarımız
▁yükledi
▁Düşünme
▁1500
▁yayını
▁Kabil
▁bilimadamları
▁popülasyon
▁gözetleme
▁ölçüyor
▁üçünü
▁besleyen
▁ihanet
▁canını
▁NA
▁alamadı
▁istemiş
▁girdiği
▁bulmuştu
▁bilgilendirme
▁söylediklerini
▁yansıması
▁Nisan
aliba
▁yapabilen
▁forum
▁teşebbüs
▁Gemi
▁güve
▁yükselmesi
▁korkarı
▁yetmiş
▁düşündüğünüzü
▁kanıtladı
▁gezme
▁Tüketici
▁yağlı
▁Oklahoma
▁ortaklaşa
▁kumu
▁katılır
▁Nükleer
▁ikizleri
▁Joseph
▁yürütül
▁Yatırım
MM
▁düşürmek
▁öğrendiğiniz
▁kopyasını
▁link
▁cahil
▁kodunu
▁yüzgeçli
▁gama
▁muhasebe
▁Cennet
▁bataklık
biliriz
▁otistik
▁Alpha
▁soz
▁Talk
▁Bonobo
▁güvenliğini
▁oturduğunuz
▁Özgür
▁değişikliğini
▁Şaka
▁kurtarıyor
▁sürat
▁kastettiğim
▁gelistir
▁İnsanoğlu
▁yapılmasını
▁göstermiyor
▁Araç
▁renklerde
▁yapamayacak
▁duygularını
▁kullanabilirim
▁kışın
▁anestezi
▁orantılı
▁86
▁harcadığımız
▁beslenen
▁sindir
▁özünü
▁hücum
▁çalışkan
▁kullandığını
▁çarpıyor
▁Katolik
▁yakalayı
▁gözyaşları
ilemez
▁beyninizde
▁yoksullukta
▁Özgürlük
▁bulunduru
▁tasarladığı
▁satılıyor
▁ingilizce
▁Kalan
▁kollarını
▁mesajını
▁benimseme
▁Çağ
▁Geleceğ
▁çalışmasında
▁üyelerini
▁belirten
▁ayağını
▁vücudunuzun
▁dağılımını
AP
▁yarışması
▁koşan
▁birçoğumuz
▁istemeyen
▁kürtaj
▁atılım
▁ekleyebilir
▁alanımız
▁final
▁stadyum
▁söyleşi
▁kesiyor
▁Kesin
▁Yetişkin
▁üre
▁boğa
▁anlatılan
▁görüntünü
▁yapabilirsin
▁Söylemek
▁pre
▁planlaması
▁dokuma
▁kanatlı
▁kışkırt
▁gençliği
▁yapıştırıcı
▁tarımsal
▁kalıbı
▁matris
▁bileşimi
▁körfez
▁indirdi
▁görünüm
▁geliştirmiş
▁Lev
▁fiyatını
▁Android
▁yanlarında
▁saydam
▁deneyeceğim
▁bardağı
▁topladı
▁bulunu
▁resimdeki
▁Wor
▁öğrenin
▁kaybolur
▁seviyelerde
▁Çöp
▁çözülme
▁köklü
▁eğitiyor
▁Siyahi
▁Kusur
▁Kent
▁Gay
▁savcı
lsaydı
▁ödevi
▁tozu
▁dizilimi
▁laboratuvarımda
▁işbirlikçi
▁zihnimde
▁Laur
▁eBay
▁ayarlay
amadığımız
▁döktü
▁arttığı
▁kısır
▁Fried
raham
▁çocuklarımı
ğünde
▁kaydettiği
▁Öğretmenler
bilmenizi
▁sormuş
kullanılabilecek
▁Domuz
▁indirim
▁yaratmış
▁kurtaran
▁değişebilir
▁öğretebilir
▁tüyleri
▁hissediyoruz
▁karlı
▁günümüzdeki
▁Uygulama
▁Katı
▁İnsanın
▁bozuklukları
▁bedel
▁bakmakta
▁pankreas
▁mecaz
▁hasarı
▁telafi
▁tutsak
▁eroin
▁sunacağım
▁agresif
▁imparatorluk
▁barınak
▁hazırlanıyor
▁testere
▁övgü
▁izlediğimiz
▁sorumlusu
▁kolera
▁şahsi
edeyim
▁Tehlike
▁istikrar
▁gözüktüğü
▁vermeyeceği
▁Endüstri
▁doğasında
▁tahliye
▁tost
▁Kaynak
▁düştüğü
▁olaydı
▁algoritmaları
▁hizmetlerinde
▁tüberküloz
▁oluşturduğunu
▁gitse
▁yönlendiriyor
▁uyur
▁Ailesi
▁doksan
▁videosunu
▁denizlerde
▁Beatb
▁kapsıyor
▁ormanlarda
▁buzulların
▁asma
▁açığı
▁çeliş
▁sprey
▁girebilir
▁ulaşabileceği
▁Scho
▁uyarıcı
OS
▁fikrinden
▁alaycı
▁Kanyon
▁keşfedilmemiş
▁Atmosfer
▁Beck
▁parkta
▁tasma
▁halletme
▁gerçeklikte
▁Öğrendiğim
▁Jenni
▁yapımında
▁Araştırmacılar
▁ikilemi
▁üreticileri
▁Örümcek
▁üretebilir
▁gelmemiz
▁duyurdu
▁yöneltti
gg
▁diski
town
▁mensup
▁AV
▁kuruluşu
▁matematikte
▁ağacının
▁senesinde
▁sorduğumuz
▁leopar
▁silindir
▁cips
▁gururlu
▁ateist
▁çiftçilerin
▁iPad
▁sabun
▁petr
▁miselyum
▁idrak
▁büyüyü
▁soran
▁yüzbinlerce
▁saklıyor
▁yayılmasını
lattı
▁silme
▁Wil
▁lambaları
▁yaklaşımımız
▁yansıtıyor
▁boğaz
▁kesintisi
▁ötede
▁çıkarttı
acagim
▁Lagos
▁kullanabil
▁kuzeyinde
▁maymunların
▁içerme
▁olmadığımızı
▁hatırlatma
▁atalarımızı
▁Madde
▁öneriyorum
leşecek
▁Akademisi
▁mercek
▁Samanyolu
▁ışığını
▁Hubb
▁Lord
▁kurduğu
▁okuyacağım
▁Koru
▁çağırıyor
▁atıl
▁sevdiğini
▁yüzyıllardır
▁okuyabil
▁müziğ
▁inanış
▁içgörü
▁geçit
evel
▁yetme
emediğimiz
▁periyod
▁koordine
▁ziyaretçi
▁özerk
▁aracımız
▁öldürdüğü
▁hobi
▁laboratuvarımız
▁Özür
▁vasıf
▁anlaşılabilir
▁gelebil
▁örtüsünü
▁artışını
▁Kış
▁alınır
▁kalıyordu
▁Swa
▁ayrıcalıklı
▁hijyeni
▁tercüman
▁ıssız
▁çivi
▁genişledi
▁artırıyor
▁adres
▁intikam
▁kesişim
▁ilintili
GE
▁diyorlardı
▁operasyonu
▁etkilenme
▁Gördüğümüz
▁başvurma
▁yaratabilme
▁objeyi
▁mantarı
▁inandığımız
▁apaçık
▁denizanası
▁ihtiyacını
▁uzaklığı
▁uzerin
rack
▁yakin
▁sokuyor
▁yükselir
▁görürse
▁hatırlayacak
▁kazası
▁eşliğinde
▁ödediği
▁kaydını
▁zorundasın
▁değiştirdiğini
▁bağımlısı
▁hâlinde
▁kullanabilecek
▁kusurlu
▁başladıklarında
▁Girişimci
▁cezalandırıl
▁şöhret
▁bilgelik
▁Çiçek
▁olmayışı
▁abartılı
teknoloji
▁kullanırsa
▁çeşitliliğ
▁bulunmuş
▁toplumumuz
▁özdeşleş
▁çizimleri
▁Günümüz
▁tanıklı
▁casus
▁olmalısın
▁oluşumunu
▁reseptör
▁yakınlarında
▁elmas
ilebilecek
▁süslü
▁bunalım
▁proses
▁düğün
▁kapandı
▁sanıyordu
▁ekibimiz
▁Parmak
▁State
▁konsantrasyon
▁Toprak
▁Bağlantı
▁başbaşa
▁Grup
▁omzu
▁ölmüştü
▁beyan
▁alınıyor
▁tekrarladı
▁etiketleme
▁imkânı
▁çıkarmayı
▁arsa
▁taktik
SC
▁bakabilme
▁geliştiğin
▁Bilmiyor
▁kargaşa
▁evrak
▁hayvanat
▁toplanıyor
▁evrildi
▁yemeyi
▁ustalık
leştiğini
▁bitireceğim
▁girdiğinde
▁tarifi
▁Teknik
▁yükseğ
▁karşılaştırın
▁Sahara
lamaktır
▁konuşama
▁patoloji
▁kaplayan
▁dergisini
▁verilecek
▁bilimcisi
▁kazanım
▁Dub
▁Kraliçe
▁Gülmeler
▁atılıyor
▁Çeşitli
▁manipül
▁Federal
▁kaynağını
ekliyoruz
▁işlemini
▁tabanda
▁attığımız
▁kafanızda
▁Anlatıcı
▁anlatıyordu
▁Scien
▁vakum
▁farkediyor
▁Jüpiter
▁satmaya
▁maraton
▁Pantheon
▁Varsay
amamıştı
▁çaldığı
▁cerrahı
▁görünümü
▁pano
TO
▁öznel
▁büyümekte
▁trol
▁Patent
▁kokuyor
▁High
▁jest
▁takıldı
▁lambası
▁ertele
▁Dürüst
▁yavrusu
▁krem
▁cemaat
▁özgürleştir
▁sürdürdü
▁Mig
▁Avusturalya
▁yaratıldı
▁trenin
▁döndürebilir
iribati
NG
▁baktığında
▁tüpü
▁Ushahidi
▁cibinlik
▁Tiyatro
ISA
▁gebe
▁hop
▁yanımızda
▁köylerde
▁biçiminde
▁Saha
▁Cadde
▁araştırı
uare
▁tedirgin
▁emme
▁bankası
▁öldüğünde
klasik
▁dusunuyor
▁arasinda
▁gecir
▁cesit
▁komite
▁hersey
▁Alkislar
▁nitrojen
▁orangutan
▁mütevazi
▁elektromanyetik
▁Molekül
▁patladı
▁düşürme
▁geliştirecek
▁alacağınız
▁seçildi
▁teleskobu
▁feci
▁saklanma
▁Galaksi
▁duyardı
▁cıvı
▁dedektör
▁Korkunç
▁hapishanede
App
▁saçlı
lendiğinde
▁odaklanır
▁birarada
▁lezbiyen
▁etkileniyor
▁çekiliyor
▁Düşündü
▁tutulur
▁bulabileceğiniz
▁uçurtma
▁kırma
▁görebildiğiniz
▁Kupa
▁eşleşme
▁erkeği
▁cezalandırma
▁filmlerde
▁değme
▁yaşantım
field
▁kaş
▁eşleştirme
▁yazıyorum
▁öldürülme
▁çalışmıştı
▁yetişkinlerin
▁ezme
▁alabileceği
▁tapınak
ihin
▁porno
▁kazanacağı
▁gür
▁savaşmaya
▁verebilirsiniz
▁veriyorsunuz
▁düzenlenmiş
▁yürüdüğü
▁açmış
▁Shakespear
▁bırakacağım
▁söylediğinde
▁telefonunuzu
▁çantası
▁Dağları
▁dinledik
hendis
▁doldu
▁evlerde
▁websitesi
▁Rüya
▁Beynimiz
▁kültürümüzü
▁görmemiş
▁Hizmet
▁enfeksiyonu
▁Daire
▁üstünü
▁derinliklerinde
▁Bölüm
▁Dike
▁görünmeye
▁izley
▁sözcükleri
▁menfaat
▁romanı
▁Babası
▁çekmiş
▁Macar
▁dilimiz
▁uyuşmaz
▁ayakkabısı
▁Babamı
▁satılan
▁virüsünü
▁çorap
▁faydalanma
▁Pittsburgh
▁yoğunlaşma
▁dönemlerinde
▁düşkün
▁yüksekliğinde
▁metni
▁tıklama
▁gösterimi
▁Finansal
▁Sorumlu
▁psikiyatri
▁yönlendiril
▁Eylem
▁yapılmalı
▁takibi
▁ifşa
▁kanama
▁aşçı
▁minnettar
▁Gine
▁tesadüfen
▁panelleri
▁vurduğu
▁ceket
▁fırsatımız
▁ettirir
▁Suriyeli
▁üzeriniz
▁Hawkin
▁anlayabileceği
derlerdi
▁kralı
▁entelektüel
▁dib
iath
▁tehdidi
amamış
▁gözlerimizi
▁katedral
▁şarabı
▁kaset
▁Cezayir
▁çocuklarınızı
▁Simon
▁56
aşırı
▁Anlaşma
▁suistimal
▁İşçi
▁etrafını
▁galaksilerin
▁58
ussani
tnik
▁edersin
▁yumruk
▁verdiğinde
▁duygularımızı
▁eldiven
▁anlayabilme
▁ödenek
▁dengesini
▁torunlarımız
▁cihazın
▁farkındalığı
▁titreme
▁iter
▁vida
▁Mumbai
▁resmed
▁kızartma
▁görmenizi
▁boylu
▁ineği
▁ormanlarında
▁yeryüzündeki
▁yaprağı
▁Allen
▁kapitalist
▁İçine
▁mimarı
▁alamaz
▁çalışıyorsunuz
▁Jonat
▁yapmalıyı
▁saman
▁şahıs
▁dosyası
▁mahsu
▁Başarısız
▁ortalarında
▁üretebilme
▁Jeffer
▁denklemin
▁Acc
▁Ameliyat
▁arayarak
▁seçilme
▁seans
▁unsuru
▁Warr
▁tutkusu
▁gerektirme
▁istemey
▁hissettirme
▁dönüştüğü
▁tabanında
▁ulaşacağı
▁edebiliyorsunuz
▁kasvet
▁Çiftçi
▁egzotik
▁Global
▁bulabilirse
▁eşiğin
▁alacağı
▁kavrayış
▁dalgıç
▁Jac
▁Musevi
▁spektrumu
▁185
▁derecelendirme
▁içerdiği
▁yapılmıştır
▁devral
▁ultra
▁avlama
▁fırlatı
▁guru
▁Yatak
▁şempanzelerin
▁büyütme
▁seferber
onica
▁guven
▁yolsuzluğ
Gowan
▁terbiye
▁soyutlama
▁gözlükleri
▁pref
▁erozyon
▁gerilla
▁öğün
RNA
▁Merhamet
▁dalında
▁öğreneceği
▁çalıştırıyor
▁elemanı
▁yöre
▁öngörüyor
▁Heyecan
▁yaklaştı
▁uzunlukta
▁4000
▁oluşmasını
▁tabela
▁keyifli
▁bank
▁onaylama
▁istasyon
▁yaşandığı
▁yönelme
▁olamayacağını
▁geziyor
▁yaptim
▁çıkagel
▁hesapladı
▁korteksin
▁pratikte
Point
▁farzed
▁teşkilatı
oksit
▁Toyota
▁korusun
ettiğimiz
▁Amacımız
▁takıntı
▁hoşlandığı
▁dönebilir
▁indirgen
▁yaradılış
▁Budist
▁önemsediği
▁soruşturma
▁korur
▁sığınma
▁adadı
▁Gittiği
▁toplanan
▁verilmişti
▁kalkıyor
▁seçilen
▁tanımladığımız
▁Japonca
▁özgüven
▁beklemiyordu
▁sallama
▁planlanmış
▁fikirlerimizi
▁görkeml
▁unutulma
▁layık
▁Kedi
▁ebedi
▁işletmelerin
▁Kod
▁isimlendiril
▁görünmesi
▁objektif
▁Mercan
▁değiştirmiş
▁broşür
▁görse
▁gülünç
▁medika
▁görüyorsun
▁post
▁tekno
▁hapı
▁Pardon
abilmeleri
▁tanıttı
▁çoğalma
▁puanı
▁esnekliği
▁ahşap
▁polimer
▁şaşırmıştı
▁beğendi
▁plastiği
▁kertenkele
▁yargıç
▁Kör
ümkün
▁hamam
▁seçtiğimiz
▁güvenir
▁görmemizi
▁vaktimiz
▁başarısızlığı
▁çekmişti
▁atlatma
▁hareketlilik
▁sonlandırma
▁eylemin
▁çılgınlık
▁öğretilen
▁Shar
▁makro
▁eklerse
▁okuyabilirsiniz
▁emlak
▁ihtilaf
▁genomik
▁değiştirmeliyiz
▁üstlenme
▁kıtlık
▁sifon
▁umursamıyor
▁dinlenme
▁tanıtıl
▁Başarılı
▁mahal
▁mermi
dıysanız
▁çiçeğin
▁müşterek
▁biçimimiz
▁kamuoyu
▁arkadaşınız
▁sormamız
▁finansman
▁seyrediyor
▁felsefi
▁Türk
▁sağladığımız
▁kaybedecek
▁davranan
▁evlerin
▁bağırma
▁bitişik
▁anlamıştı
▁Sunucu
▁başlatan
▁evrimleşmiş
▁aklımızı
▁karısını
▁doğurdu
▁zorlanıyor
▁çile
▁karıştırıyor
▁Bangal
▁akıcı
▁yayıncı
▁Resimde
▁ulaştığımız
▁okulumuz
▁bayıldı
▁benliğim
▁bilinmez
▁grafiğ
▁ikilem
▁kaydedilmiş
▁eyalette
▁Irk
▁Bırak
▁laboratuvarında
▁konuşmasında
▁birimler
▁tahtası
▁kısalt
recektir
▁nanometre
▁terapist
▁koruması
▁sitemiz
▁Yılın
▁Norman
▁Mobil
▁matbaa
▁İskandinav
▁Denn
▁sayfasında
▁karıştırıcı
▁genlerimiz
üneydoğu
▁sıkıntısı
▁bürün
▁Elinizde
▁çekebilir
▁rekoru
▁aralığında
▁tutarsız
▁geldiğinizde
▁sınırını
▁ayırır
▁müsaade
▁sığdır
patch
▁peşine
▁kurabiye
wand
▁Uyuşturucu
▁kafatasını
▁dodo
▁dağıtılmış
▁mekanizmasını
▁örümceği
▁Sif
NC
▁Cher
▁sineğin
▁fetüs
▁Hikâye
iflu
▁şekillendirir
▁varolduğu
▁Dost
▁Bahar
▁itaat
bilmeliyiz
▁azaldığını
▁yetişme
▁Bağış
▁tanımını
▁bilemezsiniz
▁gözükmüyor
▁anladığınız
▁düzenleyici
▁kullanacağımız
▁uzaklaşmak
▁beklediğimiz
▁Jersey
▁doldurur
▁fonksiyonel
89
▁Günlü
▁piş
▁barsak
▁soğutu
▁kapağını
▁CIA
▁başvur
▁arıza
▁düşüncelerimizi
▁kılacak
▁kapıldı
▁yayınlanmış
▁etkilenmişti
▁şelale
▁benzeyecek
leşerek
▁çevremizde
▁yaşanabilir
▁getirebil
▁atılma
▁sıyrıl
▁kapsamında
▁kutuplaşma
▁yaratabileceği
▁Movem
▁destekleyecek
▁bıyık
▁ödüllendirme
leştikleri
▁Aust
ükran
▁döndüğü
▁gözüküyordu
▁karışıklığı
▁ebeveynlik
▁melez
▁oralar
▁yolluyor
▁Uzman
▁farkedi
▁korkmuyor
▁inatçı
▁kus
▁alaka
▁sıva
▁turizm
▁yaşayabileceği
▁saptama
▁süreçleri
SE
▁tamamlanmış
▁kurtarıcı
▁düşünebiliyor
▁Kitle
▁Kredi
▁kubbe
▁odağı
▁farkındayız
▁direği
▁çığır
▁yücelt
▁ihtişam
▁tutuyordu
▁Russel
▁360
▁degistir
▁inanilmaz
▁deposu
▁ergenlik
▁körlük
▁migren
▁dönüşümlü
▁talihsiz
▁çöplük
▁vermeyecek
▁stratosfer
▁varsayılan
▁tanıdığınız
▁gelmeyecek
▁değinmek
▁sağlanması
▁karanlığ
▁üzerlerinde
▁sonucunu
▁satıldı
▁Ağzı
▁Jeo
▁unuttuğu
▁gerçekleştiğini
▁Bono
▁Ceb
▁hantal
landıran
polis
▁Keşfe
▁gönderilen
lektronik
▁dairesel
▁Hit
▁kurabilir
▁taşınması
▁yöneliyor
▁kalkın
▁ümitsiz
▁yapıldığında
▁Stewar
▁görülmüş
▁Gıda
▁haritalandır
▁yaşayabilecek
▁çıkmakta
▁uygunsuz
▁Kulak
▁bekliyorum
▁sözlüğü
▁Bahçesi
▁kıymetli
mayacağımızı
▁nektar
▁vicdan
▁kutusunu
▁yönlendirir
▁Beşinci
▁değdi
▁sağladığını
▁Finlandiya
▁varolma
▁anlaşılan
▁Kavga
▁kampta
▁santigrat
▁ucunu
▁Angel
▁Anayasa
▁yönettiği
▁kartpostal
▁entegrasyon
▁68
▁özgeçmiş
▁tanınma
▁dikiş
▁nişan
▁hakkınızda
▁helyum
▁aralığı
▁glikoz
▁keşfe
▁içersinde
▁girdiğimiz
▁Mach
▁paylaşıyoruz
▁patlak
▁bombacı
▁terked
▁Yaşlanma
▁tıbb
▁vitamin
▁klibi
▁doğduğunda
▁ergen
ikago
▁Biliyorsun
▁kıç
▁hazırlanma
▁general
▁Giriş
▁gitsin
▁emre
▁departmanı
▁adlandırdığı
▁konsantr
▁feromon
▁tırmanıyor
▁Roger
▁Cidde
▁vizörü
▁yurttaş
▁Eşit
▁girmişti
▁gerginlik
▁prens
uzeybatı
▁sağlığ
▁Dinozor
▁Yönetim
▁yüzeysel
▁görebileceğimiz
▁getirilmesi
▁etkilediği
▁sürüsü
▁kıkırdak
▁demiryolu
▁toplanmış
▁Sayfa
▁bozonu
▁sıfat
▁yaklaşan
▁kaybet
▁Dalla
FL
▁önerdiği
▁yıkılma
▁dizilimini
▁sülfür
SM
▁zenci
▁formlarını
▁cehalet
▁Margaret
▁derinlikte
▁Baltimor
▁Andy
ambiya
▁FO
▁Arktik
▁ogrenci
▁Yirmi
ardo
programlanabilir
▁maymunun
_
abilse
▁cevaplamak
▁elastik
▁haritaları
▁üretkenlik
okrasi
▁ozon
▁Montana
▁Katar
▁plasebo
▁JC
▁mammografi
▁Şempanze
▁süperiletken
▁İnd
▁kobra
▁kaybed
▁Haklı
▁desteklene
▁slogan
▁İlerleme
▁Elleriniz
▁sonlandır
▁belirtiyor
▁uygula
▁otoban
▁sandığımız
▁mikrofonu
▁gözlemliyor
60
▁tanımlanmış
▁yeryüzünü
▁Grand
▁oluşturuldu
▁Europa
▁görünüml
▁dolanan
▁Yoğun
▁benzemeye
▁Satürn
▁stand
▁yığıl
▁geribildirim
▁1986
▁calis
▁tetkik
▁yapiyor
▁cocuklari
▁sira
▁uygulanma
▁bilmedikleri
▁hesaplayabilir
▁besleyebil
▁sürtünme
▁sağlanan
▁bayılıyor
derhal
▁takılmış
▁Özetle
▁hayalgücü
▁görüşümüz
▁bucaksız
fizik
▁göreceğimiz
▁meditasyon
▁sürgün
▁Williams
▁veremez
▁seviş
▁Arazi
▁küçülüyor
▁alçal
▁açılması
▁güvensizlik
▁Sebebi
▁savunucu
▁gerektirdiği
▁sömürgeci
▁kutlay
▁istikrarlı
▁söylendiği
▁İşbirliği
▁Mutluluk
▁depresif
▁düşünebil
▁metot
ME
▁ettiriyor
▁Ayağ
▁DARPA
▁Gördüğüm
▁yatağ
▁şaşırtma
▁arzusu
▁şovu
▁Çöz
▁izlemiş
▁Kutsal
▁yüzyüze
▁performansını
▁telaffuz
▁uğruyor
▁Jenn
▁sureti
▁Karayipler
▁Nite
▁Filipinler
▁vakıf
▁edemeyecek
▁KB
▁Organiz
▁deniliyor
▁avuc
▁nanoteknoloji
▁etmeyecek
▁klima
▁korkmuştu
▁talih
▁İstasyonu
▁toksin
▁yarattığını
▁getirdiğimiz
▁kliniğin
▁yazabilir
▁McDonald
▁davrandığı
▁duracak
▁Finans
▁yıktı
▁renklendir
ıska
▁izleyeceği
▁kutusunda
▁keşfedilme
▁Oyuncak
▁Karım
▁hazine
▁yanıyor
▁temsilcileri
▁zirvesinde
▁dram
▁Dalga
▁besteci
▁zulüm
▁kaybedil
▁kokteyl
▁hazırlıklı
▁devamlılığı
▁Aklın
▁klas
▁Kanal
▁geziniyor
▁dedikodu
▁taşra
▁Carol
▁reng
▁Alab
▁üretebiliriz
▁çekişme
▁kurulması
▁görebiliyordu
▁belirlediği
▁Antartik
▁usul
▁ultrason
▁çizdiği
▁öldürecek
▁komşusu
▁çiçeğ
▁vücudumu
▁yerleşik
▁yaptırım
▁yanılıyor
▁isteksiz
▁Pink
▁tablonu
▁Rönesans
▁uzanır
▁şaşkınlık
▁yapımcı
▁ayarlanmış
▁koyduğunuz
▁itfaiyeci
▁dolabı
▁zıttı
▁değnek
▁Kaplan
▁tesir
▁arkeoloji
▁Teleskop
▁taşınır
▁karşıladı
▁yanardağ
▁yetisini
▁Wire
▁Depresyon
▁ulaşabiliriz
▁başkanları
▁Ukrayna
▁reformu
▁keşfetmiş
▁havuç
▁kaydet
▁Berbat
▁yalancı
▁geçirebilir
▁iptal
▁94
▁Camero
▁cetvel
▁Blog
▁pürüz
▁Destek
▁aldatıcı
▁uğraşırken
▁yakıyor
▁kurtuluş
lanamayan
▁ambulans
▁trilyonlarca
▁gecikme
▁Bahçe
▁rahibe
▁takılma
▁Karınca
▁sakladığı
▁dioksit
▁onarım
▁komedyen
▁Mario
▁dokunmati
▁America
▁BJ
▁Miami
▁düşürüyor
▁karmakarışık
▁aşkımı
▁hissedecek
▁akbaba
▁ajandası
ikipedi
▁haritalama
▁sindirim
▁gur
▁kontak
▁Juan
▁uçuru
▁sığınak
▁radar
▁Jamaika
▁kereste
ymou
▁çölleşme
lvani
▁Maldivler
▁azaldığı
▁Teleskobu
▁konservasyon
▁dokunuş
pher
▁Anon
▁Everglade
▁kütleçekim
▁Diplomat
▁yapamazdı
▁hızlandırmak
▁sloganı
▁somutlaştır
▁91
▁çalışabilme
▁kilogram
▁kıyas
▁istikamet
▁bağlanır
▁öğretecek
▁köylü
tfli
▁karton
minder
▁Neyin
▁literatür
▁dondurma
▁gevşe
▁yapsaydı
ctic
▁Yeryüzünde
▁Stüdyo
▁Ortadoğu
▁etkilenmiş
▁kesilmesi
▁eğleniyor
formasyon
▁hayırseverlik
▁borçluyu
▁savunucusu
▁sandık
▁makyaj
▁toplayabilir
▁belirleyecek
▁doğuruyor
▁Serbest
▁çalışırı
▁sinsi
▁Klasik
▁Hamile
▁garson
▁reddediyor
▁yıldönümü
▁Gelir
▁tanıyacak
▁Susan
▁Kamboçya
▁bronz
▁baraka
▁önemseye
▁hakem
▁korkutuyor
▁ayrımcılığı
▁bıktı
▁personel
▁öv
▁romantizm
▁bulacağınız
▁temizliyor
▁yerleştirir
▁kontrat
▁yürüdüğünü
▁gözlemlemek
▁köşelerinde
▁Grafik
▁gıdıkl
▁belirtisi
▁düşündünüz
laştığını
▁doga
▁Oturu
▁sec
▁Fabrika
▁bedenlerimiz
▁besleyici
▁kuzeydoğu
▁Rebe
▁vaiz
▁sağlayabilecek
▁aciliyet
▁gaga
▁seçmenler
▁bulunacak
▁Titanik
▁imparator
▁bolluk
▁adaletsizlik
▁Massachusett
▁cent
▁oynadığını
▁Job
▁yaramadığını
▁mütevaz
▁edemeyeceğimiz
▁Aramızda
▁1940
▁taklidi
▁karısı
▁Küb
▁bulabildiğim
▁konumunu
▁sergiliyor
▁bahsetmiş
▁tahammül
▁Buralar
▁Dehşet
▁İstatistik
▁monitör
▁peçe
▁rakım
▁sahilinde
▁kiriş
▁mahvol
▁rahatsızlığı
▁oranlarda
▁plak
▁sallıyor
azan
▁kırılmış
▁kelebek
▁Şirket
▁Island
▁sığın
▁dönüşmüştü
▁betimleme
▁Devasa
▁Şifre
▁lezyon
▁anlayışını
▁boynuz
▁alamazsınız
▁mikrodalga
▁yaşamımızı
▁kaybedeceği
▁bulunmuştu
▁bağırıyor
▁günüydü
▁algıladığı
▁çevrilmiş
▁artırır
▁multi
▁oluşturulması
▁toplanması
▁Koşu
▁konserve
▁otlak
▁fasulye
▁diyagramı
▁Intel
▁dağılmış
▁abartma
▁gösterildiği
▁yapıştırdı
IK
▁omuriliğ
▁işlevini
▁tanecikleri
▁yetmezliği
▁özelliklerinden
▁Hapishane
▁dönebil
▁ödüllendiril
▁Gram
▁değerlendirir
▁yakalanan
▁utangaç
▁aştı
▁karamsar
▁şanslıysa
▁sürükledi
▁çıktığınızda
▁koruyabilir
▁ücr
▁110
▁başaramadı
▁okuyabiliyor
▁konuşabiliyor
▁kurabilme
▁anlaşılmaz
▁gidebilecek
▁Gitme
▁lojistik
▁yanlışlıkla
▁Empati
▁Çizgi
▁yakaladığı
▁sevmediği
▁Tatlı
▁hapsedil
▁düşündürdü
▁karanlığın
▁plankton
▁Space
▁koreograf
▁hissetmişti
▁çubuğu
▁kaynaklandığın
▁Kaba
▁keşfedecek
▁itil
▁izleyecek
▁flüt
▁Tedavi
▁UNI
▁danışma
▁Portland
▁keseli
▁iliş
▁Tutu
▁hissettirir
▁somon
▁tanımlana
▁favorilerim
▁Yeterli
▁prenses
▁Milyar
▁Emir
▁anaokulu
▁PRI
▁uygulanması
▁beklenmeyen
▁zorunluluğu
imbabve
▁sağlayabileceği
▁yetişkinliğ
▁tuzağı
▁kuzenlerim
▁Bitcoin
DT
▁Küreselleşme
▁Kurumu
landıkları
▁Böcekler
▁Window
▁önderli
▁Siyasi
▁milisaniye
▁işaretleme
▁Feminist
▁doküman
acci
▁Coh
▁Dışişleri
▁ultraviyole
▁Biyosfer
GS
▁Jesse
▁Romo
▁götüreceğim
▁güçlendirmek
▁flört
▁bürokrasi
▁sokar
▁lityum
▁azalır
▁izah
▁yaşanıyor
▁kullanış
▁razı
▁Trafik
▁opsiyon
▁irtifa
▁Oksijen
▁büyütür
usmeler
▁nakil
▁calisan
▁varsayımı
▁mantıksal
▁düşünüldüğü
▁beslenir
▁yanılgı
▁Deneme
▁salınımını
▁sıkışıklığı
▁delikanlı
▁salak
▁boşanma
▁Galile
▁farkeder
▁kulağınız
▁Toplantı
▁yüreği
▁tedbir
▁feminizm
▁Roos
▁traş
▁gerçekleşebil
▁East
▁Kriz
▁edilemeyen
▁anlatamam
▁sarsıntı
▁direksiyon
▁Piyasa
▁harici
▁Orkestra
▁görürüm
▁deşifre
▁gözükebili
▁Cinsel
▁Gerç
▁aleminde
▁soruldu
▁Şahs
▁Yarattığı
▁yaratmıştı
▁Yazılım
▁sporcu
▁bakire
▁tutkunu
▁uymaya
▁değmemiş
▁sarsıcı
▁travmatik
▁fakirlikte
▁Starbuck
▁köpük
▁İstediğiniz
▁ateşleme
▁yetersizliği
▁hüzünlü
▁biliminsanları
▁döndüğünde
▁seçilim
▁peyzaj
▁populasyon
▁sehir
▁dolayi
▁süsleme
▁bulamayacağı
▁etanol
▁başvurdu
▁akvaryum
▁dönüşebilir
▁ibadet
▁tevazu
▁üstünlük
▁geçebilme
▁kehanet
▁muhtaç
▁övün
▁gidişat
▁eziyet
▁Katılımcı
▁Jordan
▁Prof
▁tutuldu
▁Gezi
▁tefe
▁Emekli
▁çözüldü
▁gönderiliyor
▁yoksulluğ
▁ağladı
▁hazırdı
▁çökmüş
▁keyfini
phon
▁banknot
▁çatal
▁Cooper
▁karizma
▁anlayışımızı
▁ilerlemiş
▁Belge
▁Sergi
▁kravat
▁arkadaşınızı
▁sevinç
▁Polonya
laştırıcı
▁yönetilen
▁Sakin
▁kanaat
▁Afro
▁affedi
▁Sydney
▁tavuğu
▁Grace
▁çevirirse
▁Fred
▁şevk
hassa
değiştirebilecek
▁etkileyebil
▁uyguladı
▁çıkacağını
▁Hakikat
SI
▁eriyen
▁band
▁anlayamadı
▁bastığı
▁yaramayacağın
▁Wilson
▁giga
▁kargo
▁yatış
▁Konferansı
▁Kullanıcı
▁istikrarsız
EO
▁bahis
▁Hyper
▁Adını
▁kandırıl
▁ahmak
▁yetmiyor
▁Fikri
▁Kahraman
▁mono
▁havayolu
▁Sinek
▁Farkında
▁Archi
▁Elimde
▁fuar
▁Anladım
▁Uyku
▁ekseninde
▁Yolculuğu
bileceğimiz
▁önlenebilir
▁Gülüyor
▁gökdelen
reran
▁savunuyor
▁Düşünüyoru
▁takılan
▁alüminyum
▁yuvarla
▁tankı
▁Acil
▁sorumluluğumuz
▁atığı
▁çörek
▁oluşacak
▁kalbe
▁Yang
▁dilekçe
▁Edinburg
▁belirleyebilir
10
▁kuracak
▁kötümser
▁Brook
▁kurabil
▁antropoloji
▁marangoz
▁yumurt
▁ahtapot
▁Denge
▁6000
▁Fotoğrafçı
▁geliştiri
▁hoşgörü
▁sirk
NT
▁kızamık
lendirir
▁tartıştığı
▁Mahat
▁kokain
▁muhalefet
▁Şeria
▁çıkabiliyor
▁çabalıyor
▁Barbar
feld
▁UV
▁Anto
AM
▁girdiğini
▁Kimyasal
▁ölçeklerde
▁dürüstçe
▁dağcılar
▁mikroskob
▁akarsu
▁kalsiyum
▁mammogram
▁Scratch
▁Bage
▁Basse
▁hükmed
▁kapsamı
▁belirledi
▁Engel
▁rafine
▁elektriğ
▁Mekani
▁dengesi
▁akışkan
▁tutkal
▁gözümüzü
▁1920
▁tanıştırmak
▁eğitici
▁steril
▁calisti
▁yeteneğ
▁prim
▁ilerletme
▁laptop
▁Orleans
▁ölçeklenebilir
▁çarpar
▁üzerlerin
▁kamyonet
▁Müziği
▁gömül
▁uygulayıcı
▁desteklediği
▁Mülteci
▁çıkabilme
▁LGBT
▁sustur
▁muhabbet
▁Kahve
▁hoşgeldin
▁sıkıştırılmış
▁uyandırma
▁çıkmıyor
▁yansıtıcı
▁kurabiliyor
▁çalışabilecek
▁vaziyette
▁yardımsever
▁cezaevi
▁sökü
▁kanalizasyon
▁infaz
▁rezil
▁yapamazsın
▁Project
▁twit
▁ilkokul
▁parfüm
▁düştüğünde
▁zam
▁hapsetme
▁dümen
▁basamağı
▁güncelleme
▁gerektigi
▁edemiyoru
▁yonet
▁istif
chang
▁Ilk
▁epilepsi
▁Olive
▁girebil
▁nehri
▁limon
▁tebrik
▁düzenlediği
▁körlüğü
▁Işığı
▁Patric
▁Univers
▁RG
▁öğrenebil
▁İşaret
▁Tayvan
▁sağlayacağı
▁ufk
▁yargılanma
▁Gelişmiş
▁ilerlediğini
▁Müdür
▁geyik
▁Hıristiyan
▁ispatlama
▁grev
▁eğitilmiş
▁volkanik
▁Vücudumuz
▁hızlanma
▁İçimde
▁algılıyor
▁gizleme
▁Darfur
▁üreteceği
▁saklanıyor
▁Tahminim
▁Demir
orado
▁açıklayama
▁Step
ürsünüz
▁karbonhidrat
ayıcı
▁Bireysel
▁müsait
▁katliam
▁onyıl
▁kılıç
▁zorlaştıra
▁yükselecek
▁cismi
▁rastlantısal
▁Politikacılar
▁ışıltı
▁Spu
▁ergenliğ
▁Körfez
▁hissedeceği
▁McCa
▁Başbakan
▁ateşkes
▁Fosil
▁kuyruğunu
▁saptaya
▁hoşlanıyoru
▁ıslah
▁arıtma
▁oluşmakta
▁sarılmış
▁korkak
▁zarfında
▁Kömür
▁Organik
▁lokal
▁Yeryüzü
▁milenyum
▁isteyebileceği
▁Ufak
▁cemiyet
▁Gölü
▁taktığı
▁takiben
▁Makale
idari
▁Sert
▁affet
▁küçültü
▁Makina
▁ümidi
▁kanepe
▁Heykel
▁Fırın
▁Psikoloji
▁alkışlama
▁bombardıman
▁dolandırıcı
▁stajyer
▁gönül
▁imzaladı
▁stabil
▁mutant
▁görülebile
▁diyagram
▁Çaresiz
▁Yargıç
▁unutama
▁Akdeniz
▁İstihbarat
▁çeyreği
▁Tasarımcılar
▁yapılmakta
▁göründükleri
▁yetişmiş
▁bacağını
▁içermekte
▁memleketim
▁kokusunu
▁irtibat
▁Barbi
▁aktarıyor
▁zeytin
rdün
▁ittifak
▁köpekbalıkları
▁doğmuştu
▁peygamber
▁ölçeklendir
▁Child
▁göremediğimiz
▁yaramayacak
▁hippi
▁Count
▁mesane
▁itfaiye
▁Klei
▁antropolog
▁haham
▁musluğu
▁Yunanlılar
▁Kosta
▁sondaj
▁dolanıyor
▁Metafor
▁yanlis
▁Dreyfus
▁koklea
▁sülfit
▁anımsayan
̈
▁soktuğu
▁dürüstlük
▁konsey
▁teneke
▁büfe
▁yaşantısı
yanılmaz
shire
▁Howar
▁enstitüsü
▁kozmoloji
▁Otobüs
▁başkent
▁Guard
▁edilemeyece
▁1968
▁hürmet
▁egitim
▁yetiyor
▁parcasi
▁calistigi
▁odul
▁Roslin
▁Pencere
▁cozum
▁ornek
▁ozel
▁pedal
▁gürültüsü
▁facia
▁efendi
zafiyet
▁katran
parça
▁kırıntı
▁Grubu
▁huzursuz
▁CNN
▁Patron
▁alışılmışın
▁keder
▁işleyiş
▁bilseydi
▁göbeği
▁yarayabilir
▁zümr
▁Rick
▁organizatör
▁madalya
▁misli
▁fahişe
▁adlandırıl
▁Yumurta
▁Cinsiyet
▁sınırlandırıl
▁asgari
▁Aferi
AID
▁istasyonunu
▁Milenyum
▁Cazibe
▁kanserojen
▁karışıyor
▁biyokütle
▁yalıtım
▁ambalaj
▁firsat
▁Plato
xx
▁baraj
▁hizli
ecegini
▁içtiği
▁aura
▁kozmetik
▁panosu
▁Barry
▁Klinik
▁vahşet
▁değineceği
▁basmakalıp
▁özümse
▁Düşündüğü
▁kalıtım
▁sinirbilim
▁küfür
▁formunu
▁akran
▁savunul
▁Picasso
▁Merc
▁rakibi
▁kastetmiyor
▁plazma
▁şifa
▁umud
▁ceviz
▁edebi
▁alışkanlığı
▁Bakış
▁görselleştir
▁Görüyor
▁şaşırıyor
▁komisyon
▁dönmüştü
▁terfi
▁büyüyecek
▁boşluğ
▁meteor
▁Yargı
▁direktörü
▁pürüzsüz
▁kıyaslandığın
▁tanınmış
▁salladı
▁Trum
landırıcı
▁koordinat
▁yıkıyor
▁göçebe
▁küratör
▁Öfke
ampir
▁açgözlü
▁kaybedebilir
▁Şam
▁kıt
▁öncüsü
▁tavrı
▁müdahele
▁sürdürebilir
▁Şekil
▁hiçkimse
▁kentleşme
▁memleket
▁zihnimizde
▁topuklu
▁bıçağı
▁klitoris
iyoenerji
▁örneğ
▁Yapılan
▁işletiyor
▁Rakam
▁indirgeme
▁açılacak
▁Honduras
▁Stone
▁psikiyatrist
▁Sinema
▁sürdürüleme
▁duyamıyor
▁durdurabilir
▁Telefonu
▁Yaşı
▁cumhuriyet
▁umutsuzluğ
▁edebildik
▁Travma
▁krizini
▁inandırıcı
▁engelleyecek
▁terketme
▁ejderha
iwa
▁Nehir
▁hidrokarbon
▁gömlek
▁hatırlayacağı
▁Tartışma
▁ekvator
strom
▁Kyoto
▁minimum
ibera
▁nüfusumuz
▁Kanıt
▁molekul
▁aroma
▁Netice
▁Rika
▁stereo
▁haşere
▁yayılımı
▁öğrettikleri
▁kavşak
▁uzvu
▁dolaplar
▁Terörizm
▁Tevrat
▁umrumda
▁donör
▁gülümsüyor
▁Reagan
▁öngörülebilir
▁Kocaman
▁lokanta
▁Fiyat
ntagon
head
▁gömülmüş
arşamba
▁jeton
▁gelebileceğini
▁hızlanıyor
▁fotosentez
▁bonobo
▁dışadönük
abad
▁Tasarruf
▁Clay
▁boncuk
▁Endeksi
▁Penns
hamb
▁Avukat
▁iplikçik
▁sekans
kütlel
▁doğurma
▁sünnet
▁engelleyebilir
▁sandal
▁Siyaset
▁sunabilir
▁Broad
▁perakende
▁süpriz
▁otopark
▁Keşif
▁ısıtıl
▁Vahşi
▁ozellikle
▁disari
▁sereb
▁evrimleştiği
▁korkmuş
▁Komşu
▁Fırtına
▁Katrina
▁TEDTalk
▁yürürlü
▁kuşkusuz
▁Kalkınma
▁kucağ
▁sığınağı
▁Agnes
▁öykünü
▁okşa
▁Toronto
▁kuresel
▁Geçiş
▁dövüş
▁Doğduğu
zül
değer
▁maket
▁hissedebil
▁hüsran
▁afiş
▁zürafa
▁öldürülüyor
▁tutunuyor
▁duyduğunu
▁Süt
▁yulaf
▁Yayın
▁Oralarda
▁Herkesi
▁toksik
▁algılayı
▁camiası
ncou
▁jüri
▁sirket
▁Shang
▁sekli
▁defter
▁fakültesinde
▁indeksi
▁geliştirebilir
▁kabuğunu
▁Bebeğ
▁otomasyon
▁söyleyeceği
▁Kafka
▁Dönüşüm
▁olamadığım
▁Gerçeği
▁aşikâr
▁1918
▁skala
▁tükeniyor
▁Ölçü
▁tutuklama
▁Nuh
▁Kıta
▁Brand
▁neokorteks
▁yatma
▁otopsi
▁kürsü
▁Kütüphane
▁Verimli
▁Stalin
▁gücünüzü
▁refleks
▁Franklin
▁vites
▁Malezya
▁Yoksulluk
akland
▁katalizör
armoni
▁Kardeşim
▁palto
▁kaptanı
▁Ticar
▁komşunuz
▁salata
▁kaynağ
▁gömleği
▁bağlandığı
▁huy
▁gerektirecek
▁dinlediğiniz
▁İpek
▁ızgara
lph
▁Elektro
▁süzülüyor
▁Nichol
▁Detay
▁Eksik
▁Hafif
▁seramik
▁manastır
▁yarımküre
▁mesuliyet
▁geliştirilmesi
▁görünümünü
ıklıkla
▁fantazi
▁şaheser
▁çalgı
▁Viyana
▁skandal
▁kıtlığı
▁mikroorganizma
▁binalarda
▁Glas
▁Yolsuzluk
▁dükkân
▁üssü
▁zihninizde
▁psikoterapi
▁Odysse
▁Uçağı
▁North
▁kurduğunu
▁hızlandırıcı
▁ambar
▁kambur
▁prestij
▁sorabilir
▁yüzümü
▁eşzamanlı
▁Servis
▁Ulaşım
▁kıdemli
▁kestiği
^
▁balkon
▁çömlek
▁Panama
▁gelgit
▁iştah
▁bölündü
▁Hatırlıyoru
▁lütuf
▁haftasonu
▁cevaplay
▁aktarımı
▁umudunu
▁Kayıt
▁Yurt
▁Rastgele
▁Neumann
▁Dergisi
▁Endüstriyel
▁yalıtıl
▁Rezer
▁iktisatçı
▁Reklam
mond
▁Fakültesi
*
▁çözmüş
▁motorsiklet
▁emtia
▁ortaokul
▁Cocuk
▁Liberal
empoz
▁sorguluyor
▁yedinci
▁biyopsi
▁parlamento
▁remiks
▁Shoot
▁islam
▁kalkülüs
▁okudukları
▁taahhüt
▁diyaloğ
▁şaşı
▁prezervatif
▁otomotiv
andıran
▁tartışıl
▁penisilin
▁yurd
▁Mississip
▁fuhuş
kışıklı
▁terminal
▁kompozisyon
▁Schwarz
▁sattığı
▁sorduğunuzda
▁heteroseksüel
▁güzergah
▁İğne
▁kucağında
▁Oğlu
▁nezaket
▁dinamiği
▁göbek
▁Pitt
▁İmkansız
▁nakletme
▁tahsis
▁olimpiyat
▁Tutku
▁Tecavüz
▁rıza
▁düşünülür
▁boyanmış
▁kırbaç
▁okuyabilir
▁kağıd
▁hicbir
▁tesekkur
▁mumkun
▁uygar
iform
▁Young
▁hissetmiş
▁Freud
ucker
▁tetikledi
▁mahvede
▁Sonuncusu
▁teçhizat
▁İlham
▁şahin
▁kovul
▁doldurulmuş
▁bağışıklığı
▁İşlem
▁füze
▁Ekran
▁Aurora
▁nişasta
▁kreş
▁calış
▁Profesyonel
▁cüce
▁fıskiye
▁izolasyon
▁amerika
▁hatırlamıyoru
▁logaritm
▁teselli
▁enflasyon
▁Göçmen
▁ayıklama
▁Down
▁hibrit
▁Blair
biliyorum
▁Tanıştığı
▁Gabriel
▁tapınağı
▁serotonin
▁basitleştir
▁Lyn
▁Ekibim
▁Mitch
▁epidemi
▁Süreç
layamazsınız
▁Maslow
▁Sahibi
▁Ölçek
▁demokrat
▁belleği
▁bozulur
▁anlaştık
▁armağan
▁etmişsinizdir
▁kesimde
▁adaletsizliğ
▁Yürüme
▁turşu
▁korelasyon
▁Bilinci
▁filizlen
▁jeneratör
▁küçültme
▁motosiklet
▁kovboy
▁rastlantı
▁görgü
▁Sigara
▁biyokimya
▁korunuyor
▁kapsayıcı
▁Köprü
▁sıkışıklık
▁Viktorya
▁gardiyan
▁soğan
▁kökünde
▁Georgia
▁fişek
▁yüzgeç
PEC
▁Hüs
▁amino
▁bulabileceğimiz
▁olabilseydi
▁Eleştirmen
▁yastığı
▁taslağı
▁salyangoz
▁Madagaskar
▁ızdırap
▁gömüldü
▁Ahlak
▁aerodinamik
▁takipçileri
▁işyerinde
▁Mauri
▁Tohum
▁rahim
HAL
▁mahsül
▁Derneği
▁Penguenler
▁zatürre
▁kolonoskopi
▁menfez
▁Numara
ozoi
▁Arkansas
▁hucre
▁Nikola
▁noron
▁Mello
▁kuad
▁water
▁römork
▁Minneso
▁Kentucky
▁International
▁antrenman
Ç
▁çiftleş
▁Aptal
▁Muhafaza
▁Italya
▁alışılagelmiş
telekomünikasyon
▁bebeğ
▁artacak
▁Lawrence
▁Çöl
▁Blackberry
▁zenginleştir
▁Dayanıklı
▁rad
▁Başlangıç
▁Meslektaşlarım
▁Entropi
▁Yellowston
▁optim
▁Simpson
▁Kapitalizm
▁Departmanı
▁çözebilir
▁bahsetmiyor
çedönük
▁Dinazor
▁değişeceği
▁algoritmik
▁Enstitü
▁kısıl
▁başarabil
▁çalıştırı
▁görevlendir
▁yaratabil
▁duyabilir
í
▁bölgesini
▁website
▁çevirdiği
@
▁yakalayabil
▁sanatını
ó
~
▁dönüştürebil
▁dinleyebilir
▁kastediyor
leştirdiğimiz
▁programlarını
▁taşıyabil
▁çıkartı
á
▁çözebil
▁kişiselleştir
▁başlatıl
⁄
bilirsiniz
Ö
ã
è
Â
Ğ
ñ
▁Fib
▁hastalıkta
ZX
°
£
ú
ō
©
à
ä
́
▁tekerlekl
ô
QQ
ø
¥
|
ÜZ
ī
€
ê
อร่อย
ï
­
É
Á
∇
τ
ZZ
æ
ë
Č
ää
š
ē
Ō
ì
XX
®
ć
