<pad>
<unk>
<s>
<\s>
▁.
▁,
▁bir
▁"
▁ve
n
▁bu
▁'
▁
a
e
▁Bu
▁için
▁da
▁Ve
m
▁çok
▁?
▁de
▁daha
k
▁ki
▁)
(
lar
▁var
▁:
▁gibi
▁olarak
▁şey
▁—
▁ne
▁olan
den
▁kadar
▁en
▁o
ler
▁her
i
▁ile
▁değil
nin
▁ya
▁-
p
dan
ye
▁ama
nın
t
ya
▁olduğunu
ki
▁büyük
▁Ama
▁iyi
▁bunu
▁sonra
z
▁nasıl
▁zaman
▁Bir
la
le
da
▁sadece
ce
na
de
▁çünkü
▁şekilde
▁şu
▁önce
er
yi
▁fazla
dir
▁iki
▁;
▁gerçekten
▁aynı
▁yeni
leri
▁Yani
▁yıl
▁O
▁hakkında
ları
▁Şimdi
▁kendi
ne
▁benim
uz
dır
ü
yla
▁olduğu
▁ben
▁insan
▁tüm
▁Ben
yı
▁farklı
▁mi
▁ilk
▁diğer
en
li
▁aslında
▁içinde
▁bunun
▁böyle
▁ilgili
▁insanlar
iz
▁yok
▁küçük
▁veya
yle
▁doğru
▁♫
▁başka
▁sahip
▁burada
▁Gülüşmeler
▁şeyler
▁ise
ı
▁biri
in
▁bile
▁önemli
▁eğer
▁Faka
▁bana
▁biz
ken
r
ca
si
▁in
▁size
▁bizim
s
▁Eğ
▁biraz
siniz
▁tek
▁üzerinde
▁hiç
▁oldu
▁insanların
▁gün
▁son
▁bütün
▁Bunu
▁geri
▁zamanda
▁şimdi
larını
▁vardı
▁yüzden
lerini
▁neden
▁Çünk
lı
▁onu
▁diye
▁az
▁tam
di
▁tarafından
▁Kahkaha
l
▁bazı
▁üç
▁göre
▁İşte
arak
▁nın
▁istiyorum
lerin
▁gerçek
sanız
▁yapmak
▁olmak
▁Çok
▁mı
▁bilgi
▁yer
y
lik
▁ortaya
▁Peki
▁bize
▁olması
▁oldukça
▁karşı
▁Bunun
ndan
sı
▁iş
▁olacak
▁şeyi
um
▁fakat
▁yani
sine
ların
▁beni
▁an
▁oluyor
▁Burada
▁dünya
▁Her
▁a
▁10
▁Aslında
▁birkaç
▁ın
▁Dünya
▁güzel
▁Alkış
▁onları
▁su
sel
▁anda
▁etmek
▁soru
▁bunlar
▁onun
▁kişi
▁tekrar
▁uzun
▁boyunca
▁Alkışlar
lerine
▁hareket
sa
▁20
▁devam
▁olabilir
▁kötü
▁Ne
ydi
niz
▁birçok
▁yüzde
▁Anca
▁!
Ü
▁teknoloji
▁zor
▁Evet
▁geliyor
tır
▁Daha
u
▁000
▁onlar
tir
▁e
▁milyon
▁belki
lık
ydı
▁Siz
▁olur
▁tamamen
tan
▁orada
▁birlikte
▁fark
▁buna
▁S
▁arasında
nız
▁A
▁harika
▁tür
▁öyle
▁i
ma
▁Biz
ni
▁karar
▁yerine
▁işte
▁dedi
ti
erek
▁yüksek
▁gereken
daki
lara
▁Bunlar
▁daki
▁nin
miz
▁dünyanın
▁para
▁basit
▁bugün
▁Afrika
▁yol
▁üzerine
▁pek
dur
lere
▁artık
▁açık
▁hayal
▁enerji
o
te
▁şöyle
lerle
lardı
du
▁dan
▁gelen
▁ederim
ten
▁yardım
▁3
▁hiçbir
Z
seniz
▁Böylece
▁vardır
▁konusunda
▁eden
dı
▁hızlı
▁onların
▁geldi
larına
an
▁dolar
ın
▁Sade
sınız
▁Amerika
sunuz
▁ediyor
▁Tamam
▁işe
▁yeniden
▁2
mız
yu
▁bizi
▁durum
▁yaklaşık
▁sonunda
▁ancak
▁den
▁hale
▁çoğu
▁sosyal
▁sene
▁Şu
▁herkes
▁Sonra
ta
im
▁hikaye
▁çocuk
▁tane
▁elde
▁onlara
▁yerde
▁kaç
▁sizin
x
se
▁ona
▁hem
▁temel
▁ilginç
▁dört
▁yakın
▁Benim
tı
%
d
▁siz
▁Teşekkürler
mi
▁konu
▁hemen
▁herhangi
▁şeyleri
▁süre
▁insanları
▁Onlar
nda
▁olmayan
ş
▁özel
▁eski
▁dünyada
▁demek
▁hala
▁zorunda
▁milyar
▁inanılmaz
▁istediğim
▁altında
▁kolay
▁alan
▁1
▁kadın
deki
lerinden
▁ta
larla
’
▁ay
▁durumda
▁En
lerden
lardan
▁izin
▁etti
▁kontrol
sini
▁güçlü
▁sorun
▁dair
▁bilgisayar
sına
▁bilim
▁un
▁yine
▁hatta
▁fikir
▁mümkün
▁nokta
▁örnek
▁parçası
▁adam
mış
▁başladı
▁Bugün
▁30
▁yaşam
▁birşey
▁5
▁Neden
▁genç
me
▁bunları
▁B
▁saat
▁değildi
▁beyin
▁Ya
sını
▁hafta
▁göz
▁inşa
▁kabul
▁şunu
▁insanlara
▁değildir
▁bence
▁gelir
▁New
▁hepsi
▁yolu
▁yalnız
▁100
▁kez
▁kimse
lu
▁veri
▁neler
▁neredeyse
▁araba
▁İlk
▁dedim
lerde
▁proje
▁E
▁sürü
ç
▁parça
▁yanlış
▁eğitim
▁yapmaya
▁benzer
▁beş
▁birisi
▁50
▁yapı
▁yere
▁araya
▁yılda
▁te
▁sizi
▁gerekiyor
▁hava
▁özellikle
▁kısa
▁içine
▁gördüğünüz
▁olduğuna
▁kat
▁çevre
▁gösteriyor
▁doğal
▁bakın
▁yapan
▁çalışma
▁verici
▁tahmin
larının
yız
▁düşünün
▁üzere
▁bundan
▁şeyin
▁edin
▁TED
▁çalışan
▁etme
larından
sin
▁200
▁hayat
nı
▁cevap
▁mu
▁muhtemel
▁Aynı
▁gerek
▁kullanarak
▁Hindistan
▁ye
▁derece
▁başladım
▁Tüm
▁geçen
▁yoktu
▁bunların
▁kim
lerinin
▁Ban
▁15
▁sonraki
▁güç
▁kız
▁arasındaki
▁yaptığı
larında
▁G
▁K
▁ihtiyacımız
▁araştırma
▁İnsanlar
▁Çin
▁ı
▁olmadığını
▁biliyoruz
ip
▁Son
▁Belki
▁yapma
▁D
un
mı
▁olsa
▁görüyorsunuz
▁gelecek
yiz
▁ses
▁rağmen
▁ana
▁4
▁ister
▁düşünüyorum
ini
▁görebilirsiniz
▁alıp
▁teşekkür
▁insanın
▁aşağı
ım
nüz
▁yapıyor
al
miş
▁nedir
▁yüz
▁dolayı
▁sistemi
▁dakika
▁sağlık
▁çeşit
▁ikinci
▁beraber
▁on
▁ifade
▁T
▁ele
ız
▁ettim
▁iletişim
sal
▁York
▁yardımcı
▁yaptığımız
▁tedavi
▁bağlı
▁bazen
▁yılında
on
f
▁olursa
lerinde
▁yaptık
▁düşündüm
▁olduğumuz
▁başına
▁Ayrıca
▁görmek
▁olsun
▁grup
▁bakar
▁olup
▁altı
▁dışında
▁hasta
▁konuda
▁etmeye
▁dünyayı
nızı
▁karmaşık
▁kendini
▁anlama
▁çocuklar
▁bak
▁ekonomik
▁gece
▁adı
▁derin
▁küresel
▁erkek
▁yapılan
▁sürekli
inde
▁kesinlikle
▁Buna
ci
▁beri
dim
▁Avrupa
▁görüyoruz
larda
▁hep
▁değer
▁söz
▁bakış
▁aile
▁yaşayan
▁ortak
▁gerektiğini
▁kısmı
▁arada
▁Büyük
nden
▁içerisinde
g
▁Bütün
▁olmalı
▁deniz
▁çıktı
▁bin
▁Bizim
▁haline
▁kelime
▁biliyor
▁deki
▁almak
▁defa
▁takip
▁asla
▁Teşekkür
▁vermek
▁anlamın
▁sebebi
▁nedenle
▁olmadığı
▁olurdu
▁bulunan
▁binlerce
▁tasarım
ik
▁işi
▁Gerçekten
▁varsa
▁şeye
▁evet
▁Yeni
▁toplum
h
▁40
ça
▁Hayır
▁dünyadaki
▁he
▁yaşında
▁dolu
▁konuşma
yım
▁C
â
▁hayatta
▁yaptım
▁ediyorum
▁eder
▁başarılı
nde
▁meydan
▁ileri
▁fikri
siz
▁gidip
▁u
▁uygun
▁hücre
▁hepimiz
▁video
ydu
▁I
alım
▁İki
▁zamanlar
▁sayesinde
▁metre
▁ihtiyaç
▁elektrik
▁ait
nizi
▁mükemmel
ıp
▁tabii
▁DNA
▁gerekir
larımız
▁ışık
▁Diğer
▁musunuz
▁kadınlar
▁mutlu
▁sebep
yken
▁geniş
▁el
▁savaş
▁çıkar
▁dikkat
▁problem
▁başladık
▁6
▁düşük
▁olmasını
▁canlı
▁veren
▁ayrıca
▁düşünce
▁sistem
ını
▁olmadan
▁yıldır
▁sanat
▁biliyorum
ine
▁oyun
▁mevcut
▁adım
▁hangi
▁ABD
▁güneş
mizi
▁ciddi
▁muhteşem
sın
▁merak
▁nerede
sun
▁anlamak
▁resim
▁madde
▁internet
▁olma
▁M
▁normal
▁değişim
sek
▁anne
▁başarı
▁göstermek
▁beyaz
▁yaptı
▁yı
▁çıkan
▁ülke
▁olacağını
▁acı
▁birinin
▁gidiyor
▁dahil
elim
▁söyledi
▁yavaş
▁yerlerde
▁kendisi
▁kendimi
▁film
▁bina
sak
▁Kendi
▁sık
▁ettik
▁bilirsiniz
▁haber
▁12
▁gerekli
▁herkesin
▁yukarı
▁Bunları
mızı
▁oluşan
▁gücü
▁asıl
▁birini
▁altın
▁Amerikan
▁sonuç
▁yaptığım
▁yanında
▁nun
▁mavi
▁test
▁ölüm
▁olduğum
▁yemek
el
▁müzik
▁verdi
▁kişisel
▁iç
▁ev
▁zaten
▁olay
▁Müzik
▁geli
▁buraya
su
▁emin
▁60
▁noktada
▁sen
▁çocukların
▁oray
▁Artık
▁doğa
▁nedeni
▁Onun
▁şehir
▁Birleşi
▁bakalım
▁şeylerden
▁fotoğraf
▁görünüyor
tik
▁olsaydı
▁fiziksel
▁uzak
liği
▁makine
▁işin
▁aldı
▁ufak
▁k
▁H
▁idi
▁resmi
▁Örneğin
leriyle
▁t
▁yıllık
▁genel
lerimiz
▁ortalama
▁veriyor
▁aldım
▁belli
▁sesi
▁çözüm
▁verdim
▁Mars
▁yedi
▁CA
▁at
çe
▁olmaya
▁yeterli
▁şeylerin
▁buradaki
▁katı
nun
dım
▁bulmak
▁çalışıyor
▁tabi
▁söylemek
▁yanı
▁gördüm
▁yeşil
us
[
▁çizgi
▁bağlantı
cı
es
▁sahibi
▁sanırım
▁lazım
lığı
▁etki
▁ilişki
▁zamanlarda
]
▁ediyoruz
▁biçimde
▁Google
▁yapıyoruz
▁model
▁Nasıl
▁hazır
▁San
▁dünyaya
▁11
▁ortada
▁sayıda
▁Bazı
▁kan
▁korku
▁sıra
▁tarafta
▁gittim
▁edecek
▁derecede
anırım
sız
▁yatırım
▁azında
▁18
▁diyor
▁halde
▁yerel
▁tanesi
▁okul
▁bölge
▁aşırı
▁Güney
▁Hatt
▁kitap
▁Başka
▁kalan
▁hayvan
▁ön
yim
▁olduklarını
▁verir
dik
▁sağlıyor
▁dijital
dür
ıpkı
or
▁Kuzey
▁biliyorsunuz
▁olacaktır
▁Tanrı
▁işler
▁hayır
▁yerinde
▁medya
▁şekli
▁şaşırtıcı
▁üst
man
▁oldukları
▁etkili
▁25
larımızı
▁üstünde
▁bazıları
▁milyonlarca
▁dışarı
▁kişinin
▁ilgi
ir
▁sayı
▁sağ
▁sinir
▁kanser
▁Böyle
▁konusu
▁gösteren
▁alt
▁sağlayan
lan
▁bununla
ra
▁istedim
▁adında
▁kalp
▁gerektiği
▁açısından
▁7
▁araç
▁heyecan
▁zengin
▁der
▁teşekkürler
▁olmuştu
▁yüzünden
▁tepki
▁yıllar
▁mücadele
▁insanlarla
muş
▁zamanı
▁Mesel
dığını
▁mesela
▁alanı
▁başında
▁kırmızı
▁al
▁Birkaç
▁devlet
c
▁ilham
▁icin
▁uzay
ri
liğe
▁tamam
2
▁yaratmak
▁80
▁arka
▁ilaç
▁değilim
▁baş
▁çıkıyor
▁görsel
▁sonucu
▁anlamda
▁Onu
▁deney
▁içindeki
yse
▁fazlası
▁merkezi
▁büyüme
▁görüntü
▁öğrenme
▁düşün
▁istiyoruz
▁olmuş
▁ihtiyacı
▁destek
▁fikirler
▁iklim
kçe
▁sanki
et
▁örneğin
▁yapar
▁çalışmak
il
▁yaşlı
▁yapabiliriz
▁alıyor
▁Herkes
▁yoksa
▁sayısı
▁petrol
▁göstereceğim
▁önceki
▁Hiç
▁Dolayısı
lerdi
▁Orada
▁çeşitli
▁günde
▁inanıyorum
▁8
▁robot
sinden
b
▁ucuz
▁gelecekte
acak
▁oda
▁gerçekte
cak
▁bilimsel
▁etkisi
▁beynin
▁alır
▁yaz
▁hastalık
▁görme
▁satın
▁İkinci
iyor
▁hâl
▁sağlıklı
▁saniye
▁garip
▁İyi
tu
▁yüzlerce
lama
min
▁tercih
▁seviyorum
▁olanlar
▁elbette
▁günlük
▁J
▁önünde
▁mü
▁cep
▁Biraz
sinin
▁Video
▁bilmiyorum
▁yoktur
▁nerey
▁yapılmış
▁temsil
▁ülkeler
▁zarar
▁Tabii
▁kullanmak
lerimizi
▁giden
▁seçim
▁hoş
▁konuşmak
mak
▁yaratıcı
▁genellik
▁yan
▁ekonomi
▁gördüğümüz
ır
▁Gerçek
▁erkekler
▁olduğundan
▁tip
▁açıdan
▁durumu
luk
▁kamera
▁takım
▁gizli
▁umut
▁la
▁alakalı
▁üzerindeki
▁korkunç
▁demokrasi
▁yapıyorlar
▁şirket
▁hepsini
▁nde
▁başlıyor
▁bizler
▁aracı
▁şarkı
mek
▁eve
▁üçüncü
at
▁F
▁bunlardan
▁önemlisi
▁edilen
▁orta
▁oldum
▁buldum
▁etrafında
▁getirmek
▁yi
▁kaynağı
▁geleneksel
▁kendimizi
▁icat
▁üniversite
▁güvenli
▁kendilerini
▁edilmiş
▁anlamı
▁söylüyor
ar
▁olduğunda
▁budur
▁koruma
▁Onları
birine
▁türlü
▁gitmek
▁ağ
▁telefon
▁Pekala
▁yaptıkları
ecek
▁kara
▁ayrı
▁gördük
▁göster
▁alma
▁sabah
▁Beni
▁yapmayı
▁yazı
▁Burası
▁anlamaya
▁İnsan
▁Birçok
▁sorular
is
▁dizi
▁insanı
unu
▁70
son
▁değiştirmek
adlı
▁kapı
▁mesaj
▁noktası
▁kere
▁uzakta
▁sahne
▁geldiğini
▁ders
▁yaparken
▁ara
▁9
▁hayatın
tur
▁İnsanların
▁değişik
▁çalışıyoruz
▁düşünmeye
▁verin
▁bulduk
▁s
▁kaynak
▁gider
▁bitki
▁Tam
to
▁sahibiz
▁herşey
sinde
▁hayatını
▁alanda
▁olağanüstü
▁halinde
▁politik
▁genetik
ing
▁sırasında
ge
▁dahi
▁ardında
▁kafa
▁evrim
▁fakir
▁modern
▁Batı
▁ettiği
▁90
▁sekiz
larımızın
ton
ysa
▁ediyorlar
▁belirli
▁Sen
▁yeterin
▁kişiler
va
▁geriye
▁sonuçlar
▁ikna
▁ten
▁esas
▁yiyecek
▁senin
▁yoğun
▁sonsuz
inden
▁ikisi
▁hücreleri
▁risk
▁sorunu
▁birine
ba
co
▁yaparak
▁geç
▁başta
ktan
▁Tek
▁ortasında
9
▁güven
▁tarih
nca
▁aldık
▁et
▁sayfa
dığı
▁verme
▁demektir
eyim
▁hata
▁hedef
▁boyutlu
▁erken
▁akıllı
▁yapacak
▁verdik
▁El
▁balık
▁bakım
▁karanlık
▁Geçen
▁dil
▁Demek
▁siyah
▁arkadaşım
▁hücreler
▁işaret
▁kendime
1
ed
▁açıkça
▁sorunlar
▁ürün
▁onunla
▁mil
▁baskı
/
imiz
▁Orta
▁düşünüyor
▁şiddet
▁ek
▁şirketler
▁kadınların
▁olmayacak
▁çalışıyorum
▁Öyle
▁güvenlik
▁sonrasında
▁çalışmaya
▁sınıf
dum
▁çift
▁L
▁sağlamak
▁hastalığı
▁geçmiş
▁yakında
▁dış
▁çocukları
▁miktarda
▁ziyaret
▁harita
▁adını
▁500
▁ülkede
▁yaşıyor
▁yarısı
vi
▁karbon
▁numara
▁çekici
▁ayak
▁kullanma
4
▁Buradaki
▁olmaları
▁16
▁yapmamız
▁olduğumu
▁yaygın
ku
▁ince
▁Had
▁davet
▁fırsat
▁deneyim
▁sırada
▁süper
▁geneld
▁kendimiz
▁sıcak
▁farkın
yorum
▁dışı
▁kesin
▁gaye
▁Öyleyse
▁eş
▁adına
▁ışığı
▁zeki
▁na
▁akıl
liğin
▁teşvik
diği
▁cok
▁boş
3
▁Ma
▁ağır
▁edici
ayım
▁Al
lü
▁amacı
▁muazzam
▁temiz
▁Su
▁geçti
st
▁getirdi
▁dans
▁dek
▁kurma
▁çapında
▁Sizin
▁hizmet
▁başlar
▁gerekiyordu
▁ettiler
▁Bazen
▁olmayı
▁si
▁anlatmak
▁olduğumuzu
▁birer
▁okula
▁istediğimiz
▁bebek
▁gıda
▁mesele
▁yada
▁uygulama
▁getiriyor
▁hayvanlar
▁sistemin
▁öğrendim
▁N
▁arası
▁birşeyler
▁sıfır
▁pahalı
▁ederek
▁U
▁mal
▁edildi
▁sanal
▁aşı
ması
▁Güneş
▁öğrenci
▁sana
▁Yine
▁yağmur
▁Ona
lığın
malıyız
▁duruyor
▁nesil
▁İş
▁rol
▁burası
▁neyse
▁Hem
▁şekil
▁çoğunu
▁suç
▁araçlar
▁plan
▁13
▁gitti
▁biyolojik
▁sağladı
▁ülkelerde
▁teknik
▁almaya
▁İnternet
ö
▁benzeri
▁burda
▁tehlikeli
▁öğrenmek
▁düşünme
ro
▁benimle
▁hayatı
▁hızla
▁müthiş
▁21
▁çalıştığım
▁sol
▁onlarla
▁süreç
re
▁R
▁örneği
▁buydu
▁düşünmek
▁zihin
▁tarz
▁kar
lığ
ter
▁görürsünüz
gi
▁göreceksiniz
▁evde
▁yana
▁gösterdi
▁olmaz
▁net
▁problemi
▁istiyor
▁Çoğu
▁buçuk
▁eğlenceli
▁sordu
cık
za
▁babam
▁anlat
▁hepimizin
▁kök
▁14
▁koy
▁Hepimiz
▁Küçük
▁Sonun
mde
▁oy
▁kutu
▁İngiltere
yan
▁şeyden
▁çalıştım
▁HIV
▁geldiği
▁alanlar
▁şeklinde
▁buz
▁dediler
▁saygı
▁ton
▁sonuçları
leme
▁işbirliği
▁verilen
▁olmamız
▁pazar
▁Mo
▁okuma
▁Doğu
▁olduğunuz
▁sordum
▁olmanı
▁din
▁nefret
”
▁söylediği
▁parçalar
▁nefes
▁sıradan
▁yaşındaki
▁buldu
▁başa
lıyız
S
▁24
▁benziyor
▁görünen
▁yapmış
lanmış
▁yarı
▁Sonuç
▁bildiğimiz
▁annem
▁İngilizce
▁kullanılan
mın
▁isteyen
maya
▁yöntem
▁anlam
▁yapabilirsiniz
▁tuhaf
“
▁gelişme
▁rahat
▁Elbette
▁Şöyle
▁Dr
yor
▁uç
▁Tabi
▁li
▁sizinle
▁önemlidir
▁sürdürülebilir
▁gücünü
▁değiliz
▁yapabilir
▁suyu
▁kamu
▁rahatsız
▁günü
▁olmadı
▁kilometre
bi
▁oranı
▁Kim
▁Çocuk
▁İ
▁zorundayız
▁Chris
▁ettiğimiz
▁yaptığını
▁yeri
▁değiller
A
▁duygusal
▁çocuğun
▁17
kten
▁çıkı
▁üstüne
▁P
▁19
▁ünlü
▁geçerli
▁Adam
▁soğuk
ğa
▁giderek
▁olanı
▁adamı
▁sevgi
▁eşit
▁kare
▁Afganistan
▁süreci
▁programı
▁tan
▁kullanıyor
▁km
▁Bize
▁yüzyılda
D
▁Se
▁sefer
ğ
▁sağlayacak
acağız
▁seyahat
be
▁gelişmiş
▁Ç
▁sistemini
▁yapıldı
▁duvar
ına
▁paylaşmak
▁yapıyorum
▁halk
▁kısmını
▁199
▁bırak
▁kilo
▁okyanus
▁ila
▁Bilirsin
▁Bilim
▁bas
▁malzeme
▁fazlasını
ğı
▁yılın
▁nevi
▁bulunduğu
▁oluşturmak
▁yabancı
▁The
▁Doğru
▁kalma
▁can
lo
▁hafif
▁yaş
▁üretim
▁köpek
▁edebilir
▁ülkeni
▁verimli
▁mimari
▁posta
▁bakmak
▁Gördüğünüz
▁Harika
▁imkansız
▁şeydir
▁görev
▁edip
ur
▁renk
▁önümüzde
▁kültüre
▁Davi
▁görmeye
B
▁zeka
▁Devletler
▁ölü
▁uluslararası
▁görüyor
▁mantıklı
▁yapay
▁yola
▁görebilir
▁hayatımı
▁sağlar
▁evrenin
▁dışarıda
▁arama
mizin
▁Va
▁tehdit
▁hikâye
▁liste
▁değerli
▁cevabı
▁akşam
▁dediği
▁çocuğu
▁nda
▁çoğunlukla
ında
▁Eski
▁Asya
▁kimyasal
ga
▁adamın
▁hikayeler
▁değiştirebilir
▁olduk
▁gezegen
diğini
sam
▁bilinen
▁hatırlıyorum
▁yüzyıl
▁geldiğinde
▁Hiçbir
mda
▁bilmek
▁yapacağı
▁alanında
▁sizlere
▁fare
▁bulunuyor
▁diyorum
▁yasa
▁edebilirsiniz
▁masa
▁modeli
▁tecrübe
▁koydu
▁yerler
▁epey
▁yaratıyor
▁tasarruf
▁bakı
▁neyin
▁şehrin
▁Londra
▁John
mıştı
▁dikkatli
▁kağıt
larıyla
▁dediğimiz
▁tarihi
▁Birincisi
▁değişimi
▁300
inin
▁ötesinde
▁ilerleme
▁dönü
▁De
imi
abilir
▁vücut
▁kapalı
▁başladılar
sının
dık
mızın
▁sabit
▁parlak
X
▁anı
▁türü
▁parmak
▁makale
▁korumak
leşmiş
▁sorunları
▁insanlardan
▁gelişmekte
▁hayata
▁lütfe
▁spor
▁suyun
▁verdiği
▁herşeyi
▁siyasi
▁olabilirsiniz
ley
▁aktif
▁açısı
▁web
▁farkında
▁ölçüde
▁olabileceğini
▁hastalıklar
▁sevdiğim
▁Man
▁bölümü
▁halka
▁olun
▁sesleri
ver
▁etkileşim
6
▁tartışma
▁çıkarmak
▁değiştirdi
▁yaptılar
▁ani
▁tespit
▁arkasında
▁gen
▁kanseri
▁verileri
▁gerekirse
▁zayıf
▁aç
▁endişe
▁bağımsız
▁duygu
▁matematik
▁oyunu
▁telefonu
▁gerçeği
▁virüs
▁...
ch
▁ateş
▁alet
▁yaşama
▁şeydi
▁fotoğrafı
▁doktor
▁nereden
lerdir
▁başarısız
kça
▁yerden
▁Teknoloji
▁Yüz
▁büyüdü
▁ödeme
▁önün
▁gel
▁tepe
▁nükleer
▁bakteri
▁dev
▁gruplar
▁taraf
sem
▁hali
▁tarım
▁içeri
▁düşündük
▁çalıştığımız
▁program
▁gittikç
▁olmaktan
▁seni
▁bahsetmek
▁işlem
▁geleceği
▁kullanıyoruz
▁saye
▁kaldı
▁istiyorlar
▁olabilecek
8
▁adamları
▁görüş
▁plastik
▁yıldız
▁Onların
▁isterim
▁önem
▁istemiyoru
▁elimizde
▁yazılım
▁yılı
▁ihtiyacınız
▁ettiğim
▁biyoloji
▁Bakın
▁tıbbi
▁Bazıları
▁öğrenciler
san
▁ısı
cu
H
▁parçaları
meye
▁diyoruz
nün
▁strateji
mıyor
ebilir
▁hak
▁yaşıyoruz
çi
▁He
▁alın
bu
▁Hepsi
▁sessiz
▁yönetim
▁molekül
▁adet
▁balığı
▁devre
▁teknolojiyi
ko
▁kullandığımız
▁taki
▁durumun
▁hükümet
▁kişiye
▁çaba
▁gibiydi
▁yaşamak
land
▁yaratma
▁hissi
▁cam
▁etmeyi
5
▁komik
▁arazi
▁amaç
▁anlamıyla
▁silah
▁toplumun
▁ürünü
▁doğum
▁musun
yo
▁robotlar
▁edebiliriz
▁ters
meliyiz
▁devrim
▁hakları
ize
dığımız
K
▁hastane
▁kural
▁Amerikalı
▁karşılık
▁İngiliz
▁karşısında
▁denge
▁taklit
diniz
▁f
▁rüzgar
▁gerçeklik
▁görüyorum
▁mikro
▁toplam
▁denen
▁artış
▁davranış
ve
▁benden
▁dokuz
▁V
▁Tekrar
▁bulmaya
▁özgür
▁ağaç
der
▁çalışmalar
mesi
F
▁dünyasında
mize
▁olacaktı
▁hesap
imizin
▁ulaşmak
▁tıp
▁düşünüyoruz
▁sey
▁kullanan
▁gezegende
▁polis
dü
nize
N
▁işleri
likle
▁miydi
▁Ses
▁nesne
▁olmaması
▁televizyon
▁kitabı
▁birbirlerin
▁yerlere
▁2000
▁geçer
▁serbest
▁Ş
▁öldü
▁Ah
▁Geri
sında
▁Me
▁yolculuk
▁yerini
liğini
▁sanatçı
▁cihaz
niversitesi
▁ihtiyacım
▁inanıyor
▁iddia
▁tarafı
▁yolunu
▁hakkı
7
▁mutluluk
▁merkezinde
▁edersiniz
▁gemi
▁0
▁açtı
▁düz
▁boya
hi
▁evrensel
▁ün
▁lerde
▁Ha
▁duydu
▁sert
▁Re
▁terk
▁istedi
▁dönemde
▁sorunun
▁Önce
▁teori
▁koyu
as
▁karşıya
tim
▁ü
q
zi
▁zamana
lanan
▁bi
▁deneme
▁duyu
▁seks
v
▁kenar
▁ticari
▁başlangıç
▁gelmiş
▁şehri
▁olabileceği
▁yap
▁kültür
▁yaklaşım
▁Biliyorsunuz
▁kurallar
▁hikayesi
ün
▁alacak
▁değişikliği
▁zamanlı
▁bisiklet
▁yarım
▁dönüş
▁Yaklaşı
▁veriler
▁fikrini
▁altyapı
▁sarı
▁çalıştık
layan
lardır
▁oluşturuyor
▁bölgede
▁şeker
▁geçiş
▁bilmiyor
▁kimin
▁aksin
▁istiyorsanız
it
▁kendiniz
abilirsiniz
▁zevk
▁ulusal
▁İkincisi
ımız
▁görünür
▁değeri
▁politika
iyle
nıza
▁kullanımı
os
▁Güzel
▁sıvı
▁çılgın
lenmiş
▁misin
▁istedik
▁dayalı
▁yazık
▁havada
T
▁dur
▁sonu
▁hassas
abilecek
▁yapılması
▁çıkardı
▁Facebook
▁türden
▁içi
▁ettiğini
▁anahtar
▁kurmak
▁sistemleri
▁değişiklik
ıyor
▁Kimse
▁sahiptir
▁Do
▁W
▁çöp
▁ihtimalle
▁eminim
▁Irak
▁endüstri
▁Bak
▁kuş
▁sivil
▁yapması
▁edilebilir
▁fikirleri
muz
lerimizin
ilmiş
▁berbat
▁bölüm
▁orman
▁radyo
▁peki
▁dolara
▁yoluyla
▁kuru
▁AIDS
▁yetişkin
acağını
▁geçiyor
▁Almanya
▁gaz
▁Şunu
▁ülkelerin
▁birinde
▁toplumsal
▁girdi
▁kadının
▁buradan
▁elinde
▁elektronik
▁nüfus
lığını
▁potansiyel
ici
▁çalışması
▁evren
landı
▁La
▁özelliği
▁oluşturan
▁sistemler
▁Di
▁müdahale
▁yıllarda
▁filmi
▁yollar
▁Pek
▁çocuklara
▁uyum
▁barış
▁Uzun
▁nadir
▁cinsel
▁bende
▁istediğiniz
▁okulda
▁deniyor
▁oranda
▁hal
▁ismi
▁kanıt
▁diğeri
▁çalışır
▁açıklama
▁kod
▁Çocuklar
▁miktar
▁Japonya
▁kısım
▁başlayan
▁gelebilir
▁kredi
▁Sizi
▁ediliyor
▁inan
▁di
ol
▁400
▁etmiş
▁kalıyor
▁odada
▁öğretmen
▁oluşturur
▁değişti
▁batı
▁konuşmaya
▁kendisini
▁kalmış
▁kol
▁kendinizi
raya
▁insanlık
▁Ta
▁alarak
▁askeri
▁bizimle
▁engel
▁verecek
▁degil
▁vermeye
▁kayıt
▁tarafında
bo
▁sorumlu
▁arta
▁doku
▁bilgileri
▁sıtma
▁bağ
▁yu
▁olduğunuzu
▁sonrası
▁ederken
▁nedeniyle
▁analiz
▁kendileri
▁Yalnız
▁sıkı
▁arkadaş
▁popüler
▁toprak
▁keşif
▁olaylar
▁resimler
▁şirketi
mıza
go
▁ekran
▁Brezilya
▁Dedi
▁kurdu
▁deyişle
ıyla
▁isimli
▁baktığınızda
▁motor
▁bakarsa
▁park
▁hareketi
▁önemi
▁tavsiye
▁bunlara
▁vakit
▁getiren
▁ahlaki
▁değiştirme
dikleri
▁ihtiyaçları
▁olabilirdi
▁söylüyorum
▁yaşamın
nizin
▁alalım
▁Ulusa
larca
▁çalıştığını
▁evin
▁hayatlarını
▁yakıt
▁anlamlı
▁kaynaklar
▁edilmesi
▁uydu
duk
▁besin
▁kelimeler
▁kum
▁olacağı
▁Te
▁Si
▁kahve
▁hâle
▁konuya
▁Özellikle
▁çözmek
▁verdiler
▁şehirler
▁gittik
▁sınırlı
▁söyler
aman
▁beyni
▁yapacağım
▁şans
▁kayıp
▁grubu
▁kazan
▁anlıyor
▁olanak
▁yaşadı
▁Biliyoru
▁kitle
▁dalga
▁kullanır
eceğim
▁devasa
▁hissediyorum
▁bitkiler
gu
tü
▁finansal
▁radikal
▁topluluk
▁yönelik
▁Bizler
▁milyarlarca
▁gördü
▁ederiz
▁sermaye
▁geliyordu
▁dili
▁dizayn
▁ödül
▁Neyse
▁sürede
▁yazma
▁rakam
▁le
▁hastalar
▁sonucunda
▁etmesi
ha
▁güvenilir
▁günümüzde
▁kullan
▁Time
▁kaya
nuz
▁sağlığı
▁parayı
▁Değil
▁üçte
▁hafıza
▁geliştirme
▁gelişim
▁Sorun
▁baktı
▁baktığımızda
▁birbirleri
▁gösterir
▁gözüküyor
iyoruz
▁dedik
▁Genel
▁arkadaşlarım
▁diyelim
▁yarattı
▁içeren
▁anladım
▁durumunda
▁düştü
▁Sağlık
▁olduğunun
▁ağı
▁Y
▁geçme
▁tutmak
W
▁psikoloji
▁Sa
▁baba
▁Öncelikle
mo
▁çekmek
▁bildiğiniz
▁ibaret
▁zamanında
▁tatlı
▁yazar
rek
▁vahşi
▁etmemiz
riyi
▁araçları
ru
ydım
▁parti
ldukça
▁dişi
▁bilmiyoruz
ndeki
▁sürece
▁giriyor
▁sağlayabilir
▁tut
▁kaynakları
▁işim
▁çalıştı
▁dayan
bil
▁talep
▁dönüşüm
▁dava
ah
▁cümle
▁almış
▁yağ
▁örnekler
▁İsrail
▁gönüllü
▁hız
▁saatte
▁Kesinlikle
▁yüzyılın
▁alanın
▁başlamak
ebilirsiniz
ji
▁maru
▁cinsiyet
▁gitme
melen
▁görüşme
▁yarar
▁civarında
▁saf
▁dürüst
▁olmanız
▁çalışırken
▁acil
▁rekabet
▁150
▁Twitt
▁tehlike
▁hesaplama
▁zorundaydı
▁bahsettiğim
▁çoğunuz
▁sır
larsa
▁laboratuvar
▁çözümler
▁gördüğüm
▁bilir
▁standart
▁başlayalı
▁birinci
▁neyi
▁sebeple
▁şansı
▁ha
▁imkanı
▁bilimi
▁geliştirmek
▁etkin
▁biriydi
ab
▁söyleyen
▁isim
▁bakabilir
▁Kenya
▁kullanmaya
▁istediği
▁basitçe
▁alıyoruz
▁oluşuyor
abilmek
▁rastgele
met
lerse
▁gelince
lıyor
▁güney
▁kişiyi
▁biliyordu
ilebilir
▁çocuklarını
▁oksijen
kar
▁Anne
suz
▁düşündü
fi
acağım
▁anlatacağım
▁kızlar
▁yemeği
▁zordur
▁Eğitim
▁kocaman
▁yaşındayken
▁yaptıklarını
▁algı
▁zamanla
▁öğrendik
▁yolla
▁yolunda
▁toplu
▁evrende
▁birbirin
▁kon
▁teknolojiler
umuz
▁etkileyici
▁fosil
▁duyma
▁koyar
▁düzgün
▁organizasyon
▁Umarı
▁git
▁kap
▁profesyonel
▁Farklı
▁çekme
▁uçak
▁ilaçlar
♪
▁seviyede
▁yolda
▁aklım
▁tasarımı
▁tutku
▁farkı
▁Be
▁karakter
▁çeken
▁tamamı
▁marka
düşünebilirsiniz
▁grafik
▁dışın
▁Doğa
▁diyorlar
▁şüphe
▁deri
masını
▁ederse
ysanız
▁bilgiler
▁hastalığın
▁gelmişti
▁giriş
▁sıklıkla
abiliriz
▁ziyade
▁şehirde
▁dakikada
▁sonun
▁sandalye
▁imkan
▁hayvanların
▁taş
▁trilyon
▁yaşın
▁Para
malısınız
▁kendim
▁sormak
▁başlıyoruz
▁falan
▁söyleyebilirim
▁duyuyoru
▁alanları
▁makinesi
▁bildiği
▁özellikleri
yon
▁duran
▁Hey
▁çalıştığı
▁çek
▁yaptığınız
▁sesini
▁hikayesini
▁sağlama
▁bakıyor
▁sergi
▁seçme
▁tanıştı
▁kuzey
▁Ay
▁olası
lük
M
▁yapılıyor
▁Ar
▁Hala
▁maliyeti
▁gösteri
▁yaratır
▁koymak
▁toplama
▁aracılığıyla
▁verdiğimiz
▁etrafta
▁adamlar
ut
00
▁organ
▁yöntemi
▁konuşmayı
diğimiz
▁denilen
C
ği
▁Ba
▁bil
▁günün
▁hücrelerin
▁ederler
▁bahsedeceğim
▁sahipler
▁Kadın
▁Hava
▁Muhte
▁projesi
▁olumlu
▁itibar
ndaki
▁denedi
▁kedi
▁olacağız
ydim
▁bahsediyor
▁düzenleme
ebilecek
bilme
▁Veya
▁tarzı
▁vereceğim
fa
▁bulma
▁sıkıcı
▁daim
▁özgü
▁arzu
▁biliyordum
▁uyuşturucu
▁gurur
▁kritik
▁ayında
▁George
▁otomatik
▁ürünler
▁şirketleri
▁öne
▁hepiniz
▁kullanım
▁geldim
▁hukuk
▁karşılaştır
▁miktarı
▁tersine
▁site
▁yaşadığımız
▁yara
▁değiştiriyor
▁Ki
▁deli
▁biyo
▁ortamda
▁ekmek
▁çıkarıyor
▁çekiyor
ber
▁kaba
▁35
▁Bill
▁testi
ör
▁nihayet
▁kullanılıyor
▁dik
▁On
po
▁ameliyat
▁altındaki
▁eğitimi
▁be
▁olmasa
▁olayı
▁getirme
▁yazdım
▁günlerde
▁İşin
▁Eylül
▁haberler
leşme
▁bol
▁b
▁klinik
▁yaşadığı
▁engelli
▁Küresel
▁fizik
▁değişiklikler
▁seviyor
▁baktım
▁kriz
▁mühendislik
▁Basit
▁görün
▁saldırı
▁Sanat
▁şiir
mişti
▁dönüştü
çı
▁fırsatı
▁görevi
▁bireyler
▁açıyor
çüncü
▁düşündüğüm
▁getirir
▁tarihinde
▁yönde
nce
▁erkeklerin
▁aylık
▁yaparsa
▁gezegenin
▁alanlarda
▁Biri
▁kutsal
lerimi
miyorum
mis
▁boyu
▁olmasıdır
▁Kendisi
▁geçirdim
▁arı
▁bireysel
▁yorum
▁Annem
▁söyledim
▁üretmek
▁organik
▁artıyor
▁Sosyal
▁dönem
▁Afrikalı
▁çalışıyorlar
▁Bilgi
▁öte
▁taşıyor
▁oradaki
▁sıradışı
▁teknolojik
▁is
▁görünmez
▁düzeyde
dy
▁fikrim
▁iğne
▁hissettim
▁tablo
▁çoktan
▁korkutucu
▁sınır
▁seçenek
▁süren
▁kullanabiliriz
▁etmiyor
▁döndü
▁geçmek
▁renkli
▁oranında
▁eğlence
L
▁liderlik
▁Kız
▁mesafe
▁aldığı
▁savaşı
▁yenilik
kinden
▁kemik
▁tamamıyl
▁kullandığı
lke
iyorum
▁alternatif
▁bağlantılı
▁organize
yum
▁çıkma
▁karışık
▁bomba
▁yük
▁yayın
▁olmuyor
▁fabrika
▁yapın
▁Kaliforniya
seydi
▁oturup
▁yenilikçi
▁dile
▁iste
▁Dünyada
▁hayret
▁gibidir
▁aşk
▁değiştiren
▁yasal
▁İnanılmaz
▁Kanada
▁Herhangi
redeyse
▁Dan
▁şirketlerin
▁kilit
▁umarım
▁şişe
▁Bay
▁teknolojisi
▁45
yoruz
▁kullandık
▁Los
▁lı
ıldı
▁bugünkü
tor
▁memnun
▁şeyle
▁düşen
▁mağara
tür
▁suçlu
▁farkettim
▁kör
▁ürünleri
▁yanıt
▁işletme
Q
▁peşinde
▁idare
larımı
yıp
▁ni
▁Ön
▁An
dıkları
▁alıntı
▁Hayd
▁süreçte
if
▁görülen
sıyla
lup
▁performans
▁görmez
▁böcek
▁Hayat
▁yaratan
▁uçuş
▁ölçekte
▁beceri
▁değiştir
▁anlatıyor
ore
▁faydalı
imizi
▁oluşturma
▁paylaşma
biriyle
▁dönme
▁diğerleri
▁zamanın
▁kulak
▁aşama
▁yalan
▁salgın
▁tarif
▁99
eceğini
▁üstesinde
▁malzemeler
▁lik
▁kısmında
▁benzeyen
▁Einstein
sen
▁seri
▁Ale
mıştım
▁fiyat
layarak
▁ayakta
▁söylediğim
▁oluyorlar
▁düşünüyordum
▁koyuyor
▁olamaz
▁Beş
▁siyahi
▁alabilir
▁söylediler
G
ist
▁yapılar
iniz
▁uzman
▁Genç
▁düzenli
▁getirebilir
▁projeler
tım
▁teklif
▁yöne
▁Sonuçta
▁vergi
▁bilgisayarlar
▁kişilerin
▁kızı
▁gelmek
▁ucunda
ck
▁durumlarda
▁İlki
▁düşündüğümüz
▁sahte
▁aktivite
▁koku
için
▁şok
▁ediyorsunuz
▁kuralları
▁kullanıyorlar
▁teşhis
mu
▁fotoğraflar
tra
▁patlama
inizi
ğine
ıldığında
▁tutar
▁sizler
▁başlayabilir
▁bölgesinde
▁bölgelerde
▁elle
▁cesur
▁işini
▁reklam
▁hücresi
▁özellikler
▁demokratik
araya
▁kullandı
▁vaka
▁mekanik
▁anlar
▁doğada
▁ailem
▁75
ür
▁sona
▁Babam
▁Yaşam
▁İran
▁başkanı
▁lerin
▁geçmişte
miştim
▁edeceğim
▁haritası
▁kırsal
▁dini
lendi
▁geldik
▁çabuk
▁gazete
ilen
▁oluşur
▁kahkahalar
▁bakma
▁beslenme
▁top
▁yapalım
▁pozitif
▁Avustralya
▁giri
▁bakan
▁uyku
▁hizmeti
▁Deniz
▁oluyordu
▁sonuçta
▁ların
▁ediyordu
▁öğrendiğim
▁yapısını
rken
▁bahsediyorum
▁problemleri
pi
▁edelim
▁görmüş
ho
▁temelde
▁gören
▁oldular
▁yüzü
▁bırakmak
▁yerleri
▁uyar
▁ısınma
▁dünyası
▁istedikleri
▁işlerini
nızın
▁Yakın
▁sürdü
▁Günümüzde
▁Arap
▁ak
▁diyordu
▁doktora
lerim
fen
▁çalışarak
▁edebiliyor
▁değerler
▁piyasa
▁arttı
mektedir
▁çalışmaları
▁Merkezi
▁söyleme
▁hareketleri
▁kullanıcı
▁Ev
nu
▁bedava
▁soruları
mizde
▁ardı
▁ayı
▁dolayısıyla
▁eylem
▁Meksika
▁çatı
▁girme
▁Richard
▁konuş
▁yazdı
▁tur
▁tutuyor
▁arabalar
▁bütçe
▁haklı
▁ayn
▁soyut
▁fikirlerin
▁görüntüler
▁anında
▁sağlam
▁noktalar
dunuz
▁değerlendir
▁etkileri
▁Yüksek
▁ulaşma
▁aldığımız
▁konuşan
▁Adı
▁okur
▁not
▁Paul
▁tanıyor
▁çoğunluğu
▁yolları
▁Anders
▁geleceğin
▁re
▁döndüm
▁bakacak
bir
▁bazılarını
▁yapmanız
▁kullanabileceği
▁bilen
▁iyisini
lanması
▁tanesini
▁mutlak
eceğiz
uantum
larınızı
▁sayısını
▁saçma
▁kişilik
▁zemin
▁teknolojileri
▁şeklini
▁servis
▁katkıd
ebiliriz
▁eşsiz
▁çalışmayı
▁doğu
▁arkadaşları
▁ortam
▁inanç
▁ol
▁ihtimali
▁kulağ
görebiliyorsunuz
▁gelin
diler
▁elimde
▁Bo
lerinizi
▁tipik
▁tasarımcı
▁ka
▁blog
▁takdir
▁dağ
▁babası
▁tanıma
▁kaldırı
▁Washington
▁Fransa
▁kal
▁bilinç
▁zorundasınız
ünü
▁saniyede
▁kalite
abiliyor
▁bıraktı
▁yumurta
▁çıkmış
▁cihazı
▁mesajı
▁oluştur
▁birbirimize
▁duru
▁Bizi
▁yukarıda
▁Sonrasında
▁büyüyen
▁kısaca
ının
▁adalet
▁larda
teki
▁galaksi
▁Ku
▁makina
▁koyma
▁ekip
▁yapabiliyor
▁olabiliriz
larımızda
▁hızı
▁kontrolü
▁kalmak
line
▁tarihte
eceği
▁hayatım
▁ver
▁sigara
▁çıkarma
yalım
▁Araştırma
▁daire
▁iyidir
▁krizi
▁Eve
▁dediğim
▁seç
▁yaşındaydı
ey
▁dehşet
▁etkisini
▁yararlı
▁2008
▁moda
▁kalır
▁Darwin
▁biçimi
▁Francis
▁Savaşı
▁konuşacağım
▁ordu
▁buyuk
miyor
▁modeller
▁kütle
▁NAS
▁gözlem
▁üreten
iyet
▁duygusu
▁Mısır
▁lise
▁öğle
▁dinamik
▁kurgu
▁tersi
PS
▁herkesi
▁gidecek
▁toplumda
▁Na
▁yarıyor
▁kurtulma
▁normalde
mayı
▁İlginç
▁insani
▁bulundu
▁şaka
▁savaşta
▁Nijerya
▁bant
▁sonuc
▁kaybı
▁Allah
▁kadınlara
▁arkadaşı
▁kıyasla
▁Sağ
▁öğren
▁Tanrım
▁uça
▁Mi
▁resimde
▁aileler
▁karınca
▁ruh
▁ilişkiler
▁çıkmak
ster
▁bırakma
▁düşüyor
▁satış
▁yuva
▁hükümeti
▁Oh
▁durma
▁görürüz
▁Uzay
▁meşgul
▁trafik
▁Fi
▁çevresinde
▁Temel
▁mezun
▁MIT
▁miyi
▁çıkış
▁yapabilecek
▁23
▁Az
▁değilse
▁Le
taki
▁uzmanı
▁konular
▁kıyı
▁bakteriler
lenen
▁enerjisi
▁istiyordum
ılabilir
▁düşman
▁Kar
iyorlar
▁Birisi
▁etkiler
ay
P
▁alanını
ime
▁işleme
▁Angeles
▁resme
▁çekti
▁başlangıcı
▁döner
▁Merhaba
▁aptal
▁dua
▁geçirmek
▁Pi
▁kaldır
mızda
▁Ra
yıllardır
▁öfke
▁üyesi
▁Açık
▁gerekti
▁uyarı
▁istemez
▁çiz
▁sorumluluk
▁Bilgisayar
▁kalıcı
▁değişiyor
▁yapmalıyız
▁ettikleri
▁merkez
▁sesler
▁diş
▁1000
▁güzellik
▁bilmiyordum
▁yatak
▁Co
mle
▁kazandı
▁kurtarma
▁yaparlar
▁sahnede
▁hissetme
▁çiçek
▁yardımı
▁Harvard
▁özgürlük
▁organizma
ebileceğimiz
▁Kore
▁hastaların
▁kaldım
▁Hikaye
▁öz
▁Konu
▁veriyorlar
▁sürüyor
▁bağımlı
▁ulaşım
▁yarattığı
▁geride
j
lerimizde
▁ötesin
▁fon
▁problemler
▁kullanılabilir
▁matematiksel
▁gezi
▁yeteri
sından
▁unutma
riyoruz
▁teki
▁riski
▁bilinçli
▁içerik
▁isterse
▁düşünebilir
▁oynama
▁ekoloji
kları
▁198
siyle
yacağım
▁büyüleyici
acaba
let
▁göze
▁Başkan
▁imza
hu
▁ayağa
▁yapmam
▁anlattı
▁gösterdiğim
▁his
▁Cevap
▁akciğer
▁meyve
▁yapabilmek
leştirilmiş
▁gitmeye
▁merhamet
▁tasarlanmış
▁gidebilir
▁halkın
▁bakmaya
▁girer
▁göç
ildi
▁katkı
▁tutan
▁oranları
▁isterdi
▁duyduğumuz
▁yapabiliri
▁Soru
▁Bil
▁çarpıcı
diğinde
▁deneyi
ste
lanma
▁aldığım
▁Charles
▁2010
▁kitaplar
▁kimya
▁tutma
▁sisteme
▁ırk
gen
ımı
▁macera
▁öğreniyor
▁etkileyen
▁yeme
▁atık
▁Jam
▁başlamıştı
▁klasik
▁22
▁maymun
▁yapısı
▁balon
amazsınız
▁konuşuyor
▁öğrenebilir
▁zorlu
▁geldiler
▁girişimci
▁oran
lanıyor
▁Araba
▁nüfusun
▁metal
lanabilir
▁getirdiği
▁düşünürsen
▁hidrojen
▁gördünüz
▁açar
▁protein
yü
▁kolu
▁Senin
▁ilgisi
▁açan
▁paylaş
▁kültürü
▁doktorlar
abileceğimiz
▁köy
do
▁öğretmenler
▁as
▁empati
▁domuz
▁kurduk
ren
▁olanları
▁27
▁cesaret
▁vs
▁Yıllar
▁v
▁gerçekleştir
▁deneyimi
▁deneyler
▁600
▁bitir
▁şimdiki
sunu
layacak
▁eseri
ul
▁Rusya
▁197
▁TV
▁İnsanları
▁par
▁Dört
▁tanıdık
▁savaşın
▁Tom
▁sınırları
▁çözme
▁evinde
▁Kadınlar
▁ailesi
rerek
sıl
▁inanma
▁şahit
▁gelmesi
▁nüfusunu
▁aldılar
▁delik
▁adil
▁iyisi
▁kaçınılmaz
▁ücret
▁değiş
▁Sana
liyor
▁oturuyor
▁kampanya
▁Altı
▁olabiliyor
▁hayatımda
▁çeşitlilik
▁duyarlı
▁yarısını
▁türleri
▁meslek
▁hediye
▁pencere
▁tekne
▁dün
▁öncesinde
▁Böylelikle
▁tanı
▁Obama
▁İslam
▁istediğini
▁mıydı
▁anlaşma
▁kuvvet
▁yirmi
dılar
▁kullanabilir
▁baktık
▁geçici
▁çekildi
▁topluluğu
▁koyun
▁söyleyebilir
▁ikisini
▁ücretsiz
▁kaynaklı
▁bulunur
▁savunma
▁yapılacak
▁gördüğü
▁oyuncak
▁istiyorsunuz
▁indir
▁Açıkça
▁kazanma
▁balıkları
▁hücrelerini
▁sı
▁Web
▁ötürü
▁kararlar
▁polen
▁kendisinin
▁konuşmalar
▁Kaç
ebileceği
▁Müslüman
▁gelişen
▁dersiniz
▁ceza
▁kur
▁etik
▁Ekonomi
▁bulun
▁dönüyor
▁Hayal
▁banka
▁planlama
una
mizden
▁eğri
▁çıkacak
▁ayda
▁kardeşim
▁yapmıyor
nuzu
▁göğüs
▁dördüncü
cü
▁dergi
▁keşfetmek
▁hiçbiri
▁zararlı
▁alışveriş
▁olunca
▁av
▁sahipti
▁ayna
▁Amazon
▁lider
▁seferinde
▁manzara
▁çatışma
▁halkı
▁olursunuz
▁alıcı
▁tuvalet
tık
▁demiş
▁yıldızlar
▁olmam
▁Nerede
imin
▁CO
▁erişimi
likten
▁bahçe
▁savaşa
▁kızın
▁geçiriyor
▁aralarında
▁tatmin
▁obje
▁Baş
▁önde
▁etmişti
▁Ga
▁bayan
▁kes
▁maliyet
▁yoldan
▁dinleme
▁1960
▁iPhone
▁yerin
▁düşünüyorsunuz
▁yaşamı
▁sıkıntı
▁bağış
▁kıta
▁giderken
▁çeki
▁yürüyüş
iği
▁hakim
leşti
▁sürecin
▁konum
▁araştırmalar
▁yüzünü
▁Kötü
▁Yo
▁sat
▁balina
▁içeriyor
▁doğrusu
▁tamir
▁versiyonu
amaz
▁Ardında
▁görüntüsü
▁bildiğim
▁oturan
▁bulduğum
▁teslim
▁Ka
▁asker
▁sohbet
▁kas
▁bulur
▁yazarı
▁edilir
▁istiyordu
▁hile
▁çiftçi
▁ilgilidir
▁tahta
▁makineler
▁Kendimi
▁bulduğumuz
diğim
▁seçimler
mıyoruz
▁liderler
▁zorluk
▁Savaş
▁Bildiğin
▁alıyorlar
▁çalış
▁1990
▁izleme
▁gösterdiği
▁kalabalık
▁üretiyor
▁ticaret
▁inşaat
▁Sol
▁Kan
fik
▁Beyin
▁nöron
▁ç
▁kadınları
▁Amerikalılar
▁sorduk
dığım
ılmış
▁ağaçlar
▁Ja
▁sözü
▁yön
▁meme
▁çocukken
▁okyanusun
▁keşfettik
▁binalar
▁ilacı
▁başı
▁You
▁şefkat
▁etmesini
▁Devletleri
▁alınan
▁karşılaştı
▁öncesi
▁belirgin
▁rapor
cilik
cek
▁sanayi
▁öğretti
▁Gor
▁denk
▁çeker
▁Fransız
▁müziği
▁kazanmak
▁kilise
▁taşıma
▁ölen
▁insanlığın
▁mercan
▁üste
▁düşüncesi
▁şifre
hr
▁hayatımızı
dışı
▁modelleri
▁dinlemek
▁kopya
▁Tasarım
▁felaket
▁simetri
▁haftada
▁açığ
▁ölüyor
▁denir
▁kılan
▁görülüyor
▁direkt
▁gittiğini
▁bitirmek
▁sal
▁gürültü
▁okumak
▁başım
▁yapmaları
▁Beyaz
larımdan
▁eksik
▁sorusu
▁kalem
▁öğrencilerin
▁kariyer
woo
▁taşıyan
larımıza
▁potansiyeli
▁diz
▁geçtiğimiz
▁hisseder
▁kömür
▁noktasında
▁görebileceğiniz
▁Çevre
▁tren
▁bilimin
▁2007
▁kuşlar
manyetik
▁olacaklar
▁beden
▁vücudun
▁ayar
▁değiştirecek
▁görü
▁yapıyordu
▁grubun
▁şa
▁Michael
▁oynar
▁sera
▁ada
▁gençler
▁mucize
▁gerçekleşen
▁kaybetti
▁nesneler
▁kitapları
▁gelmiyor
▁Esas
▁düşünen
▁genom
▁otorite
sızın
▁çıktığı
fer
luğu
▁olmama
▁şekillerde
▁orda
▁üstü
▁şekilleri
▁um
▁izlemek
▁nasil
▁yetersiz
▁kavramı
▁çocuğ
▁erişim
ğe
▁saç
▁Thomas
▁süreli
▁ci
▁açıklamak
lerindeki
▁yarışma
▁ndan
▁ağın
▁ilkel
▁gelmez
ılıyor
ev
▁İsveç
▁doğdu
▁aletler
▁etmez
▁kalın
▁kazı
▁Oray
ebiliyor
▁hastalıkları
▁girişim
▁farklılık
▁çalışıyordum
▁internette
▁çalışmanın
▁seviye
▁konularda
▁1980
▁köprü
labilir
▁sinyal
▁çözümü
▁Toplum
▁edilemez
▁küre
▁çerçeve
▁mahalle
▁gir
▁büyüklüğünde
▁yaşamış
▁ölümcül
▁sakin
▁hayvanları
▁olmalıydı
▁say
▁atom
▁yollarını
▁yazıyor
▁söylemeye
▁geliyorlar
▁durur
müş
▁lisans
larım
▁uzunluğunda
E
cılar
▁ölme
▁istekli
meyi
▁amacıyla
▁vadede
▁com
▁detaylı
▁Görüyorsun
▁grip
▁oğlu
▁Hu
▁kutup
▁kartı
▁sevdi
–
▁öncelikle
▁problemin
▁çocuklarımız
▁olabilirler
▁ini
▁blok
▁bayağı
asyon
▁dunya
▁Ni
▁ekranda
▁çal
▁gözle
▁efsane
▁yaratıcılık
▁yerli
mezsiniz
▁sıcaklık
▁anlayış
▁tarama
ymış
▁Ana
▁üretimi
▁tüketici
▁milli
▁birliği
▁onlarca
▁hayatında
▁oyuncu
▁düşünmüyoru
▁olmazdı
▁edebileceğiniz
▁teorisi
▁niye
▁sokak
▁kullanıl
▁getirdik
▁planı
▁ahlak
ac
▁konuştuk
▁kaydı
▁hasar
▁oturur
▁tecavüz
▁garanti
▁rengi
iş
▁söylemeliyim
▁heyecanlı
▁So
▁açlık
lerdeki
▁Konuşma
▁Lo
leyici
▁Şey
▁nehir
▁yeteneği
▁röportaj
▁dönelim
▁derdi
▁bölgelerinde
▁görür
▁şehirlerde
sair
▁ismini
▁güvende
ımızı
▁hadi
▁parçasını
▁seyirci
▁çalışıyordu
▁iz
▁kullanmayı
▁Birliği
▁atmak
▁evi
▁ölümün
▁çelişki
▁Baba
▁bilgisayarın
w
▁kayda
▁Gel
dıklarını
▁oyunun
▁yoksul
▁Çalışma
▁yapabileceğiniz
▁söyleyeceğim
▁hap
▁birileri
▁yaşadığım
▁Steve
▁söyle
▁do
kan
▁Alzheimer
▁okudum
▁bulut
ot
▁depo
▁yönünde
▁kalanı
dığınızda
▁gerçekleşiyor
▁istiyorsak
▁toplantı
keresinde
▁üretme
▁Latin
▁Bende
izm
ja
ov
▁anlatmaya
▁kaza
▁şiddetli
▁genelinde
▁Alman
ong
▁öğrencisi
▁seçti
▁annesi
▁Am
▁zamanki
▁türde
▁Gece
leyen
▁kahraman
▁yüzey
▁müşteri
▁saatler
▁seviyesinde
▁basın
▁başlayacak
▁uyumlu
▁geleceğini
▁alması
▁bakıyoruz
▁gösterme
▁ilişkin
▁Apple
▁bağışıklık
▁kart
▁konferans
ama
▁At
▁Mü
▁duymak
emez
▁duyuyor
▁bo
▁Paris
▁65
ğin
▁fikrin
▁dar
▁Mavi
▁çağı
▁onur
riyorum
▁Mary
▁konuşurken
▁Seni
▁bekleyen
▁yapabileceğimiz
landığı
▁çağrı
▁Pakistan
▁kızların
R
▁başlay
50
▁fayda
▁bekler
▁gerçekliği
▁Tahmin
▁kalmıyor
▁Yapma
▁birey
▁bahseder
▁kıl
▁düşünür
▁yapımı
▁işçi
▁Hangi
▁zinciri
▁kazanan
▁194
▁yaparsınız
▁algılama
▁Birden
▁öğrenmeye
▁Boston
▁kalmayı
▁Evren
▁ideal
▁ellerinde
▁dönüm
▁yazılmış
▁vereyim
men
▁ba
maktadır
▁çoklu
▁gövde
▁Pan
▁kavga
▁umuyorum
▁getirecek
▁bar
▁hâlin
▁etkiliyor
ger
▁hamile
▁görüntüleme
▁pembe
▁Okul
▁Or
▁anlatma
▁yönü
▁prototip
▁haberi
▁mekanizma
▁gücüne
▁kategori
cük
▁başardık
▁gazeteci
▁firma
▁Higg
▁vakti
▁bulunduğumuz
ık
▁değerlendirme
har
▁arabanın
▁komşu
▁etrafındaki
▁çözmeye
▁gidiyoruz
ara
▁ayakkabı
▁benzin
▁ülkedeki
▁çağ
▁odadaki
▁derken
▁çekilmiş
▁of
▁fi
▁ayrıntı
▁arar
▁kablosuz
ıcı
▁durumlar
▁dayanıklı
▁gölge
▁As
abileceğini
▁dersi
▁verebilir
▁Bar
▁karşılıklı
▁Mart
▁yaparız
▁görünüyordu
▁Sta
▁müze
▁tutun
▁engeller
inizin
▁bölümünü
▁üstün
▁Pa
ciler
▁pi
▁Pasifik
mızdan
▁göreceğiz
▁Art
▁neşe
▁çizim
▁arkasındaki
▁Yeşil
▁pratik
▁toplumu
▁demişti
▁ilişkili
▁Po
▁St
▁aşık
▁bariz
▁Hasta
▁resimleri
▁yumuşak
▁maaş
▁BM
▁ağlar
unun
▁dönmek
▁depresyon
▁Ri
▁gözleri
ymiş
alesef
▁çekim
▁döneminde
▁Önemli
▁pasif
▁değişen
▁şarap
üm
▁Lüt
▁bilin
▁geleceğ
labilirsiniz
▁patent
▁tasarımcılar
▁oluruz
▁çirkin
▁olasılığı
▁yarın
▁Hepimizi
ard
▁çiftçiler
▁ilerliyor
▁gittiğimde
▁pazarlama
▁büyüyor
▁kanun
▁başardı
▁Milletler
▁varmış
▁Park
▁boyutta
mesini
▁özellik
iliyor
▁azaltma
▁Hepiniz
▁yörünge
▁değiştirmeye
▁oturdu
▁mülteci
▁varlığını
▁gerçekleşti
▁stres
▁dışındaki
▁olumsuz
▁havaya
▁diyebiliriz
▁buluyor
▁Birinci
▁edeceğiz
▁organizmalar
▁protez
▁kuruyor
▁olabildiğin
▁görebiliyoruz
▁sürpriz
mla
▁çöl
▁hikayeleri
▁uygulamalar
▁gülüşmeler
▁baz
▁oyunları
12
▁yetenekleri
▁art
mıştır
▁Kara
▁durdu
melisiniz
▁Enstitüsü
▁anlayışı
▁getir
▁kurulu
▁kalıp
▁kavram
▁orası
▁anti
leşiyor
▁sor
▁fil
ral
▁gizemli
▁anlatır
layabilir
▁tanımlama
▁istediğimi
▁kızım
▁Herkesi
leniyor
▁birleştir
▁Yaptığımız
▁sola
▁söylüyorlar
▁Kal
▁istediler
lenme
▁yavru
▁davran
▁fotoğrafları
▁otel
▁değiştirir
▁Gelecek
▁kalacak
▁açmak
abileceği
diklerini
▁katman
▁kuvvetli
▁mühendisliği
Tub
▁gri
▁noktaları
▁etmeniz
▁varlığı
▁insandan
th
▁işareti
▁almayı
▁araştır
▁iniş
▁olayın
▁nano
▁Roma
▁yapmasını
▁itiraf
▁yaşıyordu
▁sanmıyorum
▁ülkeye
▁telefonları
▁mantık
▁işliyor
oloji
▁pilot
▁Gülüş
▁Ge
▁nı
▁yatan
▁keskin
▁the
▁çalışacak
▁rüya
▁istersiniz
▁olmalıdır
amayacak
laşma
▁rakamlar
▁Biliyor
▁düşünmeniz
▁çıplak
▁hariç
▁ışığın
▁gerçekçi
▁dönen
ire
▁kurtarmak
▁geçi
▁giy
▁düşüş
▁bölgesi
▁üreme
▁takımı
▁başlangıçta
▁oluştu
▁operasyon
▁devamlı
▁yazıcı
▁karşılaşma
ydü
▁olurlar
nizde
▁utanç
▁günler
▁kanı
▁özgün
▁dâhil
▁bebekler
▁doğan
▁kitabın
▁verdiğim
ış
▁yaşlanma
▁süresin
▁yöntemler
▁yapılabilir
▁Sal
bire
▁birlik
▁boyutu
▁içme
▁Bin
▁kalmadı
▁eşim
▁kablo
▁sunmak
kal
acağı
▁bulunma
▁tasarımın
▁koyduk
cik
▁gösterilen
▁düşer
▁beklenmedik
▁ettiğiniz
▁sekil
yecek
▁uzayda
▁yönetimi
▁bekleme
▁amaçlı
▁temin
▁yasak
▁global
▁tatil
▁başkalarının
▁önemsiz
▁baylar
▁gözlerini
▁duygular
▁Kısa
▁sihirli
▁düşünüyordu
▁yetenekli
▁iyiydi
▁endüstriyel
▁piyasay
dığınız
ılır
▁alanların
▁düşünmemiz
▁mektup
▁oluşturdu
▁kullandım
▁tarihini
▁koloni
▁düzey
kleri
▁inanmak
▁İklim
▁nesli
▁insansız
▁borç
▁DH
▁haklarını
▁değişimin
▁Kısaca
▁direk
ebileceğini
▁aşkın
▁harcama
▁akım
▁çıkarıp
▁once
▁cun
▁aramak
▁kullanışlı
▁250
▁anki
▁1970
▁ödülü
▁özü
▁Har
▁adeta
▁elbise
▁Birlikte
▁kanserin
▁yaratabilir
▁yaşıyorlar
▁öğretme
▁yaşar
▁rolü
▁köşe
▁çıkardık
▁tavan
▁alabilirsiniz
▁içlerinde
▁mantar
▁Peter
ff
▁es
▁orijinal
▁çeşitliliği
▁belirsiz
▁genişlet
▁görüşü
▁izleyen
▁Burda
▁yarat
▁boşluk
▁çoğumuz
▁yapmıştı
▁gereği
▁ayırt
▁değerleri
▁Fa
ow
▁oturma
▁oradaydı
▁kalitesi
▁meşhur
▁İçinde
▁gazı
▁olmayabilir
▁haberleri
▁başladığımda
▁maliyetli
▁lazer
▁gidin
▁iyileşme
▁açıp
▁Rus
▁yılını
ladığı
▁izliyor
▁sev
▁yoksulluk
ford
▁yığın
▁Aile
per
▁esnek
▁yarattık
▁yaratmaya
▁Ed
▁keşfetme
▁32
miştir
▁Ber
▁desteği
▁birbirini
▁görüntüleri
▁sitesi
▁böcekler
▁zehirli
▁kötüsü
▁gönderme
▁demir
▁çamaşır
▁mimar
▁oranını
▁atmosfer
▁Ölüm
▁yapıldığını
▁ölçü
▁sürecini
▁oynamak
ram
▁tanımı
▁derinden
▁market
▁arasından
▁değişir
▁yarısında
ite
▁anladı
▁yangın
▁hastanede
▁Yap
▁beyninin
▁başladığı
▁geçtik
▁ah
▁olgu
▁olacağına
▁Dünyayı
▁düş
▁tarihin
luyor
▁elin
▁fırsatlar
lacak
▁tak
▁entegr
▁elini
▁araştırmacı
▁g
▁dokunma
sizlik
▁ağrı
▁neydi
▁şikayet
▁koca
▁kurumsal
▁intihar
▁istisna
▁tutu
▁öngörü
▁tümör
▁kabile
▁olmasından
▁İç
▁dalış
▁istatistik
▁yaptığımı
▁Mu
▁doğası
▁dosya
▁babamın
▁hayati
▁metafor
▁sektör
▁terör
tro
▁geçir
▁mobil
▁tanrı
▁eti
▁Hint
▁zirve
▁Internet
▁2005
▁edemez
▁dost
▁kısme
▁çıkarır
▁Bi
han
▁1950
▁parçalarını
▁yapıyorsunuz
▁kalk
lerimize
bilir
▁anlamamız
▁bilinmeyen
▁şurada
▁gönder
▁adama
▁Martin
▁ko
▁büyür
▁yapacağını
▁geçecek
▁bal
▁çılgınca
▁yazan
▁biliyorlar
▁vermiş
▁yepyeni
▁atma
▁sürecinde
▁öykü
▁açma
▁Pe
▁özgürlüğü
▁yaşta
▁verilerin
▁çocuklarımızı
▁yürüyor
▁Hareket
▁geliştirdik
▁optik
▁kuralı
▁çanta
▁kararı
▁alırsınız
ero
▁İster
▁gübre
▁korkma
▁örnekleri
lılar
▁dayanıyor
lanır
▁meselesi
▁çıkması
▁egzersiz
▁se
▁hayali
▁göçmen
dığında
▁küçü
▁etmekte
▁Asla
▁hizmetleri
ceği
▁hepinizi
▁Jim
▁animasyon
▁Uluslararas
▁tabaka
▁verip
▁verildi
▁yapmadı
▁gerekecek
▁Eminim
▁ülkeleri
▁otobüs
▁Holly
▁topluluğun
gı
▁Doğal
▁şehirlerin
▁minik
▁sağladığı
ilecek
▁Gerçekte
▁oldugunu
▁teknolojisini
▁döngü
ılması
▁Ö
▁etmeliyiz
ışı
▁şarkısı
▁olmalısınız
▁damla
▁destekleyen
▁modelin
▁taşımak
▁ulaşılabilir
▁puan
▁Ko
▁kaldık
▁duyduğum
don
▁mekan
▁yetenek
▁suda
▁alanlarında
▁arttır
▁kendiliğin
▁derler
▁gösterecek
▁Gu
▁edebilmek
▁bölümünde
▁canlılar
▁gerektirir
▁sayılar
▁içe
▁elma
op
▁alanlarını
▁ağacı
▁birimi
▁öğrendi
▁metin
▁geliştirdi
▁düşünürken
▁Gi
▁nüfusu
▁herşeyin
▁yapılır
▁gidiyordu
▁çıktık
▁inanı
▁kaynaklarını
▁c
▁geçirdi
▁refah
▁yanındaki
unda
▁girmek
leyerek
▁sanatı
▁aşağıda
gun
▁hayvanlarda
▁fizikçi
şe
▁mahkum
lenir
▁Önümüzde
▁gerektiren
▁olayları
▁arkadaşlar
lanacak
▁yetiştirme
I
▁Hep
dirler
gin
▁şekiller
▁filtre
▁koruyucu
▁ilan
▁keyif
▁alkol
▁insanla
▁okulu
ney
aj
▁evlilik
▁Göz
▁dikey
▁yazmak
▁davranışı
▁tiyatro
▁iyice
▁Fo
▁ofis
▁perde
▁ham
▁Li
▁evlerin
▁cihazlar
▁yerlerinde
▁hatırlayın
▁Frank
▁Derek
▁Geçtiğimiz
maz
▁devletin
▁Modern
rit
▁ışıkları
▁Fark
larındaki
▁alındı
fo
▁Kalp
▁çıkaran
▁gitmiş
rma
▁aday
▁nazik
▁gizem
ebilmek
▁zar
▁Kongre
▁bırakıyor
▁gay
▁Mar
▁Pazar
▁istemedi
▁aşamada
kı
▁heykel
▁yanımda
▁yaşamaya
abilen
▁2011
▁edildiği
▁hızını
▁şart
▁ayır
tin
▁yay
▁y
▁maden
▁gördüğümde
▁Can
▁girdim
▁ekonominin
▁Haiti
▁gelişmeler
▁çelik
▁kütüphane
▁kapasitesi
▁oyunlar
▁sinyali
BG
▁Kırmızı
▁kapsamlı
▁olacağım
▁görebiliyor
▁kolaylık
▁araçların
▁sevimli
▁yetişkinler
▁dakikalık
▁sokakta
▁oluşturduk
▁In
▁gücün
▁kaplı
▁dünyamızı
▁değerini
larınız
ly
by
▁huzur
▁Go
▁Yoks
▁koşullar
▁duy
▁yaratıklar
▁seslerini
▁birçoğu
▁olmalarını
▁ter
▁seviyesi
sha
lalım
O
▁Muhteşem
ebilen
▁durumunu
ans
▁karikatür
▁avukat
▁gelişimi
▁oğlum
▁sunuyor
▁programlama
▁roman
▁Sam
▁ulus
▁mağaza
▁aklın
▁davranışlar
▁adapt
▁Da
▁orkestra
▁başladığım
layıcı
▁sorunların
▁temas
▁Uganda
▁fikirlerini
▁hayl
▁ata
▁Hepsini
▁golf
▁sorum
▁Californi
malı
▁taşı
ven
▁büyüklükte
▁kullanıyoru
▁şanslı
▁akademi
les
lamak
diğiniz
▁kentsel
▁vermeyi
ürekli
▁güvenliği
hur
▁çıktım
▁baktığımda
▁öğrenir
▁buluş
▁yolun
▁futbol
we
▁196
rat
▁dokun
▁oyna
ic
▁çiftlik
▁Film
▁yapıcı
▁işlerin
▁havalı
▁köle
15
▁üretken
▁taşır
▁etiket
▁farklılıklar
▁istemiyor
▁ediyordum
ımda
▁inceleme
▁aramaya
▁birbirlerini
▁Mark
nızda
▁Süper
▁kazanıyor
▁tümü
▁bağlıdır
▁benlik
▁Bob
▁türler
yet
▁tüketimi
▁silahlı
▁vermesi
▁ülkeyi
▁götürdü
▁anladık
▁kusursuz
▁şehrinde
▁ekstra
▁kaynakların
▁giderse
gü
▁Kral
▁düşünmeyi
▁adlandırıla
▁düşme
▁yönden
▁Yan
nizle
▁keşfettim
▁temeli
▁fiyatı
ğım
▁kurumlar
▁öğretmek
▁topu
▁kapat
▁izledi
▁ortamı
▁yapabilirler
▁fa
▁yazılı
▁yapmakta
▁sevdiği
▁taşındı
▁düşünecek
▁sigorta
▁uyu
▁öncü
ana
▁ilişkileri
▁harcadı
▁hapishane
▁yaraya
lıkla
▁zehir
▁etmeli
▁bahsetti
▁cevaplar
▁tasarlamak
▁mısır
▁çarpışma
▁Devam
▁sorunumuz
▁odaklanma
▁bittiğini
▁yollarda
▁bireylerin
▁bilişsel
▁evrimin
ğini
▁dönüştür
▁buzun
▁renkler
▁fotoğrafta
▁avcı
▁Veri
▁diyebilirsiniz
▁kurar
▁göstermeye
▁yüzeye
▁çıktığını
▁uzaya
▁edebilecek
▁ağaçları
▁yargı
▁duyan
▁bekliyor
ıl
▁ülkeden
eri
ümüz
▁yarış
▁hatırlıyor
▁yetecek
▁yapabileceği
▁hakikat
▁hastası
rayı
▁belge
▁yayılan
▁lu
▁onda
id
▁bozuk
▁trans
liğinde
▁internetin
▁çalışmasını
▁tedavisi
▁örnekte
▁programları
▁To
▁Japon
▁iyimser
▁sunma
▁ilaçların
▁şirketin
şi
mizle
▁kompleks
▁birbirimiz
▁PM
▁Rio
▁düşünürsek
▁uğraş
▁slayt
▁devrimi
▁konuşmanın
▁yollarla
▁gösterebilir
hattan
▁ilgiliydi
▁getirmeye
▁denedik
30
▁ölçek
▁anlatan
▁uyan
▁gittiği
▁gidiyorlar
▁inek
saydı
mekte
▁artışı
▁anlıyorum
sh
▁yaptığımızı
leyip
▁yakalanma
▁aptalca
▁yaşı
▁CEO
▁hayatları
▁atar
▁oluşturu
▁tuttu
▁mısın
ad
ayet
▁söyledikleri
▁Robert
▁eğitimin
▁sebze
▁miktarını
▁duyduğunuz
▁varsayım
▁rica
▁balıklar
▁yayıldı
▁ihtimal
▁kalırsa
▁olayların
▁yaşa
BI
▁Enerji
▁sent
meyeceğim
▁yaşayacak
▁detay
▁üretilen
▁Kanser
▁yöntemleri
lerimden
▁uygulamaya
▁düşünüyorlar
▁istediklerini
▁eyalet
▁başladığımız
▁içeriği
▁kasaba
▁Kay
▁gerekmiyor
▁gezegenler
▁İz
▁halini
▁zordu
▁yaratacak
▁bitkilerin
▁foto
▁sisteminde
▁Cha
▁çalışabilir
▁toz
syon
liler
▁okumaya
▁Eg
▁davranışlarını
▁benzediğini
▁bakıyoru
▁vadeli
▁yazdığı
▁Nobel
▁geçirme
▁insanlarda
▁protesto
▁kurum
▁seviyey
▁fikrimiz
for
leştirme
▁ilgileniyor
▁yaramaz
▁kültürün
▁birbirimizi
▁söyleyin
▁bitti
▁iskelet
▁bel
▁öğrencileri
memiz
▁sonuçlarını
▁ileride
▁Merak
▁sorma
▁çalışı
▁gideli
▁yönet
▁hareketin
▁varken
▁Korku
▁yerdir
olog
▁finanse
▁sistemimiz
▁sinema
▁sayıları
▁fotoğraflarını
▁emekli
▁sız
▁tarayıcı
▁motivasyon
▁uzağ
▁grupları
▁toplumlar
▁desteklemek
▁Yer
▁söyleyecek
▁kullanımını
▁gelişti
▁sağlay
▁oldugu
▁fikrine
▁yıldızların
▁öğrendiğimiz
tör
▁attı
▁sar
▁nöronlar
▁Oysa
▁karşılaştırma
▁tümüyle
▁başlattı
▁arayı
▁nedenini
▁bırakıp
▁zorla
▁kullanıldı
▁paket
▁Ro
▁pozisyon
▁hikayem
▁195
▁ekonomisi
▁bakıyorsunuz
▁profesör
▁dikkatini
▁bebeğin
▁cidd
▁dönüşüyor
▁oluşturduğu
▁sınıfta
ırken
mayan
▁faydası
▁dönüştürmek
ıldığı
▁Mc
▁yolculuğ
▁vb
▁hayatımız
raf
▁fotoğrafını
▁çıkmaya
▁çıkarak
▁kalması
$
▁virüsü
▁görmedi
▁Devlet
mayız
▁inin
▁süresi
▁otizm
▁alıyordu
▁MS
▁giren
▁başarısızlık
▁Amerikalıları
▁Tim
▁oluş
süz
caba
▁dizüstü
▁eksikliği
▁sınırlar
▁konuşur
▁kutusu
▁etkilerini
tme
▁azalma
▁maddi
▁endüstrisi
▁esnasında
ydık
ladık
▁istey
▁26
▁haritasını
▁hareketini
▁duyguları
▁muyu
▁has
▁Sistem
▁resmini
lma
▁üye
▁Ara
ach
▁müziğin
▁hapse
▁öğretiyor
▁çalışanlar
▁deprem
▁başlarında
▁diyen
▁and
▁koşu
▁yapmalı
▁Gand
▁platform
▁işlemi
▁favori
▁sezgi
▁bekle
▁düşündüğü
▁hesab
▁başların
▁bilme
▁güce
▁kısıtlı
lamaz
▁katılım
▁hayran
▁ürettiği
▁etmedi
▁konuşmamı
▁hatırlar
▁boşluğu
▁atmosferi
ih
▁çarpma
▁GSY
▁verdikleri
▁Kutbu
▁Vi
▁kuyruklu
▁buzul
▁sinyalleri
▁ekibi
▁Wi
▁diyalog
▁terörist
mamız
▁götürüyor
▁somut
▁Yerel
▁em
▁şehr
▁pound
▁üyeleri
▁Gün
▁olmasaydı
▁şebeke
▁donanım
ince
zerinde
▁alkış
ris
▁hızda
▁sorduğum
▁yapardı
▁yaklaş
▁uy
▁dön
▁silahlar
▁Güvenlik
▁tamamını
▁gözü
▁hükümetin
▁kanat
▁Street
▁Bankası
▁söyley
▁Ak
▁olmasın
ny
▁sağa
▁kumanda
▁konuştu
▁özür
▁uzmanları
▁eşitsizlik
▁oynay
▁formu
▁İtalya
▁köyde
▁benze
lüyor
klerini
▁önyargı
▁travma
▁okullar
▁Vadisi
▁Kültür
▁kâr
▁bilinir
▁referans
▁yıla
zdan
▁olasılık
▁çalışmıyor
▁Bakanlığı
▁severi
▁33
▁sade
▁seviyesini
▁belirleme
▁geçirdik
▁diyet
▁enteresan
▁ümit
▁bağlaya
▁aynısını
▁türünü
▁kimi
leştiren
▁Fikir
▁radyasyon
▁algoritma
▁kelimesini
▁hükümetler
▁dağıtım
▁olağan
▁95
▁Alan
▁işgal
▁uğraşan
▁120
▁700
▁Fizik
▁olanların
▁türün
▁gereksiz
ian
▁tü
▁kurtar
▁politikacılar
wi
▁motive
ligi
▁dedikleri
▁gelirse
leyecek
▁bakımından
▁kalori
▁vücudunu
▁eğilimi
▁azaltmak
▁tanık
▁oynuyor
▁kapasite
çu
▁sığ
▁Dur
▁konuştum
▁yen
sıdır
▁söylerdi
▁yazmaya
▁korumaya
▁şiddetin
▁sebebiyle
istan
▁toplamak
▁sorar
steli
▁mühendisler
▁dersler
▁anket
▁saati
▁bunda
▁oynayan
▁zorundayı
▁karşılaştığımız
▁geceleri
▁diğerlerinin
kte
▁kişilere
▁ormanın
▁pirinç
▁ürünün
▁mühendis
▁görünmüyor
▁modelini
▁çıktığında
▁değiştiğini
altı
▁göndermek
▁çalışanları
▁pompa
▁denemek
▁anlatı
▁tipi
▁sun
▁tavuk
▁kullandıkları
▁Evrim
▁hastalıkların
▁doları
▁diyecek
▁artı
▁kaybetmiş
gide
▁soruyor
▁karıncalar
▁çöküş
▁gecekondu
▁yaşanan
▁yatıyor
▁durmak
▁sok
▁gerçekleştirmek
▁bardak
▁kalktı
▁bırakır
▁felci
▁arabası
▁kafasını
▁bizde
▁800
▁kirli
▁ilgilenen
▁hepimizi
▁İnanıyoru
▁ikincisi
▁akışını
ebildi
ron
▁mesafede
▁keşfed
▁buluyorum
▁yuzde
▁sunu
▁etraf
▁değişken
▁ağırlığı
▁maymunlar
▁laboratuvarda
madan
▁Ortalama
▁filmini
▁yapmaktan
▁başlayı
▁sesin
▁müdür
eşke
▁köşesinde
▁söyleyeyim
▁kamp
▁okuduğum
▁eğitimli
▁kadına
▁gelmeye
▁Geleneksel
▁farkındalık
▁senaryo
▁ayakları
▁kullanılır
▁listesi
▁okulun
▁akıllıca
▁görmeyi
▁yuvarlak
▁uzmanlar
▁me
▁adımı
▁kelimesi
▁Scott
▁günümüz
▁oynat
▁riskli
▁yüzün
▁ilgimi
▁ailenin
▁atıyor
▁moleküller
▁negatif
▁reçete
▁muz
▁beraberinde
▁bölgeleri
▁Sonraki
▁duvarı
▁paralel
▁mutsuz
▁resmin
▁söylenen
▁Özel
▁geçiren
lıyım
▁ulaştı
▁çağında
▁bağlantılar
▁acımasız
▁incelemek
likte
▁aileleri
▁süt
▁tedarik
▁ağaçların
▁ritim
▁kullanılması
▁anlamsız
▁parçaların
▁kaygı
▁tamamiyl
▁diken
od
▁basınç
▁düşündüğünüzde
RB
gar
▁ekosistem
▁üret
▁karaciğer
▁kış
▁belirt
▁olmasıydı
▁işimi
▁bildirim
▁yapıldığı
▁açıldı
▁yenilenebilir
dınız
▁tanım
▁terim
▁gelmesini
▁ilişkisi
▁Chicago
▁Altın
▁Britanya
▁sistemlerini
▁kalitesini
▁ormanda
▁ayni
imize
▁karbondioksit
▁başlıyorlar
▁başlamış
▁ağları
ua
▁belediye
▁fikr
▁çizgiler
ebileceğiniz
▁derim
▁içeride
sindeki
ımızın
▁anları
▁bazılarının
▁Pat
ari
▁geliştir
▁hayatınızı
▁edil
umu
▁ispat
▁sebepten
▁Erkek
▁sinek
▁önemini
▁sürücü
▁araştırmacılar
▁ikisinin
▁Hâl
▁kadını
▁onay
▁gerektiriyor
▁edinme
▁ip
▁millet
▁yürüdü
▁Niye
ry
▁aranızda
▁ederdi
▁şüphesiz
▁içimizde
▁odaklan
▁göreceğiniz
▁davranışsal
▁anlayabilir
▁deneyimler
ğın
▁Aslın
laşıyor
▁Noel
▁çık
▁mali
▁katılma
▁bıçak
▁okyanusta
▁Tarih
▁döndük
▁çeviri
uel
▁elinizde
▁programlar
▁çevirme
▁maske
▁titreşim
▁dilini
▁Ebola
▁kurban
▁güçleri
▁ndaki
▁açı
▁Pro
▁Per
▁güncel
▁odaklı
▁Proje
▁Krallık
dor
▁bulan
alıyorum
▁robotik
▁don
oz
▁Min
▁başladığını
▁sanıyorum
▁izi
▁yaklaşıyor
▁arkadaşlarını
▁hedefi
▁görülme
▁Normal
emeyiz
▁dilin
▁şartlar
▁bayanlar
▁hareketli
▁bağımlılık
▁anatomi
▁şiddeti
▁doz
▁koru
▁meraklı
▁siber
▁çocukluk
▁benzetme
▁çalışmamız
▁Kol
▁bulunabilir
▁gezegenlerin
▁eli
▁dramatik
▁duyduğu
▁ailesini
▁odası
ban
▁Yemek
▁davranıyor
▁kanıtı
▁tekniği
▁çıkarabilir
▁teknolojilerin
▁kaynaklanıyor
▁projede
leşen
▁emniyet
▁Yapı
lendiği
▁öğret
▁Oda
▁ürünlerin
inizde
▁roket
▁söylemişti
▁gezegeni
▁nöroloji
▁Sahip
▁tahrip
▁keşfetti
▁kalkıp
▁tüketim
▁oh
▁beton
▁Ford
▁istemem
▁sorunlarını
▁hatırladı
▁aşamasında
▁açıklıyor
▁özelliklerini
▁yil
▁Biyoloji
▁odak
▁başladığımızda
▁aralık
▁çalışacağım
▁Arka
▁yüzeyi
▁yıldızı
ander
▁yıkıcı
▁liderleri
▁topluluklar
▁ilki
▁İsviçre
▁duyar
▁hakkinda
▁cerrahi
meyecek
▁onemli
▁calisma
mez
▁sag
▁malzemeleri
▁harf
▁büyüklüğü
▁mühendisi
▁etmekten
▁yapacağımız
▁olacaksınız
▁anlattım
▁olasılıkla
▁sormaya
▁çıkmaz
ilmesi
▁ölümü
▁ayırma
▁Wall
▁karşıtı
ğimiz
▁verdiğini
▁davranma
▁alırken
▁Gar
▁kimlik
▁ciddiye
▁giysi
▁yarışı
▁çalışmalarını
▁galeri
▁Hayatta
▁Ailem
▁fena
▁kazanır
▁Der
▁binaların
rı
▁içten
▁verirse
laştı
▁kalanını
▁anlattığı
▁gözler
▁isteği
▁vizyon
▁tat
▁dersleri
▁alınmış
je
▁gelmedi
▁eşi
ladığımız
▁Oyun
▁antik
▁fit
▁hattı
iyordu
▁izleyi
▁Ye
▁kaybetme
▁ilacın
▁tüket
▁kahverengi
▁çikolata
▁üretir
▁maalesef
▁verilere
▁hayatımızda
▁seçimi
▁programcı
▁telif
▁Afgan
▁becerileri
▁gibiler
▁ekledi
▁Yunan
▁düşündüğümüzde
▁biten
▁konunu
Y
▁konuşuyordu
▁Av
▁yüzeyinde
▁gönderdi
▁Silikon
larak
▁gönderiyor
▁Don
▁pro
▁sıradaki
▁gittiğimiz
digim
▁becer
yorsunuz
▁boyut
▁çarpı
▁ödün
▁türlerini
▁Hızlı
▁azalıyor
▁bulunmakta
▁yoksun
▁birşeyleri
▁öldürmek
▁arkadaşların
▁ruhu
▁paradigma
▁tartışmalar
▁izni
klarını
▁Çocukların
▁yürüme
▁batarya
ll
▁uyuma
▁aleti
▁am
▁ilave
▁tarafına
▁izleyici
▁alabiliyor
▁aradı
▁alabilme
▁hikayelerini
▁kesi
▁trajedi
▁sesli
▁umudu
▁ilerleye
diğinizde
▁Stanford
▁seçmek
▁tabiki
▁kaldırma
▁hita
▁elinizi
▁Smith
▁fotograf
▁başladığında
lıkta
▁piyano
şık
▁Bor
▁görülmemiş
yapabileceğimizi
▁aldığını
▁Herşey
▁Eric
▁Ray
▁ailelerin
▁vermişti
▁eğit
▁MR
▁bağlamda
▁genler
▁yardımıyla
▁nerde
▁yapıları
▁rüşvet
▁inanan
▁geldiğimde
▁yaklaşımı
▁saha
▁co
▁uçağı
▁yaşay
▁Jo
▁Yavaş
▁Mac
▁İsa
▁avantaj
▁keşfi
▁kırılgan
▁ölç
▁maliyetini
▁28
umun
▁bazılarınız
▁lisede
▁annemin
▁ma
▁gercekte
▁hani
▁Iste
▁geçirir
▁doların
▁aynısı
▁Wa
▁oluşturabilir
asyonu
▁eşitlik
▁seti
▁Ab
▁eşcinsel
lenmesi
▁kaçma
▁ayrılma
▁adamların
▁işle
▁aklımda
▁tutkulu
▁etmem
ilir
▁yaradı
▁fırtına
▁sopa
▁dönüşür
▁ulaştık
▁akışı
▁biçim
▁sahipsiniz
▁sentetik
▁uğraşıyor
▁kazanç
▁masada
▁okuyor
▁kaldılar
▁alırsa
▁varlıklar
▁zorluklar
▁alırlar
▁nota
▁kuyruk
▁çevrimiçi
▁gerçekliğin
▁kaybediyor
▁Atlantik
ırlar
gün
▁ölçekli
lüğü
▁ucu
▁öncülü
▁kendilerinin
▁kalkınma
▁felsefe
▁hayatlarında
▁denizaltı
▁Gülüşme
▁bağlar
▁Demokrasi
ksiyon
▁Car
lendirme
▁bölgenin
▁anahtarı
▁hatırlatıyor
▁soy
▁güne
ğümüz
var
▁katıldı
▁Benzer
▁örgüt
▁rota
▁başlattık
▁yüzeyde
▁Tu
▁robotun
müz
sidir
▁duyduk
hane
▁asi
▁korunma
▁baska
▁boru
▁yiyor
▁görünüş
ından
▁bahsettiğimiz
▁edilme
▁arkadaşlarımı
▁kırıklığın
▁inkar
▁üzücü
chi
▁öbür
laştırıyor
▁işleyen
▁işimiz
▁Ekim
▁Erkekler
▁Genellikle
▁tepesinde
▁fiber
tre
larımın
▁Kongo
duğunu
▁teması
▁tropik
▁enfekte
▁İn
▁konuşması
▁cazibe
▁renkte
▁hiçbirşey
▁hissed
▁Doktor
▁sanatçılar
▁yöneten
▁kurumların
▁takılı
▁Hazır
maları
▁çalıyor
▁tadını
▁gününde
▁hisse
▁deneysel
duğu
▁sayılır
▁çıkart
he
▁büyümeye
ntarktik
▁bölgeler
▁geçtim
▁çektim
▁yayılması
▁jenerasyon
▁genlerin
▁etkiledi
▁ölçüm
▁gerçeğin
▁Projesi
▁tanımlamak
▁otur
rmal
▁düşünmüştü
▁anlamında
▁küreselleşme
▁Dikkat
▁birşeyi
▁kapak
tif
▁enfeksiyon
lenebilir
▁mutluyum
▁akla
şa
▁ö
▁Yaşlı
▁Cit
niversite
▁göstergesi
▁aykırı
▁Örnek
▁yeter
▁türlerin
ood
▁sıcaklığı
▁Bel
▁çeşidi
▁kılavuz
▁güneşin
▁yakalamak
▁yankı
▁sevgili
▁Hintli
▁düşünceler
▁anneler
▁feminist
▁söylüyordu
▁hüküm
▁geçmişi
▁ortamında
▁ger
muzu
▁itibari
▁odasında
▁hastalığ
▁kitabını
▁Okulu
▁banyo
▁zarif
▁aldığınız
▁üçü
▁isterler
lıydı
▁sanatın
▁ekleme
▁analizi
▁koyabilir
▁Belli
▁taze
ıyoruz
ğını
▁iyiye
mar
▁sipariş
▁Bush
▁tanışma
▁geliştirmeye
▁estetik
▁düzine
▁Yazı
▁hareketlerini
dırlar
▁küme
▁bozukluğu
▁Seyirciler
▁ilaçları
▁konuştuğumuz
▁enstrüman
▁katil
▁zekice
▁yararı
yacağız
▁King
▁Dijital
▁bıraktım
art
▁karşılığında
▁evcil
▁görüldüğü
▁karakteri
▁inovasyon
▁gide
▁ülkelerdeki
▁kutlama
▁ettiklerini
▁felç
▁bit
sch
▁şuan
▁yaşımda
▁metro
▁Bilmiyorum
▁parçacıklar
▁liberal
▁uzaklıkta
▁ser
bet
▁alkışlar
▁yükselen
▁edildiğini
▁boyle
▁goz
▁san
▁Lu
▁bilmez
kti
▁memeli
larımızla
▁lüks
car
▁Yahudi
leşir
▁mürekkep
▁donmuş
lamaya
▁değişiklikleri
▁İtalyan
▁toprağı
▁rejim
▁asit
▁tasarlama
▁satmak
▁akraba
▁alakası
▁lideri
J
▁evim
▁kadarını
▁yürüy
▁acayip
▁kelimeleri
▁etiketi
▁görebiliyorum
▁Mükemmel
▁hangisi
▁ellerini
▁ağız
rak
▁miras
▁ölmüş
MA
İ
▁oynadı
▁götürmek
▁toplar
▁dokusu
▁Masa
▁ilgisini
medi
isi
▁getirip
▁materyal
▁kaçır
▁kopar
▁Tıp
▁Oradaki
▁andan
▁büyükanne
▁kent
▁boyun
▁başlaması
▁sizleri
▁genleri
▁Arjantin
▁açıkladı
▁kardeşi
▁Yedi
▁çocuklarım
▁Yardım
▁tükenmiş
▁sırt
▁almıştı
▁anlaşıl
bin
▁kullanılmış
▁AM
▁yolcu
▁yüzme
▁dönük
▁faaliyet
▁kok
▁bulaşıcı
▁Wikipedia
ydik
▁konuşmaları
▁Kişisel
▁edebilme
▁tanıştığım
▁sınırı
yip
▁yaptığında
▁üretmeye
▁Deney
▁çoğunda
▁yaşadıkları
mayacak
laştırma
lardaki
▁arkasın
▁fenomen
▁hesabı
▁gun
▁gram
▁güzelliği
▁fiyatları
▁irade
liyiz
▁ertesi
▁evreni
▁durdur
▁anlamını
▁konuşu
yordu
▁yaşıyorum
▁Günü
▁çalar
▁No
nmeyen
▁yürürken
başı
dığımı
▁duymuş
▁bilmiyorduk
▁alıyorsunuz
▁kalbi
▁denizin
▁soyu
▁Florida
▁Yanlış
ria
▁içsel
▁yasalar
▁sağladık
▁otomobil
▁edilecek
muzun
▁olacağımız
▁çalışmaların
▁utan
▁Cambridge
▁Aşağı
▁çapta
▁yapmama
▁Gene
▁mevsim
▁izler
▁göründüğü
▁interaktif
İH
▁evlerinde
▁düzeltme
▁Aksi
▁satır
▁dağınık
▁gene
▁pişmanlık
▁tutarlı
▁ticareti
▁kızgın
▁Tor
▁örümcek
opi
gan
▁başlıca
▁duymuşsunuz
lanmıştı
emezsiniz
▁enerjisini
▁gök
▁yaşadık
tti
▁düzen
▁açısını
mus
halde
▁bakıyorlar
▁haricinde
▁belgesel
▁davranışları
▁işlemci
▁kuram
▁sessizlik
▁icinde
▁yurt
▁gitmesi
▁biliyorsun
rseniz
lemek
▁evvel
▁sili
▁geçirmiş
▁ölüme
▁çalıştır
▁vatandaş
▁grub
▁Kura
▁kenarında
▁kesme
layın
▁kuralların
▁tekerlekl
▁sever
▁bulmaca
nizden
yarak
gel
▁askerler
▁toprağın
▁ailemi
▁yapıyordum
▁topluyor
ers
▁almaz
▁yararlan
▁değilsiniz
ümü
▁Haziran
▁elimizdeki
▁etmeleri
sinizdir
▁Seyirci
▁atan
laştır
▁korkuyor
▁bilgisayarların
▁ağacın
labiliriz
û
▁yapmalarını
▁saldırgan
emeyecek
▁ayrılmış
▁İspanya
muştu
zo
▁büyü
▁bilgisi
▁halihazırda
▁oluşturacak
▁yerleştirme
▁öldürdü
▁kılıyor
▁sunum
▁bahsetmiyoru
▁yaparım
▁yansı
▁hissediyor
▁bütünüy
▁cihad
▁haliyle
▁yayılıyor
meleri
▁yapmaz
▁dünyasının
▁vardık
▁uzan
leyebilir
▁azaldı
▁şehirleri
▁ar
▁gelişimin
▁bakıyordu
abileceğiniz
▁85
eger
▁karmaşıklık
tığımız
▁Big
▁kral
▁başla
▁arıyor
digimiz
▁aslin
▁yeti
▁aletleri
up
▁dogru
▁çare
▁oranla
▁avantajı
▁arkadaşımı
▁araştırmak
▁değiştirerek
▁Saat
ant
▁bulunmaktadır
▁yıldızın
▁çalan
▁kaplan
▁katılıyor
▁okullarda
▁Halk
log
▁unutmayı
▁görülebilir
▁sesle
▁oluşmuş
▁ısrar
▁hedefler
▁LED
▁öğrencilerim
▁okudu
▁çıkarın
▁bugünün
▁filmler
▁ilerledi
▁baktığımız
▁bü
makta
▁aktar
▁duruyordu
▁çay
▁baya
▁kirlilik
aten
ira
▁to
▁başkasının
acağımızı
▁direnç
▁Nick
▁patates
▁dinle
▁cevabını
▁gerçeğ
▁yapıyorsun
▁gec
kta
▁muayene
imizde
▁sistemimizi
▁Brown
▁Bell
▁parası
▁cömert
▁bağlantısı
▁Müzesi
▁ulaşıyor
▁aklınızda
▁aramızda
▁karışımı
▁bio
▁gözüken
▁rahatlık
▁konusunu
ıyordu
▁Mikro
▁Sıradaki
▁arılar
▁yaban
▁tohum
▁gelmede
▁uygulaması
landırıyor
▁kafatası
▁doğmuş
▁bağlantıları
▁devletler
▁Durum
▁hemfikir
▁çoğunluk
manız
▁götürür
▁vasıtası
▁değişikliğini
▁Gates
▁yapamıyor
▁Simdi
▁yaptır
▁motoru
▁kg
lıp
▁siyaset
▁gündem
▁şahane
▁mini
▁şansımız
▁Işık
▁patlaması
rey
▁sanatsal
▁almıyor
▁birimiz
▁zenginlik
▁hic
▁duydun
▁butun
dığımızda
▁beyne
▁Öte
▁uzana
▁sap
▁çabu
▁Gü
▁kültürünü
▁Binlerce
▁eriş
▁Taliban
▁pa
mah
▁toplayı
▁çağdaş
▁bizleri
lmaz
▁konser
▁söylendi
▁altta
▁aldıkları
rt
▁kalmaya
lme
▁niyet
▁esinlen
▁ışını
▁tel
▁yılan
▁yaratıcılığı
▁Matematik
müştü
landığını
▁Kendimizi
▁çıkardığı
▁yazılımı
▁bozulma
▁işkence
▁yüzen
▁arkadaşlarımız
▁erkeklere
▁geçebilir
▁Bron
▁ekipman
▁formül
▁hayalim
▁hayvanı
▁For
▁seçeneği
▁Doğrusu
▁çeviriyor
▁w
▁yerdeki
▁biliniyor
▁televizyonda
▁finans
▁geliş
▁adamla
▁interneti
▁etmenizi
▁şeffaf
▁hatalar
▁şempanzeler
▁istihdam
▁yönetici
▁kağıdı
▁kanıtlar
▁yönetme
▁bul
▁Inc
▁yerleşim
▁kullandığım
▁Kişi
▁gençlerin
rest
▁Sor
▁yüze
▁yabani
▁sistematik
▁sü
▁yozlaşma
▁mahkeme
▁çektiğim
▁fotoğrafçı
malısın
▁Olay
▁Tony
▁sahil
▁dönemi
▁gömülü
▁yaşayabilir
▁kodu
▁amaçlar
▁tasarladı
▁riskleri
abiliyoruz
▁özünde
▁Hristiyan
▁Vakfı
▁Top
rebiliriz
▁Mutlu
▁Şarkı
▁düşündüğünüz
larınızın
▁gelişiyor
▁teker
▁değerinde
▁onlarda
cal
▁nakli
▁katılımcı
▁kaos
▁mobilya
ue
▁mor
▁Sistemi
▁geçtiği
▁savaşmak
▁edebilirim
▁geçirdiğim
▁sözleri
▁uyuyor
▁org
liydim
▁Tak
▁inceliyor
▁ünite
▁korteks
▁açıklaması
▁olmamızı
acaktır
▁isteme
▁seksi
abildi
▁makineleri
▁silahları
▁bahsettiği
ang
▁Ödülü
▁üniversitede
▁baktığınız
▁kesim
biliyor
▁bahsetme
▁açabilir
▁etmektir
dığımda
▁sınıfı
▁aya
miyoruz
▁uçar
▁örneğini
▁yetiştirmek
▁ebeveyn
▁Var
▁konuşuyorum
▁detayları
▁denetim
▁başlamada
▁doğdum
▁filmin
▁terapi
▁koş
▁bambaşka
üstü
▁şeyde
▁bulunması
▁bakterilerin
▁Karşı
ss
▁29
▁elli
▁demo
▁yaşlarında
uru
▁konuşuyoruz
▁İzleyici
▁arayan
▁kova
▁etkileşime
▁arayüz
▁pe
net
ılan
▁hastaları
▁Problem
sü
ınızda
▁gittiler
▁Kafa
▁seçiyor
▁eşdeğer
▁oluşturmaya
▁işitme
▁ilgilenme
▁gelme
▁öldürücü
▁mutasyon
▁teknikleri
ınıza
▁Kendini
▁coğrafi
▁yoğunluğu
▁yönleri
▁yolsuzluk
▁Sahra
▁Wal
▁Düşü
▁öldürme
▁korkusu
▁Gana
▁dal
▁güvercin
▁yerleştirdi
▁Jane
▁aklımız
▁kemiği
▁yağı
müyor
▁Ani
▁seçenekleri
▁olanlardan
ıyorlar
▁dizisi
acağımız
▁çıkabilir
menin
▁boşa
▁Filistin
▁ölçmek
▁kolunu
▁bölgesel
▁sırrı
▁kümesi
▁Henr
▁ağırlık
ceğini
▁oluşu
yorlar
▁sistemlerin
▁yüzeyini
▁duman
▁uğramış
▁Bas
▁bulabilir
▁oluştuğunu
▁beynimiz
▁beyinde
▁edebileceği
▁gerçekler
▁Şehir
▁başlayacağı
▁uzayın
amayacağı
erry
▁tema
▁Koruma
▁Hayatımı
▁önceydi
▁başarma
▁olsam
▁şükür
▁duvarın
▁Öğrenciler
▁hissetmek
gat
▁vermez
mıştık
▁solda
▁olurken
▁okun
▁bağlıyor
▁çürü
▁Nihayet
my
▁renkleri
▁muhafaza
▁koştu
▁çaldı
▁başlığı
▁Sanal
▁ş
▁cihazları
▁katılmak
▁bulunmak
▁kişileri
▁böcekleri
▁senede
ası
unuzu
▁hissini
▁bilinci
▁Hal
▁Joe
▁Jeff
ınca
ınız
▁Suriye
▁halı
▁düşünmeliyiz
▁karın
▁diyebilirim
▁gitmeyi
▁hoşum
▁deme
▁Microsoft
▁tık
▁Fl
▁Kev
▁Bey
▁kalça
▁tahıl
▁çekilme
lması
▁Şehirler
▁iyileştirme
▁görevli
▁görünmeyen
▁çevirmek
▁gördüğünde
▁sevdikleri
▁köşede
▁varlık
▁kaybeden
▁sunduğu
▁hayvanın
▁kavramsal
▁Siyah
▁Kızıl
▁sokaklarda
▁bölgelerin
▁yürüyen
▁başlık
▁kavrama
muyor
▁arabaları
▁şarj
▁yetki
▁tartış
▁Ayn
▁açıklamaya
▁beklenen
▁nesiller
▁cadde
▁üçgen
▁canlandırma
▁yakaladı
▁çekirdek
▁ikili
yacak
▁yaratı
▁soyle
▁duymaya
▁vücudu
▁hergün
▁beyniniz
▁talebi
▁kira
lıyorlar
▁gelirler
▁gökyüzünde
▁ömür
attle
▁gösteriyorum
▁şanslıyı
rmak
▁Virgin
▁teşkil
▁kalmaz
▁tabu
▁örtüsü
cılık
▁yayılmış
▁katıl
▁eşitliği
▁hayatınızda
ünüzü
▁söyleyebiliriz
▁işaretleri
▁Mor
▁iyilik
▁yapısal
▁nesneleri
▁bağı
▁Medya
▁Pekâl
▁yaşamını
▁canlandır
liydi
▁temelinde
▁görüyordu
▁çekimi
▁karakterler
▁buralarda
▁çocuğunu
▁darbe
▁haftalık
▁azı
▁gündüz
▁tweet
▁mikroplar
▁fırsatları
▁dağıt
tasyon
▁basamak
▁yükseldi
▁Söz
▁maddeler
▁bacak
▁doğuştan
▁ormanlar
ili
old
▁ayırmak
▁ilgilen
▁Col
î
▁görecek
ğünü
▁işçiler
▁Mil
▁derse
▁benzersiz
▁haklar
▁şeffaflık
BC
▁izole
▁başarmak
▁seçenekler
▁Sırada
▁bilerek
▁gerçekleştirme
▁gerçeğini
▁Cam
▁inceledik
▁karmaşa
▁baskın
▁tasarrufu
▁sonlarında
▁ormanı
▁bağlılık
▁kuruluş
▁taşıdı
▁numune
▁penguen
▁proteinler
▁bilgisayarı
▁uğultu
▁ge
▁193
▁hasat
▁göründüğünü
▁Okyanusu
▁dayanan
▁molekülleri
▁disk
▁Nor
▁zorunlu
▁redded
▁lezzetli
▁Berlin
▁yunus
▁aldatma
▁origami
▁beklentisi
▁koruyor
emiyor
▁toplumların
▁yetenekler
▁Dün
▁kablolar
cıları
cağı
▁yatkın
▁cm
▁umuyoru
&
▁kurşun
▁tuz
▁gore
▁işlediğini
▁bitirdi
▁denemeye
▁akan
▁yerleştirdik
▁uçuyor
▁aksi
luyoruz
meli
▁uzerinde
larinda
siydi
▁faydalan
sinda
vu
▁bulamadı
▁artar
▁atalarımız
▁kaybeder
▁anlattığım
▁bakımı
▁kozm
▁deneyleri
tığını
▁emek
▁Kapı
▁bastır
▁başlı
▁heyecanlıyı
▁karmaşıklığı
▁zıt
▁Düşünün
▁Delhi
▁paraya
▁masum
▁kurulmuş
▁Kur
luğun
mızla
▁inandı
▁mail
▁söylemedi
▁ilgilenmeye
▁esasın
▁raf
▁umutsuz
▁bırakın
▁hareketler
▁çip
▁ivme
▁oynamaya
▁filmde
▁sınırlarını
▁ifadesi
▁zorundadır
▁koşul
▁beyefendi
▁günleri
ladı
▁gittiğinde
▁girmiş
üyor
▁sorduğu
▁arz
▁görülür
▁olsalar
▁yırtıcı
▁sinyaller
laşmış
▁kitabında
ğında
V
mışlardı
▁kır
▁verdiğiniz
▁Gör
etti
▁perspektif
▁pamuk
▁Hollanda
▁it
▁nesnelerin
▁Green
▁psiko
▁duydukları
▁dinler
▁azalt
▁çalıştıkları
▁anlayabilmek
▁Adaları
▁avuç
▁Sch
▁yenilikler
▁şapka
▁terörizm
▁enjekt
▁eğilim
▁yapabilirdi
▁geliri
▁CD
▁Ruanda
▁oğlunu
▁eksi
fu
▁yaratık
▁döngüsü
▁formları
▁almamız
▁fren
▁seviyesin
▁2020
▁Kontrol
▁ileti
▁Avrupalı
▁pil
▁dikkatinizi
▁kanal
▁Devrimi
▁kapsaya
yüz
▁şair
▁yayılma
▁zekâ
▁Arapça
▁kromozom
▁mide
▁tartışmaya
▁öteki
▁söylemem
▁karanlıkta
▁girişimciler
▁Etiyopya
▁yaşamayı
▁fo
▁birisini
▁harcıyoruz
▁gülümseme
▁36
ünün
▁niha
▁Başkanı
ydiler
▁yaşandı
▁manşet
▁mekanizması
atif
▁sıçrama
▁teleskop
▁bilmiyordu
▁Carl
▁solunum
▁arkada
▁sanıyor
▁pişirme
▁yiyecekler
▁ameliyatı
▁çevrede
▁sini
▁uğraşma
ebileceğimizi
▁yoğunluk
▁gökyüzün
▁Nehri
▁durdurmak
▁vuru
gras
ville
▁düşünürsünüz
▁buluşma
facık
▁Nere
▁ömrü
▁öldürüyor
▁hemşire
ğim
▁kurallarını
lıyoruz
▁vazgeçme
▁konuşmasını
▁gelenek
▁ayrıla
▁etkinlik
▁kardeş
▁topladık
▁seninle
▁il
▁doğaçlama
▁odaklanmak
relim
▁yapabilecekleri
▁yanım
▁Bayanlar
▁kaplama
▁tesadüf
▁Telefon
▁Eh
▁belirtmek
▁kafamda
▁savunmasız
▁taciz
▁haberdar
▁beklenti
▁bakıcı
▁ötesi
▁nöro
▁indi
▁bulmuş
▁meslektaşım
▁durumla
▁pas
▁Körfezi
▁akış
▁kullanacak
▁cesareti
▁giderseniz
▁mes
ust
▁d
▁duyulma
▁kodlama
lıktan
ledik
▁olanağı
▁cevapları
▁iyileştirmek
inize
▁kullanacağım
▁gütmeye
▁ışığ
▁konuşabilir
▁restoran
lduğu
▁etnik
▁karşılaşıyor
▁Bazılarınız
▁başkası
▁dediğini
▁internetten
▁değillerdi
▁toplumlarda
▁yönelt
▁bağları
▁gücümüz
NSA
▁eleştiri
▁Nano
▁yatay
▁onar
jen
▁Güç
▁odasına
▁başını
▁çiçekler
▁gitmemiz
tta
▁doğasını
▁hükumet
▁kanunları
▁koşulları
▁Diğeri
▁genişliğinde
▁ormanları
▁şef
▁National
▁Görünüş
▁Yemen
▁içerir
▁başkaları
ledi
▁firması
▁Parkinson
▁sorabilirsiniz
▁telefonlar
▁kaybettik
ğu
▁anlatacak
▁kule
▁Whit
▁etken
▁oksitosin
▁mo
▁Nelson
▁hapiste
▁yılları
▁bilgilerini
indeki
▁Cola
▁Bölge
▁ulaşı
luğ
▁önlemek
▁kampanyası
▁dışkı
▁ulaşır
▁kayak
▁kapatma
▁performansı
lemiş
▁çektik
▁Aralık
▁Gelin
lendiğini
▁düşünceleri
▁tutabilir
▁Dahası
▁Cun
bb
▁yapamaz
▁bizimki
▁Sayı
ladığını
▁depolama
tmak
▁dinleyiciler
▁düşür
▁olsak
▁keşfediyor
▁evre
yl
▁kısmının
▁bakışı
▁Çince
▁şov
▁görevlisi
▁hayatınız
▁tsunami
▁Kah
ğum
▁omuz
rtesi
▁erkeğin
▁karşın
▁Normalde
▁sağlığını
▁fiil
▁ilgilenir
▁zamanımız
DR
▁Kaçınız
▁yeteneklerini
▁gerçekleşir
▁İsmi
▁Brad
likleri
▁samimi
▁kası
▁stüdyo
▁seçilmiş
▁Şubat
▁yerleştiriyor
▁yükselt
leştirmek
▁büyüt
▁avlanma
▁çamur
▁anlaşılması
▁yüzeyin
▁teknolojimiz
▁mezar
▁yayınladı
▁engellemek
▁Dediğim
▁jeo
ıyorum
▁saklı
▁maddeleri
▁aracın
▁Dev
ino
iyordum
▁İste
▁Yaptığım
mişlerdi
mazlar
▁spesi
▁nehrin
▁varmak
▁obezite
▁bitirme
▁akımı
▁Yok
▁dönüştürüyor
▁bilmediğimiz
▁görelim
▁detaylar
▁niyetli
▁mantığı
▁korsan
▁mirası
▁dilinde
▁eser
▁almadı
▁başlangıcında
▁Örgütü
▁yarıya
▁hatırlama
▁dilim
▁gitmedi
▁taşıyıcı
▁ekranın
▁kuvveti
ebilecekleri
▁Dağı
▁GSM
▁yerleştirmek
▁dağın
▁Norveç
▁çaresiz
▁objeler
▁yaramıyor
▁Ham
▁ağa
▁denklem
▁cinayet
▁düşünüp
▁profesörü
▁arkadaşlarınız
larınızda
▁gereklidir
▁sağdaki
▁vermiyor
rah
▁Brun
▁dövme
▁görmüyor
▁levha
▁yarattığımız
▁ölçer
▁halkını
▁soracak
▁ekonomisini
▁matematikçi
▁takdirde
▁ölecek
▁düşünürdü
▁Muhamm
▁belirsizlik
▁küp
▁Ticaret
▁gerçekleri
▁ilerler
▁zamanımızı
▁Coc
▁yaşamlarını
▁sil
▁arabaların
▁olduğunuzda
▁uçaklar
▁geldiğimiz
▁sahibim
▁çağda
▁Es
▁olmazsa
▁taşları
▁yerdi
▁yapılma
▁ötede
▁asılı
manın
▁elektron
▁yıldızları
▁tanımlayan
umuzu
▁hey
▁seven
▁Hill
iyorsunuz
▁şe
▁boyutunda
▁etkileyecek
▁Ken
▁kulübe
▁yolculuğun
▁transfer
▁ulaşması
▁sorabilir
▁Yıl
▁ülkesi
▁geldiklerinde
▁güzeldi
▁zira
laşır
▁savaşçı
▁Acı
▁Gidi
▁kabullen
▁Ortak
▁götüren
ımın
▁aydınlat
▁kalmıştı
▁uçuşu
▁dinin
▁verilmiş
▁seçimleri
▁aradım
▁nu
▁fikirle
▁üzgünü
▁babasını
▁seferde
▁anlamayı
▁eğitmek
▁sezgisel
▁Rob
▁Jack
▁gösterdim
dilerim
landığında
▁aslı
▁Yapa
▁durdurma
▁verilerini
▁bayrak
mur
▁Şili
▁görevler
▁ölür
▁iletişimi
larımla
▁ağzı
▁diyorsunuz
▁Şirketler
▁anten
▁prensibi
▁sizde
aş
▁insanoğlunu
▁hayalini
▁bakmayı
▁katlı
▁konuları
▁çizme
▁olaya
▁hayattaki
▁amacım
▁tercüme
▁seçtik
▁solu
▁zorlama
▁gayri
▁Profesör
▁sınav
▁çiftleşme
▁olmayacağı
▁Makine
▁cezası
▁Demokrat
▁sizlerin
▁borsa
ebilmesi
▁kurula
▁Brian
lim
▁kavramlar
▁ayıran
▁edeceksiniz
▁federal
▁faktör
▁mahallede
▁ettiğinde
▁çember
▁artması
▁elit
▁gezin
▁doğrusal
lidir
evi
▁inci
▁Batılı
▁kuşların
▁uygulanabilir
▁Bayan
▁Singapur
▁düşünürüz
▁düşünmenin
▁asal
▁duyacak
▁enstitü
▁yönlü
▁Josh
▁Merkez
▁aylar
▁Grön
▁çevrili
▁sıralarda
▁Lester
▁öneri
▁ulaşan
▁Aşk
▁SW
▁versiyonunu
▁sivrisinek
▁Sekoya
`
▁çıktılar
▁koşullarda
▁tanımlar
▁çözümün
▁amaçları
▁katıldım
▁kamyon
▁anlayan
▁görüldü
eb
▁çarptı
▁Dışarı
üş
lamazsınız
▁unu
▁Aristo
▁hiyerarşi
▁ağını
▁çıkardığımız
▁bireyin
▁parçasıdır
berg
▁geleni
▁42
▁beklemek
▁payı
▁programını
uza
▁seyler
▁sizce
▁arttırma
▁çalışmış
▁dörtte
▁ad
▁Ter
▁getireceği
▁delikler
leridir
▁edebilirdi
▁geçmeye
▁Medi
▁Watson
▁Sekiz
▁müzisyen
eşlik
▁aklınız
▁Tanı
▁Okulda
▁kadınla
▁bozucu
▁sembolü
▁değişimler
▁dindar
▁koro
▁bağlanmış
▁lanet
▁Sir
▁paylaşacağım
▁keçi
▁yolculuğu
▁araştırmayı
▁öncelik
▁öğretir
▁Yaptığı
▁eklem
▁videoda
▁yerlerin
▁Elektrik
▁çalışırı
▁Bat
▁gözünde
▁harfi
▁bilgisayarda
▁hatırlay
▁kül
▁paylaştığı
▁tarzda
▁kafam
▁Bangladeş
▁kavuştu
▁kaderi
▁makul
▁gördükleri
▁öldür
▁sözlük
ografi
▁içindeydi
ımızda
▁kullanı
▁Olan
▁Che
▁hatası
ucu
liyim
▁geni
▁bildikleri
stik
▁Sha
▁opera
▁resimlerini
▁bulmayı
tis
▁tüp
▁hikâyeler
ırsınız
▁güçlerini
▁atın
▁kürek
ılacak
▁deneyin
▁bebeği
▁gönderir
▁çalma
▁yapacaklarını
▁düzeyinde
▁salgını
▁virüsün
▁değişmesi
▁netice
▁emeklilik
▁yaşını
▁sayısal
▁parazit
▁genomu
▁Tur
▁olmamalı
▁kazandığı
▁Okyanus
gra
▁sorumluluğu
▁Soğuk
▁Steven
▁takma
▁atlama
▁Detroit
▁gideceği
▁Titan
▁vadi
▁organlar
▁toplulukları
▁yapılacağın
▁yeteneğin
▁Sabah
▁edeceğini
▁karşılaş
▁metan
▁astronomi
▁inceley
▁dördü
▁birbiri
▁Charl
▁dönecek
▁doktoru
▁getirerek
▁gayret
▁peynir
bar
▁taşıy
▁Mayıs
▁sözleşme
▁matematiğin
▁şunlar
▁yönel
▁Pri
saydık
▁kuruluşları
▁Kolay
▁Somali
▁bağlama
▁yaya
▁kay
▁isimleri
▁başlamalıyız
▁Par
▁hi
▁bilime
▁kristal
▁olanın
yacağını
▁bulmamız
▁Vietnam
uğu
▁sorgu
▁geçin
▁mikrofon
▁zamanları
▁basladi
▁duyulan
▁Beynin
▁mutluluğu
ment
eceksiniz
▁Port
▁dalgalar
▁gergin
▁modelleme
▁kalabilir
▁tişört
▁kurtardı
▁gezegenimizi
▁döv
▁durumları
▁gitmiyor
▁izleri
▁direnci
▁sebeplerde
▁yeraltı
meden
▁okuy
▁şanslıydı
▁klişe
▁sorgulama
▁Akıllı
▁belirlemek
▁yönlendirme
▁ayağı
▁sihir
▁Ek
▁j
▁elleri
▁kaldığını
▁yönetiyor
▁endüstrisini
▁Karanlık
▁öğüt
▁manevi
▁salgı
▁koyuldu
▁merkezli
▁savaşıyor
▁olduklarından
▁götürme
▁diyebilir
▁ilginçtir
av
▁Petrol
▁adaptasyon
▁Cok
abilecekleri
▁ailelerini
▁evler
▁göstermişti
▁ihlal
zun
▁işlevsel
▁çocuğum
▁sevme
▁şeylerde
▁zorlukları
▁Öğretmen
▁sürme
▁umursama
mıyorlar
▁hük
▁kaldırmak
▁düşündüğünü
▁48
▁isimlerini
▁Gri
▁ulaştır
▁aklında
▁bakmanız
▁yazmıştı
▁taraftaki
▁ayrımı
▁evrimi
▁gittiğinizde
▁sorusunu
▁hissettiğim
▁sorununu
▁sağır
sler
▁İncil
▁cennet
▁lamba
ıldığını
kür
▁istiyorsun
list
tt
▁koltuk
▁röntgen
▁deneyimleri
▁okyanuslar
▁iPod
▁yerindeki
▁değin
▁bayılıyoru
▁riskini
▁kayıtları
▁Sonsuz
▁müdürü
▁çapl
▁Kendimiz
▁yaptığımızda
▁eğim
▁ot
▁klip
▁yakıtlar
▁molekülü
▁Kaide
▁Bali
▁inşaa
▁varoluş
▁2002
▁kabullenme
▁ayrım
▁döndüğüm
▁uçakta
▁bulunduğunu
▁görüyorlar
▁temizlik
▁hissetti
▁Sıfır
▁Fazla
▁taksi
▁isyan
▁neresi
sünü
▁Star
▁Şurada
▁politikacı
▁destekliyor
▁soldaki
▁kameralar
▁görünebilir
▁Cas
▁verebilecek
▁fevkalade
▁bakılır
▁Kulağa
▁çevresindeki
▁sentez
üs
▁kültürler
▁gor
▁diger
▁pili
▁beynimizi
▁miktarlar
▁mikroskop
▁anlaşılır
▁harcay
▁medeniyet
▁eğil
▁değerlerini
▁Şirketi
▁paylaşım
▁sistemde
▁kurabilir
▁yerleştir
▁öner
▁şüpheci
▁erkekleri
▁yöneticisi
▁birleştirme
▁okuyan
▁Çinli
▁açacak
▁edilmişti
yer
▁gününü
lerimin
▁izledik
▁bekledi
▁hakkını
elanda
▁ürkütücü
▁yayınlandı
▁rolünü
▁bıraktığı
▁uygulamaları
▁Pen
▁sayılmaz
▁unuttu
▁ihtiyaçlarını
▁pop
▁başlama
▁Kas
▁aktarma
▁midir
▁yem
ktir
sün
▁katmanı
▁inceler
▁petrolün
▁aşina
lediğimiz
▁Model
est
▁üstündeki
▁farkli
▁bilirsin
▁görmüştü
▁aktiv
▁alabiliriz
▁yaşan
▁kullanabiliyor
▁Dışarıda
▁kastediyoru
▁bulgu
▁filan
▁bilmeniz
▁sahi
▁Dış
▁askerleri
▁vatandaşlar
larıdır
▁dibinde
▁satan
mun
▁yaradığını
▁teknikler
▁William
miyorsunuz
▁uçma
▁krizini
kalı
▁Bina
▁Türkiye
▁eserleri
▁içindi
▁bulunduğum
spa
▁dinleyici
▁içer
▁kullanmış
hol
▁Homo
▁Hedef
▁nerdeyse
bay
▁otuz
olly
▁şartları
▁oyunlarını
ty
▁burun
▁Leonardo
▁EM
▁Tesl
▁damar
MS
▁çekin
▁sürecek
lüğ
▁Yol
▁prensip
▁güvenme
▁zorundalar
▁tanımlıyor
miyorlar
▁350
▁inandığım
▁Mesele
▁boyunda
▁araştırması
acağınız
▁teorik
▁bahsed
▁Günde
▁şerit
▁44
layabiliriz
tum
▁Patlama
▁oluşumu
▁bilimci
▁Robot
▁izlemeye
▁Nefes
▁sakat
▁Hans
▁makinalar
▁kuruldu
▁dönüştürebilir
▁iskeleti
▁ağların
▁çalmak
amazdı
▁etrafımızdaki
▁köken
▁sürer
▁sembol
▁reform
so
▁aslın
▁kapatmak
▁ruhunu
▁Yaptıkları
▁boy
▁giyme
▁yapabileceğim
▁aktivist
▁değiştiri
▁üstte
▁ebeveynler
▁çalıştığınız
▁yorumlama
▁geliştirir
▁hoşlanma
▁temsili
▁durak
gram
▁çektiği
▁War
▁veriyordu
▁belirler
▁kıyafet
▁sözcük
ildiği
▁Nik
▁kumaş
▁Yeteri
▁böceği
▁eklemek
bü
▁çeyrek
▁dönüştürme
▁genişleme
▁ettirmek
▁çekmeye
▁Kendinizi
▁şunun
▁bacakları
ğınızda
▁bağlamak
▁sa
▁Cal
▁portre
▁köpekler
▁görüntülerin
▁kadarı
▁bitiyor
▁Sev
▁Derin
▁çağın
▁olduğuyla
▁makinası
▁görüşlü
▁Anti
▁istatistikler
▁verirler
▁yapıda
▁çıkarmaya
▁araçlarını
▁Saray
▁kapsa
▁İnsanlık
▁Bur
▁ikimiz
leştiriyor
▁başarmış
▁yapamayacağı
▁hat
▁kaçın
▁yakınlarında
▁Hawaii
▁taraflı
▁tavır
▁dalgası
▁Başta
▁değiştirmemiz
▁soya
▁yönünü
▁Başlangıçta
▁tutmaya
▁silahı
▁zincirini
▁oranlarını
▁yöntemle
▁olmamı
lduğunu
▁doğma
▁oku
▁Matt
▁başlatma
▁55
▁hevesli
eographic
▁diğerinde
▁fizyoloji
▁AB
▁politikası
▁olmadığımız
▁üretti
▁şansınız
▁dirençli
▁olmadıkları
▁başımıza
▁asansör
▁kraliçe
▁olmamış
▁entropi
▁İlaç
çüncüsü
▁vermedi
▁kil
▁Linu
arası
▁adlandırdığımız
ling
▁Tanzanya
▁ını
lacağını
▁konuşalım
▁götürü
▁usta
▁vazgeç
▁harcıyor
▁kala
▁söyledik
▁uygulan
▁Seçim
▁verimlilik
▁sağlamaya
▁eşittir
▁kisi
gre
▁kuramı
▁mülk
▁icadı
▁bilge
▁çıkarsa
▁birleşme
▁sokağ
▁lık
mam
▁medyada
▁Tar
▁keşfettiğimiz
▁Yüzlerce
nom
▁simdi
▁tarafinda
▁kucuk
▁Diyelim
▁dönersek
▁yapabileceğini
▁kimliği
▁bazlı
▁gerçekleşmesi
▁Evde
acaklar
▁insa
ation
▁yüksel
düğü
▁organizasyonlar
▁istemişti
▁Hakları
▁bırakan
ğü
▁alacağım
▁anıt
litik
▁robotu
▁II
▁robotların
▁kullanıldığını
leştirilmesi
▁romantik
▁aktör
▁World
eği
▁ipucu
▁başlarsınız
▁kesit
▁sav
▁tükenme
▁sağlıyorlar
▁bat
▁tersini
▁iğrenç
▁yorumlar
▁organı
▁yaptın
▁Hükümet
▁durduru
▁köyün
▁koyan
▁hissediyorsunuz
▁bilmede
▁uygulay
▁göl
▁Teksas
▁şekl
▁turuncu
▁Rüzgar
▁ekledik
▁açılı
▁Şiir
▁hissettiğiniz
▁varsay
ell
▁filozof
▁Du
anlayabilirsiniz
▁hissedebilir
▁kayboluyor
▁gördüğünüzde
▁Ders
▁Yaşa
▁tanış
▁içerisin
▁dünyamızda
é
▁balıkların
abildiği
▁alev
▁kullanacağı
▁beceriler
▁dürtü
▁Bugünkü
ımıza
▁öğretmenleri
▁seçkin
▁adamdı
▁öğretmenin
▁koleksiyonu
▁bizzat
▁fazladır
▁sonunu
▁merdiven
▁gördükleriniz
▁ortamın
▁genetiği
▁yapabilirse
▁kitapta
arı
▁Mur
▁yaşadığınız
▁mülteciler
▁sayfası
▁seçer
▁toplulukta
▁sözünü
▁mecbur
ebildiği
▁alınma
▁annesini
▁şizofreni
▁milimetre
▁dergisinde
madı
▁My
▁sığır
▁oturmak
▁grupların
▁Tunus
▁format
▁beslemek
▁arkadaşlık
▁santimetre
▁görünüşü
▁alınması
▁büyülü
▁zorladı
▁ihmal
▁şefi
▁bilgisayarları
▁açıklık
bat
▁kelimelerin
▁ped
▁Kon
▁ettir
▁zorluyor
▁1930
▁üretebilir
▁ulaşabilir
▁görmemişti
▁Yapmak
▁feet
▁fırın
▁organları
▁gücünde
▁sınırların
▁SS
▁kapitalizm
▁lif
▁birkaçı
▁Neler
▁yapmazsa
▁olmamıştı
▁çözümleri
iv
▁h
duğumuz
▁etmeme
▁gösterdik
the
▁etse
▁teorisini
▁mantıksız
▁şehirdeki
▁64
▁ödüyor
▁arıyoruz
▁Apollo
▁hareketsiz
bit
▁zafer
ight
alim
▁Asli
▁panik
▁Mike
▁şempanze
▁yapılabilecek
▁taşınabilir
▁benimki
▁kilolu
▁ulaşacak
▁alışkanlıkları
▁neresinde
sy
▁Milyonlar
▁yaşlandık
▁ışıkta
▁ekley
▁çevir
▁farketti
▁gürültülü
▁Kelime
▁duyarı
sinler
▁kahkaha
▁sağda
▁yazdığım
▁Git
▁kıza
▁param
▁almaları
▁destekleme
▁ucun
▁araştırmaları
▁tüketiyor
▁fatura
▁buluştu
▁söylemiş
▁IM
▁yazın
▁kaldırıyor
▁düşünürü
▁çizer
▁düşündükleri
▁Hastalık
meyeceğini
▁kelimesinin
▁düzeni
▁hataları
▁kafası
▁tokuş
▁doluydu
▁sağduyu
▁yükseliyor
▁Çoğunlukla
▁Rose
eni
▁mühim
U
▁bilmem
▁kafes
jo
▁düzeltmek
▁ortama
▁ediyorlardı
▁pekço
▁Fakir
▁Hav
▁dağlar
▁tesisi
▁00
▁ürünlerini
▁işlevi
▁potansiyelini
uğun
▁pantolon
▁dayanır
▁deneyimini
▁Düzen
▁Dunya
▁grubunu
▁kurbağa
▁kirlet
▁sars
▁programların
▁yatırımlar
▁Ti
emeyen
▁mahrum
▁tuğla
▁noktalarda
▁kutunu
▁istemek
▁Danimarka
▁basma
▁zamanım
▁ayırıyor
▁dinliyor
▁başlayacağım
ydılar
arth
▁bankacı
liklerini
▁ayakkabıları
▁sektörü
▁trajik
▁sezon
▁yanılma
▁üretimin
▁bahsettim
▁bandı
▁duvarlar
▁gerekmez
▁İlgi
▁diğerinin
▁çiftliği
▁parasını
▁Afrikalılar
▁söylemiyorum
▁Fe
▁Eşim
▁imge
▁bitkileri
▁dolaştı
▁teyze
▁rutin
▁idam
▁Dördüncü
▁du
▁Görünen
▁mahremiyet
▁kaldığı
▁başlat
▁tünel
▁çocuklardan
ırdı
▁cerrah
▁karalama
▁sınırlama
▁Rand
▁dileğim
▁çalışanı
işi
▁paraşüt
▁geldiğimizde
▁eksen
▁Deneyim
▁konuşmacı
▁oto
▁değişimleri
▁hidro
▁paylaştığımız
▁tümünü
▁öğretim
▁anlayabiliyor
▁LG
▁mizah
▁boz
▁karşılaştığım
▁bilgisini
▁geçişi
▁Aşama
▁öğretmenlerin
▁türe
▁biriyim
▁çözebilir
▁edemedi
▁edeceğiniz
▁getirdiler
▁kola
▁unsur
▁değiştiği
▁buğday
▁gezegenimizde
▁doktorların
▁Ağustos
▁olduklarında
▁şirkette
▁dostu
▁randevu
way
▁kaydetme
▁biçimleri
▁nazar
▁dü
▁geleceğimiz
▁uydular
▁çevreleye
▁yatırımı
▁çekilen
▁biziz
▁inancı
▁yemin
▁yo
▁yerle
▁sure
▁giderler
▁birsey
▁Ger
▁Boy
rsa
▁yapılmıştı
▁beslen
▁gelecektir
▁dansı
▁lobi
▁Ted
▁cisim
▁beste
▁yakalama
▁yakınında
▁küçül
▁Long
▁kıyafeti
▁ülkesinde
▁çalışırlar
▁evlat
bur
▁götürebilir
▁bela
▁haz
▁kabiliyeti
▁kalkış
▁hatalı
▁Ram
▁kıyısında
▁cami
atılan
▁yaşlarda
▁giyiyor
▁mutfak
▁yatakta
▁aklı
▁oğlumu
▁söylediğimde
▁hatırlamak
▁toprağ
▁aksiyon
ğr
▁gümüş
▁üretilmiş
▁bıraktık
▁çene
▁birincisi
▁sadakat
▁kibar
▁deyin
▁açıklar
▁değiştirebil
▁vurdu
▁açılan
▁buldukları
▁üretimini
▁Silah
▁atış
▁72
▁Dil
▁Kom
tesi
▁amacımız
▁dinleyi
▁Carolin
▁bahçesinde
▁tadı
tar
▁nispet
▁bölümleri
▁Bildiğimiz
▁üretici
▁garaj
▁yaptığınızı
▁kanunu
▁sosyo
mdeki
▁oynayabilir
▁Pra
str
unuz
▁poster
▁edecekler
▁apartman
▁sis
▁Ad
▁belir
mazsınız
▁Kendim
▁açtık
▁gelirli
▁paralarını
lur
▁şansını
▁sorarsanız
▁Test
▁geçtiğini
▁saçmalık
▁deneyelim
bon
▁düzelt
▁yazısı
▁yapmanızı
▁katlan
▁değişme
▁olabilirim
▁klavye
▁pizza
▁duygusunu
▁Clint
▁bez
▁Sudan
▁kuruluşlar
▁istihbarat
▁kimseyi
fel
▁istediğinizi
▁dönemin
▁çizgisi
▁Öl
▁arşiv
▁yaymak
▁İçeri
▁hekim
▁uzaklaştır
▁suçlama
▁ölmek
▁yapacağınız
▁varolan
▁bencil
▁coğrafya
▁izleyiciler
▁davranışını
▁farketme
▁Disney
▁havalandırma
▁servisi
▁merkezde
▁tanımak
▁görebileceği
▁emisyon
▁oluşturduğumuz
miyordu
▁bilimciler
▁olağandışı
lursunuz
▁neleri
▁etmediği
▁götürecek
▁Lab
▁ortasın
▁turist
▁ekonomist
▁böbrek
▁İnan
▁Şüphe
▁Geçmişte
▁Des
▁köpekbalığı
BM
▁1900
▁yayınlana
▁metabolizma
▁tesis
ooh
▁yarasa
▁Rit
▁pul
▁Hayvan
▁patern
▁RNA
▁tuna
▁konuştuğu
▁girdiğim
▁bağlanma
mıyordu
▁öğreniyorlar
▁ışıklar
▁inceledi
▁dinley
▁temizleme
▁istese
▁elektriği
▁dolaşan
▁kullanmakta
▁yerçekimi
▁şuradaki
▁Evreni
▁Bakanı
▁kaçırıyor
▁Brooklyn
▁Bunda
▁maliyetleri
▁parçacık
▁ayrılıyor
▁tasvir
▁çevreci
▁Yıldız
▁sevdiğimiz
▁dünyamız
▁başlıyorum
▁tas
▁demeye
▁alay
▁anla
ilmis
▁beyninizi
▁beyninde
▁pişir
▁Şaşırtıcı
▁Hepinizi
▁eşyaları
abildiğini
▁dışarda
▁açım
receğiz
▁Gitti
▁duyabilir
▁ateşi
▁saklan
▁çekebilir
▁düzensiz
▁yaklaşır
▁Radyo
▁Con
▁yazıyordu
▁imha
▁evini
▁salonda
▁takıyor
▁Selam
şer
▁yaşım
▁kararlı
▁Johnson
▁so
rin
▁görüşüm
▁gerçekleşme
▁hastalıkta
▁döneme
▁İleri
▁babalar
▁Kır
▁girecek
▁elektro
▁bozukluk
irler
▁bebeklerin
▁girmeye
▁ima
▁destekçi
▁dolaş
lıyordu
▁yapacağımızı
▁Görsel
▁yazmış
▁geometri
lanmamış
abiliyordu
▁örtü
▁temelini
▁atıkları
▁sperm
▁atlat
▁attık
▁alarm
▁çözmemiz
▁suçu
▁dilde
BA
▁inanmayı
▁ipek
▁paylaşan
▁dol
▁içinizde
▁imalat
▁gözlerinizi
▁çoğal
▁kaydetti
▁keşfetmeye
▁atıp
▁kader
▁probleme
▁goru
▁hiper
▁olabilmek
▁elim
▁uzmanlık
▁krizin
▁koymaya
▁kavramını
▁kızları
▁fonksiyonu
▁çalışmam
▁orjinal
▁Şimdilerde
▁patron
▁ödemek
▁demografik
▁edemeyi
▁söylediğini
▁yorucu
▁şeytan
▁dök
▁tuş
▁daral
▁ideoloji
▁bulanık
▁Mich
▁düşmanı
▁Bilgisayarlar
▁izini
▁Elimizde
▁Nata
rop
▁mikrop
▁kast
▁işletmeler
▁gemisi
▁yığını
▁yemeğin
▁yapacağımı
▁frekans
▁bildir
▁tabiat
▁saklama
▁heyecanlıydı
▁başvuru
▁tele
▁unutu
▁farklıydı
▁bitiş
▁balta
▁masrafları
▁arkadaşını
▁geleneği
▁cihazın
lemeye
▁kanalı
▁sö
▁problemlerin
▁mesajlar
▁Life
▁dalgaları
▁gerçekleştirdi
▁Suud
▁We
▁virüsler
▁çizdi
▁füzyon
▁meslektaşlarım
▁balinalar
▁tabanlı
▁dolaşır
▁duş
▁nü
▁uluslar
▁büyümesini
▁berber
▁kodun
▁Konseyi
BE
▁Ladin
▁Arada
▁Libya
▁dokusunu
▁karşıt
▁götür
▁tutacak
▁oluşturuyorlar
▁güveniyor
▁mutluluğun
▁hissettiriyor
▁İst
▁salgının
▁karşılaştığı
▁hacim
▁kirliliği
▁yor
▁etmelerini
uldu
▁inç
▁Atlanta
vo
▁taşınma
▁Polis
▁dönüşü
▁eğlen
▁West
▁yürümek
▁pay
▁görünüyorlar
▁söylerler
lyn
▁hoşun
enler
lesi
uyor
▁Ciddi
▁filmleri
▁yapacaklar
▁boyutları
▁kullandığınız
iyeti
▁ortalıkta
▁hikayemi
▁oluşturabiliriz
▁Br
▁bittiği
▁dolaylı
yabilir
▁grubunda
▁hassasiyet
▁soruların
▁sesimi
▁aktarmak
▁verirken
▁gez
▁Güven
mişler
▁saldırılar
▁dersin
amanla
▁başlarlar
▁ayın
▁okumayı
▁evsiz
▁oturuyordu
ble
▁etkisiz
▁kitapların
▁hazırlamak
▁biç
▁konsepti
kav
▁özenl
▁bugünlerde
▁Seks
▁doldur
▁Kat
▁endüstrisinde
▁yapmamızı
▁bulunmuyor
▁Ata
oto
▁torunları
▁Michel
▁Koca
▁çoğumuzun
▁Res
▁faktörler
sındaki
leşmeye
▁anlayama
▁pis
▁işiniz
▁simge
▁sarma
▁geçirecek
▁kü
▁malzemelerin
▁yaprak
▁ziyan
▁sıkıştır
▁etkilendi
▁gücümüzü
▁oranına
▁tasarim
▁alış
▁geliştirdiği
▁Kop
▁etkiye
ill
▁materyaller
▁engelleye
▁fili
▁figür
ınızı
▁kaybettiği
▁sınıfın
▁koruy
▁Sınıf
▁binalarda
▁eşiğinde
▁gözetim
▁bölme
▁Lego
▁başlıyorsunuz
▁işinde
▁odaklanmış
▁Boş
▁yerleştirilmiş
▁Soldaki
▁gelirdi
▁Akıl
▁kısıt
▁uydurma
▁isteyebilir
▁söylenir
▁yanda
▁melodi
▁tartışmalı
▁geliştirilmiş
▁İnternette
▁beyzbol
▁tepesin
nd
▁uğraşmak
▁dolan
▁Yağmur
▁dönmeye
▁kıyafetleri
▁yolumuz
▁ülkelerini
▁yatır
▁hizmetlerini
▁suyunu
▁değiştirilmiş
▁çığlık
▁Annemi
▁helikopter
▁saldırısı
▁binaları
▁öldüren
▁bulundukları
gie
▁paylaştı
▁uçağ
▁gösterim
▁görüntüy
▁domates
▁yapışkan
▁besleme
▁istemiyordu
right
▁Kür
tığım
▁ormanların
▁odun
▁karşımız
▁dönüştürücü
▁yemeğ
▁bulduğu
▁eşya
lüğün
▁ulaştım
▁olmayacaktı
▁aydınlanma
dol
gor
▁sonda
▁eğilimli
▁alışık
▁ipi
▁açıklayacağım
biliriz
liğimiz
▁havuzu
▁belirleye
▁alttaki
▁yılların
▁arttırıyor
▁sevdiğiniz
▁timsah
▁algoritmalar
▁videosu
▁koruyan
▁kaynaklana
▁kurduğumuz
▁dahası
▁öğrenmiş
▁bileşen
▁alırdı
▁döndür
▁dışa
▁büyümüş
▁bulmalıyı
▁yapamazsınız
▁işçileri
▁farkettik
▁tahmini
▁obez
▁retina
▁lezzet
▁CR
▁Kong
▁ilgilendiren
dra
▁azınlık
▁anlayacak
▁benzediği
▁satıcı
▁benziyordu
▁satıyor
▁evlen
▁kurtul
▁96
kiler
okyo
▁kanunlar
▁söyleyemez
▁canına
▁Cep
▁disiplin
▁etmekle
▁kalkma
▁görünecek
▁hedefleri
▁47
▁doğruluk
▁kullanırlar
▁soluk
▁aradığımız
▁keşifler
▁fakirlik
▁paha
digini
▁Temmuz
▁Hay
▁uygulamak
RA
▁yeteneğini
▁vücud
▁biriktir
▁başlamamız
▁rezerv
▁aşma
▁deliğin
abilmesi
▁görebilecek
şim
▁verebil
▁çim
sünüz
▁Yarın
▁yiyen
▁verilme
▁Endonezya
▁Chi
▁amca
▁mat
bor
▁paylaşmaya
▁acele
rebilirim
▁sorulan
▁içki
▁yaptığın
lmayacağını
düğünü
▁tablosu
▁yapabildiğimiz
▁Davranış
▁yaptığınızda
▁zararsız
ümüzü
▁eğitimini
▁testleri
▁yapabilme
25
▁benzemiyor
▁bedeli
▁hazırlama
▁öden
▁kurbanları
▁salon
▁antibiyotik
▁önemseme
▁Yıld
▁kolon
▁sahipliği
▁sütun
▁vücudunda
▁Çoğunuz
▁kondom
▁sarhoş
▁Adem
▁gelene
▁kalanlar
▁Geçmiş
▁bağlanıyor
▁masaüstü
▁aracılığı
▁monte
▁dinozor
▁seyirciler
kâr
▁yüzyıllar
▁dilek
ent
ograf
▁edemiyoru
▁goster
▁har
neyse
▁Stephen
aktif
▁bölünmüş
▁gözlü
▁imkanları
▁istek
▁Hastane
▁diyeceğim
▁kaçınma
ju
▁gördüler
ildiğinde
▁zavallı
▁kullanıyordu
▁rengini
▁ayakkabılar
▁yapış
▁husus
▁cenaze
▁çıkacağı
▁beğen
▁çizmek
▁Adası
▁formda
▁Kapa
▁yolladı
▁beşinci
▁mektubu
▁derdim
▁kurumları
▁haberlerde
▁kaçınız
▁vücudunuz
row
▁yapmamı
ps
▁ayrıldı
▁gökyüzünü
▁kaçırma
▁konut
▁kuran
likli
tansa
▁planları
▁Snow
▁telefonlarını
▁sözde
▁moral
▁Sky
▁etmektedir
▁görmekte
▁bulutlar
▁penis
▁İkisi
▁tanıdığım
▁ayrımcılık
▁üzüm
lışılmadık
▁900
▁gözlerim
oid
▁Maria
▁Hayatımda
▁ayaklanma
▁görüntüsünü
▁Tit
▁taşın
▁yönlerde
▁ruhsal
▁hepsinden
▁1999
▁esneklik
▁tasarlandı
▁bağlamında
▁dolaşı
▁Ağ
▁önerdi
▁çizimler
▁kuyu
▁engelleri
▁yazarken
▁oluştuğu
▁izleyebilir
▁yeryüzünde
▁açıları
▁hormon
▁testler
▁Mag
▁yaşımdayken
yabilirsiniz
▁balonu
▁gençlik
▁rüzgâr
▁kaçak
▁ücreti
▁Mahkeme
engin
▁uzmanların
▁tasarımcıları
meme
▁düşündüklerini
▁Yolu
▁Öğrenme
▁yedek
ebilirler
▁güneşte
▁organizmaların
▁hapis
▁Parkı
▁şefkatli
▁okyanusu
▁yuvarlan
▁hissettiğimiz
▁aşağıdaki
▁Alt
▁kadarki
▁Fransızca
▁öğrenen
▁Hous
▁teşhisi
▁Sinir
▁Tez
▁oyuncuları
landırma
▁bakanı
▁varlığın
▁içecek
▁ilişkilendir
▁yorgun
▁inanmaya
mıyorum
▁bindi
▁Kamera
▁çözdü
▁inanır
▁190
▁vatandaşı
▁Herşeyi
▁koyacak
▁araştırdı
▁dükkan
▁Air
▁düşmüş
▁açtığı
▁keşfin
▁Satur
▁gezegenimiz
imde
▁mühendisleri
▁parlaya
▁diğerini
▁bulutu
▁kısımda
▁kararları
▁kusur
▁muydun
▁ağırlığında
▁büyüktür
▁kalanında
▁kalmayacak
▁şiddetle
▁sunumu
▁paylaşımı
bes
▁vermemiz
▁koyduğumuz
▁tutkum
▁cephe
abilirdi
▁adamış
▁çarpış
▁oylama
oo
▁ilişkilerini
▁dı
▁sevin
amanı
mışlar
vet
▁gittiğim
▁acıyı
etmek
▁Sıtma
▁açılma
▁yaptıklarında
▁saçları
▁kazandır
▁kek
▁yapamayı
▁kimler
▁katılan
klarında
▁servet
ırız
▁teli
▁planlıyor
▁robotları
▁dağılımı
çiler
▁arayüzü
skop
▁sabahın
▁çizgileri
▁çalışın
▁Başarı
▁anlatıyorum
▁2014
▁uyarlama
▁planda
▁cesaretlendir
▁canlıları
▁resifleri
▁akıntı
▁yoğunlaş
▁seçebilir
▁ipuçları
#
▁fikirde
▁yapıyorlardı
▁kullanmıyor
▁yönetmek
▁polisi
shi
▁balıkçı
ella
▁istediğin
▁pekala
bilimci
▁Çoğumuz
▁çevirir
▁adresi
▁itme
▁gid
▁istasyonu
▁işgücü
lenecek
▁Is
ecekler
▁bulundum
▁birikim
ligin
▁katta
▁tonu
▁hastayı
▁gördüğünü
▁Görme
▁vurgu
▁işit
▁bölgesini
▁kata
▁problemini
dığımızı
▁Etki
▁kartları
▁pazarlık
▁ayrıcalık
▁tutum
▁Öğretmenler
▁çekecek
▁çıkarıyorlar
▁izlerken
▁hangisini
uther
▁Lin
▁Wolf
▁biter
▁ayırdı
▁yazmayı
▁ritmi
▁duyuyordu
▁pazarı
▁sattı
▁sabahı
▁belirtileri
▁entellektüel
▁istenen
▁oysa
▁hesaplamalar
takım
▁çubuk
▁kontrolünü
▁projem
▁geçiyoruz
▁kökeni
▁sayma
▁kom
▁çıkmıştı
▁Tarım
▁Edward
▁sunucu
▁alamıyor
▁Düşünce
saydım
▁olabilmesi
▁Craig
▁başlatmak
▁simetrik
▁kuşa
▁gönderi
▁bozu
likler
bilirim
labilecek
▁Sanıyorum
▁gelişimini
▁düşünürler
rdiniz
▁Aşırı
▁gizlilik
eceğimiz
acaksınız
▁AG
sky
▁barışı
▁engelleme
▁Genom
▁Gülme
▁sensör
▁uzat
▁mana
▁omurilik
▁arayışı
▁atılmış
▁evimde
▁konuşacağı
▁düğüm
▁harikulade
▁Ekranda
▁Yiyecek
▁ettirme
▁konumda
▁yoğunluğunu
▁adımlar
▁aşaması
▁incelemeye
▁tasarladık
▁düğme
▁parçacıkları
▁üzeri
▁Hol
▁göstermeme
▁bahsettik
▁Kolombiya
▁görünme
▁Ol
▁bölgelere
▁güdü
DI
▁kırık
▁yaratabiliriz
▁önerme
▁Dar
▁dizileri
▁Bhu
▁başar
▁tasarımları
▁biçimini
▁tekrarlama
▁girebilir
rasyon
▁kullanıcıları
▁Gol
▁değişmeye
angelo
▁İspanyol
▁parçacıkların
▁mimarlık
▁huylu
▁bilgimiz
▁olabil
▁belirleyici
▁piyango
▁tanrım
▁Alaska
▁matematiği
▁parkı
▁Yunanistan
▁karadelik
▁vaaz
▁tarafın
▁görüşleri
▁eylemi
▁girişimi
▁sevk
▁öğrenecek
▁öğrenmemiz
▁iyiler
▁ülkelerinde
▁yapmıyorum
▁gelse
▁etrafımda
▁modellerini
▁çalışıyorduk
▁kayna
▁birleşimi
▁kaydır
▁karşılaşır
▁açılış
▁kısma
▁ço
▁hasıla
▁verimliliği
▁Bang
▁kafasında
▁uzunluğu
▁espri
▁yakalan
▁torba
▁basar
▁kullanabilme
▁cikar
▁gerektiğinde
▁sıçan
▁Et
▁ayrılır
▁edinmek
▁aklını
▁gecede
▁bilet
▁eyaletler
▁ürettiğimiz
▁koruyacak
▁önleme
▁Yü
▁kılar
şte
▁şırınga
▁kurumu
▁evli
▁yolunun
ülü
▁Sara
af
▁söylemekte
▁dünyasını
▁yetiştir
▁değersiz
▁bilmediği
iydi
▁180
memiş
▁Hy
▁Avusturya
yüm
▁kazandık
▁dişleri
▁hayatlarımızı
▁illüzyon
▁mesajları
▁işimizi
▁saçı
zgünü
▁ışığında
▁civarı
▁uyuş
▁vücutta
▁hazırladık
▁sara
▁seyretti
▁engelliyor
▁mutluydu
▁Ap
▁azala
▁ola
▁poli
ımızdaki
▁neslin
▁günümüzü
▁bahsedelim
▁etkileşimin
▁hemşireler
lamayan
▁almanız
▁karışım
▁iyileştir
▁atıklar
▁akıyor
▁işletim
▁istediğinde
▁görmesi
▁sebebini
▁jeoloji
▁yenileme
▁sunulan
▁damga
▁adlandırılır
rip
▁dönmüş
▁kokusu
abileceğimizi
▁grafiği
▁yapıştır
▁olmamak
▁Pu
well
▁STK
▁artır
▁danışman
klerinde
▁tırmanma
▁memeliler
▁altını
▁tasarlar
▁videolar
▁oyuncağı
▁söylen
▁hayranı
▁sofistike
▁çizgisini
▁hatırlatmak
▁memur
▁vaat
▁She
▁gitar
▁olmanızı
▁ressam
▁â
▁parçasıydı
▁kazanacak
▁eylemleri
▁Değer
▁Aşı
▁bahar
▁keser
▁edebileceğimiz
▁Portekiz
▁şunları
▁Diyor
▁ajan
▁Oy
▁çocuklarınız
▁çağır
▁toplayan
▁gönderdik
▁mitoloji
▁bileşeni
▁topluluğ
▁Söylediğim
▁çocukla
▁oralarda
▁Prince
▁br
▁göstermektedir
▁Lak
▁kaplanmış
▁itici
▁fonksiyon
▁ağlama
▁süregel
▁beklentileri
▁bittiğinde
▁yansıt
▁içgüdüsel
▁becerisi
▁problemlere
▁katında
▁görevleri
▁Emma
▁gösteriliyor
▁görevini
▁kolektif
▁oynadığı
▁yemeğinde
▁atıldı
▁tören
ardı
▁dokuyu
▁direniş
▁insanoğlu
▁gökyüzü
▁kafamı
▁hissetmeye
▁Bab
▁sırtında
▁olmadığınız
▁olasılıkları
▁istiridye
▁sorunla
▁zincir
▁çeşitliliğin
▁SE
▁haberleşme
▁gü
▁konferansta
▁Yukarı
▁elverişli
lendirilmiş
▁ihtiyacın
▁tarafını
▁peri
▁denizde
▁girdik
▁liderlerin
▁ekonomistler
▁üzgün
▁refahı
▁kafe
▁paylaşıla
▁istediğimizi
▁verilmesi
▁Cumhuriyetçi
▁çarpan
▁meclis
abilirim
▁Amaç
▁haritaları
▁asır
vin
▁koşar
▁Sanayi
▁düzene
▁andı
sol
▁astronot
▁Ödül
▁Monter
▁baloncuk
▁Ölü
▁aslan
▁yarasalar
▁tüketiciler
▁nakit
▁sicim
LP
▁üstel
▁Milo
▁hamur
▁çözecek
larınızla
▁meşru
▁Mandela
▁Ortada
▁düştüğünü
▁merkezleri
▁koruna
▁öldüğünü
▁Tip
▁anlaşıldı
▁Kimin
▁43
▁farz
▁tum
▁biriniz
iğe
▁böyleydi
20
▁Milli
▁gönderildi
▁yörüngesinde
▁tabakası
▁çatlaklar
▁büyüklüğünü
▁varan
▁edebilen
▁tırnak
giniz
▁kronik
▁kalir
▁hizmetler
retim
▁paneli
▁düşünüyorlardı
▁insansı
▁barındırıyor
▁yiy
▁konsept
▁Hoş
▁sürüş
▁harcar
▁Din
▁Eş
llah
▁galaksiler
▁muydu
▁İrlanda
of
▁uğradı
▁veriliyor
▁sorgula
▁gözlerimi
▁kırdı
▁kıvılcım
▁listesinde
▁korkuyordu
▁dahilinde
▁prostat
▁araştırmacıları
▁olasılığını
▁Benjamin
▁algısı
▁yemekleri
▁uzaklık
▁Laboratuvarı
▁İhtiyacı
▁Yu
▁fantastik
▁fen
▁komedi
▁gösteriş
▁Köpek
▁Venüs
▁düzeyi
▁söylediğimiz
▁söylüyoruz
▁Hayatım
▁inanıyordu
▁zamandı
▁yüzleri
▁lens
abileceğim
▁getirmiş
▁materyalleri
▁çoğalt
▁rastla
▁Hayatın
ros
▁içimde
▁basketbol
kini
▁etkileşimi
▁Tayland
▁kurtarmaya
▁firmalar
▁yanıtı
▁Philip
▁kullanırız
▁istifa
▁uçmak
▁çit
ulmuş
▁kayı
▁hipotez
ington
▁kanıtları
ktif
▁yanınızda
▁duvarları
▁parmağı
▁numarası
mdi
▁kaybolma
lebilir
▁yaka
mit
▁evlenme
▁toplay
imdir
▁Hayvanlar
▁kutuları
niversitesinde
layabilecek
▁meyilli
▁Sınır
larınıza
▁astım
▁gelebilecek
von
▁farklılığı
▁yazarlar
▁geçerlidir
emin
lamıyor
▁toplumumuzu
▁karşılamak
▁ova
▁deneyde
▁Konuşmamı
ivil
▁mevzu
▁sürücüsü
ladım
▁geçelim
▁düşündüğümü
▁kale
▁okulunda
▁Oyuncu
▁gitmişti
▁canavar
▁reddetti
▁şekillendir
▁bahsetmişti
elişmekte
▁memnuniyet
▁anonim
▁ilginçti
▁olmadığından
▁sayfalar
▁grafikler
▁montaj
▁diğerlerini
▁şaşırta
▁düşürdü
▁tasarlıyor
▁Çocukları
▁baktığı
▁olmakta
▁Haberler
▁aydınlatma
amadım
▁bebeğim
▁dönüşme
ray
▁Elizabeth
▁tasarlamaya
▁üzerimde
▁Hall
▁kutular
▁bedenin
▁maçı
▁kurt
▁toplantısı
▁isteyecek
▁çayır
▁fırla
▁barışçı
▁ölçeği
▁pu
▁saldır
▁Post
▁deneyimin
▁men
▁fabrikası
▁tarafındaki
▁karış
▁güldü
low
▁ölçüsü
▁sınırsız
▁data
▁Tibet
▁adaleti
▁taslak
▁rahip
▁genin
▁psikolog
▁aksanı
▁öldüğü
▁düşündüğümde
▁işlenmiş
▁etmeyin
▁Cuma
▁kahvaltı
▁çukur
leştirir
▁kemikleri
▁Kendiniz
▁kaz
fil
▁AK
▁benimse
▁durağan
▁logo
▁ihtimalleri
rmeliyiz
▁Verme
▁Marc
▁JF
▁hedefimiz
▁pervane
▁çapraz
▁metrekare
▁Op
▁sıralama
▁sembolik
▁asfalt
▁kızıl
▁ettiğimizde
▁İzlanda
▁tuzlu
▁düşü
larini
▁düzenleyen
▁karides
▁taban
▁olduğumdan
▁kuraklık
▁maya
▁haritalar
▁Yasası
▁gözlük
▁hazırlanmış
içi
▁Pete
▁yüklü
▁tarafsız
▁bilgili
▁konuşuyorlar
▁müzakere
▁yararına
▁Fr
▁işaretler
▁kullanılma
▁prosedür
▁vakası
▁bölgeden
▁konuştuğum
▁girişi
▁buhar
▁çözer
▁yürümeye
▁zamanımı
▁kaldırdı
▁çağırdı
▁yakı
bilim
▁heryerde
▁Hukuk
▁taşıdığı
▁yöntemin
13
▁adayı
▁boşlukta
▁büyüğü
▁buluşlar
▁keşfedildi
▁esrar
bro
▁sektöründe
▁Vo
ulu
▁Televizyon
▁karsi
▁97
kac
▁yapamadığı
▁beyinlerini
▁işlev
▁vücudumuzu
▁ünü
▁çorba
▁sayısında
▁harcamak
▁yediğimiz
▁soğutma
▁yavaşlama
dikal
▁birikimi
eceğiniz
laması
▁sektörde
▁Kullan
▁Fas
stan
▁davul
▁görürdü
▁çıkarken
▁yüzüyor
▁pat
▁kurtaracak
▁bekliyoruz
▁inanmıyorum
▁ödülünü
▁getiriyorlar
▁Evi
tion
▁kaçan
▁düşünülen
▁çıkışı
▁Mevcu
▁sağlamış
ebilirim
▁boyutunu
▁ilgileniyoru
▁kayboldu
▁böl
▁Hafta
▁riskler
▁vefat
▁belirliyor
▁aktiviteler
▁takıntılı
▁Lew
▁yükü
▁ebeveynleri
▁çıkıyorlar
▁Ch
▁fan
▁sür
▁açılır
▁Garip
▁yatar
▁Kadınları
mezdi
▁mum
▁bulacak
▁birebir
▁niyeti
▁farkındayım
▁Olimpiyat
▁gözükme
▁Adamı
lduğunda
▁hakaret
▁istismar
▁Hücre
▁Sesi
▁geliştiriyor
▁mantarlar
▁yapardım
▁karşılığı
▁mücadelesi
▁temizlemek
▁toplamında
▁yansıtma
▁şirin
▁şişir
▁önündeki
▁Kök
▁durun
▁sokmak
▁Diğerleri
liyorlar
▁bilinçsiz
▁konuşmam
▁litre
▁Fort
▁çevirdi
▁Çek
▁inanılmazdı
▁uygulayabilir
laştırılmış
▁sıralar
▁inanıyorlar
▁Cevabı
▁çevremizdeki
▁elimi
cisi
salar
yal
▁130
▁Cin
▁galib
▁onlari
▁evlerini
▁projeleri
▁hissettiği
▁plaka
▁süpermarket
▁vurma
▁bilmediğim
▁uyandıra
▁notlar
▁yürütme
▁pazarın
▁Gördü
▁Sarı
▁kestirme
▁edebiyat
▁uzaklaştı
▁Fran
▁davranır
▁amatör
▁gül
▁büyüdüğüm
▁İl
▁kırıklığı
▁Black
▁hikâyeleri
▁asteroid
▁vücudunuzda
▁söylerse
▁anladığım
▁Mesaj
▁edeceğimiz
▁tabak
umuzun
▁tarzını
▁birkaçını
igan
▁hissettiğini
▁adlandırıyoru
▁Suç
▁kılmak
▁Lee
meliyim
▁Denizi
▁takımını
▁artırma
▁duymaz
▁stil
▁ansiklopedi
▁dayanışma
▁süresini
▁yolculukta
▁çocuktu
▁azalması
▁vur
▁SP
▁şifreleme
▁mega
▁severdi
▁dalları
▁olurum
▁öneriyor
▁Nathan
ft
▁tuzak
▁noktalarını
▁çalışmada
rinlemesin
▁Fare
▁evleri
▁Dağ
▁Peru
▁taşıyabilir
▁yapsa
▁videoları
▁dinledi
laştırmak
umuza
=
TI
▁Kamu
layayım
▁Ross
▁ölçme
▁kullanıcılar
▁isteğim
▁sözcükler
▁istiyorlardı
▁öncelikli
▁kayded
▁alıştırma
‘
▁sahası
▁ağac
▁sadık
▁yatırımcılar
▁düşüncesini
ille
▁sistemlerinde
▁geliştirildi
PR
▁koltuğu
▁kitaplarını
▁Motor
illa
▁statü
▁çekili
▁doğduğum
▁balıkçılık
▁yağış
▁ekibin
▁Roy
▁hektar
▁hara
▁barındıra
▁ellerim
▁oturmuş
▁soruyorlar
▁cansız
▁eskisi
isti
all
▁vatandaşları
▁kademe
▁palmiye
▁hacker
▁puzzle
▁iniyor
▁sponsor
▁kökenli
▁Plastik
▁insülin
▁ihtimalini
▁dikdörtgen
▁zihniyet
▁iyimserlik
▁edebilirler
▁diplomasi
▁Meydanı
▁kalmasını
▁geldiklerini
▁kızar
luğunu
▁kasabada
▁problemlerini
▁üretiliyor
▁kaplıyor
ona
▁yöntemini
▁yürüt
▁birleştirmek
▁düşünüyorsun
▁değiştirdik
▁yapılmasını
▁göstermiyor
▁semt
▁korunmuş
ct
dus
▁geçiyordu
▁kütlesi
▁katkısı
▁eko
80
▁arayış
▁ekonomimiz
▁gezegenleri
▁günah
▁olamazdı
▁Hum
▁beğenme
▁ulaşmaya
▁Ele
▁söylemeyi
▁sessizliği
▁kac
▁sarf
▁uret
▁buzdolabı
▁ironik
▁senkroniz
▁işsiz
▁itiraz
▁yaratılmış
▁çalın
mezler
irken
ttiği
▁Barış
▁duyuru
▁yaşadığını
▁getiril
▁attım
▁Blue
▁öleceği
▁dünyalar
▁Lise
▁bilincin
▁geldiğim
▁kadından
▁aşılar
abi
▁biliriz
▁tart
▁muhafazakar
▁yapım
▁yaşındayım
▁Bebek
▁Kitabı
▁zamanını
▁vermesini
▁satranç
▁doğduğu
▁söyleyebileceği
▁devir
▁Anlat
▁hiza
jan
▁yükseklikte
▁MA
▁geliştiriyoruz
▁tanıştır
▁ırkçı
▁tasarımcısı
mayacağım
▁atı
lacaksınız
▁Birçoğunuz
▁yapacaktı
▁sempati
▁sensörler
▁sağlaması
our
▁koşuyor
▁öldürür
sti
▁icra
▁kesici
▁ağrısı
▁omurga
▁bırakacak
▁bölün
▁inceledim
▁öyleydi
▁arkadaşlarımla
▁atışı
▁Kızlar
▁bitme
▁değişecek
▁kuyruğu
▁Emin
▁kurtuldu
▁biyolog
lmüş
▁kurbanı
▁alabilecek
▁maddelerin
▁yetişe
▁kapatıyor
▁girmesin
itler
▁uğruna
▁kul
▁uzanıyor
▁deneyimim
▁kökleri
yacaktır
▁becerikli
▁çıkmasını
▁dikkatle
rim
hoo
▁tanesinde
▁santim
▁Biyo
leştirdik
▁annelerin
▁bişey
▁yiyecekleri
▁salonunda
▁kullanılacak
▁yazabilir
▁yazdıkları
▁düşüncem
▁hâlde
▁arkamda
▁olmayanlar
▁Geniş
▁5000
▁floresan
▁örnekle
▁volkan
▁gelmektedir
▁rehber
▁dolaşıyor
▁Adalet
▁tehlikesi
▁uzaklaş
▁zorluklarla
▁olduğumuzdan
▁imkânsız
▁Sevgili
cular
▁işlemleri
▁üretecek
▁doğuşu
▁faz
tılar
▁Okuma
▁DVD
▁ülkemizde
▁sıkıca
▁yerlerini
▁bilmiyorlar
▁üzüntü
▁içeriğin
▁vali
▁büyüdüğünü
▁inanmıyor
▁düşünmüyor
▁stresli
▁erişilebilir
sey
▁kalbinde
▁manası
▁kardeşimi
▁geçirmeye
▁kitaplarında
▁Geleceğin
▁iner
düm
▁kuvvetleri
▁31
▁haklıydı
▁değişmez
▁takas
▁öğreti
▁kaybolan
▁Andrew
▁sahipleri
▁Er
▁emir
▁yayılır
▁hayalet
▁yemeye
▁yarayı
ladığım
▁atmosferin
▁sivri
▁korktu
▁kaldığım
fasında
▁başlayınca
▁olgun
▁mamut
▁tartışmak
▁olayda
▁etmede
▁gözün
▁taşlar
▁bağdaştır
▁bisikleti
▁Yara
▁atmaya
▁boyutlarda
▁vuruş
▁filminde
kül
▁kitab
▁olmaktadır
▁olamayacağı
cuk
▁bakmamız
▁felçli
▁yayını
▁pasta
▁çıkartma
▁anlamış
▁Çölü
▁hızlandır
utube
▁geliştirdiğimiz
▁Kütüphanesi
▁cehennem
▁uzaklarda
▁savaştı
▁geçirebilir
▁alıkoya
▁Galap
agos
▁kaçış
▁34
▁edenler
▁kemoterapi
▁şeklimizi
▁şaşırdı
▁isteyeceğim
▁kimliğini
OL
▁yapanlar
▁kabuk
▁zorluğu
▁yükselmesi
▁Yaratıcı
▁Ali
▁zamanlarında
▁Parti
▁şüpheli
tığınızda
▁hırslı
▁Karar
▁canavarı
▁hatırlattı
lenmeye
▁tohumları
▁bodrum
▁ampul
▁Lübnan
▁Bert
▁karavan
▁dert
▁ayırı
▁organizasyonu
▁pes
▁karışma
▁oyunların
▁Tazmanya
▁implant
▁diplomat
▁uzlaşma
▁hay
▁silahların
▁güçler
▁güçsüz
▁Gerek
▁192
▁satma
▁Öz
▁kullanın
▁etmeliyim
▁Eyalet
▁Nepal
▁aşılama
ımdan
▁genişliği
▁jet
▁sınıflandırma
▁kabiliyet
▁tasarlay
▁çekiyordu
▁ray
▁isminde
▁birleştiri
▁isi
▁evrimleşme
imizden
▁yaşandığı
▁grafikte
▁üstteki
▁Müthiş
▁söyleniyor
▁ortaklık
▁gösterin
▁telefonunu
▁kask
▁email
▁dolduru
▁FDA
▁vurgulama
▁canlıların
▁göründü
▁şekillerini
▁Power
▁kaybettiğimiz
▁alanındaki
▁geçmesi
▁Pas
▁kazanabilir
▁bambu
▁MRI
meyiz
▁minnettarı
istik
▁kıvrıl
▁yaklaştır
▁döndüğünü
▁hızında
lediğim
dar
▁ölçeğinde
▁edildiğinde
▁sürdür
▁no
ung
▁başkanlı
▁göreve
▁toplan
▁Saf
▁müslüman
▁birleştiriyor
▁farklılıkları
▁Liberya
▁çırp
örü
▁Kasım
▁olmaktı
▁odaklanıyor
amadığı
▁büyükbabam
▁kavanoz
▁bulduğunuz
ary
▁fısılda
▁hissettikleri
▁simülasyon
▁uyguladık
▁sensörleri
▁ayarlama
▁delice
▁devri
zy
▁Tuhaf
▁tehlikede
▁kızılötesi
▁aşan
▁yarayacak
▁tara
▁adlandır
▁öyküler
▁fedakarlık
▁iklimi
off
rizon
▁uydur
▁verimsiz
▁verilir
keley
▁muamele
▁kalbine
▁bot
▁duyabiliyor
▁ömrünü
▁dokuları
▁tüylü
▁laboratuar
▁süreçleri
▁Oğlum
▁Komik
▁şaşırttı
düz
▁gerekliydi
▁okulları
▁formunda
▁kimyasallar
▁adlandırdığım
▁bloğu
▁kabuğu
▁gerçekleştiği
▁yayınlama
▁boyuta
▁şekillendirme
▁gitmesini
▁Kuş
▁iplik
▁kapısını
▁işlemler
▁herzaman
▁Gen
▁General
▁yuz
▁bağlan
▁hayatlar
▁misafir
▁çizdiği
▁havlu
mazdı
▁oyuncusu
▁adamım
gal
▁dönüşümün
▁masraf
▁tanıştık
▁Aralarında
pus
ebilseydi
▁kaplumbağa
▁Wood
▁konuşacak
▁Annesi
▁bilmemiz
▁soracağım
▁Lama
ig
▁siteleri
▁aydınlık
▁Savunma
▁düzenledi
▁olasılıklar
▁etkilediğini
▁üreticileri
▁nüfuz
▁Mozart
▁Not
▁muhabir
▁duyduğumda
▁müzisyenler
▁karıştırma
rası
▁kapattı
▁tavşan
▁Spor
▁koleksiyon
▁bulabilmek
▁yapılmamış
▁göreceli
▁eğiliminde
▁çalışanlarını
▁kuşağı
▁çölü
▁deve
▁Nairo
▁bulabiliyor
▁gözlemler
▁140
▁maaşı
▁yapmadığı
▁kurumlarda
▁yönlendiril
▁Dokuz
▁anlattıkları
▁açıklayan
▁çadır
▁etmekti
ğına
tus
▁Daniel
▁98
▁merhaba
▁girdiğiniz
nter
▁Karmaşık
▁yönetimin
▁soykırım
▁hırsız
▁akın
▁imaj
▁hayranlık
▁zorlukların
▁Kutup
▁şahs
▁edemezdi
▁sepet
▁ihra
▁Beraber
▁takımımız
▁sevmiyor
▁düşüncelerini
▁baskısı
▁ilerlet
▁kabus
▁Jones
▁alacağız
emeyeceği
▁oyunda
▁ihtiyar
▁Aranızda
▁katılmaya
▁anlaş
▁Adım
▁fincan
▁liman
▁büyümesi
zerine
▁olmadıklarını
▁yaramadı
▁sandviç
▁sundu
▁sarmal
layabilirim
▁değiştirdiği
▁kazanmış
▁yüce
▁göremedi
▁Sylvi
▁yaratığı
▁yükseklik
▁Hastalığı
aylarca
▁tümörü
▁hoparlör
▁gitmesin
▁tıkla
▁iri
▁koruması
▁körü
▁Hata
▁çoğunluğunu
▁Kopenhag
▁Bahsettiğim
▁şaşırma
▁Sürdürülebilir
▁Çinliler
▁Isa
▁yıkım
▁Mill
▁ilçe
▁Mah
▁geçim
▁tanımladığı
idir
▁Ru
▁takıldı
▁düşünülüyor
▁Söyle
▁sürmek
▁kuşak
▁düzenlemek
ark
▁dilleri
▁vücudumuzda
▁Arabistan
▁karikatürist
▁anlatıcı
▁ömürlü
▁sektörün
ide
▁Şefkat
▁gördüğünüzü
▁kuzu
▁dinazor
▁çatışmalar
▁anlamadı
▁harcadık
▁Ordu
▁konuşmuyor
▁sokaklar
▁toplulukların
▁tasarladığımız
▁gerilim
▁yetkili
▁örgütü
ıyorsunuz
▁Hiçbiri
▁felcini
▁ulaşmış
▁tahminim
▁ulaşacağı
▁yasası
▁merkezlerinde
▁şehirlerimiz
ound
ranın
▁cevapladı
▁Düşündüm
▁doğrultusun
▁bilgilerin
▁etrafımızda
sina
▁değişmedi
▁Belirl
▁Belediye
▁destekledi
▁sunar
▁karma
▁harcanan
▁silikon
▁bulmakta
▁evimiz
▁ettiğimizi
▁duygularını
▁derecesi
gini
▁Boyle
▁kullanması
▁primat
▁nöronların
▁ettiğimde
▁etmemizi
▁cevabım
▁programın
▁müşterileri
▁gideceğim
leşecek
▁açmaya
▁etraflarında
▁Albert
▁Gal
▁kapa
▁iddialı
▁kaka
▁gerçekleşecek
▁anlaşılıyor
▁hapishanede
▁sürdürüyor
▁başınıza
▁suçlular
▁etmişler
▁kalabilme
▁dönüşümü
▁fabrikada
▁duyur
▁bilmeli
▁söyleyi
▁kolları
▁etkilenen
▁tanıtma
▁keman
▁ödev
▁Yazar
▁Bekle
▁ayaklı
▁yakalıyor
▁çalı
lilik
▁arazide
▁objeleri
▁ailesinde
▁kurs
▁sonuncusu
lir
▁unutmuş
▁açın
▁yazıldı
tay
▁Deri
▁kesmek
mizdeki
▁Duru
▁kurtulan
▁kesiyor
▁Pho
▁tutucu
▁karşılaştıkları
luruz
lduğumuz
▁Ez
lmak
▁mahkemey
▁bilmiyorsunuz
liğimi
▁Kor
▁terimi
▁aklımı
▁yetmez
▁fakirler
▁azaltıyor
▁kısımları
▁varil
▁getirilmiş
▁erişti
▁donanımı
▁ulaş
▁sansür
▁heyecanlandıran
▁Hmm
▁aynıdır
▁vardi
▁yasam
yuz
▁Bati
▁halüsinasyon
▁iskele
▁durduk
▁korkar
amıyorum
▁deyimi
▁zamanların
abiliyorlar
abilirler
ilmemiş
metre
▁göstermiş
▁politikasını
▁doktorun
▁Çılgın
▁yönlendiren
▁Tra
▁heyecanlandı
▁azaltabilir
▁üçüncüsü
▁ödevi
▁burs
16
▁kısımlarında
▁görebilmek
▁umur
▁topları
▁kötülük
▁zihni
▁Free
artmaya
▁kalacağız
▁gitmem
mekten
▁rock
▁yayma
mem
leştirmeye
üst
▁kazancı
▁bahsedeyim
▁başarabiliriz
▁reklamı
▁öğretebilir
hall
▁biteni
▁cilt
▁yazıları
yelim
▁yapabildikleri
▁içerisindeki
▁topluluğunu
▁piksel
▁araştırmada
▁yönlerini
▁ailede
▁kurumun
▁Pal
malıdır
▁ekin
▁panelleri
▁gidiş
amayacağını
▁Aşağıda
▁yapılandır
▁Hindu
▁şeklimiz
▁türümüzü
eğe
▁yüzleş
▁mikropları
▁Johnny
▁Çağı
lmesi
▁öldürüldü
▁çıkıyordu
▁özet
▁domuzu
uri
▁Hareketi
▁tamamının
▁ağaçlarda
▁iflas
▁yaşları
▁lab
▁anlamanız
▁görevim
▁Tri
▁biyologlar
▁yürütüyor
mily
▁kölelik
▁kaçtı
▁vizyonu
▁çalıştıklarını
▁hamburger
▁çete
▁biyoteknoloji
▁katmak
▁leke
▁Nöro
▁kurucusu
▁Temiz
▁Doku
▁serin
▁kitaplarda
▁Mes
▁geleceğim
▁Sierra
▁okyanuslarda
+
▁ortamlar
ise
▁Kep
riz
▁ALS
▁tıbbın
▁fonksiyonları
▁coşku
▁ışınları
▁kaydetmek
▁durumdalar
▁van
▁geçmişin
▁Meclis
▁dinledim
▁Leon
▁taşımacılığı
▁yükleme
▁katılımı
▁Kitap
▁kişiliği
▁ortadaki
▁istemiş
▁alışma
▁TS
▁raporu
▁tutuluyor
▁hissediyordum
▁otonom
▁bilişim
▁Olağanüstü
▁çektiğimiz
▁bilimadamı
▁gelmekte
▁Şehri
▁KA
▁tepkisi
▁bildiğini
▁gezegenlerde
gg
▁ekosistemin
▁karşılaşacağı
▁dilimi
▁parkın
▁Line
▁yüzleşmek
▁israf
▁köpeği
▁deneyimleye
▁1984
▁güçlendir
▁bağlam
▁ıslık
▁Unutmayın
▁demekti
▁hazırlık
▁kavray
▁karada
▁tasarımcıların
RIS
▁komplo
▁Canlı
▁Muhabir
▁tabir
▁adlandırılıyor
▁gitmeniz
▁güvenliğini
▁mayın
▁Gelecekte
▁gruplarını
▁başarısı
▁gidişatı
▁ölümleri
▁hip
▁ishal
▁kazandırdı
▁sürdüğü
▁uçakları
▁taşımaya
▁memurları
ğiniz
▁getirmemiz
▁yürür
bot
▁araştırı
▁vermem
▁Teori
sıra
▁pozisyonu
▁gözlemci
▁seleksiyon
▁kökten
▁Bisiklet
▁Gazze
▁fotoğrafın
▁Geliş
▁süreçler
▁iletken
▁mekaniği
▁Wo
▁fiziğin
▁sorumlulukları
▁tanıtım
▁karakterin
▁Evan
▁zalim
▁dusunce
▁acik
▁Gul
▁Görüntü
▁cik
▁çözülmesi
▁düzinelerce
▁kombinasyon
▁besinler
rsanız
▁önsezi
▁iletmek
▁bağımlılığı
▁alçakgönüllü
▁aradığım
▁düşecek
▁örgü
lıkları
arry
▁Etrafı
▁uza
▁çapı
▁ez
▁sürüklen
▁pozisyonda
binlerce
rd
▁başlatıl
▁getirebileceği
▁May
▁düşünmemişti
▁açılıyor
▁söylerken
▁güvensiz
ilemez
▁odaklanır
▁profili
▁kalbim
▁kırıcı
▁tereddüt
▁şaşkın
amadı
▁cuma
▁akıt
ront
▁bildi
▁eyaleti
▁ebeveynlerin
▁tarla
▁yapımcısı
ER
▁uzaylı
▁basıyor
▁kaldırır
▁Çalışan
matik
▁Louis
▁aracını
▁oturum
▁derste
▁şablon
▁zarf
▁geçeceğim
▁favorim
▁yapımcıları
▁karşılaştık
▁poz
malıydım
▁itiyor
▁rüzgarın
▁bacaklarını
▁oğlan
▁öfkeli
▁muzdarip
▁anladığımız
▁dalgalarını
leştiği
▁rehberlik
▁götürdük
▁pan
▁değilsin
▁vermeme
▁Takım
▁paylaşıyorlar
▁sitesinde
▁önemsiyor
▁aldığında
▁ülkemde
▁salonu
▁operasyonu
▁duyarsınız
▁hissediyorlar
▁aramızdaki
▁Ateş
▁ilgim
▁per
▁bölümler
acakları
▁Bizde
▁manevra
▁çalışırsa
▁mucit
▁Birbirimiz
▁parmaklarını
▁Moda
▁gülme
▁bırakacağım
▁varsayımlar
▁hipotezi
▁tıpta
▁çantası
pal
▁mimarlar
▁Kağıt
lendirdi
▁guzel
▁kasa
▁gorme
▁dusun
cok
▁Bio
zyon
▁teksti
war
▁cevre
▁sokaklarında
▁dişli
▁Kes
▁beşer
ish
▁hazırdı
▁etrafı
▁yılımı
▁salonun
▁kıs
iger
▁Ayı
▁eviniz
▁öğrencilerini
cca
▁Bilinç
▁ölçe
▁söylemiyor
▁taşınıyor
▁lastik
lsaydı
▁nedenleri
▁dönüştüren
▁rastladı
▁dibin
▁sını
▁kurul
▁bağır
▁ağzın
▁işçilerin
▁bazılarına
▁öğretmenim
▁Ruh
▁kombinasyonu
▁genişleye
▁Sovyet
▁gidebiliyor
▁bilgisayarla
istler
▁160
▁37
▁dolardı
▁yerleştiri
▁gribi
▁kaydediyor
▁kesti
▁rekabetçi
▁Etrafta
▁gösterilmiş
▁notları
▁vermeniz
ics
▁46
▁sayıdaki
▁toparlama
▁ayrıldık
▁hastaneler
▁sunan
▁hikayelerin
▁akar
▁dediğinde
▁yetiştiril
▁göremiyor
▁düşmüştü
sıydı
▁Mimari
▁açılardan
▁Carne
▁reçine
▁unut
▁bahsediyordu
▁Elimizdeki
▁kesik
▁kabileler
▁Görüş
▁vuruyor
▁bağımsızlık
▁benliğin
▁koşucu
▁ezber
▁arttığını
▁gösteriyorlar
▁Çocuklarım
▁yağma
▁yerimiz
▁Santa
ttiğim
▁öğretmeni
▁yukarıdaki
▁rasyonel
▁artırıl
▁Van
▁aklımızda
▁yüzlerini
▁kalbin
▁İstediğim
▁tuval
▁ofiste
▁istiyorsa
▁toplumunu
▁sertifika
▁Kha
▁laboratuvarı
▁dopamin
▁damarı
▁kaçını
▁ediyorduk
▁izleyerek
▁mikroskobu
ğımız
▁denizlerde
▁katlama
▁Pop
▁Taş
▁kalkan
▁gözükür
▁kalınlığında
▁gezdir
▁tedavisinde
▁aydın
▁hisseden
▁bölünme
▁ölçüyor
▁toplamı
▁uçta
▁Şang
▁şansım
▁uçur
▁gemileri
▁ısır
▁çözünürlüklü
▁görevimiz
▁dinlerken
▁pişman
▁prova
▁kararını
▁fikriniz
▁unutuyor
▁evdeki
▁eğitimde
▁Bra
▁dağılım
dison
▁üretil
▁kut
SB
▁tabanda
▁havacılık
▁balinaların
layalım
gas
▁Tat
▁bozulmuş
▁dayanıklılık
▁unun
▁Kir
▁kalkar
▁vatandaşların
▁başlandı
hio
▁sünger
▁bahçesi
amıyorlar
▁uygarlığı
▁Oo
▁Maya
▁Balık
▁kısıtlama
▁Philadelphia
▁çoban
misti
▁kabin
▁anlamıyor
▁hastalarını
▁Sevgi
▁formlar
▁slaytta
▁düğmey
▁metodu
▁üretebiliyor
diğimi
▁iletme
▁Second
▁hammadde
▁sular
▁Chuck
günün
▁Gezgin
▁teröristler
mazsa
▁yoksulluğu
ebiliyorlar
▁eyaletinde
▁sanatçısı
bilirsiniz
▁bulaşma
▁değiştireceği
amam
▁genişliyor
▁cazi
▁banliyö
▁kullandıklarını
▁memuru
▁Pla
▁aş
▁mutfakta
▁galon
▁450
▁öğreten
▁mekanizmaları
▁trafiği
▁açılmış
▁meseleler
▁simülasyonu
▁Toplam
▁doğar
▁tasavvur
▁bilimler
cela
▁bulgular
zlu
ımızdan
▁parlama
▁çıkartıyor
▁olamayacak
▁Karbon
▁niteliği
▁Nokta
▁dostum
▁Akşam
▁kazalar
▁keyfi
irdi
▁bazi
▁ekibim
lugu
▁çiğ
▁besinleri
çılar
▁kurduğum
▁yaptırmak
▁salınımı
▁ekleyebilir
▁ürettikleri
▁vaad
▁vuran
▁şarkıları
seler
malıyım
astro
▁kullanmamız
rik
▁gözlerinde
▁Mısırlı
▁Gid
mekle
▁Bosna
▁belirledik
▁iade
▁yerlerinden
▁Gizli
▁İşleri
▁gereksinim
üsü
▁duymuştu
▁anımsa
▁peş
▁Sır
▁Cumhuriyeti
ntal
▁şöyleydi
▁bırakmaya
▁oturduk
▁yorumu
▁Dinle
▁uyandı
▁Bre
▁uçtu
▁programlarını
▁paylaştık
▁South
▁Endişe
▁hissettir
▁çalışıyorlardı
▁olmadığımı
▁getirmişti
▁ayağını
▁fırlatma
▁edecekti
▁etrafın
▁bekleyin
▁ürettik
▁erkeği
iriz
▁değilmiş
maktan
▁efekt
▁anlatım
amanın
▁görmemiz
▁şeylerdi
ebiliyordu
▁ruhun
▁insancıl
▁üniforma
▁kocam
▁Askerler
▁kalıyorlar
▁azar
▁aşikar
▁Mer
▁kimyager
▁ısıtma
▁şişman
▁kireç
▁ilgilendi
▁onarma
▁Den
dr
▁yerleş
▁Gözleri
▁surat
▁sözler
▁doğrulama
▁Jud
▁ateşli
rez
▁Şiddet
▁sesim
▁etkileşimde
▁yengeç
▁düzenledik
▁Öğle
▁etkilenme
▁yanlız
▁sanatta
▁Walter
▁hisleri
▁kesilmiş
▁toplayıcı
▁endişelen
▁petrolü
▁kaybetmek
▁Umuyoru
▁planla
▁dikil
▁sakın
▁açmış
▁lifi
▁man
▁kopyalama
▁kayma
▁kasıtlı
▁uyanı
▁kuşları
▁karşılaştırırsa
ustu
▁olus
▁donu
▁evlerde
▁kotu
▁destekler
▁yas
▁asil
▁geometrik
▁anormal
▁Trans
▁kaldığımız
▁kazara
▁diyabet
▁ordusu
▁imkân
▁bilirler
▁gördüğümüzde
▁Anlama
▁gözlemley
▁buluyorlar
▁Okyanusun
▁kırmak
▁çıkınca
▁severler
▁hikâyesi
▁Dala
▁kaybettim
▁koridor
▁şema
▁başlattığı
yordum
▁verirdi
▁ortamlarda
▁gelişir
▁ayrılmak
▁Sovyetler
▁yenme
▁milyonun
▁edilmeye
▁geçiri
▁meslektaşları
▁önünüzde
emiyorlar
▁azaltı
▁öngör
ick
▁hesapla
▁Red
▁içeriğini
▁Program
▁giz
▁Anna
▁bağırsak
▁proteinleri
▁trend
▁filler
▁kötüydü
▁alındığında
▁evinizde
▁durumdaydı
▁olabilme
▁kıldı
▁ayrıldım
▁belirtti
▁ihtimaliniz
▁topladım
▁basıncı
▁yöneticiler
törler
▁burnu
▁özen
ebileceğim
▁çemberi
▁alem
▁olduğumda
▁şık
▁istendi
▁Kendilerini
▁Çözüm
▁aletin
▁ironi
▁sebepler
▁meta
▁dikkatimizi
▁yansıta
▁köyü
▁isteseydi
▁malum
▁düşünmüş
▁Genetik
▁cins
▁ciğer
▁yavruları
▁kontrollü
▁iyiyiz
▁Nazi
▁demiştir
▁yatağı
▁kor
▁Las
▁Geç
▁yazarları
▁kaptır
▁motif
▁düzenliyor
▁nörobilim
▁kromozomu
▁tarifi
▁alabileceğiniz
▁karakteristik
rdım
ümün
▁gördüklerimiz
lacağız
▁ayırır
ırım
▁Doktorlar
▁başardım
▁özetley
▁Jil
▁kariyerimi
▁derinliklerin
lus
▁yeniliğin
▁eleman
▁senelik
▁Balon
▁NA
▁görebildiği
▁paketi
▁yoludur
▁Orman
▁mülkiyet
▁38
▁Dick
▁depresyonda
▁söylediklerini
eau
▁yapılandırma
▁söylememe
▁kucak
▁ağırlığını
▁atmosferde
▁yazılan
▁nakliye
▁aldığınızda
▁fraktal
▁bahane
▁olmalıyı
rsak
▁izlerini
▁kanalları
▁dudak
▁Harr
▁planlar
▁mıknatıs
▁sorumluluğunu
▁olamadı
▁Christoph
and
sis
▁devrimin
▁Sıcak
▁stok
layabilirsiniz
▁yaklaştık
▁arıyoru
▁kuşu
▁tembel
▁Ur
▁analog
▁tuvaletler
▁salondaki
▁Kansa
▁besleniyor
▁ekranı
▁kâğıt
▁Buzul
▁devreler
▁çabalar
ou
▁döngüsünü
▁imal
▁portakal
▁ulaşabiliyor
▁tabağı
düs
▁Büyüme
▁tüpü
▁bla
▁Rai
▁çiftçilerin
ator
▁ülkem
▁devrimini
▁dolduruyor
▁liderlerini
▁Çift
▁giderdi
▁esir
▁yapamam
▁Namibya
▁satıl
▁başarısını
▁kupa
▁kurtarıyor
▁bekliyorlar
▁toplumları
▁kurtarabilir
▁doğuyor
▁menzil
▁severiz
▁seviyorlar
▁çözü
▁düzenler
▁kaldırım
▁önümde
▁Venedik
▁binme
▁zincirinde
▁gidebilme
▁Arabalar
▁kuşku
▁fiziği
▁zekanın
▁tanıyan
▁sokağın
▁bekleniyor
▁çakıl
maması
▁uydusu
▁duruyorlar
▁fışkır
▁alçak
▁gö
▁Fotoğraf
▁1975
▁Kuantum
▁gösteriyordu
▁Super
üydü
▁kahramanı
▁Gök
▁etkileme
▁Mari
▁up
▁adanmış
▁yardim
▁konusma
▁calisiyor
▁filmlerin
▁İletişim
▁Kazan
▁Kural
▁hayvanlarla
▁berrak
▁nöronu
▁kolaydı
▁başlarda
rebilmek
▁oluşturulan
▁faydaları
▁kapama
▁uçurum
▁versiyon
▁iletişimin
ttikleri
▁uzayı
▁yakınlarda
▁sıkışı
▁sormalıyı
▁oranın
▁toplandı
▁fakülte
▁vajina
▁koşmak
▁Seyahat
▁çerçevesinde
▁anneleri
▁Sorunu
▁çöktü
▁ilahi
▁bekar
▁yaratılan
▁kolej
▁mücevher
▁giydi
▁etmeyen
▁avukatı
▁kardeşlerim
▁yolculuğum
▁güvenin
▁danışmanlı
▁kalmamıştı
▁getirin
▁Kanadalı
▁elçi
▁çocuğunuz
▁örüntü
▁değişmişti
▁atölye
▁kukla
▁sez
▁almasını
▁başlarını
▁gezgin
▁Dam
▁yolluyor
bilen
▁öğrencilerimiz
▁Risk
▁niteliğinde
▁tanımıyor
▁numaraları
▁kalemi
▁seçimlerini
ılmasını
acağına
▁güvence
▁toparla
▁zorlayıcı
▁problemimiz
▁dansçı
▁çözünürlükte
uazzam
▁yaşlılar
▁kesiminde
▁karıştır
▁gerçi
▁yürüyordu
▁komuta
▁öp
▁yetisi
▁gezegene
▁toplumumuzda
▁kağıdın
▁bireyleri
▁yöneticileri
▁hatları
▁başlarken
▁planlaması
▁Nüfus
▁doktorum
▁papaz
▁hane
▁fonu
lenmişti
▁Gelişim
▁yayıyor
▁sorulardan
▁çoğalma
ardo
▁yaşarlar
▁Str
▁sörf
▁verebileceği
▁geçirmez
▁akustik
▁itil
▁yollara
▁satar
▁mühendislerin
yorduk
table
▁motorları
▁af
▁bacaklar
▁Engelli
▁bacağı
▁şiiri
laştığını
ernik
▁kollektif
▁Uçak
▁ilgilendiğimiz
▁seyred
▁kopru
▁ulas
▁resimlerin
▁sendromu
▁minyatür
▁Jean
▁reaksiyon
▁büyüklük
▁Görü
▁bürokrat
▁durdurabilir
▁geleceğimizi
▁haksız
▁Güçlü
▁yansıma
ünüzdür
▁otoyol
▁havaalanı
meyen
▁geliştirebilir
▁kapıları
▁evrimleş
▁kırp
▁Vinc
▁örnektir
▁bloklar
▁ruhani
▁mektuplar
▁menü
▁balığın
▁diliminde
▁evliliği
▁sorunlu
▁politikacıların
▁çizimi
▁başladığınızda
▁yazılar
▁şarkıcı
▁müzikal
▁senfoni
▁başkenti
▁Babamı
▁yaşamakta
viral
▁aşısı
▁bellek
▁istiyorsan
▁koyduğu
▁kitabımı
▁sanatını
▁topa
landırılmış
▁ayrılık
olojik
▁kahramanlar
▁dönemlerde
▁Kate
▁ölçülebilir
▁rahatsızlık
▁nitelikte
▁sağlayıcı
▁Basın
▁mahkumlar
▁Liste
▁sağla
▁ilgilenmek
uşu
ğının
▁kayıtlar
▁kana
lendirici
▁duymuyor
▁Şuan
▁başlarsa
▁Kenne
cektim
▁dokunuyor
▁ortağı
abilsin
▁oluşturulmuş
▁müfredat
▁arıların
▁fırça
▁lük
▁sigortası
▁koordinasyon
▁Kutu
▁karım
▁artırmak
▁uygulanan
▁Kabul
▁kostüm
abildik
daydım
▁oluşum
▁İçinizde
▁anlaşmalar
▁tekil
▁koç
▁Bruc
▁güveni
▁uyuya
▁seçici
▁Mantık
msi
▁rap
▁Cent
▁geçtiğinde
▁bezi
▁anlatın
▁görmediğimiz
▁büyütmek
▁güneyinde
▁Siber
▁deniyoruz
▁bilgisayarlara
▁ekleyerek
▁Mas
▁idrar
▁istediğinizde
▁yaptıklarımız
▁Düşünme
▁alamaz
▁1500
▁geçirdiği
▁öyküsü
▁çizgide
▁bilimadamları
▁sahada
▁okuyu
▁isabet
▁gözetleme
▁Akademi
▁dediğimde
▁üçünü
▁besleyen
▁ihanet
▁satmaya
▁canını
▁tanışmak
▁konuşmada
▁tahtası
▁girdiği
▁bulmuştu
▁asma
▁bilgilendirme
▁grafikleri
▁52
▁Nisan
aliba
▁parmakları
▁çözün
▁yapabilen
▁Yabancı
▁forum
▁teşebbüs
▁Gemi
▁güve
yapılabileceğini
▁gelişmeye
▁kalitede
▁ölümsüz
▁korkarı
▁yetmiş
▁düşündüğünüzü
▁kanıtladı
▁set
▁söylemiştim
▁yağlı
▁Oklahoma
▁ortaklaşa
▁kumu
▁Nükleer
▁milyonda
▁Mos
▁gösteriyoruz
▁ikizleri
▁disiplinler
▁Joseph
▁Gezegeni
▁düşürmek
▁öğrendiğiniz
▁kopyasını
▁gerçekle
▁Umut
▁fok
▁araçta
▁paylaşabilir
▁tepkileri
▁Kosova
▁harfler
▁kodunu
sizin
▁yüzgeçli
ebiliyoruz
▁gama
kins
▁rekor
▁Cennet
▁bataklık
▁yöneticilerin
nlısı
▁otistik
▁çevrim
▁İnd
▁Alpha
▁soz
▁Talk
▁gökada
▁çıkarları
▁çözümleme
▁bildiğimizi
▁oturduğunuz
▁eylemler
▁dinlemeye
▁öğreneceği
▁elemanları
▁şampiyon
▁Şaka
▁metropol
▁sürat
▁kastettiğim
emem
cağınızı
tacak
ecegim
▁gercek
▁sunabilir
▁anlayı
▁değişikliklerin
bilirsin
ugu
▁tasarımlar
▁Araç
▁yaralanma
▁tıka
▁luk
▁adası
▁itti
▁renklerde
▁fenomeni
▁yapamayacak
▁barındır
▁dinleyen
▁kullanabilirim
▁televizyonu
▁kışın
▁davrandı
▁polisler
deydim
kul
▁ezil
▁anestezi
rasi
▁oksijeni
digi
▁bey
▁orantılı
▁arttırmak
▁86
▁harcadığımız
▁beslenen
meniz
şir
▁özünü
▁ettiğimi
▁borcu
▁düşürme
▁alışkanlık
▁hücum
▁bileti
▁dalgaların
▁çalışkan
çü
star
▁dönebilir
▁birbirlerinin
erken
▁kullandığını
▁çarpıyor
▁Katolik
chu
▁kültürleri
▁gözyaşları
▁beyninizde
▁yoksullukta
lendiğinde
▁Özgürlük
▁satılıyor
▁ingilizce
▁Hindistanda
cılığı
▁takı
▁Kalan
▁konuşmalarını
▁kollarını
▁mesajını
▁benimseme
▁işlet
▁sonuçların
▁ekonomide
ladığında
▁çalışmasında
▁üyelerini
▁belirten
▁üz
▁kırma
▁hedefin
▁vücudunuzun
dayken
▁dağılımını
ano
▁koşan
▁eşleşme
▁söylemez
▁kürtaj
▁sihirbaz
duğunuzda
▁atılım
▁ayrıştır
▁final
▁yürek
emiyorum
▁söyleşi
▁bayrağı
▁İnşa
▁Kesin
▁embriyo
▁anlamam
▁boşluğun
▁boğa
▁anlatılan
▁görüntünü
▁kazanacağı
▁yapabilirsin
nacak
▁Söylemek
▁yüzer
▁telefonunuz
▁dokuma
▁kanatlı
▁ilkeleri
▁kırı
hh
▁seviyelerin
▁mantarı
▁yapıştırıcı
▁tarımsal
▁kalıbı
▁süzül
▁dengeli
▁indirdi
▁görünüm
▁geliştirmiş
▁platformu
▁fiyatını
▁Android
▁makinelerin
▁yanlarında
▁saydam
▁deneyeceğim
▁örneğim
▁topladı
▁algılaya
▁dönüştürdü
▁Tabiki
▁bes
▁bulunu
▁resimdeki
▁öğrenin
▁kaybolur
fra
▁seviyelerde
▁Hakkın
▁Kaza
▁kazası
▁enkaz
▁Çöp
▁çözülme
▁köklü
▁laf
ınızın
▁eğitiyor
▁Siyahi
▁açıl
▁güvenir
meyeceğiz
▁görebilme
▁duracak
▁masal
▁Kent
▁savcı
▁tırman
▁bağımlısı
▁dizilimi
▁laboratuvarımda
▁kişilerden
▁işbirlikçi
▁görürler
▁zihnimde
▁eBay
▁uzanı
▁döktü
▁büyüktü
▁arttığı
▁kısır
▁kaynakta
▁rahatlat
▁Fried
▁çocuklarımı
▁vaktim
▁tura
▁edilmemiş
▁koşma
▁eylemci
▁Domuz
▁abartılı
▁indirim
▁yaratmış
▁kurtaran
▁değişebilir
▁tüyleri
▁Aklım
etho
▁hissediyoruz
▁merakı
▁duyguların
ilip
▁karlı
▁şekillerin
▁günümüzdeki
▁Uygulama
▁kalıntıları
▁genomunu
▁tanır
▁anayasa
▁yasama
▁üstlenme
CD
▁olanakları
▁İnsanın
▁belgeler
▁gazeteciler
▁kıtalar
▁dener
▁Hani
LA
▁çöker
emediği
▁vermeyen
▁bedel
▁bedelin
▁uğrama
▁pankreas
▁mecaz
▁hasarı
▁yaşamanın
biliyorum
▁aşkı
▁Hali
▁oturduğu
▁açıktı
▁Kam
▁Spi
▁telafi
▁tutsak
▁eroin
▁Au
▁davranışların
▁agresif
▁problemle
kine
▁müzede
▁rakamları
▁imkânı
lmasını
▁Hükümeti
▁barınak
▁öğrenebileceği
ib
▁arabasını
▁hazırlanıyor
▁testere
▁paylaşıyor
▁görebil
▁izlediğimiz
▁sorumlusu
▁sende
▁kolera
▁sente
▁şahsi
▁deneyimlerini
▁Fil
▁bilmeyen
edeyim
▁haritada
▁gözümü
▁çifte
▁Bol
▁Tehlike
▁yargılama
▁istikrar
▁ilerlemeye
leyin
▁kırılma
▁Endüstri
üzel
▁kandır
▁sanata
▁doğasında
▁sahiptim
▁gibiyiz
▁olduğumuzda
▁tahliye
▁malzemesi
▁tost
liyoruz
▁mar
▁damarları
layabileceğimiz
▁Kaynak
▁düştüğü
▁sayfaları
▁olaydı
▁yürüdük
burg
▁vermelerini
▁nehirler
▁isimlendir
▁algoritmaları
▁geçeceği
▁hizmetlerinde
▁tüberküloz
▁ala
▁yapabiliyorlar
▁verisi
▁oluşturduğunu
▁tap
▁inen
▁gitse
▁yönlendiriyor
▁uyur
▁yayıldığın
▁alışı
dom
▁Ailesi
▁doksan
▁işlerde
▁videosunu
isha
▁Beatb
▁kapsıyor
▁insanlardı
▁ormanlarda
▁buzulların
abildiğim
▁uygarlık
▁çeliş
tici
▁işlemini
▁etmiyoru
▁sprey
▁uyguladığı
▁kapağı
▁görece
▁yabancılar
▁benzerlik
ES
▁ideolojik
▁ulaşabileceği
▁kuruş
▁Scho
▁uyarıcı
▁tanrılar
larıydı
▁gitmez
▁fikrinden
▁elektriğin
▁sayıların
▁fırlat
▁uçağın
▁alaycı
▁Kanyon
▁Haber
▁keşfedilmemiş
▁Beck
▁parkta
▁tasma
▁paraları
▁gerçeklikte
▁Öğrendiğim
▁Jenni
▁içindeyiz
▁dus
ester
▁kaybet
▁epi
▁yapımında
▁açıkca
▁habitat
▁Örümcek
▁istekleri
▁hücreli
▁başkalarını
▁Julia
▁durduğu
▁gelmemiz
▁duyurdu
▁tepkiler
▁kullanıldığı
▁ES
▁Kalk
▁diski
town
▁Mat
▁mensup
▁AV
▁Fib
▁kuruluşu
▁matematikte
▁senesinde
▁hücresel
▁sorduğumuz
▁leopar
▁bulundur
▁silindir
▁cips
▁ateist
▁yahut
▁yaratıcılığın
▁iPad
▁sevmek
▁sabun
▁petr
HC
işleri
▁idrak
▁organizasyonun
▁soktu
▁stratejisi
▁örgütleri
▁soran
▁elemanı
▁yüzbinlerce
▁Pre
▁saklıyor
▁yayılmasını
lattı
▁paramız
▁silme
▁Wil
▁harca
▁çıkartı
mazsanız
lacağı
▁evrimini
▁fizikçiler
▁edebil
▁bitmiş
▁yansıtıyor
▁boğaz
▁kesintisi
▁gelişmesi
giz
▁oluşma
▁oluşturdular
▁güzelliğin
▁düşünse
▁bankası
▁Parça
▁ede
▁Lagos
lukta
▁kuzeyinde
▁Sur
▁dis
▁inekler
▁maymunların
▁beyinleri
▁içerme
▁olmadığımızı
▁atalarımızı
▁emil
▁keşifleri
▁arkadaşımla
▁Madde
▁ışın
▁öneriyorum
▁edeceği
▁başkalarıyla
▁Sizler
▁destekli
▁ışıkla
ecektir
▁hesaplar
▁Akademisi
▁mercek
▁saklanma
▁Samanyolu
▁ışığını
leşmesi
▁böylesi
bilirdi
▁Hubb
yacağımız
▁Lord
leştirecek
▁görüştü
▁kurduğu
▁ulaşmamız
▁okuyacağım
▁çağırıyor
▁müziğini
▁dönüşmesi
olo
ilmeyen
▁sevdiğini
▁babaları
▁yetiştiriyor
▁Şans
▁toplumlarında
▁yüzyıllardır
▁zorlaya
▁kıyafetler
▁müziğ
▁çocukluğum
▁ekliyor
▁inanış
▁polisin
▁içgörü
▁geçit
masından
evel
▁fırsatını
cısı
▁Anneler
▁yapılanma
▁periyod
▁kameraları
▁koordine
▁Hale
▁engeli
▁koyacağı
▁ziyaretçi
▁özerk
▁aracımız
▁ödüller
▁eşimi
▁hobi
▁laboratuvarımız
▁Özür
▁vasıf
▁Will
▁içmek
▁anlaşılabilir
▁istemeyen
▁izlemiş
▁aktörler
▁bedenini
▁giyer
▁örtüsünü
▁artışını
▁hayaller
▁alınır
▁kalıyordu
▁kahramanları
▁Gö
▁ayrıcalıklı
▁besle
▁hijyeni
▁tercüman
▁ıssız
▁Cur
layabilmek
▁boşluklar
▁çivi
Ş
▁genişledi
▁artırıyor
▁intikam
▁kesişim
▁ilintili
▁Amanda
▁Yasa
▁bölgelerini
▁yoksullar
▁diyorlardı
▁sınıflar
▁Gördüğümüz
▁desen
diğinizi
▁kariyerim
ras
▁Arkadaşları
▁başvurma
▁objeyi
▁bedenim
▁araçlardan
une
▁yelken
▁inandığımız
▁apaçık
verdi
▁katılımcılar
ıydı
▁büyüdüğü
▁denizanası
set
▁ihtiyacını
▁uzaklığı
▁uzerin
▁yakin
▁sokuyor
▁bah
▁inme
▁yükselir
▁görürse
▁hatırlayacak
▁Lind
▁eşliğinde
ilmişti
▁enfeksiyonu
▁yiyeceği
▁inancım
▁kaydını
▁çalışacağı
▁zorundasın
▁gitmeli
▁Büyükanne
▁Sea
▁çalışmakta
▁değiştirdiğini
▁Sıkı
▁sokma
ego
▁birçoğunuz
▁hâlinde
▁keşfeder
wo
▁arda
▁kullanabilecek
▁izley
▁kusurlu
▁binası
▁gönderen
▁göstermesi
▁Yunus
▁başladıklarında
▁yükselme
▁Girişimci
▁gönderebilir
▁anın
▁şöhret
▁şekillendire
▁kuşun
▁öğrenim
▁bilgelik
▁duvarların
kullanılabilecek
▁ticaretin
▁olmayışı
▁hazırda
▁çıkıntı
▁akışın
▁kullanırsa
▁çeşitliliğ
▁karesi
▁bulunmuş
▁toplumumuz
▁konumu
▁çizimleri
▁Günümüz
▁uzaktaki
▁savaşlar
▁kardeşlerin
▁belgeleri
▁duruş
▁özgürlüğünü
▁yıllarında
▁olmalısın
emedi
▁oluşumunu
▁teknolojide
▁ulaşama
▁elmas
ilebilecek
▁seyahati
▁afetler
▁bırakıyoru
▁bunalım
▁proses
▁düğün
▁tartışması
▁sanıyordu
▁ekibimiz
▁Parmak
▁sürdürmek
▁State
▁bileşenler
▁Toprak
▁Bağlantı
▁başbaşa
▁Grup
▁politikalar
▁ölmüştü
▁sunacağım
▁beyan
▁yanılıyor
▁saldırıların
▁kanlı
▁yükselişi
▁bölü
▁alınıyor
▁tekrarladı
▁etiketleme
▁canlandırmak
▁gösterisi
▁hackerlar
▁zararı
vari
▁yiyorlar
▁gör
▁çıkarmayı
▁döndürü
▁dosyası
▁arsa
▁tohumlar
▁taktik
SC
▁bakabilme
pati
▁geliştiğin
▁Bilmiyor
▁Dave
▁yayınladık
▁öğlen
▁kargaşa
▁sınıftan
▁hayvanat
▁yerleştiril
▁tahminler
▁inancın
▁toplanıyor
▁Oz
seksüel
▁yemeyi
▁dekor
▁materyali
leştiğini
▁bitireceğim
▁girdiğinde
▁titreme
▁hazırladım
▁yiyeceklerin
▁Teknik
▁koyduğum
▁yükseğ
▁karşılaştırın
▁yaşanmış
▁Sahara
▁hatırla
▁karbonu
▁ilkesi
▁fırlatı
▁basitlik
▁mimarı
▁patoloji
000
▁kolaylaştır
▁argüman
▁kaplayan
▁madenci
▁dergisini
▁verilecek
▁bilimcisi
▁kazanım
▁unsuru
▁videonu
▁alışkın
▁Kraliçe
▁Gülmeler
▁yüzünde
▁uçakların
▁atılıyor
▁Çeşitli
▁safi
unuzda
▁açığı
▁yapıların
▁Federal
▁kaynağını
ekliyoruz
▁attığımız
▁kafanızda
abileceğinizi
▁Anlatıcı
▁anlatıyordu
leştirebilir
▁Scien
▁yunuslar
▁vakum
▁Jüpiter
▁saklamak
▁maraton
▁Pantheon
▁ayaklarını
▁girdiler
▁biliminde
▁eşitsizliğin
OS
abiliyorsunuz
▁cerrahı
▁anlayacağı
▁görünümü
▁yıkama
ambo
▁büyümekte
▁trol
▁besliyor
▁santrali
▁Patent
▁Uyum
▁birşeydi
▁düşünmedi
▁kokuyor
▁eg
▁amaçla
▁politikaları
▁selam
▁High
▁katıldığı
▁yapmıyorlar
▁veririz
MM
▁Kamp
▁lambası
▁uzatma
▁Dürüst
▁Bağımsız
▁cemaat
▁White
mble
▁tansiyon
▁ağacının
▁sürdürdü
▁Mig
▁Avusturalya
lla
▁yelpaze
iribati
▁baktığında
▁Ushahidi
▁optimiz
▁spektrum
▁birazını
▁çözülebil
▁Politik
ISA
rsek
▁kurmuş
▁büyüyü
▁topraktan
▁pazarlar
▁hop
▁yanımızda
▁Uzak
▁yıkan
▁köylerde
▁öğe
▁biçiminde
▁istemiyorlar
▁anlayabil
▁vazgeçmek
▁geçe
▁yapabil
▁edilmek
▁yürü
▁eğ
▁soğu
rio
▁bilimle
▁kavramları
▁ihtiyac
▁Sokak
uare
▁noktasını
▁Şehrin
▁tedirgin
▁ödedi
▁salın
▁Uta
▁Arkadaşım
▁öldüğünde
klasik
▁arasinda
▁gecir
irsiniz
▁komite
▁hersey
▁Alkislar
▁nitrojen
▁beynini
▁artacak
▁harcadığı
▁büyüklüğün
layabileceği
▁metaboli
▁sağlıyordu
▁mütevazi
▁elektromanyetik
masıdır
▁Molekül
▁patladı
▁geliştirecek
▁alacağınız
▁okuldaki
▁bağladı
▁saniyeli
▁teleskobu
▁titre
▁kıvrım
▁feci
▁azal
▁duyardı
▁cıvı
izdir
▁Korkunç
▁kodları
▁Sun
▁yakalayı
▁saçlı
▁önceleri
▁inançlar
▁olmadığım
▁birarada
▁tanımlay
▁lezbiyen
▁etkileniyor
eceğimizi
▁çekiliyor
▁koymuş
layacağım
ıyordum
▁kişiydi
▁toplayabilir
melerini
▁yakıtı
▁tutulur
▁bulabileceğiniz
▁Çocuğu
▁uçurtma
▁görebildiğiniz
PA
▁bacağın
▁motorlar
iro
▁ofisim
▁öğrencim
▁cezalandırma
▁doğumu
▁durması
field
▁olabileceğiniz
abiliyorum
▁yazılımın
▁Dene
▁sahiptik
▁kaş
▁eşleştirme
▁yazıyorum
▁gereçleri
▁kocası
▁sulama
▁kimseler
▁çalışmıştı
laşan
▁isti
▁yetişkinlerin
cy
▁tezgah
▁ezme
▁Diş
▁Ash
▁zihnin
▁tapınak
▁tehditleri
ihin
▁Kanun
▁gür
▁alfabe
▁hı
▁taktı
▁ikram
▁verebilirsiniz
▁nesi
▁geliştiril
▁aks
▁puanı
▁veriyorsunuz
▁odağı
▁sunduk
▁düzenlenmiş
onun
▁güçle
▁Shakespear
▁söylediğinde
▁telefonunuzu
▁konuşmakta
▁kanıtlama
▁Dağları
▁dinledik
▁doldu
▁websitesi
▁Beynimiz
▁Kuru
▁bekley
leştirici
▁kültürümüzü
▁görmemiş
▁stili
▁Daire
▁üstünü
▁kaydettik
▁alanım
▁zenginliği
acaklarını
▁harcamaları
▁liderliğin
▁derinliklerinde
▁düzenek
▁seçimlerin
▁topun
▁çıkaracak
▁Dike
▁görünmeye
▁Kimi
ıcık
▁sözcükleri
▁hikayede
▁kapasitesini
▁Mont
▁öğrettiği
▁Babası
▁çekmiş
▁doldurmak
akın
▁Macar
▁derinliği
▁kampüs
▁Yalan
bilmenizi
▁dilimiz
▁ayakkabısı
▁isimler
▁satılan
▁insanlığı
▁çarp
▁beşte
▁virüsünü
▁çorap
▁yaralı
▁telaş
▁SB
▁deste
▁hissedil
▁geçmişim
▁aldıklarını
▁dergisi
▁faydalanma
▁ellerimiz
▁Pittsburgh
▁yoğunlaşma
▁dönemlerinde
▁köşesin
▁yüksekliğinde
abilseydi
▁metni
▁tıklama
▁gösterimi
▁yaklaşımın
▁taşını
▁Finansal
▁Tele
▁MT
▁durumdaki
▁imkanlar
▁psikiyatri
▁Eylem
▁yapılmalı
▁tanıklı
▁takibi
▁ifşa
▁haftalar
▁gönderdiği
▁kanama
▁aşçı
▁Gine
▁tesadüfen
▁batır
▁fırsatımız
▁ettirir
▁edemeyeceği
▁Suriyeli
▁Bağ
▁Hawkin
▁anlayabileceği
▁proteini
▁türünden
▁mimarisi
tılmış
▁bahset
▁kralı
bül
▁entelektüel
▁dib
iath
▁tehdidi
▁mekanda
▁gözlerimizi
▁sormamız
▁katedral
▁heykeli
▁şarabı
▁kaset
▁sağladığını
▁Cezayir
▁deneyimle
▁Günün
▁Simon
▁56
▁suistimal
▁İşçi
▁etrafını
▁inançları
▁galaksilerin
▁kitlesi
▁Alic
iel
▁ilişkisini
▁müzikle
ussani
tnik
▁döneceğim
cilerin
▁edersin
▁yumruk
▁kenarın
▁denekler
▁verdiğinde
▁duygularımızı
▁yönlendir
▁kazanmaya
▁ödenek
▁dengesini
▁dökme
▁farkındalığı
▁vazgeçi
▁vida
▁Mumbai
▁işlemek
▁Bilme
▁görmenizi
▁boylu
▁büyükannem
egon
▁döşe
▁ineği
▁imkansızdır
▁yanan
▁ormanlarında
▁gözde
lamaktadır
▁yeryüzündeki
▁yaprağı
▁Allen
▁karmaşıktır
▁andır
▁kapitalist
▁İçine
▁bilmeme
▁şirketinin
▁etkileş
▁çalışıyorsunuz
▁yaptığımda
▁İşler
▁Jonat
▁yapmalıyı
▁saman
▁kalıpları
▁tabanı
eith
▁olacakları
▁kattı
▁birilerini
▁hissettire
▁hatırlat
dığınızı
▁istasyonları
▁Başarısız
▁ortalarında
▁programla
abildiğimiz
▁aştı
▁üretebilme
▁alamadı
▁ölçümler
▁Jeffer
▁denklemin
▁yapabildi
▁Ameliyat
▁arayarak
▁seçilme
recektir
▁düğmesi
▁profil
bilecek
stron
rdiğinizde
▁seans
▁okyanusların
▁baca
▁Karo
▁Söyley
▁solar
▁Warr
▁Yılın
▁gerektirme
▁basmak
amadık
ago
▁yanımız
▁gelmeyi
▁katarak
▁tabanında
▁müte
▁Dee
▁kanallar
▁edebiliyorsunuz
▁kasvet
▁partneri
▁Ağı
▁oluşmasın
▁egzotik
▁sıkıntısı
▁Global
▁emri
nlü
▁bulabilirse
▁kel
▁fareler
▁eşiğin
▁Nag
▁plaj
▁tepede
anj
▁gülü
▁hesaplamak
▁hareketle
▁düşüncelerin
▁asl
▁tanımlana
▁Devrim
▁dalgıç
▁Jac
▁Müslümanlar
abileceklerini
▁Harita
▁hack
▁185
▁Yarı
▁akrabaları
▁derecelendirme
▁boyutlar
▁içerdiği
▁unsurlar
▁sistemlerine
▁yapılmıştır
▁ölçümleri
▁yaratıldı
▁ultra
▁kadinlar
▁guru
▁yakınlık
▁mineral
▁şempanzelerin
▁boyutların
▁ayıları
▁seferber
▁guven
▁Cher
Gowan
▁terbiye
▁soyutlama
▁gözlükleri
▁gıdaları
▁pref
▁erozyon
▁gerilla
▁öğün
RNA
▁sivrisinekler
▁Mola
▁talimat
▁kavra
▁girişimleri
▁dalında
▁çalıştırıyor
▁kuruluşun
▁Konuş
▁kaşı
▁öngörüyor
▁Amerikanın
▁saklay
▁beşi
▁yaklaştı
▁uzunlukta
▁mikrofonu
▁4000
▁volt
▁kıyas
▁görüşün
▁oluşmasını
▁erişmek
▁keyifli
▁geldikleri
▁bank
▁şeridi
▁onaylama
▁çıkarttı
▁yönelme
▁olamayacağını
▁emme
▁gördüklerini
▁geziyor
▁beyler
artik
▁yaptim
▁kullanabil
▁eh
▁tasarlan
▁nörona
▁varsayımı
▁çekirdeği
▁beynimizde
▁korteksin
▁pratikte
▁uyanık
▁nitelik
muşum
▁Dans
Point
▁farzed
▁teşkilatı
▁Toyota
▁korusun
▁ağda
▁Amacımız
▁takıntı
▁delikleri
▁hoşlandığı
▁deliği
▁indirgen
ding
kuş
▁Budist
▁ülkemiz
▁Men
▁çabaları
▁önemsediği
▁güvenliğin
▁soruşturma
▁sarılı
▁korur
▁mağdur
▁atıl
▁sığınma
▁adadı
▁güvenmek
laşması
▁kaynağıdır
▁bulabil
▁Yarım
▁toplanan
tip
▁çevresini
▁kalkıyor
▁seçilen
▁onurlandır
▁kardeşin
▁tanımladığımız
▁içti
▁sakal
▁partner
▁başarılıydı
▁kurucu
▁gelişi
▁karışıklığı
▁Japonca
▁beklemiyordu
▁Ayak
▁tekerlek
▁planlanmış
▁çalıştırı
▁Yaz
▁fikirlerimizi
▁öldürdüğü
▁kemeri
▁dağıttı
▁görkeml
▁unutulma
▁layık
▁Bebekler
▁Kedi
▁ebedi
▁kaldırabilir
▁Cor
key
lemez
▁doldurma
▁işletmelerin
labileceği
▁veritabanı
▁elimiz
▁faktörü
▁objektif
▁kapılar
▁Önceki
▁Mercan
▁yosun
▁broşür
▁kimyasalları
▁dengede
ilmek
▁gülünç
▁medika
▁Arkadaşlarım
▁göstereceği
▁çat
▁görüyorsun
▁post
▁sabırsız
tıyor
▁hapı
▁Pardon
▁katma
▁istatistikleri
▁dağıtma
▁Saç
▁savaşmaya
▁tamamlama
▁erdem
▁esnekliği
▁takımım
▁dolaşım
▁bitirdik
▁ahşap
▁polimer
▁şaşırmıştı
▁halat
▁beğendi
▁boyama
▁maksim
▁plastiği
▁Sanatçı
▁kertenkele
tun
rack
iyel
▁degis
▁mili
▁diren
▁gülüyor
▁yargıç
▁Katar
▁dönün
▁birleşik
mıyorsunuz
▁Kör
ümkün
▁çevremizi
▁mantarları
▁uğra
▁hamam
▁stratejileri
▁görevlileri
▁seçtiğimiz
▁Renkler
lüğünü
▁görmemizi
▁girin
▁vaktimiz
▁ilerlemeler
▁başarısızlığı
▁yaşamları
▁Yaşamın
▁Dili
▁çekmişti
abileceğimi
▁yaşamda
▁aşmak
▁Solda
▁yoldur
▁girişimler
▁hareketlilik
▁Seç
▁edeceğimizi
▁sonlandırma
col
▁Fla
▁öğrendikleri
yorsun
▁eylemin
▁seslerin
red
▁çılgınlık
▁olmadığında
▁öğretilen
▁edince
▁Shar
▁domuzlar
▁burnunu
▁serisi
▁yaklaşı
▁makro
▁çalışmalarında
▁eklerse
▁okuyabilirsiniz
▁kesmeye
▁emlak
▁içen
▁semboller
▁haş
▁şefkatin
▁Neyi
lis
▁genomik
▁dizisini
▁meclisi
▁değiştirmeliyiz
▁odaları
▁kıtlık
▁erişme
▁çalışmalarım
▁muhbir
▁sifon
▁umursamıyor
▁dinlenme
▁deneyimlerim
▁vurduğu
▁deyim
▁Başarılı
▁tesisler
▁katmanları
▁mermi
▁arıları
▁kovan
▁far
▁maliyetle
▁müşterek
▁biçimimiz
unuzun
▁tesadüfi
▁mekân
▁arkadaşınız
▁seyrediyor
▁felsefi
▁yedim
▁mem
▁Türk
▁sağladığımız
▁Banka
▁anlaşmaya
▁kaybedecek
▁kırk
▁davranan
▁sürdürme
▁kendimizin
▁Hayatı
▁Resmi
▁Ep
▁hazırlar
▁bulacağım
▁zanned
▁Evin
▁yemekte
▁anlamıştı
▁köpeğim
▁Sunucu
▁başlatan
▁yabancıları
▁pencereler
▁kulakları
▁Fu
▁evrimleşmiş
▁gösterebiliri
▁aklımızı
▁yaratmakta
▁terimler
▁karısını
▁bırakmış
▁vazgeçti
▁zorlanıyor
▁şi
▁uygulanması
▁attığı
▁karakterleri
▁karıştırıyor
▁Bangal
▁egzersizi
▁akıcı
▁yayıncı
▁indirebilir
▁buharlaş
▁Resimde
▁Şef
▁başlıyordu
▁gitmeme
▁ulaştığımız
▁okulumuz
▁Afrikada
▁geliştire
▁okyanusları
▁yayımla
lenmemiş
▁doğruyu
▁klik
▁bilinmez
▁Veriler
▁grafiğ
▁algılayıcı
▁kullanıcıların
▁ilerlemek
▁ikilem
▁vatan
▁çalışmalarımız
▁kaydedilmiş
▁eyalette
▁kanatları
mada
▁bilecek
▁Bırak
▁jel
▁laboratuvarında
ığı
▁İşim
▁konuşmasında
▁birimler
▁siyaseti
▁bastı
▁yakınlaştır
▁Sar
▁Tren
ekli
▁nanometre
▁atladı
▁buralar
▁sitemiz
uzdur
▁biti
▁Maymun
▁vurmak
▁Norman
▁sanatçıların
▁Mobil
▁Vücut
▁matbaa
▁ödedik
▁kesinlik
▁görüntülerini
▁öznel
▁yasaları
▁görüşe
▁gecesi
▁büyüklüğündeki
▁patenti
▁sayfasında
▁sinirli
▁sinirleri
▁hamle
▁karıştırıcı
▁Gezegen
▁Sau
▁Arm
▁kazandım
▁bilgisayarınız
uke
▁Bahse
▁Elinizde
▁bombası
aft
▁hayvana
▁aralığında
▁varlıkları
▁Ceza
▁geldiğinizde
▁eğitil
▁Gazeteci
▁sınırını
▁yavrusu
▁endişeli
lanmadı
▁seksen
cileri
▁özlem
▁müsaade
▁beyinlerimiz
▁sığdır
▁tesisat
patch
▁peşine
▁kurabiye
wand
▁dereceden
▁kodlar
▁Uyuşturucu
ska
bab
▁İsveçli
▁taraması
▁kafatasını
▁dodo
▁dağıtılmış
NG
▁müşterilerin
▁mekanizmasını
▁lav
▁bilgeliğin
ladılar
▁tümörün
▁Sif
NC
▁istemediği
▁sineğin
▁Hikâye
iflu
▁hamuru
▁şekillendirir
▁vat
▁Bahar
▁itaat
▁desteklene
▁görüşlerini
▁yürüyü
▁öldürmeye
▁azaldığını
▁yakar
▁beklediği
▁tanımını
▁bilemezsiniz
▁kadardı
▁Amerikada
▁gözükmüyor
▁düzenleyici
mayacağınız
▁sebepleri
▁harcıyorlar
▁kullanacağımız
▁uzaklaşmak
▁eşyaların
▁caddede
▁beklediğimiz
▁Tre
▁tartışıl
▁anlıyorlar
▁Stu
▁odaklandık
▁hazırladı
▁kısıl
▁Tıbb
▁Hel
▁teoriler
▁çekildiği
▁sözlerini
▁edemem
▁eğitmen
▁Jersey
▁Opera
▁şeref
acagim
▁kullanmama
▁ulke
▁Hastalar
▁yetkin
▁doldura
▁doldurur
▁pilleri
▁fonksiyonel
▁uygulanma
▁süs
▁nöronları
89
▁saatini
▁Günlü
▁piş
▁barsak
▁karşılama
▁kapağını
▁verildiği
▁ihti
▁CIA
▁binde
▁sistemimizde
▁düşüncelerimizi
▁kılacak
▁veril
▁yayınlanmış
▁etkilenmişti
▁şelale
▁çök
▁benzeyecek
▁bırakırlar
leşerek
▁etrafınızda
▁çevremizde
▁yaşanabilir
▁evrenimizi
▁ülkemizi
▁getirmesi
▁sokaktaki
▁adli
▁almam
▁çalmaya
▁bahseden
▁sıyrıl
▁kapsamında
▁toplantıda
▁edili
▁bahçede
▁kutuplaşma
▁kızla
zik
▁endişelenme
▁Fili
▁hediyesi
▁ettiklerinde
▁Değişim
▁Movem
▁destekleyecek
▁bıyık
▁ödüllendirme
▁eğlenceliydi
miştik
▁şaşır
▁Aust
▁döndüğü
▁gözüküyordu
▁ebeveynlik
▁fabrikalar
▁geçiriyorlar
emediğimiz
▁duyarlar
▁odasını
tıcı
▁düşüşü
▁melez
mişsinizdir
tılı
ME
▁çalıştırmak
▁yarışması
üzün
▁eleştirme
▁biliminin
▁şaşırtma
▁yavrularını
▁yokmuş
▁Uzman
▁güvenle
▁gelebil
▁şovu
▁okuyucu
▁hayvanlarını
▁Bit
▁yönetmen
▁Ron
▁karıştı
cher
▁korkmuyor
▁inatçı
▁yakma
▁kamerası
▁birimleri
▁hissedebil
▁alaka
ilmesini
▁bebekleri
▁köyünde
▁turizm
▁resif
▁ifadesini
▁abartı
▁yaşayabileceği
▁faktörleri
▁yüzeyleri
▁saptama
mezsin
▁sürükley
▁taşına
▁alabileceği
SE
TA
▁müttefik
▁Jay
▁çizmeye
nizdeki
▁tamamlanmış
▁kurtarıcı
▁düşünebiliyor
▁tanıt
▁Kitle
▁ulaşabilme
▁Kredi
▁İskoç
▁kubbe
▁böceklerin
▁üretiyorlar
▁sahnesi
▁tahri
▁andaki
▁feda
▁farkındayız
▁yayıl
▁hissettik
▁geçmişti
▁direği
▁konferansın
▁çığır
lock
▁Bip
leyeceğim
▁aşıların
şır
▁tez
▁tutuyordu
▁çıkarlar
▁Russel
▁Plan
▁360
▁degistir
▁eyleme
▁inanilmaz
▁Tepe
▁deposu
▁ergenlik
▁ağzını
▁körlük
ymuş
▁yetisin
▁migren
▁dönüşümlü
▁kıy
▁talihsiz
▁çöplük
niversitede
▁kitabım
▁yiyeceğin
▁varsayılan
▁tanıdığınız
▁gelmeyecek
▁aileniz
▁değinmek
eceklerini
▁sağlanması
▁Yukarıda
▁kardeşleri
▁geçiyorlar
ladığınız
▁üzerlerinde
▁özetle
▁sonucunu
▁gözleriniz
▁eksende
▁kıyaslama
▁satıldı
▁Ağzı
▁fiyatlar
▁kısm
müzü
ğınızı
▁bozma
▁Yakında
▁konuşmamız
▁gördüğümüzü
▁çatışmaya
▁gerçekleştiğini
▁Bono
▁Virüs
▁Ceb
▁aldat
▁çabası
▁dizaynı
▁üretiminde
▁hantal
▁kitaptan
▁gönderilen
▁yapmışlar
lektronik
▁dairesel
▁Resim
▁Hit
▁Görev
▁yazması
▁taşınması
▁nesnel
▁kapsül
ion
▁birşeyin
▁yöneliyor
cül
▁çözünürlük
▁Sonuçlar
▁kalkın
▁Nijeryalı
▁kestik
▁ümitsiz
▁Araştırmalar
▁engelliler
▁yapıldığında
▁Stewar
▁adaları
▁Meme
▁görülmüş
▁Gıda
▁yaşayabilecek
▁çıkmakta
▁uygunsuz
▁Kulak
▁Algı
▁kulaklık
orluk
▁bekliyorum
▁Bahçesi
sama
▁hortum
▁çağrısı
▁davranmak
▁kıymetli
landırıcı
▁kamyonlar
▁nektar
▁önlem
▁prensipler
derlerdi
▁vicdan
▁kutusunu
▁suçlar
▁örneklerini
▁kültüründe
▁yönlendirir
▁aileden
▁eserler
▁Tan
▁Beşinci
leştirdi
▁slaytı
▁demesi
▁uçu
▁düşünülme
▁Finlandiya
▁çökme
▁güneşi
▁por
▁varolma
▁standartlarını
▁araçtır
▁anlaşılan
▁58
▁kampta
▁Dön
▁santigrat
▁Stan
▁Dian
▁Anayasa
lemeliyiz
▁yönettiği
arın
bileceği
▁tecrübesi
▁kartpostal
ness
▁beynim
▁çevirdiği
▁bilmesi
▁artırır
▁68
▁odam
▁Gençler
▁tanınma
▁dikiş
▁bileşenleri
▁Sür
▁zamanlardı
▁yoksulluğun
lanmak
▁hakkınızda
▁gazları
▁helyum
arch
▁anlaması
▁medeniyeti
▁ego
▁çalışanların
▁glikoz
▁köpeğin
▁keşfe
▁içersinde
▁grupta
▁Mach
▁paylaşıyoruz
▁patlak
▁popülasyon
▁bilimcileri
▁molekülün
▁karşıladı
▁teleskoplar
▁köşedeki
▁hazırlıyor
▁Yaşlanma
▁vitamin
▁Politika
▁reformu
▁Düz
bilirler
▁klibi
▁Kurt
▁tuttuğu
▁Amy
▁doğduğunda
▁ergen
ikago
▁Biliyorsun
▁kayıtların
▁anlatabilir
▁hazırlanma
▁ilgilenmiyor
▁general
▁rüyası
▁projelerin
▁gitsin
nci
▁Meta
▁avı
▁olduysa
ebiliyorsunuz
▁gösterge
▁Suyun
▁dikkati
▁ölçüt
▁ettiğinizde
▁dolaşma
▁deneyimleme
▁havası
▁yansıması
▁dediklerini
▁düşünseniz
▁kanıtlamak
▁götürdüm
▁moleküllerini
▁başarama
▁İranlı
▁adlandırdığı
▁listesini
▁indirme
▁yığınları
▁konsantr
▁benliğim
▁feromon
▁edebileceğim
▁tırmanıyor
▁Roger
▁Cidde
▁piramit
▁boşlukları
▁kurmamız
▁yurttaş
dukları
▁Eşit
▁gerginlik
▁paylaşır
▁Sağlıklı
▁prens
▁büyümek
▁sağlığ
▁mola
ign
▁Kum
▁Yönetim
▁becerilerini
▁yüzeysel
▁görebileceğimiz
▁getirilmesi
▁etkilediği
▁Sony
▁kıkırdak
▁demiryolu
▁yetişmiş
▁Arşi
▁sağlamakta
ham
▁Sayfa
▁yüzleşme
▁Ros
ens
▁dönüyoruz
▁öğrendiği
▁posteri
rum
▁sıfat
▁yaklaşan
▁Ph
▁tutuklandı
▁alacağı
▁Dalla
ürler
▁algıları
FL
▁dizilimini
▁sülfür
laştığı
▁ağaçta
▁unsurları
gir
▁Julie
▁restoranı
▁inmek
▁zenci
▁formlarını
▁Anas
reti
▁cehalet
▁Margaret
▁derinlikte
▁Baltimor
▁Andy
▁reklamlar
ambiya
▁FO
▁albüm
▁Arktik
▁ogrenci
▁Yirmi
programlanabilir
▁maymunun
▁trenin
▁form
tto
_
▁tabakaları
▁Sher
▁cevaplamak
▁elastik
▁girişimcilik
▁üretkenlik
▁uçuru
▁özelliğini
▁organizmaları
▁Acc
▁cay
▁Jona
▁ozon
▁RIS
▁insanlığ
lvani
▁Montana
▁kazma
▁Mimar
ddin
balığı
▁plasebo
▁JC
▁mammografi
▁süperiletken
▁kobra
▁üremesin
▁karakterini
▁kaybed
▁Tahri
▁Haklı
▁belirtiler
▁kongre
▁sorunlarımız
▁İlerleme
▁takımları
▁imkansızdı
▁sloganı
▁Elleriniz
▁bırakabilir
▁belirtiyor
▁düşünmekten
▁hayatlarımız
▁kirliliğin
▁Eğlence
▁sandığımız
▁gözlemliyor
▁denemeler
▁sürebilir
60
▁değerlerin
▁tanımlanmış
▁bulunuyorlar
▁bunlari
▁lambaları
▁ayırdık
▁Hedefler
▁bağlanır
▁yeryüzünü
▁törenin
▁Grand
▁oluşturuldu
▁şeritler
▁Europa
▁Gaz
▁çıkartabilir
▁görünüml
▁atomlar
▁dolanan
▁noktaların
▁kütlesini
▁limitleri
▁element
▁Yoğun
▁benzemeye
▁Satürn
▁büyütür
▁hü
▁ulaştığı
▁stand
▁yığıl
▁Dinleyiciler
▁geribildirim
▁Kit
▁1986
miyordum
▁cerrahlar
lerinizde
▁tetkik
▁bugun
▁cocuklari
▁cebi
▁sira
▁bilmedikleri
▁erit
▁sayılarını
▁hesaplayabilir
▁53
▁ayırabilir
▁sürtünme
▁genişletmek
▁fırtınası
▁Lider
▁sanatlar
▁sağlanan
▁aygıtı
derhal
▁takılmış
▁hayalgücü
▁gerçekleştirdik
▁bucaksız
▁eksiksi
lığından
fizik
▁yaklaştığı
▁göreceğimiz
▁bakımdan
▁giydiği
▁meditasyon
▁atılma
bert
▁sınavı
nness
▁edindi
▁uğray
▁veremez
▁Arazi
▁savunmak
▁küçülüyor
▁alçal
▁gezdi
▁kesimi
▁güvensizlik
aydın
▁Sebebi
▁bilemedi
▁savunucu
▁gerektirdiği
▁desteklediği
▁boyda
▁gezer
▁kardeşler
sari
▁Kanseri
▁istikrarlı
▁54
▁sezonu
▁habersiz
▁büyüttü
▁kuruluşların
▁kuruma
▁İşbirliği
▁Mutluluk
▁depresif
▁aldığımda
▁metot
▁ettiriyor
▁kulübü
▁Ayağ
▁DARPA
▁defteri
▁Gördüğüm
▁filmlerde
▁yatağ
▁hamilelik
▁konuşun
▁arzusu
▁kültürlerde
▁Kutsal
▁yüzyüze
▁denek
▁performansın
▁aktarıl
▁tamamladı
▁performansını
▁telaffuz
▁uğraştı
▁görünmesi
▁demedi
▁kampı
▁Map
▁tutmayı
▁uğruyor
▁Jenn
▁ölümle
▁egemen
▁bacaklarım
▁ilaçlarını
▁tortu
▁sureti
▁değiştirmiş
▁mercanı
leştiğinde
▁tamamlamak
▁Karayipler
▁bakterileri
▁Nite
▁çeşitliliğini
▁eleştire
▁zırh
▁yetişti
▁Filipinler
▁vakıf
▁tekno
ith
▁Wh
▁personeli
▁edemeyecek
▁başarabilir
▁Cap
▁yaratıkların
▁aittir
▁Sessiz
▁koyuyorlar
▁kanatlarını
bileceğini
▁eliniz
▁zeminin
▁yapısında
▁işlemin
▁sızıntısı
▁dalgalanma
▁toplumla
▁yenmek
▁Sh
▁KB
▁maça
▁varlığında
▁şartlarda
▁İskoçya
▁deniliyor
▁avuc
▁döküman
▁nanoteknoloji
▁toprakta
ug
▁etmeyecek
▁topluluklarda
▁klima
▁sonuçlandı
▁olmasi
▁eserlerini
▁Parla
▁korkmuştu
▁torunu
lamıyordu
▁lob
▁Salı
▁harcan
▁kağıtta
▁İstasyonu
▁Brit
▁yönlendirdi
▁görmekten
spekt
▁toksin
▁yarattığını
▁başvurdu
▁ikisine
▁getirdiğimiz
ılmaya
▁Harle
▁vermeyecek
▁McDonald
▁samimiyet
▁dakikayı
▁kaçar
▁gösterildiği
▁hanım
▁uzaklaşı
▁koyacağım
▁Çocuklarımız
▁Meksikalı
▁Finans
▁politikaların
▁yıktı
▁renklendir
▁göründüğün
▁yakalayabil
▁yayan
▁genelleme
▁ördek
▁beklentiler
▁izleyeceği
▁kutusunda
▁Oyuncak
▁Karım
▁hazine
▁umu
▁küçümse
▁sorunum
▁yanıyor
▁temsilcileri
▁baktığım
▁zirvesinde
▁mekanı
▁Dalga
lanmıyor
duğunda
▁kıskan
▁dize
ves
▁besteci
▁oğul
▁zulüm
ğünde
luş
▁dağıtımı
▁yüzdesi
▁kaybedil
▁varyasyon
▁kokteyl
▁üretmeyi
▁hazırlıklı
▁götürdüğü
▁klas
▁sayfasını
▁Kanal
▁restoranlar
▁Yapabilir
▁geziniyor
▁dedikodu
▁programa
▁patlat
▁Bulun
▁taşra
▁Carol
▁varmaya
▁reng
▁Alab
▁pencereden
▁üretebiliriz
liğimizi
▁Afrikalıların
▁çekişme
▁ortalaması
uba
▁kurulması
▁görebiliyordu
▁altının
▁bekliyordu
▁yerleştirebilir
▁yoksulluğ
▁dolaşımı
▁gönderiyorlar
▁belirlediği
▁bozuklukları
▁yapabileceğimi
lanarak
▁tanıtıl
birya
▁Antartik
▁ekim
▁usul
▁ultrason
▁Sizleri
▁öldürecek
▁komşusu
▁tanıttı
▁İkisini
▁döl
▁çiçekleri
▁engin
▁vücudumu
▁hisler
▁rakipler
▁düşüşün
▁yerleşik
▁yaptırım
▁yıldaki
▁isteksiz
▁içgüdü
▁çakış
▁mesafeler
▁Pink
▁ettirdi
▁tablonu
▁avcılar
▁Rönesans
▁Bolt
▁Gösteri
▁deneyimdi
▁ağlarını
▁dinlen
▁servisleri
▁üreticisi
▁uzanır
▁şaşkınlık
▁Hız
▁pişirmek
ring
laştırıcı
▁politikalarını
▁yapımcı
▁gelirin
▁ayarlanmış
▁Uni
▁Sanatı
▁misyonu
▁getirile
eceğinizi
▁bulunuyordu
▁Soo
▁odalarında
▁yattı
▁koyduğunuz
▁Yerde
▁dolabı
▁Leo
▁dağılma
▁Kel
▁pap
▁ekosistemi
▁ucunu
▁grupla
▁çevirdiler
▁solucan
▁dinleyebilir
▁zıttı
▁bip
▁değnek
▁sınıflarda
▁çöpü
▁protokol
hav
▁ceset
lığında
▁madeni
▁Kaplan
▁proteinin
▁tesir
▁heyecanlandır
▁terimleri
hal
▁yolların
▁reaktör
▁arkeoloji
▁Teleskop
▁teş
▁açıklamalar
▁taşınır
▁buluşu
EC
▁çevrelerinde
▁arıyorlar
▁moleküllerin
▁Iva
▁yanardağ
▁bırakılma
▁indirmek
▁yetisini
▁aşamaya
▁Wire
▁Depresyon
▁ulaşabiliriz
▁gerçekleştiren
▁başkanları
▁Ukrayna
▁eşitsizliği
▁keşfetmiş
▁havuç
▁kopyası
▁saplantı
▁verse
▁görüşmeler
▁Berbat
▁kullanımında
▁projelerini
▁heyecanı
▁prensipleri
▁dönüyordu
▁iptal
▁piramidin
▁94
▁düşmek
lıların
▁Camero
▁cetvel
▁yaptıklarının
▁dükkanları
▁boyutuna
▁Blog
▁ayırmaya
▁başaramadı
▁anlatabiliri
▁Destek
▁adımda
▁krater
port
▁uçurma
▁vereceğini
▁değişkenlik
▁tutkusu
▁aldatıcı
▁üretebil
▁uğraşırken
▁yakıyor
▁kurtuluş
▁dönüştüğü
▁evliliğin
▁ambulans
▁girmişti
▁Başkalarını
lanmaya
▁topluyorlar
TO
ncy
▁ediyorsun
▁nedense
▁sapan
▁getirebil
ther
▁forma
▁trilyonlarca
▁sistemindeki
▁yükselti
▁santral
▁çevril
▁gecikme
▁kullanıyorsunuz
▁önlemler
▁istemediğim
▁karşınızda
▁getiri
▁Bahçe
bage
▁yeteneğimiz
▁anladılar
▁Yolda
▁yapamadı
▁gazetede
▁rahibe
▁seviyordu
▁kuracak
▁takılma
▁yapabildiği
▁iletişimde
▁dioksit
▁onarım
▁tekme
▁yönler
▁hâli
▁vurur
▁komedyen
▁Mario
▁dokunmati
emiyoruz
▁America
▁nöbet
mart
▁BJ
▁Miami
▁düşürüyor
▁yitir
▁spektrumu
▁Boo
▁karmakarışık
▁şirketim
▁cüzdan
▁And
▁aşkımı
▁takmak
▁ajandası
ikipedi
▁haritalama
▁İnternetin
▁yetişkinliğ
▁sindirim
▁evinizi
▁etkilemek
▁ithal
▁yaprakları
▁Ig
▁yüksekliği
▁Dişi
opter
▁önyargıları
▁kontak
▁Juan
▁içindedir
▁yemekler
▁oluşmaya
onica
▁dişlerini
▁sığınak
▁radar
▁zekası
▁kereste
▁rahatsızlıkları
ysek
ymou
▁çölleşme
▁tüy
▁Maldivler
▁azaldığı
▁Teleskobu
▁konservasyon
▁Anon
GS
▁konektom
▁Everglade
▁şifreler
▁kütleçekim
▁eksiklik
▁Diplomat
▁paradoks
▁yapamazdı
▁edilmez
▁hızlandırmak
▁Hisse
ğun
▁sonlandır
▁91
▁çalışabilme
▁arabanızı
▁kilogram
tıp
▁işlediği
▁bag
ırf
▁istikamet
leyebilirsiniz
▁gideceğini
▁anketler
▁yaklaşımlar
▁binmek
▁kapılarını
▁gündü
▁CE
▁havuzları
▁sahnesinde
▁çekirdeğin
▁sıçra
tiğini
▁öğretecek
▁köylü
▁cümleler
tfli
▁karton
▁Cle
minder
▁onlarin
irim
▁uc
▁cocuk
▁Neyin
▁düzenlen
▁besleyebil
▁Besin
▁çabalıyor
arsanız
▁seyircilerin
▁başvur
▁dondurma
▁ayarlamak
▁seçildi
▁gevşe
▁araçlarımız
▁şarkılar
▁sapma
▁yapsaydı
▁yaklaşma
ctic
▁hızlandırıl
▁kaynaş
▁Yeryüzünde
▁Stüdyo
▁yaratıkları
▁ulaşımı
▁dikme
▁Han
▁gitmediği
taşı
▁aklınızı
▁tecrübeler
▁Day
▁Ortadoğu
▁etkilenmiş
▁kesilmesi
▁vermeli
▁birincil
▁babalarını
▁parmağını
▁eğleniyor
▁hayırseverlik
▁Adi
▁borçluyu
▁savunucusu
▁sandık
▁makyaj
▁zorlandı
▁bağışı
▁belirleyecek
one
▁doğuruyor
▁karıştırdı
▁kaybol
▁Serbest
▁yapılara
▁oynuyorlar
▁dolanı
▁denklemler
lamayı
▁alakasız
▁sinsi
▁pist
▁Klasik
▁nitelendir
▁garson
▁varlıklarını
▁reddediyor
▁karnı
▁çözüyor
▁Kare
▁gösterdikleri
agram
▁yıldönümü
▁Gelir
▁Unut
▁efektler
▁testini
▁tanıyacak
▁hareketlerin
▁alsa
▁çekimin
▁penceresi
▁yaratmamız
▁Susan
▁Kamboçya
▁bronz
▁Sırt
▁sütü
▁vücutları
▁sinekler
▁baraka
▁türümüz
▁ekosistemleri
▁üre
▁uyanma
▁belirlen
▁karı
▁hakem
▁korkutuyor
▁ayrımcılığı
▁bıktı
▁etmemi
▁uyguluyor
▁kase
▁eğlendir
▁kızdır
▁Tere
▁personel
▁dağıtmak
▁ataları
▁öv
▁esna
▁şekillendiril
▁dişiler
hir
▁tipte
▁gençliği
▁bulacağınız
▁temizliyor
▁bük
▁kontrat
▁Rahat
▁gözlemlemek
▁umduğum
▁ID
▁aralar
▁köşelerinde
▁Grafik
▁kabın
▁belirtisi
▁düşündünüz
▁kumar
▁bükül
▁kullanmaz
maktır
▁ellerimi
▁doga
▁ocak
▁istedigim
▁almama
▁Oturu
▁bulunduk
▁makinelerini
▁Fabrika
imizle
▁yasinda
iri
▁beyinle
otik
▁noktadır
▁rastlan
▁bedenlerimiz
▁tesisleri
lamıyorum
▁kliniğin
▁besleyici
ılmıştı
▁sırasını
▁kuzeydoğu
▁Rebe
▁vakaları
▁pilotu
▁vaiz
malarını
▁sağlayabilecek
▁ekonomileri
▁görmüşs
▁aciliyet
▁seçin
▁yüklen
▁üniversitelerde
▁biyolojide
▁gaga
▁evrenimiz
▁seçmenler
▁bulunacak
▁stratejiler
▁Titanik
amadığımız
▁konuların
▁Eli
▁bolluk
▁adaletsizlik
▁söyleyemem
▁Massachusett
▁cent
▁anlatmayı
▁Sahne
▁yazdık
▁oynadığını
▁dizilim
▁ufuk
▁rejimin
▁seçeneğin
▁Job
▁ulusun
▁dolaşmak
▁denemeleri
▁yaramadığını
▁çıkarıldı
▁mütevaz
rün
▁reklamları
▁edemeyeceğimiz
▁Aramızda
▁bariyer
▁oluşması
▁1940
▁sula
▁boşal
vay
▁taklidi
▁karısı
▁köprüler
▁Küb
syonu
▁tefe
▁tecrübeleri
▁gördüğümü
▁çeşitleri
ildiğini
▁sergiliyor
▁erişebilir
▁ifadeleri
▁hissettiğimi
▁inceleyebilir
▁bahsetmiş
▁kayalar
▁dokunun
▁tahammül
▁çözüldü
▁varlıkların
▁devleti
▁ödey
▁ekonomimizi
▁Katı
▁OE
▁görmeli
▁Dehşet
▁ağladı
▁monitör
▁konuştuğumuzda
▁yapmayacağım
▁memelilerin
ışını
▁düşünmez
▁yapmamıştı
▁bulutların
▁rakım
▁sahilinde
▁Tahminim
▁afet
▁kiriş
▁edemiyor
▁rahatsızlığı
▁oranlarda
▁plak
▁sergiler
▁sallıyor
▁kutuda
▁salladı
▁kırılmış
▁Birşeyler
▁ellerindeki
▁nedenim
▁güçlüdür
▁Island
▁kalmıştım
▁çekilir
labildiği
▁savaşlarda
▁komşuların
▁sığın
▁dönüşmüştü
▁betimleme
▁Devasa
liyordu
▁Şifre
▁lezyon
▁olmalılar
▁medeniyetin
▁beynimi
▁felsefesi
▁ilişkilerimiz
▁paragraf
▁düzlem
▁yüzlü
▁damlası
▁anlayışını
▁tempo
▁boynuz
▁kullanıcısı
▁alamazsınız
▁Cart
▁mikrodalga
▁meseleleri
▁yaşamımızı
▁sizsiniz
▁kaybedeceği
ett
▁yayınlanma
▁mas
▁bulunmuştu
▁bağırıyor
▁istersen
▁seçmiş
▁boğu
▁içindeydim
▁boğul
▁günüydü
▁Wom
▁hastaneleri
▁çevrilmiş
▁Tav
▁yapmayacak
vre
▁duymayı
▁düşünmem
▁kararlarını
CA
▁platformlar
▁ofisinde
▁odaklandı
▁halim
▁öğeler
▁multi
▁kö
▁oluşturulması
▁görselleştirme
▁gerçekleşmiş
▁nakled
▁açıklayabilir
▁konserve
▁Şehirleri
▁koyarsak
▁otlak
▁aktiviteleri
▁popülasyonu
▁fasulye
▁diyagramı
▁besler
▁Intel
eka
▁dağılmış
▁abartma
▁tavanı
▁yapıştırdı
▁yükledi
▁soku
▁Müşteri
IK
▁omuriliğ
▁doldurdu
▁Düş
heim
▁işlevini
▁Birbirlerin
▁dağları
▁tanecikleri
▁algılamak
tha
▁taktığı
▁yetmezliği
▁tüketicilerin
▁ağırlıklı
▁özelliklerinden
▁şehirlerimizi
▁Hollandalı
▁Hapishane
▁cenneti
▁melek
▁görüşmesi
▁iyiliği
▁sormuş
▁dönemini
▁yalancı
▁güler
▁ödüllendiril
▁ödüllendir
ladığımızda
▁Gram
ock
▁değerlendirir
▁anlatımı
▁yakalanan
▁utangaç
▁açıklığ
▁yaşayanlar
▁lazımdı
▁ortaklarımız
▁notalar
▁avantajları
▁Adını
▁bekledik
▁karamsar
▁cogu
▁iliği
▁itibarı
▁şanslıysa
▁doludur
▁çıktığınızda
▁telefonun
▁koruyabilir
▁ücr
▁110
▁dokundu
▁okuyabiliyor
▁konuşabiliyor
madığı
▁kurabilme
▁tehditler
▁anlaşılmaz
▁gidebilecek
▁Gitme
▁lojistik
▁Empati
▁atlayı
▁öl
▁keşfedi
▁vizörü
▁trafikte
▁Tatlı
▁yaşındakiler
▁kasları
▁sergiledi
▁canım
bileceğimiz
▁mahallelerde
▁Kendisini
▁düşündürdü
▁yükseltmek
▁cerrahları
▁bildiri
▁sanatçıyı
▁karanlığın
▁düzenin
▁zihninde
▁kokla
▁hepsinde
▁plankton
▁Space
▁paketin
▁farkındaydı
▁hissetmişti
▁çubuğu
▁derinlik
▁salınımları
▁kaynaklandığın
▁hücrelerinizi
▁Kaba
▁Mama
▁avlu
▁fikirdi
▁Sonuc
▁Uça
▁karbondioksiti
▁keşfedecek
▁anımsay
▁Hangisi
▁izleyecek
▁sanma
▁bulabilecek
▁bilgisayarlarla
ings
▁tırmandı
▁flüt
▁piyasada
▁Tedavi
▁UNI
▁danışma
▁tasarla
▁Papa
▁dolarla
▁Portland
▁keseli
▁Win
▁bileşenlerin
▁umum
▁donanımlı
▁çalışmamı
▁hissettirir
▁somon
▁numarayı
▁kuvvetler
▁sıkma
▁favorilerim
▁matematikçiler
▁Yeterli
▁korunması
▁prenses
▁yunusların
▁aşamalı
▁bırakıyorlar
▁çağırma
▁PRI
▁Julian
▁sırları
▁şekeri
▁evlendi
▁termo
▁beklenmeyen
▁zorunluluğu
▁görmeniz
imbabve
▁kurumlarını
▁karakteriz
▁sağlayabileceği
▁tuzağı
▁bedenimi
▁Bitcoin
▁ayrılı
lenmesini
▁tarlaları
▁Erken
▁Mimarlar
▁aslanlar
▁Küreselleşme
▁Vücudu
▁sevmem
▁yüksekte
▁Kurumu
▁Böcekler
▁Window
▁sürücüleri
▁Siyasi
▁farkla
▁döndürme
▁evrenler
▁arabanız
gill
▁elementleri
▁milisaniye
▁işaretleme
▁rekoru
▁Feminist
▁tanısı
acci
▁Coh
▁Dışişleri
▁ultraviyole
▁hacmi
▁olacağımı
▁çocuklarda
▁Biyosfer
PT
▁Jesse
▁Romo
▁sokakları
▁oluşuyordu
zsek
▁red
▁götüreceğim
▁standartların
bilmeliyiz
▁güçlendirmek
▁yöntemlerini
▁flört
▁edi
▁isteğimiz
▁bürokrasi
▁ilgisiz
▁Devletin
▁sokar
▁lityum
▁azalır
▁toplumunda
▁fizikte
▁izah
▁yaşanıyor
▁kullanış
▁azaltır
▁razı
▁Trafik
▁daireleri
▁opsiyon
▁davalar
▁irtifa
üldüğü
▁tayfı
▁Oksijen
▁güzelliğini
ity
törü
▁yatağında
▁aşkım
▁ayri
▁Del
▁savun
usmeler
▁telefonla
▁Insanlar
▁nakil
▁patlamalar
▁bildiklerini
▁ibaretti
▁mantıksal
▁düşünüldüğü
▁primatlar
▁beslenir
▁geçirirler
▁yavaşlat
▁Deneme
▁eğilimindedir
▁salınımını
▁yapacakları
▁sıkışıklığı
▁çevirebiliri
▁delikanlı
▁yatağın
▁salak
▁boşanma
▁Galile
▁tok
▁farkeder
▁eğriler
▁kulağınız
▁karışıklık
▁bazılarında
▁sattığı
▁84
▁geçmemiz
▁seçimlerinde
▁Koru
▁Toplantı
▁festival
▁başlamam
rsınız
▁hayalleri
▁görmeyen
▁vermeleri
▁açılması
▁tamamında
▁bulmam
▁ediliyordu
lanıyordu
▁bulaş
▁içiyor
▁konferansında
▁yaşamlarında
▁güvenen
▁yalvar
▁baskıcı
▁dönüştürdük
▁dönüştürül
▁tedbir
▁tanına
▁Roos
▁görüşünü
▁Mali
▁traş
▁görmeme
▁East
▁tanımladık
▁herbir
▁Kriz
▁İşletme
▁norm
▁edilemeyen
▁anlatamam
▁sarsıntı
▁arkadaki
▁uygulamalı
Tech
▁kabloları
AP
▁harici
▁Orkestra
▁yönetti
▁görürüm
▁deşifre
▁gözükebili
▁kıyafetlerini
▁Cinsel
▁Gerç
▁aleminde
▁soruldu
▁Doğum
▁Şahs
▁farkedi
▁Yarattığı
yacaksınız
▁yaratmıştı
▁ikon
▁sözlü
▁rahatlama
▁programında
leyebilme
▁düzenley
▁sos
▁cinsiyeti
▁yerdeydi
▁Yazılım
▁gördüklerinde
▁görünse
▁sporcu
▁uyumsuz
▁bakire
▁tutkunu
▁batılı
▁yapmamış
▁düzenini
▁uymaya
▁değmemiş
▁ayrıcalığın
▁gelenler
▁heves
▁tehlikelidir
▁sarsıcı
▁attığım
▁söylemi
▁merhametin
▁travmatik
▁sunuyoruz
▁Sık
▁demeli
▁muhteşemdi
▁Kilise
▁girişti
▁fakirlikte
▁Starbuck
▁böceğin
▁zu
▁geçmişteki
▁Yaşamı
▁köpük
▁yapraklar
▁birleştirdi
▁görevlendiril
▁körfez
▁yükselmeye
▁İstediğiniz
▁yayınlamak
▁oyuncaklar
▁müzesin
▁editör
▁Cy
▁ateşleme
▁Tür
▁değişmiş
▁yetersizliği
▁Toplumun
▁büyüle
▁buton
▁hüzünlü
▁biliminsanları
▁döndüğünde
▁seçilim
▁büyüdük
▁peyzaj
▁populasyon
▁kariyeri
▁sehir
▁oturu
hay
▁dolayi
▁degildi
▁herbiri
▁izlenim
imini
▁izle
▁Deli
lamıştı
▁manzaralar
▁karikatürler
ston
▁süsleme
▁yırtı
▁bulamayacağı
▁internetteki
▁çevremiz
▁etanol
ofi
▁konuşmaların
▁Ofisi
▁uygular
▁ofisin
▁dönüşebilir
scar
▁önermek
▁ibadet
▁tevazu
▁üstünlük
▁sevmeyi
▁AR
▁ilişkilerin
▁Hip
▁desenleri
▁sineklerin
▁izlenimi
▁Kızım
▁yaratabileceği
▁kandırma
▁göçmenler
▁girerim
▁vermekten
▁Hatırla
▁dağı
▁kehanet
▁meş
▁alacaksınız
▁fiili
▁muhtaç
▁övün
▁gidişat
▁eziyet
▁söyleyeceği
▁sıkıntılı
▁uğraşıyordu
▁tuttur
▁Kra
▁stüdyom
rız
▁bekleyebilir
▁geçiriyordu
▁fiziki
▁Katılımcı
▁Jordan
▁telefonda
▁bazında
▁denetle
▁yanları
▁Prof
▁çalabilir
▁patojen
▁sisteminiz
▁virüslerin
▁Spe
▁yırt
▁Öğren
▁Gezi
▁çıkarılan
diklerinde
▁algılıyor
▁konumunu
▁tabanın
▁toplandığı
▁Rock
▁eşinin
▁çizelgesi
▁mevcuttu
▁Maliye
▁gönderiliyor
▁söyleyeme
▁geliştirile
▁yaptırma
▁oturduğum
▁içimdeki
▁çökmüş
▁merkezlerini
▁Uygun
▁hiçbirimiz
▁keyfini
▁dinlemeyi
phon
▁ras
▁görmüyoru
▁paylaşı
▁banknot
▁çatal
▁Cooper
▁çiçeğin
▁karizma
▁Anlaşıla
▁getirdiğiniz
▁komplik
▁dileme
▁hissederdi
▁anlayışımızı
▁ilerlemiş
▁Sergi
▁kravat
▁Met
▁mesajlarını
▁arkadaşınızı
▁hocaları
▁eşiniz
▁zorlaştıra
▁derisini
▁dokunu
lmuyor
▁gibiyim
▁yaşadığımızı
▁devrelerin
▁sevinç
▁Polonya
ciliği
▁yönetilen
▁cila
▁kenarındaki
▁metaforu
▁bağlayabilir
▁değişikliğin
▁sevmez
▁yokluğu
▁Sakin
▁kanaat
▁Afro
▁affedi
▁bağlıydı
▁kurtulu
▁kapanı
▁Kod
▁Sydney
olan
▁genlerini
ripo
▁tavuğu
dora
▁yum
▁Vali
▁Grace
▁mantığın
▁kafanızı
▁savaşların
▁detaylarını
▁çevirirse
▁Fred
▁evrildi
▁cinste
▁hikayemiz
▁notaları
▁geldiğin
▁şevk
hassa
▁Cerrah
▁bağlandığı
▁kusurları
▁Rub
▁geçmez
▁uyguladı
▁durumdu
▁çıkacağını
▁kimisi
▁çıkarması
▁kartlar
▁eşyalar
▁Hakikat
▁aslanları
▁çiftlikte
▁tarımın
▁eriyen
▁çıkartmak
▁nehirleri
rake
▁Binası
▁etrafınızdaki
▁televizyonun
▁Başlama
▁tedaviler
▁bakabiliyor
▁yaramayacağın
▁deneye
▁faiz
▁altyapısı
▁değişimini
▁değerin
▁Wilson
▁Ada
lâ
▁kargo
▁akılda
▁aralığı
▁hayırsever
▁Konferansı
▁Kullanıcı
▁Dub
▁uygulamaların
▁çalıştığımı
▁doyur
EO
▁bahis
▁fikirden
▁kalpte
▁aktivitesi
▁Hyper
▁Mad
▁kaydedi
▁kırıl
▁içim
ette
▁ölçebil
▁kandırıl
▁ahmak
▁birleştirir
▁zannet
▁hükümette
▁yetmiyor
▁bedeni
▁parmaklarım
▁ekseni
cektir
▁Cape
▁ekleyin
▁Fikri
▁kısaltma
▁kurtulabilir
▁Kahraman
▁dokular
▁duymadı
▁mono
▁konuştuğunu
▁kısıtlamalar
▁delil
▁almalarını
▁havayolu
▁Sinek
▁Uydu
▁Beden
▁Farkında
▁Archi
▁Eşi
▁Nedeni
▁pusula
▁Elimde
▁göstermeyi
▁teknolojilerini
▁anlaşması
▁adada
▁yapabilmemiz
▁Anladım
▁Hatırlar
▁İçeride
▁Uyku
▁ekseninde
▁ölmeye
▁Blo
▁giyen
▁vücudum
▁saklanan
▁imzaladı
▁önlenebilir
▁yürüttü
▁sinyallerini
▁Gülüyor
▁gökdelen
▁görülebile
▁propaganda
reran
▁hasarlı
lanmasını
▁reddetme
▁savunuyor
▁Sahil
▁Düşünüyoru
omik
▁yakıtları
▁takılan
▁alüminyum
▁yuvarla
▁rehabilitasyon
▁tabiri
▁Acil
▁öde
▁örneklem
▁sorumluluğumuz
▁atığı
▁fikrimi
▁saplan
▁çörek
▁oluşacak
nası
▁bacağını
▁damarlarını
▁kalbe
▁Yang
▁dilekçe
▁Edinburg
age
▁kapısında
▁dönemli
▁atletler
▁belirleyebilir
▁83
▁cesurca
▁projemiz
▁yosunu
▁Yatırım
anılan
▁kötümser
▁ikilemi
▁varlıklı
▁aktarıyor
▁Brook
▁oyuncular
▁listede
▁antropoloji
▁yiyi
▁hoşnut
▁giymek
▁link
▁Nesneleri
▁dalgalanmalar
▁marangoz
▁beraberce
▁ahtapot
tayı
▁Denge
▁cahil
▁bakır
thy
liyorum
▁katılır
▁Sağdaki
▁ölçümü
▁havuz
▁6000
▁hastalığını
▁Fotoğrafçı
leriydi
▁giydiğim
▁cömertlik
▁hoşgörü
▁kıran
rke
ues
▁Şirket
▁Dun
▁Elde
NT
▁kızamık
▁inceleyen
▁basitti
▁tutumu
▁sitesini
▁mağaralar
▁ülkesini
▁yapmamak
▁Mahat
▁kokain
▁değiştirmesi
▁Edu
▁muhalefet
DT
▁Şeria
▁çıkabiliyor
▁filleri
▁gizlen
▁bok
▁Barbar
▁başlamalı
feld
▁UV
▁kısıtlamaları
▁yanılsama
▁yeniliği
▁çıkarmış
▁avukatlar
▁Ida
AA
▁akılcı
▁önderli
▁girdiğini
▁bitmeye
▁Kimyasal
▁ölçeklerde
▁Fareler
▁penguenler
▁dürüstçe
▁polenleri
▁yüzümde
▁dağcılar
▁annemi
lah
▁mikroskob
▁akarsu
▁kalsiyum
▁vereceği
▁Bren
▁dublör
AM
▁mammogram
▁şifreleri
▁Terör
▁güreş
▁Scratch
▁Molalar
▁Bage
▁Basse
▁oyuncuların
▁Öteki
▁sonbahar
▁hükmed
▁kapsamı
▁suları
▁kurtarabiliriz
▁yararlanma
▁belirledi
▁Engel
eller
▁somutlaştır
▁unda
rın
▁uygula
▁çevirdik
▁rafine
▁eğlenme
▁otobüsü
▁gezen
▁bisikletler
▁demeyi
▁yetkilileri
ıyorlardı
▁söylenmesi
▁yakmak
▁zamanlarını
▁elektriğ
▁Mekani
▁nitelikleri
▁dengesi
▁bilimde
▁birleşmesi
▁sokakların
▁barın
▁akışkan
▁bilemem
▁kesiş
▁bakımını
▁tutkal
▁sürdük
▁ilerley
▁istasyon
▁Programı
▁Hesap
▁gözümüzü
▁sunduğum
▁gazetesi
▁atomların
▁saptan
▁tayf
▁Güzellik
▁yakalanmış
▁uzaklaşır
▁cümleleri
▁1920
▁ilgiliyim
ld
▁tanıştırmak
▁tarzında
▁eğitici
▁karşımda
ginde
▁ihtiyaci
▁steril
izasyon
cel
▁calisti
▁hazir
▁elimizi
▁umar
▁yeteneğ
▁içeriyordu
▁bölümlerinde
▁büyüy
▁oturara
▁atomları
▁İnce
▁dansçılar
▁prim
▁ilerletme
▁aygıt
▁laptop
▁Orleans
▁aygıtlar
▁ölçeklenebilir
▁dönüşecek
▁Kanunu
labilen
▁biçimlendir
▁çarpar
▁tahminleri
▁gölgesi
▁üzerlerin
▁görmedik
▁arkalarında
▁yama
▁Mai
bel
▁havalan
rme
▁zenginliğin
▁kamyonet
▁Kalbi
▁benliğimiz
▁gelecekler
ınızla
▁Sri
▁gömül
▁istila
▁ırkçılık
▁eleştiriler
▁gelmeli
▁gövdesi
▁bilmediğiniz
hai
▁satıcısı
▁ebeveynlerim
▁Duydu
▁LGBT
bos
▁çağlarda
anları
▁Mal
metti
lendiler
▁savunan
▁sustur
▁kalbimi
▁muhabbet
▁bırakmayı
▁yarama
liydik
▁sohbetler
▁tanımlamaya
▁Kahve
▁dönüyorlar
▁ayağın
▁hoşgeldin
▁sıkıştırılmış
▁Robotlar
▁takımlar
▁sanatları
▁uyandırma
eceğinden
▁göğsün
▁İhti
▁çıkmıyor
▁akademisyenler
▁malı
▁fera
▁sormayı
▁izlediğiniz
▁gazetesinde
▁Renk
▁Tarihi
▁vücutlarını
▁yansıtıcı
▁kemiğin
▁kurabiliyor
▁verdiklerini
▁Aç
▁kafalarını
▁kelimelerini
▁çalışabilecek
▁atlet
▁ortası
▁oyunlarda
▁Kitapları
▁getirildi
▁isteyeceği
dıklarında
▁vaziyette
▁yardımsever
▁sökü
▁kanalizasyon
▁mercanların
▁yüzeylerde
▁yakaladık
▁krizler
▁Bakteriler
▁tansiyonu
▁infaz
▁rezil
amazsın
▁yapamazsın
▁hatıra
▁inancını
RI
▁tutulma
▁söylem
▁verimi
▁adres
▁Project
▁yüzüm
▁doy
▁oyunlarında
▁twit
▁Birey
▁dengeleme
▁pre
▁Fay
▁kadındı
▁seçtiği
▁Köy
▁ilkokul
▁Okullar
▁yaratın
▁parfüm
▁yanıtlama
▁perspektifi
▁milletler
▁anıları
▁umutlu
▁benliğiniz
▁76
▁plastikler
▁düştüğünde
▁zam
▁hapsetme
▁dümen
▁basamağı
▁Birçoğu
▁yürüdüğü
▁yürüdüğünü
▁Cre
▁Ağır
▁uzuv
▁yapamayacağımız
biliyoruz
▁başlamaz
▁değişikliğ
▁bilgeliği
▁bilgisayarım
▁koyarsa
▁güncelleme
▁for
▁BA
etler
▁dakikalar
▁yonet
▁metalleri
chang
▁taraflar
▁Ilk
▁Dedik
▁göremeyeceği
▁hiçbirini
▁görmediği
▁büyükbaba
▁epilepsi
▁akşamı
▁bilincinde
▁olamıyor
▁Olive
▁Pay
▁nehri
bolik
▁ödediği
▁sorardı
▁limon
▁tebrik
▁geçiriyoru
▁yönlendirmek
▁düzenlediği
▁kullanılmakta
▁hakkımda
▁komşuları
▁yargılar
▁körlüğü
▁hatırlatma
▁anlatmalıyı
▁araştırmasını
▁değerlendirmeye
▁kategoriler
▁Patric
▁diploma
▁parasız
▁öğrenimi
stro
▁RG
▁İşaret
▁İşimi
▁gösterdiğimiz
▁şefkati
▁Tayvan
▁bırakıyoruz
▁Gelişmiş
▁üreticiler
▁ilerlediğini
▁düşürü
▁menfaat
▁görüşte
▁eğme
▁Jeo
▁romanı
▁Müdür
mışsınız
▁anneniz
▁geyik
▁ustası
▁Mel
▁Hıristiyan
70
▁etmiyordu
▁söylüyorlardı
▁ispatlama
▁eğitilmiş
▁Tarihte
▁markası
▁çiftin
▁volkanik
▁korkutan
▁ölümlerin
▁bazılarımız
▁Çiçek
▁üretime
abilmemiz
▁hızlanma
▁uyaran
▁artmış
▁aldınız
▁İçimde
lıyorum
diğimizi
▁çizelge
▁modu
▁kavramak
leştirdiğimiz
▁Conne
▁düşkün
▁aşığı
leyebiliriz
▁türünde
▁trendi
oma
▁döviz
▁edebiliyorlar
▁kıtada
▁Darfur
▁kendinizin
▁ailemiz
▁Yuva
▁Hap
▁kayıtlarını
▁tümörler
▁üreteceği
▁düzenle
▁saklanıyor
safi
▁edindiğimiz
▁kullanabilirler
▁depremi
▁çubukları
hma
▁sağlıksız
gele
▁güzeldir
▁yapacağınızı
▁canlandırı
orado
▁çiziyor
ttığı
▁Colle
▁tarımı
▁virüsleri
▁çeşitlilikte
▁Bireysel
▁denebilir
▁müsait
▁karmaşıklığını
▁artırabilir
▁kulağın
▁katliam
▁onyıl
▁Musa
▁atlar
▁roll
▁yükseliş
▁devletlerin
▁bıraktığını
amamış
▁kılıç
▁İslami
▁zihnini
▁simgesi
▁doktorunuz
▁söylemeniz
▁girerek
▁yükselecek
lly
▁cismi
▁fenomenin
▁rastlantısal
▁kolunuz
▁Politikacılar
▁iştir
▁etmemişti
▁üzül
▁anketi
▁çan
▁Çatı
▁övgü
▁PC
▁bütünün
▁terapisi
▁ışıltı
▁Spu
▁kork
verir
▁yeğenim
▁aileyi
▁Nas
▁bulduğunu
▁Körfez
▁çifti
▁McCa
▁konseri
▁ateşkes
▁Fosil
▁kuyruğunu
▁gözüktüğü
▁vir
▁saptaya
▁hoşlanıyoru
değiştirebilecek
ugh
▁karıştırmak
▁engelle
▁ıslah
▁bırakmıştı
▁arıtma
cuları
▁oluşmakta
▁sarılmış
▁Kuz
▁korkak
▁desenler
▁Rod
▁toplanma
▁programlanmış
▁bulundurma
▁zarfında
▁Kömür
▁çalışırdı
▁kriter
▁gezinti
▁denizi
▁Organik
▁hesapları
▁lokal
▁azalttı
▁milenyum
▁milyonu
▁yarık
▁Dikkatli
▁kaçırdığı
▁günlerinde
▁isteyebileceği
▁Ufak
▁yapıştırma
▁yolladık
▁kapana
▁zedelen
▁kampa
▁cemiyet
▁tanıdı
▁deneyimlerin
▁oynatabilir
▁vücudumuz
▁giga
▁Gölü
▁cihazların
▁takiben
▁kaçırmış
▁koyabiliriz
▁Makale
idari
▁Sert
▁yakalandı
▁yudum
▁organların
rika
▁affet
▁çalışmalarımı
▁küçültü
▁günlerini
▁kaçınmak
▁bulamadık
▁gitmeleri
▁dönebil
▁Makina
▁ümidi
▁Yenilik
▁dinlet
bury
▁seyretme
▁görmüştüm
▁şiirsel
▁konumuz
▁kanepe
▁kabiliyetin
▁binada
▁yaptıklarımızı
▁Heykel
▁tamamladık
▁taran
▁ekibinin
▁işledi
rmektedir
▁koltukları
▁Koro
▁sayar
▁ör
▁Fırın
▁yapmaktı
▁konuşurdu
▁Psikoloji
▁Walk
▁yılımızı
ons
▁vatandaşlarını
▁alkışlama
▁olabilirsin
▁Kitaplar
▁güçlerin
emedim
▁hevesi
▁sağlayacaktır
▁performanslı
▁kazandırmak
▁dolandırıcı
▁alacaklar
▁stajyer
▁isteğini
lanamayan
▁tenis
melisin
▁çıkmıştır
▁mutant
▁Ofis
▁diyagram
▁Çaresiz
▁Yargıç
▁pano
▁Akdeniz
▁İstihbarat
▁çeyreği
▁Fri
▁üs
urus
▁yıkımı
▁Tasarımcılar
▁biyolojisi
▁formülü
▁çıt
▁yapılmakta
▁göründükleri
▁bulaşan
▁arkadaşlarınızı
▁Varlık
▁imzalama
▁cezalandırıl
▁ağaçlarını
▁sporu
▁alçı
illo
▁kalırlar
▁kızımın
▁sunacak
▁karıncaların
▁bulması
▁içermekte
▁memleketim
▁yürütül
▁kurbanlar
▁sınırında
▁notu
▁kokusunu
▁alıcılar
▁barda
▁irtibat
▁dallar
▁tabakasını
▁Barbi
▁parasal
▁deneyimli
▁Dava
▁atacak
▁fiyatlarını
▁tanımaya
▁ettiyse
▁kadınlarda
▁Sıra
rdün
▁uçakla
▁yöneltti
emezler
▁Luc
▁altındaydı
▁sualtı
▁ittifak
▁Balina
▁düzenlemeler
▁köpekbalıkları
▁doğmuştu
▁beklentilerimiz
▁iyon
▁peygamber
▁durdurmaya
▁durdurdu
▁deha
▁fotoğrafların
▁Child
▁yönetiminde
▁dağa
▁hoca
▁şiş
▁yüzeyler
▁transistör
▁satılma
▁yolcular
▁göremediğimiz
▁yaramayacak
▁şartların
▁devral
▁düşmesi
▁hippi
▁gösterildi
▁Count
▁mesane
▁Shi
▁markalar
▁yakınlaşma
▁sında
▁sıklığı
▁itfaiye
ğen
▁Dinleyici
▁açıktır
▁gözleme
▁Klei
▁Lisa
▁görevde
▁yapacaksın
▁gemisini
▁Neandertaller
▁benzerlikler
▁olabildi
▁gerekeni
ickr
▁Tel
▁bulunabileceği
▁haham
▁biçimlerini
▁Mau
▁ertele
▁gazeteciliği
▁tümörleri
▁musluğu
▁Yunanlılar
▁SAR
▁İspanyolca
▁penguenleri
▁elektrotlar
▁proton
▁şiirin
▁sayfada
▁alanlardaki
▁manipül
▁hastalıklarında
▁tolerans
irve
▁tırmanış
▁Kosta
▁sondaj
▁dolanıyor
▁Metafor
▁dinleri
▁Hindistanlı
▁elementler
▁yanlis
▁figürü
▁Dreyfus
▁sivrisinekleri
awa
▁koklea
▁Sue
▁fikirli
▁sülfit
▁anımsayan
̈
▁miselyum
loğu
▁çatışmaların
▁dürüstlük
▁deneyimlerimiz
▁kopuk
▁geliştirmemiz
▁konsey
▁yükseldiği
▁şeyimiz
▁öğrendiklerimiz
▁teneke
▁büfe
▁lobu
▁kuruluşlarını
▁çocukluğumda
▁pazarlamacı
▁bebeğini
tomo
▁çözümünü
yanılmaz
shire
▁paten
▁durmaya
▁kullanmadı
▁yaşarken
▁üzerini
▁ölümünü
▁Howar
▁enstitüsü
▁yaştaki
▁kozmoloji
▁bilimleri
▁bitiriyor
▁gelişmelerin
▁Otobüs
▁başkent
çilik
▁sevmeye
▁57
▁Guard
▁bütçesi
▁edilemeyece
▁buzları
▁1968
▁çıkartır
▁etkenler
▁anlamamızı
▁sorgulamaya
▁galaksimiz
▁keşfeden
▁kaşifler
▁hürmet
▁saatin
▁egitim
▁yetiyor
▁parcasi
▁hastanelerde
▁odul
▁Roslin
tigimiz
▁Pencere
SD
▁ornek
▁ozel
▁pedal
▁tanımlayabilir
▁tonlu
▁limit
▁soğur
▁soğutu
▁içerde
▁lifler
▁ülkemi
▁azaltacak
▁facia
yabileceğiniz
▁sokul
▁efendi
▁kullanılmaya
▁enkazı
zafiyet
▁deliklerin
▁inanmadı
▁ışıklı
▁Hud
▁algısını
▁istemeyiz
▁ulaştığında
▁geçmişimiz
landırmak
▁katran
stü
▁Williams
▁gitmekten
iyorlardı
▁fal
parça
▁tutmuş
▁gelmeme
▁binlercesi
▁yaratıyorlar
makla
▁giymiş
▁organlarını
▁yetimhane
▁adlandırdık
▁tabanca
▁erdir
▁Çar
▁kırıntı
▁duyuyorlar
ındaki
▁devirme
▁atladım
▁ofisimde
▁etiketler
▁Grubu
lmadı
▁akor
▁endişeliydi
▁hissettiklerini
şu
▁sardı
▁CNN
▁Bach
▁Patron
▁alışılmışın
▁topladığımız
▁77
▁yetme
▁sabır
▁Jon
▁keder
▁babaların
▁rolleri
▁işçiliği
▁Geleceği
▁iyiyim
▁ST
▁işleyiş
▁Dışı
▁Roboti
▁batma
▁yazımı
▁Robin
lenmeyi
▁bilseydi
tabilir
▁eğitme
▁yarayabilir
ald
▁düşünül
▁toplantıları
▁yapmalıydı
▁Rick
▁ışıklandırma
▁Kış
▁organizatör
▁madalya
▁misli
▁fahişe
▁değiştirin
▁Bot
▁kapısı
laştıran
▁Büyüy
▁basılmış
▁alarmı
▁larva
▁sağlayabil
▁tutunma
▁meslektaşlarımı
▁Yumurta
▁alanımız
▁elindeki
cığı
▁telefonum
▁Cinsiyet
▁yönelim
▁koza
▁asgari
▁Aferi
▁göremez
▁istasyonunu
▁müşteriler
▁kurtulmuş
▁yapsın
▁ihtiyaçlarına
▁Milenyum
▁yayar
▁Cazibe
▁Mantar
leştirilebilir
▁kanserojen
▁yakalayan
▁karışıyor
▁biyokütle
▁yalıtım
▁ambalaj
▁matris
▁öğrenirler
▁firsat
▁heykeller
▁okuyabilir
▁baskının
▁harfini
▁edebilmemiz
▁değişkenler
▁zorundadırlar
▁Plato
▁kurumlara
xx
▁baraj
▁Bomba
ilmiyor
lmeye
▁hizli
uyorlar
▁hayallerini
▁halüsinasyonlar
▁belirtme
▁kareler
▁Beyniniz
▁içtiği
▁tanıdığı
opsi
▁Nadir
▁kenarları
▁rüyalar
▁aura
▁lafın
▁kullansa
▁kozmetik
▁ilgileniyordu
▁Beat
▁kılı
▁panosu
acaktım
▁Barry
▁eczane
▁söylemesi
▁durumumuz
▁tadın
▁Klinik
▁çözümlerin
▁vahşet
ebileceklerini
▁kucakla
▁yargıları
▁değineceği
▁bütünsel
▁basmakalıp
▁fakirliğin
▁gitmekte
▁bulmuşlar
▁başlamaları
▁göndermeye
▁giriyorlar
▁geliştiri
▁yakalar
▁ritüeli
▁tasarladığı
▁dinozorları
▁kalıtım
▁Laur
▁Konuşmam
▁gözlemledik
▁sağlanıyor
▁denemede
▁sensin
ebilmemiz
▁küfür
▁kalıyorum
▁formunu
▁sağlayacağı
▁dağların
▁yargılanma
▁çağının
▁işçisi
▁göstermez
▁savunul
▁bitmez
▁getirmekte
▁yorma
▁Duvar
▁Picasso
▁dersinde
▁Sihirli
▁kaydettiği
▁ağzında
▁açıcı
▁öğrencilerimi
▁günümde
▁kendimizle
▁rakibi
▁kastetmiyor
▁yayılı
▁plazma
ico
▁bulguları
▁umud
▁firmaların
▁kabar
▁bildirdi
▁tutuldu
▁edebi
leştirildi
▁Site
▁bulmaktı
▁kapma
▁koymayı
▁canlısı
▁Clark
▁Bakış
▁arttırdı
▁farkları
▁gazeteler
▁yollama
▁ifadelerini
amadığım
mişim
▁Görüyor
▁kastım
lendiriyor
▁töreni
▁uçurumun
▁durgun
▁mutasyonlar
▁yerleşmiş
▁şaşırıyor
▁dönmüştü
▁çalınmış
▁terfi
▁sektörünü
▁öğrenmesi
▁büyüyecek
irsek
▁boşluğ
▁geliyorsa
▁vakalarda
▁korumamız
▁İstatistik
▁Ton
▁nesilleri
▁tanımladı
rmiştir
▁Mall
▁başardığı
▁Yargı
▁direktörü
▁pürüzsüz
▁kıyaslandığın
▁standartlar
▁İçin
▁titreş
▁atmış
▁tanınmış
▁parçalı
▁babamı
▁Trum
▁mültecilerin
▁yükseltti
▁hizmetini
▁ayık
polis
▁bilincimiz
▁işlemeye
▁topladığı
▁Bitki
▁şirketle
▁teşvikleri
▁karmaşıklığın
▁koordinat
▁etkileşimler
▁yapmadığımız
▁ilişkimizi
▁bekliyordum
▁yıkıyor
▁çağırır
▁düşünmüyordu
▁yöneldi
▁göçebe
▁bağlayı
▁içermeye
▁oranlarında
▁geçerse
▁tetik
▁zamanlama
▁belirttiği
▁karşılıklılık
▁1800
▁düşündüğümüzü
▁küratör
▁sarılma
▁kamuoyu
▁tepedeki
▁Öfke
▁gözlemle
▁konuştuğumda
▁tamamlayıcı
▁bilgisayarlı
▁oynuyoru
▁saçıl
▁çimen
▁açgözlü
▁bulamıyor
▁kaybedebilir
▁atalarını
▁Himalayalar
ping
▁zahmet
▁Şam
▁söylendiğin
▁kıt
kov
▁manzarası
▁işti
▁Asker
▁öder
▁Aklımda
▁atası
▁öncüsü
▁plu
tent
▁toplantılar
▁yolumu
▁gözünüzü
▁Filistinli
▁müdahele
▁sürdürebilir
▁heykelleri
▁beğeni
▁bilindi
▁tav
▁çekimini
▁Liz
▁Şekil
▁Prens
▁bahsetmeye
▁hazırız
▁amcam
▁hiçkimse
mıyordum
▁ruhlar
▁kentleşme
▁memleket
▁duyarsız
▁zihnimizde
▁uzaysal
▁kömürü
▁düşmeye
etine
▁evlenmek
▁hatırlatır
▁topuklu
▁bıçağı
▁okulum
▁125
▁Yerin
▁bulunmayan
oksit
▁rakip
▁olabileceğimiz
▁çeşidini
▁Devri
▁keşfetmemiz
▁çalışmaz
▁örneğ
▁mezunu
▁59
▁Yapılan
▁hayallerimiz
▁izlediği
▁ayarlayabilir
emedik
▁rakamın
▁Verileri
▁işletiyor
▁ahlakı
▁çalışmaktan
▁oluşumlar
▁savaşla
▁bütünlüğü
▁yükünü
▁İnsanlığın
▁telsiz
▁Rakam
▁hipo
▁açılacak
▁ekipleri
▁anlamama
▁Honduras
▁şekillendiriyor
▁Paulo
▁faaliyetlerini
▁gelişmeyi
▁mesajım
▁yediğiniz
▁faktörlerin
▁senaryolar
▁kaste
uçlu
▁Stone
▁kabine
▁psikiyatrist
▁katılın
▁Sinema
▁yönetmeni
▁hükümetleri
▁hakik
▁fabrikasında
▁başarısızlığ
ğimizi
▁isteklerini
▁kemer
▁sürdürüleme
▁denizciler
▁Gui
▁DE
▁kesen
▁duyamıyor
▁Telefonu
▁arıyordum
▁hissedebiliyor
▁ölçmeye
▁başbakanı
▁kaydırma
▁çekiç
▁Yaşı
▁geçmeyi
▁kısalt
▁fareleri
▁gerçekleşmesini
ğımda
▁umursamaz
▁oluşturabilecek
▁saniyeler
▁destekleyici
▁cumhuriyet
▁umutsuzluğ
▁edebildik
▁tozun
▁İnanı
▁bulunmadığı
▁mesajlaşma
▁arayüzün
▁karışmış
kalar
▁Bilgisayarları
▁Travma
▁öneriler
jansı
▁anlamadığımız
▁tartışıyorlar
▁yazılımlar
▁erişimleri
▁uluslu
▁emisyonu
▁asistan
▁iter
▁vesile
▁farkediyor
▁sevmediği
▁geçireceğim
▁evimizde
▁Hatırlay
▁inandırıcı
▁firmasını
▁Luk
▁tamamlandı
▁gittikleri
▁ritüeller
▁kazandırma
▁Ang
▁engelleyecek
▁kaosun
▁yükseltme
▁kompleksin
▁dayanma
▁Dua
lıdır
▁Gold
▁terketme
▁faaliyetler
aks
▁ejderha
iwa
▁delme
▁unutama
▁köpeklerin
▁adalar
▁yaratması
▁çekiyorlar
▁Nehir
▁ölüyorlar
▁kalabalığın
▁gömlek
▁hissetmemiz
▁başları
▁mezarlık
▁Sain
▁hatırlayacağı
▁enfeksiyonlar
▁Makineler
▁kıyılarında
▁Tartışma
▁ekvator
emeyeceğimiz
▁belirttiğim
strom
▁Kyoto
▁alternatifler
▁Far
▁değerlendirmek
▁gidebileceği
▁başlarım
▁sırrını
▁geçirdiler
▁taşındık
▁minimum
ibera
▁ekipmanları
▁araştırıyoru
▁kuzeni
▁tüketimini
▁kalırdı
▁tahribatı
▁nötr
▁takımında
▁açıklayacak
▁Kanıt
▁çabala
▁girişini
▁İsrailli
▁hakkımızda
▁Cis
▁molekul
▁sayi
10
▁muhte
▁yapsak
▁ogren
▁Netice
▁Kurallar
▁evimin
▁Rika
beş
▁açtığınız
▁PR
▁dayanmakta
▁stereo
▁güvenini
▁Irk
▁farkındalar
▁korkusunu
▁sulu
▁yıkıl
▁haşere
▁yayılımı
▁saldırmak
lbert
▁imparatorluk
ütü
▁kolonileri
▁işinizi
▁videolarını
▁göstermeliyi
▁Musevi
▁mekanizmalar
mayacaktı
▁tarlası
▁mağdurları
▁fizyo
▁resmed
▁Terörizm
▁terörizmi
▁HP
▁Metro
▁bıraktığımız
▁Ayrı
▁edemeyeceğiniz
▁Tevrat
▁umrumda
▁donör
▁tahminen
▁yerim
▁sark
▁Neil
▁gülümsüyor
lmez
▁Reagan
▁Jun
▁öngörülebilir
▁yenilenme
▁yatırımcı
▁Kocaman
▁yüzdü
▁kurtlar
mond
▁solucanları
▁örneklerde
▁lokanta
▁Fiyat
▁transferi
▁kaynaklarımız
ntagon
head
▁gu
▁gömülmüş
loji
▁yayınlar
▁başlasa
▁yarasaları
▁yapmazdı
TM
▁jeton
▁kullanmaları
▁Kanat
▁düzende
▁etkinliği
▁maddesel
▁Yaşaya
▁hızlanıyor
▁fotosentez
▁kaldığında
▁gelmeyen
▁dışadönük
▁giyin
abad
▁med
▁fakirlerin
▁haklılar
▁indirir
▁katmanlar
▁kaslar
▁dönüştürmeye
▁Uç
atch
▁belirti
▁efor
▁araştırmamız
▁Pr
▁oğlumuz
▁farklılıkların
▁sınırlarında
▁reklamcı
▁Tasarruf
▁Clay
▁buzulun
▁Almanlar
▁Galo
▁boncuk
▁tarzımızı
▁Endeksi
▁Penns
▁çıkmayı
▁Avukat
▁kölelikte
▁Denn
▁iplikçik
▁Bonobo
▁dinazorlar
pher
▁sekans
▁Mahm
kütlel
▁Justine
▁çatışmaları
ydınız
▁çöz
▁Mini
▁konuşursa
▁masasında
▁satıyorlar
▁hangilerini
▁sağlarız
▁Salla
▁birleşi
▁engelleyebilir
BO
▁çevire
▁Durumu
▁tasarlanan
▁gidi
▁düzeltil
▁seçeneğimiz
▁ekiple
sus
▁sandal
▁rakamların
▁geleneklerin
▁Bilimi
▁Hristiyanlık
▁Anlam
▁özelliklerin
▁kavramının
▁alışverişi
▁Siyaset
▁tabela
▁Broad
▁perakende
▁süpriz
▁mahallesi
▁otopark
tense
▁programımız
▁benzerdi
▁uydunu
▁maliyetlerini
▁Dolar
▁adamlarını
▁Keşif
▁elektronlar
▁ısıtıl
▁mekaniğin
▁Gezegenimizi
▁etkilendiği
▁geçiyorum
▁geceler
▁Vahşi
▁yaptigi
▁sit
muyorum
▁teknisyen
▁derisi
▁basari
▁Oldu
▁parametre
▁ozellikle
▁bilmeyenler
▁disari
▁senaryosu
▁sereb
▁kortekste
▁beslenmesi
▁evrimleştiği
▁sorsa
▁şaşırt
▁açıklay
▁Doktora
▁sözüm
▁lifleri
▁korkmuş
▁endişeliyi
▁Komşu
▁Fırtına
▁Katrina
▁filmdeki
▁bitin
▁TEDTalk
▁yürürlü
▁düşüren
▁kaynağımız
▁Galaksi
▁yaşadıklarını
▁kuşkusuz
▁animasyonu
▁yakalay
▁yaradılış
▁edilmiştir
read
▁Kalkınma
▁bırakıldı
▁dikti
▁duyurmak
▁planım
▁köşesi
▁birleştirici
▁güçten
▁tarafımızda
▁soyma
▁uğraşmaya
▁sığınağı
▁söylemesini
▁Agnes
▁tanıştığımız
▁iktidar
lanamaz
▁kalmaktan
▁öykünü
▁taşıdıkları
▁bekliyorsunuz
▁kurtardığı
▁okumaları
▁kültürlerin
▁Lib
▁okşa
▁açtığını
▁yazarlığı
▁takar
▁baksa
▁gelenekler
▁Lay
▁verilmişti
▁liderlerimiz
▁durdular
▁çağırı
▁kontrolünde
▁kızının
▁kumaşı
▁Erkeklerin
▁kutlay
▁Toronto
▁yapmayacağı
▁üzereydi
ükran
▁geçirmişti
▁kuresel
▁yaratmaktı
▁çalıyordu
▁Çağ
▁Japonlar
▁ebeveyni
arım
▁Daim
▁ötesini
▁kenarı
▁Uzakta
ebildiğimiz
▁Geçiş
▁dövüş
▁gerekçesi
▁devlette
▁öldürülen
metin
▁yaşantım
▁gençleri
▁buyur
▁kapatı
▁söylesem
▁boynun
▁yaşlanan
▁stüdyosu
▁kus
değer
▁maket
▁seçecek
▁belirme
▁edebilmesi
▁oyuncunu
▁hüsran
▁afiş
▁hır
▁zürafa
▁sözcüğü
▁yaşlarındayken
leştiril
▁öldürülüyor
▁adlandırıl
▁sömürü
▁dipte
▁sıva
▁ilgimizi
▁Suyu
yahut
▁tohumu
▁tutunuyor
▁sorgulamak
▁duyduğunu
▁yerleşti
▁sırlarını
▁Süt
▁yulaf
ebileceğimi
▁avatarı
▁Yayın
▁sağlığımız
▁sınırlandırıl
▁Oralarda
▁82
madılar
▁AS
▁Amca
▁başbakan
abilmeleri
▁haklarında
▁alabil
▁yetiştiriyoruz
▁albümü
▁Değişik
▁görebilen
▁toksik
▁bulmaları
▁görmediğiniz
▁döküm
▁çiftçilik
▁yetiştirdik
▁seçeneğiniz
mayacaklar
▁akıntısı
▁omurgası
▁satışı
▁Ardu
▁kullanmasını
▁camiası
▁yücelt
▁Gözlerini
▁dönerken
▁gözlemi
▁jüri
▁sorunsuz
▁cikma
▁soyleme
▁sirket
bilmek
gul
▁edilmedi
▁arazileri
▁istatistiklerin
▁merkezlerine
iform
▁Shang
▁almakta
▁kadin
lilerin
▁halleri
▁sekli
▁vak
▁Rüya
▁yaşamıştı
▁yüzler
▁bölümlerini
▁imgeler
▁defter
▁suyumuz
▁soyları
ius
cell
▁fakültesinde
▁getirirler
▁gönderdiler
▁antibiyotikleri
▁indeksi
diğimizde
▁kaybolmuş
▁etrafınız
▁yarayacağın
▁olayını
▁beslemeye
▁öğrenciyi
▁nitelikli
▁Öğrencilerim
▁parmağım
▁bakması
▁örneğimiz
▁kabuğunu
laştırılması
▁yaşamınız
▁Burdaki
▁karşılıyor
▁karakterlerin
▁zin
▁kökü
▁hatırlata
▁parçalama
▁otomasyon
▁dayandır
▁olacaksın
▁Saçma
▁Dönüşüm
▁doğamız
▁bale
▁gruptan
▁Açıklama
▁diyorsun
▁olamadığım
▁akılları
▁şafa
ladıkları
▁tezi
▁yiyordu
▁Gerçeği
▁dediğimi
▁muhalif
▁aşikâr
▁halkla
▁1918
▁patojenleri
▁değişmek
▁azalmış
▁İşlem
▁skala
▁Kitapta
▁bulabildiğim
▁yetim
▁vektör
▁isteyeceğiniz
▁taşıyacağı
▁artmakta
▁anlatmama
▁görselleştir
▁bloglar
▁tükeniyor
▁Ölçü
▁işimde
▁keşfettiğim
▁demet
ebilirdi
▁tutuklama
▁Nuh
▁mücadelede
▁imajı
▁başardığımız
▁bankalar
▁Kıta
▁ağlıyor
▁bırakılıyor
▁çiftler
▁Swa
▁Brand
▁kolonisi
▁haberlerin
▁kesimden
▁atak
▁makinesini
▁neokorteks
▁bağlantıların
▁deyişi
▁korkusuz
▁helikopteri
▁koşullarını
▁manzaraları
▁deneyimlemek
ılmamış
▁birleştiği
yapabiliyorsunuz
▁çıkarılmış
▁61
▁süslü
▁Hayatını
▁üzerim
▁uzaylılar
▁mahal
▁Elleri
▁sözlükler
▁otopsi
▁hissedile
▁hikâyesini
▁kürsü
▁yaratacağı
▁Burn
▁okuyacak
▁Kütüphane
taydı
▁Savaşında
▁mahalleler
▁çiftlikleri
▁içerikte
lmayan
▁Arı
▁tükettiği
▁düzeyini
▁uyguluyoruz
▁arayüzleri
▁kalacaklar
▁zorlamak
▁yıkma
▁ilişkimiz
▁Stalin
▁zorunluluk
▁bombalama
▁uygulamada
▁eğitiminde
▁kullanmamızı
▁gücünüzü
▁anlaşılma
▁sapı
▁davranı
▁Kenyalı
▁zili
▁refleks
▁Franklin
▁ediliyorlar
▁uğraşı
▁mani
▁vites
▁benimsedi
▁konuşmama
▁anlayın
▁Malezya
maktadırlar
▁anlaşmaları
▁hükumetin
▁sattık
▁olacaklarını
▁Yoksulluk
▁güvenliğ
▁faydalarını
▁felaketler
▁kasırga
▁zorluklara
▁foku
▁görmeliyi
▁gelebilme
▁Jami
▁Adet
▁katalizör
▁Kardeşim
▁döşeme
▁sızma
▁edebileceğini
▁anlatıyorlar
▁evrak
▁bitişik
şan
▁palto
▁almalı
▁kaptanı
▁kartlarını
▁Ticar
▁akrabası
▁diri
▁öğrenmişti
▁kestir
▁davrandığını
▁komşunuz
▁ırkı
▁kaybetmişti
▁Savaşın
▁öğrettik
▁salata
layamadığımız
lenmek
▁kaynağ
▁bozan
▁Taşı
hendis
▁doğurdu
▁gömleği
▁etkilemeye
▁yaklaşımını
▁Russ
▁boyutlara
▁çatısında
▁kullanmalarını
▁gerektirecek
▁dinlediğiniz
EG
atıp
▁açılarını
▁İpek
rick
▁fonksiyonlarını
▁harcayabilir
▁ekmeğin
▁ızgara
▁rad
▁yakındı
lph
Key
▁Elektro
▁geceley
▁eyaletin
▁marul
▁süzülüyor
▁gölün
lamaktır
▁otomobiller
▁Arama
▁incelediğimiz
▁Nichol
▁yayımladı
▁yaklaşımımız
▁Kenar
▁kültürde
▁hele
▁şeması
▁Detay
▁Palm
▁aca
▁tutabiliyor
▁geçebiliyor
▁aktardı
▁Eksik
▁Hafif
▁Haw
▁merdivenleri
işini
▁anlarda
mezse
▁sahtekar
▁kainat
▁çarptığı
▁dalma
▁seramik
▁buzullar
▁kabloların
▁manastır
▁düşeceği
lıyorsunuz
▁gereksinimi
▁kullanmadığı
▁diyecekler
▁odaklanmalıyı
elli
▁mesuliyet
▁geliştirilmesi
enberg
▁farkedecek
▁görünümünü
ıklıkla
▁Clo
▁ödeyebil
vey
▁fantazi
▁şaheser
memesi
▁yaşayacağı
▁yardımın
▁çocuğumuz
▁yolculuğunu
▁açmayı
▁taşıyacak
his
▁çalıştığında
▁dizleri
▁denizci
▁üretmesi
▁Viyana
▁kesimin
▁devamı
▁solunda
▁yanlışlık
▁tekrarlaya
▁uğraştığımız
▁skandal
▁kıtlığı
▁farelerin
▁kampanyaları
▁yaşanır
▁uzattı
▁kayıtsız
▁mikroorganizma
▁grafiğin
▁iskeletini
▁kalıntılarını
▁Glas
AC
▁değiştiriyorlar
▁çalışabileceği
▁anladığı
ilebilen
▁Yolsuzluk
▁konuşmamda
▁Doh
▁devriminde
▁dükkân
▁teoride
▁Rica
▁yaymaya
▁kültürümüz
▁bazılarınızın
▁olmamaları
pont
▁mahallelerinde
▁unuttuğu
▁zihninizde
▁psikoterapi
▁kaydede
▁İlişkiler
▁Odysse
▁günlüğün
▁göndereceği
▁Uçağı
rilen
▁North
▁düşünenler
▁Cat
▁kurduğunu
▁hızlandırıcı
▁kıyısı
▁ambar
▁kambur
▁çıkaracağım
▁ayarladı
▁yanlışlıkla
▁özne
▁sandalyede
▁Tah
▁şanslar
▁yüzümü
▁vermediği
▁sınıflandırı
▁tasarımda
▁tasarımla
▁yetkililer
mamıştım
▁bilirdi
▁eşzamanlı
▁üzerimiz
▁başlayın
▁karşılaşacak
▁gerileme
▁maka
▁yuvası
▁Ulaşım
▁kıdemli
▁antibiyotikler
▁hissetmez
▁kestiği
▁adımları
▁TR
▁evrimleşti
bao
^
▁karmaşası
▁balkon
▁dairem
▁kazaları
▁doğruluğunu
▁avcılığı
▁üremesi
▁çömlek
şar
▁bahsi
▁ulaşabil
▁Yağ
▁avcıları
▁dinozorlar
▁binasını
▁Ple
▁inandığı
▁fikirlerimiz
▁tasarlayabilir
▁araştırmamı
▁ilkeler
▁Panama
▁araştırmaların
▁uçtuk
▁gelgit
▁salınım
▁varsayar
▁arazisi
▁çıkmadı
laştırdığı
▁Kitabın
▁dörtlü
▁anlayabilme
▁sürüsü
▁büyütebilir
üneydoğu
▁ulaştırmak
▁Toplu
▁yapmadığını
▁kurulmuştu
▁iştah
▁toplanmış
▁Live
▁Takip
▁azını
▁tekrarlanan
▁bölündü
▁Açlık
▁Hatırlıyoru
▁Savaşta
▁güldür
▁lütuf
▁Demo
▁gireceği
▁anlaşmazlık
▁kalbinin
▁numaralar
▁yaptırdı
▁rakamı
▁kurabil
▁ettiğinizi
▁boğuş
▁camın
▁terked
▁aktarımı
▁alıcısı
▁sunuyorlar
rılmış
▁kene
bilsin
▁bürün
▁kalmalarını
▁umudunu
▁etiğini
▁met
▁düşünmeme
▁koda
▁durdura
leştirilme
▁söylediğiniz
▁deneylerde
▁Billi
▁tükenmek
▁Kayıt
▁Araştırmacılar
▁düşünmemizi
eyin
▁Yurt
▁Rastgele
▁Interneti
lacaktır
bile
▁elektrot
▁telleri
gerçekleştirecek
▁Neumann
▁çalışmalı
▁versiyonları
acağımı
▁Dergisi
▁üretildiği
ial
▁ortağım
▁lisansı
▁sembolleri
▁Endüstriyel
▁yalıtıl
▁uçuşa
▁girmemiş
suzluk
▁Rezer
selerdi
▁Dai
▁iktisatçı
▁Pic
▁dille
▁yatırımcıları
▁gidişi
▁zorlaşıyor
▁Reklam
▁yaratılış
▁teorileri
▁konuşulan
▁sistemlerimiz
▁kuzenim
▁Fakültesi
▁çıkışını
edilen
▁piyasalar
▁edilmesini
▁hissettirme
*
ruyor
▁Kadin
▁kediler
▁yaşamının
▁kabileleri
▁uyduları
▁ittir
▁hırs
▁Yatak
▁yemeğini
▁Koyu
▁gelebileceğini
▁yıkılma
▁Kurumları
▁kurak
▁Bitkiler
▁diller
▁yaklaşımla
▁hatlarını
▁Heal
▁dizisinde
▁sırtını
▁şama
▁içeriğ
▁büyütme
▁motorsiklet
▁gülen
▁Yoksul
▁emtia
▁cibinlik
▁birçoğumuz
▁vatandaşlı
▁hadise
▁ortaokul
▁Cocuk
▁katili
▁ısırma
▁nör
▁boşaltı
ıvı
▁rüzgarlar
▁Liberal
pot
▁toprakların
▁bağımlılar
empoz
▁sorguluyor
▁gerçeklikle
▁Ağız
▁ekmeği
▁yedinci
bileceksiniz
▁biyopsi
▁görebiliri
▁parlamento
▁peni
▁Ormanı
▁remiks
▁Şempanzeler
▁Root
▁Shoot
▁Gay
▁koymanız
▁defin
▁kalkülüs
▁PH
▁yusufçuk
▁Şahini
DG
▁gökadalar
▁okudukları
▁kaçıyor
▁birlikleri
▁direnme
▁hazırlanır
▁soktuğu
laştırabilir
▁Made
▁savaşma
▁açımı
▁taahhüt
▁İslamcı
▁şaşı
▁Kola
▁prezervatif
▁anlarsa
▁yapılabileceği
▁yararlanmak
▁Söylemey
▁durmuyor
▁çalışmanız
▁tuvalette
▁mutlulukla
▁Bağış
▁toplumlardaki
▁otomotiv
▁görüneceğin
cağını
▁sorarsa
ğımızı
▁ortamları
▁çalıştırabilir
▁uzmanlaşma
▁gelistir
▁adi
▁ilişkisel
▁görüşünüz
▁bilimcilerin
▁yapılı
▁kaldırımda
▁yansıtmak
▁mahallesinde
▁ilerledik
ref
▁saklanmış
▁kesinti
▁bütçesini
▁Resmin
▁Mühendislik
▁atmosferinde
▁göremeyecek
▁kahramanım
▁penisilin
▁açmaz
▁yurd
▁saglik
lanmis
▁cikti
sever
▁Mississip
▁calis
▁edindik
▁78
▁sinif
▁Ellerinde
▁katılacak
▁goril
▁okumuş
lanıyorlar
▁gözünüz
▁zorlandığı
▁gürültüsü
▁fuhuş
▁arıza
▁çıktığımd
▁takıl
▁başkasını
▁gelirini
ettiğimiz
receksiniz
▁uygulamasını
kışıklı
▁eklenmiş
▁oynayacak
▁yansıyan
▁kompozisyon
▁Schwarz
▁okuyordu
▁terimini
▁galaksimizde
▁kafanız
▁bahsedilen
▁edebilirse
▁sorduğunuzda
mont
▁saplantılı
▁hukukçu
▁kafalarında
▁Bölgesi
▁olgusu
▁heteroseksüel
▁uzaklaştırma
▁göreviniz
▁İçlerinde
mesinden
▁özgürlüğ
▁parçalanmış
▁gururla
▁gizemi
▁Gördük
▁şişesi
▁62
▁pazarda
▁İğne
▁kurtarılma
▁uygulamalarını
▁tanıştırdı
▁Alın
▁kucağında
▁saatlerde
▁kampında
▁imam
▁başımı
▁izlediğim
▁tarihimizi
▁Oğlu
▁imzala
▁izliyordum
▁Organizasyonu
▁sabırlı
▁gösterici
▁caz
▁doğruydu
▁İlerle
▁nezaket
▁dinamiği
▁göbek
▁hareketliliği
cker
▁tekerlekler
▁kayalık
▁DA
ürüyor
▁fikirlerim
▁cebir
▁hatırladığım
baş
▁biriysen
▁bakmıyor
▁Sihir
▁hastalıkla
▁Pitt
▁İmkansız
▁doğumunda
▁hissediyordu
▁inandık
▁nakletme
▁isimlendiril
▁tahsis
▁olimpiyat
▁Tutku
▁üzerindeydi
▁kocasını
▁başarıyor
▁Tecavüz
▁kliniğ
▁kurtulur
▁tabloları
▁eserlerin
▁tablolar
▁Yaşadığımı
▁olabilecekleri
leştirebilecek
▁fırtınaları
▁araştırdık
▁karşılaştıralım
▁Büyür
▁biçme
▁imkanımız
▁rıza
▁aktivistler
▁porno
GE
▁standardı
▁yılanlar
▁indik
▁bunlardı
▁Gelişme
▁sihri
▁kullanıyorlardı
▁tırmanı
▁analizleri
▁çevirebilir
▁yetişiyor
▁Atık
▁rüzgarı
▁yelkenli
▁Uğr
▁yapıyormuş
▁Laboratuvar
▁takdim
▁kiraladı
▁noktamız
▁düşünülür
▁sırası
▁sızıntı
▁okyanustaki
▁umudumuz
▁bacakların
▁bağırdı
▁boyanmış
▁hissetmiyoru
▁benziyorlar
▁Duyu
▁görünmek
▁gülümsey
ncou
▁tatili
▁hocam
▁Organiz
▁kağıd
▁dola
▁dileğin
▁hicbir
bilecegi
▁tesekkur
▁civa
▁mumkun
▁Bah
▁uygar
lendirmek
▁gidemedi
▁yapil
▁Young
▁Mao
▁istediklerinde
▁stratejisini
bilmesi
▁alışkını
▁merdivenlerde
mediğini
akt
▁Havada
▁hissetmiş
▁Freud
▁endişelendire
▁karikatürü
▁oyuncakları
gane
rand
▁Hizmet
ucker
▁Güvenli
▁tetikledi
▁mahvede
▁karşılayacak
▁eğildi
▁gittiklerini
▁Sonuncusu
▁işlerinde
▁Uyan
▁merkezini
▁yaptıysa
▁ödeyecek
▁teçhizat
▁İlham
▁şahin
▁kitleye
▁çubuklar
▁öğrenebilme
▁söyleyecekleri
▁ardındaki
▁Of
▁Duygusal
▁iyimserim
▁başkanlığı
▁altındadır
▁kurtarır
▁göstermedi
▁denizler
▁dalın
▁kovul
raham
▁Merc
▁planlarını
▁doldurulmuş
▁klon
▁sormuştu
▁değiştirmişti
▁kına
▁siteler
▁kontrolsüz
▁bağışıklığı
▁yapışı
▁güçlüydü
tarı
▁Tanım
▁edilebilecek
▁41
▁bulursa
▁çalışıyorsun
▁çabaların
▁füze
▁gr
▁eğitimim
▁saatleri
▁umuyor
▁makaleleri
▁duygunu
▁kapasiteleri
▁Ekran
▁hakimiyet
▁etmediğini
▁Bulut
▁sayfalarını
▁Aurora
▁nişasta
▁gösterileri
▁gösterdiğini
▁edilmiyor
▁ayarlıyor
▁dalgalanmaları
▁odaklama
▁Roman
▁Hele
▁duyduklarında
▁okuyun
▁Kell
▁soruyordu
▁ödeyen
▁minnettar
▁kreş
▁yapabiliyordu
▁ilerlemesi
▁istasyonunda
▁bakmakta
▁bitmemiş
▁dönemindeki
▁fırtınalar
▁göremediği
▁dirsek
▁katılmış
▁ceket
▁calış
▁Profesyonel
▁cüce
▁buluyordu
▁koyuyorsunuz
▁fıskiye
▁başlangıcını
▁kişiyim
▁projesinde
▁açıklamasını
▁edilebilen
▁uzmanlığı
▁kanca
ayıcı
▁toplanır
▁ölmesi
▁konsantrasyon
▁bileşim
▁koruyabil
▁okuduğunuz
ünce
▁Müşteriler
▁izolasyon
▁amerika
▁konuşmuştu
▁koçu
▁hatırlamıyoru
▁işlemiş
▁Yerli
▁yatma
▁Sad
▁çekil
▁logaritm
▁komşularınız
▁Lev
▁benzerleri
▁başlığın
▁fotoğrafçısı
▁yanmış
▁gideceğimiz
▁geçirile
▁Mut
inizdeki
▁masaj
▁yarışa
▁göstergeleri
▁parka
▁okullarında
▁yediğim
▁alacağımız
▁73
▁teselli
▁uzağı
atıyorum
▁erdi
▁enflasyon
▁uğraştık
▁takla
▁Gelecekteki
▁port
▁Göçmen
akland
▁ayıklama
▁belirsizliği
▁kapsama
▁bağlanabilir
▁MB
▁etkilen
▁Liderlik
lığımı
ttim
mektir
▁Down
▁önerir
▁Konser
▁kağıtları
▁seçen
▁getirt
▁bağırı
▁yaparsın
▁çarpması
▁suçlulu
▁hibrit
▁canlandırıyor
▁azot
▁Blair
▁isimsiz
▁inançlarını
▁ettiren
▁ayıracağı
▁cazibeli
▁River
▁gözlerimiz
▁Lou
▁Hangisini
▁gözünün
▁vermeyeceğim
▁atabilir
▁askerlerin
▁EB
▁motivasyonu
▁Tanıştığı
küler
▁yükselişini
▁eğitimle
▁başlamadı
▁Hastanede
▁dükkanı
▁kararlılık
▁Yaşamak
▁gazetelerde
▁Yapacak
▁gerekçe
▁Gabriel
▁tapınağı
▁sayılabilir
▁yaratıcısı
▁serotonin
▁kızartma
▁tava
▁ölçebilir
▁dokuya
▁Altta
▁diyarı
▁erimesi
▁bölümde
SI
▁Düşündü
▁Lyn
▁süpürge
▁yasaların
▁Ekibim
▁gazlar
▁yaşanması
▁bağlanan
47
▁küçümseme
▁sonuncu
▁gerekliliği
laştığımız
▁bayıldı
▁Çay
▁aktarır
ürsünüz
▁Çocuğun
▁dilimin
▁semptomları
▁seviyelerini
▁skor
▁Mitch
üksel
▁taşıdığını
▁ortaklığı
laşmaya
▁oluşturmuş
▁olacağından
▁kampların
▁harfleri
▁kasılma
▁entegrasyon
▁yedikleri
▁gelişmesini
▁epidemi
▁Kabil
▁korkutma
▁Süreç
imizdeki
▁Vatandaş
▁ışıld
▁yaratılışı
▁Wei
▁araştırmacısı
▁kondu
▁sonuçlarının
▁istersin
▁çözen
▁iyimserliği
▁sürücüler
▁heyecanlanıyor
▁Giriş
▁herbirimiz
▁kaplar
▁dizilerini
▁işleyişini
▁botun
▁Maslow
▁krallığı
▁departmanı
▁ağrıları
▁kapitalizmi
▁deneyimlediği
ebileceğinizi
▁oturtu
▁Sahibi
▁ekosistemler
more
▁Ölçek
▁Doug
▁demokrat
▁çarkı
▁belleği
▁arabada
▁camı
▁üssü
▁Bilinçli
▁Büyükbabam
▁yarattıkları
▁şekillendirmek
▁girmesi
▁bozulur
▁suların
press
▁nereler
▁gönderdiğimiz
▁tartıştık
▁Açı
raft
▁kuvvetlerin
▁çoğunluğun
▁konuşmacılar
▁anlaştık
▁Kupa
▁karo
▁armağan
▁çevireceği
▁yasasını
▁Jaw
tic
▁kanıtlanmış
▁düşündüğünde
▁yapama
▁dikkatimi
▁kucaklama
▁paranız
▁istemey
▁başvuruyor
▁hatırlayan
▁yolumuzu
▁sandığı
▁Görevim
▁etmişsinizdir
▁reformlar
▁etsin
▁kesimde
▁kazanması
▁Yürüme
▁belirtilerini
▁turşu
▁Fen
▁gezme
▁boyutlarını
▁gururu
▁korelasyon
▁Bilinci
▁filizlen
▁işleyişin
▁Cost
▁askeriye
▁rekorunu
▁çıksa
▁jeneratör
▁küçültme
▁trenler
▁motosiklet
▁kovboy
layacağını
▁edilmeli
▁esin
▁Dinozor
▁ayaklar
▁acısını
▁ilerde
▁rastlantı
▁atmosferdeki
▁arttırır
▁İranlılar
▁görgü
▁Sigara
▁biyokimya
▁çevrelenmiş
▁korunuyor
rünleri
▁parklar
▁çalışmalarda
▁Juli
▁lağım
▁döküyor
▁torbalar
▁kapsayıcı
▁mahalleleri
▁iyileştirilmesi
gs
emen
▁sıkışıklık
▁sınavlar
▁Ess
▁Viktorya
▁gardiyan
▁soğan
▁özeti
▁Mısırlılar
▁İsrailliler
▁nerelerde
▁hikayemizi
▁uzmanlaşmış
▁tanıyordu
▁emre
▁karışmıştı
ziko
▁körel
▁vermemek
▁adlandırdı
▁yayınlay
▁ilgilendiği
▁saldırıları
▁kapılıyor
▁otları
▁belirlenmiş
▁frekansı
▁Çocuklarınız
▁şiddetini
▁yeniliklerin
▁bileşenin
▁alıştı
▁kökünde
▁hukukun
▁kararların
amazlar
▁ordusunu
▁fırsatım
▁Georgia
▁evimizi
▁bağlanması
▁sundum
▁fişek
▁yüzgeç
▁Gözü
▁genini
leceğini
PEC
▁Hüs
▁SA
▁vazo
▁düşünmüştük
▁amino
▁üretilmesi
amadıkları
▁bulabileceğimiz
▁nezle
▁etek
▁olabilseydi
▁tartışmaların
▁döneceği
▁haç
▁Eleştirmen
▁Atmosfer
▁Hesaplama
▁sualtın
▁yastığı
▁yüklüyor
▁kabiliyetleri
▁partnerleri
▁Islık
▁zıplaya
▁Love
▁taslağı
▁şifreli
nstein
▁savunması
▁sinirlen
▁gölet
▁başlayacaklar
▁insanlardaki
▁keşfedilmiş
▁salgınını
▁etkinliğin
▁etkinlikler
▁Poli
▁varıyor
▁doğura
CE
▁şanssız
▁bağlantıda
▁tutuş
tırılmış
▁fırlattı
▁Ty
onald
▁açımızı
▁salyangoz
gile
▁Madagaskar
▁ızdırap
▁Kilisesi
▁gömüldü
▁Ahlak
▁IP
▁ekonomistleri
▁muhasebe
▁zincirleri
▁yapılmadı
▁170
▁aerodinamik
▁ailenizi
▁takipçileri
▁yaprakların
▁yakalamaya
▁gözlemlediğimiz
▁hedeflerini
▁Up
▁kazasında
▁domin
▁işyerinde
▁çalıştırdı
▁adlandırma
yorlardı
▁yakasında
rid
▁suşi
DO
▁Mauri
▁Tohum
▁toplayacağı
▁farkını
▁rahim
▁orangutan
▁Asyalı
▁merkezler
▁simül
▁diziler
▁yayınlıyor
▁yaratıcılığ
▁örümceğin
glo
yüzündeki
HAL
▁Cu
▁çözmüş
▁nemli
▁mahsül
▁umutsuzluk
▁Kayıp
▁piyasaların
▁uçuşta
▁görüntüde
▁projeksiyon
▁liderin
▁yaratılmasın
▁kovalama
▁Derneği
▁grafiti
▁Iraklı
entetik
▁tükettiğimiz
▁kavrayış
▁treni
▁donat
▁yapabilmeleri
▁Penguenler
▁festivali
▁uçuşlar
▁ekonomiler
▁baget
▁teşvikler
▁yapılabil
▁artıra
▁zatürre
▁miti
▁parçacığın
▁ayılar
▁edebilirsin
▁49
▁dinlerin
▁karbonat
▁azaltılması
imbab
▁kolonoskopi
▁Farm
▁harcadıkları
▁çipleri
▁geçmiyor
▁beynimde
▁açlığı
▁safha
▁bilginiz
▁gönüllüler
▁açlığın
▁menfez
▁şahıs
▁Numara
SA
▁Uzayda
▁Arkansas
▁sürmekte
▁Raj
▁Nikola
▁noron
BT
▁Mello
▁KS
▁Merhamet
▁RD
For
She
▁kuad
▁water
▁römork
▁Dost
▁ilişkilerde
▁uyguladığımız
▁dokunmaya
▁Birşey
▁gebe
▁başlıklar
▁1600
▁özendir
▁aksam
▁sekizinci
▁saldırma
▁anladığınız
▁Heyecan
81
▁tiyatrosu
▁yürüyüşü
▁ısısını
▁Bilimin
▁oldugumuz
andıran
▁yandaş
▁Sabit
▁içindeyse
▁verilmiyor
▁projesini
▁çekmemiz
▁odaklanmamız
▁yaşayabil
▁sıkışma
▁yakış
▁Sandalye
▁sandalyeler
▁kullanılmayan
▁dökü
▁görebilirsin
ebildiğini
▁kiralama
▁giyinmiş
▁ED
akıp
▁harcamaların
RN
▁kenarlar
▁çıkıntılar
▁havza
▁priz
▁Fotoğrafı
yager
▁çektir
▁mucitler
▁Insan
▁Dol
▁Problemi
▁ayarla
▁dort
▁olacagi
▁mezuniyet
lemiyor
▁çalışsa
▁beklenir
▁saymak
▁66
▁beklediğiniz
▁fast
▁yiyeceklerini
▁yükleri
▁Isı
▁kenti
▁ateşle
▁ulaşınca
▁Minneso
▁dezavantaj
▁artıracak
▁düşürece
▁fiyatlandırma
▁göreceğim
▁ücretini
▁Kablosuz
▁kılabilir
▁tıkanıklık
lamasını
▁geçirdikleri
▁itiş
▁suçları
child
▁ateşin
▁mahvetme
▁vurmaya
▁sıkışmış
▁dedektör
▁paraziti
▁sarar
▁Çoklu
▁barışın
▁Burma
▁toplandık
▁tutuklan
▁kızkardeşi
▁Grove
▁Kentucky
▁International
▁Music
▁koridorda
▁ağlamaya
▁çıkamaz
emeyeceğiniz
▁kılma
▁Lanka
▁hoşlanıyor
▁koydukları
▁Kurulu
▁cinsellik
▁Rif
▁inançların
▁öğrendiklerim
▁sürmeye
▁gezmek
▁Foto
▁ağızları
▁bilmece
▁Kızı
▁çarşaf
▁birisiydi
▁okuyabilme
▁aletlerin
▁dışlanmış
▁programda
▁Umu
▁kilisede
▁klipte
▁gözüm
▁yenilenmiş
▁Nov
laştırmaya
▁kucaklamak
▁koltukta
▁raflarda
▁Çocuklarımızı
▁görülüyordu
▁dönemim
▁uğraşır
▁UCL
▁Anket
▁özgüven
▁Sokağı
▁ahlaklı
▁başarıları
lışı
▁sallay
▁gösterebilmek
▁modelimiz
▁bacaklı
▁basılı
▁yüksekliğini
▁Bağlı
▁sensörü
▁kazandığımız
▁anını
▁onayladı
▁regl
▁düşünmüşler
▁amacını
▁hazırlayı
▁kafeterya
▁öküz
▁hor
▁karıştığı
▁cap
▁fosfor
▁sayımı
▁şablonu
▁dişler
▁mekanlar
▁yaratabiliyor
▁sahneleri
▁görünüşünü
▁püskürt
▁antrenman
▁kırışıklık
▁öksü
▁ölmedi
▁popo
▁yeryüzü
▁kimyasını
▁kaygan
▁yamaç
▁yumurtaları
▁çözdük
▁hakkımız
mediği
ŞİD
Ç
▁düşmanlığı
▁Kızların
▁maç
▁kabiliyetimiz
▁davranışın
▁platformları
▁Mori
YR
▁bulunmaya
▁yardımlaşma
▁yaşayanların
▁serp
▁dördünde
epsi
▁Kaptan
▁Kırsal
▁çıkartacak
▁koklama
▁enzim
▁proto
▁ışıldaya
▁çiftleş
▁Evli
▁sağol
▁gelebiliyor
ceğiz
▁paradoksu
▁sınıfında
▁öğretmenlerim
▁çakma
▁bileşimi
▁duyabileceği
▁dizgi
▁deniyordu
▁buluşların
▁işlerle
▁gücünüz
▁dergide
▁sallana
▁kimliklerini
▁gıdıkl
ğünüzü
▁yazdığınız
▁deyince
▁kaldıraç
▁tarihçiler
▁endustri
▁arastirma
▁fotograflar
▁yapi
▁isci
▁üçünde
▁yuksek
▁bagli
▁dusu
▁sürüklüyor
itha
▁aşamaları
▁hayalin
özetlemek
▁ilgilendiriyor
▁Millet
▁Salonu
▁hece
▁çektiğiniz
▁kazaların
▁çorbası
▁paketleri
▁Diz
▁yükümlülüğ
▁39
▁duracağım
▁Hayret
▁Aptal
▁davrandığı
▁yolunuz
▁genişletme
▁gencin
▁Lima
▁kazandıkları
▁sefil
▁yansıtır
▁yoğunlukta
▁erectus
▁sürüngenler
▁bağlantılarını
▁Pier
▁Bölümü
▁çıkarımlar
▁değiştirdiğimiz
▁temsilcisi
▁ikisinde
▁özetliyor
▁sinirbilim
▁Arkadaşlar
▁dükkanın
▁olayım
▁tartışıyor
▁beter
▁eposta
▁ayarlay
▁Ağaç
▁Ağacı
▁pırıl
▁konulmuş
▁tamirci
latıcı
▁etmesinde
▁dönüşün
leniyorlar
▁yetiştiği
▁solcu
▁bitenler
▁boyamak
▁yitirmiş
▁diktatör
▁söyleyebiliyor
ıska
▁Şeytan
▁Italya
▁kimlikler
▁Koreli
▁ayrılması
▁kurması
▁kaydedil
▁düşünmeleri
▁izlediğini
▁söylediğimi
▁edindiğim
▁protestolar
▁bakmadı
▁cumartesi
▁ayakkabılarını
▁eğlenmek
▁hâkim
▁felaketleri
▁öldüler
▁aşıları
▁salgılama
▁yakalanıyor
▁taşıyorlar
▁kaldıracak
▁edeceğin
▁yumurtalarını
▁bilemiyoruz
landıran
rough
▁öğretmiş
▁reklamcılık
40
▁çimento
▁tuvaleti
tica
▁bilebilir
▁atlıyor
mamak
▁gözümüzde
▁zorlayacak
▁açımız
▁alışılagelmiş
▁ayrış
▁keşfedebilir
trik
▁tarıyor
▁düzenlenen
▁öpücük
▁söylentiler
▁arkeolog
▁sağlığımızı
▁dişçi
▁bulmuşlardı
▁geleceklerini
▁yönetilme
▁Fonu
telekomünikasyon
▁bankacılık
lanabilecek
▁gittiğiniz
▁bebeğ
▁topraklarda
▁davranışlarında
▁yönlendirdiği
▁yatırdı
▁Tema
▁motorunu
▁tanımadığım
cretsiz
▁getirmem
▁seçimin
▁görevlerini
▁modül
▁bağlanabil
▁karşısındaki
▁gelmesinde
plin
▁kurtarıl
▁asimetrik
▁etrafımız
▁kapatır
▁Sessizlik
▁teröristleri
azan
▁İnanç
▁bitmiyor
▁verebiliyor
▁ziyafet
▁başlıkları
▁düzenleyi
▁düzeltmeye
▁uğrat
▁prensiplerin
▁işbirliğini
▁tanımları
▁vekil
▁eylemlerini
▁değerlidir
günkü
▁düşüşte
▁Lawrence
▁Ormanları
▁Çöl
▁biçimlerde
▁parçalanma
▁psikologlar
▁davranışlarımız
ılırsa
▁yükseldiğini
▁Hazar
chan
▁sergisi
▁titiz
▁değdi
▁Blackberry
▁çiftçileri
üşünü
▁dokunur
▁Batıda
▁örme
▁yaramadığı
▁turun
▁paravan
▁geçireceği
▁dosyaları
▁Vir
▁Anlaşma
▁kilitli
lenemez
▁aramayı
▁yumurtalık
▁dayanak
▁sevdiklerini
▁vade
▁bırakırsa
▁bağlıyız
▁Topluluğu
▁kaybolması
▁cebimde
▁ısınıyor
▁duruşu
▁kaldıran
▁boğuldu
oş
▁battaniye
▁ölüyordu
▁ikramiye
▁yavrular
▁gergedan
▁sevebilir
▁incelikl
▁gösterirler
▁sevmiyoru
▁müzisyenlerin
▁görülmeyen
▁Muh
▁Rum
▁şairi
pper
▁Home
▁sapiens
▁pasaport
▁edebiliyoru
▁kazandıracak
▁Alp
ciliğin
▁küçüğü
▁vardığım
▁günümü
▁Good
▁kollarım
▁bağla
▁ruhları
▁gelecekti
▁semboliz
▁sanatında
▁psikopat
▁çıkaracağımız
▁karıştırı
▁çıkarılacak
▁Dayanıklı
▁hologram
ımsı
▁brokoli
▁harcayı
▁Yaptı
▁kanadı
▁akımını
▁kesiştiği
▁hatırlamamız
▁karşılaştırmak
▁tarafları
▁dogma
▁Phil
▁izniniz
▁varlığımızı
▁Türleri
▁göm
▁masraflı
▁prototipi
▁tahlil
çika
▁mektupları
ıvır
▁zıvır
▁oluşturması
EA
▁Tasarla
▁sağlıkla
▁noktasıydı
▁öyküsünü
▁girdiğimiz
▁kabı
▁makinasını
▁inanamıyoru
▁kızlarım
▁kısımlar
▁kurtuluyor
▁bombacı
▁şansları
▁hücrede
▁standartlarında
▁Kai
▁tetikleme
▁bıraktıkları
▁derinliğin
▁gözlemleyebil
▁aşağısında
▁stratosfer
▁Taba
▁paraşütü
▁yaktığı
MI
▁harcadığınız
▁Başlangıç
▁650
▁sınama
▁biber
▁göndermişti
▁ölçülen
▁üstünlüğü
▁şehirlerinde
▁tehlikeleri
▁Yemeği
▁tutam
▁tofu
▁tad
▁cüretkar
▁piyanist
▁SL
▁tanıyabil
▁Yön
▁tüfek
▁planımız
ountain
▁iyileşti
layamazsınız
▁Mühendisler
▁harcandı
▁Hell
▁şapkası
▁kaçırmak
▁süreceği
▁enstrümanları
▁sesinizi
▁Hastanesi
▁ormanlarını
▁Piyano
▁sormama
▁insandı
▁kalmaları
▁Kralı
▁Atlas
▁Eng
▁Journ
nuzda
▁hisleriniz
▁aradığınız
▁kolumu
▁sevmezler
▁filtreleme
▁sağlığınız
ough
▁bükülme
▁adaylar
▁Senato
▁halt
ura
▁editörler
▁kenarda
▁bulmanız
▁Bazılarınızı
▁Programlama
▁Endişelenme
▁yayınladığı
▁Meslektaşlarım
▁Jet
▁bakmaları
▁hükümetlerin
▁ajanı
▁yorumları
▁erişi
▁Tahr
▁ellerinizi
▁uygularsanız
▁Maça
▁sinekleri
▁düşünmediği
▁ulaşabilmek
pad
▁Geçmişi
▁kararlılığı
▁hatırlana
▁Varsay
▁Gizem
▁hologra
▁fantezi
▁Af
▁hissettirdiğin
▁düşüncesinde
▁iltifat
▁Law
▁faaliyeti
▁mahkumu
▁büyüyebilir
▁kesindir
▁doktorları
▁İskandinav
▁müfredatı
▁bakmış
▁oturttu
▁İhtiyaç
▁oluşmuştur
▁kalanları
▁mikrobi
▁roketler
▁teklifi
▁tekel
▁çocuklukta
▁Harikaydı
▁Asl
▁bayılırı
▁Spino
▁timsahı
▁kemiklerin
▁CB
▁Rocke
▁nice
▁BL
ekâ
▁Entropi
▁odaklanacağım
▁oyuk
▁kutbun
▁2500
▁ısınmaya
▁selüloz
▁santralleri
▁vazife
▁salgınında
ooth
▁Yellowston
▁varıyoruz
▁Ağaçlar
▁narin
ngham
▁Pun
▁düzenlenmesi
dıysanız
▁cezbedici
bule
▁aldığımızda
▁dönüştürecek
▁olduklarımız
▁dernek
▁yaramayan
▁pijama
▁optim
▁posterler
▁kapılma
▁koka
▁yuzyil
▁aroma
hos
▁Medeniyet
▁arkadaşımız
▁düşüktü
▁Simpson
▁yaşayabilme
▁August
▁kuşakta
▁devinim
▁bulacağımız
IT
▁yükümlü
▁Öğrenci
▁Boe
wan
▁Kapitalizm
▁beyinlerimizi
▁kasların
▁yönetiliyor
▁tutarsız
▁farketmez
▁Farz
▁umrun
▁Hayatımızı
▁Departmanı
▁Tutu
▁bardağı
▁pürüz
▁Ligi
▁kulüp
▁kalbinizi
▁işleyişi
▁pazarların
▁Arzu
▁farkettiğim
▁korunmak
▁sistemle
▁alınacak
▁Petrolü
▁kullandığınızda
▁eşik
▁labirent
▁depolar
▁taşınmış
▁Rem
▁uca
▁sakladığı
▁silahla
▁alacağını
▁örgütler
▁mağduru
▁unuttuk
▁eridi
▁Başlık
▁bahsetmiyor
▁hatırlamaya
▁girişinde
▁dersini
▁inanırlar
▁bozuldu
▁algılar
▁zihinlerimiz
▁ölümler
▁yıkay
hhhh
▁asistanı
▁sürümü
▁korkuttu
▁komando
▁konferansı
▁sularda
▁elemanlar
▁avatar
olojist
▁subay
▁cihazlarını
▁Oyunları
▁neslimiz
▁bankaların
▁kıvır
▁orkide
▁modüler
▁radyasyonu
▁egemenliği
▁tutumları
▁tutmakta
▁Nollyw
▁komşularımız
sburg
lendirir
▁ulaşamıyor
▁uğraştığım
▁kapanıyor
▁meslekler
▁yağar
▁jenerasyonun
▁savaşları
zman
lunacağını
▁Organ
▁taşımıyor
▁gümrük
▁derleme
▁Krallığı
▁dusunuyor
▁yağdı
falo
▁Çit
▁püf
▁faaliyetleri
▁hâlihazırda
▁söylemeyeceğim
▁Stein
▁rezonans
▁alışkanlıklar
▁gevreği
▁kota
▁hatırlayabilir
▁Şeffaflı
▁kuraklığ
▁krem
▁rehberi
▁hatıraları
▁Potter
▁gelmem
▁alınmıştı
▁Anlatma
▁göçmenlik
▁limitlerini
▁eğrisi
▁vurucu
çedönük
▁kalabalığı
▁Mass
▁kayalıkları
▁hizmetçi
▁Bilge
▁Altyapı
▁bilemeyiz
▁bağlantısız
▁katmanlı
▁oluşturmamız
▁uçurdu
▁geldiğimizi
▁istediğimizde
▁Neandertal
▁tüysüz
▁genomun
▁algoritmik
etmiş
▁sevmedi
▁gelmeleri
▁Devletlerde
▁penguenlerin
▁nitelikler
▁tünelleme
▁eğimi
▁ritüel
▁İskenderiye
▁transistörler
▁gelirleri
▁yatağını
▁akımları
▁yüzleşti
▁etmemek
▁Çernobil
▁Kad
sten
▁konfor
▁Abu
▁kurmakta
▁tamamlanmamış
▁izlemeyi
▁Enstitü
▁tüpler
▁surec
▁What
▁fetüs
▁gülümse
▁papaya
▁şuurlu
▁HC
▁Play
lediğinizde
▁Alo
▁DC
▁mudur
▁örneğinde
▁Ern
▁sermayesi
▁tapir
▁Ira
▁Tunalar
manızı
▁jest
▁Usa
▁Özgün
▁Dimitr
▁söyleriz
▁Alternatif
▁gitmeliyi
▁ılımlı
▁götürmeye
▁Planı
▁döngüleri
▁toptan
▁istemesi
▁girişimcilerin
▁Özgürlüğü
▁Kimisi
▁ünde
▁Saha
▁çocuğunuzu
▁sorsaydı
▁söyleyebilirdi
▁nufus
▁çin
▁odamda
▁ünün
kabinde
▁dolaştığı
▁Gezegende
▁bilinçaltı
▁telefonumu
▁Şehirde
▁ilginci
▁sıkıştırma
▁ısının
rton
▁yaptigim
▁konus
▁inandıkları
▁tanımlanır
▁evreninde
▁doruk
▁Darwinci
▁istatistiğ
▁sandalyeleri
eçici
▁bisikletçi
▁kıtası
▁otobüsler
cikler
tiş
▁ekonomisinde
▁atomun
▁yörüngede
▁elementi
▁Solar
▁vardığımız
▁bulmamızı
▁Saga
▁tanıdığımız
▁kibirli
▁tükendi
▁Topluluk
▁Yay
▁aldim
▁profesyoneller
dugum
▁ihtiyacimiz
▁yaptik
▁soyledi
▁problemlerimiz
▁alir
▁67
uga
▁calisan
▁bulmasını
▁çözücü
▁homojen
▁muhakeme
▁hesapladı
▁mutfağı
▁akşamlar
▁görebilmeniz
▁frekanslar
▁uçuyorlar
▁mağlu
▁biyome
▁alışılmış
▁desteğini
▁borcun
▁Sokakta
▁umduğumuz
▁sanatçıları
▁ulaştığım
▁üyeler
▁günlüğü
▁başlatıyoru
▁Tık
▁aletle
▁Özetle
▁düğmesini
▁takılır
▁cisimler
▁ezilmiş
▁yuttu
▁tutuştu
▁öge
▁Dünyamız
▁dö
▁konuşabilme
▁eylemini
▁kaybediyorlar
▁getirebilmek
▁çabalarını
▁Kampanya
▁partide
▁kimileri
▁bahsetmeyeceği
şey
▁karıştırır
▁Fikirler
▁uğrayan
▁yönlendirebil
▁atmayı
▁takmış
▁gelişmeleri
▁kesilme
▁muğlak
▁Kaybol
▁yoruldu
lecek
▁kibrit
▁yaktı
▁Varol
▁başarabil
▁Cro
▁küçüktü
▁gelenekleri
▁bağımsızlığı
▁homoseksüel
abildikleri
▁götürdüler
▁müttefikler
▁kaçırır
leştikleri
▁şirketlerini
▁tutulmuş
▁Ebeveynler
▁ödevleri
▁çalışmıyordu
▁söylenmişti
▁Vergi
▁Hipok
▁senaryoları
▁kitaptaki
netik
▁Savaşları
▁tekerleği
▁oralar
▁gidemiyor
▁hesaplıyor
▁Yüzey
▁kayması
RS
çoğumuzun
▁orgazm
▁tutulması
▁portresi
▁değme
▁Koleji
▁sıralaması
▁modeldir
▁konuştuğunuzda
▁ayıp
▁dürtüsü
▁yeteneğiniz
▁Beğen
▁Gazete
▁İp
▁emer
▁Filmin
▁Brother
▁göstermemiz
▁karakterlerini
ecekti
▁yaratabil
▁ölçüleri
▁canlandırdı
▁coşkulu
▁taşıyıcıları
▁öldürülme
▁filosu
▁hekimi
▁mırıldan
▁şişmiş
▁korktuğum
▁istismarı
▁farklılıklarını
▁esaslı
▁Okyanuslar
▁süpürü
▁yosunlar
▁görse
▁canımı
▁Baskı
▁İyimser
▁Yetişkin
▁edebileceğimizi
▁mikrobiy
▁gerisinde
▁düşünmemi
▁Ergenlik
▁Birilerini
▁uçurmak
▁atlamak
▁bırakmamız
ET
▁yazısını
Spee
▁yaşla
▁Tezahürat
▁uygulaya
▁telgraf
▁92
▁etkileşimleri
▁aktivitelerini
▁seçtikleri
▁Kullandığım
▁vaz
▁kılık
lanırdı
▁söndü
▁lokum
▁değecek
▁almışlar
▁öğrenmeniz
▁bulana
▁gazileri
▁yaratabilmek
ılmıyor
▁kırıldı
▁ekipmanı
▁pişiriyor
▁blokları
▁kabuklu
▁Dönüş
▁yörüngesini
▁kelepçel
▁yerleştirir
▁içgüdüleri
▁patentini
▁Kick
▁Süreci
▁telefonunuzda
▁çeşitlerini
▁mertebe
▁değiştirebilme
▁alkışlay
▁hiçbirinin
▁Elini
▁etseydi
▁iddiaları
▁modelde
▁arkaplan
▁iklimin
▁gazlarını
▁sans
▁tecrube
▁kurtulama
▁donustu
▁heyecanla
ciligi
donusum
reme
▁olcu
▁dilegi
▁etkileyebilir
ecegini
▁hastalarım
▁dörde
▁rastlana
▁tempor
▁hücrelerde
▁Katla
▁105
▁Gir
▁kirlenme
▁Night
▁Pur
▁eşleştir
▁müvekkil
▁vereceğiniz
▁hemşireleri
▁Miss
▁Fırsat
▁Festivali
▁havuzunda
▁yüklenme
▁üniversiteler
▁istenil
▁düşüncemiz
▁zahmetli
▁Gökyüzünde
izse
▁ustalaş
▁Kusur
▁sınırda
▁firmaları
▁kazmay
▁başladıkları
▁sefalet
▁tanışın
▁inananlar
▁rağbet
▁karanlığ
▁patlayıcı
▁tozu
▁balığını
ilişsel
▁keşfedilme
▁seferki
▁çalıştırma
▁başaracak
▁alınca
▁Başla
▁Hım
ilginizi
▁görülmesi
▁dâhi
rumda
acağından
▁News
▁incitme
▁özgürlükçü
▁bahse
▁yıkı
▁doğusunda
▁imparator
▁çalışmaktadır
▁odaklana
▁Church
▁yalın
▁sele
▁sahneler
▁geçerler
▁babamız
▁dansın
▁Havaalanı
▁Müzisyen
▁müziksel
ülür
▁çekiş
▁borular
▁kutlamak
leniyordu
▁yalanlar
▁Vatandaşları
▁edeceğinizi
▁kibarca
▁uyuşmaz
▁yenilenmesi
▁Satış
▁kılavuzu
▁Pazarlama
umartesi
▁çevrimdışı
▁hastalıklarının
▁muamma
▁öğrendiklerinde
▁antikorlar
▁süreceğini
▁slide
▁sağlamıyor
▁yapılmaya
▁elimin
▁geçebilecek
▁sağlandı
▁kullanılabile
▁Oran
▁katılıyoru
▁McL
▁gözükmesi
▁baktığını
▁sabırsızlanıyor
▁bağıntı
▁omuzları
▁getiriyordu
▁Pack
▁poşet
▁anlatabilme
▁sorunlarımızı
▁ihtilaf
▁sanatla
▁çağındaki
▁simgeliyor
▁tasarlanmıştı
▁içerikleri
▁yansıtıl
▁imleci
▁iskeletin
▁mikroskopi
▁uygulanıyor
▁duymadığınız
eigh
▁Mücadele
▁düzeltti
▁mineraller
▁değerde
▁işyerleri
▁beklenil
▁konularında
▁oluyorsa
▁videodaki
▁koşulların
▁talepleri
lanmayı
eceklerdi
▁çaresizlik
▁telkin
▁tanıyabilir
▁casus
▁kapılır
▁katlanma
▁yıkar
▁patronum
▁bakımda
▁çözünürlüğü
▁kızak
▁yeteneğimizi
skaly
▁atlatma
▁kayıpları
▁Unutma
▁kuşaklar
▁kulaklarınız
▁indirgey
▁dönüştürü
mama
▁dağlarda
▁objelerin
▁çekirge
▁arşivi
▁geliyorsunuz
▁sarıldı
▁yitirdi
▁kapandı
▁görünüşte
▁üzeriniz
▁Donald
▁kadro
▁götürebileceği
▁kapladığı
▁çiçeğ
▁kaslarını
▁edebildiği
▁Koloni
▁olabilen
▁duyuluyor
▁hücresini
▁Gürültü
hanede
▁kemikler
▁ekler
▁tuvaletleri
▁büyütüyor
▁Anthon
memişti
▁bilinmiyor
▁yoldu
▁yükselişin
▁keşiş
▁duruşma
▁durduğum
▁63
▁Bac
▁bakmaktan
▁taç
▁İbrahim
▁kolum
▁elinizdeki
lanacağını
▁Carr
▁isteklerin
▁faaliyetlerin
▁sözkonusu
í
aşırı
hore
▁Jose
▁duvarlarını
▁denemesi
▁sinirler
▁payda
▁yalnızlık
▁geçirdiğiniz
▁partileri
ew
▁geçirdiğimiz
▁Columbi
▁varoş
▁kütüphaneler
▁olabildiği
▁zorlukla
▁kökünü
▁Çalıştığım
▁Kavgacı
▁Hayatlarını
▁tutuklu
▁Yapabileceğiniz
▁birçoğunuzu
▁öyküy
▁vakfı
▁mahcu
▁Gözlerinizi
▁masalı
▁sevindi
▁çuval
▁alevler
▁yüzümüz
▁ıslak
▁evlatlık
▁biyologları
▁emindi
gerçekleştiriyor
▁çatışmalarda
▁Yahudiler
▁özdeşleştir
▁beysbol
▁yetiş
▁üzerimizde
▁kuşatma
▁İçi
▁okulunu
▁eldiven
▁oynadıkların
▁yaratılması
▁ustalık
▁erişebilme
▁giyinme
▁Kid
▁Pembe
▁duramıyor
▁satılı
▁engellerin
▁koyması
▁dükkanda
▁limitli
▁vurmuş
▁düm
▁tebeşir
▁Korkar
▁cesedi
▁acısı
bran
▁uğradığı
▁çekicidir
▁bobin
▁artist
▁Sub
▁cereyan
▁Cornel
▁mekaniğini
▁anlayamıyoru
▁spontan
▁Organizasyon
▁kaydedebilir
▁Koşu
▁enzimler
▁fikirlerinizi
▁kutucuğu
▁Photoshop
▁fotoğrafladı
▁viski
▁alındığı
▁ailemizi
▁şartı
▁lisansım
▁Hayatında
▁gözükecek
▁kilometrekare
▁Hur
▁göller
▁gereklilik
▁deği
▁Sera
▁israfı
▁kaynaya
▁edebilecekleri
▁devamlılığı
cus
▁band
▁çipi
▁santrifüj
▁konuşmanız
▁İngilizler
▁bakışta
▁bulmada
▁görüştük
▁getirebiliyor
▁bahsedecek
▁yararsız
▁operasyonlar
▁Orda
▁Farketti
▁durumların
▁sorumuz
▁yarışıyor
▁botlar
▁biyosferi
▁evrimleştik
▁laik
▁yeraltında
▁gizemin
▁kuruyorlar
▁Ruslar
▁erime
▁aynalar
▁deneylerini
▁balonun
▁gördüğün
▁sağında
▁skoru
▁haberim
▁Diyabet
inlediğiniz
▁Epey
▁paylaşmama
▁çıkarım
▁kırılganlığı
▁gizliliği
▁bastırmak
▁süreçlerini
▁gizlenmiş
▁yiyebilir
▁taşırlar
▁koltuğun
▁yaralarını
▁bağırma
▁hissetiği
▁öğreniriz
▁tuttuğumuz
▁kültürlü
▁cebinde
▁yozlaşmış
▁vermiyoruz
▁bağlantısını
▁döndürmek
▁It
▁zirvesin
▁heyecanlanmıştı
▁buzdağını
▁yansıttığı
▁buluşmak
▁denetleme
▁TM
▁yağmurun
▁ulaşabilecek
▁bilmeyi
▁kitapçı
▁tutulamayan
▁Fransızlar
▁tanıyı
▁İnsanoğlunu
▁atıyordu
▁yürünebilir
▁Perde
▁kese
▁çevirmen
▁Çöz
▁hatlar
▁Kurumsal
▁okulların
▁büyüsü
▁Def
HA
▁piyade
▁kopma
▁uzanmış
yandığını
▁sokmaya
▁kapladı
▁gözenekli
▁yayılacak
▁temizleye
▁sönme
▁Görmek
▁Senegal
▁düzeneği
▁yazmasını
▁komut
▁rütbe
▁bombalar
▁gaziler
▁yaraları
▁Gücü
▁birleşim
▁Langle
▁depresyonun
▁mantıkla
▁ödüyorlar
▁oyununun
▁öğrenebil
▁kaptan
roy
▁Çalı
▁retinanı
▁çalışmıyoru
▁incele
▁barındırma
▁torbaları
▁harcamaya
lmayı
▁elbisesi
▁izliyoru
▁edenlerin
▁elektroniği
▁katıyor
▁sağlayın
▁azalta
▁modifikasyon
▁annemle
▁olanaklar
▁kiralay
ddie
▁korkularımız
▁Wag
▁endişeleniyoru
▁tedavileri
genez
▁inandırma
▁çatışması
▁asteroidi
▁Villa
▁babamdan
▁kızımı
▁parılda
▁ulaşmasını
▁Toprağı
▁tavsiyem
▁çıtır
▁Solu
▁Nesne
▁Acu
▁söyleyebilecek
▁Little
▁sosis
▁geçmesini
▁uymuyor
▁besledi
▁kuzeybatı
▁Sağda
akut
▁katsayı
▁Nevada
▁Tüketiciler
▁Tüketici
▁paneller
▁biriktiriyor
olmuyordu
▁kopyalamak
▁İlişki
▁yazacak
▁Hoşçakal
▁çevresi
heng
▁Kamen
▁Caddesi
▁ulaştırma
▁karıştıra
▁lehin
▁reaktörü
▁karıştırıl
▁değirmen
▁tutuklanma
▁sanatım
▁Büyü
▁siyas
▁döndüğümüz
▁genlerimiz
▁kimyası
▁toplamını
▁McKi
▁çam
▁kullanmanız
▁bitmedi
▁bataklığ
▁muson
▁boruları
▁Mahalle
▁sıkışık
▁Owen
▁Kuvvetleri
▁haberini
▁bozonu
▁bozdu
▁kayakçı
▁verildiğinde
▁getirisi
▁hücresinde
▁hissetmeniz
▁Nerde
▁algıladığı
mayacaksınız
▁Stock
▁Almanca
▁davranis
▁Daw
▁raporunu
labora
06
▁turta
▁süperbilgisayar
▁mesleğim
▁talimatları
▁hafızası
▁rezervasyon
▁anneannem
▁çalışmadı
▁kapitalizmin
▁file
leştirmenin
▁mimarlığı
▁vurguluyor
▁boşaltma
▁doğrusunu
▁öğrenmeli
▁arkadaşlığı
▁eriyor
▁sanı
▁editörü
▁kalbiniz
▁Futbol
▁standard
luyorlar
▁hissettirdi
▁imkânları
▁Rover
▁üretildi
vatar
▁Bahamalar
▁düşünmesi
▁Duvarı
▁ekranlar
DK
▁çiş
▁topraklarını
▁harfli
ides
▁koyabiliyor
▁matematikçileri
▁göremiyoruz
▁93
▁hibe
lkeler
▁yapmada
▁ayrıldığı
▁Maymunlar
▁Hafıza
▁bozabilir
▁köpekleri
▁Ebeveynlerim
▁bağlılığı
▁Performans
▁Hoo
▁parçacığı
▁gözlüğü
▁canavarları
▁tasarı
▁kesesi
▁barkod
▁Aday
▁mahkemede
▁firmalarını
▁anaokulu
▁bitecek
▁Hanna
OC
▁izleyebiliyor
laboratuvarlarda
▁merhametli
▁Gözlük
▁açılışın
▁Kıyı
▁bizleriz
▁anlatmıyor
▁köylerin
▁seve
▁makaleler
▁aşinayı
▁telefonunda
▁milliyetçi
▁hissedar
▁yüzücü
▁sıcaklığını
▁sosu
▁sevilme
▁kazanıyorlar
▁meselesini
boy
▁atışları
▁bahçıvan
▁yaşlanmaya
▁alımı
▁fonksiyonlar
▁yarıştı
▁çocuğumu
▁tohumlarını
▁yüksekti
▁kitleleri
▁kopuklu
▁Yorum
▁kamyonun
▁organın
▁eteği
▁almaktadır
▁çıkarttığı
▁Luca
▁kesilir
▁kullanmıyorlar
▁hissedecek
▁faktörün
▁avlama
▁sütunu
▁keşfettiği
▁NP
▁ölçülü
▁edemediği
too
▁soralım
kova
▁Köpeği
lvis
▁yaşlardaki
▁Bitkileri
▁depolaya
▁hikayesinde
▁halletmek
▁yollamak
▁Chad
▁magazin
▁Victoria
▁mülakat
▁gur
▁AT
▁Çizgi
▁çıkardığınız
▁Paleo
▁ihtimaller
▁çetin
▁içerideki
▁sirk
▁ameliyatları
▁otlar
▁Eee
▁sürüyordu
▁örgüsü
▁BR
▁Alv
▁dinazorları
▁gelemez
▁öbek
▁müdürünü
▁bilmeleri
▁güneyde
▁Otizm
▁yeryüzün
▁kokpit
▁etiketlenmiş
▁dışsal
▁öğretilme
▁kötülüğü
▁başarabilirse
▁geçirgen
▁bedenleri
▁düzelme
▁Gehr
abilse
▁eğitimciler
▁bireyi
▁dolaşmay
▁dönüştürülebili
▁buzullarda
lduğumuzu
▁öğrettikleri
▁katkıları
▁reaksiyonları
▁vejetaryen
▁sözlüğü
▁metod
▁elektrotları
▁evresinde
▁semptom
abileceğiz
▁mimler
▁ürünle
▁toprakları
Phone
▁Merri
▁BC
▁tepesini
▁ameliyatta
▁atarsa
▁Tiyatro
▁merkezimiz
▁sallan
▁dergilerde
▁Kuyruklu
▁eşleş
▁mürekkepbalığı
▁detektör
landıkları
▁yaklaştığınız
▁coğrafyası
▁temizler
▁seller
▁bitirdiğimde
▁Osma
▁kapasitemizi
cret
▁atleti
▁atlayışı
abildiklerini
▁kortikal
▁küpü
▁çerçevesi
▁Diyet
▁sinaps
▁Manyeti
▁Karşılıklı
▁biyolümines
▁CC
▁domuzları
▁sahipse
▁sandviçi
chran
PO
▁şaşırmış
▁Görevi
TEM
vis
ctus
▁ısıtıcısı
▁Morgan
▁olamayı
▁sivrisineklerin
▁ayinler
▁Douglas
▁Mathe
▁Bedenim
▁Malt
▁bulduğumu
▁kapan
▁Rocket
▁ölçtük
▁atardamar
▁Konuşmak
▁sonsuzluk
▁Furby
▁yetiştiri
berry
▁Filistinliler
sion
▁patlamaları
▁isteyemediğ
▁Amira
▁evlenmezse
▁Mou
TK
▁kuramını
▁mağaralarda
▁progeria
▁ajanda
▁Haç
▁Kardeşler
▁Özgür
▁Diy
▁bombasını
▁Anlamı
▁şaşırtıyor
▁yapabiliyorsa
▁süpermarkette
▁Hükümetler
▁uzağında
▁borçlu
▁dayandığı
▁saygınlık
▁Sokaklarda
▁Tuvalet
▁erkeklerde
▁Aileler
▁kollarında
▁kıtaları
▁istememiz
▁katlanıyor
▁Kalabalık
▁bozulduğun
▁sözlüğ
▁uzunluk
▁olucak
▁çevirim
▁Sıvı
▁arındırma
▁eğlendirme
▁düşüncelerimiz
▁faydalar
▁İnsanoğlu
▁Bloom
▁durgunluk
▁beklendiği
▁Lamb
▁esnaf
▁fıçı
▁gelmemişti
▁boyadı
enos
▁kopyaladı
▁oranlar
▁siyasetçiler
▁uçmaya
▁harcamalar
▁gülüşler
▁öndeki
▁Jupiter
▁gidermek
▁tarayı
▁taşlarını
▁tarihimizde
▁budala
▁ajansı
@
▁fran
▁Soyle
▁verdigi
▁Gap
▁hizmetinin
▁yogun
▁bakim
▁cesit
▁yilda
▁bakin
▁bolumu
▁kaldi
▁Tesekkur
seyler
▁istedigi
▁fedakar
▁çıkageldi
▁deterjan
▁karşılaştırıl
▁çiğneme
▁başaran
▁düşüncelerimi
▁keşfedile
▁Sanatçılar
▁Muzi
▁düşürür
▁Etkili
▁arabalarını
▁sakinleri
▁giderim
▁sürdürü
▁yıpran
▁bekleyecek
▁sınıftaki
▁ücretleri
▁standartları
▁kalsa
▁Etraf
▁yağdığın
▁koruyacağı
▁yerleştirdiği
▁barındırır
▁tırnağ
▁destekliyoru
amayacağımız
▁partisi
atha
▁anladığını
▁ayırabil
▁bekleyemey
▁geçtiğim
▁Gölge
▁rahatlatıcı
▁Nash
▁ölümlü
▁Vajina
▁alamayacağı
▁dayak
▁Bakan
▁basında
emeyeceğini
▁söylemişler
▁toplamış
▁genital
▁varış
▁kapıldım
▁farketmek
▁uyanıyor
▁fikirlerimi
▁kaldıkları
▁doğurur
▁tepsi
lendirilme
▁topla
▁dul
▁izliyordu
▁İleride
▁tanışmış
▁ritm
▁şarkılarını
▁yeniliklere
▁sömürgeci
▁iplikler
▁kurumunu
argo
▁kutladı
▁mesai
▁sunucusu
▁gerçekleşebil
▁başladığınız
▁seçiyorlar
▁alkışlıyor
▁Spo
▁yoga
▁getireceğini
▁paniğ
ecekleri
▁söylendiği
▁adaletsiz
▁erdemli
▁yokluğunda
▁fiziğini
▁Bacakları
ronik
▁direksiyon
▁JPL
UR
▁yürüyüşün
▁kapar
▁okuyama
▁Sabahı
▁bilgisayarımı
▁utancı
▁Hamile
▁yanıtları
▁tanrıçası
▁heykeltraş
▁ikaz
▁istemezler
▁sınırlandır
▁değiştirildi
▁kutluyor
rich
▁stüdyoda
▁bölmek
labildiğimiz
▁çukurları
▁cinsin
▁Gözler
▁87
▁edemiyordu
▁gerçekleştirile
▁aktris
▁Aid
▁dakikası
▁Olimpiyatları
▁özgürlükleri
rod
▁kliniği
▁Dışarda
▁şişme
▁yüreğim
▁Gücün
▁bulunmaz
▁yapılmıyor
▁mercanları
▁resifin
▁tabanını
▁Yüzyıl
▁çatlak
▁gülmek
mıyorlardı
arar
▁iddialar
▁Yeter
▁uzantısı
▁ölenleri
▁vermelisiniz
▁aktarılan
▁etmedik
▁algıladı
▁gidemez
▁bayılıyor
▁Fuller
▁çıkarılma
AT
▁yetiştirebiliri
▁kabukları
▁BP
▁emici
▁olursun
▁gözünü
▁birçoğunu
ueen
▁ağacında
▁Matthew
▁başparmağı
▁yaşamım
▁edecekleri
▁beklemediğim
▁Potansiyel
▁Obje
▁merdivenin
▁Standart
▁teleskopları
▁varsayıyor
▁kayaların
▁Gözlem
eklenen
▁projektör
▁duvarda
▁parmaklarımı
▁kurcalama
baharda
▁otoban
▁bakir
▁ilgilendirme
▁damarlar
▁Motors
▁yakan
▁degisimi
▁sec
▁fabrikalarda
▁mantik
▁iletisim
▁Wor
▁Sag
▁gercekles
▁kontrolümüz
▁giyiyorlar
▁Söylediği
▁çeşitte
▁hücreleriniz
▁uyarılma
▁korkuyorlar
▁küf
▁sindir
▁laboratuvarın
▁jelatin
▁Bakterileri
▁toplayacak
▁hizmetinde
▁İdaresi
▁kavuş
▁saatlerinde
▁etmediğimiz
▁evlendim
bileceğiz
▁Büyükannem
▁sıyır
▁bağlayacak
▁Şanslı
▁naif
▁yaşaması
▁Ebeveynleri
▁isteyenler
▁endişelenmemiz
▁tanışıyor
▁girdiklerin
▁diploması
▁tanındı
▁patlar
▁planında
▁biyoloğu
▁Solomon
▁öğrendiğini
▁durduğunu
▁zıpla
▁gösterirse
▁yüzdesini
▁duyacağınız
▁nicelik
▁oyununu
▁tarafımda
▁doğruluğu
▁uzlaş
▁Birbirimizi
▁yıkıldı
▁hayranım
▁deyiş
▁Karakter
▁sürgün
▁Ölme
▁sarılmak
▁yanılgı
▁uçuk
▁bıkkın
▁101
▁performansları
▁Greg
▁cümlesi
▁mazeret
▁Çalış
▁Düşman
▁misyoner
▁muhafız
▁titizlik
▁sesleniyor
▁servisler
▁dokuzuncu
▁biriktirdi
▁rakiplerin
▁satacak
▁piyasasını
▁emsalsiz
▁endişelendi
▁anımsıyor
▁modifi
▁etkeni
▁mutasyonu
▁Tha
▁grib
▁bahsedebiliri
▁yoğurt
▁Malum
▁Birileri
▁minimal
▁gelmediğin
▁mimik
▁alışmış
▁imajını
▁anlayabilecek
▁anlayabiliyoru
▁göğsü
▁kot
▁doğrultuda
statik
▁zannediyoru
▁sanır
▁dengesizlik
▁bulduğunda
▁güneşli
▁kapsülü
▁şeridin
▁mod
▁yükselmek
▁etmişim
▁Sorumluluk
▁Sigorta
▁ihracat
▁kalmakta
▁Akran
▁Eviniz
▁sağlayabilirse
▁alternatifleri
▁yaratabilecek
▁bulabilirler
▁mahk
▁Kariyer
▁sızan
hud
▁Papua
▁dolanma
▁modüller
▁düşüncelerinizi
▁Sözün
▁reseptörler
▁tecrübelerim
▁saatimi
▁baktığımı
fred
▁haritalandır
▁bırakılan
leştirildiği
▁Demir
▁mahvol
▁ölmekte
uyduğunuz
▁fener
▁açıklayama
▁nörolog
▁vuruldu
▁açtığında
▁havaalanları
▁taramaları
▁yetiştiricileri
▁dip
▁evrilmiş
▁kısası
▁çiftlikler
▁Çiftlik
▁kelebekler
▁donatıl
▁erişebileceği
▁Şirketlerin
▁yaklaşımları
▁karmaşıklığ
▁Ansiklopedi
▁omzu
▁söylese
aşımı
▁Çıplak
▁Salon
▁Aydınlanma
▁İzniniz
▁askıy
▁izleyicilerin
▁söylediklerinde
▁ölçeğ
▁yükselişte
▁göremediğiniz
▁yaşamında
▁argümanı
▁becerisini
▁azalmasını
▁bakmamızı
▁yün
▁müzesi
▁geçemez
▁kırıklıkları
▁finansman
▁geliştirmeyi
▁Ayna
▁öğrendiğin
▁modunda
▁döngüler
luyum
▁başlattılar
▁Tembe
▁Angola
▁topraklarında
▁dükkanında
çılık
▁çiti
▁Durg
▁buluşları
▁değerlendirilme
▁başlattığımız
▁yerleşimciler
fiil
▁eğilme
▁konumunda
▁liderliği
▁Ubu
▁istenme
▁değiştirmeniz
▁belirtmeliyi
ó
▁dönüştürebil
▁utanma
▁masamda
▁Evlat
▁Cruz
~
▁umuyordum
▁geçenleri
▁büyükannesi
▁torununu
▁Şaşır
▁sevmişti
▁dostlarım
▁kızdı
▁restoranda
▁dolaşıyordu
iyorsun
▁toparlay
▁itfaiyeci
▁açtığım
▁yumru
▁tanıtıyor
▁Ryan
▁çayırlar
▁uyarılmış
▁kabiliyetini
▁Sayıları
▁doğacak
19
▁soykırımı
▁çocuklarınızı
▁liberaller
▁Kulüb
▁etmeyeceğim
▁öldürdüğünü
▁patlaya
▁Sufi
▁aciz
▁değişimlerini
▁mang
▁pisti
▁mağaraları
▁yaradığı
▁özlemi
▁torunlarımız
▁Favori
▁Justin
▁Çevremizde
▁yüreklendir
▁telefonlarımız
▁bulaşık
▁Tekerlekl
▁disiplini
▁Yoksulluğu
▁zihniyeti
▁kastediyor
▁anlatmam
▁vardiya
▁kalacağım
▁kıyamet
▁bütünlük
▁göğsüm
▁Hend
▁hayallerim
▁süreçle
▁perspektifin
▁ağlıyordu
▁çilek
▁yerleştireceği
▁bilmesini
▁yapmaktadır
▁adlandırıyor
▁dokusunda
▁düny
▁hurda
▁bahsediyorsun
▁analizler
▁oklar
▁sıcaklığında
▁maddesi
▁ölçüsünü
▁yaptırabilir
▁parçasında
▁basitleştirme
▁Kulesi
▁öğrenmesini
lemesini
▁mutfağın
▁Kısme
▁satırı
▁şekilli
▁nişan
meyecekler
▁canlandırabilir
▁ormanlarının
▁istemediğimiz
▁yöre
▁tüketti
▁dinleyicilerin
▁adalarda
▁getirelim
değiştirilebilir
▁yarıçapı
▁olabileceğimizi
▁açımızda
▁dördünü
▁arayışında
▁Askeri
▁çözülmüş
▁yağmurlu
▁müşterilere
▁duvarlarda
▁konteyner
▁tarlada
▁patronu
▁tasarlamamız
▁Yetişkinler
▁konuşama
▁işlevler
▁Multi
▁network
lash
▁tab
▁bağlanacak
▁ortalamasını
▁sandım
▁Mutluluğu
▁ölümsüzlük
▁tetikleyen
▁bota
▁mitokondri
▁sağlayabilmek
▁harcamış
▁gerçekleştirir
▁bağladığı
▁yayımlana
▁geçinme
▁istikrarsız
▁tanımlayacak
▁riskte
▁Nüfusun
▁şehirleşme
▁nüfuslu
▁istihbaratı
▁çalışmalarımda
▁mallarını
▁yüzüğü
▁Yanıt
▁şaşa
▁ağrılı
▁dezavantajları
▁lenf
▁Cihaz
▁StoryCorp
▁arkadaşın
mışım
çisi
icha
▁Bağır
▁Umudu
▁konuştuğunuz
▁mahsul
▁şekillendirdi
▁dönmesi
▁balonları
▁otoyolda
▁haklısınız
▁getirmektir
▁bitiren
▁inşası
▁Sıcaklık
▁Herbi
▁gemisinde
▁platformun
▁Paylaşma
▁sergileyen
▁seslendir
▁girebilme
▁kesildiğin
▁verecekti
▁öğrenmeliyiz
▁temizleyici
▁aşamalarda
▁ölçebiliyor
▁almamızı
▁aşağısı
▁politikada
▁yanıtlar
▁seçimde
▁alfabesi
▁tuşun
▁kulağı
▁sürükledi
▁çıkabilece
▁rahatsızlıklar
▁anlatırdı
▁kazandıran
▁şirketini
▁thr
▁çarpık
▁sayıdır
▁kitabımda
▁Umutsuz
▁Yapabileceğimiz
▁Vin
▁atıyorsunuz
▁Comp
▁oturtma
▁palet
▁eleştir
▁Karşılaştığım
▁inanırı
▁koyuyordu
▁iyileştirmeye
▁tekdüze
▁noktalarında
▁yüzeyindeki
▁boyutlarında
▁havzası
▁Yüzeyde
▁şartlarında
▁idealist
▁faks
▁başaramaz
▁seviyedeki
▁ütopik
▁rehin
▁Moğol
▁Cod
▁affedersin
▁cevaplamaya
▁Bayıl
▁duyuları
▁dilemek
▁sorması
▁Buffet
▁işlerinden
▁grubumuz
▁kano
▁Yüzüm
▁gidebildiği
layamayacağı
▁Oyunu
▁yoldaki
▁değiştireceğini
▁rafta
▁etkisinde
miyorsun
▁yaşamımı
▁denediğimiz
▁Müslümanların
▁Bazılarımız
▁doğduğumuz
▁eserin
▁bahsediyorlar
▁önerim
hou
▁taşımakta
▁sakınca
▁hazırlandı
▁düzel
▁suçladı
▁titreşe
▁ölçebiliriz
▁olanaklı
▁sorduklarında
▁limanı
▁yaşıyorsunuz
▁araştırmalarda
▁kısımlarını
bze
▁işlediğin
▁Kasırgası
▁karartıcı
▁Kuzeydoğu
▁denizanaları
▁batısında
▁alg
▁Nino
▁sağlayabiliyor
▁Anahtar
▁atıştır
▁kurulum
▁roketin
▁mekiği
▁manken
▁görmediğim
▁RO
▁Ayrıl
▁koni
▁rötuş
▁Indiana
mekteyiz
▁koşullarında
▁deneyimimiz
▁zorundaydınız
▁sakinlerini
▁mekanın
▁yapımız
▁alamayacak
▁altyapısını
▁Fey
▁uyduların
▁araştırmasında
▁kanalın
▁yıkadı
▁miller
▁diyenler
▁haznesi
▁harcanıyor
▁hesaplamayı
▁aritmeti
▁madenciliği
▁karbonun
▁yenilebilir
▁kapatıldı
▁açması
▁Gittiğim
▁Otorite
▁Hanım
▁kanadın
▁yakınlaşı
▁inorganik
▁yayıldığı
▁tanımla
▁kabarcık
▁kıymeti
▁halletme
▁omzun
▁söylenece
▁uçtuğu
▁algımızı
▁içlerini
▁çıkardığım
▁getiriliyor
▁lardaki
▁çekmiyor
▁geçmeliyiz
▁Kızgın
▁beklediğim
▁yatırı
▁harcayan
▁ölçülebile
▁Yunanca
▁Nav
▁Başında
▁atlaya
▁Amerikalının
▁kâşif
▁beklerdi
▁Programın
▁shirt
▁koştuğu
▁belada
▁kafamızda
▁şeytani
▁konak
▁üçlü
[...]
