<pad>
<unk>
<s>
<\s>
▁,
▁.
▁the
▁
s
▁to
'
▁of
▁a
▁and
▁that
▁"
▁I
y
▁in
ed
▁s
▁is
ing
▁it
▁you
▁we
ly
▁And
▁this
▁be
▁was
▁on
▁t
▁for
▁are
▁have
▁with
n
▁—
▁can
▁?
▁So
-
▁what
▁about
▁The
d
▁at
▁as
▁not
▁an
▁all
▁re
▁my
m
▁do
▁there
▁one
▁like
▁It
▁people
▁fro
▁so
▁our
▁:
▁)
(
▁but
▁We
▁just
▁us
e
▁But
▁or
▁see
▁these
very
▁me
▁out
▁if
▁know
▁them
▁up
▁by
r
▁going
▁when
▁more
▁had
▁m
▁because
▁were
en
▁would
▁he
▁think
▁get
▁some
▁their
▁look
▁how
▁really
▁who
▁your
▁which
▁want
▁ve
▁time
▁Thi
▁world
ies
▁has
▁You
▁here
es
▁go
▁actual
▁every
▁other
▁into
▁could
▁will
▁way
▁now
▁years
▁things
▁did
▁where
▁Laughte
▁don
▁Now
▁make
▁need
ause
hose
▁take
▁start
▁right
aid
▁say
▁something
▁much
▁work
▁two
▁first
▁than
▁no
er
▁call
lso
▁kind
▁got
▁little
▁over
▁lot
▁That
▁come
▁thing
▁back
▁most
▁life
t
▁In
▁talk
▁day
▁What
▁even
▁she
▁any
▁his
▁♫
▁many
▁new
▁different
around
▁change
▁Appl
▁There
▁does
▁through
▁good
▁her
▁down
▁being
▁idea
day
▁human
▁use
▁same
▁ll
▁He
▁A
▁year
▁show
▁Well
▁problem
▁d
▁try
▁If
▁put
;
▁three
▁doing
▁great
▁part
▁place
▁tell
st
▁ask
▁percent
▁again
▁made
▁well
▁system
▁fact
▁long
▁own
ity
▁give
▁find
one
▁e
▁why
▁happen
other
▁create
▁important
▁after
▁Thank
▁should
a
▁thought
▁let
▁last
▁end
▁him
▁might
▁off
▁000
▁before
▁example
▁big
▁able
went
▁better
self
▁never
▁high
▁together
▁course
▁help
▁few
▁still
▁million
▁love
7
▁design
▁point
▁story
▁came
▁old
▁ago
▁brain
▁bit
▁next
on
ce
▁When
each
▁sort
▁school
▁technology
▁learn
▁water
▁number
▁How
▁question
ther
▁play
▁mean
tween
▁small
▁kid
▁found
▁cell
▁too
▁10
▁become
▁believe
▁data
▁understand
▁feel
in
▁wom
▁20
▁turn
▁Bec
▁live
thing
▁done
out
al
▁real
▁ever
ves
▁car
alway
▁away
▁whole
▁power
able
▁children
▁large
▁second
▁may
▁person
▁four
▁liv
est
▁hard
ness
▁working
▁information
▁light
body
▁building
▁famil
ok
▁computer
▁guy
▁picture
▁experience
h
▁means
l
▁country
▁dollar
▁thinking
▁reason
▁al
▁project
▁No
▁process
▁space
▁sense
▁One
▁home
!
▁future
▁money
▁health
▁My
▁case
▁mak
▁moment
▁She
▁form
▁five
w
▁food
▁communit
aybe
▁month
▁social
▁group
▁S
▁Her
▁open
▁These
nough
▁left
quite
▁man
▁planet
▁energ
▁read
▁interesting
▁close
▁billion
▁times
▁develop
▁bring
▁getting
▁less
o
▁Let
ld
▁best
▁body
▁simple
▁grow
▁lives
▁young
▁animal
▁answer
▁stuff
▁probabl
▁face
▁Wh
▁move
▁hand
▁piece
▁matter
▁half
▁prett
▁am
▁room
ever
▁countr
▁walk
▁possibl
▁U
▁coming
▁line
▁under
▁200
▁Africa
▁build
▁job
▁hour
▁image
across
▁saw
▁government
such
▁seem
most
▁allow
▁For
ything
▁far
▁Earth
▁week
▁share
▁else
▁machine
▁complete
▁global
where
▁hav
▁science
▁business
▁name
▁ways
▁realize
▁societ
▁side
▁disease
▁makes
▁care
ion
▁set
▁All
▁As
▁To
▁particular
▁thousand
▁men
us
▁inside
▁later
▁age
▁term
▁New
▁level
▁city
▁single
▁B
▁remember
▁keep
▁1
▁happens
▁order
▁imagine
▁mov
▁bad
▁hope
▁amazing
▁sure
▁girl
▁often
▁minute
▁while
eady
▁histor
ic
▁cost
▁E
▁nothing
▁interest
▁yet
▁figure
▁watch
▁C
▁certain
▁student
▁alr
▁both
▁six
▁mind
▁public
▁discover
▁beautiful
▁child
▁study
▁American
▁self
▁patient
▁exact
▁whe
▁saying
▁100
▁book
le
▁run
th
▁wrong
▁lead
▁top
▁test
▁control
▁game
▁stop
▁30
▁fast
▁50
[
▁heard
▁challenge
▁hundred
▁result
]
▁buil
▁material
▁T
▁individual
▁entire
▁video
once
▁head
▁final
▁difference
▁market
▁couple
▁basically
ation
▁Some
▁true
▁deep
▁environment
▁full
▁centur
▁Internet
▁value
▁issue
▁words
▁happening
▁research
▁Unit
▁unti
▁un
▁nature
▁Every
▁On
▁phone
▁though
▁works
taking
bility
▁language
▁quick
▁friends
came
▁plant
▁speci
▁woman
▁sound
▁must
▁decided
▁leave
▁model
▁heart
▁hear
▁huge
▁universe
▁cause
ally
▁cancer
▁since
▁past
▁house
▁speak
▁spend
▁sometime
▁follow
▁art
▁scale
’
ment
▁team
▁America
▁questions
▁education
▁kne
um
▁stories
▁night
▁natural
▁music
msel
▁color
▁object
▁ocean
▁force
▁oursel
▁India
company
▁network
▁culture
▁solution
▁bigge
▁States
▁black
▁Oka
rhaps
▁product
▁free
▁economic
▁air
▁program
▁third
▁pay
▁w
▁ra
▁tree
▁state
stead
▁opportunit
▁realit
▁along
▁fly
▁mother
▁per
▁produce
▁leas
▁word
▁15
▁Or
▁structure
▁bas
▁experiment
▁difficult
▁size
▁eat
▁engineer
▁front
▁robot
▁population
▁news
▁God
▁2
▁choice
▁land
▁field
▁middle
▁step
▁Oh
ty
▁Do
is
▁outside
▁recent
0
▁TED
▁3
▁pick
▁amount
▁exist
▁war
gan
▁risk
▁focus
▁somebody
▁OK
▁learning
▁scientist
▁rule
▁death
▁drive
▁gav
▁relationship
early
▁turns
▁device
▁pe
▁econom
▁poor
▁explain
▁seven
hind
▁citi
▁won
▁pattern
▁compani
▁common
▁reach
▁beginning
▁buy
▁surface
▁feeling
▁fish
▁b
▁support
▁local
▁effect
▁happ
▁listen
▁view
▁parents
not
▁behavior
▁physical
▁safe
▁major
▁40
▁China
ten
▁generation
▁act
▁eyes
▁father
▁wait
▁area
▁dur
▁powerful
▁At
▁kill
▁arm
▁fee
ry
▁wonderful
▁York
▁deal
▁easy
▁friend
▁political
▁low
▁hands
▁movement
▁protect
▁decision
▁organization
▁near
▁media
▁stay
▁save
▁tri
▁teacher
▁short
▁normal
▁rate
▁oil
▁M
▁Our
cy
▁Right
▁notice
▁Yea
▁blue
▁add
▁given
less
▁send
▁born
▁map
▁begin
▁DNA
felt
▁slow
▁paper
▁D
▁movie
▁yourself
▁simpl
ory
▁known
▁solve
▁met
▁die
▁film
▁eight
▁growth
▁fight
▁lost
▁personal
▁People
ither
▁obvious
itting
▁measure
▁service
▁center
▁Yes
▁absolute
▁travel
▁ground
▁white
▁gone
▁total
▁present
▁source
▁action
▁wall
▁Just
▁treat
▁rest
Z
▁shape
▁access
▁hold
▁perfect
▁doctor
▁fall
▁toward
▁shows
▁stage
▁resource
▁extreme
▁increase
▁red
▁fear
▁continue
▁message
▁complex
▁camera
▁areas
▁climate
credible
▁average
rought
alone
▁di
▁cut
▁industr
▁cool
▁forward
▁impact
▁expect
▁19
pent
giving
▁approach
▁record
▁green
▁clear
▁blood
▁technologi
▁potential
▁factor
▁25
▁Not
▁manage
aught
▁condition
ese
5
▁sea
▁break
▁innovation
▁An
▁60
▁understanding
▁essential
▁digital
▁write
▁Music
▁tools
▁literal
▁nice
▁photograph
▁bottom
▁pull
▁situation
▁attention
▁morning
▁African
▁Can
▁pass
▁consider
▁ice
▁knowledge
▁conversation
▁chang
ware
▁train
▁fundamental
▁miles
▁tin
▁key
▁books
▁push
▁soft
▁dark
▁telling
▁K
▁CA
▁electric
▁touch
▁forest
▁creat
▁specific
▁stand
▁chance
▁Europe
▁sign
▁sudden
▁12
▁page
2
▁meet
▁11
▁provide
▁artist
▁worth
▁voice
▁audience
▁raise
▁strong
▁wonder
▁development
▁With
▁code
▁serious
▁lab
▁late
▁studie
▁special
▁cover
▁soon
▁fun
▁thank
▁current
▁site
▁Mars
▁truth
▁de
▁direct
special
▁putt
▁availab
▁goal
▁class
▁qualit
▁dream
▁guess
▁sex
▁law
▁hospital
▁memor
▁sun
an
▁smart
▁non
▁hit
rote
▁spread
▁easi
▁By
▁attack
▁rich
▁carbon
▁among
▁runn
▁World
▁plan
▁eye
▁journey
▁type
▁box
▁Google
▁main
▁modern
▁speed
▁baby
▁basic
▁trust
▁similar
▁neuron
ous
▁son
▁role
▁dead
▁track
▁conscious
ond
▁represent
ive
▁Where
▁recognize
▁general
▁leg
▁Look
▁sit
ish
▁effective
▁several
▁democrac
▁affect
▁institution
▁medical
▁region
▁nine
▁village
▁connect
▁incredibly
▁yes
▁usual
▁song
▁connection
▁sounds
man
▁haven
▁period
▁sell
▁vision
▁benefit
▁event
▁evidence
▁describe
▁First
▁extraordinar
olar
▁response
▁virus
▁South
▁flow
▁fire
▁perspective
▁block
volved
▁80
▁wish
Q
▁search
▁equal
▁violen
▁designer
▁function
▁character
▁5
▁scientific
▁hole
online
▁wear
▁degree
▁clean
▁require
▁success
▁Maybe
▁English
▁store
▁genetic
more
▁subject
▁teach
▁securit
▁connected
▁collect
▁visual
▁predict
▁molecule
▁street
▁signal
▁invent
▁craz
▁After
▁transform
▁count
▁favorite
▁evolution
▁price
▁successful
▁choose
▁concept
▁Most
pover
▁lose
▁J
▁Of
▁office
▁includ
▁aren
▁waste
▁aware
▁join
▁18
▁foot
▁worker
▁fair
land
▁list
▁detail
▁Who
▁suggest
▁onto
▁further
▁leaders
▁carry
▁park
▁exciting
▁skin
▁fund
▁screen
▁zero
▁medicine
▁writing
▁road
▁drug
▁drugs
▁traditional
▁secret
▁mass
▁adult
▁nation
▁offer
▁remain
▁throw
▁necessar
▁4
▁finding
ary
▁colleague
▁letter
▁genes
ily
▁draw
▁position
▁stick
▁tend
▁inspire
▁creative
▁Video
▁led
▁national
i
▁500
▁finish
oka
▁treatment
▁P
▁immediate
ism
▁accept
▁table
▁bacteria
▁conflict
▁progress
▁shift
▁depend
D
▁surprise
▁models
▁chemical
▁Even
▁daughter
▁meant
▁gre
▁lower
▁Don
▁wind
8
how
▁college
▁card
▁complicated
▁agree
▁fuel
▁religion
▁element
▁context
wife
▁meter
▁address
standing
▁appear
▁G
older
▁sleep
▁North
▁mine
▁version
▁fine
▁door
▁West
▁revolution
▁link
▁German
▁90
▁direction
▁sent
▁Are
▁possibilit
▁return
▁positive
▁Japan
▁eventual
▁worse
X
▁fill
▁increasing
▁fit
▁visit
▁communication
▁star
▁architecture
▁practice
▁cold
▁painting
▁supposed
▁plastic
▁expert
▁wor
▁tool
▁meeting
▁pressure
▁account
▁tru
▁task
▁bone
▁organism
▁interact
▁famous
▁earlie
▁brains
or
▁male
▁activity
▁deliver
▁shot
ers
▁achieve
▁above
▁square
▁rise
▁check
▁invest
▁intelligence
▁co
▁mental
▁income
▁female
▁saving
▁F
▁range
▁unique
lly
refore
▁stars
▁relative
▁excited
▁impossibl
▁Man
▁nobod
▁N
▁Al
▁original
▁bunch
▁principle
▁ultimate
▁publish
▁afford
▁press
4
▁prevent
▁boy
▁please
▁gas
▁biolog
▁indeed
▁cris
▁fail
▁improve
▁propert
▁compassion
/
ton
▁galax
▁launch
▁text
▁standard
▁creature
▁pain
▁private
▁cheap
▁massive
▁policy
▁content
▁enter
▁happiness
9
1
▁lesson
▁virtual
▁critical
▁constant
▁alive
▁apply
▁mention
▁reduce
▁becom
▁enormous
▁decades
▁advance
▁tissue
▁dangerous
▁report
▁series
▁War
▁terribl
ility
▁warm
upon
▁demand
▁environmental
▁effort
▁expensive
▁purpose
▁freedom
▁target
head
▁HIV
▁neighborhood
▁weight
▁writ
magine
▁international
▁post
though
▁strange
▁bodie
▁L
▁concern
▁enjoy
▁driv
▁moral
▁win
▁farmer
as
▁training
▁beaut
▁reading
▁user
kept
▁H
▁bed
▁wild
▁floor
▁respond
▁brother
▁militar
▁instance
▁vehicle
▁R
▁clearly
▁yea
▁Chin
▁skills
▁jump
▁release
▁stopp
▁wave
▁finger
▁genome
▁meaning
▁fantastic
▁perform
▁police
▁trial
▁humanit
▁board
stan
▁ball
▁protein
▁communicate
▁feed
▁21
▁performance
▁layer
▁capital
▁define
▁c
▁16
▁mobile
▁organ
▁drop
▁wide
ood
▁199
▁citizens
▁emotion
▁production
▁Which
▁unit
▁transport
▁consequence
▁familiar
▁hot
Two
▁surviv
▁paint
▁remarkabl
▁mom
ance
▁significant
▁24
▁East
▁landscape
▁strateg
ership
▁slight
age
▁TV
▁technique
▁separate
ization
▁remind
▁Like
▁sustainabl
▁luck
▁heat
▁physic
▁decide
▁atmosphere
▁neighbor
▁particle
▁brand
▁minds
▁career
k
▁politic
▁drink
▁roll
▁Dr
▁introduce
▁extra
▁investment
▁blind
▁race
▁decade
▁W
▁willing
▁summer
▁14
▁typical
▁pound
▁Universit
▁Many
▁various
▁collective
▁vaccine
▁types
▁9
▁double
nstead
▁path
▁explore
▁passion
▁temperature
▁sharing
▁damage
▁insect
▁enable
▁expand
ful
▁satellite
▁Your
▁email
▁distance
▁Think
▁stem
▁Afghani
▁London
▁biological
▁City
▁apart
▁sister
▁sensor
▁website
▁respect
3
▁survive
▁anyway
▁compar
▁useful
▁nuclea
▁circle
▁prison
▁farm
▁laws
▁interview
▁radio
▁financial
▁destroy
▁300
6
▁interaction
▁underst
▁efficient
▁cultural
▁net
S
▁Take
▁none
▁emotional
▁peace
▁infrastructure
▁noise
▁dot
▁edge
▁capacity
▁streets
▁capture
▁super
▁Th
▁mission
▁fix
▁rain
▁sequence
▁influence
▁smell
♪
▁scene
▁except
▁belief
▁teaching
▁O
▁Go
▁dance
▁states
▁forget
▁13
▁forth
▁universit
▁wealth
▁random
▁hair
▁Chris
▁birth
▁Be
▁honest
▁serve
▁cycle
▁urban
▁convince
▁sky
▁charge
▁dog
▁failure
▁Western
▁seat
▁trouble
▁promise
▁web
▁Second
▁Indian
ard
▁catch
▁imagination
▁ant
▁trade
▁contact
▁active
▁giant
▁paid
▁surger
▁Thanks
▁gold
▁profound
▁careful
▁consumer
▁breath
▁rare
▁instrument
▁document
▁magic
▁ancient
▁election
▁Great
▁sentence
▁motion
▁below
▁cook
▁disappear
▁From
▁ran
▁cross
▁Wom
▁professional
▁television
▁outcome
▁speech
▁player
▁corner
▁worry
▁option
▁rock
▁identit
▁vast
▁math
▁surprising
▁loss
wise
▁California
▁earth
▁spot
▁argument
side
▁tough
▁climb
▁gain
▁muscle
▁evolved
▁supply
▁emerg
▁sat
▁oh
▁hearing
▁legal
water
▁twi
▁airplane
▁missing
▁His
▁babi
▁flight
▁print
▁bear
▁Muslim
▁method
spite
▁San
▁plane
▁lack
▁border
▁campaign
▁bough
▁feature
▁threat
▁European
▁beat
▁John
▁related
▁glass
held
▁fold
▁desire
▁express
▁engag
▁component
▁popular
▁National
▁cave
▁definition
▁tumor
▁slide
▁sample
▁afr
▁complexit
▁station
▁kilometer
▁basi
▁spoke
▁drawing
▁rough
▁organiz
▁balance
▁birds
▁straight
▁Hey
▁members
▁photo
▁coral
▁commercial
▁victim
▁plann
▁mistake
▁justice
▁Brit
▁forever
▁creativ
▁electronic
▁aspect
▁cap
▁mix
▁Did
▁radical
▁continent
▁tremendous
▁limit
▁Actua
▁contain
▁receiv
▁boat
▁unfortunate
▁gene
▁claim
▁wire
▁town
▁dimension
▁core
▁background
▁oxygen
▁responsibility
▁mouth
▁David
▁bank
▁More
▁central
▁monkey
▁weapon
▁notion
▁Audience
▁researcher
▁application
▁avoid
▁ship
▁6
eath
▁fashion
▁platform
▁extend
▁seed
▁rapid
▁trip
▁Over
▁quote
▁estimate
▁accident
▁bag
▁bridge
▁soldier
▁reaction
▁batter
▁mechanism
ach
▁gap
▁malaria
▁sick
▁pair
▁base
▁funny
▁prove
▁window
▁party
▁match
▁hopeful
▁moon
▁civilization
▁Have
▁correct
▁controll
▁dad
▁reward
▁remote
▁combine
▁Facebook
▁exercise
▁Ver
tuck
▁adopt
▁industrial
▁sub
▁switch
▁Arab
▁alternative
▁broken
▁Asia
▁island
▁dramatic
▁advantage
▁crime
▁Again
▁odd
▁refugee
c
▁ecosystem
▁holding
▁technical
▁detect
▁diversit
▁magazine
▁graph
▁sector
▁profit
▁husband
▁replace
▁chair
$
▁400
▁transformation
▁coffee
▁bar
▁soil
▁recover
▁sold
▁8
▁operation
▁manufactur
▁gender
▁include
▁cat
▁root
▁multi
▁opposite
▁article
▁resistan
▁religious
▁engage
▁childhood
▁conference
▁flower
▁Sometime
▁reflect
▁burn
▁attempt
by
▁ray
▁curve
▁grand
▁pre
▁See
▁reveal
▁artificial
▁Good
▁divide
▁stress
▁previous
▁traffic
▁boys
▁succeed
▁encourage
▁desert
▁French
▁architect
▁yellow
▁phenomeno
▁invit
▁president
▁struggle
▁identify
▁198
▁Any
▁driver
▁hero
▁creation
▁labor
▁Would
▁adapt
▁hurt
▁Iraq
▁competition
▁responsibl
▁regular
▁location
ble
K
▁dimensional
▁river
▁etc
▁master
▁flu
▁Thre
▁vote
▁tradition
▁newspaper
▁graduate
▁circuit
▁spirit
▁invisibl
▁bread
▁organic
▁mountain
▁AIDS
▁Big
▁zone
orrow
▁negative
▁rid
▁universal
▁perception
▁photos
▁suffer
▁museum
▁dinosaur
▁algorithm
▁150
▁engine
▁mess
▁fascinating
▁chose
▁limited
▁strength
▁bottle
▁proud
▁knowing
▁Twitter
▁collapse
▁epidemic
▁hate
▁Life
▁mathematic
▁motor
▁dynamic
▁Web
▁due
▁politician
▁dreams
▁date
▁faith
▁Brazil
▁display
▁Pe
▁Mr
▁Sun
▁bright
▁suffering
▁dozen
▁CO
▁sand
▁interface
▁bird
▁shark
▁cloud
▁civil
▁generate
▁insight
▁multiple
▁sad
▁spin
▁mothers
ian
▁independent
▁spaces
▁trillion
▁fossil
▁classroom
▁meat
ural
▁weird
▁whom
▁bus
▁frame
▁expression
orry
▁emission
▁coast
▁calling
▁f
▁sexual
▁taste
▁grandmother
▁copy
▁balloon
▁trick
▁arriv
night
▁operat
▁equation
▁existence
▁miss
▁occurr
▁metal
▁proper
▁depression
▁marrie
▁analys
▁poet
▁patent
▁bubble
▁argue
▁blow
▁equivalent
ford
▁era
▁names
▁narrative
▁worri
▁budget
▁assume
re
▁variet
▁shock
▁curious
▁grown
▁fresh
▁fell
▁broad
▁occur
▁honor
▁compare
▁mouse
▁ancestor
care
▁foreign
son
▁round
▁chip
▁quarter
▁bits
▁cure
▁suit
▁error
▁marriage
▁lay
▁customer
▁evolutionar
▁score
▁hop
▁foundation
▁GDP
▁garden
▁elephant
▁precise
▁parent
▁employee
▁restaurant
▁disorder
▁crowd
▁quant
▁hidden
▁click
daily
▁leader
▁Does
▁opening
▁dinner
▁homes
▁Could
▁lung
▁stream
▁debate
▁pig
▁opinion
▁cry
▁vers
▁float
▁litera
▁agricultur
▁generat
▁truck
wide
▁invention
▁orbit
▁Art
▁quiet
▁symbol
▁nervous
▁stoo
▁skill
▁unlike
▁row
ium
▁lock
▁lifetime
▁leaving
▁cartoon
▁channel
▁mortal
▁chain
▁explor
▁Come
▁brief
▁tens
▁gift
▁chemistr
aging
▁colon
▁shop
▁Their
▁scar
▁shapes
▁wake
wood
▁weather
▁metaphor
▁fourth
▁dry
▁lift
▁volume
▁sum
▁robotic
▁Last
▁discuss
▁puzzle
▁Paul
▁scan
▁infect
▁stone
▁o
▁brilliant
▁Kenya
▁agenc
▁mirror
▁micro
▁cognitive
▁survey
ied
ist
▁surround
▁hell
▁wisdom
▁George
▁string
▁govern
▁Y
▁intelligent
▁gun
▁gather
▁load
▁breast
▁topic
▁construct
▁statistic
▁Other
▁coal
▁note
▁collection
▁discussion
▁Bill
▁volunteer
ia
▁doubt
▁clip
▁electrical
light
▁grade
▁shoes
▁sugar
▁combination
▁construction
▁lie
▁fiber
▁empower
▁pack
▁diet
▁roof
▁embrace
▁judge
▁medium
▁peer
▁writer
time
▁voices
▁terrorist
▁cutting
▁Since
▁atom
▁myster
▁speaker
▁button
▁translate
▁killing
▁dealing
▁anti
▁35
▁2000
▁chicken
▁belong
▁smile
▁Times
▁pocket
▁mammal
▁mathematical
▁practical
▁disaster
▁carrie
▁initial
▁credit
▁fac
▁corrupti
▁la
▁associat
▁Washing
▁liquid
▁transition
▁heavy
▁importan
▁partner
▁band
▁intellectual
▁authorit
▁input
▁printing
▁inner
▁convert
▁Einstein
▁Mexic
▁flat
▁addition
▁grid
▁soul
▁operate
▁setting
▁folks
▁clinical
▁mile
▁Street
▁exploration
▁tech
▁silence
▁gay
▁Iran
▁Australia
▁comment
▁bill
▁determine
▁protection
▁historical
▁maintain
iddle
▁threaten
▁official
▁variation
▁bees
▁feedback
▁capabilit
▁produc
▁involve
▁undern
▁De
▁dress
▁laugh
▁therap
▁member
▁pump
▁22
ta
▁scared
▁accurate
▁broke
▁encounter
▁cup
▁remov
▁director
▁Yet
▁lunch
▁wood
▁programm
▁lies
▁Richard
▁hum
▁illness
▁mosquito
▁toilet
▁arts
▁telescope
▁section
▁equip
▁pleasure
▁ordinar
▁stupid
▁plus
▁US
▁plate
▁dolphin
▁grain
▁conclusion
▁analog
▁explanation
▁valuable
▁France
▁spectrum
▁appreciate
▁los
▁bomb
▁peak
▁seek
▁journalist
▁Ri
▁distribution
▁heads
sis
▁joke
▁yester
▁loud
▁awesome
▁camp
▁Harv
▁steel
▁extract
▁statement
▁economist
▁escape
▁enem
▁violent
▁entrepreneurs
▁99
▁hydrogen
▁prize
▁surgeon
▁abuse
erson
▁visibl
▁definite
▁cent
▁resolution
▁librar
▁mid
▁assumption
▁wheel
▁evolve
▁implication
▁nurse
▁keeps
▁empty
▁teeth
▁awful
▁fellow
▁bias
▁grass
▁da
▁videos
▁Israel
▁pure
▁stock
▁recording
▁privilege
▁primar
▁forgot
▁p
ve
▁Dan
▁hire
▁south
▁consumption
▁attract
▁Five
ver
▁style
rtex
▁MIT
▁tear
▁NASA
▁conduct
▁stranger
▁professor
▁partners
▁categor
▁title
▁relate
▁actor
▁democratic
▁facilit
▁north
▁kitchen
▁Institute
▁physicist
▁Francisc
▁prime
▁joy
▁reference
▁repair
▁gentlem
▁filter
▁perceive
▁crop
fish
▁comfortabl
Tube
▁terroris
▁knee
▁drone
▁label
▁talent
▁clinic
▁pop
▁technological
▁laborator
▁deserve
▁season
▁comput
▁sides
▁swimm
▁assembl
▁apartment
▁winter
600
▁lady
▁rat
▁hide
▁Congress
▁th
▁lawyer
▁fat
▁host
▁Canad
▁reef
▁sweet
ley
▁bond
▁Center
▁Hi
▁crash
▁harvest
▁activit
▁circumstance
▁concrete
▁grant
▁theater
▁according
▁pilot
▁length
▁Pleas
▁distribut
▁molecular
▁23
▁Charles
tic
▁passionate
▁shoulder
▁zoom
el
▁expectation
▁logic
▁President
utism
▁solv
▁infection
▁appli
▁height
▁exchange
▁prediction
▁regard
▁status
▁criminal
▁vulnerabl
▁Bank
▁infinite
▁grandfather
▁alien
▁prototype
▁45
▁decline
▁silk
▁Island
▁roads
▁dense
▁Final
▁bike
▁abstract
▁harm
▁receive
▁Ten
▁battle
▁fruit
▁firm
▁observation
▁danger
▁iPhone
▁radiation
▁0
▁graphic
▁client
▁Will
▁rational
▁vot
▁activist
▁2010
▁Michael
é
▁tall
▁II
▁vessel
▁Four
▁automatic
▁droppe
▁mountains
▁spring
▁demonstrate
▁Wow
▁entertain
▁gravit
▁ideal
▁sheet
▁severe
▁icon
▁participate
▁School
▁biologist
▁iron
▁Pacific
▁Am
▁symptom
▁nest
▁symmetr
▁inform
▁dirt
▁challeng
▁crack
▁danc
▁rocket
▁origin
▁jail
▁shirt
▁hat
▁select
▁false
▁England
▁Brita
▁secure
▁relevant
▁loop
▁Real
▁innovative
▁productive
▁snow
▁Los
▁Park
▁king
▁thin
▁clock
▁fortunate
▁confiden
▁reverse
▁unusual
▁conservation
▁boundar
▁Jam
▁obes
▁hunt
▁rhythm
▁establish
▁mechanical
▁attach
men
▁inevitabl
▁heal
▁paradigm
▁Tom
▁former
▁fan
▁hotel
▁breathe
▁tail
▁illegal
▁unknown
▁Talk
▁chart
▁efficienc
▁busy
▁implement
▁pool
▁habitat
▁magnetic
▁bin
ine
▁Nigeria
▁advice
▁V
▁remove
▁Day
▁protest
▁novel
▁teenager
▁react
▁drill
▁Whil
▁agent
▁Anyway
▁clever
▁behave
▁suck
▁Bang
▁evening
▁appropriate
▁illusion
▁witness
▁church
▁pour
▁shoot
▁angle
▁wine
▁sensitive
z
▁swim
▁ingredient
▁poem
▁Give
▁improvement
▁pollution
▁ride
▁personalit
▁tape
▁panel
▁raw
▁laptop
▁ring
▁collaboration
▁Also
▁contract
▁disabilit
▁password
▁empath
▁Obama
▁upper
▁boxe
▁1990
▁Health
▁trend
▁sophisticate
▁sphere
▁fle
▁measur
▁educat
▁beach
▁pregnan
▁storm
▁phrase
▁Russia
▁finance
▁King
▁nose
▁rush
▁polic
▁Amazon
▁app
▁file
▁GP
▁penguin
▁September
▁Science
▁196
▁monitor
▁frequenc
▁apparent
▁reform
▁integrat
ber
▁repeat
▁handle
▁staff
▁vertical
▁sculpture
▁caus
▁Green
heimer
▁boring
▁humor
ical
▁1960
▁continuous
▁instant
▁permanent
▁aim
ture
▁clothes
▁sustainab
▁greenhouse
lz
▁dogs
ative
table
▁mere
▁immun
▁Uni
▁nerve
▁priva
▁instruction
▁emergenc
▁admit
▁Space
▁sight
▁Angel
rising
▁feeding
▁destructi
▁pile
▁Swede
▁unexpected
▁rescue
▁stronger
▁cheat
▁poster
▁grab
▁predator
▁Number
▁earn
▁frank
▁spider
▁weak
▁court
▁nor
▁fears
▁meaningful
▁animation
▁provid
▁proof
▁percentage
▁inspiration
omas
▁internal
▁microscope
▁wireless
▁State
▁Valle
▁Ah
▁elder
▁studio
▁favor
▁depth
▁musical
▁Sea
▁La
▁bet
▁chimpanzee
▁1980
▁exhibition
▁absorb
▁weigh
▁framework
▁Darwin
▁injur
▁solid
f
▁wash
▁myth
▁wars
▁Adam
lf
▁tip
▁portrait
ting
▁commitment
▁burning
▁confront
▁ritual
▁emerge
▁kick
▁contrast
▁department
▁attitude
▁struggl
ought
▁sustain
▁fiction
▁inequalit
▁horribl
▁committ
▁barrier
▁Antarctic
▁download
▁license
▁officer
▁curiosit
▁exploit
11
▁ear
▁arrest
▁musician
▁tag
efore
▁photographer
▁Steve
▁objective
▁polle
▁expos
▁employ
▁polio
▁backward
▁asset
▁presentation
x
▁CEO
▁cord
▁thanks
▁rocks
surance
▁wondered
▁physician
▁hang
nfortunate
▁meal
▁Apple
▁interactive
▁exponential
▁implant
▁whales
▁bicycle
▁tour
▁globe
▁install
▁laser
▁oppos
▁prepared
▁flie
▁theme
▁eggs
▁ignore
▁Project
▁invite
▁com
▁gray
▁evil
▁attend
ar
▁mathematician
▁cluster
truck
▁footprint
▁Bost
▁exception
▁ten
▁characteristic
▁simulation
▁defense
▁split
▁fascinat
▁item
▁domestic
▁minister
▁painful
▁crucial
▁tap
▁exten
ch
▁dedicat
the
▁afternoon
▁tax
▁silent
▁stretch
▁habit
▁observ
▁trace
▁lecture
▁Voice
▁January
▁flood
▁Stan
board
▁lion
ship
▁densit
▁Paris
&
00
▁selection
▁educational
▁contribute
▁shadow
▁Egypt
▁cable
▁classic
▁behavioral
▁skull
▁Islam
▁orange
▁phase
▁obsess
▁script
▁sports
▁Girl
▁pill
▁academic
▁fake
▁ugl
▁Rememb
▁blame
▁regime
▁bio
▁Higgs
▁intervention
la
▁golf
▁65
▁continu
▁limb
▁electron
▁Mary
▁tune
▁skeleton
▁froze
ground
▁cloth
▁elite
▁thumb
▁magnet
▁overall
▁DH
▁consum
▁tank
▁parallel
▁boil
▁Chicago
▁database
▁telephone
▁Pakistan
▁bend
▁raising
▁lad
▁authentic
▁lifestyle
▁Sam
▁angr
▁review
▁seal
▁Sahara
▁consume
▁194
▁headline
▁Greek
50
▁liberal
what
▁Christmas
▁barel
▁accessibl
▁ears
▁pretend
▁recycl
▁desperate
▁productivit
▁printer
▁advertis
▁wing
▁axis
▁prisoner
▁killer
▁Centr
▁needle
▁shell
▁presence
▁knock
▁shut
▁explosion
▁Arm
▁whale
▁revenue
▁intention
▁comfort
▁recognition
▁Museum
▁corporate
▁Pole
▁drove
▁confuse
▁representation
llo
▁psychological
▁lens
ant
▁deploy
ification
▁measurement
▁May
▁adventure
▁conventional
bout
oxide
▁Dur
▁reported
▁indicate
▁hungr
▁suicide
▁chest
▁motivation
12
▁illustrate
▁refuse
▁appeal
▁horse
▁highway
▁transplant
▁embedded
▁Blue
▁Del
▁organize
▁Russian
bel
▁airport
▁obstacle
▁acid
▁affair
▁session
▁plot
▁Scott
▁subtle
▁microbe
▁fluid
▁activate
▁Human
▁diagram
▁hack
▁route
▁worm
▁regret
▁mice
▁fabric
▁distant
▁counter
▁fixed
▁mo
▁argu
W
▁scenario
▁Ph
▁accomplish
▁hearts
▁celebrate
▁32
▁pink
▁Korea
▁replicate
▁PM
▁request
urveillance
▁stepp
▁philosoph
▁Global
▁passenger
▁youth
▁meme
▁consistent
▁tuna
▁International
▁Star
▁trigger
▁chao
▁shall
u
▁earthquake
▁hunger
up
▁shame
▁optimistic
▁steal
▁Me
▁experienc
▁corporation
▁manager
▁wound
▁blog
▁medication
▁identical
▁transfer
▁vital
▁clouds
▁suspect
▁chromosome
▁excite
▁capitalis
▁BF
town
om
▁loan
▁procedure
▁sail
▁discipline
▁divers
▁candidate
▁antibiotic
▁shipp
▁debt
▁elect
▁overcome
▁House
▁afterward
▁ultra
▁club
▁cute
▁Get
▁column
▁arrive
▁household
▁Peter
▁ought
▁desk
▁stack
▁fifth
tlantic
▁apple
▁Turk
▁narrow
▁glacier
▁liver
▁Latin
▁prefer
▁1950
▁thick
▁dust
▁Nothing
▁extinction
▁High
▁contribut
▁melt
▁Wall
ial
rice
▁choos
▁boss
▁diagnos
▁plent
▁prosper
▁compound
▁miracle
▁intense
▁ensure
so
▁incentives
▁rainforest
▁pyramid
▁BG
▁NGO
▁scratch
▁Holly
▁falls
▁motivat
▁Boy
implicit
▁hook
▁hall
▁rap
▁stands
▁anger
▁El
▁imag
▁milk
▁judgment
▁vegetable
▁domain
▁Jun
▁genius
▁beside
▁birthday
▁output
▁pitch
▁windows
▁welcome
▁Jim
▁psycholog
▁brown
▁mask
▁rating
▁Christian
▁pen
▁wise
ma
▁trie
▁brave
▁autonomous
▁uncomfortabl
▁Next
▁Olympic
▁description
▁happie
▁toxic
ories
▁ex
▁permission
▁demographic
▁nutrient
▁Frank
▁Wikipedia
▁Foundation
way
▁800
gun
et
▁ridiculous
▁achievement
▁mechanic
▁functional
▁intuition
▁conservative
▁heaven
▁imagin
▁guilt
▁leap
ie
▁disrupt
▁announc
▁terrifi
▁magical
▁Part
▁cooperati
▁wage
▁smok
▁River
right
▁probabilit
▁piano
▁Black
▁transparen
▁asteroid
▁mutation
▁expedition
▁tube
▁dialogue
▁inter
▁Red
while
▁demonstration
▁pro
▁preserv
▁tired
hood
nna
▁scann
▁Ital
▁tea
▁abandon
▁reject
▁ceiling
▁additional
▁capita
ise
▁legac
▁aircraft
asically
▁comet
▁author
▁courage
te
▁strand
▁citizen
▁hanging
▁essence
▁fabulous
▁cast
rew
▁utter
▁recruit
▁tackle
▁faci
▁traged
▁Robert
▁mushroom
ize
▁fisher
▁Revolution
▁marine
▁underly
▁suppose
hip
▁Haiti
▁Nature
▁trait
▁extinct
▁biodivers
▁tight
▁northern
▁nei
▁120
▁33
▁smoke
▁lake
▁fragil
▁confident
▁pray
▁cow
▁yield
▁tunnel
ong
▁defend
▁priorit
▁guide
kind
line
▁cyber
▁Make
▁mad
▁neural
▁spiritual
▁Ocean
▁repeated
▁smartphone
▁leverage
▁agenda
▁relations
▁engagement
ng
▁ticket
▁inventor
▁Martin
▁charit
▁sacrifice
▁comparison
▁linear
▁Octo
▁shooting
▁mold
▁dignit
▁flash
▁laid
▁doors
▁promote
▁cash
▁southern
▁addict
▁isolat
life
▁White
H
▁pioneer
▁pulse
▁pointed
▁mark
▁flag
▁Yorker
▁inspiring
▁Was
▁refer
▁renewable
▁decrease
▁slice
▁Prize
hi
▁Tell
▁Texa
work
▁intuitive
▁guns
▁synthetic
▁shake
▁breed
▁artistic
▁analyz
▁smooth
rctic
▁cousin
▁primari
▁array
▁sales
▁Uganda
▁conclude
▁Manhattan
▁dig
▁calculate
▁gut
elve
▁football
▁partnership
▁clue
▁x
▁marker
▁Congo
▁fed
▁flip
▁simultaneous
▁dependent
hildren
▁bug
▁opera
▁ending
▁Narrat
N
▁corn
▁mindset
▁sacred
▁Rome
bola
▁regulation
▁helicopter
▁bulb
▁ethical
▁Air
▁surrounding
▁flexibl
▁Act
een
▁Mom
▁profile
▁immense
▁concert
▁Mother
▁stroke
▁breakthrough
▁edit
▁mail
▁alter
ndeed
▁bump
▁boom
▁command
▁psychologist
▁slaver
ur
▁complain
▁chocolate
▁initiative
▁transmission
▁ski
▁neat
▁Nation
▁fraction
▁naked
▁fragment
▁unbelievabl
▁Un
▁slides
children
▁twin
▁burst
ether
▁garbage
▁geo
▁hous
▁Technolog
▁banks
▁polar
▁Bob
▁ecological
▁recipe
▁bla
▁Israeli
▁strike
▁compete
▁95
▁lane
▁anxiet
▁bang
▁calculation
▁rebuild
▁identifi
▁uncle
▁classe
▁navigate
▁mate
▁quit
A
▁guarantee
▁constraint
▁signature
▁shout
▁makers
▁rivers
▁Turn
▁Never
▁tower
▁federal
▁peaceful
▁node
▁stunt
▁tension
▁ill
▁limitation
▁reserve
▁unclear
▁feminist
▁celebrat
▁improv
▁norm
▁Time
▁walks
▁winner
▁trauma
▁resist
▁Ne
▁rent
▁philosopher
▁mimic
▁orchestra
▁highlight
▁systematic
▁chapter
▁pole
▁installation
cellular
▁currenc
RB
▁analyze
▁reduction
▁26
▁spectacular
▁creator
▁views
▁abilit
▁bother
▁joint
▁dancer
▁branch
▁Egyptian
▁Italian
am
▁trends
▁Ox
▁advocate
▁Age
▁Friday
▁bat
▁Dad
▁athlete
▁inch
▁wings
▁vacation
▁ignor
15
▁lett
▁dive
▁gesture
▁palm
▁transparent
▁diabet
▁slum
▁neuroscience
▁primitive
bridge
▁bored
▁slave
▁Through
▁coat
BI
▁stor
▁hormone
▁robust
▁retina
▁Dere
▁prepare
▁condom
▁marry
▁Put
▁crew
▁mayor
▁copie
▁salt
▁ape
aking
▁coin
ang
g
▁195
▁computation
▁jelly
▁chief
▁murder
▁textbook
▁Back
▁mentor
▁occasional
▁Cam
▁contemporar
▁pace
▁Spa
▁pharmaceutical
hane
▁queen
▁flavor
▁copyright
▁origami
▁mode
▁dominat
▁Ford
▁reliabl
▁intend
rey
▁propos
▁bold
▁passive
▁snake
▁frustrat
▁tweet
▁adjust
▁figur
▁Law
▁Bush
▁format
▁accelerat
▁winning
▁imager
▁magni
tude
▁competitive
ana
▁district
▁Soviet
▁destin
▁terror
drew
▁pigeon
▁div
▁Up
▁structural
▁bats
▁SS
▁disconnect
▁disabl
▁leak
▁senior
▁expansion
▁borrow
▁Moon
▁trajector
▁audio
▁Ma
iness
▁Ghana
▁interpret
▁Child
▁Unti
▁rotate
▁pause
▁infant
▁galler
▁darkness
▁Love
▁Jesu
▁viral
ilicon
▁combat
▁trash
▁aesthetic
▁variable
▁failing
▁assignment
▁hitt
▁till
▁ruin
▁gradual
▁bee
▁Tes
▁custom
▁sharp
▁inherent
▁investor
▁Afghan
▁hip
▁Northern
▁bound
il
▁plain
mber
▁Ju
▁crush
▁calculat
▁ink
▁Re
▁survivor
▁bathroom
▁prosthetic
▁stake
▁reconstruct
▁Ben
▁kiss
▁routine
▁Gulf
▁None
▁unprecedented
▁bind
▁programmer
▁Rwanda
▁deaf
▁Bible
▁canop
▁cheese
▁punch
▁serving
▁sanit
▁confirm
▁auto
▁via
▁Sure
ches
▁overwhelming
▁attribute
▁Net
▁Ever
▁collaborative
▁producer
▁dump
▁glue
▁garage
▁observe
▁gase
▁projection
▁storytell
▁reflection
▁Mark
▁spell
▁inject
▁seas
▁gathering
▁bribe
▁interior
▁electrode
▁healthie
▁profession
▁determin
▁connectiv
▁depress
itarian
▁extension
▁ratio
▁delivery
oth
▁tie
▁donor
▁General
ling
▁external
▁realm
▁furniture
▁contribution
▁educate
▁burden
▁Little
▁propose
▁pr
▁shopp
▁thrill
▁crossing
▁glamor
▁fulfill
▁east
▁descend
▁determined
▁beer
▁sink
▁terrifying
▁hid
▁compell
▁restore
ra
▁automobile
▁brick
ol
▁tragic
▁Eric
▁stole
▁encrypt
▁freak
▁expectanc
▁shrink
▁washing
ah
▁Should
▁Long
▁generous
ter
▁subway
▁collaborator
▁shelter
▁locat
▁Vietnam
▁preserve
▁venture
▁owner
▁primate
▁defeat
▁Virgin
▁tsunami
▁Third
▁journal
▁LED
at
▁tricks
▁March
▁sweat
▁damn
▁Florid
▁march
▁agricultural
▁pit
▁mal
▁mapping
▁diagnosi
▁Microsoft
▁Ray
▁burie
▁vacuum
▁manual
▁deforest
▁participati
▁Six
▁scanner
▁Span
ocin
▁jihad
▁grasp
▁representative
ice
▁Saturn
▁twist
▁astonishing
▁shin
▁28
▁award
▁port
▁calorie
▁Ala
▁detector
▁g
ka
▁Listen
▁excuse
▁urge
▁convey
▁laughing
▁nuts
▁alarm
eaten
▁shit
▁alcohol
▁reinvent
▁strip
▁Brown
uthern
▁upside
▁Sorry
▁agreement
▁participant
▁export
▁institutional
▁proportion
▁MS
▁Islamic
▁Asian
▁fence
▁Tony
▁stabilit
▁screw
▁dilemma
▁pet
▁upload
▁grandparent
▁Council
▁clay
▁paradox
▁ubiquitous
ero
▁36
▁plug
▁Dece
▁triangle
▁weekend
▁register
▁logical
▁bizarre
▁annual
▁enhance
▁cosm
▁spark
▁bullet
▁thread
▁homeless
▁Febr
uary
▁uniform
▁fate
▁Ca
▁blowing
▁tone
▁resident
▁pathway
▁dear
art
▁ha
▁baseball
▁frequent
▁outer
▁altitude
▁Research
ated
▁Tim
▁clar
▁tattoo
▁landing
▁optimis
▁Bay
▁sill
▁sheep
▁entit
▁dis
▁Palestinian
▁Gates
ne
▁maker
▁barrel
▁probe
▁Gore
▁correspond
▁dish
▁Ya
io
▁upset
▁intensive
▁trap
▁transmit
▁transaction
▁reduc
▁offering
ai
▁portion
▁exhaust
▁align
▁occasion
▁rape
▁inherit
▁exhibit
stone
house
▁Obvious
▁warning
▁Mi
▁vary
▁cotton
▁Smith
▁hill
▁Lu
▁pipe
▁tribes
▁endless
▁brutal
▁personaliz
▁entrepreneur
▁experimental
▁handed
▁Year
▁dose
▁translation
▁Design
▁native
▁hackers
▁equit
▁recommend
ney
▁Lab
▁fool
▁mysterious
▁kidney
▁civic
▁oxy
hand
▁85
▁package
▁theoretical
pox
▁woke
▁spacecraft
▁ideolog
diac
▁MRI
▁jam
vill
▁Taliban
▁distinct
▁Gandhi
▁pant
▁genuine
▁homework
▁curriculum
▁hub
ure
▁acknowledge
▁silver
▁rope
▁minim
▁diamond
▁editor
▁sensation
▁min
▁entry
▁Eastern
▁beating
▁devil
▁pandemic
▁bucks
▁retirement
▁wedding
▁monitoring
▁mineral
▁resolve
▁substance
▁guid
▁Jane
▁contradiction
entropy
▁strategic
▁minorit
▁Open
▁wider
▁Grand
▁celebrit
gentleman
▁luxur
▁payment
▁Out
▁innocent
force
ways
▁keyboard
▁cube
▁Bell
▁incident
▁unconscious
▁automat
ier
▁arrow
▁tendenc
▁crawl
▁wrist
▁aggressive
▁Homo
▁broadcast
▁vibration
▁ooh
▁ignoran
ors
▁believ
▁August
▁cart
▁Moor
▁compress
O
▁glow
▁intersection
▁knife
▁Hill
▁mat
▁spill
▁camps
▁realiz
▁quest
b
▁Sir
▁Lad
▁glad
▁jar
▁interpretation
▁server
▁insist
▁neck
▁civilian
▁stomach
▁anonymous
▁29
▁enterprise
▁leaf
▁Eight
▁potato
▁collision
▁spontaneous
▁Jeff
▁bedroom
▁static
▁augment
SA
▁mood
▁concentration
▁compromise
▁paralyz
▁van
▁tribe
▁Co
▁uncertaint
▁valley
▁clos
▁par
▁millimeter
▁Berli
▁dominant
▁detection
▁glasse
▁Count
▁formula
tasi
▁Minister
▁Square
▁supermarket
▁unlock
▁microphone
▁dawn
▁transmitt
▁hunter
▁artwork
▁wrapp
▁gate
▁composition
▁helpful
▁realistic
▁relief
▁bombs
▁blend
▁Church
▁Chile
▁Sunday
▁goat
▁intrigu
▁wrap
atrix
▁Fortun
▁frog
▁Still
▁dial
▁Shanghai
▁scaffold
▁sufficient
it
▁prescription
▁immigrant
▁grateful
▁architectural
▁calm
▁foster
▁resilienc
▁Stage
▁anatom
▁wheelchair
▁fusion
▁Leonard
▁Neanderthal
▁suggestion
▁awkward
▁inclusive
▁Ta
▁strain
▁fanc
▁dictionar
▁Newton
▁formal
▁marketplace
▁suspend
▁fault
▁System
▁En
ably
▁Jer
▁donate
▁consist
▁ironic
▁unfold
▁impressive
ped
▁poison
▁ho
▁deliberate
like
▁chas
▁proven
▁elegant
ropical
nt
▁workplace
▁intimate
▁antenna
▁Nick
▁astronomer
▁blindness
▁Sudden
▁default
▁developer
▁Seattl
▁intensit
▁computational
▁manner
▁upward
▁documentar
▁Dutch
▁Prince
▁historic
▁St
▁branche
▁2020
▁planetar
▁wandering
ham
▁seeming
▁drought
▁gods
▁compassionate
▁remembering
▁soap
▁disagree
▁Nel
▁Coke
▁aspiration
▁steer
tial
▁evolv
▁integrate
▁episode
ni
▁TEDTalk
istic
▁cake
▁appearance
▁assemble
▁Brad
▁bath
▁tongue
▁magnificent
▁reproduce
▁embryo
gen
▁principal
▁addiction
ent
▁demo
▁pad
▁Absolute
to
▁encode
▁Joe
go
▁Department
▁statistical
▁blank
▁Korean
▁pot
▁infectious
na
▁compet
▁supplie
▁canvas
▁horizontal
▁Detroit
▁spray
▁Parkinson
▁impression
▁SW
▁manuscript
▁protocell
▁Redwood
▁troop
▁Ethiopia
▁outbreak
▁dumb
estate
▁sidewalk
▁precious
▁requirement
tion
▁arise
▁thrive
▁42
▁diameter
▁transistor
▁tale
▁shine
▁coach
▁bow
▁beam
▁li
▁ongoing
▁dragg
▁worrying
▁singer
▁pride
ealand
▁verb
▁Home
▁virtue
ternet
▁nerd
▁pose
▁Jewish
▁ceremon
▁torture
▁texture
▁sport
nforcement
▁sens
▁insane
▁carpet
▁striking
▁Jona
▁horizon
▁forecast
▁masse
▁encouraging
▁Profess
▁commodit
▁Brian
▁drown
▁Argentin
▁commit
▁overwhelm
▁mainstream
▁frustration
▁selfish
▁Brun
xcept
▁comic
▁geograph
TI
▁manipulate
▁pie
▁sandwich
▁Josh
▁Court
▁Lester
▁Kan
▁astronaut
stock
▁neutral
▁geek
▁Henr
▁update
▁approache
▁poll
▁phenomena
▁aggregate
▁corrupt
▁operator
▁nights
▁chimp
▁soup
▁membrane
▁Lord
▁executive
▁delight
▁lit
▁Koran
▁hyper
▁Accord
▁romantic
▁Has
▁pregnanc
▁Wait
▁independen
▁Edi
▁fires
▁backyard
▁enzyme
▁bite
▁teenage
▁centimeter
▁loving
▁Le
▁shore
▁syndrome
▁diagnostic
▁despair
▁phenomenal
▁quantit
▁craft
▁pixel
▁Kev
▁minus
▁frontier
▁contrar
▁Pan
▁eradicat
▁exclusive
▁introduction
▁Singapore
▁wheat
▁iPod
▁accountabilit
▁neuro
▁retire
▁Greenland
▁glamo
▁Tanzania
▁farms
▁attractive
▁Aristot
▁pursuit
▁swing
▁Swi
▁straightforward
▁ambitio
▁prayer
half
▁exam
▁Twenty
▁excellen
▁assistan
▁founder
▁jewel
▁delay
▁hybrid
▁Ed
▁Sound
▁commission
▁geometr
▁op
▁Seven
▁Stop
▁specialist
▁winds
▁drift
▁mount
▁relax
▁hypothesi
▁desktop
▁explod
▁hallucination
▁harness
▁duck
ill
▁suppress
▁log
▁pan
▁Wi
▁communicat
▁Democrat
▁Yo
vity
▁parachute
▁tagg
▁Mountain
▁shower
▁segment
▁leather
▁digit
LT
▁Social
▁crystal
C
▁acre
▁visualize
▁impos
▁explorer
▁cruel
aday
▁Academ
▁formation
▁bust
▁approximate
▁distinguish
▁configuration
▁punish
ollege
14
▁substantial
▁fertilizer
▁bacterial
▁basketball
▁mis
▁Carolina
▁rose
▁specializ
▁Lego
▁logo
▁acquir
▁fortune
▁Play
▁reporter
▁heavi
▁skelet
▁amaz
place
▁chunk
▁Alex
▁metric
▁Monte
▁grabb
▁logg
▁Titan
▁Geographic
▁flaw
▁screens
▁Half
▁retreat
▁moralit
▁concentrat
▁Saudi
▁deck
▁Try
▁trailer
▁Coast
▁Compan
▁participat
▁cellphone
sulin
▁dough
fall
▁Bali
▁naive
▁illustration
▁350
▁chemist
▁economical
▁pedestrian
▁kilogram
▁Johnson
▁Water
▁ethic
▁teache
▁lawn
▁Alexand
▁Hans
▁digest
▁unemploy
▁Rather
▁bamboo
pinning
▁Watson
▁swallow
▁warrior
▁Canadian
77
▁accelerate
▁cliff
▁optical
▁Media
▁recall
▁Ka
▁whistle
▁indoor
ueen
▁Young
▁container
▁obtain
▁Syria
over
▁satisfy
blew
▁blink
ible
▁trapp
▁amateur
▁mild
▁cigarette
▁i
▁veteran
▁tent
▁wo
▁germ
▁prepar
▁decid
▁vi
▁preference
▁deposit
▁innovate
▁fantas
arrow
▁Republican
▁dat
▁LG
▁span
▁ecolog
▁mutual
▁threshold
▁settl
▁impress
▁associate
▁utilit
▁Eve
▁whisper
▁org
▁refrigerator
▁drain
▁divorce
▁patch
▁lean
▁Men
▁Beij
▁territor
▁dropping
cer
▁pursue
R
▁reinforce
▁gorgeous
▁belly
▁filmmaker
▁Hope
▁proposition
▁optic
▁anticipat
▁starv
▁Bangladesh
▁sew
▁endanger
▁chamber
ate
▁Bronx
▁rethink
▁harmful
▁abundance
▁trans
▁Laugh
▁volcano
▁warehouse
▁playful
▁useless
ha
▁monster
▁nonviolen
▁sale
▁Organization
ogether
▁investigation
▁archive
▁Hawaii
▁Dea
▁investigat
▁bush
▁passe
▁reactor
▁accura
▁193
▁Iranian
ivity
▁closet
▁lotter
▁controversial
▁girlfriend
▁wip
▁downtown
▁reasonable
▁blade
▁Brookl
▁keys
▁atomic
▁shy
▁Pretty
▁creep
▁proposal
▁trivial
tenance
▁taxe
▁mesh
▁tiger
▁Work
▁recogniz
▁indigen
▁Roo
▁revolutionar
▁packag
▁Jack
▁tile
▁visualization
▁jaw
▁popp
▁sibling
▁bleed
▁banana
▁drunk
▁maxim
▁Walk
▁adaptation
▁Fift
▁incentive
▁derive
▁partial
▁degrad
▁gear
▁voter
▁mapp
▁Gene
stage
ology
▁workshop
▁parasite
▁Snow
▁scream
▁receptor
▁2030
▁drag
▁summit
▁confine
que
▁punishment
▁dependenc
▁redesign
▁Disney
▁unhapp
sha
▁RS
▁Telescope
▁spine
▁iceberg
▁Securit
▁arter
spring
▁readers
▁regenerate
▁Rover
▁diploma
▁migration
led
▁Gree
▁Mac
▁convenient
▁explode
▁Carl
▁collaborate
▁dut
▁gram
▁chew
▁grocer
▁eliminate
some
▁debri
▁November
▁dare
▁eliminat
▁Michel
▁legislati
▁lonel
▁denial
▁instinct
▁embarrassing
▁shoe
▁sixth
▁association
▁Far
▁friendship
▁bioluminescen
G
▁ethnic
▁scheme
▁miserable
▁cooperate
▁William
▁vulnerabilit
▁Wal
▁describ
▁hierarch
▁achiev
▁Hall
▁neuroscientist
▁synapse
▁artifact
▁scare
▁relation
▁heel
▁SE
▁tubes
▁lifespan
▁assist
▁delicio
ua
▁pirate
▁cage
▁peculiar
▁melting
ac
▁shrimp
▁Secret
▁Mandel
▁council
tan
▁sneaker
▁pin
▁contest
▁rings
▁chronic
▁modest
▁congesti
▁nightmare
▁Way
▁festival
▁occupy
▁devastating
▁Late
▁Sara
▁prostate
▁Kid
▁anticipate
▁egg
▁belt
▁envelope
▁reputation
▁yoursel
▁bi
▁division
▁Thai
▁crab
▁rubber
▁assign
▁referr
▁realization
▁calcul
ll
▁Penn
▁Medica
▁Fort
▁index
▁horror
▁flourish
▁abundant
▁pencil
▁similarit
lihood
▁pizza
▁absence
▁convict
▁penis
▁genocide
▁Ke
▁tribal
▁Steven
▁emergence
▁conceive
▁airline
▁precis
▁chef
▁insert
▁immortal
▁libert
▁emphasize
▁chase
ndustrial
▁Roy
BM
▁1900
▁approv
▁EM
ois
▁lamp
▁rains
▁Kong
▁tapir
▁motivate
▁cosmo
▁generic
▁Hav
▁blob
▁Apollo
▁riot
▁fatal
▁Mike
▁kilo
▁intact
▁Ken
▁toll
▁Peace
▁censor
▁mosque
▁harmon
▁glimpse
▁arrangement
▁grave
▁Rose
▁translator
▁philanthrop
▁sperm
▁settlement
▁bell
▁Keep
▁orient
▁destination
▁tenth
▁myceli
▁multiply
▁Mc
▁listener
▁scaling
▁frightening
▁tick
▁campus
▁injustice
▁protocol
▁administration
▁basement
▁heritage
▁vivid
▁defining
▁passage
▁separation
▁nano
▁prospect
▁juice
▁Laden
▁Lake
▁discriminati
▁shak
▁empire
▁flesh
▁shocking
▁schizophreni
▁mud
▁accent
▁purchase
▁criteri
▁Charli
▁stamp
▁valve
▁por
▁tourist
▁Matt
▁strict
▁tide
▁kingdom
▁breakfast
▁trustworth
▁connectome
▁negotiation
▁Goal
▁Pro
▁44
▁performer
▁helmet
▁nitrogen
co
▁lobby
▁transferr
▁bare
▁harbor
▁render
verse
▁reclaim
▁corners
▁aunt
obi
▁screening
▁panic
▁lands
▁storyteller
▁sake
▁armor
▁constrain
▁replac
▁manufacturer
▁polite
▁stare
▁collar
▁disturbing
▁stimulation
▁toxin
▁Ge
▁pipeline
▁explicit
▁Cal
hur
▁banker
▁pathogen
▁Santa
▁Clinton
witzer
▁cri
▁journalis
▁Watch
▁900
▁priest
▁vent
▁selective
BC
▁disgust
▁temple
▁ego
▁manipulat
▁helpless
▁Apri
▁genomic
▁Ask
▁Earl
▁isolation
▁Norden
▁1930
▁Gold
▁Iceland
▁hydro
thermal
▁favela
▁eyed
▁climber
▁odor
▁consensu
▁RNA
▁loose
▁spreads
▁conceptual
▁distinction
▁stagger
oline
▁purpl
▁im
lix
▁surgical
▁ventilat
▁owners
▁cows
▁elaborate
car
▁triple
▁gravitational
▁donation
▁Business
racing
▁Probab
▁terrain
▁thus
▁sketch
▁Venus
▁depict
▁carve
▁blast
▁Berk
▁legend
▁Grow
▁Super
▁nast
▁avatar
▁spare
#
▁symbolic
ious
▁filling
▁controller
▁Stephen
▁exposure
▁contaminat
▁Miss
▁crap
▁Free
▁painter
▁Mart
▁remix
▁shatter
▁Mean
▁circula
▁modifi
▁bacteri
▁blogs
▁funeral
▁manag
▁earning
▁Too
▁CD
▁lethal
▁nutrition
▁costume
▁chains
▁crude
▁alumin
▁greet
▁Librar
▁cod
▁Bhutan
▁hint
▁assistant
▁entrance
▁55
fin
▁deficit
▁Government
▁horses
▁jet
▁Post
▁Atlant
▁interconnected
▁firing
▁sweep
▁Jupiter
▁idiot
▁holiday
▁planting
▁Catholic
AK
ventual
▁soc
▁Benjam
▁Find
▁wi
▁velocit
▁Brother
▁revelation
▁quo
▁hopeless
▁96
▁Nike
▁beetle
▁prey
▁dispos
point
▁decent
▁erect
▁turtle
▁semi
▁impulse
▁admitted
▁Jordan
▁Portug
▁wow
▁correlation
▁sequenc
▁prior
▁injured
▁restrict
▁Syrian
▁proceed
▁Cold
▁schedule
▁pursu
▁captain
violet
▁Sa
▁fr
▁spatial
▁longe
▁gluco
▁therapist
▁intimac
▁crater
angelo
▁Nor
▁subjective
▁sulfide
▁simulat
▁yeast
▁disk
LP
▁MR
▁janitor
▁foi
▁gras
▁acknowledg
▁authoritarian
▁Freed
▁Col
▁Development
▁innovator
▁Sing
▁diarrhea
▁victor
id
▁Con
▁transit
▁institute
▁Citi
▁friction
▁rank
▁provider
▁Light
▁harsh
▁Milk
▁mammoth
▁inhabit
▁lover
▁Canc
▁rotat
tz
▁junk
▁anniversar
▁spouse
▁virgin
▁Uncle
▁sponsor
long
▁historian
▁epiphan
▁persuade
▁Tu
▁ethan
▁mall
▁biase
▁polariz
▁informal
▁spite
▁expense
▁Rob
together
▁summarize
▁overlook
▁justify
ju
▁DP
▁guard
▁competitor
▁48
▁underestimate
▁Computer
▁exceptional
▁alert
▁Craig
▁Garden
▁trunk
▁honey
▁pesticide
▁Simpl
▁fractal
set
rway
▁humble
▁hemisphere
AG
▁niece
▁differentiate
▁Machine
tta
▁jungle
▁fever
▁Somalia
▁Gala
▁Roman
▁couch
▁elevator
▁premise
▁acquire
▁thinker
ina
▁CR
▁Education
▁atmospher
▁convention
▁practic
▁integration
▁temporar
▁silicon
▁Consider
▁astronom
▁conquer
▁Missi
▁viewing
▁metabolic
ck
▁modeling
▁Indonesia
▁taboo
▁opposition
▁Republic
nia
tangible
▁forgive
▁kite
▁coordinate
▁sexualit
▁fetus
▁infra
▁thriv
eley
▁Old
▁sediment
▁algae
▁adolescence
▁traumatic
▁declar
round
▁Philip
▁distribute
▁intrinsic
▁k
▁smil
▁accumulat
▁progression
▁130
▁stair
▁lobe
▁Show
▁vice
band
▁Suppose
▁guitar
▁38
▁lucki
▁scarce
▁coverage
▁blueprint
ex
▁examine
▁classical
▁preparation
▁Recent
▁yard
▁coordinati
▁Hold
▁31
▁manifestation
▁br
▁brake
▁wander
▁cholera
▁Nata
attle
▁noble
▁Yemen
▁replacement
▁vocabular
ergy
▁cooperative
ft
▁angel
▁JF
▁receiver
MS
pago
▁Sylvi
▁guest
▁distort
▁exot
▁Line
▁processor
▁Countr
fold
▁Alaska
▁Rand
PR
▁Pete
▁dragonfl
▁Spring
promising
▁slogan
▁Coc
▁bowl
▁Nepal
▁steam
▁visionar
▁skeptical
▁gallon
▁incomplete
▁spike
▁faint
▁woods
▁Nigerian
▁FDA
▁pleasant
▁doubling
▁drum
▁endeavor
▁frustrating
▁negotiate
▁scholarship
▁progressive
▁Lot
▁reproduction
▁towel
▁verbal
▁stadium
▁Aid
▁feeds
▁hut
▁enrich
▁fuzz
▁gra
▁welfare
▁promot
▁Natural
▁happi
▁tablet
▁swarm
▁invitation
▁neglect
coming
▁empowerment
lvani
▁textile
▁Hospital
▁stereotype
▁stratospher
▁nonprofit
▁Histor
▁alike
ura
▁marks
▁exit
▁Civil
sense
▁immers
▁minimal
▁DVD
▁courageous
▁authors
▁capsule
▁Fund
▁flush
▁screaming
ner
gie
▁specimen
▁mini
sance
▁significan
▁Food
▁adolescent
▁extensive
▁accus
▁zoo
▁uninten
▁oyster
space
▁dopamine
▁Sierra
ir
▁Ross
▁carrot
▁restriction
▁headache
▁Marc
▁squid
ately
openha
▁warmer
▁Costa
▁Phila
elphi
▁Mama
amma
▁import
▁Kosov
▁fuse
▁leopard
inux
HC
▁bann
▁floors
▁entrepreneuri
▁Namibia
▁celebration
▁43
▁refin
kyo
▁eternal
13
▁lawsuit
▁Gaza
▁humbl
▁taxi
▁obsolet
▁Heart
▁TEDster
▁persist
▁resilien
▁squeeze
▁lap
▁vagina
▁freeze
▁displac
▁envision
uch
▁suspicious
▁chess
▁unfair
▁visitor
▁typ
▁Austria
▁brush
▁fertil
▁rear
▁Phoenix
▁insult
lime
▁Scientist
▁warn
▁regional
▁frighten
▁Interesting
▁fingertip
▁spade
▁applie
▁skeptic
▁calendar
pper
▁accidental
▁Medicine
▁racial
▁Oo
▁flee
▁learner
▁enlighten
▁Wolf
▁drama
▁propagand
born
▁hollow
let
▁elbow
▁SP
▁Andrew
▁Down
▁flipp
▁cafe
▁Nathan
▁feather
em
gh
▁postcard
symmetrical
▁invasive
▁publication
▁capitalist
▁Band
▁staircase
▁swamp
▁stimul
▁Climate
ris
▁spiral
▁Say
▁vegetati
lerant
▁Christ
▁ward
▁crashe
▁Yellow
▁regulat
▁famine
▁Leban
▁simulate
▁cue
▁metabolism
▁charter
DI
zone
▁JC
▁prevalence
▁Mola
▁Milo
ram
▁crank
▁watt
▁blessed
▁scholars
▁flock
lium
▁kit
▁sole
▁salar
nformation
▁Ted
▁ambition
▁Bett
▁ban
▁hallway
▁collaborat
▁acute
▁syringe
▁outrage
▁Mo
▁mustache
▁adaptive
▁Power
▁Par
▁fin
ribbe
▁microbial
▁imperative
▁Cheer
▁awake
▁tables
be
▁manufacture
▁Shakespeare
traction
▁migrate
▁gross
▁genero
▁diagnose
▁Moz
▁volcan
▁antibod
▁graf
▁Ba
▁curl
▁compos
▁Nair
▁microscop
▁cope
▁Edward
▁frontal
▁Lee
▁Siberia
▁Daniel
▁Carne
▁dictionarie
▁steep
▁Tit
▁Alic
▁Jones
▁critic
▁Mumb
▁Sub
lore
▁Under
▁oven
▁appreciati
▁compute
▁scrap
▁submersible
▁52
▁Iraqi
▁Fi
▁Jo
▁cop
▁bombsight
▁Clear
▁corridor
▁memorial
▁DR
▁Elizabeth
▁exquisite
power
▁rang
▁yards
▁fluctuation
▁perceptual
imbabwe
▁incremental
▁conductor
▁liberat
▁blockchain
state
▁indication
▁towns
▁Po
▁Ground
▁Ven
eval
▁observer
▁relativ
▁equilibr
▁triumph
▁nucle
▁Data
SD
▁rigid
ip
▁cream
▁weakness
▁owe
▁Albert
▁Jew
▁trail
▁racis
▁criticiz
▁midst
▁assum
gging
lage
▁Australian
▁controvers
▁embrac
▁minded
▁planner
▁Louis
▁rebel
rizon
▁guards
▁slope
▁nail
▁apologize
▁keen
▁cocktail
▁hamburger
▁flexibilit
▁rehabilitati
▁cleaner
therland
▁disappointed
cal
istine
▁intentional
han
ti
▁cockroach
▁Lo
▁Mexican
▁retain
▁depriv
▁gentle
▁nois
▁butter
▁bounce
Bay
▁Tower
▁dismiss
▁flame
▁Movement
▁melod
▁adequate
▁Saturday
▁democratiz
▁prop
▁fighter
▁jumps
▁mytholog
▁investigate
▁Sudan
▁stimulat
▁ridge
▁module
▁enabl
▁Public
▁ripp
▁Hindu
spread
▁98
▁encyclopedia
▁statue
▁Johnny
▁millennia
▁Scot
▁basket
▁Ninet
▁ancestr
▁64
▁unleash
▁grip
▁Force
▁unsee
▁arena
▁ambulance
▁concentrate
▁toast
▁western
pler
width
▁Small
▁defect
▁gigant
▁hostile
van
▁indicator
▁AM
▁Leon
▁acoustic
▁34
▁ideological
▁embodie
▁enthusias
▁ghost
▁mindful
▁petition
▁Christopher
▁accumulate
▁satisfie
tor
▁regulate
▁Camp
▁abstraction
▁cartoonist
▁rectangle
▁anthropologist
▁Chuck
▁optimize
▁bypass
RIS
▁accompani
▁rail
▁maximize
uite
dus
▁blessing
▁irrelevan
▁pric
▁terminal
▁Lar
▁lighter
▁Har
airo
▁cabinet
▁surrender
▁intervene
▁Learn
▁folk
▁confusion
▁mines
▁accomplishment
active
▁stabilize
▁gait
▁Bat
▁unite
▁larva
▁pillar
back
E
▁temporal
▁liter
hov
than
▁claw
▁fraud
▁professors
▁geological
▁baseline
▁vocal
▁thrust
▁Office
▁obligation
▁Da
▁shap
▁manifest
16
▁fluorescent
▁yell
makers
▁Lin
▁deny
▁Thirt
fiti
▁impose
▁cement
▁Canyon
▁governor
▁140
▁psychiatr
▁traffick
▁Jas
▁bitter
▁Ministr
▁Change
▁vibrat
▁Kenn
▁equipp
▁heroin
▁behold
▁province
▁lump
sky
▁Gius
▁freez
▁irrational
sham
▁gang
▁pops
▁correlate
▁fracture
▁stigma
▁Brazilian
▁Building
▁radi
T
▁ALS
▁rides
▁disadvantage
▁romance
▁Mill
▁Ha
▁Similar
▁baker
▁absurd
▁iPad
▁Harr
B
▁Oklahoma
▁boost
▁Deep
▁pollutant
▁monsoon
▁browser
genes
▁supercomputer
ami
▁pigment
▁hypothetical
▁Arabia
▁penn
▁flap
▁Alpha
▁checklist
▁guerrilla
▁cybercriminal
▁devise
▁reuse
motive
▁Certain
▁billboard
cela
▁parameter
RA
▁cerebr
▁digg
▁hotte
▁excess
▁redefine
▁tar
▁buzz
▁choir
▁embarrass
▁consult
▁Book
▁shelve
▁Lewi
▁locomoti
▁portray
▁reproductive
▁gaze
▁Color
▁technologist
▁margin
▁transcend
▁Call
▁ladder
▁lime
▁bench
▁hammer
▁impair
▁Bas
foot
▁respirator
▁finite
▁rig
▁voyage
▁examin
▁Face
▁Columbia
▁Lead
▁Whoa
▁urgent
▁powder
▁lense
▁menu
▁Help
▁masterpiece
▁Du
▁purchas
▁rabbit
▁macro
▁mixture
▁beds
▁dishe
▁Michigan
▁Anna
▁tooth
▁benign
▁prosecutor
▁recession
▁audaci
lves
▁headquarter
▁plott
▁trad
▁awe
▁philosophical
▁Sex
ingdom
▁Bruc
▁glove
▁physiolog
▁varie
▁opt
▁Doctor
▁bombing
▁minimize
▁46
▁Emma
▁intangible
ark
▁emitt
▁caps
▁involv
▁multinational
▁Golden
▁ac
▁nurtur
▁marked
esis
arliament
▁greed
▁Jess
▁carti
▁pore
▁Societ
▁superpower
▁lamb
▁Gol
▁giver
▁tilt
▁MoM
▁tolerance
▁Kir
▁gamma
rah
▁flute
uddin
▁Libya
▁alliance
dom
▁mobiliz
scope
▁bulk
▁Luck
▁190
▁eighth
▁cosmolog
▁assault
laughter
▁Evan
broad
▁fails
▁86
▁brainstorm
▁destructive
▁rendering
▁scal
▁obsession
▁sensitivit
▁duration
▁Stay
ping
▁prevail
ler
▁Sad
▁oppress
▁Liberia
NN
col
▁legitimate
▁54
▁Gar
vy
▁jazz
▁steady
▁lik
▁Ho
▁convincing
▁fame
▁cheer
off
▁eastern
▁fungi
▁bloom
▁album
tine
▁modify
▁maneuver
▁Less
▁nanotechnolog
▁vest
▁disturb
▁Station
▁responsibilit
▁conviction
▁cease
▁introvert
▁Vinc
stair
▁clon
▁invad
wear
▁Large
▁SB
▁pond
▁overhead
▁rage
me
▁neocort
▁mum
▁pancrea
▁decorat
▁hug
▁dispute
▁grape
ectar
▁butterfl
▁emergen
▁guideline
nic
▁visceral
▁Kenyan
▁intricate
sani
un
▁bark
▁Add
▁minor
▁viewer
box
▁Li
▁vein
▁wallet
+
▁valid
▁cinema
▁lure
▁chemotherap
▁lander
▁operational
▁Live
▁Swed
▁Map
▁Peru
▁Trad
▁KA
▁Venezuela
▁contagio
generative
▁Joseph
▁stimulate
▁Muh
▁synthesi
▁Dead
▁atheist
▁Beatbox
▁divine
▁blurr
▁coca
▁functionalit
▁shade
▁autistic
▁Rule
▁suburb
▁Per
▁medi
▁initiat
▁thermal
▁Darwinian
▁continual
▁chaotic
▁fleet
▁Cassi
▁revolutionize
▁Lago
▁technician
▁qualifi
▁matche
▁electromagnetic
▁stunning
▁snapshot
▁indirect
▁illuminat
▁Hubb
▁Williams
rief
▁Inside
▁injection
▁lesbian
▁believer
▁prejudice
▁beef
▁offend
▁rover
▁manipulation
▁polymer
▁gadget
▁prioritize
▁reader
▁candle
escent
▁timing
▁Start
▁dri
▁merc
▁entitle
▁iteration
▁alphabet
▁cops
▁tempt
▁marshmallow
▁Walter
▁prototyp
ino
lock
▁Copernic
▁bucket
ap
esday
MW
▁elevat
▁undergraduate
▁classmate
▁disparit
▁Die
▁assess
▁cognition
▁mentors
izing
▁generalize
▁differ
nmark
▁Lama
▁symphon
▁Modern
▁shield
▁essay
▁160
▁amuse
▁occupation
▁missile
▁Pittsburg
▁geographical
▁inflation
▁OE
CD
▁Hous
▁solo
▁doom
▁blogg
▁adversit
▁AI
▁induc
used
▁execution
ile
▁Maria
▁lo
▁warfar
▁surplus
▁Pink
▁wool
▁lesion
▁pun
í
seas
▁Himalaya
▁Side
▁Op
▁58
ylan
lept
▁Georgia
▁blanket
▁scatter
▁innate
▁counsel
▁flags
▁stain
▁gland
▁dug
=
▁plague
▁facilitate
▁Moham
▁miner
skies
▁electro
▁neurological
L
▁arc
▁crocodile
▁CC
▁Te
▁obscure
▁auditorium
▁USA
▁reasonabl
▁industrialize
▁autonom
▁novelt
▁extrovert
▁doll
▁Max
▁bay
well
▁Hawk
▁plankt
▁generator
▁problematic
▁ramp
▁radar
▁grassland
▁Beck
▁boson
▁shepherd
▁polls
▁reply
▁reminder
▁tuberc
ulosi
▁compliment
▁bomber
▁veil
▁Tur
▁measl
▁cylinder
▁Bud
▁conspirac
▁Fly
▁Bitcoin
▁rabbi
▁Tasmanian
▁declin
▁sculpt
▁preach
▁strengthen
▁tapp
▁Ultimate
▁Use
▁vaccinat
▁roller
▁ca
ide
▁merg
▁union
▁CE
▁Solar
▁Europ
sleep
▁certifi
▁unnecessar
▁decentraliz
▁waterfall
eague
▁strive
▁fierce
▁exceed
▁torn
▁sermon
▁confusing
▁Self
▁180
▁Wars
▁payload
▁Hy
iest
▁daylight
▁puppet
▁coincidence
▁organizer
▁repli
▁Nic
taller
▁dentist
ao
▁fuck
▁forum
▁caregiver
▁temptation
nce
▁PT
etup
▁Android
▁subsequent
▁lever
▁jur
▁negotiat
▁submit
▁interrupt
▁anxious
▁wax
▁Hmm
▁din
▁smash
alai
▁hung
▁praise
▁condemn
▁commerc
old
▁PR
rose
▁payoff
▁Monday
▁orphan
▁visualiz
▁fog
▁submitt
▁heroic
▁constitution
▁MT
▁developmental
▁spy
▁inmate
▁Skyp
▁meadow
▁tipp
▁ham
▁execut
▁Rena
▁cathedral
▁Cat
aving
▁urbanization
▁sensibl
▁overload
▁abus
op
▁Marine
der
▁Tunisia
▁secular
▁unifie
▁seize
ennis
▁packet
▁stumbl
▁Buy
▁halve
▁substitute
▁Alright
▁Pat
▁biosphere
▁wir
▁Magazine
▁animat
▁psychiatrist
▁NA
▁sync
▁Step
▁Glass
▁stripp
▁pupp
▁modification
▁warp
▁IM
▁deployment
ite
uke
strong
▁Forest
F
▁chick
▁salmon
▁submarine
▁Code
▁ballot
▁divergen
▁admire
▁heated
▁Sal
ibati
▁sketche
▁Ushahidi
▁RIS
▁mammograph
▁puncture
▁Bonobo
▁settle
▁Model
▁assure
▁outlet
450
posed
▁emit
▁dwarf
illin
dental
▁ease
▁graduat
▁orangutan
▁photon
▁wipe
▁sir
▁bent
▁monk
▁unacceptabl
▁articulate
▁Soon
▁Had
▁epic
▁eco
▁slip
▁facult
▁grind
▁notic
▁reflectiv
▁sauce
▁enthusiastic
▁feminin
▁surge
unny
lov
▁grace
▁lapse
▁upgrade
▁sock
▁hypothes
ington
Y
▁migrant
▁recycle
ison
▁evident
▁fung
ius
▁asthma
▁mobilize
▁shallow
▁Wood
▁treasure
▁scholar
book
eopard
▁eros
▁Got
▁marvelous
▁Christians
▁Notice
▁Hundred
▁deni
▁vector
▁lips
▁Mount
Barack
▁plac
▁arbitrar
▁Stewar
▁embark
▁violin
▁ma
▁resin
▁hatred
▁tomato
▁vibrate
▁hive
▁brut
▁potent
▁curator
▁titan
▁thankful
▁Simon
▁resemble
▁Tibet
▁UN
▁PC
▁Beet
ó
▁DM
▁Father
▁hills
▁Test
▁exclude
▁complication
▁agil
▁AB
do
da
▁certificate
lin
▁admir
▁Ar
▁Allen
▁quantitative
▁Wire
▁Depressio
▁Colombia
eith
tt
▁curtain
▁Supreme
▁Click
▁nanometer
▁nanoparticle
▁marathon
▁pessimist
▁rip
▁Such
▁swear
▁criticism
▁Pantheon
ira
▁Happ
▁Cart
▁Rea
▁incarcerati
▁fi
▁pee
▁reconnect
▁Eden
▁timber
▁commands
nburg
▁cabin
ature
ole
▁Mu
▁wrestl
▁Julia
▁Pix
▁invasion
▁stereo
▁coordinat
▁unpredictabl
▁testimon
▁wavelength
▁speculat
▁185
▁battlefield
▁laundr
▁00
wi
▁token
▁viewpoint
▁dodo
_
▁pension
ically
▁millisecond
Gowan
▁hectare
▁mammogram
▁Gal
flu
▁CMU
▁FG
▁Palestin
▁paraly
▁unimaginabl
▁retail
▁pale
▁expressive
▁Bot
▁energetic
▁53
▁experimentation
▁Toyota
▁redundan
▁glorious
▁throat
▁resonate
▁Ky
▁devoted
▁mutilat
▁contemplat
▁sterile
▁financially
▁venue
▁ruling
▁beard
▁patien
▁casual
▁analytical
▁Bad
▁Ro
▁delicate
▁advertisement
▁abortion
▁template
▁sleeve
▁releas
▁tinie
▁implicit
▁Ark
▁Forget
▁orientation
▁Philippi
▁Amand
▁urgenc
▁firefl
nal
▁Incredible
▁originate
▁End
▁bioma
▁superior
▁numer
▁poly
▁Russe
▁Stone
▁forbidd
▁lightn
▁resonance
▁fade
form
▁migraine
▁uh
ado
▁miser
▁Student
▁sneak
▁Fried
▁thorough
▁jealous
▁composer
▁approval
▁Job
▁recipient
▁immunit
▁psycho
▁relevanc
▁tender
▁scroll
▁morph
▁inefficient
▁mortgage
sterda
▁separat
▁consent
viation
▁crust
▁discard
▁meaningless
▁disc
▁violation
▁Cooper
▁gentl
▁beekeeper
▁migrat
▁simplify
▁expose
▁slaughter
▁Know
▁fled
▁fad
▁paragraph
▁Slow
▁cultivat
▁sticker
▁glory
▁globaliz
▁singular
▁distracted
▁grim
▁ingenu
▁Digital
▁dual
iro
▁hominid
20
▁Oregon
▁subsid
▁Empire
ake
▁Often
▁skip
▁Exact
▁Emil
▁Radio
▁Di
▁Amy
▁piss
▁propeller
▁TEDx
▁nuance
oto
▁stall
▁regain
▁announce
erial
▁existential
▁pheromone
▁Roger
▁execute
▁pollut
▁boyfriend
▁dominate
▁mic
▁incorporate
▁establishment
▁Nan
▁catastrophe
▁straw
▁Gall
▁dispers
▁jacket
▁ge
▁livelihood
▁Victorian
▁Motor
▁Ali
▁voluntar
▁Save
▁auditor
▁stiff
▁vacan
▁Dallas
▁runner
ctopus
▁chat
▁plugg
▁centered
iath
▁preschool
▁ES
▁meta
▁Margar
IMS
▁Balti
eur
▁traveler
▁paste
frontal
all
▁assessment
▁Window
▁Montana
▁Fear
▁Cha
▁placebo
▁sanitar
▁Maldiv
▁Scratch
▁metronome
nterviewer
▁Among
▁diplomat
▁commander
▁Prime
▁metropoli
▁marvel
▁lith
▁superstar
▁chill
▁committee
sual
▁resort
▁nuclei
▁bounc
▁CIA
▁catastrophic
▁presum
▁Buddhist
▁cheek
▁arrang
cover
▁anecdote
velt
▁Baby
▁Short
▁satisfaction
▁virtuo
▁soda
▁Current
▁DARPA
▁Bab
▁shortcut
▁erase
▁intent
▁midnight
▁premature
▁casualt
▁worship
▁endur
venge
▁porn
titude
▁susceptib
▁juvenile
▁unaware
▁moderate
▁carcinogen
▁composite
▁combin
▁mediate
▁Economic
▁Harle
▁improbab
▁efficac
▁accommodate
▁rubb
▁causal
▁squeak
▁tuck
▁Titanic
▁incidental
▁leaning
▁Defen
▁shortage
huh
▁eager
▁consultant
cher
▁seasonal
can
▁swirl
▁sadness
▁Alr
ak
▁coworker
▁Guinea
▁Beyon
itra
▁ultrasound
▁collage
zler
▁backup
▁Colli
ud
▁solita
kin
▁Along
▁poop
▁cultivate
▁Fin
▁verge
berry
▁tactic
▁Low
ury
▁catalyst
▁Dave
▁restor
▁mature
▁interfere
▁Bono
▁Van
eit
▁undergo
▁Desert
▁basin
culture
urine
▁Buddha
▁animate
▁excerpt
▁Falcon
▁outward
▁vitamin
▁pity
▁bearing
▁Les
▁underwa
▁Vent
▁Death
▁enforce
▁evaluate
▁Jefferson
▁Excuse
▁inhibit
root
ov
▁activis
▁asphalt
▁astronomical
▁compass
▁wetsuit
▁Norman
▁pervasive
counterintuitive
▁mock
▁fundamentalist
▁responsive
▁Major
▁fairy
▁forc
▁Tru
▁Sony
▁biomaterial
▁railway
▁hazard
▁provision
▁Control
▁sulfur
▁Nag
everal
▁mari
ambiguous
▁circulation
▁illiterate
▁posture
ose
▁PRI
▁cochlea
▁Nanopatch
▁cookie
▁doodl
field
▁vulture
otto
ndex
▁FO
▁Mahat
▁participator
ogue
net
▁motorcycle
▁Whitopia
▁Whit
onica
▁loser
▁unequal
▁Serious
▁calci
fa
▁MM
▁dictate
▁evaluation
▁eradicate
▁regulator
▁beast
▁Mayor
▁soar
▁synthesiz
▁doctrine
▁prostituti
grade
▁hurricane
▁Pass
ISA
▁rainbow
▁ambiguit
▁violat
▁orphanage
▁hence
▁playground
▁Bosnia
▁verse
▁distress
ovember
▁pivot
▁supplier
▁ambassador
▁Common
▁Mass
▁unto
▁Se
▁differential
▁MA
▁moist
lcome
▁Hyper
▁algebra
▁teens
▁prima
▁recreate
▁improvise
▁loyalt
▁mistaken
▁heck
▁nurture
▁spawn
▁fertiliz
▁mama
rous
▁optimal
▁teen
▁cubic
▁collector
▁hull
▁radioactiv
▁superhero
▁void
▁reconstruction
▁possession
▁draft
▁cosmetic
▁Lind
▁poke
▁uncertain
▁Service
nutrition
▁mandate
von
▁mega
▁contractor
▁peel
▁freeway
▁imitat
▁dude
▁Fox
▁Politic
▁Taiwan
▁counterpart
▁Fantastic
▁ballet
▁Saint
▁poetic
▁chalk
▁Virtual
▁penetrate
quatic
▁biotechnolog
hall
tica
▁Universe
bama
▁Polic
BA
arity
▁delete
▁warrant
▁Group
▁burial
▁corresponding
and
▁intimidat
▁empirical
▁hover
▁laz
▁Wit
▁56
▁offshor
▁axe
▁Dream
▁microwave
▁signing
▁Sydney
▁grad
▁bake
▁sapien
▁reckless
ik
mar
▁appliance
▁lettuce
corn
▁gel
▁biofuel
▁vegetarian
▁contributor
▁lightweight
▁patholog
▁kin
▁intestine
▁Audi
▁Danny
▁turbine
▁humid
▁aura
▁introduc
▁94
▁plunge
▁Dick
▁Hell
▁messag
▁physiological
▁summar
▁Nav
▁Veg
▁diminish
▁navigation
▁belonging
▁overlap
▁mutant
▁mash
▁embarrassment
▁brows
▁Isa
▁worldview
▁Bridge
▁constructive
▁83
ri
▁Dear
▁Mind
▁apparatus
FL
▁olive
▁sovereign
▁knot
▁Ki
huse
lah
▁Archimed
▁Spider
▁Award
onze
▁confrontation
wana
▁characteriz
stein
abbage
▁fatt
▁MP
▁Fl
▁Pr
▁Davi
▁Shoot
▁fitte
▁taxpayer
▁Fib
▁unst
▁Tami
az
eak
▁Jen
▁cobra
▁Ell
▁Everglade
etic
▁relie
▁Fair
▁Millenni
▁192
▁sighted
▁recreation
▁bureaucrac
▁allocate
▁amaze
▁inexpensive
▁pave
▁usage
▁62
▁Wonder
▁companion
bot
▁whip
▁Dol
▁Nine
▁Minne
▁PowerPoint
▁BMW
▁Car
▁Fast
▁eras
▁Tree
ucky
▁inspirational
▁devastat
ged
▁redefin
▁vicious
▁prophet
▁Bring
▁tribute
▁monument
▁mantra
▁switche
▁notebook
▁hobby
▁breasts
▁racist
▁comprehensive
▁Case
ties
ot
▁Susan
▁Soldier
▁Jenn
▁pornograph
▁82
▁queue
bucks
▁buck
▁propell
▁Aim
▁heartbreak
▁KB
▁swap
▁que
▁360
▁skyscraper
▁suburban
▁persistent
▁Olive
iger
▁McDonald
cca
▁excellence
▁holistic
▁socio
▁scarc
25
▁mimick
▁slot
▁Murray
avian
▁secondar
down
▁plasma
▁influenza
▁1940
▁variant
▁rust
▁mundan
▁slipp
ge
▁geographic
▁plaque
▁astonish
▁depressing
▁horrific
▁wreck
▁employer
▁thunder
▁chord
▁Ban
▁delusion
▁refine
▁Enlighten
▁millenni
▁gatherer
▁Lawrence
▁consideration
▁courts
▁deer
▁integr
ating
▁unfamiliar
▁subset
▁fur
▁geometric
▁Near
▁unnatural
utheast
▁boot
rank
▁Genom
▁para
▁sympath
▁extremist
▁68
▁identification
▁strap
▁orbital
▁instantaneous
▁detach
▁refrigerat
▁tropic
▁Discover
▁needles
▁admission
▁simplistic
ger
fu
▁hurdle
▁monarch
▁Patient
▁Journal
▁outdoor
▁Cape
▁Text
▁carrier
▁Odysse
▁tectonic
▁logistic
▁blogger
▁utopia
▁Perfect
▁applaud
▁Warr
▁Hard
▁unsustainabl
▁spott
▁Pen
▁hydrocarbon
▁ruler
ca
▁lin
ica
▁Rica
▁equator
▁uprising
▁instinctive
ctor
▁northeast
▁outrageous
▁replicat
▁announcement
▁BJ
▁hacker
ggle
▁Julian
fensive
▁cock
▁Martian
▁Anas
▁thermo
▁Jacque
ascar
▁crochet
▁Mada
▁Trust
zi
▁hairs
▁Tiger
▁waist
▁immigration
▁socket
▁asylum
▁Mala
▁cereal
▁optimiz
▁resurrecti
▁bonobo
▁lava
▁inquir
▁barbershop
▁knob
▁Acc
▁replicator
ridge
▁juggl
osphere
acci
▁capaciti
▁superconductor
▁AV
massive
▁Cross
▁Type
▁invade
berg
▁budd
▁anesthesi
▁Guy
▁Game
▁feasib
▁forbid
leans
▁Port
▁Galile
▁Hud
▁84
ung
▁exile
▁Convention
▁panick
▁gloom
▁twentie
▁discomfort
▁LGBT
▁repertoire
▁curse
▁feminis
▁reservoir
▁DJ
▁Essential
▁funder
▁Progress
▁synthesize
▁elastic
ament
▁tether
▁dye
▁magician
▁newborn
▁disparate
▁outsider
▁giraffe
▁patriarch
▁touris
▁mob
▁ethnicit
▁indicat
▁posting
▁Village
▁MBA
▁sniff
▁petrol
▁circulat
▁compris
▁inflat
▁boots
▁explosive
▁pal
▁abnormal
▁correction
▁downside
▁Um
▁incubator
▁versa
▁instructor
▁stripe
▁nap
▁Jean
▁electora
▁imitate
▁Kim
▁obey
▁misunderst
▁pneumo
▁Rock
▁timeline
▁intellect
▁Cuba
tler
▁bull
▁mainframe
▁Getting
▁breakdown
▁Carol
▁fingerprint
▁camel
elecommunication
are
disproportionate
▁peril
▁metaphorical
DG
▁headphone
▁61
▁hike
▁honeybee
▁sentiment
▁prox
liberation
▁twenty
▁primordial
▁homicide
▁tutor
emost
▁fetch
▁persever
▁reflex
▁Frankl
▁permit
▁crown
▁polish
iel
▁paranoi
▁Westerner
▁reluctant
▁bald
▁merit
▁Grace
tention
▁Las
▁beep
▁unpleasant
▁arrange
▁spor
▁pickle
▁infuse
▁125
▁canal
▁rival
▁tyrann
▁misuse
▁complet
eddy
▁Wilson
▁convergen
▁possess
▁knit
▁booth
▁Run
▁bonus
▁commandment
▁bait
▁fitting
▁startup
▁respectful
▁Democracy
▁recommendation
▁rub
▁ranking
▁Bu
▁Intel
▁complaint
▁ripple
▁cam
wards
▁sponge
▁paradi
▁unexplo
▁beg
▁flick
29
▁annoying
▁kindergarten
▁Network
▁contradict
▁millennial
▁biotech
▁Ap
▁Ram
▁grammar
▁comedian
▁skirt
▁penetrat
▁princess
▁Julie
▁Fish
▁adviser
▁Irish
icious
▁Ab
▁parliament
▁sw
cumen
guel
▁vendor
▁hippie
ept
ga
▁haul
▁decease
▁Cloud
enberg
▁Juan
proving
▁seizure
▁solemn
▁Chad
tech
▁calculator
▁Massac
tts
▁follower
▁extremism
▁optimist
▁accelerator
▁acceleration
▁aspire
NG
▁interference
▁Swee
▁infidel
▁rotation
▁carpenter
▁Indus
banish
▁Rais
▁AO
nda
▁convenience
▁energiz
▁crowds
▁rode
▁Cars
▁ribbon
▁cycl
▁Sixt
▁fountain
▁forager
▁Gra
▁echo
▁pedal
▁proportional
▁gorilla
▁Compare
▁sober
▁Burm
▁Shir
▁Lady
chu
▁Kent
secure
▁cling
▁devote
▁clitori
▁insecurit
▁tolerate
▁modular
▁forehead
▁Mal
oster
▁Aust
▁Jon
▁toddler
▁Robot
▁Mobil
▁geologist
▁Laborator
▁ingenious
▁distraction
desirable
▁cafeteria
▁Ron
▁hood
▁eyebrow
▁cough
mel
▁trickle
aternal
▁championship
▁compatib
eum
▁captur
▁husk
▁Ardu
▁hom
▁gecko
▁Point
▁conscience
▁relocate
▁foreground
▁promotion
▁coherent
▁degradation
▁verify
▁attorney
▁lemon
▁39
▁Grandm
▁Patric
▁terrestrial
cuba
▁reptile
▁Stor
▁disagreement
▁Conference
▁champion
▁Head
▁troll
▁heartbeat
▁dictatorship
▁Teacher
▁Truth
ome
▁opponent
hold
ibility
ko
▁Pack
▁gossip
▁Financial
▁Darfur
▁qualify
▁imp
▁Easter
▁Engineer
▁penalt
▁visi
gon
ries
ank
▁sword
▁Cel
▁flour
▁distinctive
▁Story
▁sewer
▁rooftop
▁Oak
á
▁audition
▁rib
cock
▁beneficia
▁savanna
▁Speak
ad
ars
▁coil
▁psychopath
▁Strange
▁evaporate
▁sprawl
▁populat
▁builder
▁communal
▁megacit
▁Verm
▁Achill
▁attacker
▁Innovation
▁Vienn
▁braver
▁Cameron
▁Senat
▁multitask
▁clicks
▁competent
▁secretar
▁Lang
▁gradient
▁Sh
▁peek
▁resume
▁Hadr
▁Magic
▁shove
▁bargain
▁dragon
▁balcon
▁Francis
▁bead
▁Page
▁collide
▁gam
▁plantation
ibera
▁offense
▁Jennifer
▁clap
▁holder
▁Portland
▁Fall
▁peanut
▁hatch
mas
▁Mario
anzi
▁acquisition
▁digitiz
▁conception
pit
▁emphasi
▁suitcase
nonymous
▁cub
▁Mahmo
▁cone
▁CT
glasse
▁Pop
sia
daho
zoning
▁photosynthesi
idden
▁constitute
▁hunch
ickr
ahedron
▁rupee
▁motive
▁educator
▁hummingbird
▁remittance
▁SAR
▁proton
▁BC
▁imaginative
▁wetland
▁Corporation
▁biops
▁informant
▁Close
▁Dreyfus
▁Sue
▁seatbelt
▁puff
▁microRNA
▁Mou
▁fir
▁Benk
▁RG
▁beheading
▁Romo
▁intra
▁diplomatic
▁Road
▁reconciliation
nel
▁Islamist
sight
▁Teach
▁Bi
oga
hire
▁volt
▁comb
▁vapor
▁distill
▁relational
▁adjacen
▁Guardian
▁1920
▁appl
▁Ready
▁hygien
sippi
▁Though
▁rodent
▁89
▁deflect
▁hurry
elusive
▁plume
▁disappointment
▁homosexual
▁Sri
sari
▁Mall
ronto
▁underlie
▁esteem
▁byproduct
▁Oscar
▁cubicle
▁IV
▁rigorous
▁goddess
▁nurs
▁disruption
▁decode
▁momm
rich
▁undertake
▁Cod
▁haunt
▁Swa
▁Abu
▁magnify
▁slipper
▁confession
▁attachment
▁reconcile
▁Jud
▁Jay
▁prescribe
▁dome
▁charming
▁charisma
▁compost
▁landfill
▁fisherm
▁intercept
▁Normal
ji
▁buyer
▁instrumental
dding
ax
▁Oil
▁renew
ola
▁mill
▁Cultural
chang
▁psyche
▁Shake
▁zo
stream
▁Barry
SF
▁peripher
atic
▁Pier
▁portal
rry
▁Abraham
▁joyful
▁Picasso
▁Airport
▁Birds
▁resign
▁anomal
▁gum
▁mutate
▁alarming
▁yogurt
▁dividend
▁publisher
▁boomer
▁cursor
▁modes
▁reside
▁Understand
▁supplement
finish
▁rubbl
▁unhealth
▁Protect
▁rediscover
▁spa
▁tomatoe
▁dysfunctional
▁flowering
▁insecticide
▁apt
▁disappoint
▁zip
▁Image
▁Mose
▁murderer
▁Pay
▁tapestr
▁battles
MF
rt
of
▁massage
▁Cambodia
▁systemic
▁robb
▁ovari
ried
▁mediocr
▁Com
▁sabbatical
don
ella
▁pluripotent
▁rhino
▁Holo
▁bury
▁Oz
▁Night
▁rott
▁arous
▁Cause
urance
times
▁influen
▁incorporat
▁serial
▁toaster
▁Mov
▁feat
ahren
coli
▁Photoshop
▁whiske
▁courtyard
▁Shar
▁Midwest
▁replica
▁centrifuge
▁subconscious
▁restoration
▁ceramic
▁expenditure
met
▁Jamaica
▁confess
▁pepper
▁diabetic
▁stink
ook
▁rehearsal
ette
▁hostilit
▁Plan
▁slid
▁amplify
▁browse
▁width
▁tele
▁fax
▁anchor
▁changer
▁Jaw
▁marble
▁specialize
▁con
▁dislike
▁lous
▁administer
▁neo
▁ecologist
editerranea
▁droplet
▁pur
▁uncover
▁Morocc
▁rex
▁Kind
▁Amazing
▁dunes
▁arithmetic
▁stockpile
▁discour
▁embody
▁nomad
▁rally
▁protester
▁hugg
▁blunt
▁southwest
▁widen
▁hippocamp
▁nun
▁vo
▁Barbie
▁tadpole
▁IT
▁nickname
▁Brook
▁varia
▁escalat
weight
▁servant
▁Joy
▁reception
▁nudge
▁latitude
▁doodle
▁Ra
rus
▁stat
▁superintelligen
▁HP
▁garment
▁curv
▁Mathematica
▁Special
▁communist
▁Tor
▁worrie
national
erusal
▁exhilarating
▁replication
▁activation
▁vibrant
▁Wednesday
▁tails
▁sushi
▁Potter
▁forgiveness
▁Gi
▁slate
▁frugal
▁exceeding
▁stent
▁mangrove
▁Coch
▁pacemaker
▁Leave
▁gamer
▁transgender
▁carbonate
atar
▁Gand
▁Farmer
▁Clap
▁groom
bule
▁Coh
▁suite
▁nurser
▁siege
▁carb
▁VR
▁Mello
▁cymatic
▁KS
▁cemeter
GM
▁PH
ertie
▁Justine
hrir
venue
▁cab
▁Picture
▁reimagine
RN
▁astounding
▁cherish
@
▁loneli
▁intern
▁Rosling
▁wealthie
▁detergent
sota
▁biomedic
▁graceful
▁distract
▁objection
▁Katrina
▁charg
fire
vantage
GO
▁meditati
▁perpetrator
▁evoke
▁Agnes
▁Rif
▁weep
▁practitioner
▁parade
hook
▁persisten
▁fundrais
▁UCL
▁Survey
▁crosse
▁prosthes
ntelligence
▁Fire
▁handwrit
▁Huh
▁deem
▁methodolog
▁catalog
▁Rick
▁unveil
hili
▁overfish
▁PhD
▁Jackson
▁handl
▁beans
▁Blood
▁altar
▁traumatiz
J
▁improvisation
▁tasting
▁cur
▁clash
▁poisoning
ru
▁wearable
▁Beep
▁thigh
uver
▁appetite
▁Bio
iful
▁flatten
▁inspect
ward
▁inferior
limited
▁Rebe
ouri
▁temporari
▁hi
▁preacher
▁shovel
▁spectra
▁Language
▁Dark
▁bore
▁env
ö
▁notation
▁semina
▁occupi
▁nin
18
▁prompt
▁preced
▁jean
▁folder
▁Clark
▁Connecti
▁affection
gram
▁telecom
▁residential
▁Brand
tting
▁bloodstream
▁annoy
▁irre
▁Min
TA
▁mason
hapel
▁Reed
▁Bee
▁pollinati
▁Plant
▁withdraw
▁loa
▁vend
▁Twin
▁pronounce
▁classifi
▁brillian
▁Traditional
▁unthink
▁uplift
▁dadd
▁junior
▁imperfect
▁coded
▁theft
▁Jami
▁Sputnik
▁slamm
▁enslav
▁jets
▁Check
▁roam
▁salad
▁Break
▁EB
▁fundamentalism
▁probation
▁extraction
▁seroton
▁nanoscale
▁broc
▁horn
▁irrigati
▁ag
▁Hum
▁campfire
▁Living
▁Economist
▁dealer
▁forger
▁Ol
▁Director
▁advancement
▁sanctuar
▁scandal
▁Rush
▁Doug
▁Visual
▁clarify
▁rumor
▁lip
genic
span
▁reshape
custom
▁prevalent
▁kitten
▁Luk
II
▁Hispanic
▁TR
▁Creative
▁commute
▁facade
▁Money
TO
▁precursor
▁Were
▁Kal
▁Panama
▁crisp
ran
▁commentar
▁vascular
organic
▁tailor
▁wilderness
▁plaster
▁notorious
▁vague
▁daydream
▁initiate
▁linguistic
▁simulator
▁sunset
▁anthropolog
wesome
▁speculation
▁Eye
▁pearl
▁Alexandria
▁IDE
lbert
▁multiplicati
percussion
argass
▁Agenc
▁Neuman
▁diffuse
▁artisan
▁Superma
saw
M
▁Master
heid
▁Report
▁Bowl
▁scout
ngue
ambia
ima
▁nam
take
▁hanger
▁IP
▁Bear
▁Guatemala
▁chore
▁excessive
▁windmill
feld
▁ATM
▁DIY
shine
▁arrogan
▁levitat
▁micron
▁discrete
ular
▁algorithmic
▁shrunk
▁assured
▁evaporat
▁Stockh
olm
AL
mart
▁shaman
▁plumb
bacc
▁Pac
▁cortic
▁papaya
▁Von
▁eater
version
▁mandat
▁Barbara
▁grizzl
people
▁Dai
ansa
▁Ecuador
▁Leo
SDA
▁Douglas
assem
▁Biospher
▁birch
▁TS
▁vaccination
▁Cup
▁Na
▁champions
▁clinician
▁41
▁railroad
▁benchmark
▁supporter
▁coward
eautiful
▁ador
▁foolish
▁kidnappe
▁Believe
▁liabilit
▁surfing
▁undo
▁churn
▁Schwarz
▁merge
▁drums
▁sentien
▁laureate
▁imprison
▁Million
▁Han
rock
▁defi
▁Hind
▁imam
▁Ley
mah
▁wove
▁Mel
▁Robotic
▁humanoid
▁Orchestra
▁criticize
word
▁roost
▁BP
▁crease
▁wrinkle
▁medal
▁summon
▁barre
▁alpha
▁brochure
▁bundle
▁preferr
▁damag
▁curb
▁92
▁relay
▁lend
▁thoughtful
▁miraculous
▁buffer
▁bladder
▁mast
▁sprint
▁Pearl
▁Brain
▁Vanco
▁seamless
▁projector
▁untouch
▁Build
ahoo
▁nominate
▁pubert
▁Freud
▁epilep
▁bleach
▁prescrib
MI
▁gateway
▁rug
▁cohesi
▁sophistication
▁Grant
▁Sevent
▁surf
▁eel
▁summ
▁plausibl
▁Honey
▁plank
▁aisle
▁demonstrat
▁inflict
▁Fran
made
raham
▁compose
▁implie
▁lineage
▁persecut
▁declare
▁analytic
▁portfolio
▁handbag
▁eruption
wine
▁goose
cut
▁Mob
▁numerical
▁sincere
▁constellation
urora
eera
▁fec
▁Crime
▁Financ
▁privatiz
▁whil
▁auction
▁thickness
▁daf
▁misconception
▁Architectur
▁dementia
▁steward
▁prestig
world
▁Osa
▁pollinator
▁pollinate
▁orchard
▁nourish
ulation
▁behav
▁Stalin
▁plummet
▁burglar
▁curate
▁unpack
▁Samu
▁outweigh
lash
▁jamm
▁Malaysia
ew
▁immoral
▁interdependenc
▁horrify
▁exoplanet
▁Hurricane
▁inhabitant
▁Phil
▁Film
▁prostitute
▁drawer
▁fibro
▁sway
▁Blair
▁arrival
▁vocation
▁Haro
▁enlist
▁craftsman
▁passport
▁Read
literate
08
▁paycheck
▁webcam
▁imperfection
▁metro
▁liberate
▁ch
▁fridge
▁tackl
▁flare
▁dresse
bone
▁Wide
^
▁Nichol
▁backpack
▁du
▁bookstore
▁Hol
hran
▁insta
▁Ukrain
ã
▁Pal
▁hijack
▁segregat
▁tun
rbie
hannel
▁Hero
▁snap
▁semester
▁Area
▁Maslow
▁Form
▁bureaucratic
▁Loc
▁Safe
▁synchron
▁microorganism
▁wizard
▁Federal
▁league
▁balanc
▁Thursday
pont
▁unravel
▁Spin
▁royal
▁Infinit
▁Monkey
▁Archi
▁desperat
▁milestone
▁indefinite
▁relat
ional
▁withstand
▁classify
▁neurologist
▁irregular
nitiative
ermaid
▁bailout
ater
▁advent
▁precipitat
▁shuttle
▁hump
ini
▁paleontologist
▁CB
▁Indiana
▁predominant
▁Kamen
▁highland
▁cellulos
▁packing
vascular
▁sequester
ack
▁Fe
▁Juli
▁Market
▁grandma
▁autobiograph
▁transmitter
▁decisive
▁strapp
ssex
▁Ger
▁resembl
▁Land
▁leisure
▁spaceship
▁Disease
▁Serge
▁deepen
▁Baha
PEC
▁snack
mino
▁sued
ED
▁Billi
▁diar
▁Jur
▁Hus
▁filament
cular
▁hail
aque
▁Ranger
▁Top
▁dull
▁Neil
▁guts
onald
▁foam
▁disclosure
▁nephew
▁Khan
▁administrative
▁aerodynamic
▁cumulative
▁mitigate
▁impairment
per
mba
▁moth
▁decoration
plankt
▁snail
▁AT
▁splash
▁dragline
▁semantic
▁resourceful
▁cite
▁pub
▁wrestle
▁directive
▁Choir
enture
▁antidepressant
▁Clean
▁Pakistani
▁lexicon
▁billionaire
math
emia
rum
▁arthriti
▁Dragon
▁Evolution
▁Nano
▁radiologist
▁foreigner
▁astrolabe
zo
▁conform
▁Git
▁RD
▁MK
▁Announcer
For
rana
▁progeri
▁pigmentation
▁weaken
▁inclusion
▁landmine
▁Mechanic
▁gravel
▁supernova
▁supreme
▁dissolv
▁dissolve
▁inflate
▁isolate
▁competenc
▁thousandth
▁rhetoric
▁peripheral
child
▁fond
▁Galax
▁Studio
▁frantic
▁sands
▁Su
ari
▁Grove
ssociation
▁numb
▁widow
▁flatter
▁nostalgi
bo
▁clapp
▁sav
▁pendulum
PL
I
▁Hand
▁Challenge
▁decipher
▁orgasm
▁sculptor
alt
▁fearless
▁cradle
▁UC
ç
▁Tak
▁divid
bound
▁Wild
sexual
gate
aptain
▁wond
eduction
▁illuminate
ase
▁ballast
▁simplifie
▁ID
▁tickle
▁blindfold
▁sociologist
▁Plato
▁Dam
▁dorm
ja
▁entr
scape
▁degenerati
▁repetitive
▁reassure
▁ingest
gar
▁biodegrad
▁repositor
▁utiliz
▁perfection
▁embed
economic
▁quiz
▁88
▁duct
▁vertebrate
▁refresh
▁bolt
pirac
▁Bart
▁Hot
▁castle
▁soundscape
ke
▁Hungarian
tification
▁quantify
▁Bryan
▁dataset
▁Jaz
▁geneticist
SM
▁requir
▁Kelly
▁Ni
▁NI
▁napkin
▁Humanit
▁Bin
▁Stand
▁Trump
▁hay
▁bumblebee
▁locate
▁pest
▁Sit
▁centraliz
▁contingen
▁empathize
▁63
abul
▁inclin
▁bac
▁leverag
▁infinit
▁enroll
wa
▁cit
▁staple
▁cult
▁prehistor
▁inward
▁Si
▁transcenden
▁intertwin
ab
▁handcuff
▁Bach
▁Festival
▁ridicule
▁Mar
▁Kate
▁Dian
▁Pandora
▁Excellen
▁bruise
▁Gen
▁Kh
▁Collect
edible
▁weave
▁hologram
▁drip
burg
▁genital
▁Club
airy
▁vanish
▁archaeolog
au
▁scoop
craft
▁phy
▁unify
▁59
▁Palm
▁faithful
bit
▁Further
appointed
▁Hondura
chi
▁firework
▁Place
▁Ve
▁disguise
▁duplicate
adequate
ollock
▁incision
▁recorder
▁Dog
▁blam
▁Sky
▁mist
▁centric
nny
lines
▁discharge
▁bless
skirt
▁Rap
▁coalition
V
▁pajama
▁dreadful
▁elevation
▁puzzling
▁Environmental
▁pinpoint
▁hir
▁cha
eb
▁poker
▁jack
▁Diamond
▁Buffet
▁knitt
▁unchang
▁holographic
▁termite
OS
▁Jan
▁pavilion
▁pod
piece
ro
▁cowboy
▁Rocket
▁compact
Thousands
agement
▁Rocke
fell
▁disbelie
▁temperat
▁Pre
▁erupt
▁gigawatt
▁Saul
▁megawatt
▁flex
▁spam
data
he
▁latrine
page
▁litter
sel
▁skier
▁philanthropist
▁Masa
▁fragrance
▁Parad
▁tweak
reach
▁antiretroviral
▁Boeing
▁cr
▁yearning
ulu
▁TD
vatar
ug
▁ponder
▁vase
▁93
▁embass
▁Luc
▁Commandment
▁Constitution
▁squirrel
▁whistl
▁mailbox
▁quad
▁synchronize
▁marsh
HO
▁devastation
▁AS
shift
▁Yemeni
ev
▁Juda
▁irritat
▁Operation
eign
▁prolong
▁Drugs
▁dissent
▁airbag
▁potter
▁advanc
▁Bever
▁prohibit
▁encompass
▁poo
▁UV
▁endemic
▁vitr
away
▁Bel
▁Giant
▁fictional
▁outline
▁AD
▁ferment
▁saturate
▁nutritional
▁erotic
▁credi
▁Mau
▁relentless
▁Board
▁neurosurgeon
▁Organ
▁fellows
▁Laptop
▁sprout
▁spectacle
▁Hawaiian
▁decay
▁Clay
▁colonoscop
▁Chernobyl
vor
▁Critic
▁rebound
▁undermine
▁raft
▁Diet
▁HC
▁stubborn
▁plutocrat
▁Sandy
TEM
▁Bol
▁Morgan
▁malignan
hma
▁gha
rial
▁Hul
▁Malt
bro
▁poacher
▁skydiv
▁Effect
She
▁calv
▁Dimitr
▁Bilb
▁Committe
▁captiv
har
▁marketer
▁carriage
▁bugg
▁Fifth
▁culminat
▁hydrant
▁retailer
roadway
▁z
▁Bueno
▁cyclist
▁messenger
▁moons
▁Saga
omen
▁Gap
▁TB
▁tradeoff
▁synchroniz
▁lid
▁drastic
▁slash
▁Easy
▁Inter
working
▁squeez
▁Want
▁collid
▁disturbance
RT
▁robe
▁Shad
▁sh
▁deput
using
▁blur
▁oppressi
▁rag
ani
▁breeze
▁shave
▁Chang
▁eloquent
▁furious
▁periodic
ER
▁tacti
▁amoeba
▁lightbulb
trophy
related
▁nugget
fidel
▁anonym
▁Sophi
▁protagonist
raging
▁reliev
▁settler
ow
▁advised
▁Ashle
▁offset
ual
▁Move
▁Fuller
▁neon
▁rudder
cross
▁teammate
break
▁Matthew
▁ignite
▁downward
aggression
▁Main
▁judg
▁tire
▁Exxon
▁pinnacle
zhen
▁dip
▁Mao
▁maze
▁granddaughter
▁Fold
▁litigat
▁Chair
▁Chief
▁funk
hmer
▁necessit
▁tuition
▁inference
▁recreat
▁clerk
▁diverge
▁prominent
▁grader
▁deadline
cha
▁stir
▁oas
▁immunize
▁Metropoli
ough
▁discount
▁Environment
▁compensate
▁trainer
▁editorial
▁photographic
▁fossilize
▁divert
▁whistleblower
▁avenue
▁stance
▁flux
▁modalit
▁eyeball
▁harass
▁lone
▁Donald
▁academi
▁batch
▁appreciat
tted
▁hostage
▁Anthon
ila
▁atrocit
▁logarithm
▁advoca
▁1800
▁marginaliz
▁diffusi
▁imitation
▁treadmill
▁gears
hocke
shot
▁dread
istan
▁monolith
▁Matter
▁comparative
▁MB
▁torch
▁soak
uous
▁clone
oo
caust
▁Nazi
▁bid
▁Harrie
jev
munition
▁barbecue
▁memorize
▁perceiv
▁Box
▁downhill
▁Electric
▁limitless
▁perpetual
▁incarcerat
▁Russ
▁Victor
▁characterize
neurotransmitter
dale
▁cocoon
▁char
after
▁thinne
▁solu
▁rearrange
▁Mitchell
▁cooperat
▁cargo
▁fet
▁Ag
▁interval
▁exclusion
▁purse
▁pianist
ache
▁Sleep
iff
▁rifle
▁Rain
▁aero
▁sailor
▁propulsi
▁suspicion
▁teas
▁pals
▁dim
▁census
▁spit
▁Conservati
environmentalist
▁republic
▁detriment
▁Increasing
▁Senegal
▁dynamical
▁Viking
▁memoriz
▁estimat
▁quota
▁seductive
▁undermin
▁jerk
▁kits
▁synthesizer
▁Floren
▁mound
aba
▁den
▁Bureau
▁compulsive
P
ija
code
eastern
▁monopol
▁plural
▁reus
▁Canal
▁Fey
nman
ith
▁integral
▁disastrous
pur
▁patche
▁crest
▁cardio
▁regeneration
▁pine
▁fer
owing
Vision
ata
into
▁Bond
▁Owen
▁Columb
▁Shack
▁saucer
▁doc
▁ankle
different
▁terabyte
▁Simpson
significant
▁Record
▁rude
▁skinn
ians
▁crunch
▁onion
▁grazing
▁divin
▁chin
▁mountaintop
▁Rachel
▁coconut
getting
▁inadvertent
▁dumm
core
▁Diver
▁attain
▁smuggl
▁Pope
▁bagg
▁filmmak
▁Thula
▁awaken
▁shredd
▁Senator
▁glance
▁Johannes
▁tumbl
DC
▁Ahmed
▁Transparen
entagon
▁1850
▁bombard
▁amputation
▁toothbrush
▁NP
▁Litera
▁impatient
▁euro
▁typeface
▁multipli
gua
▁athletic
▁Architect
▁Rich
▁hap
▁isotope
▁kidnapping
▁Tro
rane
▁BR
▁underpin
DT
▁chatt
▁Transition
▁Gehr
screen
PS
food
▁Naj
▁beaver
▁precaution
▁exaggerat
▁caption
▁Ros
chk
▁niche
mour
▁manta
▁shav
uck
▁49
▁prince
▁mistrust
▁accumulation
▁Brigade
▁grandmaster
▁pathetic
▁inequit
ester
▁tangle
▁Left
▁agnostic
bra
▁Ring
▁Doh
▁choreograph
▁Bern
▁Homer
▁Siftable
▁inertia
▁fluent
▁Feminist
▁barb
bad
▁tidy
▁Kerr
usie
ultipotentialite
▁Bage
▁troubling
▁Plu
▁shareholder
▁pins
▁advis
▁Happi
▁appointment
▁kilowatt
▁rebellion
▁cele
▁Bloom
▁kiosk
▁Genev
▁turbulent
teric
▁saint
▁paddle
▁Heather
▁Cleve
▁joking
PA
▁66
▁Study
▁Dance
▁Kay
▁subtract
▁Highway
▁Nash
▁striving
▁sorrow
▁harden
▁whipp
▁squirt
▁polarit
▁Adi
▁pat
▁chant
▁paraphras
▁Parent
▁shuffle
▁chok
▁absent
▁bushe
▁legg
urek
▁Math
cautious
▁amber
▁stutter
▁Pitt
▁tenaci
▁studios
▁crapp
▁phosphor
▁haircut
▁actress
mbo
▁swo
llen
▁horrifi
▁shoreline
▁gloss
▁conservationist
▁fertilize
▁ensur
▁synonymous
▁cu
▁bitch
▁spiritualit
pour
itch
ender
peech
▁tactical
▁geopolitical
▁villager
▁conjure
lit
ardo
▁sensual
▁enhanc
▁Sty
rofo
▁prolif
▁enclosure
▁Gabriel
▁paw
▁Nicole
utum
▁Pas
ell
▁sledge
▁outdoors
birth
▁tires
▁Animal
▁deteriorat
llin
▁miniatur
psychotic
▁gyr
▁Tw
▁Tri
▁kicks
▁Plastic
▁internship
▁pharmac
▁unwilling
▁Mad
▁coache
▁laborer
NES
▁Solomon
▁hotspot
▁generalization
▁Ball
▁Cool
▁steroid
▁comprehend
▁escap
▁patron
▁101
▁gifted
▁palace
▁trance
▁sanction
▁humiliat
▁ISI
mination
▁surpass
▁Sho
▁proxim
▁considerabl
ike
▁utilize
▁overestimate
▁spreadsheet
bert
▁Fine
▁battl
▁Commission
▁mon
▁Standard
▁testify
▁Communication
gged
▁Papua
▁fram
▁Norwegian
ada
▁octave
ilence
▁pul
ghett
▁sp
▁fanatic
▁autopsy
▁tenure
▁paintbrush
▁soybean
▁twitch
▁Sp
▁compensati
▁inappropriate
bath
ek
▁thirst
zero
▁Non
▁rejection
▁embodiment
▁dealers
▁Different
▁cramm
▁thro
▁dictator
▁Angola
▁trawl
▁Jose
▁deed
za
▁champ
agne
▁Row
▁jo
▁schizophrenic
▁demons
lace
▁Cruz
oul
▁fist
▁Ryan
spiration
▁exaggeration
▁spoil
▁cello
izard
▁Justin
▁lyric
▁crutch
▁ounce
▁scissor
▁Goodb
▁dire
▁edition
▁tease
▁provocative
▁multimedia
▁Cornell
▁EEG
zing
convenient
▁dries
▁dogma
void
ccasional
▁transcendent
▁graze
▁revolt
▁permeate
▁contraction
▁enact
dor
li
▁colonize
▁stark
▁Dubai
▁fanci
▁sip
▁sweater
▁stunn
Corps
▁colonial
▁Ru
▁intermediar
▁Bare
▁flashlight
▁Opera
▁TM
▁chainsaw
▁Jarre
we
▁Vivi
▁idealis
▁skyrocket
▁goof
▁Immediate
▁Rod
▁dysfunction
USB
▁advise
▁convers
▁robber
▁glide
▁halt
▁Generation
▁quadruple
▁Mongolia
▁humpback
▁violate
▁recyclable
▁Auto
▁hardwir
▁interdependen
▁volatile
▁Cent
▁distortion
▁tremor
oil
▁Chen
▁desalinat
▁depletion
▁tractor
▁aquari
▁symbio
▁Nino
▁oceanograph
▁Typical
▁Ash
▁perimeter
▁speculate
▁applica
riff
▁spac
▁Kurzweil
▁Hands
▁reunit
▁altruism
▁dissect
▁Mayan
▁adverse
▁conductiv
▁canoe
hik
rie
▁reckon
▁hyperbolic
▁carving
▁therapeutic
ick
▁spectroscop
ging
▁rebuil
ren
▁exercis
▁Patent
▁Pool
▁delightful
ball
▁188
▁teapot
▁latter
pp
▁impo
verish
▁plea
rink
▁apprentice
▁remark
▁shooter
▁Personal
ynthetic
▁Hopkin
▁Rem
▁SA
▁defy
▁rhinovirus
▁innocen
▁witnesse
▁psychotherap
▁Glacier
no
▁deplet
overboard
▁reverberat
▁digitize
assic
▁scarf
▁diver
▁Orwell
▁Ferm
▁spher
▁Needles
▁Summer
▁Hanna
▁Kuwait
▁coerci
▁spotlight
▁abolish
▁orchid
▁dropout
▁sovereignt
▁Tunisian
▁swimmer
▁escort
▁fringe
▁invert
▁noun
▁Fat
▁salamander
use
▁intersect
cientific
▁Edu
▁va
▁cynical
ut
▁reframe
▁Lis
▁aversion
▁evaluat
▁em
uga
elli
▁Eames
▁acronym
▁Mauriti
▁medicinal
▁resurrect
▁utilitarian
tah
▁Enter
nger
▁introspecti
▁Pun
▁Madam
roll
▁ineffective
▁betray
▁proactive
▁Skycar
▁hustle
▁Ja
▁pediatrician
flow
▁PCB
▁Jamaican
▁videotape
▁sights
▁miniaturiz
▁v
afi
▁CP
▁dissection
▁Euro
▁Roug
▁detain
▁silo
▁joystick
ndra
▁Pic
▁Inuit
▁Burk
▁petri
è
▁dune
▁Diplomat
variabl
▁hypertensi
▁186
ALL
▁SM
▁Dar
▁Scrapper
▁adhesive
▁wa
▁invisib
▁DC
▁reverb
▁CPU
▁biomimic
▁assay
▁synagogue
▁Ern
▁Cyr
▁Hyde
▁Huge
▁recline
▁congress
▁Furby
erence
mega
▁Mozambi
▁kettle
mira
▁truffle
▁INC
▁solver
RC
▁instruct
▁legitima
▁powerless
▁constituenc
▁Somali
▁Grey
81
▁hierarchical
▁fifty
▁Trek
▁eso
▁Voyage
tune
▁bot
spora
▁ze
▁persuasion
▁municipalit
▁ru
oc
▁stretche
▁Hiroshi
▁banjo
▁Doc
▁heterosexual
▁Lanka
▁faction
▁seller
▁submission
ylor
▁righteous
▁rack
▁gluten
▁improvis
▁reciprocal
▁confound
▁mono
▁worthless
▁LE
structure
▁Tech
DR
her
ymphon
▁electrifie
▁menstruati
▁sham
▁Gwe
▁decod
▁additive
▁increment
▁animator
▁Action
▁Baker
▁guru
▁anatomical
▁outfit
▁rotte
▁ripe
▁pavement
▁whims
▁affirm
▁internalize
▁Team
▁standardiz
▁Buckminster
▁junkie
▁pledge
▁Develop
▁slap
▁Poet
▁banal
▁incorrect
▁intractabl
▁ignit
▁pinch
▁furnace
▁aperture
▁porch
▁dedicate
▁oblivio
▁Bonne
▁hyperactiv
▁seduce
MRI
▁thirty
▁Cut
▁degrade
▁phthalate
▁contaminate
▁pluck
▁nutritio
ade
▁bureaucrat
▁stealth
▁activat
▁doorstep
▁calligraph
▁caution
▁thorn
▁Mont
▁ne
▁marking
▁pos
▁Future
▁identifie
▁albe
▁po
ult
▁definitive
▁alternate
▁empti
▁Milan
▁umbrella
▁librarian
▁imbalance
▁naught
ez
▁cons
▁interpla
▁proteomic
▁dung
uba
▁Rise
exist
▁waitress
▁capillar
▁Circle
▁dic
hotom
▁cruise
▁Noise
▁protector
▁antidote
▁fork
▁cavit
▁Reach
▁pollinat
▁fluke
▁blossom
▁inert
▁overdose
▁Holland
arbaric
▁anarch
▁raid
▁gangs
▁silks
▁Bolt
rahim
▁Algeria
▁gym
view
▁acu
clamation
rruption
proof
ives
▁greener
conventional
▁Ann
hou
▁smack
▁Merc
▁snippet
▁ga
▁Eleven
▁reassemble
▁Advanc
▁reviv
▁captive
▁ominous
▁Fred
▁pea
▁butcher
▁exoskeleton
▁lb
▁orthopedic
Global
▁Embrac
▁strawberr
▁Chi
tra
ore
▁fabricat
▁Kar
sensitive
▁PET
▁grill
▁biograph
▁prairie
▁Search
extraterrestrial
hr
▁Speci
▁tub
▁snapp
ean
IKE
polar
▁critique
▁welcom
▁Raise
▁Glenn
▁mitochondria
▁pilgrimage
▁cosmologist
▁neutrino
▁shack
▁Extreme
▁launche
▁monaster
▁juxtaposition
inal
tical
monar
ps
▁diaper
▁propagat
▁spik
▁dominance
rez
▁stumble
▁Cap
tooth
etti
▁Googler
▁ascend
▁dock
▁Bar
▁Week
▁jig
▁paradoxical
▁Mach
▁pointer
▁DE
▁calve
▁constitutional
▁palli
▁extrapolate
▁shorten
▁Christin
▁dazzl
▁guardian
▁Tweet
text
▁sponsors
▁Negro
▁Walker
▁influenc
▁Gord
ks
▁lord
▁elegan
▁Pi
▁engulf
▁wasteful
▁unconditional
▁slam
found
▁swam
sea
▁incompatib
▁rehearse
▁wanna
heart
heard
▁Nativ
overt
▁Friends
▁blockage
▁sausage
▁symboliz
▁Az
nnett
famous
pa
▁Northwest
▁synerg
▁Nevada
Cash
▁RO
▁Emergenc
▁converge
stical
▁issu
▁proliferati
▁Boll
consistenc
▁interconnection
▁schematic
▁disciplinar
▁examination
worth
hill
▁monumental
▁Artist
▁Planet
▁amygdala
animate
▁lick
▁Goul
▁successive
▁Gas
▁cou
marin
▁outsourc
▁dyslexi
▁gal
▁equate
▁courtroom
iller
▁reservation
▁sandwiche
▁megabyte
▁unwa
▁breeder
▁prophec
del
▁advocat
▁bik
▁attic
▁glaze
▁patriot
▁attentive
sonar
▁1500
▁analyst
▁betrayal
▁defensive
▁Willi
list
▁pois
▁hundredth
▁Stac
▁floss
▁futurist
▁formulate
ho
▁Mik
▁Libyan
teau
TC
▁wav
▁transcript
▁hoo
▁memetic
horn
▁Marco
▁bitcoin
imi
▁wig
ograph
▁buffalo
▁surfer
▁headlight
▁narcissist
▁splitt
▁pup
ompassion
▁reprogram
▁Pian
▁stakeholder
▁Elv
▁customiz
▁insurgenc
▁Peer
▁chemo
▁Stroma
▁oral
course
si
pun
▁Bo
▁democratize
▁delegation
▁arable
AM
▁Kiv
▁Moll
▁hawk
awa
▁tract
▁microsecond
▁chimney
▁scarie
▁responder
SG
▁Surge
▁transcribe
▁approximation
▁teme
lux
▁leuk
uant
▁rod
▁Tal
▁titani
▁Bur
▁cassette
dded
▁herb
▁goo
▁recurr
▁listing
▁revert
▁Faiza
▁Independent
▁Manch
▁LOLcat
▁mystic
▁confinement
▁fellowship
▁orthodox
▁Poem
▁barber
▁wretche
yana
▁abyss
▁Raja
▁Male
▁Pleuro
▁Nazis
▁crani
▁vis
uma
▁synesthe
▁Johns
▁diner
▁Kis
▁questionnaire
▁trickster
▁Brent
▁mockingbird
▁jirga
▁mismatch
▁convulsion
▁SDR
▁malari
▁milkweed
hariot
▁BL
▁Mushroom
▁sel
▁toolbox
atal
▁immunization
game
▁fatigue
make
▁merchant
▁Stu
▁riders
▁shaft
▁Mari
▁spoon
uestion
▁Kite
minder
▁Sustainab
uction
▁centi
▁carpool
mouth
▁Robin
diment
▁Karl
▁trench
▁devour
▁dove
ath
lan
location
▁dwell
rso
▁Malari
▁vial
▁daunting
▁Poor
▁pragmatic
▁nationalis
▁unbearabl
ika
▁tense
▁deliberation
▁Ellen
▁marit
▁Michelle
▁Hang
▁Robbi
pecific
▁clich
▁Hippocrat
▁Trip
▁CL
▁Match
▁Multi
▁accelerometer
▁Dennis
▁Chan
▁Urban
▁Blind
▁Gross
▁remnant
▁oppose
▁shuffl
▁owl
▁Warn
▁unchar
▁FA
▁displacement
▁speck
▁loudspeaker
▁impu
▁kisse
▁Gh
▁purposeful
▁sue
▁advisor
▁amplifie
▁Price
▁dialect
▁sanct
▁dice
▁perfume
▁ghetto
▁suicidal
▁offender
▁tack
▁Kickstarter
▁Levin
▁Gad
▁cheetah
▁runway
▁ash
▁brass
▁Mmm
▁futil
▁clutch
drop
▁relia
▁Explorer
▁turnaround
▁Iron
▁contemplate
pulsion
iscons
▁demolish
▁breathtaking
iers
▁palpabl
▁verifi
▁repetition
▁infer
▁pollute
ofi
▁Patients
▁presumption
▁Female
uda
▁scour
▁squish
▁Twa
sale
▁emperor
▁Erik
▁median
▁stereotypical
▁revers
▁Milt
▁complacen
▁Writ
hoe
▁Bull
▁Devil
spiring
flection
▁clan
king
▁lenti
▁missionar
▁Leader
▁overhear
▁blush
▁truthful
▁hype
▁debut
▁vigorous
▁McLuhan
uick
▁lust
lve
▁Feel
▁occurrence
▁Hunter
▁pathogenic
▁Agricultur
▁moan
mendment
paid
▁subsidiz
rin
▁qualitative
▁au
▁exchang
NC
▁clutter
▁Bernard
▁Double
▁flora
▁uncommon
polis
▁biblical
▁almond
▁circulate
▁farmland
▁interpersonal
rong
▁archaeologist
▁sling
▁coup
▁reversal
▁savage
▁coincide
▁Blackberry
omi
▁emulate
▁complementar
▁recharge
▁adrenalin
▁tempo
▁Aw
alibu
ivor
▁investigator
▁silkworm
new
▁craving
▁denominator
litude
▁peacekeep
▁xenophobi
▁Hal
▁Beaut
▁darken
▁Alberto
▁eagle
▁Governor
Family
▁Rum
▁skillful
aux
▁crafts
scale
▁cyborg
▁Weather
▁pelvi
▁dipp
▁categoriz
▁carcass
▁Ezra
▁Angelin
owa
▁bioen
▁Might
▁Origin
▁fulfillment
lings
▁beginner
EC
▁psyched
▁rider
▁wasp
▁ambien
▁stethoscope
▁intake
▁handheld
▁expend
▁possum
650
▁Forb
▁gripp
▁Salva
▁aspirin
▁Asperg
▁bullshit
▁echoe
icha
▁Mak
▁pillow
terior
usa
uitar
▁Mona
▁farthe
▁Song
▁snowflake
▁cancel
▁font
▁reign
cast
▁loyal
inson
▁leash
▁disseminat
▁05
▁understate
▁Madi
▁Member
▁cynic
▁prep
▁rewrite
▁Town
logy
▁windshield
▁coating
▁wiggle
▁substrate
▁bunker
▁Conscious
▁Stick
RES
▁gasse
▁wiki
▁til
plain
▁myriad
▁comprehensi
p
▁endure
▁deception
ggy
▁crippl
▁Impossib
▁vanishing
▁exaggerate
▁Affair
▁Polar
▁counteract
▁yacht
▁thou
▁Occupy
▁obsessive
▁expo
▁reintroduce
▁debat
▁Ber
▁noon
City
▁narrator
▁Gre
leigh
milk
▁Chef
▁PS
▁barn
▁tedious
▁succumb
app
urani
▁communicator
▁Culture
▁Shah
▁Eli
▁hospice
shes
▁Fo
▁confer
▁eternit
borough
▁regrow
ight
▁bra
▁Guard
▁headset
▁Elephant
leton
▁Dust
▁coma
itis
▁Invest
▁adapta
▁Dominican
▁Alf
▁administrator
▁beacon
▁Vil
▁Beatle
▁counselor
▁Termina
▁gigabyte
▁northwest
▁playwright
▁fox
▁replay
bury
▁swoop
▁gardener
▁symbiotic
ops
▁propagate
gas
▁Aunt
▁dressing
▁hyena
▁genitali
▁quotation
▁misinterpret
▁Bess
▁indulge
▁Whale
▁crave
▁sliver
▁quartz
▁barcode
▁Mann
▁revisit
vich
▁timescale
▁Den
▁dimm
▁safeguard
virus
ou
▁induce
▁shutter
▁Smart
▁Jabb
▁archetype
▁Baghdad
▁CG
▁premier
▁Made
▁commemorat
NT
▁Crowd
▁Euclid
▁Hoo
frost
▁Des
▁Sadd
▁BE
▁grey
▁conduc
▁stigmatiz
▁advert
▁marginal
dministration
▁persuasi
▁cru
▁nut
mond
▁pota
erkat
▁brew
itude
▁foil
▁Mosco
alph
▁Uru
▁Leib
ulli
▁Equal
▁charm
loid
▁glaci
▁forensic
blood
balone
normal
▁lurk
▁contextual
▁Tel
▁sensi
▁residual
▁precedent
▁malleab
▁puddle
▁Woo
ig
▁accountant
▁crane
OL
▁rigg
▁Athen
▁frown
▁Jak
inister
▁Carbon
▁setback
▁189
▁Authorit
▁Contra
▁scooter
▁microprocessor
▁delicac
▁translat
▁EP
▁plumber
▁lexicograph
▁Words
▁conserv
▁pac
▁Cole
▁spear
▁lumber
▁monet
uran
ues
russel
▁salv
▁Farm
▁clogg
▁needless
▁filth
▁Cameroon
▁Buddhis
▁derivative
▁mourn
▁dismay
haraoh
▁propel
▁Damas
▁Burn
uza
▁Colon
▁relegate
▁chop
▁Shaba
nts
▁bud
▁Stux
▁justifie
▁Commun
▁amputee
▁compil
▁Latino
▁neutron
▁j
aki
▁typograph
▁Send
▁Him
▁terrace
▁Linu
▁Table
cus
▁ranch
▁antique
▁cascade
▁armpit
▁Vas
▁starch
dad
roy
▁ST
▁grenade
della
▁clump
nuck
▁Rat
ink
▁photoreceptor
▁Va
ference
▁Bina
▁catheter
rset
–
▁Lindberg
▁firefighter
akash
▁Hux
tzman
▁Huck
▁Okapi
Bits
▁tembere
▁salut
▁civiliz
▁munition
▁Meli
▁refus
▁techno
▁condense
▁Burt
▁misse
▁perch
▁emulat
▁peasant
▁conceit
▁companions
▁gasp
▁dia
njunction
▁suspension
▁spook
▁adore
▁Lan
rilliant
▁soundtrack
▁ballistic
▁dignif
goon
▁Wang
ampaign
▁sta
unch
▁Protest
mont
▁judicia
▁groove
▁Vagina
▁clearance
▁Bosnian
vil
▁prick
▁Sala
▁philanthropic
▁abduct
▁comeback
anguish
▁Mandar
▁Gues
▁exert
▁coarse
▁actuator
▁complian
▁roadside
In
▁Drive
▁Paleo
▁Clinic
▁Pick
izzy
▁swapp
▁sympathetic
▁HD
▁Wint
▁Allow
▁slim
▁destitut
▁pH
▁una
▁boundless
▁Aspe
▁affirmation
▁watershed
▁sprinkle
▁Pepsi
▁experimenter
▁condens
▁lateral
▁elevate
▁fearful
▁Period
▁scrutin
▁genre
▁deconstruct
▁takeoff
▁deform
▁coherenc
▁tw
station
▁backbone
▁intermedia
▁Lega
▁pediatric
▁hon
▁Coli
▁jurisdiction
▁leftover
▁Wa
YU
▁endorse
▁magne
ich
▁camouflage
▁Pain
▁cryptic
▁whack
▁compartment
▁quirk
▁Siri
▁loom
▁monstro
▁Kafka
▁impossibilit
hu
▁Cage
▁immersi
spoke
▁boycott
ement
▁dodg
▁reappear
▁converg
▁fo
▁dilut
▁Press
▁LA
cule
▁Mil
▁frail
▁chronological
▁gelatin
▁radiate
▁sift
▁punctuat
▁milligram
▁taxonom
▁straighten
▁flapp
▁bully
▁alleged
▁starve
▁hallmark
▁Choice
ending
▁postulate
▁hardship
▁disseminate
▁Yus
▁feast
oid
▁enigma
▁disengage
▁reorganize
ncyclopedia
▁secre
▁Pol
ites
▁Sab
▁Hazara
▁minaret
▁evangelical
▁Met
aria
▁uneas
▁financ
▁phantom
▁dash
▁Hat
nais
▁funnel
▁consol
enuous
▁brittle
▁Gang
▁bubbl
▁Ubu
▁Walt
▁Buck
▁recess
▁Cath
▁pageant
▁Java
▁191
insk
▁McCa
▁Sufi
v
donna
▁dessert
ieber
▁Univers
▁Fay
▁Perc
jo
eal
plan
▁semiconductor
▁caterpillar
▁pasture
scent
▁Capit
▁cobble
▁Treat
▁Alp
Murdo
elow
▁facet
▁epidemiologist
▁smuggler
▁Kara
▁cartel
▁truce
▁SL
▁Carlo
▁Claud
▁alienat
▁multicultural
▁Command
fus
▁liar
social
▁moonshot
▁oblige
▁Curiosit
▁Shark
▁Princes
score
▁Madd
▁Eagle
▁tracker
▁Word
▁handout
sch
▁Comic
▁motel
practical
tcom
NH
▁Cyber
▁Grab
▁outstanding
▁anecdotal
▁transducer
▁correspondence
▁Spirit
▁Express
▁Jet
listic
▁inhuman
▁plight
▁heap
▁barbaria
▁Train
broken
▁masculin
▁Wagner
▁bonuse
▁entitlement
▁District
▁Vi
halt
▁fright
▁Runn
▁Crick
▁reductionist
▁tast
▁nav
ugg
▁choreographer
osaurus
▁JA
▁Eat
▁Entropi
▁Pluto
▁Hu
▁afar
▁Fan
▁Reef
▁lattice
▁misinform
▁franchise
MA
▁epoch
ano
▁tinker
im
▁squatter
bul
▁roommate
▁muck
▁driveway
▁commuter
▁geolog
▁instill
▁discourag
spective
▁ecstas
▁effortless
▁Convers
osses
▁Goldi
▁ruthless
amer
▁dexter
▁Bayes
consistent
▁Gla
▁graft
▁encapsulate
▁Chev
lliance
▁shad
▁waiter
▁bestseller
▁Found
▁Desc
artes
▁mite
▁patt
▁Tyle
▁undoubted
▁elicit
pe
▁dwindl
▁Ham
shi
▁Morning
▁Designer
ides
▁unprepared
▁Doro
▁imprint
▁navigat
▁proclaim
▁immerse
▁chole
terol
▁Partners
▁aggregat
▁Dis
▁na
▁Pant
▁stride
▁oversight
▁abid
run
▁cyberattack
▁Buzz
▁electrochemi
▁substitution
▁hashtag
▁graves
erk
▁shortcoming
▁vaccinate
incidence
▁Lof
▁debilitat
tainment
▁Valentin
▁pens
CR
▁Rama
▁Must
▁fal
▁provok
NICE
▁Journalist
▁Rwandan
otho
▁Tend
▁Studie
▁stitch
CK
▁patroll
▁kelp
▁usher
▁nann
▁submerge
▁bon
reconceive
▁Lance
▁FS
▁Horse
▁pupil
▁deteriorate
▁retrain
▁disclose
▁thermostat
▁ledge
▁superficial
▁Hart
▁Harris
▁Kai
▁Bangladeshi
▁bount
▁accompany
▁Lucas
▁overlapp
▁Victoria
▁healer
▁Lion
▁actua
▁dissipate
ieu
opter
▁Klein
aries
ep
▁Complete
▁yum
▁toothp
aste
▁sack
▁novelist
▁padd
▁je
▁IPC
▁locker
▁Newcast
▁implicat
▁momentous
▁hopp
▁orb
▁forage
▁Sach
▁Roth
liance
IPP
▁uninhabit
▁adjustment
▁eminent
▁Harbor
matic
▁remodel
▁Wonderful
▁Vot
▁revive
▁hinge
▁Boom
▁Goth
▁Arno
brew
▁nozzle
▁perma
▁discriminate
rexit
VA
▁consultation
▁preoccup
vicin
▁Maker
▁mindless
uj
▁matur
▁Muti
▁outperform
▁laparoscopic
▁neurologic
ala
▁Viagra
▁affectionate
▁Sand
▁vow
atomic
die
bling
▁dar
▁advertise
▁magnifi
▁sourc
▁prosc
▁dangl
▁NO
▁displace
▁brak
▁peeling
▁Mos
▁linger
▁gospel
▁Ren
▁Tibetan
▁erode
rill
▁critter
▁archer
▁await
▁egalitarian
▁Heal
▁attendant
▁helic
▁fable
TV
ninsula
▁petal
▁sandstone
▁excavate
▁enhancement
▁Rub
▁Geoff
▁recursive
▁Stein
▁Investment
▁externalit
▁Hung
▁spice
▁crumbl
iki
▁commonalit
▁contempt
eventeen
rom
▁sectarian
▁socializ
▁Hallow
▁BM
boxe
▁Researcher
PT
▁departure
nese
▁Kick
lle
▁experien
▁rectang
ocation
▁circum
▁quark
▁parody
▁Trini
▁flake
▁matcher
▁dissonance
▁gig
▁randomize
tonia
▁Eh
▁headwind
▁restraint
▁crowdsource
▁streamlin
▁babe
ix
▁subtitle
▁caste
▁Pa
▁Nikola
NK
▁cushion
▁Phone
lider
▁Klei
▁corp
▁alleviate
rgill
▁EC
▁Greg
ü
▁Malala
▁cartograph
▁WorldWide
▁Collaborator
tu
▁EV
▁Tata
▁retract
▁Gayl
▁pastor
▁Hein
▁Brunel
▁Sutherland
▁twentysomething
▁uber
hud
▁arrowhead
▁glider
gham
▁Judge
▁dirigible
ipher
▁Denisovan
glo
▁Inc
▁bimetal
nowledge
▁Kera
▁localiz
▁lag
▁legislator
▁nicke
▁stove
efront
▁Darwinis
▁commissioner
▁foul
▁repurpos
▁ridd
▁galact
▁Dav
▁Apart
▁unsurprising
▁tireless
▁calamit
▁avert
▁premi
▁Hugh
▁cannon
▁km
▁Battle
ylon
▁seren
▁agitat
▁plow
▁lobbyist
▁babysitter
▁Provinc
▁Idea
▁razor
▁Jung
▁tray
▁pistol
▁hijab
▁radicaliz
▁accord
▁coloniz
▁Mali
▁boardroom
▁Sens
kinetic
▁scribble
▁tinkering
▁infanc
▁Perr
▁thicken
▁Fitz
our
▁adage
▁EU
▁dissident
▁jogg
▁murmur
▁Fernand
▁Coral
▁bulldozer
▁Cura
ludge
▁bothers
▁tentacle
rmed
▁Glori
▁Violen
▁nude
▁telegraph
▁Mori
▁residence
▁ballroom
▁ministr
▁Access
▁biscuit
focal
desic
▁proto
▁Moderat
▁gyre
▁insulat
▁containment
▁turbulen
▁Rotte
wash
▁provoke
▁bionic
▁Kath
▁Correct
▁nagg
▁badge
▁Nicola
ngular
▁Beside
▁Musk
▁Total
▁tanker
▁dam
▁boast
▁Bird
elimina
▁sane
▁cataract
idair
▁Psycho
▁depiction
▁streak
▁reel
cumber
▁reset
▁bigot
▁darling
▁pedagog
▁cloak
▁sparse
▁sampl
▁Torture
▁scourge
▁adulter
▁gratuitous
▁freed
war
▁stray
▁crow
paper
▁Ethiopian
known
▁Lick
usk
▁Lie
▁sneakerhead
regulat
▁inverse
▁Vaccine
▁coli
▁situat
▁restroom
▁covet
▁qua
ecutive
▁Lib
llusion
rmant
▁Aaron
bee
▁venom
▁breastfeed
▁Physical
▁inconvenience
bar
▁spectator
und
▁vista
quake
▁Archive
▁Fil
▁Ear
▁Wind
▁beak
bbing
▁overflow
▁raisin
CAT
▁mart
▁Clo
▁reli
annica
▁Create
▁Kendal
▁jeopard
▁remorse
▁Mid
▁idol
▁chopp
▁territorial
▁Tap
▁sunk
▁youthful
tel
▁eavesdrop
▁Fisher
▁Minute
▁busi
▁disillusion
ttle
▁facilitator
▁cooker
▁kn
▁Curve
▁Horn
▁console
▁leapfrog
harmonic
▁blackboard
▁huddle
▁perk
▁Anni
▁Aldo
▁Rev
cies
▁Cell
ads
▁List
▁Karen
▁Casa
▁inevitabilit
lese
▁Chek
▁engrav
▁ple
▁fingernail
▁necklace
▁Frequen
▁tur
▁hips
▁trader
▁vener
▁enslave
▁Ow
glass
▁uter
▁topograph
rick
▁Jar
iffe
hal
▁cutaway
▁Hour
▁burger
▁Bolivia
▁Kazak
▁dispose
▁Dap
misunderstanding
▁compliance
▁hysterical
▁hideous
▁Vel
▁clunk
▁irresponsibl
▁Full
▁ecsta
▁savior
▁beehive
▁Gate
conduct
ometer
▁Target
▁Cur
bil
▁enthusiast
▁Alto
▁innovat
▁Citizens
▁crowdsourc
pparent
▁Martine
▁LM
▁fleeting
▁Success
▁Scream
▁Goldberg
uz
▁Explor
▁Mas
▁preview
▁premiere
jet
protect
▁Independen
▁Rabbi
▁quot
▁undergrad
▁devotion
▁audi
▁commut
Built
▁Bam
▁tornado
ritage
▁bipartisan
▁spat
▁longitud
▁hater
▁corrosi
▁diagonal
▁Macintosh
pong
▁oop
▁conversational
itie
▁conceal
▁broaden
boat
▁impart
▁insufficient
▁chatter
▁Craz
▁sequel
▁partisan
▁Helen
player
▁corona
▁Scandinavia
▁lush
▁burrow
▁angst
▁Complex
▁Ches
▁urchin
▁seaweed
▁succession
▁ESP
▁Rosi
▁skim
lender
▁evacuat
spar
▁orchestrat
▁repel
▁eeri
▁pebble
eeming
▁Protocol
▁harassment
▁Persian
▁muffin
▁juic
▁Cloni
▁phon
▁biochemistr
▁Atten
▁spru
▁Nak
▁concoction
top
▁radiat
▁mango
▁cricket
▁Lau
▁conceivabl
▁snowboard
▁Prison
▁GCSE
▁warden
▁Maya
▁circus
▁ol
▁Lamb
ken
▁trivia
▁communis
▁anthr
▁predictor
▁hypothesize
MT
▁Belt
▁meltdown
▁defender
▁retrospect
▁sitcom
▁Silver
▁twirl
▁turkey
▁bride
▁translucen
▁Egg
▁disintegrat
▁Coal
bara
▁unload
una
bright
▁bale
▁annihilat
plasma
▁Commissioner
▁villain
▁prosecution
▁accusation
▁eyewitness
▁sunscreen
phone
▁cl
▁Dolphin
▁palette
▁sadde
▁appendage
▁militant
then
▁cryptograph
▁Patriot
▁mislead
▁adversar
▁desolate
▁unrel
▁footnote
articular
▁audit
lic
▁Electronic
ora
tolerance
lus
▁shorthand
▁leaflet
▁Ancient
▁Wool
▁slug
▁morpholog
▁destabiliz
ali
▁frostbit
▁advertiser
istence
▁Purpl
ames
▁insurgent
quire
▁delegate
▁allegiance
▁jumble
▁beneficiar
▁propriet
▁qualification
▁granddad
▁Assembl
▁Ahmad
▁runaway
▁Drug
▁gratifying
▁reminisc
▁gourmet
▁Leg
▁poach
▁breakup
▁Kam
▁muse
▁Sinclair
Tech
▁Laws
▁Cheeto
▁camper
▁infringe
▁Gut
▁Liver
▁Leh
▁router
▁motivator
niz
▁mime
▁Connect
▁voicemail
▁illitera
ret
▁arid
▁categorize
▁genealog
misphere
raille
▁mug
▁Ti
utu
▁trespass
▁UFO
▁peck
iform
▁psychos
pon
▁Honk
▁foresee
lever
▁ammoni
▁Volvo
▁gatekeeper
▁adventur
▁bottleneck
▁Product
▁Popular
Jazz
▁merger
▁Lim
▁specifi
▁colonialis
finance
▁SUV
▁Scal
▁Liquid
erkel
▁Resist
▁Roll
▁microfluidic
▁oncologist
▁tusk
kill
put
nuclea
▁Kni
▁Uber
▁enshrin
▁assert
▁binocular
▁abdomen
azzo
▁Cor
▁inconsistenc
▁Proust
▁Holm
▁Turbo
▁stalk
mite
▁pu
▁Mag
apest
▁Berg
▁spec
sek
▁gur
lvin
▁decoupl
▁specialization
▁copulat
▁Montre
▁Heath
row
▁rake
▁hash
▁Bacteria
▁Wur
▁Blak
▁reprogramm
▁sentenc
▁irreversibl
▁congregation
▁iterative
▁Vibrio
▁virulen
▁crook
▁specification
ethos
▁refuge
▁ver
▁Patagonia
▁Drum
▁Elder
rado
▁gambl
▁stab
▁Finger
▁Fa
▁Communist
▁wheeler
▁fl
▁hoop
▁Rubi
gence
▁Shredd
▁Mathematic
▁inexorabl
▁Yak
▁Coach
▁Aquariu
▁catcher
▁mangle
▁mute
▁involuntar
▁hesitate
▁pathologist
▁Sebastia
dside
▁bandage
▁Remarkabl
▁intricac
dah
▁decreas
▁Mouse
▁petrochemical
walk
▁eject
▁Algerian
▁lobbie
▁unt
▁zebra
▁constituent
▁restless
▁Axi
▁empathetic
ryl
▁alley
va
▁ravag
nect
▁enchant
▁Ironic
▁brin
▁Off
sava
▁Cry
▁tapes
▁Bori
sthan
▁filing
▁pott
▁123
▁bleak
▁epileptic
▁metaboliz
▁muc
▁Kant
▁leatherback
▁Tamil
▁broadcaster
▁matriarch
lett
▁Flo
wap
▁phenotype
▁recycler
▁Share
▁Reserv
▁prohibition
▁concussion
▁Cord
▁temperament
▁Electro
RCA
ombe
▁JE
▁Sandr
▁willful
▁Utopia
▁pessimis
▁underdog
▁infantry
▁acro
▁weblog
▁bleep
▁oct
▁cannibal
▁barbers
▁ED
▁coffeehouse
irstream
▁metastas
▁gymn
sophist
▁neuromodulator
▁slab
▁entail
▁mop
▁reassuring
▁outlaw
▁wagon
▁zipp
▁propa
utilize
▁Bike
280
▁inferr
▁1890
khar
▁serendipit
▁presume
▁Monro
flyer
▁cardiologist
pping
xygen
▁Cook
▁Odd
▁ooze
▁idle
▁Mini
▁occupan
▁Graduate
▁hoc
▁sonic
▁wobbl
▁LI
▁Holi
▁roar
onologue
▁frivolous
▁shard
▁Nar
ickness
skill
▁unsafe
▁assurance
▁maim
hima
▁breaker
▁religios
▁outcast
▁Serbia
▁Slov
▁marche
▁subvert
eanor
▁rena
▁Front
▁extracurricular
▁haze
▁Dynamic
▁flips
Me
oke
▁wack
▁Robins
▁recap
▁cob
▁donkey
gera
amount
▁savannah
cat
nterior
▁cingul
▁Bless
credit
chai
▁lifesav
▁capp
▁Name
▁feedstock
▁preferabl
▁formulation
dam
▁compartmentaliz
▁Fash
▁deficienc
▁augmentation
rance
ongratulation
stella
▁contraption
istrust
▁Socrat
▁Paper
▁surreal
▁redempti
▁conditioner
▁Rosali
▁drape
▁grandson
▁Kerm
▁geometrical
▁recapitulate
▁OS
▁syllable
▁serendipitous
▁Pur
▁evict
▁interven
▁Opportunit
▁referral
▁Ferguson
▁engender
▁Meet
CO
▁bachelor
▁mermaid
did
GB
▁cherr
▁LS
▁Conservative
▁Person
▁Wins
ubert
▁mischie
▁diligent
▁lame
▁Fountain
▁dictators
Write
▁sneeze
▁Jong
▁crate
▁bows
▁103
▁pellet
arcelo
▁habituat
unge
▁Sacr
▁heroine
▁Nu
▁prosecut
▁legislature
▁landline
iscal
▁consolidat
num
itzer
▁zap
▁procreati
LA
CU
▁Cret
ace
▁Ordinar
▁chap
▁Judi
eman
▁expansive
onia
▁squash
▁scalp
▁botanical
▁Raz
▁extremit
▁Neal
▁dishearten
▁Hamp
▁bilateral
▁neurolog
▁grower
▁monoculture
▁hedge
▁repairab
▁Definit
▁swor
▁depart
▁precipitous
▁warlord
worm
▁romanticiz
▁Giacom
▁relieve
▁savor
▁brigade
▁Obi
dust
▁brace
▁bankruptc
▁archaic
due
▁earner
▁Atlas
▁Por
▁domes
ntu
ifying
▁sharpen
▁rugged
illi
▁torment
▁Gail
▁approve
▁Keene
▁eleven
▁Cow
▁falcon
▁Temple
cero
uk
▁interfer
▁dehumaniz
▁multitude
▁override
▁wrench
▁theorist
wig
▁Inca
▁exhaustive
▁virtuoso
▁Liz
▁Gaga
▁grit
▁cliche
tha
▁Shaw
▁culprit
▁colossal
taka
▁grandkid
▁reforest
▁versatil
▁retrieve
▁osteo
▁reimagin
ketch
▁waterproof
val
hstan
▁Hur
▁emitter
▁Population
%
▁lifeless
▁rightful
ception
▁rigor
▁absorpti
▁flicker
▁blinding
▁trolley
▁Lauren
▁Bow
▁signifi
cro
▁Tre
▁Adult
▁tab
▁69
▁HA
▁rejoice
▁circl
heim
plex
▁profan
▁superorganism
▁gigaton
▁Direct
▁ellip
▁dreamer
▁catalyze
▁cadaver
▁blip
▁reconfigur
dish
▁successor
▁millionaire
▁Marl
for
▁dives
▁Tib
▁ROV
dder
▁intensifi
▁Tod
▁gibbon
▁ranger
▁logger
▁regrett
▁Orange
▁valu
▁Declar
▁Enjoy
▁siz
▁reconsider
▁buff
▁Vice
▁homophobi
▁scrambl
▁pundit
▁perverse
▁Ultra
▁haunting
▁gravitate
characterization
▁Path
▁grum
pressive
erox
▁elude
▁Official
▁Shuffle
▁Empath
▁typewriter
▁swims
▁Enro
oko
▁Kahn
▁asymmetrical
▁agoniz
▁Character
▁Spielberg
▁lease
▁emancipation
▁Dakota
▁resent
▁electromagnet
▁socialize
▁bankrupt
▁landmark
securit
▁quadran
▁biomarker
▁logistical
▁turm
▁Hai
▁Wei
▁alchem
erba
▁Terra
▁Geo
▁phi
western
▁Perform
▁glorifi
▁juxtapose
ela
▁Anders
▁precede
▁Statu
▁cathar
▁Ful
▁Rican
▁undert
planetar
▁expanse
▁Nucle
▁terawatt
▁warhead
ba
orium
SP
▁photovoltaic
▁Springs
▁martyr
▁stroll
▁McKi
▁seedling
ki
▁Momm
▁assassination
▁Ur
▁urbaniz
▁Sultan
▁exuberan
▁Bright
▁outlook
▁smog
▁cofound
▁Mice
▁smelt
▁repulsive
▁Calculat
▁moonlight
▁Program
▁bre
▁dashboard
▁Kha
▁creed
▁recit
▁rung
▁epiphyte
▁Chao
obo
▁amphibian
▁apolog
▁knight
▁tickl
▁heater
▁Kool
▁alternat
▁repay
rarian
▁Race
▁Veteran
▁1000
▁buffet
▁Gri
▁Finn
▁scent
▁homeland
▁impediment
nted
▁Honor
▁subsidize
▁Cave
▁excavat
▁transplantation
▁overconfiden
▁Refugee
▁Nin
▁humiliation
▁doughnut
▁Sports
▁tournament
▁youngster
▁swift
▁adept
spectr
▁palimpsest
loud
▁compel
▁justification
▁libertarian
▁Principle
▁pitiful
▁vault
▁gauge
iable
▁Scots
▁oversee
▁salien
lec
▁Cliff
▁MOOC
▁Hungar
▁McC
if
▁Theme
▁reboot
afel
▁Ignor
▁Cous
▁darn
CA
distinguish
mitten
presence
▁graphical
▁lecturer
▁encouragement
▁fascinate
▁viewers
▁Emer
geant
▁gunshot
▁antioxidant
nthia
▁Salt
tari
▁kidnapper
▁Galen
▁launder
▁Parag
ubb
▁BA
▁Aren
▁subordinate
▁whi
▁Flow
adema
▁shiver
▁Ga
▁hibernat
hell
▁Matth
▁illustrator
▁Fuku
▁Frankenstein
▁unsettl
▁Paol
ueens
ett
▁Ishi
▁Bor
▁proceeding
▁Grave
▁nanotube
▁verna
dia
▁183
▁capitaliz
▁crucifi
▁pseudo
▁coupl
trand
▁Goose
▁Income
belly
▁virulent
nvisibl
▁eu
imply
▁Album
usp
▁broker
▁slapp
▁geyser
aras
lies
▁exo
▁worsen
▁Taji
▁discern
boy
gli
▁reiterate
▁deceiv
▁Content
▁Card
▁unsuccessful
▁NBC
▁06
▁supernatural
pine
▁spinneret
erine
▁tendon
▁agreeable
▁Mine
▁decimal
▁modem
▁valuation
vier
iri
▁graveyard
▁Antoni
▁Creat
▁vigil
▁referen
dum
▁Grame
▁airstrip
coherent
uc
bed
fit
uiz
estro
▁contour
▁ferocious
▁ulcer
▁riddle
▁Columbian
▁Dow
▁Proct
▁Gamb
▁Spread
erin
▁gin
▁Whistl
▁subscribe
ale
▁hunk
▁rotor
▁certification
▁Pha
▁bodi
▁Malthus
▁earring
▁omni
▁Barn
▁Consumer
▁hurd
nar
▁Samar
midst
▁Anatom
▁showcase
▁rect
▁converse
▁mechanistic
▁schism
trium
▁skyline
neous
▁domin
▁mosaic
▁deflation
▁keyhole
▁Stem
▁Choos
▁disrespect
▁dent
▁crevasse
▁Belgi
▁granular
▁agri
business
catch
▁Cens
▁Tele
▁Eisen
exhausti
▁ec
▁unpopular
▁shrub
▁Hua
▁Tai
▁permitt
▁lunchtime
tree
▁consorti
atari
▁Religion
zen
▁Tol
▁fuss
▁affordab
▁trump
▁academ
▁escalator
▁biomechanic
▁spew
▁Explosi
▁asthmatic
▁tenant
▁fabricate
▁Ottoman
ets
▁sculptural
AIDS
▁memo
osh
▁Won
▁opossum
▁pitcher
▁Bac
▁affirmative
▁anesthetic
▁SC
▁sled
jad
▁Kuznet
eating
▁gli
▁modulat
trude
▁ab
▁affluen
▁megafauna
habi
▁Sahar
▁Val
hocolate
▁reviewer
▁menstrua
▁screenshot
▁replie
▁rhyme
▁delta
▁puls
ental
ates
▁Frost
continent
▁motorbike
vald
▁bidd
▁bloat
▁reformer
mail
DL
▁senator
readnought
▁Hemlock
Hex
suit
▁Nem
rumpet
ros
▁preconception
▁buckle
▁decompi
▁sunrise
▁cedar
▁bask
▁rhythmic
▁mamma
▁impoten
sitation
MG
▁Cheetah
iev
▁Rag
www
▁Neuro
▁cornerstone
▁Rafi
viv
▁Stephan
▁archiv
▁manifesto
irming
emise
▁hitchhik
▁lunat
▁soprano
▁Disgust
▁unsuspect
▁sophomore
▁damp
reek
▁Siren
▁Ghanaian
▁visa
▁boulder
▁clot
▁ferr
ulite
▁seeker
▁Bats
uinea
▁biennial
▁wingsuit
ox
path
▁psychic
TP
▁Metaphor
▁newsroom
▁Gill
▁Ave
▁cigar
saurus
realistic
▁Pleo
crony
▁Sela
▁sulfate
▁Moti
▁Matrix
▁fu
ubun
▁Tamp
▁cauliflower
▁1860
▁Navi
▁moratorium
▁Capital
▁Cran
▁Ferris
umblebee
▁Atkins
ulling
▁jit
▁Dew
▁ligament
▁Auguste
▁fratern
▁sq
▁habe
rajan
▁Krishna
▁Lynn
▁Denn
▁Barric
▁tepui
▁rejuvenati
▁valentine
▁cog
▁papercutting
▁Tembere
agenc
▁Torajan
▁Rabi
▁Oslo
▁Hama
spirational
▁defecati
▁circumcis
tool
▁landmass
▁thermodynamic
▁Locke
▁Traffic
▁stud
▁frenz
▁Strip
▁wisp
▁Chas
lios
▁majest
▁Pale
ote
▁Knight
▁Hew
▁customize
▁perish
▁dweller
▁Livingston
▁configur
▁Volunteer
▁Month
▁wobble
▁eclipse
▁lumin
▁emanat
▁coalesce
▁chirp
▁Proton
▁evade
aya
▁Mai
read
adi
grass
▁entrenche
▁redirect
▁Jeep
▁Namas
▁intrigue
▁replant
▁Croatia
▁indebted
▁auntie
▁mutter
▁invok
▁Yugoslav
▁alchemist
▁Balkan
ife
▁untie
▁Marx
ourne
▁sponsorship
▁fiddle
▁mills
rma
MPA
SS
RS
▁grappl
▁perpetuat
▁revis
▁allud
▁Instagram
▁emerald
impos
▁idiosyncra
▁Initia
tric
zu
▁articulat
▁bearer
▁walker
▁flirt
▁51
▁collateral
▁pier
▁freezer
▁vigilant
▁Twist
▁Sexual
▁lucifer
cycle
▁shipment
▁automate
ille
aster
▁deduce
▁pulley
▁Tribe
▁Inspire
▁avid
▁indict
▁lament
▁GM
▁Gorge
▁Guang
▁pl
▁cottage
▁Mega
▁Wish
▁bonk
▁hallucinate
▁handkerchief
▁Frog
▁accuse
▁roast
▁figment
▁convuls
▁hexagon
▁beverage
▁retriev
▁lynching
▁Powel
▁devalu
▁grandpa
▁Berm
▁skater
▁placement
▁mortar
▁supervisi
▁biofluorescen
phy
▁lizard
▁twinkl
mming
▁Hyo
▁Folk
▁unintentional
▁traitor
▁knuckle
▁Elio
▁Reu
▁Volta
ire
ixon
▁crayon
ime
▁backseat
▁Lear
▁Yar
ñ
vant
▁prose
▁validate
▁Blow
▁Foot
▁wildfire
▁trumpet
▁latch
▁Seth
▁concession
▁Burr
▁Photograph
▁sociolog
▁humanize
bring
▁Spence
Bot
▁Metr
▁roaring
looming
▁decompos
olites
▁starche
▁inflammat
▁archeologist
du
▁predictab
▁Charter
▁Beatrice
▁Czech
▁wiretapp
▁exporter
▁doorway
▁Labor
gulf
▁Amunds
▁sto
▁Seek
seum
▁locust
▁serpent
▁freestyl
▁gruesome
zanne
▁Tribun
▁reap
▁Wheat
▁Reddit
▁syllabus
▁feeder
▁residu
productive
▁adhere
▁Reason
▁sixteen
▁chronicle
nage
▁preemptive
▁homeowner
▁Levi
▁interpreter
▁appalling
▁Philipp
size
▁Woods
▁subscriber
awi
▁timetable
▁declaration
▁Sister
▁tortoise
▁chariot
mus
▁decree
▁registr
▁amend
▁picket
linear
▁idealiz
▁Champ
▁Concert
▁manic
actic
▁Mendel
▁Piece
▁GI
▁clown
▁utensil
▁overheat
▁Nova
▁interspe
IUC
▁woodpecker
▁concede
▁Kand
▁Klee
▁Liberal
▁deluge
▁piercing
▁siren
▁sniper
sai
▁chopper
▁conscientious
▁sparkl
▁Feed
▁squat
▁bioengineer
mine
▁Hunt
▁Need
▁coincidental
▁karat
▁revolv
ugs
▁clam
▁Watt
lab
▁motif
▁Bomba
▁Kashmir
▁voil
▁Kevlar
▁Silk
▁CSI
▁Basin
▁Uzbek
▁GMO
▁Extra
▁Morris
▁Heaven
Sphere
▁overstate
▁Edge
▁Bau
▁Bod
hore
▁outlier
▁elde
bin
current
▁exhilarati
uterin
▁TEDM
▁Brea
▁individualiz
▁altruistic
▁Caraca
▁Fact
▁dynam
▁incubat
▁interrogat
upper
gras
▁Chaga
▁peni
▁bastard
hun
▁buoyan
▁Piazz
▁Argentine
vi
▁ditch
wksb
▁chorus
▁ci
▁unsolv
▁dizzy
▁drench
▁throne
▁prognos
▁pharmacolog
▁braille
difference
▁Biolog
▁bulls
chen
ei
▁narrate
▁aristocra
▁amendment
▁voucher
▁subscription
▁dismantle
▁institutionaliz
▁Sally
▁Kardashian
▁vintage
▁handicap
IB
▁diffus
▁canyon
▁meteorite
rium
▁renegade
▁lagg
▁strait
▁Lenn
▁Arman
▁nostril
▁Touch
▁Napoleon
▁sac
▁safari
▁Legend
▁tug
▁dime
▁ocul
▁App
minent
▁interconnect
disciplinar
ander
▁Extrovert
▁parse
▁patern
▁Grandpa
▁Lou
▁Myster
▁Clai
▁Wan
▁unquot
▁Eddi
▁venge
▁shimmer
▁angiogen
fund
ecca
▁congratulation
▁cyclone
▁Terrorist
hole
▁Trans
rucker
▁Twi
▁Industr
▁metabolize
▁panpsychis
▁emblem
▁rot
▁Dari
enheim
lla
▁slick
▁Giulia
hen
▁inventive
▁erection
desk
▁archipelago
▁stagna
▁envelop
▁lowland
load
▁dilute
▁145
▁Rhode
strom
▁stirring
▁innoc
▁induction
▁uni
centric
▁quilt
▁disintegrate
acre
▁regenerat
iliac
▁Barri
▁Cra
ff
curable
▁landlord
▁spong
▁municipal
▁arch
▁Mahab
▁Terminal
still
▁guise
▁Worm
▁Scr
▁soci
happiness
▁incapab
▁Body
ajo
▁apath
▁predecessor
▁capsiz
▁capsize
▁shred
▁songwriter
▁upstream
guard
▁strangle
▁Value
▁Correction
▁su
▁Branson
opping
▁miserabl
▁Mort
person
▁ellipse
activity
▁stemm
▁idio
▁hassle
▁renown
▁plato
▁cas
coast
▁Cartesian
▁rever
shmi
▁doo
▁Cambria
▁Original
ara
▁disperse
▁Kelle
▁Dome
marks
▁tenet
▁contaminant
▁postpone
grown
▁Claus
▁snatch
▁Billion
AB
▁sunflower
▁Drop
▁Bobb
▁Slim
▁echolocati
nhuman
▁acoustician
▁sucker
▁discriminat
▁Pax
▁parcel
ea
▁subtl
▁receipt
ection
▁Magn
BL
welt
▁Potato
▁Rita
▁pony
dimensional
▁heighten
▁caricatur
▁biochemical
▁wag
▁phobia
▁quarantine
▁Gu
apoli
▁prosod
▁Marcel
▁Marie
▁fascis
▁respective
▁resonat
▁hegemon
▁merci
▁Fab
ker
▁crossover
▁Spend
▁humongous
▁maximiz
▁Brin
▁Join
iana
▁Combin
▁persuad
▁formalize
▁deviate
▁Fro
kut
▁Fr
▁enclos
▁dams
▁occupational
▁Decade
▁domesticat
di
▁blockbuster
▁progen
▁dispense
rap
▁Past
▁blackout
▁blower
▁procure
▁narcotic
▁Entrepreneurs
▁Commerc
▁Porter
▁restrain
▁unanimous
▁Jude
rystal
▁wafer
▁abnormalit
▁deregulati
▁conven
▁Sim
iv
vana
▁ebb
▁connotation
▁genu
▁Butler
▁ensu
▁Igbo
▁rodeo
loop
▁luxurious
▁unreason
▁fission
▁specify
cake
atchi
▁retouch
technology
▁Mur
▁Abdul
▁latte
▁orchestrate
▁insur
▁strangl
▁perplex
▁hilarious
ona
▁nipple
▁bracket
▁Ada
▁Kla
▁Wales
▁overlay
▁Witt
▁crum
▁morbid
▁Lisb
▁Scripture
▁NG
▁corpse
▁retard
▁Frederic
▁Timo
lder
ugger
▁Moh
▁euphori
▁funnie
theism
▁assassinate
▁spigot
▁Polo
▁catapult
▁Gaia
▁lipid
▁waterfront
▁McKin
wall
▁preposterous
▁incessant
medicine
▁telephon
unus
▁horr
endous
powder
▁roadblock
▁Mott
▁perpetuate
▁collaps
▁ration
onic
▁wiper
▁skat
▁teller
▁Ramo
▁linkage
▁micrograph
fusing
▁Frate
▁Dublin
▁volant
▁testif
plant
▁aphorism
▁WIT
▁Gov
▁AAA
▁interruption
▁scold
ige
▁coexist
ogeno
▁Dinosaur
▁entanglement
▁crumb
▁infiltrat
▁remediati
setting
track
▁DD
▁subversive
▁unmann
▁sunburn
▁provinc
iji
▁Marian
▁endowment
▁sacrific
▁Fundamental
rlock
▁Yard
▁neurosurge
▁Meso
bench
▁recite
▁injector
▁Centre
▁conspir
▁outfitt
▁painstaking
▁Aero
▁adjective
osa
▁predat
▁Indo
▁Ku
▁Wis
▁ke
▁peg
▁spur
▁incomprehensi
▁Ethan
▁gestat
▁Et
▁Sheikh
acco
▁Khal
▁retroviral
▁Follow
▁Draw
position
llows
▁pervert
▁undesirable
▁Extraordinar
▁tumble
▁hypothermi
▁grammatical
▁Smok
▁Nintendo
▁harp
▁aqua
▁LD
▁Travel
▁fis
cheri
▁circa
▁conquest
▁juggler
HD
▁lamps
qualifie
▁intolera
▁Emmanuel
Len
▁conclusive
iz
AE
▁Dra
▁copepod
▁decibel
▁Jump
▁dissertation
▁invertebrate
▁juncture
▁coauthor
▁Wealth
▁Creativ
ennial
▁communica
▁irres
▁Regard
▁Rough
aft
▁Guil
▁amplitude
▁Str
father
gai
layer
▁despi
washer
▁disprove
▁cyst
▁milieu
▁Petri
▁skate
▁Stars
dol
▁retrospective
▁Ashan
▁checker
▁Mulli
▁ephemeral
shoot
▁Wilk
hat
▁gran
necdo
▁Clare
trick
▁crumple
▁disgrace
▁Tse
▁Tung
▁rob
▁quadriplegi
▁paraplegi
▁bathtub
AW
▁Mimi
▁Nest
▁molt
▁hippo
▁parch
▁outlive
weapon
▁precogniti
▁Arup
▁Transport
stoke
▁muffle
▁poignant
ode
▁Rata
▁Experiment
▁voracious
▁afflict
luctu
potent
▁zin
▁Meta
▁superconduct
▁quarrie
▁expir
mi
▁Responsi
▁Guin
ulent
zos
▁zipper
ify
▁1600
▁ju
▁Che
▁validat
▁worshipp
▁cramp
itan
▁ELA
▁LC
▁bristle
▁shrine
▁viper
▁Chamb
▁eff
▁migrator
▁Citizen
▁launcher
plin
▁disco
▁quarti
▁Emba
yama
▁Francesc
▁Centur
▁Dhara
▁battalion
▁artful
▁Blank
▁Sloan
▁scripture
▁Speed
▁mint
thought
rman
▁dum
▁parliamentar
▁Caucas
imo
ntifa
▁crystalliz
▁Sant
▁cellar
source
▁Olu
▁wield
▁Boulder
uri
▁Kart
▁Fed
▁Cro
▁DA
eller
runch
isco
▁reunion
avage
▁triplet
▁saunter
▁headrest
▁Gris
yota
▁weightless
▁parabola
▁sour
ambian
▁Edd
▁Allo
▁obsessional
▁palate
▁plutocra
ante
▁Octavi
▁Movie
▁rewild
▁Shephe
▁Wad
▁bureau
▁Summi
▁Mujahid
▁Elliot
ppa
bread
▁Techno
▁Goat
▁Toba
aggie
▁Fight
ul
▁Tomm
▁insure
▁Arav
▁Adventist
▁TE
▁throwaway
influenza
▁Carri
▁HT
▁hal
▁unicorn
▁trekk
▁calibrat
▁micrometeorite
▁Tyrannosaur
▁tidi
gaga
▁liminal
▁astrophysic
▁fudg
▁conceptualize
▁gerontolog
saver
▁chemokine
▁Sculpey
▁mycorrhiza
▁desiccati
▁hypersonic
▁biologic
▁Ecos
rotherhood
▁memoir
▁reced
▁jarr
▁resell
▁Celebrat
▁91
▁Physic
elian
▁crossroad
▁plaza
▁borough
▁congest
▁ludicrous
▁crescen
▁emphasiz
▁Nep
▁boo
▁plead
▁consumable
▁homogeneous
▁fifteen
star
▁emanate
▁deviation
▁Fourt
▁pacifi
▁Ran
▁humiliate
▁Warrior
▁griev
▁expel
kar
▁headscar
▁devou
▁Sak
enia
▁queer
▁discord
▁Liberian
▁uncompromising
▁loft
▁bookshel
▁bipedal
▁Intelligent
▁Behavior
pod
▁DAR
▁Roa
shell
▁slut
arriage
lithi
▁moderat
▁Mayo
▁ox
▁congratulate
▁polygon
▁maverick
▁adventurer
▁Loren
▁Cambodian
▁brothel
▁grunt
▁Sash
▁Feminis
raib
▁trampl
▁magnific
▁crevice
▁panda
meal
▁inundat
▁melan
▁referee
▁esp
▁nightgown
▁Kiss
▁derail
▁Ambassador
▁hotdog
▁indulgence
▁EPA
▁topsoil
▁Biological
▁maneuverab
▁torpedo
▁Cycl
▁KT
▁ba
isplace
▁fallac
▁Ptolem
▁Astronomer
▁factual
▁Benz
▁Wilder
▁percolate
▁transient
▁Valdez
▁glut
▁trapping
▁refiner
▁dwelling
trusion
▁Kat
▁hitch
▁apocalyptic
▁Sag
▁lucid
▁macula
▁junction
▁Loud
▁Mira
▁biodegrade
▁Fra
▁flask
▁photocopie
▁piling
▁inhaler
▁Northeast
▁Dia
iju
▁barricade
▁transgression
ib
▁wit
▁conjecture
▁heredit
won
▁Clar
▁furr
▁royalt
▁obliterate
▁kicker
▁profanit
▁sparkle
ogi
▁drudge
▁craftsm
▁hobbyist
▁apocryphal
▁dystopia
▁glitter
gang
ontemporar
▁banish
▁pitche
▁Musician
▁enrag
▁rustle
▁Sung
▁meticulous
uckerberg
▁symbolize
▁cache
▁discontinuit
▁neutralize
phage
▁Memor
▁trickie
▁retro
▁humming
▁Till
oalition
▁Eno
▁Ferr
week
▁entic
bump
▁Vote
▁Trac
romeda
▁Olymp
▁coffin
▁nasal
▁Monet
▁synap
▁Ce
▁convent
▁regiment
▁aerosol
▁optional
▁matern
▁Edm
▁gem
▁Felix
▁demoraliz
▁symmetric
▁Incident
fer
▁allerg
▁Bosc
▁Horizon
thological
▁beeline
▁urg
ailing
▁lodge
▁haptic
▁carbohydrate
▁herbicid
▁precarious
▁recuperat
▁KPI
▁Remove
▁Tam
▁Pot
▁Glob
▁ritualistic
ainforest
▁hoist
▁Hobbes
▁bluff
▁invoke
▁Rahm
▁Nadi
anal
▁lavish
growth
▁elitist
chan
▁backdoor
▁fixate
▁Rie
ellar
▁jumbo
▁marinat
▁Tan
▁metaphysical
▁Abac
▁Shell
marked
▁unavoidabl
▁trim
fast
▁sentimental
▁Teenage
▁registration
▁Lives
authoriz
▁affliction
▁Ser
peg
upta
▁Burg
▁cheerleader
▁Smithson
▁Genetic
▁Henri
▁Haz
▁Taj
▁taint
▁Wor
▁Psychologist
blanc
▁screech
▁Sami
mate
▁toenail
nada
▁Starr
▁postmodern
▁captivat
▁Mat
▁Polaroid
▁Surpris
▁stump
grease
▁rut
▁felon
surmount
▁Colomb
iam
▁Ganesh
etallic
▁salvage
AO
zzie
▁Kill
▁inspection
▁wicked
▁reflector
pant
rab
isine
▁Steam
coal
▁illustrat
▁Gasp
▁oxide
▁2040
▁interrelated
vold
▁hasten
CG
oni
▁ghastl
▁Joan
▁Cats
eye
▁Thought
bag
case
▁bracelet
▁paralyze
▁saliva
berto
nourish
▁yank
▁comrade
▁Individual
▁sabotage
▁hamster
acama
antha
▁observator
mission
▁Fit
▁brainwave
▁unbor
▁underpinning
trial
▁crib
▁alcoholic
▁Pedr
▁metropolis
▁bustl
▁Moga
tto
educat
etas
▁Sina
▁Mee
▁Few
▁endow
▁Gil
▁modernist
Tun
▁discontinu
asa
▁AP
shea
▁Argu
▁Rac
aka
▁Loon
▁strata
▁Hug
▁Rube
▁Gramm
uron
wheel
▁Powers
▁Borne
▁crumble
▁Colo
gne
▁electrify
▁viv
▁Abe
ozy
▁myopic
sighted
▁Disabilit
▁probiotic
▁01
▁132
▁pathological
eau
▁damned
▁scaveng
▁mashup
SHA
▁scavenge
▁sideline
▁cinder
▁hydrophobic
inted
ragg
▁styl
▁monologue
▁Log
▁uncann
▁pierce
etter
▁aeronautic
py
lude
▁Rare
▁rebell
▁seafarer
▁soot
brot
▁Spade
▁Wayne
▁Mis
▁olfact
uent
nister
▁Triplet
▁conve
▁mora
▁temper
▁deceptive
▁Kelvin
▁scor
▁Alien
▁Rip
▁hospita
gmatic
▁inexplicabl
▁denie
▁dubi
▁rapist
▁flyover
aseball
▁batt
▁appendi
▁rigidit
▁ML
▁promiscu
speci
▁splendor
ilhou
might
▁Linked
▁materialist
▁sardine
ster
quin
▁solicit
▁Garb
▁Donne
utting
▁rehab
▁Chap
▁Libert
▁Tourist
llis
▁Contrast
▁tentative
▁gull
▁refract
▁max
▁bunk
▁attribut
▁Olso
▁Rid
ocular
rdinand
▁statistician
▁obstruction
▁merchandis
▁salon
▁Ji
▁Proto
▁incredul
▁whoop
ifty
▁Hoffman
withstand
▁enforc
▁cohort
▁stale
ubs
▁unspeakabl
▁Bit
▁Dickens
▁modulate
ita
▁perfumer
uca
▁waft
▁aroma
▁Daw
MM
▁DU
▁banner
▁Hale
▁karm
▁herring
▁atrophie
▁abrupt
▁mater
biotic
▁decompose
▁Canop
▁Mate
▁Starck
▁Bert
▁Sugar
▁Grann
▁Vene
▁tread
▁kap
▁explanat
▁Task
differentiate
▁commune
▁Prius
▁criminalize
▁inefficienc
▁flashback
▁predispose
▁Stevens
▁cashier
▁Blog
▁woodwork
▁totalitarian
lima
face
▁barrage
▁Nile
▁kernel
▁Nas
▁defibrillator
▁Reader
ock
▁Myco
▁eukaryot
▁Reporter
▁Friend
▁tutorial
▁Programme
▁nomination
▁overthrow
▁defendant
▁interrogati
▁defa
nstop
▁meditate
▁rattl
▁influencer
▁congregate
▁Biologi
▁insulate
▁strategist
▁chuckle
▁waltz
atum
iquette
▁Ep
ief
zb
ollah
trove
discover
▁Chau
▁Biblical
▁Gospel
▁minimiz
park
▁flea
▁Terroris
▁rationalize
▁sec
▁generational
balance
port
▁Migration
▁mural
▁Shin
▁Priva
▁exhal
stick
▁commence
arm
▁vomit
▁sweatshop
▁Dani
IRS
▁acry
▁Bai
92
▁updat
▁cutter
▁psychoanalyst
▁Mum
▁Googl
los
dling
▁chemosynthe
▁dehydrat
▁fatalit
▁menace
▁Soft
▁epidemiolog
▁Isabel
▁Cruis
culu
pression
▁Mir
ample
guide
▁embellishment
▁fiddl
Pont
▁Mile
▁nationalist
▁latenc
▁suspens
▁spiderweb
▁Hoove
awkins
▁Steel
▁Franc
osi
cchi
▁oscillate
▁cleanup
GF
azi
▁loot
▁rework
▁Spaniard
ades
crow
lor
▁immu
uay
▁Chamber
▁exponent
▁inspector
▁Hend
▁ROM
▁conserve
▁Hirsh
▁communicative
▁spokesperson
▁blo
▁carot
▁coco
irs
▁Golf
undr
▁watercolor
▁Ador
oma
tus
▁Classic
▁naturalist
prene
▁Meggendorfer
▁formaldehyde
▁Kui
▁malign
▁Danger
▁Invent
▁hmm
eers
▁salts
▁comprise
▁disorganize
▁perturbation
TH
hari
▁meditat
▁habitual
ungu
▁Homs
▁compiler
▁Yve
▁pleasing
▁prim
▁Glad
▁termin
▁Dum
▁Idiot
▁Guide
▁Kare
agora
▁Institution
▁sine
▁conc
▁geni
▁Mut
▁hetero
▁yak
▁Deb
▁infusion
▁Sch
▁Lud
▁purport
▁Remi
▁jubil
▁kneel
▁splendid
lene
▁proverbial
▁solidify
▁slee
▁swells
▁Eurasia
paleoanthropolog
▁discreet
▁blatant
ological
▁linguist
▁Border
▁transatlantic
▁wrongful
▁alibi
▁carnival
▁Officer
▁Fische
chos
ppos
▁incongru
▁superstition
▁patternicit
▁balm
▁trampoline
▁Charlotte
▁phil
▁gleam
▁Faci
pilot
▁creationist
▁nauti
▁Rai
▁cryptocurrenc
▁Programm
▁Om
SI
▁regress
haram
▁Gell
▁Eco
▁Charle
▁supervisor
▁Moral
▁Bath
▁Euros
▁Ric
astro
▁disembod
amorpho
▁herder
▁FAA
▁pothole
MD
▁somber
▁professionaliz
▁anorexi
love
bu
▁syntax
▁Field
▁McN
▁misnomer
▁sensational
▁reconfigure
▁limp
▁redeem
▁Ree
▁erod
▁Investigat
▁Risk
▁gee
undra
gi
▁reinforc
▁Siste
▁Dud
lity
▁seams
iation
▁Tasmania
▁quintessential
▁RP
▁simplification
▁Gravit
▁Airbnb
▁roundabout
ifi
vious
▁buoy
▁Maje
▁bible
▁stewards
▁UAV
ilapi
▁Pig
▁grasshopper
▁cray
▁replenish
Swat
▁directional
itz
▁Tuscan
▁baffl
▁Penguin
▁fledg
▁coastline
▁malfunction
▁dystoni
▁DB
safe
arty
idge
haul
▁complement
▁201
▁rivalr
▁denounce
▁Wo
emen
interdisciplinar
▁delve
elle
à
egitimate
▁divisive
▁allowance
▁Bunn
▁blaz
▁servic
▁mechaniz
▁Chapl
▁rabi
▁necrophilia
▁incentivize
▁consultanc
▁Detai
▁Brut
AA
▁Braun
▁Extrem
step
▁obedien
▁Sey
▁nominee
▁uphill
▁Ukrainian
▁Hatz
▁prosaic
▁Ride
▁grapple
▁glaring
▁cardiolog
▁tabletop
▁bash
▁Class
▁schm
▁drunken
▁flank
80
▁chees
▁swordfish
▁Chicken
▁Dun
umi
▁flamingo
ivore
▁forefather
▁seab
▁Bhu
▁Winfre
▁multicellular
▁dishonest
hower
▁snowball
▁formidabl
▁incurr
▁shun
lectic
ceptive
▁enterpris
▁Mah
▁plateau
▁sigmoid
▁Whip
▁navigator
▁Reich
oro
▁patrol
▁bathe
▁Cesar
▁inducte
▁gill
▁Scout
▁dosage
▁Device
▁glimmer
▁Kip
▁tribu
bane
▁asymmetr
▁Samb
▁brib
▁Treasur
▁amass
static
▁Cay
▁splashe
▁Cheap
▁unlearn
▁Euler
▁Curt
▁Cube
▁Conno
▁Albania
▁kinder
▁soulful
air
▁Pond
try
quart
▁Storytell
▁Maur
▁Borg
▁distinguishe
qui
▁Eva
▁caffein
▁nic
▁disenfranchise
stopp
▁Note
▁ginger
▁stagnat
▁clueless
handler
▁rewir
▁Carme
▁commercializ
▁laminate
utonomous
▁001
▁steadi
▁Luri
▁unmov
imbabwean
pact
▁fissure
▁Mick
NE
▁detective
▁filtrat
▁chuck
▁rift
▁smoker
▁lobster
keeper
rofluid
▁Christie
▁compile
gled
spot
▁squint
wire
▁lamprey
locks
rush
▁Bottom
▁Lock
▁revise
uestions
Key
▁chu
▁deceive
▁resignation
▁refusal
▁Gunshot
answer
▁tripp
▁Anto
▁lichen
▁Tumbl
▁swipe
▁Lovelace
▁rete
▁locomot
▁superstring
▁fem
lasting
▁espresso
hemical
▁Stefan
Mail
▁OMG
▁reenter
▁Pai
armac
publish
heir
plausibl
▁auster
bove
ocracy
▁forge
▁Approach
▁Separate
▁Priya
▁truss
population
▁Niger
▁Chimpanzee
dec
▁Typ
▁shopkeeper
sburg
▁Leaders
▁Oke
▁suffocat
▁exacerbate
▁encrust
▁salin
▁ventricle
▁stabbe
▁Ambien
▁Mae
▁scribe
▁und
▁abuser
▁choke
▁secretion
▁Benoi
▁Brasil
cation
nterprise
▁Fal
nfrastructure
tadium
▁gutt
Damn
vocative
cursion
▁repayment
▁Nikolay
j
liant
scribe
▁orator
▁careless
▁rebellio
▁Baptist
▁Charlesto
▁Dong
guan
▁parrot
▁Mormon
▁halo
▁Corps
▁sho
▁TMS
vik
▁tortur
▁freight
thic
▁Scarlet
order
amara
ethical
▁homolog
▁Satellite
ARE
▁Sweet
itiba
onchi
▁Cooki
enne
eplay
▁Kob
▁Khad
illa
Net
▁railing
▁unapologetic
▁Caj
▁Meat
▁insula
▁counterfeit
▁micrometer
▁Pygm
▁photojournalist
▁reveren
uin
domi
▁WISE
ainment
▁JU
▁newcomer
▁nanomaterial
▁Meadow
LB
▁spoof
▁Wol
▁personalize
▁Monster
▁Lean
▁Krug
culin
▁Yin
sala
▁burner
▁Pino
▁terro
▁obituar
▁quadrillion
▁Poli
▁procrastinat
▁anagram
nox
pers
▁Rawl
▁Rus
▁rhetorical
iscus
eld
▁Disp
atcher
cam
▁seminar
▁Review
▁Luxemb
ourg
▁undef
▁Lockheed
▁reinforcement
akir
▁Calm
▁vertebra
▁Sardinia
▁sneez
▁Fun
▁Mm
▁Rattl
▁nematode
▁finer
ench
▁Kang
▁Winne
▁sprinter
▁sheath
▁glamoriz
uff
▁Disorder
▁fang
▁tame
▁Philistine
▁Israelite
▁slinger
mak
▁quantifie
▁subtraction
iku
▁grann
▁SOLE
Space
Card
▁snare
ophis
▁kludg
hri
▁MacC
▁clonal
▁retrovirus
▁locavore
▁yarn
▁Sheep
LL
▁Oma
dict
ango
▁Vander
hnu
▁Fau
▁reinnervat
▁Yang
▁pra
gist
hopstick
Sh
bab
▁Breath
▁Goss
▁Condo
oh
▁hospitaliz
▁scrot
▁AA
POO
▁citation
▁Comment
▁Hack
▁Hacker
▁Debora
wake
inform
mphatic
▁Brahmin
gali
▁Meyer
▁Pyramid
▁Safeway
▁snapper
▁piazza
▁Usa
▁blazar
▁euthan
asia
▁speleologist
foil
fabricati
nterval
▁Venture
▁rejuvenat
▁electroly
▁sporulat
Secret
▁miscarri
▁demobiliz
SAF
▁legitimize
▁oppressor
▁banquet
▁localize
▁loo
▁Shri
mobile
hound
master
▁skateboard
▁sandal
▁Stir
ario
▁omniscien
▁jostl
focus
▁clad
process
mov
▁foll
▁farewell
▁steriliz
▁visco
ugging
▁drawback
▁swell
▁bail
▁slack
▁wreak
▁sur
▁Prussian
▁industrious
▁Static
▁reignite
▁modernize
▁Jod
▁conferr
▁encroach
▁wrath
▁bindi
tute
▁Lesbo
▁dyke
▁Macedonia
▁Serb
hai
woman
▁Bachel
▁Bros
▁slang
▁pip
▁RM
pock
▁Care
▁defuse
▁Crisis
▁Era
same
▁opiate
▁decen
Tri
▁Platform
▁axle
▁actuate
▁giga
▁RoboC
▁mach
artial
▁insidious
▁hobbi
uixot
▁BB
▁dimple
▁stew
CS
▁Answer
▁fluff
rak
▁Passion
▁Tutsi
pendo
▁excruciating
▁molar
▁Empower
▁transpir
▁tombstone
▁discretion
▁intersectional
▁cum
▁deplor
▁Integrat
▁MDG
▁abs
▁Cost
▁occupie
yrene
▁inoculat
▁crustacean
▁Protei
▁censors
▁wiggl
▁goddam
▁asshole
▁rememb
ux
ilia
▁parall
eagle
▁Pran
▁dynamite
▁tuxedo
log
▁pairing
meister
▁layout
▁hallucinat
robe
▁determinant
temporal
▁superb
▁ornament
▁dispenser
izer
say
cell
keep
parallel
lest
▁Medic
▁Tra
▁bystander
▁Wake
▁enclave
▁interlock
▁Debb
▁unattainabl
▁hog
▁monochrom
tin
▁seahorse
visor
▁hawks
bill
▁innumera
▁Fus
▁condescend
▁android
▁discoverer
▁Dys
▁hyperbol
▁redistribut
▁socialist
▁Fla
▁Je
vous
iring
bok
▁sketchbook
▁Works
▁riff
▁proverb
▁dips
▁garde
▁sigh
▁generative
▁herald
▁Lesson
thical
▁regurgitat
▁Nonviolen
▁brainwash
▁panthe
▁Ske
▁162
▁invader
▁squadron
▁recombine
▁disable
▁leapfrogg
▁adju
▁adamant
▁Gun
cles
xter
▁scripting
ounds
▁unsur
▁thirtie
▁Myth
▁archeolog
fi
▁intestin
arta
competent
▁fluctuate
▁diversif
▁Conflict
ova
▁Aware
▁Ster
eligi
▁Micronesia
ue
▁Tong
▁convolution
thi
▁furthe
▁presenter
US
uffalo
▁cantilever
▁asymmetric
▁Scha
astic
▁Lith
▁Baro
▁Siz
▁Delight
▁Prad
▁Waldo
▁Pioneer
▁honeymoon
▁fling
▁gritt
▁disorient
▁attache
▁swoosh
▁sweeten
▁scrape
▁bolster
▁var
roa
suck
▁bumme
iva
nigma
▁scorecard
▁Anti
▁escalate
▁arbitra
▁reciproc
▁bam
▁petrifie
▁Aus
▁obscene
▁Eis
▁retaliate
▁deterrent
▁mafia
uett
▁boar
▁resounding
▁interst
▁Lamar
▁amusing
runner
▁tranquil
▁skipp
▁nub
▁hypocri
puncture
▁workaholic
▁mansion
▁insatiab
▁provocation
▁freelance
ecession
▁Punch
▁Hayd
hasa
▁unconscio
eke
▁columnist
pez
▁glint
kne
▁shameless
▁Canne
▁Dig
▁telegram
▁Cind
buster
▁thump
▁Karma
▁Leop
▁keystone
▁Beth
▁Multiple
▁auro
▁uneven
▁Tinker
▁Eskimo
▁theologian
▁preoccupation
▁Fare
▁Fuji
kav
▁featur
och
▁unearth
uvre
quoi
uiet
human
▁Moment
▁pointillis
▁slump
▁Hendri
▁Limit
▁cavi
▁mus
cide
▁witch
▁consequential
integration
ieve
▁Hamburg
▁Maasai
bled
▁nitr
▁Bloc
▁Babylon
▁bod
eppe
SE
ents
similar
▁wick
cloth
▁surrogate
▁disdain
▁Ideo
lew
fresh
▁Pilot
▁Hammer
▁Appro
▁Copa
elic
▁parasit
▁calori
▁abdom
▁hospitalization
▁obstruct
▁Diab
▁swan
▁persona
▁coupon
po
▁Er
stretch
▁demograph
▁Kins
citi
▁Kua
▁Herman
reason
▁tastie
▁pleasur
▁vir
▁Kurt
▁lymph
▁flop
▁Booth
▁Byr
MJ
▁supremacist
▁CS
arious
▁Eme
▁View
▁handset
▁Shall
▁Maso
▁Kub
anger
▁Ells
▁tracing
iler
▁Shangr
▁drumm
▁Dart
iyan
▁Pomp
▁conservator
42
▁Lesl
rne
▁Block
▁Thor
rugal
▁Nokia
▁erratic
▁hotline
hydrophobic
▁loosen
▁Struggl
▁homesick
ssa
▁popularize
▁Categor
▁Lander
▁Mons
▁CH
finder
▁Region
▁Practice
▁embolden
▁purge
▁pitfall
▁sailboat
ersk
▁Beer
▁gamble
▁astrolog
▁nihilis
itte
▁hound
▁ravage
▁periodical
remarkabl
▁unmar
▁Straus
▁Diane
▁dup
JA
▁vulgar
▁purg
▁Rom
asse
▁admiring
▁gnaw
▁incurable
▁Raw
▁Physici
peake
illes
▁Key
▁bulldoz
▁smother
flagell
gal
xi
▁Alleg
dence
▁yaw
▁mor
▁ingrain
▁Miz
▁stag
▁Style
▁Axel
▁Monument
IA
▁Includ
▁multiplic
▁Memori
▁Garr
▁dispatch
pool
▁explorator
▁suff
▁unambiguous
▁barge
▁Push
ving
▁proponent
ush
▁submissi
▁999
▁Seem
▁loung
▁resid
▁lov
▁Gee
▁Promet
bioreactor
nthropocen
▁Seren
▁humaniz
▁unmanage
▁hunker
▁Additional
uru
▁Arch
▁brow
ET
▁Sanj
▁corru
▁shantytown
▁Hilar
ndi
▁defecat
▁mattress
▁Harb
▁joyous
harata
imini
koll
▁Lyn
▁weasel
▁Magellan
▁homeopath
liv
▁Rosa
▁shackle
▁prerequisite
▁Munic
▁Gur
▁hex
▁Borane
▁1910
odorant
▁DL
▁sprain
▁mudslide
▁Admira
hallow
▁pharmacist
important
rwin
▁fig
▁Rust
will
coma
▁onward
mun
▁Gile
▁Haw
▁chipp
▁Pisto
▁Rutan
▁Capitalis
abo
▁epitope
ptococc
▁dart
▁discrepanc
▁underestimat
ching
aming
▁Score
lando
▁hairdresser
▁predomina
tely
▁Webb
▁dupe
▁Desir
▁Ugh
▁paddock
luck
▁infrequent
▁Lak
▁luminescen
trap
gill
▁mule
▁coalmine
▁interchange
osni
▁dodge
▁RF
▁theatre
▁bayonet
▁burqa
▁Dorc
▁Jac
▁Flapp
▁uncontroll
▁124
▁Oval
▁rescu
▁Brave
▁Bech
▁flunk
▁repress
▁picnic
▁Return
▁boggling
▁Boomer
▁snorkel
▁seism
tions
alga
▁holo
▁Shrin
uring
▁squawk
▁inflexib
▁Cluster
▁assort
▁reagent
▁unsatisf
▁treatise
spatial
illus
▁transcription
▁Laz
censor
▁Geni
▁verification
▁crypto
ange
blow
▁authoriz
▁Berner
▁Snake
▁snout
▁slit
▁incarnation
avail
▁quadcopter
olved
▁Jacob
▁typolog
▁amenit
▁Famine
▁disregard
▁prudent
▁antigen
via
▁undetect
leg
anne
▁Material
▁aesthetical
▁finalize
▁crucifix
▁fascist
curricula
rthodox
▁refram
▁mesmeriz
magination
▁Regular
▁unl
▁scribbl
▁succinct
ecture
ydia
mpact
ij
▁Minor
cks
▁Wilb
▁Demos
Art
▁chisel
▁Mathematician
▁Limo
win
▁hackerspace
berman
▁cavefish
▁township
▁Communis
▁Shaker
▁Guns
▁SO
▁Ko
wan
▁comma
▁militia
▁Historical
▁Daily
▁rout
▁pseudonym
▁Ether
▁Maid
▁clergy
▁accrue
▁Burundi
▁conduit
▁bladders
▁Atala
voir
parin
▁parochial
▁whal
▁substitut
▁retool
▁treasur
▁raindrop
▁tripod
▁hermit
▁Frieda
▁contra
▁fumbl
▁sci
obab
▁baboon
▁Attack
▁scorn
▁homemaker
ruba
▁prune
▁amputate
▁toothpick
▁behead
▁underg
▁sentinel
▁supercharg
▁Gersh
icular
▁VI
far
▁bliss
▁unquestionabl
ahneman
▁crinkl
▁denote
▁prodigi
▁triangulate
▁starling
▁disobedien
▁Dunn
coat
▁exhum
▁Moi
38
ometric
▁pharma
▁pulp
elix
▁bifurcat
▁misunderstand
▁Eviden
▁sublime
▁unscientific
▁TA
mark
▁interw
eaving
▁Selas
llegal
ryan
▁emigrate
▁Whitopian
▁vanishe
▁trilo
▁dais
jack
▁whirlwind
ustralopithecine
▁climat
▁rupture
▁reenact
▁cannabi
▁exonerat
▁Calvin
▁Throne
▁decorate
MV
▁Track
▁Pavlov
▁Skinner
clock
berger
▁smudge
▁geologic
todes
▁biomimetic
fruit
ologist
▁neurotic
▁stimulant
▁assertive
▁revitalize
vat
▁tetrahedron
▁ico
▁snug
adesh
▁boon
hru
Hub
▁Exploit
▁Tart
▁Cu
▁Prior
▁Perm
rene
▁robin
▁transact
kit
▁sixty
▁mingl
▁vol
▁hors
▁deprive
▁dumps
▁demoralize
▁inaugurat
▁boggle
▁purifi
▁diametrical
▁revolutioniz
oom
▁facto
▁Rau
▁Guan
anamo
▁angrie
▁affinit
▁signify
▁perpetrat
▁eulog
ull
▁Smile
▁concentr
IP
▁Continu
▁glu
▁etch
▁Benn
▁motorize
▁Win
▁nay
ayer
▁averag
aca
▁Akro
▁PG
▁Hunting
lessi
valence
▁heft
▁seep
▁Emotion
▁Imperial
▁Strong
▁ovation
▁Gustav
▁Calcu
mony
▁metamorphi
▁kangaroo
▁Throw
▁profil
▁Kimb
▁squea
mish
▁relic
▁Chester
duous
▁negat
▁quantifiabl
furt
▁Cher
▁Blockchain
heav
▁asbestos
olo
▁estuar
▁infiltrate
▁dredg
▁landslide
ration
▁sclero
lo
▁stagnation
▁refute
▁recombination
▁hu
nsect
▁noodle
▁inaction
▁Lankan
▁gall
bladder
▁conferenc
▁enlarge
trade
▁Adventure
▁Magellanic
▁Bra
▁upwell
▁flipper
▁Emory
arietal
▁myelin
▁gracious
xx
▁hone
▁Nye
▁Hook
ostraci
▁handcraft
▁Gaul
▁pictograph
▁Schr
▁entangl
▁Carolin
▁Basqu
▁galvaniz
tory
▁foreg
▁Rapid
lunk
aja
▁bugger
▁proportionate
▁inscription
▁Spartan
▁maiden
irate
nium
tower
nyl
▁Silent
alism
▁mutagen
bashed
▁BlackBerr
▁admin
▁rental
▁occlude
▁lenticular
▁Excel
▁computeriz
▁typesett
▁squad
kins
▁vegan
▁heretic
▁handshak
▁secrete
▁Thom
▁nanosecond
▁Pythagor
House
normous
cum
▁redistribution
▁forceful
▁masturbat
▁Cub
▁cerebell
▁Diam
▁Sherpa
▁southeast
▁notch
▁befriend
▁impur
▁breadbasket
▁seamount
eascape
▁riches
▁parodie
▁Camill
▁McNugget
▁biomolecule
▁Shre
▁instigate
▁Gay
▁enlarg
▁heretical
▁terroriz
▁correspondent
caps
▁mariner
▁ergonomic
▁Shut
▁Polynesia
▁atoll
oque
urd
▁Fields
▁Eugen
▁binder
▁eve
▁babysitt
▁bestow
▁putrid
▁measurabl
▁rivet
▁unequivocal
▁boob
▁downgrade
▁voyeuris
▁tabloid
▁topical
▁interrogate
▁Hubert
▁Chancell
▁Bris
rapture
arian
cker
service
upert
▁mustard
uja
▁Pollut
ocardi
▁Improv
▁duff
shirt
polo
▁Harar
verage
▁conclud
▁decapitat
▁Oriental
▁Conner
▁overtake
▁demoli
▁Liber
▁coz
▁parox
▁Wald
▁McCart
ane
AR
▁concurrenc
▁monogam
▁swelling
▁imm
patio
ritz
▁presiden
▁Operat
▁ordinari
▁Rail
▁turntable
▁Mood
▁ramification
▁monogamous
▁lu
▁revel
▁Ara
cho
▁EG
▁adopter
acia
▁hardwood
stray
▁lent
Fi
bach
▁misspell
▁credential
sumabl
trachea
▁Raven
▁Grad
infect
▁restructur
▁finalist
tie
▁heterogeneous
▁tracer
▁anatomic
▁Bag
▁ponytail
▁Honest
▁Enri
▁confluen
press
▁magma
▁Jai
kra
▁Dictionar
▁skew
▁Portra
HR
▁handler
▁trek
▁Buch
▁beaker
thora
▁revision
CH
▁Paralympic
FA
▁duel
▁stru
▁buttress
▁Presto
▁decrepit
▁antiqu
heikh
▁Musica
deal
ave
▁rehabilitate
TT
▁supervillain
▁si
RNA
▁dox
▁Modi
▁populis
▁misle
▁rendition
wick
▁beatbox
low
skri
▁enorm
hini
▁CM
▁indelibl
▁unjust
▁colonialist
▁Nicaragua
assum
▁Wiki
▁Sketch
▁Column
▁Vine
▁inoculate
▁vine
▁uphold
▁MO
baba
▁embroider
▁Albatross
lbatross
rigor
jab
▁Gauss
▁Unbelievabl
▁Winds
▁flopp
▁recur
▁Steine
ator
▁unbe
▁Extract
nz
record
anti
▁kinesthetic
production
▁hacks
entious
▁spann
▁deconstructiv
▁Ballet
▁combinatorial
▁Route
▁fixer
onical
bble
▁Donors
▁Cer
cane
system
▁Mesopotamia
▁neuroprosthe
nya
nx
▁pragmatis
▁fluctuat
▁Confuci
▁caretak
▁rash
pedia
uan
▁woodcut
▁jug
▁fella
▁cesspool
▁telemet
ES
▁Expert
▁malpractice
▁stimulator
▁Vul
▁Brei
▁Berr
mo
esque
notic
▁veneer
VC
▁excrete
rat
▁SOC
▁Lil
▁hush
▁irreducibl
▁utterance
▁Letter
▁Yu
▁Tani
▁Resu
ritte
▁perpetu
▁bookmobile
▁PDA
▁sublinear
▁Singh
19
egel
▁thumbnail
alif
inoco
▁cyberwar
▁refuel
▁Cho
▁bookshop
▁relinquish
▁cleric
▁pai
▁Otto
▁turf
vin
▁partition
▁platin
▁lotus
▁Lotus
idian
hem
▁Kun
▁jettison
▁bridg
BO
▁Dir
▁unknow
▁intelligibl
▁Sha
percepti
stoy
▁hatche
class
▁acco
▁Eil
▁gyroscope
patient
▁Tate
lear
▁oncogene
acin
▁sieve
front
▁insignifican
▁disma
▁dizzying
▁grimme
PO
▁medicate
Ex
▁Cock
▁Riker
▁adulterer
nterpreter
▁Enrique
▁BO
MB
oya
▁arterial
▁Hutu
▁flier
ASE
eli
augh
▁Foldi
▁prote
▁Giv
▁Tour
▁Sev
▁Lev
filter
▁nuptial
orani
▁blizzard
lia
▁leach
▁appare
▁exabyte
▁drags
▁fuselage
▁Hara
▁Carly
▁locus
▁info
▁trope
▁Nir
lumni
connected
tchie
▁Berth
▁Alg
▁lexigram
▁barter
▁bombardier
ivot
▁mola
▁Evel
▁autograph
▁insanit
▁predisposition
▁splint
▁improper
▁scarr
▁congratulat
▁flogg
▁Cas
▁transgress
▁arsenal
▁retiree
apping
▁Gutt
▁understandabl
▁servo
hazard
▁archae
naut
▁broom
tif
tium
▁Andrea
▁Supermarket
▁incinerat
era
▁TAC
aro
▁dine
▁blueberr
echo
▁retoucher
lie
▁Important
▁caval
▁disenchant
▁negotiable
▁memorialize
▁Gambi
irlfriend
▁fibroid
▁Kwa
▁Worth
▁trawler
▁Jain
▁Organiz
▁Pate
rati
▁amplifier
▁1840
brandt
ord
▁veg
▁Remittance
▁unleav
▁Pra
▁Marrow
▁accretion
esha
▁Merck
accessibl
Africa
▁Swazi
▁trespasser
▁Batter
cep
▁overreaction
▁Pav
▁newsprint
vastatin
▁Bagel
▁ya
▁alternation
anga
udi
▁Brist
itopia
▁Dop
▁Cen
▁centenarian
▁Marg
▁recede
▁Okoll
▁Jiha
▁benevolen
▁jihadis
uisance
▁zeppelin
▁cybercrim
▁TG
ethyl
Ship
One
▁gobble
platin
▁Vis
▁Habit
ama
▁trocar
burst
mula
▁intro
ampire
▁Forer
▁transformer
▁biophon
▁Amur
▁Prat
▁predate
pad
▁autops
▁twig
gam
▁Cala
▁foldout
▁chute
enji
▁trucker
▁interpenetrat
▁objectify
inka
▁Blanc
▁Kymaerica
FORM
▁gangsta
▁germinate
▁germinat
▁constru
▁Wave
▁Aga
▁Brenda
▁atavism
▁Sumatra
flower
▁Bubble
▁Antony
▁Tidy
▁spoofer
▁messiah
▁starship
▁purchaser
▁Hamme
▁Harmon
pirator
▁Kurdi
orio
▁Carder
▁guillotin
▁Straw
uperhero
alah
▁Toraja
▁reluctan
▁Wash
▁vaccinator
▁urinat
▁locomotive
▁Humvee
rsche
▁Wil
oulevard
▁palat
▁Partheno
▁devastate
▁suffic
▁materialize
▁storefront
▁biker
▁ninja
▁1880
▁Flemi
▁Uran
▁destroyer
▁Humph
▁cater
▁clippe
▁Boo
cia
▁Finish
▁Equ
aturation
▁MH
▁mush
illion
▁Element
▁errand
▁rideshar
▁mallet
▁Galactic
▁Thump
▁anticlima
▁cacophon
▁Appalachia
ichu
rosy
▁brutalize
▁machete
▁slander
▁injure
chie
▁bewilder
▁defiant
▁overturn
▁fe
▁shrug
▁Leah
▁duet
▁grin
▁bloodsh
▁headdress
leaf
▁Southwest
ilingual
▁whiz
▁macaron
▁Bomb
bsent
▁mechatronic
▁rim
▁Cable
▁Limb
MU
▁Ch
▁Elastic
▁Artic
ulate
▁Serp
▁umbilica
▁acquaintance
▁Pupp
▁figurine
▁STD
crabble
▁cruci
▁Cob
▁tang
▁Finch
▁abort
▁gems
kman
▁maquette
▁enunciate
▁Skin
▁Botox
▁factoid
▁hairstyle
▁Turin
▁poof
▁tiptoe
▁Paula
▁volu
minous
▁Jerem
▁polyp
▁cultur
▁reproduc
▁misogyn
▁Toward
▁retaliat
▁affiliation
▁Said
eering
arton
▁vasectom
cola
▁tulip
ctur
▁impulsive
Promised
▁SAT
▁hedonis
▁surfboard
zene
▁chitin
▁clog
▁reins
▁Barney
▁Dorse
▁smush
▁consequent
▁Appalachian
hammer
▁Copp
commission
▁stern
▁armature
max
59
▁excit
▁misdiagnos
▁jeer
▁fusi
▁Sack
▁Jeann
hog
▁Divisi
▁redeploy
▁odious
▁inscribe
▁fundraise
▁Broad
▁accredit
chromat
▁scorpion
▁Hippo
uar
▁Cognitive
▁Sign
▁disappearance
market
▁takeaway
▁Emotional
▁gutter
▁impenetrab
▁Set
▁evad
erra
▁financi
▁stifle
ag
pathetic
▁mortifi
▁Basel
▁hymn
▁melodic
▁stopwatch
▁groan
lt
▁emphatic
▁Essa
▁merciless
▁stalemate
▁Pops
▁IPO
▁inoculation
▁Gibra
▁vaccin
lop
▁overpower
▁Print
▁Paint
▁opener
▁rockstar
▁serif
▁Demographic
▁rectif
▁Murmur
▁flutter
▁nause
▁weirdo
▁archetyp
▁Perse
▁Chrono
▁taper
▁mummi
▁impeach
▁volatil
▁Dollar
uro
▁napp
rgic
▁Mold
▁Natali
▁Bulgaria
▁reinvest
▁Pul
▁wrongdoing
▁Reut
▁hemorrhag
▁FM
part
▁bartender
▁Statistical
▁Pala
▁birthrate
▁sublimat
▁interneur
▁flummox
support
▁harnesse
▁implore
cathed
▁eardrum
▁Elizabethan
▁violinist
▁Chance
anian
▁emoji
fferent
▁pneumatic
▁cuff
▁neurotoxi
▁reengineer
▁Repair
▁Explain
▁prowl
witz
▁indiscriminate
books
▁Highland
▁slew
▁infraction
tick
▁Statistic
stand
▁cosmopolitan
▁Shuk
zan
Surveillance
▁forebear
▁empathiz
▁anesthetize
allelujah
▁Sting
▁unplug
▁gu
▁rehabilitat
apa
▁spra
▁mul
▁sickle
▁premeditat
▁arson
fathom
▁har
▁supple
▁Planetar
▁Link
▁Rubin
glow
▁Aqua
▁OT
ickle
▁disagreeable
with
▁forcibl
▁Tho
gio
▁Viol
▁Brahm
▁Hilton
▁appall
ffer
▁liqu
▁Kyl
aptize
▁Kod
nati
▁ornithologist
▁Aria
▁bucardo
▁Lanza
▁bum
▁condor
▁heath
fel
▁cracker
▁Tere
▁Cabin
▁horri
atter
▁dissonan
▁Der
▁barnacle
▁Taste
▁Peruvian
block
istoc
▁intensify
▁scramble
erg
▁wring
LC
▁Adapt
▁Len
▁dooms
▁jitter
amo
▁criminaliz
rit
▁symbolism
▁Kall
▁quill
▁junky
▁Borde
▁rearrang
▁reintegrat
electronic
▁unwind
porosi
▁Adria
▁wok
▁marinate
▁Pyr
▁radiant
▁rite
▁extremophile
▁Deutsch
▁uninterest
▁Blee
▁McL
map
▁unthinking
▁renovat
▁constipat
▁Terrifying
▁Abdi
eq
▁trembl
▁rower
rite
▁rerun
▁amid
▁paperback
trepid
▁cavern
▁kg
akh
EM
etes
▁Scrip
comm
omic
▁genotype
▁flyer
▁Alep
mako
▁Sula
▁turbo
haka
▁bulge
▁intimidate
▁kickstart
ember
▁interrogator
▁Wolfe
▁extravagan
▁malevolen
▁sprinkler
▁spl
▁fuckin
▁Biafra
▁Gele
check
▁megabit
▁Depo
▁Plann
istress
abinet
▁fairytale
▁unobt
usive
▁noisi
▁garner
▁Shape
deli
q
▁promoter
▁Oppenheim
▁joi
turn
▁imper
▁traverse
▁Accounta
▁badger
▁rattle
andem
▁Lose
▁Approximate
Ark
▁Nui
▁Castle
▁Prit
chard
▁statute
▁Sar
▁staffer
▁Vin
▁ascertain
▁lifeline
▁LOL
▁summons
▁Comp
▁coax
▁diode
▁slider
▁teleconferenc
▁CRT
ague
▁corps
▁speechless
▁Philosopher
▁unpredictab
▁Hella
▁Til
▁impede
▁custod
▁Filipino
gs
▁Bicycle
▁predilection
▁assimilat
urk
aw
▁Roh
98
▁shutt
▁158
rches
▁roadway
▁nit
tti
walker
▁legit
▁qu
▁kaleidoscop
▁gruel
▁secession
afford
▁thermometer
▁inaugura
allah
quist
▁incline
tamina
▁VIP
▁grievance
buds
▁gild
60
▁urbanize
▁mascot
mperor
▁reinterpret
▁Ai
Capri
aku
▁Peak
▁psych
▁golia
▁Cau
▁Shop
shore
▁Dump
▁gastronomic
▁melanchol
▁frack
Pal
frame
▁refurbish
▁manne
▁aimless
▁Gard
▁reticen
rod
▁panorama
▁casino
AT
▁renovate
agat
OT
▁procession
escence
interrupt
▁freshen
▁biome
ygen
ticker
▁unreach
▁Storm
▁Jacobs
idal
▁Shameless
▁reevaluate
▁preferential
▁Bla
▁ubiquit
▁ophthalmologist
▁inflammator
▁vivo
▁perio
▁footballer
▁synchronous
bbe
▁steppe
geti
▁mastodon
▁domesticate
▁Monarch
▁blister
ueensland
▁wholehearted
▁Duck
▁shanty
▁Merced
cid
▁squatt
kaya
▁Gave
▁itinera
▁Civic
aystack
91
▁calibrate
▁franc
▁Huff
▁Humbo
▁detour
▁deficien
▁truism
▁workbook
▁sandalwood
▁distaste
mini
▁Electron
▁pentagon
▁biophysic
▁McCl
▁VH
drift
▁Pursui
▁contestant
▁doubl
▁DVR
▁tier
▁alma
▁savant
▁Terr
▁moss
tops
apster
▁Brides
▁profuse
▁Pam
▁forgetful
▁excel
coddle
▁deathbed
▁stre
▁chauvinist
▁Belief
▁ticklish
▁cancellation
▁tailpipe
▁Wino
▁lobotom
▁pertain
▁perfectionist
▁untrain
▁Demand
fill
▁mitt
gat
▁restart
▁outcompet
abi
▁grub
▁intruder
bs
▁carri
▁pipette
▁humanist
▁beautify
bearing
amorph
▁Sama
▁disassembl
ishop
▁wil
agger
cosm
▁Feeling
▁oak
▁impregnate
▁vibe
▁lipstick
emophil
▁Alternative
▁debug
▁myco
▁googl
▁underrepresent
▁underfund
▁protracted
▁wand
▁hitchhiker
▁erroneous
njar
▁Dodi
▁Reil
▁Dori
gg
oop
▁bullie
▁Yama
▁solenoid
▁bina
owitz
▁vocaliz
▁taunt
▁Whistle
▁Whoop
▁Bei
rut
▁Advisor
uktu
▁erecti
▁overwrit
lls
arus
ï
mboy
▁estrogen
▁laborious
rogat
▁fraternit
▁Journalis
▁unres
▁Frisbee
▁lifeboat
▁rollout
▁etching
▁breach
▁immunogenic
▁mag
enta
▁papilloma
▁cervi
▁Clement
▁outstripp
▁sicken
▁Bucke
▁multiplie
▁remedi
pm
▁triathlon
▁accentuate
▁Rest
▁demean
▁timbr
▁monotonous
▁Warm
gel
experience
▁storyline
story
▁Tig
▁Noor
▁Trin
▁Indonesian
▁minivan
▁resonant
▁Emirat
ega
▁daunt
▁shipwreck
ailure
▁Clock
▁Terror
▁Afrika
usi
▁pimp
▁Mugw
▁Condition
▁SEAL
▁quarterback
mbled
cense
▁Ugandan
gabe
▁Semit
▁ragged
avorite
▁bioterroris
▁weaponize
▁handicraft
▁Figur
hol
drive
▁frill
zl
▁theorem
▁Sil
▁ordinance
rona
▁stocking
▁incite
▁Wikileak
▁Divin
▁geopolitic
mud
Sens
aver
▁Salm
▁Host
razz
▁Anima
▁Wat
ifficult
▁VC
▁Gorgon
pocalyp
▁patronizing
▁superinte
ndent
OR
ycin
▁uterus
▁undeniabl
heaven
▁Gram
▁barr
sheet
▁exempt
▁Etc
▁Sali
institutionalize
▁cess
▁urethra
fuse
▁windpipe
nta
▁Cotton
batt
▁rejuvenate
▁tripl
▁quintuple
▁tariff
▁rebate
▁automaker
▁Date
ota
lubber
▁quarry
▁gho
▁recalibrate
▁Moss
shop
comb
▁thicket
urgeon
▁excre
▁vermi
ort
▁156
▁dispossess
pshoo
▁abhor
▁Sill
chlor
▁chlor
▁syrup
ven
asco
group
▁Gerhard
▁Ricard
▁affective
▁Employee
kwa
▁Kas
▁Tucke
▁microchip
segue
▁furrow
▁dun
▁levitate
▁tromp
eil
▁seashell
▁putter
▁biohack
▁rickshaw
shaw
assurance
▁idy
llic
▁Shi
▁Anton
▁caddy
▁pretzel
ago
▁publishe
itant
▁feudal
▁Reformat
ited
▁Ak
isse
▁Fara
▁Verd
▁Ana
▁Chip
▁interrelations
▁Villa
▁Airb
▁morphological
join
zoe
phyll
fauna
uci
▁intuit
▁mot
omfort
▁retell
▁tomb
▁Morgen
▁Ang
▁Pull
▁Dahl
▁Alem
ech
▁dormitor
▁unrest
eem
▁megachurch
▁aff
▁Heat
▁Orchid
▁Primate
▁chloro
▁Bump
oise
▁botanist
unit
▁nucleotide
reading
▁paternal
ographic
▁cryonic
▁hymen
▁Facilit
composition
bell
▁Milit
▁taco
▁optim
▁tyrant
▁DO
▁antagonist
▁puck
▁copi
late
▁iterat
rgi
▁conjuga
▁allude
▁SIM
▁earnest
▁Alvar
dium
▁gaz
▁paleontolog
auri
▁basalt
ryptocurrenc
▁Stella
▁cryptographic
▁clathrin
haus
simplification
olecular
▁Flip
▁Hitch
▁admirer
▁Aur
cian
▁attest
▁gyps
▁slurr
▁Crad
extrica
▁footstep
▁mortuar
▁Practical
isdom
▁exemplar
mates
▁firestorm
▁Puer
▁Yankee
▁Autism
▁certify
▁contend
▁enabler
▁radial
▁Production
▁permea
▁reposition
▁playoff
▁diaphragm
▁Maz
NBC
▁theatrical
elma
▁soapbox
chit
SL
▁Sander
tum
▁mistreat
▁Metro
ema
▁Continent
▁selfless
▁harmonic
▁Agust
▁Juni
▁vindicat
▁cape
▁recount
itos
▁cyan
▁unaffect
▁Paradox
▁swath
▁precipi
fe
▁Carnival
▁Cinema
ragmatic
▁terraform
▁Prosper
▁disruptor
▁Abra
▁atomiz
igan
▁predetermine
▁jellybean
▁relaxant
▁Vod
▁GE
▁coyote
▁chelat
▁TEDA
▁Resolut
▁kidnap
▁Demet
▁untest
▁Faire
▁Dale
▁radiator
▁Taber
▁Arche
▁Marv
▁reopen
▁waistline
▁mudd
▁pupa
▁conglomerat
MO
raine
tian
▁Stato
▁Mura
▁lav
smith
▁snor
▁comical
▁Chu
fare
pan
▁Kamp
▁screwdriver
▁immedia
▁Gott
▁Gat
▁abbreviat
▁Assa
▁Copy
▁ambivalent
▁interviewer
▁Instant
▁Papa
▁resurgen
▁Rustic
▁Bela
▁hieroglyph
▁truste
▁Milli
caria
ui
▁Translat
agpipe
▁Cru
cially
▁Aldri
▁luna
▁Laureate
▁Merri
▁ceaseless
▁amnesia
▁trainee
▁pint
▁Ferrari
▁Skill
▁Cedar
▁downplay
▁supermodel
▁compulsion
▁lucr
zza
flo
▁Airplane
quid
▁Trojan
ety
▁smear
▁Effective
▁hermetic
▁imbue
▁Plain
▁Yaman
▁Carpe
phin
▁Mei
rian
▁artifice
▁Technical
▁cork
alandar
▁capitalize
rac
▁staining
▁indig
▁Saf
elevision
▁Illustrat
computer
▁concise
SIC
▁Climb
▁Sur
▁circumvent
▁Powerful
▁wormhole
▁cont
▁Hab
cilia
▁Mosque
▁Gab
agged
▁outburst
▁unab
ularity
andis
▁painkiller
▁posteri
▁obligat
▁permissi
▁dissociate
ZX
live
▁asterisk
orta
▁Argentinian
▁Crocodile
▁Predator
▁cucumber
▁attenuat
gay
own
▁Esperan
▁Telecom
▁smuggle
▁Saving
▁fab
▁Mauri
▁unknowing
▁brim
▁menacing
lawless
▁improvisational
▁mulch
▁pastoral
▁treble
▁juggle
ggling
▁discontent
acity
▁pulsat
poch
kara
▁Arhuaco
▁ceremonial
umen
▁Angr
▁standardize
▁fixture
▁Gum
▁denomination
▁subdivide
▁queas
arily
▁disclaim
hin
▁informer
▁Telephone
▁unofficial
▁spi
etz
▁Shim
AP
▁mania
▁Siemens
see
▁ratify
▁vinegar
▁Sw
▁Engine
▁gearshift
▁Shan
▁infarction
▁soloist
▁demonstrator
▁blonde
▁Nickl
ubby
24
wave
▁oscillation
▁GR
▁shale
lexiglas
▁prob
▁swat
▁zappe
▁imperialis
▁princes
▁Example
ista
▁Course
▁musk
22
▁pineapple
▁Horribl
▁Dono
▁solidifie
rani
▁rationalization
▁Exup
▁contender
▁Shot
▁Opossum
manag
EF
▁fortress
▁Soko
▁uncontrollabl
▁Scali
▁guild
▁Oven
tat
▁Aub
▁depressant
▁rewrit
▁Ob
▁strat
▁Mon
dock
▁negotiator
▁Cypr
▁biped
▁climax
▁anarchist
rtificial
▁axon
▁abrasion
▁biometric
oja
▁165
▁Beat
gression
axe
▁Rudy
nesthesiologist
▁ACE
▁discolor
▁amplification
▁desponden
▁Carre
▁Robust
▁Cosm
▁Frei
▁Hof
stadt
▁ahh
circle
▁Garret
arade
▁Pashtun
▁Kitt
▁radiolog
▁menopaus
▁Mammogra
elated
▁Dune
▁Knee
▁haiku
▁guidebook
▁Newspaper
▁Tin
plat
bott
ruff
▁congresswom
▁Duma
aseline
▁gent
▁admitt
▁Broke
▁Shand
▁lig
▁guar
▁gangli
▁Mus
▁Pet
▁plaything
▁decrypt
▁Constitu
▁Cheng
▁Santo
▁messiani
▁scammer
▁muster
▁academician
▁Symmetr
oku
▁factorial
▁Roche
nol
illett
▁labyrinth
▁huckleberr
▁reiteration
interest
▁Spoon
▁snuff
▁apocalyp
▁Exc
▁costum
▁Div
play
▁osten
ibly
▁Jok
▁Chih
▁Comed
▁grandchild
OW
▁Pray
▁hydrate
▁Jin
▁qui
▁spar
▁Madur
cain
▁euphemism
▁trimester
WR
▁cuddle
loom
▁Tops
▁blockade
▁susceptibilit
▁Mard
▁tamper
▁Grimm
▁wedge
church
▁Levitt
▁Cough
▁beeper
▁dispel
▁wristwatch
▁fistula
▁Addi
eez
41
▁Mole
▁Mist
▁tardi
▁Hit
▁Pyth
▁subdivision
▁zombie
mystifie
▁Atmospher
▁cal
▁prefabricate
tered
▁URL
ehr
ati
▁frictionless
▁Avoid
▁ET
blot
odium
grin
▁eyelid
▁klu
▁establishe
▁Room
▁disciple
▁bikini
▁Benedict
ved
anatomist
▁remarrie
boro
apling
▁slaughterhouse
iley
▁obscur
▁stymie
▁MC
ucci
▁epitomize
▁Single
▁disfigur
▁velvet
tale
ozoi
▁Mosquito
▁trot
▁gallop
▁evacuate
▁overreact
ō
film
▁repurpose
urgical
tron
▁tau
▁Rainbow
▁techie
▁cogit
▁veri
▁Bour
▁airbed
river
▁veterinarian
▁Yam
luent
▁bandit
▁Devi
▁Begin
▁faucet
▁ventri
nchor
roencephalogra
▁concoct
▁Lawyer
▁splinter
▁seesaw
▁inhale
▁tweezer
▁Construct
▁complicate
▁Beh
▁Raj
osmos
▁bronchi
▁Johann
▁fol
iage
▁convolut
▁compuls
▁Basic
▁simmer
▁Fellows
▁stylish
▁Round
▁triangulation
▁Compar
rrection
left
▁Pu
▁misrepresent
hoot
▁barrack
▁dissatisf
▁Canaletto
hepherd
▁Support
▁Migrant
ENT
COM
▁1650
▁Krem
▁Wig
▁irregularit
bla
▁vignette
▁pamphlet
▁Diarrhea
ebate
▁trouser
rtem
ampoon
▁supersonic
tura
▁laps
▁sedate
▁Focus
▁Institutional
▁Belo
▁Gobi
▁Beau
▁encase
▁Factor
▁Grebe
▁silicate
semble
▁detonat
▁Flu
▁Famili
▁Rors
▁nonverbal
▁Chla
▁unroll
▁Sek
MC
▁Camera
Us
▁fatwa
▁Abid
jan
▁Rookie
ptop
▁hoove
▁countering
▁bland
▁abdicat
▁McCu
▁flashbulb
▁Afr
▁spic
▁consonant
▁slingshot
▁infirm
▁Au
br
erge
cocc
▁inhibitor
▁rewind
▁Molotov
entl
▁Ideal
▁brushe
inda
▁Para
▁Bip
▁Thou
▁antiviral
▁morgue
▁exemplifie
▁thrash
▁testicle
▁taxicab
▁Slate
uska
▁optometrist
uest
▁exor
bitant
▁clench
▁commiserate
▁Miracle
▁redo
▁Transform
▁predictabl
chondr
▁infern
surfing
▁narcissis
wald
▁Pri
▁rebrand
▁operative
▁Rumb
▁adjacenc
▁PDF
▁deadlie
trace
adura
referential
▁exertion
▁Jig
▁Bora
▁Taka
▁whiteboard
▁unintellig
rateful
▁minefield
WF
▁Beard
▁rowboat
arawa
▁maladie
▁untouchable
▁RFID
▁armrest
▁nonexisten
▁Forrest
witt
▁Nad
▁gestur
▁Slip
▁Vik
▁desirab
▁Fellow
toria
▁microloan
eviation
▁GH
▁Object
▁aspen
▁Commodit
▁topple
▁surg
▁Penic
PC
▁Rad
▁Vic
trola
▁commoditiz
▁Assum
▁Krisp
▁keyword
▁hangover
▁Scud
▁puffer
▁vie
▁Sid
▁quin
▁parabol
FS
▁depot
▁firefight
▁Core
koff
▁Cartoon
▁Reject
loqui
▁Yuc
▁antithe
affle
▁Darius
RD
▁proficienc
typical
▁Mail
▁wasteland
▁Bre
▁compilation
▁Hampton
▁Fur
▁SLA
▁Bois
▁Camara
▁trephinat
▁quack
▁scorch
oza
solicit
▁potenc
▁misfortune
▁plunder
▁curtail
▁Dalia
▁macroscopic
shock
▁herbal
▁Aure
hor
▁inadequac
▁Vladi
▁Tea
▁refinement
▁Vitamin
taxi
minee
nimation
▁Produce
▁fibula
▁MAN
▁mythic
▁stylize
ezza
▁demoniz
▁supplant
▁counterterroris
▁Chor
▁1830
▁Hom
▁Pizz
hael
▁Chemist
▁tramp
agh
▁subsidiar
▁espouse
▁pronunciation
▁Shhh
▁Grandmother
▁mediator
ori
▁Magi
▁Whirlwind
disc
▁Alis
▁facetious
▁Judgment
▁denti
▁Botanical
▁caravan
▁Trail
▁Bride
▁Versa
ironment
▁halter
▁Visit
▁Baobab
▁Moj
▁horticultur
▁inconceivabl
meg
ncia
▁chim
▁aching
▁Polly
▁Carry
▁Mash
▁sharecropper
authentic
▁agglomerat
▁aspirate
▁Miner
▁Stud
▁Confiden
▁bo
▁bellwether
▁Institut
▁pap
▁spectrometer
▁Cate
ziz
africa
wasab
Was
▁Kabi
gala
▁herba
▁dialog
▁Ode
▁infographic
▁capricious
▁Done
▁carameliz
▁burp
▁Bread
▁attribution
codin
▁incentiviz
▁manspace
▁Boole
vril
▁spectrograph
▁ravine
jacket
▁530
▁Okinawa
▁Okinawan
etris
▁pedestal
▁Boyd
▁invoice
EB
DD
▁Vampire
▁outnumber
ollapse
fiction
▁tacit
currence
AC
groom
▁Shirk
Gregor
▁declassif
▁fervent
▁diversion
ozo
▁Archae
▁Sino
▁Manifest
▁Melvi
▁unfulfill
▁swami
▁Smoot
rump
▁renounc
▁Goa
quawk
▁Birth
itanic
▁Anne
utt
▁Artemi
▁SH
▁repeal
▁tantrum
▁Gua
▁Sicil
▁Mer
▁uncut
▁Alta
▁Scholars
▁HE
▁Squash
▁Balkh
iari
mograph
▁untreat
lum
ordance
▁Pett
▁Skimmer
stamen
▁specula
▁Fior
▁Shiv
keteer
▁leeche
▁Boot
▁Ivo
▁Marcell
▁lingui
35
▁Nab
lian
unders
▁irrationalit
▁fiddler
▁Born
▁constrict
▁velociraptor
Market
▁omnivore
▁Scientolog
eena
room
▁mineralog
▁kar
▁kale
▁Flyer
▁medalist
▁geriatrician
▁Agi
▁monstrosit
iffen
OD
▁preposition
▁connote
▁Tunis
▁Bambi
▁undesir
hib
▁Bharat
▁soiree
▁Craft
▁multiplex
▁ambigram
▁singularit
▁Peerzada
▁Bashir
atur
▁Slink
Sacc
loy
▁oxal
▁aromatic
rik
▁Rebel
CAP
▁Reduc
jaz
uncul
▁Phi
▁DEP
▁katydid
Planet
▁jumpmaster
▁escalope
taph
idman
▁solicitation
▁Spino
PJ
▁metamaterial
▁Orca
armament
▁persevere
▁IC
▁pushcart
▁wheelbarrow
iti
▁Flag
▁inhibition
▁coop
hark
▁iBOT
▁typho
▁particulate
imeter
▁Theoretical
etera
▁pluralist
▁Injur
▁indescribabl
▁Isle
▁Jovian
▁Tremendous
destructi
▁Econom
▁prism
▁Chandra
▁sinner
▁sunbeam
▁Agent
▁Solution
▁Anesthesi
▁Decide
▁superfluid
▁soften
▁astound
▁reelect
booth
pric
rification
▁astrophysical
▁McGui
▁Eb
▁Signature
▁equivalenc
burn
▁Carrie
▁expulsion
▁unwrap
▁harmoniz
avita
▁anthem
▁str
cade
▁occupier
▁bou
▁Sista
agline
▁breadwinner
eck
▁depressive
▁Experimental
IMB
▁hexa
La
MER
entine
▁Pentium
▁Spectator
▁roboticist
▁Kitten
endorf
▁Pregnan
▁Katy
▁Hair
lb
urious
▁transpos
▁Garci
▁Sarando
▁Mam
▁clipping
▁Abuse
▁infest
▁Viewer
▁unforgiv
▁daffodil
Sports
▁misogynist
▁hillbill
inous
▁cortiso
▁allegation
▁scrub
▁midwi
▁Boh
AID
enior
offee
uccin
▁Settle
imb
schel
▁hedonist
▁acoustical
▁gush
mediate
sequential
▁attendee
amela
▁stil
▁swivel
▁blissful
ductive
av
▁toggle
peace
▁hydroelectric
▁Yuyu
▁villa
▁Volkswagen
▁coffeemaker
▁equalize
▁dement
opsia
▁concertina
▁apost
valent
abolic
god
▁Mia
▁percolat
▁illusionist
▁Terribl
organization
▁retrofitt
▁bungalow
trans
▁Triangle
▁chancellor
▁pontoon
▁nebula
▁Schul
▁err
▁puke
▁saloon
▁Knock
▁rep
▁troubleshoot
▁Luddite
▁Encourage
essori
▁Gul
▁infantil
▁vermin
▁Gyeong
▁handlebar
▁urin
▁kara
wful
▁Berni
▁Kraus
▁enraptur
▁creak
tail
ongy
▁haz
▁monoton
aclav
▁Smil
ltar
▁neutraliz
▁cripple
▁Sight
letter
▁legibl
▁Prob
▁Nail
▁Smoke
▁gr
▁underline
▁alleyway
arine
dred
▁Montag
▁histo
▁montage
▁candid
▁Boreal
▁API
▁alphabetical
▁Scoo
▁Evolutionar
amie
eigh
▁arraign
anjo
▁Romania
scu
▁hurried
▁Lack
▁Secure
crowd
▁topping
▁col
▁hobbl
▁meager
▁Philosophical
apprehension
▁Bourne
▁vicar
▁tempest
▁MIN
▁rebar
▁Adjust
▁Haitian
▁Chilean
antu
▁schizoph
▁Professional
▁Dev
pros
▁Hier
onym
▁del
▁lighthouse
▁terminate
optic
▁Investigation
▁immobiliz
▁Islamophob
▁expectant
▁Hawkins
▁cofounder
▁Came
alfa
▁Tomato
▁disinfect
▁intoxicat
▁restructure
onsumption
▁coordinator
▁sufficien
▁Jorgen
▁Vig
▁limousine
▁apologiz
▁dearest
busi
▁disembowel
▁Sla
uel
gro
▁outstrip
▁plausib
▁Schell
▁rustl
▁deterren
etta
▁Soprano
athan
▁comp
unction
▁Expand
▁bequeath
▁ambush
▁Pietr
▁weaver
▁queu
▁encyclopedi
▁lawful
▁Brett
▁permutation
▁Mirr
▁muddle
▁plex
▁mumb
▁quarrel
▁wince
ob
▁decelerat
▁Nord
▁calib
▁slacker
▁Exhibit
▁megalomaniac
▁Turkmen
▁Equator
▁Ete
▁launderer
▁campaigner
▁naivet
▁masterful
▁Hamil
▁prioritiz
▁Season
MAP
▁Cull
black
▁Immigrant
document
▁Skid
▁gregarious
▁treacher
▁concerto
kov
▁Dooli
idi
▁Amerasian
▁Bean
incin
ters
▁Restor
▁bante
▁McGre
▁plasm
kee
▁AC
▁lice
▁besiege
▁massacre
▁Hoku
▁Astaire
▁intersperse
▁riverbank
▁Acheul
vai
▁oval
▁teardrop
▁Stretch
▁nightclub
▁Bjor
▁sunbathe
▁incest
▁Bionic
▁Carrier
LEG
trode
▁Bolin
▁chops
▁Jimi
pin
▁Ruben
▁Grit
▁Khali
▁Bhar
▁Bala
ub
raman
▁phantasmagori
▁Raq
▁Kol
kata
▁porcupine
inder
▁teleport
compatib
mpassion
▁Scar
ecula
compromising
▁Ferra
▁Blu
▁bun
▁tid
bits
▁Lynch
▁Rond
▁spurt
▁irrigat
▁irrigate
▁mooring
▁popul
▁cropland
rrigati
illage
▁Perspective
▁astro
cons
▁eschew
▁Arra
▁Astronom
▁hydroph
ilic
▁hepati
▁dipstick
diagnos
liter
▁lance
▁Terrifi
▁rev
▁Gan
▁Birkenstock
▁Blink
▁thoughtless
NAS
▁Proceed
▁bragg
▁Leopard
ister
850
▁Previous
bus
satisfaction
▁megaton
string
▁wrapper
swam
Strip
▁physiologic
▁Phillip
glycemi
▁Chronic
tails
fibrillat
▁homoph
▁cede
risk
▁geographer
loa
▁Lumpur
▁valor
▁Nur
scientific
▁lib
▁aristocrat
ears
▁Denis
▁meander
tonewall
▁Litt
▁DI
▁Larami
▁Participant
closure
▁rapper
▁arse
É
puis
▁Shout
▁ep
▁undernourish
▁Lex
wind
elation
olla
onal
odera
▁deGr
▁lur
▁hydrophone
▁whir
▁Atoll
ophilia
▁chan
▁Boul
cada
▁programmatic
▁Brande
othing
▁befuddle
ired
tinent
▁Arr
▁Evaluati
▁retriever
sights
▁Tik
bi
▁Glas
▁File
▁deregulat
▁Grass
▁Accept
▁pic
▁Venkat
▁abbreviation
PD
onger
▁nastie
science
▁nibbl
ribble
▁hoodwink
▁Gran
▁Strength
▁homogeniz
▁reshap
▁topographic
olcano
▁Kitty
ipping
▁Ship
xious
▁garr
▁Hear
▁misdirect
▁rationalist
anthropic
▁kayak
▁Aquatic
▁popsicle
▁marathoner
▁Chel
restrict
ction
▁Ventur
▁polymath
capture
▁Positi
sible
▁liespotter
▁Oberl
▁Domini
▁Murder
moto
▁panacea
▁decei
▁unscrew
▁droid
▁drow
▁relish
▁dwindle
▁ob
▁impersona
▁deliberat
rely
▁adipo
gone
▁anomalous
▁Representative
▁Label
▁Asteroid
▁gangster
tambo
▁Bogot
▁paramedic
double
▁rehydrat
avilion
▁Gradua
▁Suggest
▁triangula
▁perforate
blaze
▁wrack
▁Aww
▁dangle
▁Horr
▁dino
▁Hump
▁coefficient
▁homeowners
flight
pal
▁denigrat
▁astrologer
tifying
▁Wooo
▁pancake
▁Cit
▁sandstorm
▁pterosaur
▁paddl
▁Sc
idio
▁Dill
234
▁Ott
▁Shock
bacteria
geographic
▁rendezvous
post
▁standout
▁Jul
▁dendrit
▁Casp
▁exhalation
▁climatologist
▁cask
85
rocious
▁Mossad
▁realist
▁yo
▁spammer
▁notification
▁spous
▁munch
▁Chatt
▁peri
▁repellent
▁Fires
▁blitz
▁unlov
rucks
▁rejoin
▁Whew
ugali
▁perspire
▁glare
▁tarp
▁Roc
inha
strada
nando
motion
vign
▁Luxe
▁dispassionate
▁Observat
klov
▁teaspoon
▁countertop
▁quadra
grad
▁psychotherapi
▁mandala
▁Relax
▁aversive
▁Mich
▁condolence
▁paratrooper
nzyme
lich
cabana
▁Mural
▁Surround
crew
▁Phu
ket
▁outsource
▁airlock
▁inquisitive
quench
▁taxonomist
▁arbore
▁recoloniz
▁Scene
TSE
▁troupe
▁flori
▁florist
▁Seminar
▁Ot
▁ARV
▁UNITA
▁jeweler
▁godfather
▁McEw
beki
▁clamp
▁Staph
ococc
▁dexterous
▁slosh
▁sinusoidal
▁stereotyp
DW
▁Cort
▁Hono
dorf
▁remed
▁sociopath
egret
▁spool
▁uninsu
▁irrevocabl
▁glib
▁Rott
▁grieve
▁panhandle
▁mastermind
▁Prosecut
▁prosecute
uthentic
▁Fidel
▁Yuk
alatin
▁permacultur
▁maggot
▁broil
▁earthworm
▁rancher
▁reanimate
▁positiv
▁transect
hard
▁alga
▁barbel
opo
▁Borla
▁Muq
atta
pack
abal
OMA
▁Durr
▁Nige
▁squeezer
▁objectifi
▁methylat
▁Unhapp
▁Eritrea
▁caliph
▁crusade
▁Gli
▁Aliso
▁Argo
▁lineup
▁fianc
▁demon
sparag
cry
▁Landscap
▁Sixth
czy
onomic
▁Respect
▁ot
▁Lars
▁oceanographer
▁unk
empt
▁arbiter
▁Nim
deck
uditorium
▁slur
cot
▁boutique
▁Survivor
▁canister
▁Mines
▁Muni
▁Timb
▁illeg
textual
vid
▁Scro
▁Constantin
tal
▁unsea
▁Voter
oundless
nformant
▁Fei
ltan
▁amnes
▁mole
tacti
grid
▁spearhead
▁139
▁Chapter
▁watchmaker
▁annihilate
▁oracle
▁Orbit
AVE
▁habita
▁tantal
▁Physician
▁spillover
rbor
▁Wolver
▁Greenw
▁confla
▁Tempe
▁Conduct
▁tinkerer
▁mixer
▁Pern
▁Kit
▁intercultural
▁iconograph
▁swastika
▁Krypton
▁Pin
▁Jal
iez
▁Threat
▁Aaaa
hhh
▁Tuft
court
▁laurel
▁Nutt
▁forgiven
▁ratifi
▁Autonom
▁Winni
▁Deco
agwa
basa
liner
ahar
▁Augment
Pro
minster
▁Bir
▁Egla
▁Wine
icero
vocation
tness
▁stitche
ebel
crystallographer
gy
▁Demo
▁Publish
indstorm
▁polyester
▁sequencer
▁satir
▁newsstand
▁interlink
nim
▁Guer
▁firewall
spil
rhodopsin
▁Fresh
ventilat
▁Pug
▁Creation
▁subordinat
▁ontolog
▁celiba
▁ideologue
▁Meme
▁Imag
lot
▁Pina
▁Cover
▁Herz
quila
▁groov
▁Fill
arag
▁Nevi
mothers
isclosure
▁leakage
▁Salin
je
hihuahua
achi
▁Juven
ariah
▁deci
▁trig
onometr
cratic
▁deconstruction
▁oligo
▁sil
con
▁Naga
▁Moussa
▁Seb
▁Brah
▁cartridge
iotic
jin
aren
▁fourteen
▁clunker
▁creditworth
▁Wheel
igarette
▁Skipp
▁chaff
▁bro
▁fashionista
▁Slice
ssig
▁cond
▁anthropological
▁licens
▁IIT
▁hydroponic
▁Marle
▁impostor
▁shoo
▁implod
▁untangle
▁nitrate
rrh
▁fundraiser
▁Level
quaint
▁subroutine
To
▁espous
ulp
▁smirk
uchin
▁methodological
▁snaps
bein
rove
oba
▁Tatooine
bio
storm
▁pagoda
ugged
▁khaki
▁Rein
▁Tana
▁Miya
▁IR
tuff
▁clemen
rench
▁cornfield
▁Saran
cott
corp
gora
▁WikiLeak
▁scrutiniz
▁corollar
▁feudalis
▁unrequ
ego
gur
▁Una
▁Atomic
▁constan
▁pff
▁Serg
▁Aman
▁biopolymer
▁Rodrigue
▁veterinar
▁uproot
imulator
▁normaliz
▁workspace
uer
urniture
▁superflu
imal
▁Sandwich
rigami
▁username
▁descripti
▁Miniatur
▁unleashe
bine
▁sympathize
▁Brig
▁entertainer
▁glean
▁Confedera
▁paraph
ernali
▁Promise
▁alluring
▁allure
▁stroma
▁exhale
▁Meteor
▁diatom
▁horseshoe
▁Fungi
▁beckon
▁categorical
▁ferret
▁vag
▁Digg
▁Australopithec
anthrop
▁primer
itochondria
▁paleo
▁contextualize
▁revitaliz
kistan
▁abridge
▁snip
▁Exo
vian
hurra
▁Innocent
▁Fai
▁Wac
▁undercut
weis
▁expire
▁Peanut
▁skirmish
pamine
▁Bil
▁Puck
▁magnificen
▁ampul
▁outlandish
▁glycine
▁alanine
▁extensi
▁phylogen
ipes
▁Guill
▁extrover
▁neurophysiolog
▁Introvert
holes
▁slings
▁HTML
Script
▁toymaker
▁jolt
▁bazaar
▁matchstick
▁photocopy
▁regal
▁proficien
dyar
▁Onco
Search
opp
erti
eras
▁buckyball
▁carnivore
▁Hydro
ump
▁Battist
▁deduct
▁Photos
▁sash
▁serv
▁vesicle
▁Protein
▁neurode
ower
▁absentee
▁thumbprint
school
▁mingle
eyball
▁engraving
nvention
▁Lem
▁Fix
eeze
▁moralize
▁consign
tec
▁Schwartz
bank
ffic
create
▁condescen
▁Chast
▁borrower
fug
▁Door
▁terrify
▁Heifer
▁bulletin
vation
rmative
▁shrewd
▁slips
▁Madr
▁lithograph
▁dampen
mori
bmaster
untie
▁Biss
▁nimble
▁Unbe
▁stabiliz
▁suffrage
ixtape
▁Wander
▁Aesthetic
teen
▁Criminal
▁undress
▁Thunder
▁deformit
▁Spell
▁Bribe
▁Atta
oilet
▁remedie
utomatic
amel
▁carpent
▁vehic
▁Strat
functional
▁transmut
▁sighting
▁Southam
rid
▁Bering
▁tro
▁hairless
▁wooll
▁bioinformatic
▁Phel
▁calcif
rash
▁gag
▁Tough
▁Recogniz
▁protectionism
▁redistribute
rington
▁cohabit
lk
▁moni
▁COP
ctive
Pad
▁languish
matter
▁empiricis
▁mountainside
▁crackle
opper
▁assertion
▁Bass
▁shaper
▁microgra
▁foreclos
▁jeopardize
awar
▁hydrolog
chin
meat
▁proliferate
▁Aussie
PER
▁hoax
▁satchel
▁behoove
▁Jeev
▁SAGE
LS
▁Laparoscop
▁Modul
▁sutur
▁extrapolat
34
▁baffle
birds
▁Arabian
▁piti
iction
▁Swan
consumption
▁iguana
but
▁Conservanc
▁troublemaker
convulsi
nix
▁underperform
▁Sent
▁backstreet
▁chai
▁personifie
▁Connection
▁fest
dible
▁Sink
▁piggy
▁miniaturize
▁sitter
▁Helicopter
copter
▁quadrocopter
▁devolve
▁Weird
▁concurrent
▁Sequoia
dendro
▁stylist
brid
▁vineyard
▁Methodist
▁affiliate
fford
▁conspicuous
▁presid
▁Crusade
beard
▁mi
unk
pt
▁pervade
▁Pad
▁Tranquil
▁profitabl
▁perturb
mpson
undance
▁dutiful
▁schlep
philis
sex
▁totem
▁Ariel
▁misbehav
▁catalogu
▁Petr
▁disproportiona
attractive
▁woeful
antic
▁Dee
▁scen
▁intermission
▁catwalk
▁luggage
prolact
▁Rey
▁microclimate
▁precondition
▁purifie
▁interc
gra
artner
▁commodifie
▁oxid
▁Possibl
first
▁harmonious
▁SPCA
▁hypnotize
athlete
afari
▁cadaveric
dmother
▁scrubb
▁Shiny
▁epistemological
▁fortuitous
▁trapezoid
cceleration
▁Gui
areful
iguous
▁veggie
▁Tudo
▁punitive
▁molest
bon
▁hypocrite
▁03
hots
rop
▁Todd
▁juniper
▁Haus
laddin
▁Turtle
▁cred
▁tightrop
▁harps
▁overco
logg
▁unplugg
▁belie
ols
corder
▁Kuri
urtain
▁ultralight
▁retrofit
▁payback
▁cascad
▁Reinventing
▁Blackbe
lung
▁feti
▁Cardi
opad
lier
grazing
lifie
▁shaker
alloon
allow
▁Rin
▁Anta
wat
cant
▁massif
fan
ravel
▁generaliz
nka
▁centrifug
flamma
▁Elen
▁tirade
▁untether
▁fixation
▁titillat
▁Schw
conclusive
▁Nichols
lke
ngs
▁Spie
edict
▁Fail
▁siphon
▁Wann
ä
supervis
▁commercialize
▁enrollment
▁categorization
▁decor
▁Mahal
omega
▁vibrio
tera
▁reverbera
▁prank
orescent
▁attire
▁pressurize
dina
▁passer
▁stencil
▁bu
prime
▁announcer
▁128
▁frisson
▁exterminat
government
▁grandios
▁illustr
mos
▁imperial
coloniz
▁Ras
▁Confucian
▁despot
▁burdens
▁Bald
▁Ratio
▁enam
▁scant
girl
▁immigrat
aper
erina
▁eyelash
▁Dumb
ourgeois
▁sequest
▁Pablo
EPF
lam
▁Jocelyn
▁conspire
▁Tie
script
▁craze
▁aquanaut
hills
▁straddle
▁impregna
▁legion
▁unw
idan
▁pasteuri
▁Jorge
▁Random
GA
▁accommodation
▁Novel
▁supercluster
memorial
▁avail
▁Reggi
▁pastel
▁flatte
▁Process
▁Yass
▁cadre
▁WMD
▁rampag
▁funni
iot
▁guerilla
▁stuntm
▁skydive
▁cul
▁collud
▁Ng
▁scala
omestic
▁teeter
▁BRIC
classical
▁Aye
▁abstr
ges
▁beseech
▁dieter
▁binge
▁strok
ody
▁accompanie
▁elucidat
fusion
▁ker
osene
▁Ashbur
agnetic
ocyte
▁Experience
▁Chrys
FO
zens
atrol
▁Tab
▁Stickybot
▁evoluti
▁colonel
▁asses
nfection
▁Jahan
▁Nabati
▁Talent
▁Schne
ider
▁Lux
▁Const
▁impersonate
▁Preventi
▁Radiolog
▁scintillati
▁proliferat
ectom
▁FE
ruct
▁Mor
▁Encounter
▁unblinking
nig
propos
collection
▁freckle
▁Herr
▁alligator
woosh
▁zoolog
armful
▁shingle
▁acclimat
▁Suff
▁precipitate
▁Mead
Mo
▁Pour
▁dorso
▁ki
▁reassert
▁Marble
▁straddl
▁Kata
▁Lexicograph
dactyl
aneous
▁cag
▁interviewe
▁infomercial
▁Luce
ajar
▁flounder
▁Latina
uter
eminent
mmed
▁woo
falo
moufl
alwar
▁SUN
lis
▁Vacan
▁xeno
▁Relativ
symmetr
▁Size
▁Candy
▁Telegraph
▁Mahara
▁Inequalit
48
▁Caps
athedral
Box
▁Rous
▁FI
▁figurative
▁indulgen
▁lacquer
▁Loose
▁devot
▁expletive
▁NE
AIS
sort
▁microbiolog
▁shudder
▁Leav
▁Sud
▁surname
▁surreptitious
himmer
▁Ilu
▁grove
▁flawless
▁Diversity
graphic
▁embargo
molecular
▁deposition
▁dumpster
▁giggle
▁Cons
▁shambl
▁Hay
olitic
▁Porto
▁Generat
▁rave
▁Heh
ggie
▁Apolog
▁unshak
▁Seko
▁cuss
▁unimagin
▁blocker
▁Kurd
▁Niet
▁Jordanian
▁Trial
▁stockpil
▁Editor
▁Sche
▁stamped
▁Fet
▁reverberate
▁yuck
▁clientel
▁prof
ligate
▁relearn
▁regroup
▁respl
endent
share
▁mercenar
zar
▁Adolf
▁Aaaaaa
cholarship
▁Antigua
▁exp
recast
▁connector
dispens
etrayal
invigorate
▁hither
▁Fru
▁Keat
▁pleas
▁Engag
igi
▁Octopus
otter
▁divulg
▁Astronomical
nits
ique
emaker
▁Niels
▁bran
▁undulation
▁cheeseburger
▁Multipl
▁168
▁heterarch
▁diminishe
▁Ridge
▁edifice
▁alkalin
dera
▁Bismarck
wax
▁gigabit
▁Tag
DAR
▁configure
arina
FE
▁glaz
aerobic
▁crystallize
▁phosphate
ain
Robi
▁bomba
▁commentator
▁pret
▁acous
▁Saw
▁Edwin
sembl
array
▁RE
▁grinds
valuable
▁lac
▁bandwagon
tran
▁apprehend
▁trimme
▁Bund
▁Flat
▁BioS
▁Leb
▁Measure
▁codify
▁Laf
▁Kirsten
NSF
▁Dela
▁SBI
amble
▁Ado
▁diff
▁Geologi
▁femtosecond
▁NM
▁floodplain
▁Brat
bal
uad
▁fantasize
▁quizz
vidian
ipper
gue
▁overuse
▁babushka
▁pruden
▁Shit
iny
▁emulsi
▁combinator
▁Macedon
▁Menstru
▁signpost
▁Gonzale
▁misdiagnose
▁proclamation
▁Encourag
▁Manag
immel
▁Slap
worker
▁Mineral
▁christen
▁Recycl
▁podcast
▁codif
▁Meg
▁BeatJazz
▁Sell
unnel
mpathetic
▁Jell
▁Pshh
umbe
▁donut
▁autocrat
icide
▁hatchling
▁necrops
mati
aker
▁Annual
▁quiver
Med
iorate
rant
Pac
▁neurostimulat
uf
▁Huf
kh
bet
▁Olympian
▁Flamen
bias
Obama
rsal
▁enriche
▁Prisoner
▁Thur
▁visitation
▁Prove
noi
▁actualize
▁rummag
itzh
▁Babylonian
lain
▁Concord
▁Philanthrop
▁holies
▁glori
▁Mess
nga
▁Fre
▁holler
▁Automobile
avannah
anager
▁zillion
evolution
rmite
▁infallibl
▁Hid
bub
tieth
▁ventilate
▁redress
separa
▁Rhodes
▁McDo
▁permeat
▁unaccount
Vo
▁Baz
▁roach
chev
▁Neck
▁milliliter
xpedition
ransposon
ccus
duran
▁Photosynth
▁deorbit
Sat
▁Intima
▁nuke
▁vaporiz
▁wan
▁spasm
▁Brak
buil
▁Regina
▁Rol
▁Monde
look
▁Couch
Surf
asque
▁BRT
▁delectable
▁whisperer
▁Shaff
▁Grande
▁cheerful
rzego
▁Subsequent
▁Diploma
wab
che
beat
▁Vio
▁Bake
ckel
▁embedd
▁solvent
▁mussel
▁bedr
▁Aden
▁journalistic
▁probosc
▁obs
▁phall
▁phonaesthe
▁oxymoron
vets
lick
▁dunk
▁superw
▁reconcil
iago
▁Bli
proven
▁glo
▁sequ
bald
▁Thirst
gnacio
usion
▁squander
ightful
▁volition
lots
▁bosom
tress
▁indic
▁unforge
▁Photographer
tual
▁Replac
▁cellulo
▁Kyu
▁Bahu
▁infrastructur
▁bylaw
asi
▁flyby
▁frontline
▁resuscitat
▁metastasize
island
▁Corv
nnec
▁valet
▁conci
▁pomp
▁scallop
▁hemo
▁Sto
▁encircle
KG
▁cath
▁angiogram
▁vocalize
▁Licht
▁Neuroscien
▁encod
▁caricature
▁politiciz
▁conn
yelit
▁orchestral
▁clothespin
▁ditche
▁Allowance
itchen
▁catacomb
par
▁gargoyle
▁184
▁mishap
▁Dik
eginning
▁pharmacologic
▁neurobiologist
▁grav
▁Lor
▁Activit
ssistant
gger
ience
bod
▁Ginger
boriginal
reams
▁GA
▁Asi
▁Mukh
▁Franken
alnut
▁sidekick
▁Comput
▁narrati
▁Teen
▁Juanit
▁octo
▁Relationship
▁Sevi
▁midwife
▁Seamount
oplas
cephalu
▁Luca
▁paraglider
fly
▁skysurf
▁relapse
▁deba
▁franca
▁Dwar
▁Rene
▁Objectiv
▁heckle
▁rewire
▁EN
▁cumul
▁Oxf
▁Terri
sters
▁Yah
▁jell
▁Hass
▁immaterial
unctu
▁gorge
▁Lup
▁Limburg
lateau
▁Avalokites
vara
▁pervad
▁enliven
▁beggar
▁Kalash
▁animist
▁hol
▁Golub
You
▁Paraly
▁corpor
▁stagnate
copia
▁evangelis
▁Kosh
itation
▁Wester
hoenix
▁wh
▁Anglo
▁Nat
▁Brod
▁peddl
▁vehement
▁pollster
▁newlywed
▁Logic
stronaut
▁infatuat
▁allocat
▁dolos
▁expropriat
▁Ego
▁hormonal
ound
liad
▁Civilization
▁convene
cup
▁ergo
▁Audu
▁Mui
rteen
upersize
▁Valuat
▁Tahiti
▁reprint
fellow
▁Cesare
▁forgo
homogeneit
▁RSV
▁cram
▁FF
ntia
▁caf
▁Pie
nian
▁Asa
▁fli
Get
▁dematerializ
▁sandbag
▁hypnoti
▁sati
▁priv
evel
▁Gabo
hil
▁subsection
▁bono
▁displeas
raf
▁Marxis
▁Agus
▁reimburs
▁telecommu
▁Lipi
▁absolve
saf
▁protege
ccident
lon
▁Diffe
▁Account
▁Grill
▁disposition
▁Islander
rescent
tter
▁1400
▁fjord
aved
▁Lockh
▁asympto
▁congenital
▁ejaculation
▁Kin
iberal
▁elongat
▁moron
oral
ctoco
▁Demon
▁Solid
▁sauropod
▁Lister
▁respectab
▁Puff
▁jugg
▁cataclysm
etus
▁oligarch
▁juris
mping
▁intonation
▁Getty
▁Fault
Brain
▁gibberi
▁bovin
treat
aril
▁Chech
▁greengrocer
▁manipula
ivide
▁meritocrat
▁Sufis
▁egotis
▁Kurdis
▁Bahrain
cotti
zel
▁swagger
▁Honduran
▁cran
▁dispersant
▁crass
▁exhort
▁Tar
▁printhead
characterize
▁Prairie
▁damm
▁gator
▁absorber
▁Brie
iate
▁piston
▁undervalue
▁Koch
▁preten
▁yogi
smal
▁defecate
▁landless
▁falsification
▁spr
commensura
▁willow
▁Famous
▁Num
▁unelect
▁clobber
▁Labrador
ntercept
▁dammi
▁infertil
ambe
▁Micro
▁Medi
▁Govern
cobs
▁Optimis
embers
▁Dubo
rfish
disturb
▁tamer
▁PB
▁Jesuit
▁furnishing
▁Suga
▁imperialist
▁placate
▁Relative
21
▁trepidation
▁Engel
bart
▁parlor
▁Corp
▁enthrall
▁popula
▁denia
▁numbing
kro
▁Schwe
▁Speedo
▁cush
▁Suit
849
▁DSL
▁Dominic
▁Ribbon
▁cordon
▁109
▁Jua
▁desiccat
▁Archaea
▁Driv
▁Billings
▁dirge
luster
▁Clif
▁Limp
▁conifer
▁Creo
▁aquaponic
nvite
▁Sein
▁Charge
▁Difference
▁deletion
▁unforesee
▁phobic
▁caustic
eeway
▁Nut
▁Bale
antee
▁invincib
kull
▁Reykjav
▁Exhale
▁repaint
gomer
▁lynch
▁Gravitation
▁Fata
▁slumber
▁settee
▁Marrie
▁Nurse
▁RK
CP
nefield
▁studious
▁remixer
▁silica
▁Narciss
▁heuristic
▁Federation
Pix
flux
▁amphibi
▁flups
▁gimmick
▁Religio
▁def
iving
▁Calcul
▁Marin
▁PJ
cclesiast
▁tangib
ilitate
smoker
▁Kor
▁chopstick
proximate
▁Switch
plate
rpiece
racial
▁watchful
▁botan
organiz
▁revolve
▁viaduct
▁cocontract
KA
mble
▁Pelo
diale
arita
▁hunche
vaz
▁Complain
▁Cir
BE
feeling
▁JP
▁drugstore
▁recalculat
▁procrastinator
▁clubhouse
lavor
▁Coa
▁Laure
84
▁Fulla
▁nar
▁Vitruvian
▁Carr
▁victimiz
▁Georg
akar
▁geoman
▁Tusca
loos
▁hangar
▁slic
uebec
embark
▁Shadow
▁disconcerted
osmi
amus
tung
▁Sum
▁walkab
going
pes
▁sailplane
FC
▁Keen
▁ornithopter
phenol
▁Sardinian
▁stanza
▁timid
brow
▁Gallo
adulter
▁Sims
▁PlayStation
zzi
▁croc
▁Var
PU
▁Buff
▁Chain
App
manuel
cogniz
▁stipulate
neez
▁shekel
▁MacG
▁complicit
tight
▁PLA
▁unus
▁ultimat
▁Surowie
▁Application
nnes
▁rac
tball
▁09
▁parasol
▁Leil
▁Fossil
▁sociopolitical
▁bol
▁excavation
▁casework
▁gyro
dox
ray
▁oeuvre
▁Gau
▁adeno
▁schoolteacher
▁firearm
hester
layoff
▁Ramanujan
ullah
ybee
▁Ahhh
▁oxygenat
attach
▁SG
▁Housew
▁snobb
▁appea
▁aboriginal
▁Nyam
fre
tomo
▁jebr
▁shal
▁Ngu
▁bulg
aje
▁equalizer
▁echocardiograph
▁Hick
warrant
▁hamb
▁epidural
Street
Map
▁unfriendl
▁Kemp
oven
▁Firef
▁Dami
▁syllab
enile
▁polygraph
kim
▁Wak
rustrate
▁Falk
ael
otype
▁Ami
▁Sharpe
▁HM
▁EL
material
▁Jov
▁undu
▁Hover
▁spectrogra
▁Roller
acula
▁unwitting
▁pist
▁vaporize
▁Hodg
fying
grunt
year
▁embalming
▁Result
zym
bors
▁Dunl
mode
▁wordscape
▁imbib
▁Libe
▁Pine
ncredibly
rumbeat
cardo
anni
▁jockey
rrhea
▁Uda
▁discourage
▁deworm
▁Deworm
▁absurdit
oting
▁Sax
▁Pira
▁stuc
mir
channelrhodopsin
▁withdrawal
arka
▁Bourgeois
▁Amen
▁cremat
▁tighten
▁Hap
▁Elys
▁Provide
▁mountaineer
stroke
▁glid
▁Alti
▁typifie
▁Logan
▁logbook
▁Masse
▁Fisk
ci
▁Poop
▁coliform
trinsic
egment
▁slaveholder
▁Ex
▁phal
anx
tepad
▁paj
▁Jian
▁opportun
rift
▁zealot
▁Bulgarian
arco
▁Discard
▁geriatric
▁Lange
▁endors
▁Prest
▁mocking
▁pooh
▁Mulla
▁Musta
▁Tud
▁Bengal
▁superchicken
▁Holoc
▁Siam
biosi
▁Stranger
hey
eshma
▁Glee
▁Kunst
pr
recht
kung
▁Bru
▁Ballbot
▁Hazar
▁Kuhn
▁Melanesia
▁Champa
gir
▁Saidull
orbital
▁Orte
▁Mino
taur
jig
ndish
▁transfix
▁Untie
jewel
Choos
Lab
▁photobioreactor
▁befitting
▁Unt
enoune
▁Prussia
▁Toast
lades
▁Noa
▁unimp
▁alloy
ph
pie
▁deflat
▁Schrod
▁crystallograph
▁microbiologist
▁beget
ttendee
▁Hocke
chach
hav
▁recognizabl
▁ante
esperate
▁Broadcast
▁confiscat
▁UI
▁axiomatic
▁denatur
▁marina
untar
▁Crack
▁viewshed
▁maki
▁Taxo
lenda
▁Carders
▁programma
▁Purs
▁Decla
▁Nerve
▁UM
▁Polle
▁Morin
soria
▁Persisten
zill
▁harpsichord
▁kleptoparasit
▁conservanc
▁blaster
scalin
▁ambucycle
▁Malli
fert
▁interlocut
▁Dialogue
▁Spri
▁incent
avin
▁subliminal
▁hydr
▁desalinate
▁Depend
▁distiller
▁Neo
▁Pla
NY
▁underscore
▁axiom
rise
tro
▁anesthesiolog
xpensive
ipment
▁Vo
odoo
olite
rilla
▁agitate
▁gobbl
▁rippl
02
gestion
uarter
▁dru
mised
▁dilat
▁Kumb
STA
▁Rigobert
▁Shui
▁darlin
▁desecrat
▁digger
▁preserver
manda
▁bur
▁ja
▁troubadour
▁Filipin
▁demilitariz
▁hipster
conservative
▁Brew
▁Barne
▁capitulat
▁custodians
▁Grouch
▁Muppet
▁muppet
▁morphin
▁Spoke
echanism
▁Lig
AS
▁Degree
▁kinematic
Wire
uit
consequential
▁Guid
▁dismantl
digit
acial
▁Cont
▁stipple
uji
target
▁transpose
▁deformation
▁sandblast
▁premonition
▁Somal
▁wheez
▁forsake
ndrogy
▁cylindr
▁metamorphos
▁deri
▁casket
mply
▁vitriol
▁neurobiological
▁nonconsensual
▁chairperson
▁contraceptive
▁airwa
▁Condom
▁tartan
▁Firefl
▁plump
oxic
▁transcendental
egreg
▁reprocess
▁pasteuriz
▁Instructable
▁Chee
▁Sav
▁grapevine
▁magn
▁Crem
▁beetroot
▁Shy
▁booger
▁auxi
liar
eductive
▁Mode
▁Obe
▁bouquet
▁Bao
▁lunchroom
▁unreal
papa
cci
pital
▁chestnut
▁Fascinating
▁Aston
▁intersti
▁inhal
streak
▁spectrophotomet
NCA
ternal
recommit
▁Forgot
▁suburbia
▁romanticize
▁Textbook
▁fluorescen
clusive
▁brea
lev
▁fluoresce
▁swellshark
▁cabbage
nex
▁Container
▁clasp
▁Hann
key
vile
▁shabb
▁wordsmith
▁monodrama
hes
▁Gregor
tled
champ
▁Dramatic
▁Amhari
RK
▁gulag
▁Sharp
▁homeschool
boys
neakerhead
▁mucosa
▁Dendr
▁decoy
▁wilder
▁latche
▁prot
▁Vir
uses
▁Barber
▁Spect
silver
▁Article
bat
▁overestimat
indee
preadsheet
Robot
TU
think
▁jiggl
▁redneck
buque
▁Reveal
▁Gerald
▁Skelet
▁Cop
▁spectromet
▁Diep
▁Alam
▁Oba
▁Barclay
▁Adenike
▁Og
motor
▁letha
Drop
▁luminar
▁Flint
taken
▁shush
▁Surina
auru
▁disincentiviz
▁dishonor
▁gluta
freez
mappe
▁dogsled
▁residenc
cial
▁Consult
▁Rewi
rahma
xpansive
▁dislocation
otional
▁battleship
▁reciprocate
▁Conf
▁brandish
▁Khalid
▁referenc
▁pluralis
▁Shoulder
articula
▁vibrator
nicate
▁Honeybee
▁clover
▁fungicide
label
▁neonic
▁destruct
▁countermeasure
▁Disengag
▁Propert
▁Customer
▁Stress
▁Precise
enforce
▁Integrator
orp
▁tenement
▁existent
acle
ilk
▁blasphem
▁criminologist
▁Associat
▁outpac
leviat
▁Bacch
bello
▁freighter
▁courtier
scient
▁elitis
▁wiretap
▁stalker
▁Muth
angu
zzol
atti
omatose
▁gladiator
▁cauldron
▁overwork
▁decompress
aholic
azov
wak
▁Crown
▁Eni
bend
generational
SCI
▁Patri
▁frisk
▁effervescen
vial
▁Dodge
ohn
kka
▁Bits
kok
dlam
▁tussle
llegiance
▁Smol
▁Flock
▁bioethicist
▁Shap
▁Automat
▁allele
▁coo
ndez
▁cryopreserv
blast
▁squab
880
▁unc
ork
▁bog
▁Wynn
tereotype
traditional
▁Stow
▁impartial
▁Bog
▁reinstate
▁Viole
▁pillag
oz
▁revulsion
▁peahen
▁blu
▁stupendous
▁Chauv
▁hairstyl
▁Rachmanino
yborg
breed
▁HU
▁belittle
▁divorc
▁geez
▁Tic
▁Tac
▁delinquent
▁bootstrap
▁Medved
iffin
▁Ranj
▁spank
▁matri
▁iterate
▁Bullet
ô
uperior
▁terra
▁Advocate
▁equitabl
hospita
▁154
▁Eri
▁incorporation
▁solipsism
▁trivialize
▁Diagnostic
assay
explain
▁eggbeater
alytic
▁gurney
▁decorator
stral
▁burr
▁blinker
▁KickStart
▁Stair
trol
LM
ntent
▁lumb
schedule
▁gynecolog
▁Atheist
▁cohere
level
vish
▁unimaginative
▁Overwhelming
cardiogra
admitted
▁gratifi
▁hypoglycemi
sthma
▁propri
▁iP
▁iR
hythm
▁Mosu
oli
▁metropole
▁hustl
▁cav
▁disconcert
▁Ci
▁coerce
▁stigmatize
▁homicid
▁extort
▁biographer
▁snob
▁essentialist
▁Suffer
confirm
ruck
▁cootie
utton
nstinct
▁Laser
tentia
▁motherfucker
▁kickin
▁buzzword
▁Mende
▁combatant
▁EO
onymous
▁deployable
▁complicat
lug
▁Astor
▁Obli
▁hydraulic
▁mont
▁longline
instrument
▁clamor
Bots
▁Flex
pol
ceberg
▁italic
▁Viv
▁scrubbe
▁Miraculous
▁shroud
▁Schachte
▁simul
▁redwood
▁Stea
▁Pall
iative
▁localit
▁crosswalk
▁prototypical
soc
▁deliverable
▁Tombs
▁Historic
gow
▁0000
▁Candidate
▁Election
banes
▁Luminos
▁dissuade
exting
▁NY
ucks
▁unco
▁pane
▁scoot
▁preheat
▁teleconference
▁daze
nker
▁startle
▁NIC
▁bypasse
threaten
surface
▁honora
▁Belarus
topian
QQ
izen
▁apparat
▁Sparrow
owe
scrupulous
▁dre
ulous
uce
▁interlace
▁Lift
▁Satisf
▁Remind
section
▁Astro
▁pulsar
▁Weinberg
▁Alc
▁flail
hack
▁Rae
▁electrocut
▁statu
ffers
▁Liespott
▁Madoff
▁overdo
ky
▁Matsu
sharing
peptide
▁Rive
roid
▁withhold
▁keynot
▁950
ILM
aise
▁VF
▁demagogue
▁deportation
▁polarize
lfare
titl
▁Crip
▁centrist
▁partisans
▁nominat
dlock
▁corro
▁Kiran
guil
▁reawaken
▁angioplast
▁admoni
cidos
▁laude
▁acquaint
ravenous
▁recrimination
▁reassess
▁Expo
bao
▁shu
▁Clothe
wei
▁zigzag
▁penthouse
▁raster
▁gov
Eye
▁mapper
euroscientist
wish
▁satisfact
▁transfigur
folia
▁overgrow
▁minnow
▁rou
lette
▁anchov
eta
▁Frid
eric
cken
▁Supercharg
▁Reus
rasshopper
▁cruis
▁Pub
▁Maris
rahi
▁waffle
▁Chur
zzar
▁Paleontolog
▁Kem
▁pontif
icate
▁Prote
tch
proteo
LIS
action
▁Nebu
▁brimming
▁panoram
ungent
atalog
▁Renew
▁Toshi
issile
▁crafter
▁PV
mill
▁Chun
▁Regulat
broke
▁foursome
wler
▁stampede
▁herita
▁Emine
inert
▁nick
ubric
▁reintroduc
▁flak
inia
chmen
▁confiscate
▁Monta
▁crud
▁beco
wning
▁Geet
▁Mutha
inio
▁Lone
▁Merce
unning
▁schoolroom
igerati
▁Poll
▁callous
▁neuroanatomist
▁reoffend
▁irredeemabl
▁amphitheat
▁Ronn
▁Est
▁Lauder
▁Mela
hromatograph
▁violet
▁thi
▁Stock
ointment
▁Fleisch
▁Murde
pole
▁awoke
▁Nank
▁carp
▁Kirk
▁Feu
rivial
▁paralegal
▁friggin
▁millen
▁lubrica
▁terminat
▁overhang
▁Frontier
arzan
▁disassociat
stresse
nfluence
culpture
▁Jodi
mask
▁Capacit
green
▁beekeep
woma
ID
real
decent
VD
imer
▁knif
▁Base
linching
stack
kk
▁transfus
▁decimat
▁reputed
▁Gl
▁Expect
▁Arcadia
▁exurb
▁unfriend
▁regretful
elp
discreet
unicipal
dge
▁unf
▁traumatize
shadow
▁dandelion
▁needlepoint
▁horoscope
▁telemarketer
▁Poly
▁fenc
plank
▁blaze
▁cauterize
▁Seu
▁Medal
▁importer
▁plows
▁bushel
▁seashore
stery
▁crusher
▁Magd
▁Bak
heet
▁Naw
interpretation
ege
▁eviscerate
▁ashtray
▁Creature
▁Butterf
▁Corri
▁Pare
cond
▁Hutchi
▁Montagu
rtis
▁infuriat
▁unwelcom
▁microcontroller
▁multilateral
▁Nusra
ethnic
ndoubted
▁uneasi
▁Filipp
▁dope
tanic
▁fiance
▁distributor
▁Merci
▁beau
coup
iec
nski
▁immunologist
▁Freak
aust
rophobic
eeeeee
▁Bider
▁Humpback
ndanger
cursive
▁Hor
▁Mug
▁bottlen
▁dyad
▁Caro
▁jobless
▁physio
▁Rashid
▁Handicap
▁Petrarch
▁firebomb
▁gelatiniz
▁Vercell
▁Subject
▁transphobi
▁disrob
▁perforation
▁sysadmin
▁handpick
▁pall
▁noseful
zz
▁cours
▁SN
▁microbiome
▁trillionaire
▁dislik
▁gambler
enter
▁misperception
▁recoil
▁abatement
invest
nteractive
▁Simul
▁Filament
▁Alcohol
▁negativ
▁Ahhhh
chrom
▁Bode
raka
▁Jor
▁delink
▁Mongol
▁Hik
▁Harun
▁Rug
▁Muji
▁wiz
rea
rdu
▁idoliz
▁Doo
▁Baba
▁pacify
perm
ø
▁Bismark
▁vu
▁cosmonaut
▁astrobiolog
▁Kalashnikov
▁249
▁Increas
▁Reward
▁refra
▁scrutinize
▁derelict
▁applicant
▁dron
▁impro
mptu
▁postgraduat
▁immunolog
▁sororit
▁Kristof
▁Klu
▁Adrian
▁Messi
▁Feder
▁Palme
▁indivi
▁transmissi
imina
uria
complexification
▁Gho
amou
host
mblyop
▁mar
▁lapel
▁Ranu
▁scuttle
▁heckl
▁boxer
▁VP
▁Googlette
▁toolbar
▁Blogger
▁foreshadow
▁Ret
▁commande
▁Lovin
▁Robo
alo
mat
▁audiovisual
ked
rner
og
▁VCR
▁Sponge
▁Spide
▁vibrato
▁sarc
▁neglig
redit
▁Utilit
▁Emilia
fir
endish
▁refund
legant
▁shopper
▁commend
▁invalidat
▁disintermediat
▁presuppose
▁Relations
▁Barnab
ease
▁Ayl
eptic
▁UNA
▁Pasht
▁tubularize
coach
▁spina
fida
FDA
▁deris
▁hauler
▁SLR
▁Lans
▁dirtie
▁tran
▁stub
▁Dayton
iat
▁harpoon
ntroduction
▁Patk
▁nestl
permanent
surpasse
oblast
▁detri
▁piglet
▁individualism
aylo
▁vacat
touris
tigation
▁gesticulat
▁cephalo
▁reptilian
▁Consequen
▁stirr
▁Fide
▁Upd
ratos
▁lowbrow
▁imped
▁Kala
▁encroachment
▁Peron
UI
▁foreclosure
hmm
pend
▁Gans
▁Shige
▁biohazard
▁superbug
▁ladybug
▁nothin
▁Possibilit
▁memorabl
▁Visa
▁Associate
eido
rative
mala
▁modu
competitive
▁disaggregat
rection
avor
moor
▁Masterpiece
design
▁Demetri
▁Ski
▁Marti
ixe
▁Rab
▁hideaway
jou
▁sinusoid
▁Dios
▁anthrop
union
▁ethno
▁deco
baum
▁pala
▁wrinkling
slaught
▁toolmaker
▁incumbent
guest
ntire
eceipt
▁ontological
▁vacu
▁googol
▁agonize
idney
Now
▁Poignan
▁excise
▁MI
▁Sta
replica
til
▁Morp
▁patroniz
▁forego
▁untruth
▁Dixie
mmigration
tri
▁notepad
▁sidle
▁congregant
▁smug
▁Kiw
▁Extinct
▁Civet
▁Walrus
▁Anot
ssessment
▁regrettabl
ealander
▁progenitor
bili
▁diverg
▁genealogist
▁typo
▁populate
▁Journ
▁Etti
oplast
▁Custom
etch
▁Meh
▁Contradicti
▁sodomiz
▁IMD
oddler
brief
▁Vehicle
▁meatball
econciliation
▁triad
▁Skeptic
▁pseudoscien
▁illus
▁superstitio
leptic
amphetamine
ACC
▁Sherm
▁anim
▁monotheism
▁assassin
▁hypoxi
▁Helm
▁tubul
▁acini
▁polyalanine
AAAA
▁GG
ope
phila
▁clav
EA
▁misconstru
▁diminuti
▁lunge
rvin
▁Naxalite
FR
▁obt
ogram
▁trapez
▁tetrap
ulk
▁Shik
▁slaps
▁Omi
▁Nestl
spresso
▁lusti
crop
ule
▁Karo
▁Blessing
▁Transferr
coin
ryptograph
▁Tomas
snake
▁IIM
IMA
▁excell
Rock
▁lax
▁Acknowledg
▁Neu
▁Nickel
emonstrate
▁microlend
▁SEC
▁lender
founder
ootprint
▁clothe
▁hiccup
▁avi
▁exemption
▁dura
▁av
constrain
▁spotter
glitz
phal
adjustment
▁Lonel
▁sonorous
▁omission
articulate
▁Nie
▁Porphyr
▁rhizo
nterface
▁elast
omers
educ
nite
rotocell
▁hybridize
▁caramel
arry
▁biochemist
uinn
▁Translation
▁Timberl
holder
▁verti
bre
kel
▁uninspir
▁bonfire
▁Reconstruct
▁Crow
▁Screen
▁upend
term
▁Bik
▁Displace
▁Kon
yaw
▁antico
▁Tape
▁plat
ntense
guar
▁Kohl
▁Humm
▁autocrac
corrupt
pologist
▁Edic
▁unbea
▁clarinet
▁Tool
rabi
▁opacit
nivorous
▁marsupial
▁trickl
▁Peni
ionalis
▁woodland
▁Ple
▁refug
▁interbreed
jar
▁vici
▁monetiz
▁Sato
▁Naka
▁speculator
Asset
Rabbit
alie
▁Domingo
▁housekeeper
original
▁medic
▁Belgian
▁endocrin
▁SSRI
▁OO
ijen
▁Tick
▁brun
▁gleeful
▁Problem
▁Slide
▁Bront
▁resolut
▁Worrying
▁falsehood
▁empiricist
▁testa
▁scraper
nacle
robot
▁extrapolation
ntroduce
▁envis
aged
▁disquieting
mann
▁rappell
▁accomplice
onta
chine
acti
▁virtualiz
▁Penta
mprovement
performance
▁Shal
▁Sat
▁Greeting
▁pol
DP
▁Naya
▁Ok
▁Schwa
▁Orient
▁Archiv
▁moisten
▁dazzle
▁demystifie
tful
▁misbehavi
tlemen
▁turbocharg
▁Mumbl
▁overachiev
▁illustrative
▁novice
▁clumsi
▁Inau
▁coevolve
▁myelinat
spinner
shade
▁Pit
▁Fate
▁Higg
▁brag
▁Cove
iling
▁Erin
▁hoodie
quat
uette
▁curr
dica
▁loincloth
▁Austr
▁indigna
ube
eiter
classifie
▁Seal
▁Ez
▁AW
▁Particle
▁Wilts
ironda
▁luthier
▁Corn
▁desensitiz
ffle
▁blithe
ujah
▁Attempt
▁relent
▁Melod
▁Tun
▁obedient
▁whisk
▁druid
▁eulogist
▁Arc
▁lyricis
plann
employ
▁disapproving
▁antise
▁convalesce
▁deviant
▁ostrich
bird
embodie
▁maniacal
▁Scalin
▁Anatomical
▁reinvigorate
▁Stole
▁Lyd
▁courteous
atre
▁notori
▁thrus
▁Affordabl
▁superfl
▁Tob
gorge
▁Supplie
technical
uzzle
▁Hast
▁mailer
▁Apex
ency
▁Ente
▁Visi
Calc
gis
▁Mapmaker
capitalize
lua
▁cham
▁Inflat
shopp
affect
▁Nei
▁coerc
▁differentiat
▁Gilli
▁Constant
localize
▁acr
▁coastguard
tors
▁gi
▁modi
▁Coloni
NP
▁anachronistic
▁Bada
igar
▁rebreather
uko
etirement
▁sensationalize
▁droop
apologetic
▁Brock
▁ensnare
▁Cava
▁Guadal
quiv
dee
▁swoon
east
structive
▁deplete
AML
▁shearwater
▁transponder
▁Wedding
▁disempower
▁phenome
▁Alert
▁Microscope
▁Rach
▁Taip
Cloud
constitutional
lingual
bb
▁feebate
▁scuff
▁remanufactur
ebees
▁diversifi
▁Efficien
floor
cur
rying
▁plung
▁holothurian
▁Abernath
▁blunder
climate
£
▁Hop
▁vowel
▁delineat
▁waylaka
▁libation
▁reaffirm
obel
isk
▁Metaphorical
▁pilgrim
duction
rivilege
dualism
staff
▁interfac
▁ti
regard
▁sterilize
▁unfurl
▁mesmerizing
▁Dual
▁disarm
▁monotask
▁lengthen
▁Christo
▁titillate
▁Blogg
▁Cheri
▁Shh
▁Condi
▁Counter
▁Dz
▁Nach
nab
▁Ghos
▁Gavi
▁Mania
▁deducti
▁Dem
cognit
▁Chrom
procrastinate
▁mayonnaise
▁concretiz
▁Alessandr
hygien
▁multimillion
imba
▁scum
▁stingie
▁indigesti
▁PD
▁abate
▁Plat
▁ambience
▁dispens
▁intelligib
▁zygo
▁newsfeed
compensate
▁variance
▁Tuc
bard
▁unbur
▁Geek
▁04
▁CubeS
physical
▁Methan
prehensi
▁heatwave
Pe
▁frustrate
ogenetic
▁nag
▁Optical
vasive
eferri
lated
▁indenture
▁conqu
dors
▁systematiz
▁NF
▁epi
▁DOD
▁Pisa
▁booster
▁intermix
athema
▁sprig
▁tutu
▁kiln
▁diva
olent
▁adorn
▁Stafford
▁breech
▁Marsalis
▁Faul
▁Yi
favorabl
▁neuromodulat
▁intrac
▁Rou
gic
▁neuropathologi
criminat
▁insigni
▁disloyal
▁frickin
▁pyg
▁allegor
▁Remote
adel
marita
▁chasti
ootball
▁flirtatio
fellows
▁Sah
itania
af
▁strenuous
▁hookup
cent
▁colo
speed
xistential
requisite
▁polygam
▁Procrastinati
oorbell
▁Bren
▁slat
▁speechwriter
fat
▁discredit
▁Albanian
▁culminate
izarre
volta
inton
Line
▁Joann
▁TL
PI
▁doorbell
▁transceiver
▁Mata
▁exude
lodge
▁comply
mazon
▁Chat
▁Decision
▁clarifie
▁thru
ibu
profe
▁Pringle
▁Dove
utter
▁palpate
▁topographical
▁fovea
ntermittent
▁Cros
▁gymnastic
▁Hexa
▁Haigh
▁Supercomputer
▁Processor
▁halv
▁02
ochim
▁regre
lberg
▁Alban
▁upgrad
▁subtest
zon
stain
▁quadrupl
90
trop
▁wal
▁gravitat
iefdom
Lives
Matter
▁Bedouin
▁Contest
▁confide
▁aggress
irbrush
▁minimalist
▁numeric
▁swatch
10
▁Spir
▁Grim
▁epitheli
consideration
▁deter
nutrient
▁Gulp
Project
▁Wha
▁budge
asquatch
▁unaccountabl
▁cardigan
bly
▁McGo
▁conno
▁Faro
▁buttock
▁slink
heated
▁trimming
▁clams
▁stomatopod
▁Rash
▁prosthetist
nima
iatric
▁arrhythmia
eardrop
hantom
▁hinder
mono
▁necessitate
▁Familiar
pede
▁birdwatcher
▁Staple
▁Walla
▁Mille
mento
▁whim
▁Janis
▁woohoo
▁dogged
biotechnological
▁llama
rse
upp
▁Haf
▁gelding
▁Jani
▁antith
▁transgen
gulate
▁ov
▁bugbot
▁robo
▁photoph
transplantation
▁minut
▁terrifie
wal
shtra
▁Clang
▁aneurysm
▁206
▁supercomput
writer
door
adquarter
negotiable
lma
eff
▁Mula
▁euthanize
▁Abolish
▁Doub
▁absolut
▁trave
▁Odon
▁Crea
▁Bottle
ocument
▁Jelly
▁BANKER
LOVE
MAN
▁TRANSF
▁OF
▁Monas
skier
▁Kuro
kawa
▁meteor
▁Hip
RIL
▁ORCA
hroom
mpervi
▁arbori
▁unnam
bile
▁interg
▁Awaken
▁mugging
▁dagger
strolabe
▁retes
▁parameterize
▁extrude
▁Scan
▁dishevel
▁Hut
▁vestige
igne
dog
fli
▁Baskin
Buster
▁Sweat
acious
▁Nassa
▁tee
▁Chop
▁Carmel
▁spout
ail
▁booze
GP
▁squiggl
examine
U
sacchari
xor
ubic
▁hedg
▁globalist
▁arrhythmi
▁culpa
▁PLO
CM
onogram
▁Transplant
▁Routemaster
urf
▁TH
▁Thum
folk
▁Pee
▁Flute
▁stillbirth
▁summari
vasion
▁Negotia
willing
▁Punish
▁Eurobond
▁seclud
▁reunite
▁pragmatist
▁techn
come
atus
▁mudra
▁Mahishasur
▁epitom
▁conqueror
▁Surface
oud
▁Bendi
Up
▁domino
▁Fellowship
▁undraw
▁Gw
▁ethnograph
▁conspirator
▁misstep
▁Inject
neck
▁degenerate
▁confid
▁Marri
▁echelon
pard
eander
▁helm
▁fortifi
30
abian
▁obstetric
tank
restrain
▁004
▁Gizmo
▁stereotypic
cious
▁fluctu
kule
▁rulebook
cl
▁Lumi
aaah
▁Typewrit
▁misjudge
▁Confront
decided
urus
▁Fonda
▁Spiritual
▁inculcate
▁Boggle
▁tester
dir
680
▁Rotarian
▁Rotar
▁nutritionist
DM
▁dissipat
▁Grea
navigate
▁offload
▁equ
estrian
▁matte
▁evaporator
aut
▁cannonball
▁synonym
▁boiler
rob
▁curat
▁dialectic
sell
▁factivist
▁colla
▁glia
▁cabl
ostat
▁purify
▁Genes
▁blond
▁Recast
▁meditator
▁append
▁intermitten
▁androsteno
▁LO
urture
200
▁forester
hainsaw
▁reintegrate
▁illogical
ntuitive
▁Bolsh
oi
▁NEA
tient
▁Spot
▁Pharma
TR
▁Arg
▁contempora
▁Ending
▁decarboniz
aj
ysmorphophobi
▁dysmorphophobi
▁normalize
▁cheekbone
▁Jeremi
▁Lomb
roso
▁armament
▁malignanc
chelle
elin
▁Vaccin
▁cryogen
lethal
▁Johans
▁EJ
ucinic
▁Milosevi
▁Kirsh
▁Iq
▁Lea
▁entrop
▁biorobot
dynamic
▁reactivate
▁Silvestr
vati
▁Radiati
adora
▁fil
▁supervis
▁strategiz
▁constitut
▁Tragic
▁Ess
ilor
iberg
tomach
▁polyv
tate
▁positron
▁Illuminat
▁annoyance
▁Schmidt
▁Ohhhh
▁Nya
estat
▁129
want
▁plainti
ffs
zsch
▁Bop
akewalk
▁mannerism
▁Funk
accurate
▁q
▁maroon
wait
▁metallurg
▁reoccurr
▁Angles
▁TT
ignor
communicate
▁Prop
▁vamp
▁mythologiz
▁Chord
▁atomize
KE
▁Resonan
▁Intro
▁legalize
▁sexualize
erie
▁Identi
▁Guest
▁Alejandr
opadhyay
▁Gha
addy
▁nu
▁Elk
▁Loui
▁ischemi
cute
▁clavic
xternal
▁Implant
▁Weigh
▁Sage
bottom
ef
▁RN
▁ridicul
▁jagge
▁Charl
▁aphid
▁Ellis
▁Clint
ntral
▁Marion
ounterterroris
▁fogg
SC
▁Activis
▁Tip
▁airway
▁Muc
▁Ayatollah
▁Persia
configuration
yahu
▁zeal
lance
▁schedul
▁recruiter
▁stipend
assa
▁Sharm
▁reprimand
▁glorify
▁sacrifici
stag
▁irreducib
▁gravitation
▁dick
aragraph
▁harangu
▁Aura
▁Schill
▁barbarism
algo
umbleweed
orem
▁aquifer
▁voic
▁transgresse
▁isometric
▁surrealis
▁glutton
▁torque
▁Roundabout
▁Steff
▁Poise
useful
▁girder
Girl
▁snarl
oodle
▁hoard
▁Karolin
▁grandmom
▁Josef
▁Sorcere
▁Combinatoria
▁bioethic
▁consolidate
itzk
▁Rosn
▁geost
lu
▁Ugl
▁pinn
▁reburi
▁Remain
adventure
▁Range
▁grubb
▁rehydrati
▁Interc
ropping
train
▁cour
▁postmo
▁Operator
phil
float
▁Vand
▁Release
nish
mire
▁slugg
▁egotistic
▁Bogota
▁Blackberr
▁Platoni
▁CIT
▁Pelagic
tream
▁UCS
▁slough
▁ecospace
▁Sinha
▁Kyrgyz
▁Unres
identifie
▁sung
▁Aspirin
rops
▁secur
▁McKenn
bang
▁slavish
welf
onochrom
volt
▁piec
mineral
unting
awling
immer
▁deduction
lang
▁spad
▁thermoregulat
▁Saskat
oon
▁Fragment
▁gest
rsonate
▁Opto
▁Isolat
▁cyma
▁Sus
▁megapixel
▁Yan
▁recluse
▁penalize
toon
avi
▁Lena
▁Congrat
▁Stev
▁substructure
▁oversimplifi
doodle
▁Oxy
▁detract
▁unpa
▁squal
▁Dress
dresse
lank
▁bodice
▁crouch
▁Neighbor
▁repelle
▁stairwell
▁scrabbl
gap
▁passers
▁transfiguration
▁blushe
▁backfire
▁Elle
nard
▁wrathful
▁rum
acement
▁Happen
▁carnal
▁incarnate
VI
▁Sik
ibaba
▁custodian
▁prod
▁bracing
▁hybridiz
ako
▁McCan
Time
local
▁Geograph
▁triumphant
▁tapper
▁Fisherm
chip
▁substantive
▁Sikh
▁publicize
▁bootstrapp
▁Halle
enko
tia
▁selfie
IVA
▁Leith
▁Inver
▁Fif
▁dermat
cult
Patient
▁axilla
▁shortchange
▁percuss
attention
▁Trillion
environment
pose
▁brighten
rami
▁fibr
glob
▁sabbat
▁deport
▁Synchroni
▁hackney
▁unscrambl
▁Ragh
▁effi
▁koo
▁Pep
▁Circu
▁abscess
▁Rud
▁Fuck
surge
orchestra
▁rapt
terhaz
ongo
cushion
skin
▁spe
▁Aqueduct
▁Spl
nsane
▁Ceme
▁lect
▁Shhhhhhhhhh
▁Pitch
▁fidget
▁Kubla
▁Edgert
▁Psalm
▁evolutionist
idic
▁Walli
▁heave
reconcil
odles
ights
▁Benevolen
▁Prav
▁xie
▁Flipp
▁cleanse
▁jackpot
vul
vula
▁Nebr
aska
▁Mayn
▁Lithuania
▁Petra
▁embellish
link
▁Dentist
▁backwater
▁puss
▁ooz
▁inflame
▁AAT
uition
BT
phobe
▁pixie
▁houseplant
▁Upgrade
▁Kno
foods
▁Caf
▁comf
▁blurt
▁chastise
zeal
▁Autom
▁Fell
▁Gaines
▁Fuzz
▁lodging
▁bicker
▁feud
▁grudge
▁bickering
▁heartburn
astrophic
▁facsimile
▁Kle
bold
witch
▁delud
tier
▁paraglid
▁aerobatic
enschatz
arachute
aring
▁Surviv
▁Slam
▁lingua
▁Rasp
▁unend
▁subjugat
inflate
▁callback
▁dictat
▁Abb
rickster
▁psychoanalyze
▁uncurl
asculin
▁prohibitionist
▁legaliz
asca
present
▁sunbather
▁vegetat
esilienc
▁Adaptation
▁Patter
▁Pepper
emote
erf
▁Ginsb
▁termination
▁jihadist
▁encephalo
▁smashe
▁whiplash
bodie
▁counteroffe
idiculous
▁Coup
▁Shu
▁confi
▁99999
▁immobil
▁Twe
weep
his
trey
▁Yip
pee
▁Char
▁wistful
demeanor
▁Tang
▁Yad
▁Tora
lanta
▁skylight
▁tapi
oca
▁Defin
▁Receiv
▁favorabl
▁roundtable
▁whizz
▁oxygenate
▁Exhibition
▁Coles
▁airlift
maker
▁Catal
hana
▁sensitize
▁HB
dependent
romantic
▁reclin
▁tailbone
smart
▁scrapp
gre
▁deferr
enem
▁Surprise
▁Marlen
ijin
▁Kristin
factual
▁pathologic
troph
gina
▁Balanc
com
▁Robb
phrase
▁deft
▁pharmaco
▁ailment
▁Siddhartha
ockingbird
▁badass
▁hij
wit
▁Salam
ikum
▁copycat
▁dethrone
pagan
▁mutin
▁endearing
leration
▁Patro
▁mutilate
bishop
▁Haug
excus
▁Pres
troop
▁cartographer
leverage
▁Tex
▁Realiz
▁landowner
▁PI
print
▁transfusion
ptomyc
▁Educat
▁Michoacan
▁Cass
▁Breathe
commitment
▁massa
connais
▁petabyte
ibo
var
▁prais
▁Molecule
Star
eca
▁vocalization
▁harmonica
▁knitter
▁twitter
▁torrent
istribution
▁rookie
▁Leni
▁Fighter
▁eucalypt
▁millstone
orgas
bord
▁Kuros
▁Arcad
▁Sanctuar
▁Headline
▁assimilation
RE
▁Ghani
arq
▁unilateral
rder
▁marg
ystic
roteomic
urat
▁Exercise
95
▁attenuate
▁exemplif
▁disobe
▁gaunt
▁Marque
▁Player
anthropomorphize
▁Ooo
draw
▁arouse
▁foible
▁Lassi
▁Fertil
▁1450
▁1300
▁analogue
▁outlay
stocking
talk
eru
See
ophthalmo
▁Charit
▁deriv
▁dabble
▁spermat
ymbiotic
▁Chimp
*
lithograph
▁diminishment
▁Bola
atologist
match
acros
anct
▁Awww
▁affidavit
▁animatronic
▁ME
▁Christi
▁pouf
▁Garfield
▁trunca
▁CTO
ostatic
▁Inhale
psis
▁laparoscop
tomy
anquishe
▁Dip
umps
graceful
▁Brow
▁antelope
chloro
cocci
▁Assist
▁practicalit
▁Else
▁Chechen
▁reasoner
▁indefensib
asmus
▁rejoicing
▁refigure
▁Oceanograph
▁microfil
▁Computation
tronic
ophr
▁Parac
oots
fran
ercus
▁jaundice
por
▁Desp
cit
▁Infant
brain
correct
▁aerobic
▁Galin
borg
solation
punish
▁garg
▁gastronom
▁Kash
▁448
Top
OE
▁forelimb
▁Kru
▁meritocra
▁comparabl
▁Deal
▁compassionat
▁activator
▁prostrate
▁raze
apatista
Journ
▁stifl
▁Loo
broker
gle
cosystem
▁detonate
▁gusher
▁geoengineer
uture
ahu
ntoxic
▁Blade
▁Tale
▁Puppet
▁Calorie
▁cuddl
▁warble
xa
hatche
▁narrat
▁apprais
▁colleg
▁follicle
▁Ashe
▁overvalue
▁Spu
▁Roar
EEEEE
▁edg
TRA
▁dramat
▁Gib
▁Piet
▁Lara
▁evok
amorous
▁Doodl
▁McCullo
▁Pitts
▁sau
▁jabber
trophic
▁Traf
potam
▁neurophysiologi
engineer
▁Hebr
▁deadlock
avelin
▁whirl
▁sulph
▁dork
▁Adapta
▁Polit
▁Satisfact
impression
▁Macro
rigger
▁Rep
▁Mindful
▁McDow
▁Melani
calorie
▁chickpea
▁Sen
▁Marath
▁schizo
affective
▁molester
▁Animali
eko
▁Ade
laide
▁asexual
▁agronomist
▁Advertis
inner
hores
▁physiologist
bacterial
▁clutche
▁Mudd
lations
▁Marvel
▁obstetrician
LU
adic
▁aurora
▁oxidiz
▁Aud
▁Hank
▁corrall
olides
▁Lever
solat
▁discerning
▁homo
▁distr
colonial
▁confidential
▁Facilitat
▁Geologic
inhua
noff
▁SRI
▁backroom
▁Technological
▁Baghead
▁Proof
lar
▁Rabbit
upernova
▁WA
▁misfold
▁gla
eeker
iomimic
quaporin
▁Embedd
▁Swar
cological
Nature
▁raven
▁Cl
acuum
▁Sear
ebod
Tell
pollut
▁photomicrograph
▁octa
▁motorcycl
▁vul
stitch
▁Kess
▁wimp
▁McG
▁churchyard
▁peep
▁yuc
▁housekeep
edroom
plicate
▁polytunnel
▁debunk
▁exasperat
▁Worker
ushi
rmostat
vante
▁Ramse
development
▁stabbing
▁cornflake
icker
timeter
▁quash
dessa
throat
▁Canaan
▁Kibbutz
ligence
▁Scrap
keeps
Bride
▁probabili
▁Hah
marry
▁Natha
▁langu
▁Angli
▁Frans
▁Franciscan
opyright
▁Sisyph
phe
▁manicur
ndering
▁dec
▁ambi
▁extinguish
▁fizz
FB
rip
tecture
▁incantat
▁fortunetell
▁Rosemar
▁occult
omeopath
▁Ignit
termination
igh
compassionate
ffin
super
stuff
▁intubate
▁forearm
▁gir
▁chi
▁Emerg
▁Revel
usual
▁Eu
endo
▁poli
▁indignit
ski
▁Poin
▁telepath
gnostic
▁Hel
▁bumble
amps
condition
▁trac
homa
▁Lovegrove
▁denim
tub
▁disapprov
▁Clemen
▁recoup
▁Legion
▁reformulate
▁Blanche
▁glitch
conceive
▁Chok
▁stri
▁Burundian
▁suffocate
▁Purp
isi
▁Snoop
zah
▁Toxo
▁rezoning
▁disassemble
agara
▁Muscle
▁deinnervate
▁ris
▁telemeter
▁motorist
▁sputter
▁dro
▁202
nesian
▁Abdel
njustice
▁magnifie
▁emancipat
▁Summ
lga
▁Bran
cusi
▁Mond
▁suppos
mpani
▁Lat
basket
▁classifier
▁Farra
khan
▁Sham
▁WAV
VO
ellular
▁commiss
▁peeve
▁Vija
ingular
▁Concern
▁Musse
▁considerate
grain
lastic
lager
▁anthropo
▁recognizer
laid
54
▁gunfight
▁overeat
elective
fort
stay
▁vertig
▁amphi
▁cove
eject
▁nex
cave
▁brotherhood
▁Mok
▁calabash
kola
▁Participat
▁gymnas
▁hostel
edestrian
▁manhandl
▁reprise
▁CAM
▁Southw
▁Permanent
rking
warm
▁Lech
uilla
▁Hutch
▁EMT
▁PAWA
▁militariz
▁spre
erland
▁moo
urge
▁derivation
▁Lorenz
▁darkroom
▁Explorat
iteration
▁unbeliev
CODE
anagra
▁Ibuku
city
▁Fatt
▁mortician
roving
▁congeni
▁retir
amvar
ruffle
▁Carm
▁Beret
▁arcade
▁feroci
chievement
▁Biodivers
▁zil
tze
▁Ambulance
astard
▁psychographic
criminal
▁Rating
▁collate
▁renovation
Serv
▁evangeliz
▁waveform
kc
spoil
cki
▁widget
▁purpos
▁syntactical
▁Trav
▁rappel
▁umpir
▁sud
rgent
▁egocentric
▁tombs
▁consul
▁landlubb
▁Sarco
croc
mposi
▁hy
▁mirage
▁Baumgar
▁Valenti
fternoon
futuris
trash
nvader
▁megatrend
orridor
ngq
▁mismatche
uicide
▁nonconformist
▁picornavirus
ackie
▁param
ovirus
▁sarcoma
Bank
SEL
▁narcos
▁firehose
▁watchdog
doctrin
▁Wok
▁Dix
▁DS
▁Cab
▁fishmonger
▁Ngo
▁Rah
allocate
▁diffracti
▁Grum
ocratic
quit
elope
▁ow
▁Ye
uperstar
▁hotrod
▁glee
▁Schum
sarcoma
▁Ketter
▁repuls
▁flaneur
▁pa
▁psalm
greement
▁promulgat
latter
acil
▁ejaculate
▁milkshake
▁Rut
▁Potential
▁hiccupper
▁Yield
▁macaque
ition
▁slopp
▁Colle
▁Sorbo
▁Rang
rtemisi
▁defer
▁photometer
pruden
▁prom
▁fantastical
▁Sardin
▁somersault
▁fragran
parko
IDI
▁semit
▁Jail
▁recidiv
▁Activist
▁Solidari
▁Voil
▁clipboard
▁Trio
arro
role
scientist
pharmaceutical
olescence
▁dehumanize
illos
▁SR
along
terranea
▁Graph
▁Barr
▁ph
lts
krum
aire
etiti
ploy
▁Dosto
▁unbalance
▁hurl
▁searchlight
▁Message
settlement
anner
butt
hiz
▁skinni
Maker
▁mantis
vista
▁screenwriter
▁Aka
▁Ethiopi
▁Vai
ā
ê
signal
count
▁defus
▁joypad
▁conjur
▁nudg
▁Raf
▁Bos
▁noninvasive
▁brewer
▁Viral
osal
▁val
▁undulat
▁Edit
▁houseware
▁geophon
▁predicament
▁Machiavellian
▁allergi
▁Novogra
▁Taba
▁biodegradab
▁Lettuce
อร่อย
▁Chuk
▁parochialism
▁aspira
▁Awl
▁neoconservati
ENA
▁hammerhead
▁Coinciden
▁rumble
▁040
▁hyperconnect
▁Loyalt
▁Bid
ader
trustworth
▁Slave
parents
▁Bench
substantia
▁Kik
▁clums
▁alienate
▁Touris
▁starchitect
iche
▁sinew
▁pronoun
▁pedi
gree
▁theatric
▁Echo
phasi
▁wuzz
▁unicyclist
▁hotbed
▁Observe
▁440
tradi
vari
▁Aaaaaaa
▁Responsib
▁drunkard
▁subcenter
arja
▁sidestep
▁Lew
▁Mili
▁Leicester
roud
shed
▁Bias
▁clack
▁Campo
utto
▁Rot
onda
▁Temp
▁Bram
▁prun
▁Pref
▁incapacitate
synthesize
▁retin
▁westward
▁Rahim
▁slimme
▁canteen
▁hoover
▁bapti
▁gala
writing
▁Garn
▁moi
▁slush
rk
project
▁Basti
▁biomutualism
▁Waal
▁Hendr
▁gymnast
▁Athlete
▁Drowning
▁undivid
▁underdevelop
▁bedevil
▁Trend
llustrator
▁PalmPilot
▁maximal
▁emph
▁bowel
▁metasta
▁oncolog
▁Cousin
▁Lip
card
▁oddit
▁interpenetrate
▁kiddie
▁quasar
▁Scand
Land
▁indulg
▁stupe
▁consummate
▁cactus
▁thumbtack
▁Photo
ampton
▁shelv
▁Avi
nick
▁overage
▁psychoanaly
ude
▁biophili
disable
citing
too
▁Marsha
▁Cla
koko
▁Sabo
▁prejudg
▁Bazaar
ttorney
▁Memo
▁Improvis
▁tung
fitte
enstock
▁Wag
▁chaperone
vaccinate
▁hypochondriac
▁Dane
▁Budd
alis
▁stalactite
▁Venta
▁Twentie
jac
▁Imagin
▁coctivor
sumption
▁defens
▁Nouve
▁recombin
▁petro
dollar
vert
▁dignify
▁Integr
Bribe
style
cyte
▁upstart
▁Drumm
▁hept
athlon
controversial
reaction
audi
▁archway
▁Valen
▁biodensit
▁octopod
▁predicat
▁biosensor
hus
▁prominen
▁refrigerate
▁Glow
▁resorb
cel
▁Gru
▁noodl
▁Explore
mpulse
▁Couple
rga
▁Elect
▁Unif
endez
arz
▁chronolog
arch
▁Arrest
Traitor
▁Muf
▁hyp
iting
razie
▁Explosive
bomber
Times
Dust
▁Sher
▁Nora
aga
▁Sang
▁Helma
emple
▁Pent
hope
▁Denisova
imultaneous
rious
▁Wager
actor
▁unwr
itten
▁Wilm
▁Advers
tley
▁stubb
▁Psycholog
▁usurp
▁ensue
shifter
icit
▁TomTom
▁daemon
▁maddening
▁brav
▁Alb
▁neu
▁google
▁Mack
nication
▁Sem
pedition
▁yawn
▁Berns
▁FC
▁Lennon
bali
▁exasperati
▁Ferro
ceptin
▁HER
▁confection
▁Jacqu
▁Shiite
ounce
▁nausea
Car
▁posit
▁Crab
rows
▁originat
▁storehouse
compi
▁rowdie
abular
rapeutic
▁Doom
▁reorganiz
▁philanthro
▁Tric
ornia
omorph
burial
riza
▁Saddiqu
▁checkpoint
creation
LMA
▁deprogrammer
▁rationaliz
▁graviton
▁AE
TES
▁endoscope
▁GPA
▁Event
▁Destin
▁outflow
▁conf
hearted
▁babble
OMS
▁Appreciat
▁Psychiatr
ddiction
ntervention
▁sob
▁parachuti
pressurize
▁nud
▁coloration
▁OL
▁metastasi
▁kinesin
▁Episcopalian
▁Turre
▁Basi
▁Chart
▁hypomani
▁emblazon
lul
issat
▁Gamo
▁polyphen
alanine
▁authenticat
▁Profil
unga
▁204
▁Portobello
▁microscopi
▁pockmark
rlap
rides
▁metaboli
▁entomo
pathogenic
▁revamp
intelligent
▁neoten
arable
▁Rodrig
▁Roch
▁oxidize
▁Pod
▁Rao
ybercriminal
▁Sopho
Soft
tain
riba
Á
▁Pill
▁Causby
▁shortfall
▁nontrivial
BB
▁Doubt
▁moire
kite
▁Lumino
▁Birke
nctive
lone
▁ejection
▁Phys
▁Sli
TB
▁bistro
▁Temperature
mor
▁Oncolog
cyclic
▁Militia
▁ICE
▁Balochi
▁homegirl
ompromise
VS
abeth
▁Cruel
ulla
UV
acat
▁Malaga
amed
▁Necess
▁Moto
▁papercutt
▁biblio
▁Poison
tray
▁unnerv
▁Transit
develop
▁Carbo
▁Misha
Brigade
CRI
▁Renu
▁NAND
submit
▁Orde
▁Taxi
fashion
▁Microscop
▁lak
▁engross
▁fitment
▁hysteri
▁stomp
value
Link
▁fantasiz
▁Soybean
leopa
▁legislat
▁construal
▁gua
grav
rbach
▁Dobr
▁transonic
▁monograph
▁cancell
▁abolition
ograft
osyl
olita
▁Ida
arbell
gypti
eficit
▁altruist
tein
ugen
▁Glor
ngko
▁igno
▁reperto
▁COM
▁Fanta
ARP
▁energize
▁Dionys
▁Seg
loo
zzzz
UMB
spect
etric
condense
wild
dden
▁Anesthesiolog
▁Scare
▁tetralog
▁concentrator
tomac
easing
▁quint
uperfluid
ndowment
Mia
Lo
deflect
helpful
ctic
▁derisive
▁moderniz
▁Tum
▁Kaos
▁desecrate
▁evildoer
▁detest
▁EE
package
▁misdemeanor
▁inordinate
▁Ramu
agre
mprobabl
▁balk
▁Croat
wee
▁undresse
▁suffrag
bou
kerman
▁Bro
▁terrorize
▁Ackerman
ppendage
Penn
RAPH
EL
▁electromechanic
▁Anthropomorphi
▁gyros
call
wkward
comfortabl
bstetrician
ynecologist
▁Admit
▁presti
verbal
▁Kw
▁outfield
▁stippl
▁photorealist
veil
winner
phrodi
▁Novoc
aine
edagog
▁Oppress
akers
Raz
Radio
adness
▁avo
▁Patriarch
applie
▁disaggregate
EDG
Cooper
▁IU
▁Weapon
▁fatalist
▁Sicilian
wheat
▁biocomposite
▁exclusiv
angaroo
get
olia
▁Heavy
rthopedic
▁lowercase
▁handrail
▁Frack
▁incursion
Yard
▁deng
steel
▁briquette
▁magi
strate
▁anarchic
nit
▁Transfer
hthalate
harm
▁phthal
GEN
ucker
ediatric
▁exc
ercise
▁reco
zada
▁Resident
▁disassociate
▁territo
▁143
bombing
▁fluoresc
campus
ticism
fling
▁dinos
▁approximat
unrise
▁prophes
njo
▁Econ
▁Haye
▁Hurr
etamorphosi
justifiabl
▁skit
▁Tourn
▁rascal
iming
impo
▁songwrit
▁Sz
▁entendre
▁Inde
▁Evangelical
▁Sneaker
locker
TF
itic
▁ambit
uberance
▁slav
▁Hep
etho
▁gyp
rainstorm
apsule
rque
▁Pue
blo
napshot
▁Mumm
eanderthal
▁commen
▁Riba
▁privatize
▁liberalize
unles
▁Mix
▁Segregat
▁Desi
wartz
▁brainscan
▁rak
▁Baumgart
chill
erring
curv
nterdisciplinar
▁KP
FF
▁uncompress
▁irritab
WB
trips
▁assail
▁Muse
geographi
▁Steph
▁Curr
uote
▁Humili
▁Wri
blowing
ontin
▁boulevard
▁Petro
hareholder
▁Improve
▁emptie
▁shri
▁profitab
▁embroi
▁Abdur
rai
▁surveill
hurried
▁CV
intin
rmurat
eodor
anda
ubsidiar
▁dynast
▁orthodonti
Abo
▁persi
mmon
ometi
latin
ffervescen
▁bassist
razine
▁Esa
udite
piphan
zig
▁Bonn
inkle
▁Valium
libur
▁barricad
ledge
▁Regene
mana
▁primitiv
▁Fern
ryopreserv
▁Roslin
▁Captiv
▁Foss
litt
▁Mommie
▁presumpt
▁Neh
▁Rosen
▁Competent
▁Montan
▁Kese
netic
▁autoimmun
▁overzealous
vulnerabl
ongwriter
thor
sault
▁reflexive
torch
▁juv
▁matchbox
rickshaw
ruvi
▁Ach
▁opulen
aus
▁epigenetic
ussycat
▁implantable
▁photonic
▁micropr
needle
▁programmabl
▁pyrol
▁whoosh
dolph
▁eggshell
melt
ertilizer
▁Sumer
errestrial
▁zircon
eti
▁Eps
▁prototypic
▁immuno
cultural
▁Prick
ggbeater
entrifuge
▁typographic
better
limpse
Char
myalgi
inny
rate
▁Hawa
▁gynecologist
▁Aztec
ilocy
sensibl
▁pluri
▁Terrib
▁Monitor
tension
Shoe
▁Mehr
▁reimburse
▁phenotyp
atch
▁Observ
herald
orting
winning
gner
▁sweeti
▁snagg
▁Interview
▁Fuckin
▁Adu
mphetamine
▁Troop
▁Salut
▁pronouncement
dial
rishna
▁Krak
▁Tsun
emi
▁Lindb
lad
▁unfil
▁Instrument
▁Beatb
▁synth
ombardier
▁Brav
tar
dragg
▁unpla
▁rumbl
▁reformat
▁reacquaint
biz
nut
lligator
▁trival
nherent
▁Kasu
▁PAC
lago
izens
relevant
index
Some
aggot
Stat
Kohn
civil
▁Drown
bait
boob
▁nonp
orous
astronomi
▁impedance
▁Spr
▁obscen
imag
▁Broc
therapeutic
calibration
▁Mariner
program
hawk
dmiral
▁supertanker
mpressive
uct
direction
rationalism
▁vivi
incarnation
▁provi
▁congr
atraz
▁plop
▁Giz
reinforce
▁looter
OV
▁Kira
pick
▁scra
bind
Book
uadra
logue
▁varietal
cate
▁resourc
▁spruc
ngiogen
uval
udget
▁Retir
▁cajol
inherit
racket
fatig
pass
azar
gho
Mil
▁appendectom
▁tubular
▁diuretic
▁furnish
▁strep
assessment
▁suitab
▁checkup
▁Acu
Like
stance
atchstick
▁kook
▁Giuli
▁Ac
awn
▁zon
▁stratifi
prejudice
rel
arp
mathematical
▁overbea
▁transmute
▁underwrit
evan
▁bioinform
∇
τ
▁Whirl
inuous
consolidate
constant
▁bulldoze
kay
cale
▁ICA
▁Oooo
▁Parsi
egorical
▁defriend
here
▁evi
uperorganism
olk
annibal
▁Lect
▁Spit
effect
▁pinhole
▁demarcation
ú
▁creek
survey
▁Kib
benz
▁cotta
ondu
undi
▁Cez
drunk
▁LIF
▁Londoner
xtraterrestrial
remembering
extra
▁negligen
▁Concentrati
▁confin
▁reneg
cortic
▁Ibuk
▁Bored
▁exposition
▁aggressiv
▁Smell
have
torious
▁barbecu
▁Surre
arney
▁Abba
cryptoc
▁LIS
RV
▁Biome
▁epiphyt
▁265
axonomist
store
dvertisement
▁Notting
▁Priest
▁Rudi
rc
cept
hauvinist
▁bicycl
▁designate
generic
▁Tuls
ential
▁accessori
ussel
▁MacB
▁wuss
▁Suba
follow
monic
▁maladapt
anche
awesome
▁Needle
agna
▁indica
▁ricket
▁schoo
▁rumina
▁perspectiv
▁TC
▁HH
▁overproduc
abasc
thanasi
▁bishop
Modul
rnia
▁Customiza
▁hamm
aneuver
▁Muk
GR
▁bacteriophage
tigue
▁capric
olum
▁Grandi
▁assailant
tchen
▁insinuat
▁insinuate
▁misidentify
▁hypno
rapist
boration
▁Deny
▁Caledonia
assi
reparation
ntensive
▁dermatologist
apply
▁Cali
gula
plug
feel
building
lavi
▁Varia
ophile
▁babysit
▁ultraso
▁habituate
▁Rasha
therap
▁armchair
▁Virgi
▁Dres
▁Nica
plot
▁Curator
ecke
▁dramatist
▁nonconformi
amouflage
▁adversarial
▁215
encrypt
nstein
feed
▁Banksto
▁trillionth
yric
receptor
▁Bzz
scendant
▁relocat
appropriate
▁qual
▁surmount
ecked
▁Fila
flex
rrrrrrrrr
▁Kirst
mp
eel
▁Clon
▁ruminate
▁pester
main
tuation
▁Grade
ncentivize
mapper
▁eclips
▁cadet
Fit
utenan
▁unlad
▁decapitate
uarterback
▁Aaaah
▁Colt
23
▁readjust
▁cir
ebb
remier
▁immunological
▁Cast
▁nudibranch
▁freest
▁Compass
▁MacK
▁Fiore
sultan
chthyolog
▁ichthyolog
▁YO
LO
▁Typh
breaker
lph
ennes
oolbar
oogle
▁repetiti
mistak
▁misapprehension
▁Gif
▁Germ
utb
virulen
▁Capu
woke
cop
azz
▁PP
▁McDon
spense
▁RA
▁Stag
▁Firewor
▁scrawl
unicate
▁dredge
▁dilate
molo
nurture
▁ringin
▁singin
tify
▁Bland
peroxide
▁peacebuild
▁lectur
ferenc
▁Gor
tina
▁lol
▁Interest
▁harb
Safe
▁Extend
abulous
▁commiserat
▁iconoclas
▁spir
▁153
saki
AU
▁Amr
rusha
▁Faw
alamander
llow
▁fluor
oscop
announce
▁stopgap
▁Winn
▁uncompromis
▁nega
angi
eaweed
clude
▁apprehensi
▁TER
▁jeep
▁girlie
▁Steinbe
▁Okol
idgin
rosthetist
▁Loew
▁Candle
enius
▁terri
▁koala
▁Drago
ylic
▁radiolar
▁ribosome
▁monomer
IL
nkering
rcen
ualitative
overcom
▁Cli
▁Knowl
▁emiss
tive
▁deli
▁Dag
▁Biotech
iohacker
▁nanobio
▁barcod
▁Manda
▁clamber
cloud
▁Shya
ollaboration
▁crania
▁boondo
enz
gels
sphere
▁Breme
▁uncap
▁Campan
palpabl
ermal
▁exhume
▁gradu
cio
EO
▁Silv
ortoise
▁epiderm
▁Enc
hmi
▁nihil
UFO
IS
pathogen
▁loco
▁Pip
acqua
ephani
▁Concu
▁Celi
▁dustbin
▁Hail
fix
▁ineff
▁sai
▁Entra
otel
▁Thousand
▁expa
▁conservati
▁privat
personal
topia
▁Slug
▁Lich
▁Leather
▁cycad
▁shrew
rec
etacean
▁roo
▁lemur
▁Skip
jour
rav
vuj
▁barrac
▁Natura
DNA
▁syntactic
▁Migrati
▁210
familiar
▁encapsulat
orensic
▁Anthropolog
nfluenza
▁Urbaniz
identification
▁misidentifi
affron
alien
uadro
▁electrostatic
▁salivat
▁Dalmatian
agonist
▁Via
▁Psych
▁Illuminati
▁spil
categori
▁astronomic
ermo
▁intrusi
▁OC
▁Extrover
▁Caffe
holic
▁disagreeabl
orpor
▁profess
stimulation
▁constipate
▁newscaster
▁newscast
celes
ombus
▁vertic
▁igloo
hra
xagon
▁nipp
▁seabird
alu
▁USD
▁Kickstarte
▁Curi
xorcis
conte
▁catastroph
axo
aten
ypothesi
▁Lite
▁cryptosystem
▁Oliv
lathrin
ucati
ZZ
143
▁Puls
CSE
▁hogwa
cational
▁bogg
igna
▁Virtu
▁Script
stonishing
▁Smit
soft
KO
Th
▁Bound
▁calle
serve
▁Vid
anet
▁STE
letic
accredit
sophisticate
▁Believ
▁bumbl
▁unlea
▁bookmark
rearrange
minal
▁Kubl
▁Foo
▁fancier
”
▁natura
▁schema
sanguin
51
vigne
▁Transi
tructure
▁enamel
▁imperm
▁invariant
▁tribut
passionate
▁Vol
▁powerlift
400
▁VT
undanc
▁NAS
ttes
▁festiv
▁DV
▁Albino
▁Operate
obbles
▁Prof
▁sodom
affo
isceral
▁recirculate
gnition
▁Owners
▁Cre
conn
joy
▁Boliv
quisi
▁punctua
▁spontane
▁patri
▁homogen
pen
▁Tension
ilkworm
▁Taz
omp
▁confirmat
glaci
▁inseminate
ssify
▁algo
itious
▁Vitali
mogen
ycelia
▁situ
▁biosens
▁entra
pment
▁interception
supply
▁monopoliz
NJ
accumulate
▁bioavailab
▁individuate
drin
▁Tulle
▁GT
ngenious
▁Sport
▁Frida
▁Kah
▁Empir
icism
▁conjectur
▁banishe
uffin
▁believin
▁Woz
▁egotist
▁Telephon
volution
cenario
▁incomparabl
▁Oso
▁Poca
eters
▁Wage
▁Dicke
▁MD
▁exacerbat
▁Pesh
rim
git
▁technicolor
amin
▁Papu
▁Vertical
scari
ople
ealous
nspector
▁Esp
inosa
▁Crom
merica
▁misfi
lamic
parative
▁Jil
▁elaborative
athroom
billion
nspection
RAC
▁Skills
▁Wilke
▁Err
▁rephras
▁McKe
eason
castle
▁electrocute
anticipate
insurgenc
▁locket
▁Opi
▁trem
▁Caval
▁adag
iqui
▁Than
▁bulimi
produc
▁strid
▁Oakl
loba
▁arsen
▁striptease
▁reinvigorat
▁dislocat
ico
▁Carb
▁SHO
777
▁aggrandize
▁justifiabl
▁litig
inject
▁bastardiz
▁demystif
spear
▁hor
tempora
▁duplic
itous
xification
uth
plastic
▁Vitruvi
▁Jaya
▁259
aurus
deer
▁toxif
itu
▁Amir
▁Hype
rough
petite
▁commoditize
▁Kaza
ombu
ign
▁porno
professional
catcher
▁homogenize
ivers
▁Kauf
▁marr
▁engraft
▁Embryo
▁pluripoten
strophy
▁standoff
▁portrayal
hit
watche
lute
Chat
▁Poppin
quisition
yclic
▁manipulator
▁avia
▁unrem
People
▁McCar
culate
▁epithet
cter
function
orrelation
▁calligra
rres
▁Barb
Report
▁gro
Thre
▁Triang
▁mumm
▁necro
▁cata
tonic
▁Linguist
gnet
▁cleave
1000
▁Tortu
inja
▁sublimate
▁lev
taste
▁foodie
ullet
▁Giraffe
▁brood
▁aggregation
ntrance
roponic
▁Jenni
▁Daz
enate
830
▁specificit
▁mutualist
network
▁ARPA
▁unb
generation
Fire
▁sizzl
szl
cisive
education
▁Lov
zman
020
▁Commen
leman
▁persp
▁Trul
qa
▁Rit
▁Plei
▁bisect
aco
ariti
lberto
▁spindle
▁paramo
icrowave
laminate
58
waki
▁affor
estation
▁Sunda
rban
▁sampler
oper
▁Lotte
NEM
▁Parkin
oconut
ussan
▁chicane
▁swag
aggard
task
raising
rika
solution
▁Combat
abotage
▁Gesta
▁scrupulous
▁Regi
▁Niss
▁resettl
▁auspic
▁Frau
▁philanthropical
▁348
▁Emir
ldi
lomo
artzi
▁Previ
tero
664
▁mitigat
endant
tore
urplus
▁dioxin
▁Surf
▁diarrhe
▁Cope
ays
▁drap
▁penal
▁reorient
luk
▁Taxonom
rrito
uzzies
▁frittata
denounce
ightmare
▁supermo
048
aff
▁Opa
ACE
▁doppelg
▁Gero
giz
▁Austral
▁Briton
31
rabbi
ompetition
aqi
▁Din
converge
phenomeno
▁ascendan
rocco
▁Dob
▁Schult
mophil
▁vide
rmine
▁riche
▁flou
▁Manufact
▁Dup
▁orthodontic
unchkin
earing
▁Babe
▁Ruth
▁pussy
▁Spok
leep
Vinc
summer
cort
▁cryopreserve
egradation
Bron
▁sportsman
irsty
▁Poss
cNaught
ROV
Shop
▁extol
Por
▁Prophe
▁avalanch
▁Microbio
Jong
laus
▁Chim
▁Sweep
▁anachronis
eisel
osov
▁Virg
ontraceptive
ntellectual
alit
▁Bodi
onscientious
diminish
ehearse
▁Tul
▁sublim
evastating
pus
blind
NF
▁reunify
▁Polis
▁Wrig
politi
▁mafi
▁prov
rud
▁Kolle
▁Mazu
▁Narcissis
▁chil
▁drumbeat
▁middl
ogress
iduous
▁Physi
ocrat
▁modal
ogenic
acteriophage
▁hypothalam
▁elucidate
▁Puli
▁Schn
abel
▁Cetacean
ption
efrigerator
Ball
▁refrigera
ASH
▁Sprawl
Max
alendar
▁respir
acoustic
▁Clause
26
▁axo
paint
Dog
▁flores
iens
▁deduc
▁remiss
historical
emptive
▁evolvab
ungste
▁implor
quarter
otic
▁iconoclast
▁Bon
quivalent
nail
eapot
iberti
▁Depart
icia
ynthe
▁Othe
gland
ltrasound
▁Hrus
▁radiologic
▁individualize
▁prophylactic
▁Navigat
▁abducte
▁Alga
letcher
ervous
saturate
▁arthropod
shhh
▁pylo
▁neuropsych
oport
lateral
gin
▁Baya
ggled
▁veloci
erendipit
▁Boing
Boing
▁ruff
Bird
hucks
▁upstage
▁butler
apes
▁SOB
▁abrasi
▁rambl
▁lamppost
linger
Mars
▁ethicist
▁whizze
orist
collide
subscribe
Mart
▁000000
▁Sata
▁Pia
▁voyag
ransatlantic
lou
rrow
crack
▁Flame
ailor
▁NAC
▁Analys
araplegi
▁MN
athtub
860
▁Orni
▁ordain
▁maj
▁dogmati
ween
kat
▁backpedal
Kat
KIN
MPL
▁INST
RUC
TION
▁WO
ILL
lasia
▁humidi
crib
llum
▁arrondissement
▁Nikk
ymmetrical
ores
ishman
▁acceleromet
anken
▁gangren
creat
alactic
valley
raumatic
journ
Inc
▁eclip
▁MacBook
▁Kodi
sche
▁Deposit
▁Manufactur
▁adhesi
orial
▁austral
▁platter
event
▁multitud
straddle
▁Bitterroot
asaur
▁bib
plete
OP
umpster
▁Traine
▁Ledge
▁Chew
soon
erfect
▁Abou
uspect
▁intel
▁Azu
bare
▁Bulli
appa
bsession
▁jingl
▁jangl
▁abou
▁forg
▁KI
▁disguis
▁nanostructure
varian
▁Americaniz
clinical
flatter
▁Complicat
JE
encephal
▁cornea
pens
▁wai
change
▁inactivate
▁soulless
▁Padd
geri
▁endear
▁Dij
▁Academic
▁disengag
▁cleav
▁appropriation
▁carcino
▁uninvit
stride
ogy
▁noncomplian
▁Cosmi
hau
jahid
▁schoolchild
engraving
▁benevolent
▁procur
▁cladding
wir
▁stoop
▁Dena
snick
▁morpho
▁Bienn
nnovative
▁Advi
▁Adulter
lust
RL
Graff
ffen
wor
▁dew
▁methyl
fraction
▁Hube
▁mumble
▁cookout
▁soothe
▁doze
▁elaboration
▁Philo
▁preco
▁fledge
▁Slav
oki
▁Nicaraguan
▁Francais
▁Burba
▁rockin
▁mani
▁005
▁Splash
▁delet
aah
▁integ
▁Tota
egawa
▁miscalculate
ervant
▁revelat
physicist
▁geosync
▁121
▁diap
hipwreck
▁Phoeni
▁Kalani
shuffle
tribute
▁ortho
▁Interact
▁Infra
▁Intrinsic
▁technici
▁Strik
▁wha
▁Snaps
ramid
laria
▁Cardboard
▁Cavi
▁recompos
▁Mobi
mineraliz
▁flo
tilla
vail
▁Cou
zin
▁discharg
▁Ove
camper
▁sizzle
▁Deca
▁Wilde
▁untru
▁Flap
ropeller
▁Rever
beration
▁Acous
▁panoptic
▁situate
▁Rek
▁Stree
suffer
28
▁suppli
▁factivis
▁vascula
rocyte
▁examiner
▁toxicolog
dissection
ISC
aunt
▁gri
escalate
▁Khos
heromone
rost
▁Stil
tating
SER
ustodian
▁pau
▁evapo
TER
▁misfit
û
CC
creative
nalytical
▁Brenn
▁McA
fee
▁brawn
▁grinn
Tax
▁Intuit
▁nanotech
burden
Second
▁globalize
ransaction
▁overwrite
▁unforgeabl
▁Tax
lation
▁Dive
geek
dicate
▁sinus
▁Attach
judgment
api
▁Muz
▁squ
elch
▁Plas
▁galvan
eater
▁Patr
lava
▁swip
201
pola
▁elu
▁sensori
▁quadrup
cerebra
▁Cabel
▁Gr
peer
enetic
▁sarco
pha
gus
▁buc
olic
▁Kap
▁evacu
▁Trib
▁devis
communica
terbo
rones
▁Johan
vig
▁Method
▁Forge
▁Synchro
▁synchro
▁152
▁enumera
opy
hwa
▁Didi
Advisor
ecommend
▁hyperp
lope
occa
▁Gettin
▁Tosh
▁Cultur
▁Vog
aaaaaaa
▁equat
▁Wu
iu
▁garb
itchhiker
estone
hydro
EEE
▁vehemen
belief
▁subjugate
rypton
▁Seve
ccelerometer
opportun
▁shunt
▁emo
emical
akin
[...]
