<pad>
<unk>
<s>
<\s>
▁.
▁,
▁bir
▁"
▁ve
n
▁bu
▁'
a
▁
e
▁Bu
▁için
▁da
▁Ve
▁çok
▁?
▁de
m
▁daha
k
▁ki
▁)
(
▁:
▁var
▁gibi
▁olarak
▁şey
▁—
den
▁olan
▁ne
▁kadar
▁en
lar
▁her
▁o
dan
▁değil
▁ile
i
▁ya
▁-
nin
ki
▁ama
▁olduğunu
p
▁Ama
▁büyük
▁iyi
▁bunu
▁sonra
▁nasıl
▁zaman
▁Bir
▁sadece
nın
ce
▁çünkü
ye
▁şekilde
z
ler
▁şu
▁önce
ya
▁fazla
t
da
▁iki
▁;
dir
yi
▁gerçekten
▁aynı
la
▁Yani
▁yeni
▁hakkında
er
▁yıl
▁Şimdi
le
de
▁kendi
▁benim
▁O
yla
▁olduğu
▁ben
▁tüm
▁Ben
▁insan
▁farklı
uz
▁ilk
▁mi
dır
▁diğer
iz
▁aslında
▁bunun
yle
▁böyle
▁insanlar
▁ilgili
▁içinde
yı
▁yok
▁veya
▁küçük
▁♫
▁doğru
▁başka
▁sahip
▁Gülüşmeler
▁burada
▁ise
ü
▁eğer
▁önemli
ı
en
▁şeyler
▁bile
▁biri
▁Faka
▁bana
▁size
▁biz
ken
▁bizim
na
▁in
siniz
▁biraz
▁Eğ
ca
▁tek
▁üzerinde
▁hiç
▁oldu
▁insanların
▁gün
▁bütün
▁son
▁Bunu
▁zamanda
▁şimdi
▁vardı
▁yüzden
▁geri
▁neden
▁Çünk
in
li
▁onu
▁tam
▁tarafından
▁diye
▁Kahkaha
▁üç
▁İşte
▁az
▁nın
arak
▁bazı
▁istiyorum
ne
sanız
▁yapmak
▁olmak
▁mı
▁göre
▁Çok
▁gerçek
▁ortaya
▁Peki
▁bize
▁bilgi
▁oldukça
▁Bunun
▁fakat
▁yer
▁şeyi
▁yani
▁karşı
s
▁beni
▁olacak
▁Burada
▁ın
▁oluyor
▁10
▁Aslında
▁birkaç
▁Her
r
▁iş
▁Dünya
▁onları
▁anda
▁Alkış
▁güzel
▁etmek
▁dünya
▁an
▁onun
▁Alkışlar
▁boyunca
▁uzun
▁bunlar
▁kişi
▁20
▁tekrar
▁devam
▁soru
▁su
▁olabilir
▁hareket
ndan
▁kötü
▁olması
▁yüzde
▁birçok
▁a
▁Anca
sel
▁!
Ü
▁Ne
▁Evet
▁Daha
▁geliyor
▁000
▁onlar
▁belki
▁milyon
▁teknoloji
ları
▁olur
▁tamamen
▁e
ydi
▁zor
lı
lerini
▁orada
▁buna
▁fark
▁arasında
▁birlikte
lerle
▁harika
y
▁yerine
▁Biz
tır
▁işte
▁Siz
▁dedi
▁yüksek
larını
lik
▁karar
▁Bunlar
um
sine
▁dünyanın
▁daki
erek
leri
▁nin
▁pek
▁A
tir
▁üzerine
▁bugün
▁tür
▁Afrika
▁gereken
▁artık
▁basit
ydı
▁şöyle
▁ederim
▁i
▁yol
niz
▁öyle
▁dan
▁S
Z
▁gelen
▁3
▁para
▁hiçbir
▁Böylece
▁vardır
dur
▁hayal
▁enerji
di
si
▁konusunda
▁açık
sınız
▁onların
▁yardım
▁hızlı
▁eden
▁geldi
▁Sade
seniz
tan
sa
lardı
▁dolar
▁yeniden
▁işe
▁Tamam
▁ediyor
▁bizi
▁Amerika
▁2
▁yaklaşık
▁sonunda
▁ancak
▁hale
▁sosyal
lerine
▁Sonra
▁çoğu
▁Şu
▁tane
▁elde
▁durum
▁onlara
daki
x
▁yerde
▁sizin
▁den
▁çocuk
sunuz
▁hikaye
▁sene
▁herkes
▁ona
▁ilginç
▁hem
l
%
▁dört
▁Teşekkürler
▁hemen
▁herhangi
▁Benim
▁şeyleri
▁siz
▁insanları
▁olmayan
▁temel
▁dünyada
yu
▁Onlar
▁kaç
▁hala
▁demek
nız
▁inanılmaz
▁süre
▁eski
▁zorunda
▁altında
▁1
▁konu
▁istediğim
▁özel
’
▁kolay
▁alan
▁milyar
▁etti
▁izin
▁dair
▁kadın
lık
▁durumda
▁yakın
▁yine
▁hatta
▁fikir
▁mümkün
▁bilim
▁örnek
▁kontrol
▁sorun
▁un
ten
u
▁parçası
▁başladı
▁güçlü
▁bilgisayar
▁30
▁ta
▁En
▁adam
▁ay
▁Neden
▁5
sı
▁bunları
▁birşey
deki
larla
▁değildi
▁Bugün
▁yaşam
▁şunu
▁insanlara
du
▁değildir
ın
▁bence
▁inşa
▁genç
▁kabul
▁New
▁hafta
▁hepsi
larına
ız
▁neler
▁yalnız
▁kez
▁100
▁neredeyse
▁kimse
▁saat
▁dedim
▁gelir
▁göz
▁B
▁İlk
▁beyin
▁yapmaya
▁50
▁birisi
▁yere
▁yılda
▁sizi
▁gerekiyor
▁Ya
miz
▁veri
▁özellikle
▁benzer
▁yanlış
▁içine
▁gördüğünüz
▁yolu
▁araya
▁olduğuna
▁beş
▁kısa
▁eğitim
▁proje
▁doğal
▁gösteriyor
▁bakın
▁düşünün
▁üzere
▁bundan
▁şeyin
lerin
▁200
▁sürü
▁verici
▁araba
▁yapan
▁hava
▁muhtemel
▁çalışma
▁kullanarak
▁yapı
▁parça
▁Hindistan
▁tahmin
o
▁TED
▁başladım
sına
▁yoktu
▁bunların
▁Aynı
▁arasındaki
▁geçen
▁yaptığı
▁15
▁sonraki
▁hayat
se
▁E
▁Ban
yız
▁Tüm
▁Çin
▁ihtiyacımız
▁olmadığını
▁etme
▁çevre
▁biliyoruz
▁İnsanlar
an
▁mu
▁gerek
▁çalışan
▁Belki
▁görüyorsunuz
ların
▁olsa
▁rağmen
▁Son
▁derece
▁düşünüyorum
▁görebilirsiniz
▁ister
▁alıp
▁teşekkür
▁insanın
▁edin
▁nedir
▁ses
▁4
▁gelecek
▁kız
▁yapıyor
dı
▁ikinci
▁cevap
▁araştırma
▁dolayı
▁beraber
▁ettim
▁kim
▁ı
▁sistemi
lerinden
▁D
yiz
▁yaptığımız
▁nokta
▁güç
▁te
▁sağlık
▁bazen
▁olursa
im
▁düşündüm
▁ifade
▁olduğumuz
▁başına
▁Ayrıca
▁dakika
▁York
▁çeşit
▁yardımcı
▁olsun
▁yılında
d
nüz
▁olup
▁kendini
▁yaptık
▁iletişim
▁ye
▁kat
ni
▁konuda
▁görmek
▁dünyayı
▁bağlı
▁G
▁yüz
▁ele
▁ana
▁tedavi
▁on
▁çocuklar
▁dışında
▁ekonomik
▁altı
▁karmaşık
▁grup
▁etmeye
▁küresel
▁kesinlikle
▁bakar
▁adı
▁Buna
▁beri
▁görüyoruz
▁T
ti
▁gece
▁hep
▁sürekli
▁gerektiğini
▁Avrupa
▁yapılan
▁yaşayan
▁arada
▁içerisinde
▁Bütün
▁olmalı
▁kelime
▁Büyük
▁haline
ma
▁değer
▁erkek
te
▁Teşekkür
▁anlamın
▁Bizim
▁deki
▁nedenle
▁asla
▁takip
▁çıktı
▁kısmı
▁olurdu
mış
▁almak
▁binlerce
▁biliyor
▁olmadığı
▁Gerçekten
▁şeye
▁vermek
▁ortak
▁işi
▁40
▁bakış
▁evet
▁Hayır
▁dünyadaki
nda
▁yaptım
▁varsa
▁hayatta
▁ediyorum
▁bulunan
▁sebebi
▁meydan
▁ileri
ç
▁derin
▁Yeni
▁söz
▁fikri
▁dolu
▁gidip
▁eder
▁tasarım
▁K
▁yaşında
▁sayesinde
▁video
▁aile
▁zamanlar
▁ait
▁hepimiz
▁tabii
▁bin
▁DNA
▁başarılı
▁musunuz
▁kadınlar
▁hücre
▁uygun
▁sistem
▁ışık
▁M
▁metre
▁gerekir
lerden
▁olmasını
▁Diğer
▁deniz
▁sebep
▁elektrik
▁he
lara
▁başladık
▁düşük
▁bak
▁6
▁geniş
▁olmadan
▁mükemmel
▁toplum
alım
▁ayrıca
sal
▁biliyorum
▁mevcut
▁veren
yken
▁defa
▁hasta
▁ABD
ydu
sini
▁muhteşem
▁mutlu
lardan
▁İki
▁yıldır
lere
▁anlama
▁internet
▁ihtiyaç
▁nerede
▁savaş
▁hangi
▁canlı
ta
yım
▁dikkat
â
▁anlamak
▁aşağı
▁oyun
▁konuşma
▁normal
▁u
▁birinin
▁ciddi
▁söyledi
▁güneş
▁çıkan
▁sanat
▁yerlerde
▁kendisi
▁problem
elim
▁yaptı
mız
▁göstermek
▁bilirsiniz
▁olacağını
▁ettik
▁herkesin
▁Bunları
▁merak
▁oluşan
lu
▁gidiyor
▁düşünce
▁birini
ça
▁altın
▁değişim
sını
▁resim
▁nun
ım
▁dahil
▁gerekli
▁beyaz
▁yapma
▁12
▁kişisel
▁yanında
▁olduğum
▁adım
▁zaten
▁Müzik
▁madde
miş
▁Amerikan
▁ülke
▁buraya
▁asıl
▁verdi
▁geli
▁çocukların
▁yaptığım
▁yı
on
▁kendimi
▁yukarı
▁oray
▁Artık
▁60
▁noktada
▁yavaş
▁Onun
▁gücü
▁Birleşi
▁bakalım
▁şeylerden
ik
▁film
▁Kendi
▁olsaydı
▁fiziksel
▁mavi
un
▁nde
▁işin
▁olay
▁nedeni
▁Örneğin
▁haber
▁sık
▁emin
▁yıllık
▁çıkar
▁ufak
▁yemek
▁aldım
▁belli
▁müzik
▁ölüm
▁sen
▁verdim
▁iç
▁şeylerin
nızı
▁ev
▁görünüyor
▁başarı
▁anne
▁bulmak
lerde
▁aldı
▁ortalama
larından
▁tabi
▁söylemek
▁fotoğraf
▁gördüm
▁el
▁şehir
[
▁CA
▁genel
▁yeterli
▁Mars
▁olmaya
▁sanırım
▁buradaki
▁lazım
▁olma
▁sesi
]
▁ediyoruz
▁idi
▁biçimde
▁çalışıyor
▁yapıyoruz
▁sahibi
▁veriyor
ip
▁dünyaya
▁Google
▁18
▁ortada
▁sayıda
▁test
▁gittim
▁derecede
▁sonuç
▁azında
▁Nasıl
anırım
▁diyor
▁C
▁olanlar
▁yerel
▁I
▁makine
▁resmi
▁Güney
▁acı
▁olduklarını
▁edecek
▁Bazı
▁Başka
▁uzak
▁yedi
▁tarafta
▁verir
▁kalan
▁Hatt
▁biliyorsunuz
▁halde
▁olacaktır
▁işler
▁hayır
▁çizgi
▁dijital
▁Tanrı
▁zamanlarda
▁11
▁sağlıyor
▁bağlantı
▁Kuzey
▁yeşil
ıpkı
▁yatırım
▁bazıları
▁oldukları
▁25
▁kişinin
sin
▁üstünde
▁şaşırtıcı
▁yerinde
▁konusu
larında
▁aşırı
▁bununla
▁kitap
▁istedim
▁çözüm
▁adında
▁açısından
▁t
▁medya
▁tanesi
▁model
▁teşekkürler
▁olmuştu
▁yüzünden
▁hayvan
▁gösteren
▁sağlayan
▁7
▁Böyle
▁etkili
▁milyonlarca
▁insanlarla
▁korku
▁dışarı
al
▁zamanı
▁Mesel
▁mesela
▁kırmızı
▁Birkaç
▁kanser
▁heyecan
▁yaratmak
▁değilim
dim
▁anlamda
▁San
▁der
▁ilişki
▁Onu
▁fazlası
▁başında
▁üst
▁etki
▁çıkıyor
▁icin
▁80
tı
▁hazır
cak
▁olmasın
▁istiyoruz
kçe
▁okul
▁fikirler
▁ilham
▁sanki
▁örneğin
▁yapar
▁çalışmak
nizi
▁yıllar
▁araç
▁ihtiyacı
▁yapabiliriz
▁göstereceğim
▁yoksa
▁sayısı
nı
▁önceki
inde
▁Dolayısı
▁Herkes
sak
▁ilaç
▁günde
▁Orada
▁çeşitli
▁mücadele
▁devlet
▁inanıyorum
▁sonucu
▁uzay
▁tepki
▁gelecekte
▁içindeki
lerinde
▁gerçekte
▁8
▁bilimsel
▁etkisi
▁ön
▁kalp
▁alır
▁kan
▁petrol
▁s
▁alıyor
dür
▁satın
▁İkinci
▁büyüme
▁sayı
yorum
▁Hiç
▁seviyorum
▁elbette
▁iklim
▁günlük
▁alanı
▁sıra
▁sinir
▁Biraz
▁bilmiyorum
▁yoktur
▁nerey
▁yapılmış
▁görsel
▁temsil
▁bizler
▁Tabii
▁ucuz
▁sağ
leriyle
▁tamam
me
▁sağlıklı
ıp
▁konuşmak
▁İyi
▁genellik
▁ilgi
▁hâl
▁gördüğümüz
malıyız
▁erkekler
▁olduğundan
▁açıdan
▁durumu
▁olmuş
▁destek
▁ülkeler
yim
▁alakalı
▁önünde
▁garip
▁üzerindeki
▁yapıyorlar
▁hepsini
▁hoş
▁zengin
▁korkunç
▁alt
▁hastalık
▁arka
▁giden
▁cep
▁beynin
▁eve
▁gizli
▁kullanmak
▁üçüncü
▁anlamı
▁yüzlerce
▁bunlardan
▁önemlisi
▁yaşlı
▁oldum
▁buldum
▁başlıyor
ine
nun
▁etrafında
▁deney
▁geleneksel
▁Video
▁kendimizi
▁öğrenme
▁yi
▁kendilerini
▁söylüyor
▁9
▁olduğunda
▁budur
▁bina
▁Onları
▁yaratıcı
birine
▁edilen
2
▁gitmek
sek
▁şirket
▁edilmiş
▁türlü
us
▁Pekala
▁getirmek
▁şarkı
▁şekli
▁anlamaya
▁sabah
▁Beni
▁yapmayı
▁Burası
▁güvenli
▁70
▁zarar
adlı
▁görüntü
▁gördük
mizi
▁yaparken
▁Birçok
▁hayatın
▁H
▁İnsanların
▁çalışıyoruz
larının
▁orta
▁belirli
▁robot
▁telefon
h
▁sorular
siz
▁yaptıkları
▁Gerçek
▁sahibiz
sın
▁doğa
▁hayatını
▁alanda
▁olağanüstü
▁baş
▁değişik
▁değiştirmek
▁sırasında
▁tip
▁ardında
▁düşünmeye
▁katı
▁Batı
▁insanı
▁90
▁geldiğini
▁ediyorlar
lerdi
▁ayrı
▁yakında
▁yeterin
▁kere
çe
▁politik
▁geriye
▁ikna
▁herşey
▁dahi
▁senin
el
▁ikisi
mi
▁modern
▁İnsan
▁genetik
▁birine
▁yaparak
▁uzakta
▁icat
▁sorunu
yse
▁ortasında
▁düşün
▁verin
▁sekiz
▁sonsuz
▁aldık
▁Tam
▁demektir
▁koruma
▁la
▁boyutlu
▁erken
▁akıllı
▁saniye
▁bulduk
▁hücreleri
▁takım
▁kaynağı
▁kişiler
▁seçim
▁Geçen
▁Demek
▁arkadaşım
▁hücreler
▁kendime
▁açıkça
▁demokrasi
▁onunla
▁tercih
▁kaynak
/
▁ten
▁kara
▁kadınların
▁başta
▁sonuçlar
▁ağ
▁çalışıyorum
▁Öyle
▁sonrasında
▁mesaj
▁ettiği
▁halinde
▁gider
▁ekonomi
▁balık
▁gerektiği
▁yapacak
es
▁düşünüyor
▁sağlamak
▁at
▁kafa
▁evrim
▁sorunlar
▁karanlık
▁verdik
▁çocukları
▁miktarda
▁fakir
▁risk
▁yiyecek
▁ürün
▁ülkede
▁yarısı
▁yoğun
▁güvenlik
▁esas
▁adını
▁olmaları
▁500
▁Orta
▁yapmamız
▁dizi
▁sırada
sız
▁geneld
▁kendimiz
▁çalışmaya
eyim
▁farkın
▁gaye
▁sayfa
▁Had
▁Öyleyse
lerinin
▁adına
▁ışığı
▁bakım
▁ders
▁cok
▁bitki
▁görme
▁çekici
▁şiddet
▁umut
▁siyah
ini
▁kapı
▁şirketler
▁Buradaki
▁geçmiş
▁merkezi
▁kamera
▁yaşıyor
ayım
▁16
▁davet
▁yaz
▁getirdi
▁boş
▁dek
▁göster
▁hata
▁çapında
▁olmayacak
▁zeki
▁okula
▁sıcak
▁gerekiyordu
▁J
▁ettiler
▁Bazen
▁karbon
▁olduğumuzu
▁birer
▁Tek
▁olduğumu
▁istediğimiz
▁yada
▁teşvik
▁dışı
▁geçti
▁yan
larda
▁getiriyor
▁sistemin
larımız
▁öğrendim
▁F
▁hastalığı
▁muazzam
▁birşeyler
ing
▁edici
▁bölge
▁pahalı
▁ederek
▁hayvanlar
▁sanal
▁Sizin
▁Yine
▁L
▁Ona
▁burası
▁anlatmak
▁alma
▁sınıf
▁neyse
▁sana
▁çoğunu
▁hızla
▁dış
▁biyolojik
▁ziyaret
▁fırsat
▁akıl
▁Sen
▁ülkelerde
▁mil
▁kesin
▁İnternet
▁gıda
▁benzeri
▁tehlikeli
▁duruyor
▁tarih
▁Hem
▁P
▁benimle
mızı
▁başlar
▁hayatı
▁dil
▁21
▁sağladı
▁işaret
▁üniversite
▁onlarla
▁numara
▁baskı
▁mü
▁sıfır
liğe
▁olmayı
▁öğrenmek
▁buydu
ktan
▁aracı
▁teknik
▁görürsünüz
▁göreceksiniz
▁süper
nde
▁verme
▁evde
▁burda
▁araçlar
▁gösterdi
▁olmaz
nca
▁et
▁istiyor
▁yanı
▁buçuk
▁eğlenceli
▁sordu
son
▁amacı
▁babam
▁ağır
▁hepimizin
▁19
▁al
▁Hepimiz
▁13
▁ayak
▁k
▁İngiltere
▁şeyden
▁çalıştım
▁edildi
▁HIV
▁alanlar
su
▁şeklinde
▁harita
▁dediler
▁Küçük
▁14
▁düşünmek
▁yazı
▁verilen
g
▁çalıştığım
▁olduğunuz
▁sordum
▁olmanı
”
1
▁nesil
▁uygulama
▁dans
▁Sonun
▁Çoğu
▁tarz
▁ince
▁24
▁öğrenci
▁benziyor
▁çift
▁mesele
▁örneği
▁müthiş
▁Güneş
▁bildiğimiz
4
▁kullanılan
▁buldu
▁yapabilirsiniz
▁R
▁kök
“
▁güven
▁Elbette
▁gitti
larımızı
▁Şöyle
▁görünen
▁hedef
▁işbirliği
▁söylediği
▁Tabi
▁sizinle
▁önemlidir
▁sıradan
▁sürdürülebilir
▁gücünü
▁değiliz
▁süreç
▁geç
▁parçalar
▁olmamız
3
▁olanı
▁almaya
▁annem
▁yaygın
▁zorundayız
▁ettiğimiz
▁yaptığını
▁yapabilir
▁değiller
▁çocuğun
ş
▁üstüne
▁net
▁kamu
▁bebek
▁deneyim
▁giderek
▁suyu
▁oranı
▁nefret
▁Afganistan
▁yana
▁km
▁Bize
▁yüzyılda
▁buz
▁İngilizce
▁Doğu
▁başa
mı
▁sağlayacak
▁yaşındaki
▁isteyen
▁sistemini
▁yapıldı
▁hizmet
▁rahatsız
▁Sonuç
▁yağmur
▁yapıyorum
▁duygusal
▁199
▁yeri
▁düşünme
▁zihin
▁geçerli
▁soğuk
▁17
9
▁Bilirsin
ton
▁rol
▁şekil
▁El
▁fazlasını
▁yılın
▁nevi
▁kullanıyor
▁noktay
▁tuhaf
▁paylaşmak
▁Adam
▁sol
▁süreci
▁edebilir
▁ülkeni
▁Gördüğünüz
▁okyanus
▁şeydir
▁edip
▁yapmış
▁gelişme
▁önümüzde
▁temiz
▁hafif
▁kültüre
▁Davi
▁ara
▁görmeye
muş
▁uluslararası
▁kısmını
▁yapay
▁yola
▁hayatımı
▁günü
▁Devletler
▁problemi
▁Chris
▁köpek
▁pazar
▁noktası
▁mal
nden
▁The
▁ila
▁saygı
▁kilometre
▁adamı
A
▁görüyor
▁değerli
▁bulunduğu
▁sefer
▁Harika
▁akşam
▁imkansız
▁yabancı
▁Doğru
▁Çocuk
▁çoğunlukla
▁Asya
▁verimli
▁evrenin
▁mantıklı
▁olduk
▁bakmak
▁olmadı
▁oluşturmak
ci
▁gelişmiş
▁İş
▁Dr
▁bilinen
▁hatırlıyorum
▁malzeme
▁geldiğinde
▁halk
▁dışarıda
▁bilmek
▁yapacağı
▁alanında
▁sizlere
▁bulunuyor
▁görev
▁diyorum
▁edebilirsiniz
▁nefes
▁mimari
▁oy
▁yerler
▁yöntem
▁epey
▁duvar
▁ek
▁neyin
▁Eski
tik
▁görebilir
▁adamın
▁çocuğu
▁dikkatli
▁üretim
▁dediğimiz
▁Birincisi
▁ünlü
▁değişimi
▁300
▁ötesinde
▁Hiçbir
▁aşı
▁dönü
▁kilo
▁kapalı
▁gezegen
man
or
▁seyahat
▁koydu
▁başladılar
▁sağlar
▁Bilim
iyor
X
▁dediği
▁türü
▁yüzyıl
▁korumak
▁insanlardan
▁gelişmekte
▁hayata
▁değiştirebilir
▁lütfe
▁Londra
▁verdiği
▁herşeyi
▁anlam
ysa
▁olabilirsiniz
▁tehdit
▁açısı
▁web
▁plan
kça
dığını
▁li
▁ölçüde
▁olabileceğini
▁bakı
▁suç
▁hikayeler
▁sorunları
▁sevdiğim
▁John
▁sesleri
▁sevgi
▁yaratıyor
▁değiştirdi
▁çıkı
▁yaptılar
▁siyasi
▁arkasında
▁gen
▁kanseri
▁eşit
▁arası
▁gerekirse
▁nda
▁yarı
▁bağımsız
▁matematik
▁na
▁modeli
▁...
▁tarihi
▁geldiği
▁şeydi
▁kimyasal
▁nereden
▁N
▁yerden
▁tasarruf
▁önün
▁nükleer
▁başarısız
▁gerçeği
▁si
▁Su
dik
▁içeri
▁çalıştığımız
▁oyunu
▁gittikç
▁olmaktan
▁seni
▁suyun
▁sabit
▁büyüdü
▁geleceği
▁kullanıyoruz
is
▁saye
▁renk
▁istiyorlar
larımızın
▁kullanma
▁Onların
▁isterim
liği
▁düşündük
▁istemiyoru
▁elimizde
▁verileri
▁ton
▁kar
▁ihtiyacınız
▁ettiğim
▁Bakın
▁sahne
▁tıbbi
▁yaş
▁Bazıları
▁öğrenciler
lerimizi
▁sonuçları
▁bahsetmek
▁şehrin
▁ani
▁Al
▁fare
▁hastalıklar
▁anlat
▁gruplar
▁diyoruz
▁yaşıyoruz
▁Hepsi
lerimiz
▁kare
ir
▁olabilecek
▁teknolojiyi
▁posta
cık
▁farkında
▁kutu
▁parçaları
▁kaldı
▁kişiye
▁gibiydi
▁parlak
▁olun
▁çalışır
▁Kim
▁etmeyi
▁molekül
▁kağıt
▁havada
▁anlamıyla
▁zeka
leşmiş
▁virüs
▁toplumun
▁tan
▁Teknoloji
yoruz
▁musun
▁robotlar
▁edebiliriz
▁eş
▁hakları
▁rahat
▁görüş
▁yıldız
▁yaşamak
▁karşılık
▁ters
▁hikâye
▁karşısında
▁cevabı
▁taklit
▁durumun
▁sessiz
▁bulmaya
▁görüyorum
▁doktor
▁benden
▁dünyasında
▁ilerleme
▁ürünü
▁olacaktı
▁aktif
▁yasa
▁tıp
▁düşünüyoruz
6
▁birbirlerin
▁gezegende
▁yılı
▁biyoloji
▁plastik
▁tespit
inden
▁miydi
▁ölü
▁etkileşim
▁yerlere
sun
▁2000
▁duygu
▁öldü
▁dokuz
kten
dım
▁nesne
▁adet
▁balığı
meliyiz
▁çıkarmak
luk
▁artış
▁vücut
▁Tekrar
▁etmiş
niversitesi
▁Amerikalı
▁ihtiyacım
▁bakteri
▁tartışma
▁yolunu
▁edersiniz
▁lerde
lığı
▁kalma
▁dev
▁telefonu
▁dönemde
▁serbest
▁ulaşmak
▁çalışmalar
▁programı
▁yarım
▁bırak
q
▁zamana
▁tarım
▁gel
sinden
▁toplam
▁komik
▁mutluluk
▁Biliyorsunuz
▁açtı
▁işleri
▁kullandığımız
▁hikayesi
▁terk
▁inanıyor
▁İngiliz
▁zamanlı
▁merkezinde
▁spor
▁denen
▁fikrini
▁düz
▁kurallar
▁alın
▁taki
▁oluşturuyor
▁yazılım
▁taraf
▁kitabı
▁istiyorsanız
▁sonu
▁kendiniz
▁silah
▁hükümet
▁seks
▁ulusal
▁İkincisi
▁doğum
▁Önce
▁sarı
▁misin
▁istedik
▁istedi
▁dayalı
▁yazık
▁ticari
ecek
▁polis
▁Yaklaşı
land
▁duydu
▁uç
▁hissi
▁çıkardı
▁Facebook
▁türden
▁ettiğini
▁sistemleri
▁kimin
▁fotoğrafı
▁evrensel
▁çalıştık
▁Kimse
▁sahiptir
▁özgür
▁bölgede
▁ihtimalle
▁eminim
▁Irak
▁yapması
▁okuma
▁veriler
imiz
▁Güzel
▁halka
acağız
▁ağaç
▁rüzgar
▁dolara
▁yoluyla
▁sorunun
▁AIDS
▁fikirleri
▁Almanya
▁sanatçı
▁karşıya
▁sert
▁ülkelerin
▁toplumsal
▁yapılması
▁kadının
▁arama
▁buradan
▁gerçeklik
▁olmaması
▁elinde
▁tecrübe
▁devrim
▁kullanan
▁gelmiş
▁çalışması
▁0
▁koy
▁birinde
▁sonrası
▁oluşturan
▁kuş
▁yıllarda
▁değişiklik
▁aksin
▁işlem
▁Biri
▁davranış
▁amaç
▁yollar
▁Pek
▁önem
▁çocuklara
▁parmak
▁peki
▁Uzun
▁strateji
▁nadir
▁cinsel
▁bende
▁ateş
▁geçer
▁bölümü
▁istediğiniz
▁yerini
▁oranda
▁Ah
▁diğeri
▁Geri
▁berbat
▁değişti
▁Japonya
▁başlangıç
▁Sizi
▁bisiklet
▁ediliyor
▁alet
▁bilmiyor
▁Şunu
▁odada
▁oluşturur
D
▁elektronik
▁konuşmaya
▁kurmak
▁aç
▁kendisini
▁yaklaşım
▁vermeye
▁400
▁aşağıy
▁kendinizi
▁makale
▁alarak
▁tarafı
▁zayıf
▁potansiyel
▁Va
▁kültür
▁geçiyor
▁çılgın
▁tarafında
▁uyum
5
▁sıtma
▁değeri
▁yapmanı
▁altyapı
▁olduğunuzu
▁kalıyor
▁program
▁ederken
▁barış
▁nedeniyle
▁edilebilir
▁adamları
▁okulda
▁ün
ku
▁kural
▁sıvı
▁özelliği
▁Çocuklar
▁cam
▁televizyon
▁deyişle
▁isimli
▁baktığınızda
▁hareketi
▁teori
▁hali
▁önemi
▁bizimle
▁bunlara
▁dedik
▁anı
▁Ses
▁getiren
▁ahlaki
▁insanlık
▁kurdu
▁bilgileri
▁olabilirdi
▁söylüyorum
▁hak
▁yaşamın
▁teknolojiler
▁alalım
▁Ulusa
▁çalıştığını
ını
▁arta
▁radyo
▁evin
▁geçiş
▁alacak
▁Bizler
▁verdiler
▁hayatlarını
▁kendileri
▁Yalnız
▁edilmesi
co
▁olacağı
▁kayıt
▁endişe
▁hâle
▁ü
▁konuya
▁yönetim
▁hakkı
▁şehirler
▁gittik
▁verecek
▁deniyor
diniz
▁beyni
▁yapacağım
▁adamlar
raya
▁Dedi
▁miktar
▁nüfus
ıyla
▁başlayan
cı
▁söyler
▁yaşadı
yor
▁Biliyoru
likle
▁ismi
▁devasa
▁hissediyorum
▁sorumlu
▁Brezilya
▁finansal
▁politika
7
▁sürede
▁şehri
▁olaylar
▁resimler
▁ederiz
▁cihaz
▁bölüm
▁geliyordu
F
▁can
▁gelebilir
▁analiz
▁Neyse
▁sınırlı
▁kalmış
▁hastalar
▁sonucunda
▁etmesi
▁He
▁yaratma
▁günümüzde
▁içi
▁ihtiyaçları
▁değişikliği
▁dur
▁yakıt
▁Time
▁arazi
▁degil
▁V
▁yarattı
▁parayı
▁dili
▁üçte
▁Özellikle
▁anlıyor
▁mikro
il
▁sıkı
▁döndü
▁baktığımızda
▁anlamlı
▁radikal
▁arkadaşlarım
▁şirketi
▁diyelim
▁sermaye
▁içeren
▁anladım
▁durumunda
▁bilgiler
mak
▁Sağlık
▁olanak
▁baktı
▁yolculuk
▁birbirleri
▁olduğunun
▁milyarlarca
▁popüler
▁koyu
▁kullanır
▁din
▁Öncelikle
▁bitkiler
lığın
▁çözmek
▁sürece
▁anahtar
▁ibaret
tur
▁sivil
▁zamanında
▁bakarsa
▁tatlı
▁ısı
▁evren
▁kaynaklar
▁gemi
▁çalıştı
▁etmemiz
▁vakit
▁bi
▁Değil
▁bilmiyoruz
▁iddia
▁askeri
▁yönelik
▁oda
▁işim
iyoruz
▁çöp
▁İ
▁örnekler
▁İsrail
▁Yüz
▁saatte
▁yetişkin
▁Kesinlikle
▁yüzyılın
▁alanın
▁öğretmen
▁kenar
ysanız
▁kısım
▁olmanız
nün
▁çalışırken
8
▁liste
▁150
▁çaba
▁keşif
▁Twitt
▁vahşi
▁Genel
▁zorundaydı
riyi
▁b
▁çoğunuz
ldukça
▁girdi
▁şeker
▁görünür
▁batı
▁çözümler
▁gördüğüm
▁toplumda
▁başlayalı
▁acil
▁birinci
▁neyi
▁engel
▁sebeple
▁gelişim
▁kaynakları
▁denge
▁biriydi
▁maru
▁Kenya
▁kullanmaya
▁istediği
▁basitçe
▁alıyoruz
▁çekmek
▁orman
▁kredi
▁oluşuyor
f
B
▁topluluk
▁gelince
▁kişiyi
▁Sorun
▁biliyordu
▁çocuklarını
iyle
▁tutmak
▁araçları
▁anlatacağım
▁W
▁şans
▁kızlar
▁zordur
H
▁kocaman
▁yaşındayken
▁yaptıklarını
▁ilaçlar
▁bildiğiniz
▁öğrendik
▁giriyor
▁yap
▁evrende
▁birbirin
▁gösterir
▁etkileyici
▁hassas
▁düzgün
▁Umarı
▁doku
▁almış
▁uçak
▁civarında
♪
▁seviyede
lıyız
▁aklım
▁park
▁sahipler
W
▁çeken
▁tamamı
▁rastgele
▁zamanla
▁yolla
▁motor
▁dakikada
▁rakam
imizin
düşünebilirsiniz
▁başlamak
▁oksijen
▁dışın
▁hayvanların
▁ödeme
▁farkı
▁diyorlar
▁kahve
melen
▁sistemler
▁hastalığın
▁gelmişti
▁ödül
▁dürüst
▁ziyade
▁şehirde
▁toplu
▁bilimi
▁sonun
▁gözüküyor
▁besin
▁cinsiyet
▁yaşın
▁kendim
▁başlıyoruz
▁söyleyebilirim
▁sıklıkla
▁duyuyoru
▁alanları
▁duran
▁filmi
▁yaptığınız
▁düşündü
▁hikayesini
▁sağlığı
▁karakter
c
larıyla
▁bilir
▁Se
▁toprak
▁kullanımı
▁Hala
▁maliyeti
▁kitle
▁bahsettiğim
▁aracılığıyla
▁etrafta
▁git
▁Farklı
▁standart
▁konuşmayı
▁sağlayabilir
▁denilen
▁arkadaş
▁le
K
▁tehlike
sam
▁trilyon
▁bahsedeceğim
▁Kadın
▁Muhte
▁olumlu
▁Bak
▁yarar
▁zevk
▁dizayn
▁olacağız
▁Veya
▁olası
▁tasarımı
lerdir
lan
▁sıkıcı
▁daim
▁açıklama
▁günün
▁biliyordum
▁gitme
▁kritik
▁ayında
ed
▁profesyonel
▁George
▁otomatik
▁kayıp
▁hepiniz
▁geldim
▁De
▁ederler
▁tersine
▁psikoloji
▁bilgisayarlar
▁talep
▁yaşadığımız
▁yaratır
▁bakıyor
sinin
▁ortamda
▁falan
▁35
▁nihayet
▁kullanılıyor
▁imkanı
▁düzenli
▁sey
▁U
▁gördü
▁yapılıyor
▁grafik
▁Anne
▁altındaki
▁yazdım
▁günlerde
lama
▁kelimeler
▁müdahale
▁haberler
▁gurur
▁yaşadığı
▁değişiklikler
▁baktım
▁Basit
▁isim
▁Doğa
▁söyleyen
nuz
▁bireyler
▁dişi
çüncü
▁düşündüğüm
▁tarihinde
▁yönde
ize
▁yolunda
▁yolda
▁erkeklerin
▁öne
▁yu
▁alanlarda
▁bildiği
▁yazar
▁Hey
▁olmasıdır
▁koyar
▁dalga
▁sesini
▁eğitimi
▁geçirdim
▁söyledim
▁üretmek
▁organik
▁Sosyal
▁çekiyor
▁yöntemi
▁çalışıyorlar
abilirsiniz
▁Bill
▁taşıyor
▁teknolojik
▁dönüş
▁vereceğim
▁tutku
▁özgü
▁düzeyde
▁dönüştü
▁fikrim
▁verdiğimiz
▁değiştiriyor
▁hissettim
▁çoktan
▁korkutucu
kinden
▁grubu
▁tanıştı
▁süren
▁kullanabiliriz
▁etmiyor
▁Küresel
▁arabalar
▁bağlantılı
▁renkli
▁oranında
▁uydu
ra
▁imkan
▁hesaplama
mıştı
▁bakabilir
▁parti
▁cümle
▁itibar
▁aldığı
▁getirir
▁tamamıyl
▁kurma
▁kuru
lerse
▁kullandığı
▁kuzey
▁fizik
▁organize
▁seviyor
▁boya
▁deneme
▁baba
▁olmuyor
▁ederse
lanmış
▁yapın
▁Kaliforniya
▁çıkarıyor
▁oturup
▁kaba
▁düştü
▁Dünyada
▁gönüllü
▁aylık
▁hücrelerin
▁yasal
▁İnanılmaz
▁Kanada
▁koymak
▁Herhangi
▁Annem
▁ekran
▁hesap
▁ürünler
redeyse
▁tablo
▁umarım
▁bağ
▁Man
▁teknolojisi
▁geliştirmek
▁hukuk
▁Los
▁bugünkü
miyorum
▁boyu
▁şeyle
▁düşen
▁uyuşturucu
▁farkettim
▁dönüşüm
▁yemeği
ley
Q
▁ağı
▁yağ
▁giriş
▁Eylül
▁bol
▁güney
▁kaldırı
▁tavsiye
▁süreçte
▁liderlik
▁görülen
▁görmez
▁ölçekte
▁yolun
▁kullanım
▁gezegenin
▁sıradışı
▁faydalı
▁lı
▁oradaki
▁karışık
▁sizler
biriyle
▁görevi
▁geliştirme
▁Hava
▁diğerleri
▁zamanın
▁deri
▁denedi
▁laboratuvar
▁sınır
▁artıyor
▁üstesinde
▁malzemeler
▁dik
▁lik
▁45
▁kısmında
▁benzeyen
▁Einstein
S
▁kutsal
▁saldırı
▁yöne
▁söylediğim
▁oluyorlar
▁bahsediyor
▁düşünüyordum
▁fırsatı
▁Babam
▁bireysel
▁Beş
▁söylediler
▁savaşı
▁dava
▁sormak
▁endüstri
▁yenilik
▁anlatıyor
▁Ay
▁yaşama
▁kullandık
▁eğlence
▁Sonuçta
▁Kendisi
▁değiştiren
▁kişilerin
▁gelmek
▁ucunda
▁elle
▁değiştirme
▁durumlarda
▁İlki
▁düşündüğümüz
için
▁ediyorsunuz
▁olayı
▁şirketlerin
▁kuralları
▁peşinde
▁kullanıyorlar
unu
▁hayret
▁makinesi
▁projeler
▁kaya
rken
va
▁kanıt
▁arttı
▁aşk
▁bölgesinde
▁bölgelerde
▁işini
▁olmasa
▁ürünleri
▁yanın
▁güvenilir
▁yapılar
▁özellikler
▁kullandı
▁mekanik
▁hız
acak
▁etkin
▁mühendislik
▁gaz
▁doğada
▁ailem
▁fosil
▁75
▁sona
▁İran
▁lerin
▁koyuyor
▁olamaz
▁alabilir
▁geçmişte
▁yaratan
▁ekmek
▁dini
▁Afrikalı
▁geldik
▁olabileceği
▁On
▁çabuk
▁geçmek
▁oluşur
▁kahkahalar
▁bas
▁ayakta
▁gibidir
▁yapalım
▁duyu
▁Avustralya
▁kum
▁kedi
▁İşin
malısınız
▁sürdü
▁oluyordu
▁dönem
araya
▁klinik
▁engelli
▁ların
▁ediyordu
liğin
▁yapısını
▁bahsediyorum
▁edelim
▁temelde
▁oldular
▁açıyor
▁ısınma
▁böcek
▁işlerini
▁Günümüzde
▁demokratik
▁idare
▁diyordu
▁yaparsa
▁çalışarak
▁ayn
▁çalışmaları
▁mesafe
▁kullanıcı
▁bedava
▁soruları
▁dolayısıyla
▁Meksika
▁kemik
ey
▁dile
▁99
▁alternatif
mizin
▁edebiliyor
▁fikirlerin
▁özellikleri
▁anında
▁Hayd
▁Sanat
▁aldığımız
▁cesur
ar
▁projesi
▁Paul
▁yolları
▁yerleri
▁dünyası
▁Anders
▁döndüm
▁yazdı
▁bazılarını
▁yapmanız
▁kullanabileceği
▁iyisini
▁testi
▁tanesini
uantum
▁sandalye
▁sayısını
▁teknolojileri
▁şeklini
▁katkıd
ına
▁çalışmayı
▁arkadaşları
▁organizasyon
görebiliyorsunuz
▁kod
▁doğanı
▁elimde
▁geçme
▁tipik
▁pozitif
▁seçenek
▁babası
▁Yakın
▁haritası
▁rekabet
▁Washington
▁tarzı
▁kriz
▁Fransa
▁alıntı
▁olacaklar
rek
▁problemleri
ebilirsiniz
▁zorundasınız
▁saniyede
▁mağara
▁Merkezi
▁hareketleri
▁siyahi
▁kulağ
▁sahte
▁edeceğim
▁çıkmış
▁aktivite
▁Dan
▁bakacak
▁organ
▁birbirimize
▁Bizi
iyorum
▁ler
▁mutlak
▁kullan
▁Sonrasında
▁büyüyen
maya
▁kısaca
▁adalet
▁anlar
▁saçma
▁larda
▁fotoğraflar
▁noktalar
ge
abilir
▁görmüş
▁olabiliriz
▁kalmak
▁tarihte
suz
▁hayatım
▁Para
▁Adı
▁sigara
ver
▁yanıt
▁iyidir
▁krizi
▁dediğim
▁şok
▁yaşındaydı
▁teşhis
▁etkisini
▁2008
▁moda
▁değerler
▁Darwin
mızın
▁Francis
▁insani
▁şansı
▁Yüksek
▁NAS
▁eşsiz
▁şüphe
▁Mısır
▁bomba
▁kör
▁bıraktı
▁öğle
lup
▁yalan
▁kırsal
▁herkesi
mıyor
▁yarıyor
▁normalde
▁Bay
▁İlginç
▁Y
▁bulundu
▁görün
▁savaşta
▁Nijerya
▁Allah
line
▁başlayabilir
▁kadınlara
▁kızı
▁konuşan
▁giri
▁bırakmak
▁Tanrım
▁enerjisi
layarak
▁resimde
▁ilişkiler
▁çıkmak
▁ha
▁zorlu
▁yenilikçi
▁Bilgi
▁hükümeti
▁yukarıda
▁görürüz
▁soyut
▁Uzay
▁trafik
▁öğrendiğim
▁gazete
▁çevresinde
lerimizin
▁MIT
▁etkileri
▁miyi
▁23
▁ortam
▁başkanı
▁not
▁konular
▁deli
▁bakteriler
▁istiyordum
▁hafıza
▁Richard
▁saf
▁Oh
▁etkiler
▁haklı
▁alanını
▁Ma
▁görüntüler
▁Angeles
▁konuşacağım
▁Merhaba
▁miktarı
▁çalıştığı
▁görünmez
▁Kız
▁Açık
▁Eğitim
▁Ki
vi
▁ayı
▁Kore
▁tasarımcı
▁istedikleri
▁kalıcı
▁karınca
▁değişiyor
▁yapmalıyız
▁duru
bi
▁sesler
diği
▁getirebilir
▁1000
▁çekti
▁bilmiyordum
▁beslenme
▁lise
▁Harvard
▁kol
▁tanıyor
yalım
▁yapabilmek
▁kaldım
▁Genç
N
▁sonuçta
▁ettikleri
nce
▁dehşet
▁veriyorlar
▁kalır
▁piyasa
▁ötesin
▁sağlam
▁buyuk
▁problemler
▁kullanılabilir
▁matematiksel
▁yeteri
ndeki
▁üreten
▁suçlu
▁kıyasla
▁teki
▁isterse
▁geleceğin
▁takdir
▁salgın
▁görüşme
▁öncesi
▁bakmaya
▁Birisi
▁198
sem
▁geride
▁büyüleyici
▁Temel
▁Savaşı
▁hal
▁kişilik
▁iyisi
▁geçirmek
▁teklif
▁taş
ydım
▁gösteri
▁ayağa
b
riyoruz
▁yüzü
▁gerekti
▁işletme
▁Eve
▁tasarlanmış
▁olanları
▁Arap
▁halkın
▁şirketleri
▁tutan
ilebilir
▁diş
▁isterdi
▁araştırmalar
▁patlama
▁sorumluluk
▁yapabiliri
ğine
▁çarpıcı
▁iğne
▁Ç
▁ver
yıllardır
▁Charles
▁binanı
▁2010
▁kimya
▁reklam
▁doktorlar
▁sisteme
▁uça
▁etkileyen
sinde
▁tepe
▁başlamıştı
▁22
▁geldiler
et
▁uzman
T
▁nüfusun
rerek
▁düşünürsen
▁galaksi
▁gördünüz
as
▁vergi
▁Senin
▁ilgisi
▁açan
▁tutar
▁empati
lardır
▁kurduk
▁27
▁bilen
▁vs
acaba
▁sonuc
▁yapabiliyor
ımız
▁deneyler
▁değilse
▁Altı
▁600
▁yorum
▁şimdiki
▁Rusya
▁197
▁öğretmenler
▁TV
▁öğreniyor
▁yaparlar
▁uyku
▁İnsanları
▁Dört
▁savaşın
▁yaşamı
▁Kadınlar
▁ailesi
▁şahit
▁nüfusunu
▁Yıllar
▁oranları
▁aldılar
▁bulma
▁hastane
mek
▁işleme
▁adil
▁kazandı
▁deneyi
▁protein
▁Sana
dy
▁gören
▁yapmam
▁Ş
▁hayatımda
▁kurtarma
masını
▁özgürlük
▁çoğunluğu
▁yarısını
▁türleri
▁istemez
▁dün
▁öncesinde
▁aileler
▁Jam
▁Böylelikle
▁hücresi
▁klasik
▁domuz
dığı
▁Obama
▁istediğini
▁mıydı
▁beceri
▁ulaşım
fen
acağını
▁metal
▁mezun
▁zemin
▁fiyat
▁ikisini
▁ücretsiz
▁kaynaklı
▁deneyimi
▁kadınları
▁çiçek
▁istiyorsunuz
▁getirme
▁Açıkça
▁performans
▁hücrelerini
▁gençler
▁aşama
▁gösterdiğim
▁devre
▁ötürü
▁kararlar
▁kendisinin
▁düşüyor
▁gelişen
▁yararlı
▁vaka
▁doktora
▁dersiniz
▁bilimin
▁etik
ıldığında
▁dönüyor
▁kütle
▁ayda
▁anlattı
▁içerik
▁kulak
▁atık
▁hiçbiri
▁hastaların
▁zararlı
▁arı
▁olunca
▁tanıdık
▁sahipti
▁bakan
▁seferinde
▁gidebilir
▁olursunuz
▁tarif
▁marka
▁düzenleme
sıl
st
▁seri
▁çekildi
▁aptal
imi
▁inan
▁delik
▁bizleri
▁Sizler
▁gerçekleştir
▁ni
▁kızın
▁geçiriyor
▁okur
▁kültürü
▁işlerin
▁sürüyor
▁uçuş
▁Web
▁tersi
▁yoldan
▁şiir
▁1960
▁iPhone
▁yerin
▁düşünüyorsunuz
▁yapısı
▁liderler
▁cesaret
▁Mo
▁giderken
▁sürecin
▁Kötü
▁topluluğu
aman
▁hızı
▁modeller
▁doğrusu
▁servis
▁site
▁çıkacak
▁Ardında
▁savaşa
▁sağlama
▁öfke
▁çeşitlilik
▁kitaplar
▁istiyordu
▁bilinçli
▁ilgilidir
▁cihazı
▁Kendimi
▁evinde
▁alışveriş
▁bulduğumuz
▁çek
▁La
▁Bildiğin
▁gidecek
▁alıyorlar
▁1990
▁bağımlı
at
▁merkez
▁ticaret
ve
▁nöron
▁öylesin
▁kaçınılmaz
mesi
▁di
▁Amerikalılar
▁ağaçlar
▁çocukken
▁yük
▁dinamik
▁insanlığın
▁balıkları
▁binalar
▁makineler
▁algı
▁başı
▁etmesini
▁alınan
▁Deniz
▁göç
▁şişe
▁demişti
▁katkı
ba
▁öğretti
▁Ale
▁duyduğumuz
▁olmam
▁ameliyat
▁kontrolü
▁çeker
▁yapabilecek
▁bitirmek
▁kazanmak
dum
▁üste
ebileceğimiz
▁hayatımızı
▁şefkat
▁haftada
eceğini
▁ölüyor
▁meşgul
▁hidrojen
▁denir
dunuz
▁kılan
▁görülüyor
▁gittiğini
▁CO
▁Başkan
▁aldığım
▁başım
▁yapmaları
▁doğu
▁kardeşim
▁yazma
ında
▁üyesi
▁öğrencilerin
▁mercan
▁dördüncü
▁organizma
▁gitmeye
00
▁kurgu
▁kömür
▁ekoloji
▁görebileceğiniz
ğı
▁konuşuyor
▁Müslüman
▁alıcı
▁kullanabilir
▁2007
▁resme
manyetik
▁açar
▁bilinç
▁vücudun
▁döner
▁değiştirecek
▁yapıyordu
▁savunma
▁Te
▁ol
▁Michael
woo
▁keşfettik
▁tut
▁Hayat
▁çekme
▁gerçekleşen
▁hizmeti
▁Yaşam
▁gelmiyor
▁Esas
▁dinlemek
▁düşünen
▁Amazon
▁sınırları
▁kilit
▁gerektiğin
ılabilir
abiliriz
sızın
▁Savaş
▁açığ
▁iste
▁şekillerde
larımı
▁şekilleri
▁çeki
ebilir
▁izlemek
▁nasil
▁baktık
▁geçici
▁çocuğ
▁erişim
▁dayan
▁Thomas
▁süreli
▁içeriyor
▁söyleyebilir
▁ndan
▁ağın
▁gelmez
▁sahnede
▁oturan
▁be
▁İsveç
▁aletler
▁etmez
▁Oray
▁düşüncesi
▁biyo
▁çalışıyordum
▁keşfetmek
▁çalışmanın
▁konularda
▁dağ
lenmiş
▁1980
▁ihtimali
▁karşılaştı
▁Tom
PS
▁Bilgisayar
▁İslam
▁çatışma
▁sinyal
▁girer
mize
ici
▁üretiyor
tu
▁yaşamış
▁ölümcül
▁Nerede
ydim
▁makina
▁karşılaştır
▁olmalıydı
▁yollarını
▁çıkış
▁versiyonu
▁gürültü
▁okumak
▁yapılacak
▁geliyorlar
▁bulduğum
▁teslim
▁yapmıyor
▁inanç
▁ölen
▁kas
▁uzunluğunda
▁önde
▁taşıyan
▁gelin
▁hastalıkları
▁internette
▁amacıyla
▁vadede
larsa
▁gösterdiği
▁koku
min
▁daire
▁detaylı
▁maliyet
▁Görüyorsun
▁merhamet
diğini
▁görüntüsü
▁noktasında
▁konuşmalar
–
▁öncelikle
▁problemin
▁çocuklarımız
▁belirgin
▁olabilirler
▁tuvalet
▁bayağı
▁demiş
▁kuşlar
▁Ekonomi
▁Sol
▁ekranda
▁ekip
▁memnun
▁uzayda
▁direkt
▁paylaşma
▁Fransız
▁sorduk
▁gördüğü
▁katın
▁grubun
lü
▁güzellik
▁ırk
▁saatler
▁okyanusun
▁Az
▁tüketici
▁düşünebilir
▁nesneler
▁eylem
▁ilacı
▁You
▁geçtiğimiz
▁birliği
▁oynama
▁maymun
▁riski
▁onlarca
▁hayatında
▁düşünmüyoru
▁yarattığı
▁kıta
▁Bende
▁olmazdı
▁ceza
▁edebileceğiniz
▁teorisi
▁niye
▁hayvanları
▁açıklamak
▁koyun
▁meme
▁söylemeliyim
▁eksik
▁yumurta
▁heyecanlı
▁Sağ
▁Cevap
▁çıkarma
▁obje
▁oluştur
▁tahta
▁kaybetti
▁sera
▁com
▁meyve
▁anlaşma
▁dönelim
▁bölgelerinde
▁görür
diğimiz
ması
▁şehirlerde
▁biçimi
▁ismini
▁getirdik
▁büyüklüğünde
▁şaka
▁hadi
▁dua
▁balina
▁parçasını
▁denk
▁atom
▁ilkel
▁öte
▁çalışıyordu
▁top
▁kullanmayı
▁Birliği
▁söylemeye
▁evi
▁ölümün
▁yardımı
liğini
▁Beyaz
▁yön
▁söyleme
▁göğüs
▁uzmanı
▁kayda
▁yapabileceğiniz
▁sı
▁birileri
▁Steve
▁Alzheimer
▁okudum
▁tatmin
▁yönünde
▁seçimler
▁yayın
▁lider
▁gerçekleşiyor
▁derdi
▁istiyorsak
keresinde
▁satış
▁Latin
▁ini
▁anlatmaya
▁yüzünü
bu
riyorum
▁genelinde
▁müziği
▁Alman
▁bildiğim
▁öğrencisi
▁arkadaşı
▁zamanki
▁türde
▁bilgisayarın
▁his
▁çiftçi
▁ardı
▁seviyesinde
▁üretimi
leştirilmiş
▁geleceğini
▁bakıyoruz
▁ulaşma
▁ilişkin
▁Apple
▁bağışıklık
▁manzara
▁kazan
▁Konu
▁duymak
▁rapor
▁kullanıl
▁tutuyor
▁Paris
▁sokak
▁ahlak
▁bant
▁Mary
▁konuşurken
▁Seni
▁değerlendir
▁yapabileceğimiz
▁bulunur
▁yaratıcılık
▁tecavüz
▁Pakistan
▁kızların
▁duyarlı
▁basın
▁farklılık
▁kalmıyor
▁söyle
▁Araştırma
▁blog
▁bayan
▁alması
▁yapımı
▁Hangi
▁194
▁yaparsınız
▁Birden
▁girişimci
▁65
▁bütçe
▁öğrenmeye
▁Boston
▁kalmayı
▁fikrin
▁ellerinde
▁Soru
▁yazılmış
▁vereyim
▁is
ebiliriz
▁çoklu
▁oyuncak
▁annesi
▁umuyorum
▁doğdu
ün
▁hamile
▁pembe
▁gücüne
▁milli
▁çiftçiler
▁grip
▁olabiliyor
▁sevdi
bo
▁Higg
▁sorunların
▁bulunduğumuz
▁kuvvet
▁oran
▁çözümü
▁arabanın
▁Araba
▁orda
▁etrafındaki
▁gidiyoruz
mda
dü
▁ülkedeki
▁yetersiz
▁derken
▁çekilmiş
▁başlangıcı
▁of
▁Mavi
▁bekleyen
▁kablosuz
▁durumlar
▁eğri
mektedir
▁atmak
▁aralarında
▁sözü
▁karşılıklı
▁Mart
▁yaparız
▁görünüyordu
▁engeller
▁bölümünü
▁günler
▁yeteneği
▁göreceğiz
▁mesajı
▁işçi
▁arkasındaki
▁Yeşil
▁oyuncu
ği
▁pratik
▁toplumu
▁ilişkili
▁kurtulma
▁edilemez
ore
▁durdu
▁güvende
ımızı
▁yıldızlar
▁Yo
▁şiddetli
▁gözle
▁kaydı
likten
▁arzu
▁döneminde
▁Önemli
▁pasif
▁değişen
abilecek
▁yüzey
▁müşteri
▁eseri
▁etmişti
▁Lüt
▁söyleyeceğim
▁geleceğ
labilirsiniz
▁tasarımcılar
▁oluruz
▁Hepimizi
▁çözme
▁gittiğimde
sında
▁yirmi
▁üstü
▁büyüyor
nize
eceğiz
▁varmış
▁boyutta
▁parçaların
leme
▁Beyin
▁BM
▁tamir
▁Hepiniz
amazsınız
▁banka
▁değiştirmeye
mezsiniz
▁varlığını
▁gerçekleşti
▁dışındaki
▁yazarı
▁olumsuz
▁değiş
▁diyebiliriz
▁yoksul
▁köy
san
▁hediye
▁Birinci
▁yaşadığım
▁edeceğiz
▁organizmalar
▁yönü
▁üstün
▁kuruyor
▁görebiliyoruz
▁sergi
▁hikayeleri
▁Devletleri
▁başardık
▁beden
▁ayna
▁gülüşmeler
▁oyunları
▁öğrenebilir
▁gelmesi
▁çıkma
▁gizemli
▁anlatır
▁kaybı
ıyor
▁dönmek
▁istediğimi
▁kızım
▁Herkesi
▁lisans
ah
▁Re
▁asker
▁Yaptığımız
▁söylüyorlar
▁tanıma
▁istediler
▁türler
mın
▁değiştirir
▁Gelecek
▁açmak
▁kuvvetli
Tub
▁gri
▁çirkin
▁noktaları
▁insandan
▁modelleri
▁işareti
▁seçti
▁oğlu
▁firma
12
▁yapmasını
▁itiraf
▁yaşıyordu
▁sanmıyorum
▁ülkeye
▁ayakkabı
▁yürüyüş
▁mantık
▁odadaki
▁Gülüş
▁nı
▁yatan
▁the
▁bariz
▁çağı
nizin
▁istersiniz
▁olmalıdır
▁Biliyor
▁ücret
▁ağlar
▁düşünmeniz
▁amaçlı
▁hariç
▁ışığın
▁kurtarmak
▁sahney
▁etkiliyor
▁bulur
▁bölgesi
▁Gece
▁üreme
▁başlangıçta
▁görüntüleme
▁oluştu
▁oyunun
▁açlık
▁devamlı
▁mucize
▁pencere
▁olurlar
▁fabrika
▁utanç
meye
▁Pasifik
▁bulut
▁dâhil
▁doğan
dışı
▁kitabın
▁baz
▁yöntemler
▁yapılabilir
bire
▁boyutu
▁çözmeye
za
sair
▁getirdiği
▁orası
▁beklenmedik
▁ettiğiniz
▁yatak
▁noktasın
▁seyirci
▁Be
▁kampanya
▁göze
▁global
▁yumuşak
▁başkalarının
▁önemsiz
▁kariyer
▁baylar
▁hile
▁gözlerini
▁duygular
▁havaya
▁sihirli
▁düşünüyordu
▁Okul
▁sohbet
▁yetenekli
▁başlayacak
▁iyiydi
▁endüstriyel
▁piyasay
▁mekanizma
▁alanların
▁düşünmemiz
▁Burda
lığ
▁hisseder
▁oluşturdu
▁kullandım
▁tarihini
▁ruh
▁İklim
▁felaket
▁insansız
▁DH
▁haklarını
▁değişimin
▁Kısaca
▁değerlendirme
dık
▁Çevre
▁aşkın
▁sanayi
▁blok
▁tren
▁kanun
▁Milletler
▁inşaat
▁Gor
▁çıkarıp
▁cun
fik
▁kullanışlı
▁250
▁anki
▁1970
▁oturuyor
▁kendin
▁gözleri
▁adeta
▁Birlikte
▁yaşıyorlar
▁verilerin
▁listesi
▁görüntüleri
▁alabilirsiniz
▁içlerinde
▁mantar
▁uyarı
▁Peter
▁birey
▁orijinal
▁Şey
▁çeşitliliği
cük
▁düşünür
▁etmeniz
▁çoğumuz
▁yapmıştı
▁çatı
▁ayırt
▁köprü
▁zorluk
▁kur
▁kalabalık
▁oradaydı
▁kalitesi
▁Park
larınızı
▁meşhur
▁yerlerin
▁İçinde
▁olmayabilir
▁haberleri
▁sekil
▁başladığımda
▁aramak
▁maliyetli
▁gidin
▁rakamlar
▁Hayal
▁açıp
sının
▁duyma
▁hasar
▁yılını
▁kolu
▁taşıma
▁yoksulluk
▁esnek
50
▁edilir
▁oynar
▁32
ymış
▁bekler
▁müze
▁birbirini
15
▁böcekler
▁tekne
▁bebekler
lanan
▁tutma
▁oranını
▁yapıldığını
▁nedenini
▁sürecini
▁toplantı
▁izleme
▁Toplum
▁eşim
▁derinden
▁sorum
▁arasından
▁yarısında
▁Enstitüsü
▁ideal
▁koyduk
▁gösterilen
mıştım
▁hastanede
▁beyninin
▁hayvanlarda
▁özellik
▁konuştuk
▁dayanıklı
▁olacağına
▁Dünyayı
▁gerçekçi
▁tarihin
▁geçi
▁oturur
▁merkezin
▁elin
▁fırsatlar
▁rengi
▁elini
▁hâlin
▁kalın
abileceğimiz
▁saç
▁buluyor
▁gerçekliği
▁neydi
▁istekli
▁kurumsal
▁kap
▁duyuyor
▁diz
▁olmasından
▁kitapları
▁yaptığımı
▁doğası
▁babamın
▁iniş
▁olayın
▁Hint
▁akciğer
▁Internet
▁2005
▁otorite
▁kısme
▁birlik
▁pazarlama
▁1950
▁parçalarını
▁yapıyorsunuz
▁benzin
▁kavram
▁şurada
▁onur
▁kaza
gi
▁başladığı
▁yapacağını
▁dönen
▁çılgınca
▁yazıyor
▁gözlem
▁biliyorlar
▁izliyor
▁durur
▁vermiş
▁yepyeni
▁duygusu
▁sürecinde
dikleri
▁sıcaklık
▁yaşta
▁çocuklarımızı
▁düşüş
▁geliştirdik
▁alırsınız
imizi
▁Kısa
▁İster
▁kıyı
▁suda
▁değiştir
▁fotoğrafları
▁uyumlu
▁hayali
▁canlılar
G
▁yarın
▁çizim
▁konferans
▁hizmetleri
▁içe
▁Tasarım
▁inanmak
▁hepinizi
▁Jim
▁zehirli
▁değerleri
▁Uluslararas
▁verip
▁verildi
▁çıktığı
▁yapmadı
▁Bin
▁oynamak
▁direk
▁Eminim
▁ülkeleri
▁başardı
▁Holly
▁işliyor
▁geçirdi
▁anladı
▁dönüm
▁minik
▁aşık
▁Gerçekte
▁resimleri
▁oldugunu
mis
▁türlerin
▁yönetimi
▁teknolojisini
▁çıplak
▁temin
maktadır
▁etmeliyiz
▁oturdu
▁olmalısınız
▁dersi
▁destekleyen
▁getirecek
▁yaratmaya
▁Ha
▁bölgey
▁Ana
▁alanlarında
▁garanti
▁kendiliğin
▁meselesi
▁derler
▁edebilmek
▁belirsiz
▁gerektirir
▁boşluk
▁atmosfer
▁düzey
▁alanlarını
▁uygulamalar
▁cevaplar
▁nehir
▁geliştirdi
▁düşünürken
▁simetri
▁halkı
▁vakti
▁nüfusu
▁herşeyin
▁çalış
▁yapılır
▁gidiyordu
▁inanı
▁kaynaklarını
▁yanındaki
▁once
▁arar
▁ödülü
▁Önümüzde
▁depresyon
▁gerektiren
▁hakim
▁düşman
▁olayları
▁arkadaşlar
▁entegr
▁hareketin
▁stres
▁yaşar
▁Hep
▁fayda
▁şekiller
▁yavru
lenen
▁tavan
▁Tahmin
inizin
▁insanla
lerinizi
▁okulu
▁macera
▁demir
▁resmin
▁dikey
▁tümör
▁sunmak
▁iyice
▁tanı
▁gösterme
▁varlığı
▁yara
▁hayati
▁evlerin
▁cihazlar
▁genom
▁yerlerinde
▁hatırlayın
▁Roma
▁Derek
▁Geçtiğimiz
▁ilerliyor
▁devletin
▁Modern
▁değişir
▁topluluğun
▁çıkaran
▁fon
bilir
▁nazik
▁geçtik
▁resmini
▁kaldır
▁yaratıklar
▁Kongre
▁şarkısı
larca
ford
▁unutma
▁istemedi
▁aşamada
▁taşımak
▁araştırmacı
▁verebilir
▁konuş
▁kahraman
▁yaşamaya
▁2011
▁Do
▁koca
▁olmama
▁kötüsü
▁olabildiğin
▁y
▁gördüğümde
▁sürpriz
▁özgün
▁küçü
▁girdim
▁ekonominin
▁Haiti
▁kart
▁çelik
▁ailelerin
▁Kaç
BG
▁uzağ
▁yaşlanma
▁Kırmızı
▁süresin
▁kapsamlı
▁olacağım
▁kolaylık
▁sevimli
▁dakikalık
▁Doğal
▁kavramı
▁tasarımın
▁sokakta
▁oluşturduk
▁dar
▁gücün
▁dünyamızı
▁bilinmeyen
▁değerini
▁sanatı
▁bakma
▁büyür
▁Yoks
▁koşullar
re
▁çalışanlar
▁temeli
▁seslerini
▁sır
▁yarattık
▁olmalarını
▁Baba
▁seviyesi
lalım
▁koruyucu
▁eğitimin
▁oğlum
▁katman
▁olasılığı
▁sunuyor
▁aklın
▁almayı
▁verdiğim
▁oluşturma
▁süresi
▁öz
▁adapt
▁mobil
▁vermesi
▁algılama
▁üretme
▁Hepsini
▁golf
ırf
▁mahalle
▁anlamamız
yum
▁büyüklükte
▁kullanıyoru
▁aşağıda
▁kentsel
▁olgu
ürekli
▁tanımı
▁yerli
▁çıktım
▁baktığımda
tür
abileceğini
▁mülteci
▁futbol
▁196
▁sola
▁havalı
▁tur
▁mekan
muz
▁ilan
▁Ta
▁üretken
▁intihar
▁onda
▁farklılıklar
▁ediyordum
▁çiz
▁evlilik
▁aramaya
▁birbirlerini
▁istatistik
▁izleyen
ilmiş
▁mektup
▁sayılar
▁etmekte
▁gereği
▁bağlıdır
▁oyunlar
▁ağacı
▁Bob
▁nano
▁balon
▁silahlı
▁edemez
ır
▁ülkeyi
▁alındı
▁kablo
▁Kalp
▁kusursuz
▁kaynakların
▁giderse
▁düşer
zi
▁düşünmeyi
▁adlandırıla
▁sesin
▁yönden
▁keşfettim
abiliyor
▁çekim
▁seviyey
▁toplama
▁tarama
▁yaratabilir
▁optik
▁kalem
▁keşfetme
▁hastası
▁yapabilirler
▁hızını
▁kalacak
▁haberi
▁gösterecek
▁durumunu
ay
ur
▁göçmen
▁mimar
▁harcadı
▁tiyatro
▁Hikaye
▁tümü
▁tasarlamak
▁mısır
▁bittiğini
▁gerekecek
▁temas
▁hayl
▁yollarda
▁um
▁bilişsel
▁buzun
▁keskin
▁renkler
os
▁fotoğrafta
▁şanslı
▁oday
▁diyebilirsiniz
duk
▁yüzeye
▁uzaya
▁yazan
▁üniversitede
▁ülkeden
▁kurumlar
▁birçoğu
▁yetecek
▁izledi
▁hakikat
▁yayılan
▁bırakma
▁dayanıyor
▁patent
▁modelin
▁yazmak
▁internetin
▁çalışmasını
▁görüşü
▁tedavisi
▁programları
▁iyimser
▁şirketin
▁polen
▁ham
▁nesli
▁birbirimiz
▁PM
▁Rio
▁düşünürsek
▁devrimi
▁konuşmanın
▁yollarla
lığını
iyorlar
▁bağış
hattan
▁araçların
▁taşı
▁Evren
▁denedik
▁ekstra
▁arkasın
▁sağladığı
▁anlatan
▁gidiyorlar
▁akademi
▁sat
▁inek
▁göstermeye
▁anlıyorum
▁yaptığımızı
▁kal
▁ağaçları
▁bahçe
▁aptalca
▁çelişki
▁bayanlar
▁CEO
çi
▁hayatları
▁içme
▁Hareket
▁seçme
▁mısın
▁duyduğum
▁çıkardık
▁örnekleri
▁şikayet
▁Robert
▁keyif
▁miktarını
▁duyduğunuz
ydü
▁desteği
▁Muhteşem
▁Art
ö
▁yayıldı
▁ihtimal
▁kalırsa
ter
▁gazeteci
▁kartı
▁üretilen
▁Kanser
▁sıkıntı
▁kurmay
▁Uganda
▁uygulamaya
▁fikirlerini
▁düşünüyorlar
▁götürdü
▁içeriği
▁çıktık
▁gerekmiyor
▁gezegenler
▁çerçeve
▁getirmeye
▁zordu
▁pilot
▁girmek
▁planı
▁sisteminde
leyerek
▁gazı
▁attı
▁Hasta
▁okumaya
▁Martin
melisiniz
▁bakıyoru
▁vadeli
▁planlama
▁akım
▁erişimi
▁Nobel
inin
▁insanlarda
▁öğrenir
nuzu
▁kanserin
ol
▁rolü
▁puan
▁takımı
▁Ed
▁kaldık
▁birbirimizi
▁ortamı
▁bitti
▁yapmakta
▁öğrencileri
▁sonuçlarını
▁ileride
▁Ba
▁görü
▁seviye
▁Mark
▁çalışı
▁gideli
▁aileleri
▁varken
▁kullandıkları
▁artı
▁davranışı
▁yerdir
▁yarat
▁zinciri
▁finanse
▁sistemimiz
▁sayıları
▁fotoğraflarını
▁borç
ğa
▁toplumlar
▁Fark
▁söyleyecek
▁kullanımını
▁çağ
▁fikrine
▁getir
▁yıldızların
▁bitkilerin
▁öğrendiğimiz
▁Ar
▁nöronlar
▁Oysa
▁benzediğini
▁tümüyle
mişti
▁kalmadı
▁güvenliği
▁bekliyor
▁bırakıp
▁195
▁ekonomisi
▁bakıyorsunuz
▁dönme
▁topu
▁şarap
▁kültürün
▁cidd
ime
▁hatırlıyor
miştim
▁girişim
ko
▁dönüştürmek
▁istisna
abilmek
▁vb
▁egzersiz
▁sorusu
▁hayatımız
▁potansiyeli
▁gelişimi
▁programlama
▁heykel
▁çıkarak
$
▁virüsü
▁teknolojilerin
▁kazanıyor
▁inin
▁verdikleri
▁otizm
▁alıyordu
▁Ölüm
▁giren
▁Amerikalıları
▁başladığım
▁şifre
▁grupları
▁etkilerini
▁istediklerini
▁azalma
▁endüstrisi
▁esnasında
▁evrimin
▁şehirlerin
▁halini
▁yaratacak
▁haritasını
▁bulun
▁kaplı
▁hareketini
▁gittiği
ilecek
▁sakin
▁muyu
▁gezi
▁çıktığını
▁Californi
▁müziğin
▁imza
hi
ong
▁başlarında
▁kullanıldı
▁bırakıyor
▁yığın
▁and
▁Gand
▁anlayış
▁yürüyor
▁işlemi
▁Ön
ger
▁yapıcı
▁koyma
▁yanımda
▁hesab
▁edildiği
▁başların
tim
▁uyar
▁dergi
▁bozuk
▁çamaşır
▁fotoğrafını
▁Japon
▁konuşmamı
▁hatırlar
▁atmosferi
larımızda
▁yaraya
▁kopya
▁rica
▁Asla
▁GSY
▁davranışlar
▁kutup
▁terör
▁röportaj
▁geçecek
be
▁Enerji
▁öğrendi
▁kuyruklu
▁sinyalleri
▁detay
caba
▁Di
▁terörist
▁Yerel
▁eyalet
▁şehr
▁kurulu
▁olmasaydı
▁26
mde
zerinde
▁yetişkinler
▁hastaney
▁hızda
▁başlattı
▁sorduğum
▁efsane
▁silahlar
▁duyan
▁Güvenlik
▁tamamını
ymiş
▁Street
▁kurum
▁adamların
sen
▁özür
▁köyde
▁Sta
▁Aile
▁yetenek
▁favori
▁okullar
▁Vadisi
▁Konuşma
▁şart
▁bilinir
▁taşındı
▁taşır
▁yolculuğ
▁bahseder
▁yıla
▁Ev
▁Bakanlığı
▁severi
▁33
▁seviyesini
▁inceleme
▁enteresan
▁olayların
▁yuva
▁aynısını
▁türünü
▁MS
▁metafor
▁dosya
▁sent
▁mühendisliği
▁bölümünde
▁kelimesini
▁çıkarır
▁olağan
▁art
▁95
▁120
▁700
met
▁olanların
▁türün
▁gitmiş
▁gereksiz
▁gizem
▁çalışacak
▁motive
yo
▁gelirse
miyor
▁bakımından
▁vücudunu
▁odanı
▁yarışma
▁konuştum
▁söylerdi
▁yazmaya
▁korumaya
▁Pan
▁sebebiyle
▁özgürlüğü
▁kavga
▁toplamak
▁sorar
steli
▁mühendisler
▁ulaşılabilir
▁saati
▁bunda
sıyla
▁zorundayı
▁karşılaştığımız
▁dönüşüyor
▁geceleri
▁diğerlerinin
▁yazılı
▁bölgeleri
▁kişilere
▁ürünün
▁prototip
▁modelini
▁çıktığında
▁değiştiğini
ut
▁boşluğu
▁tipi
▁kalanı
▁Evrim
▁hastalıkların
▁istemiyor
▁kompleks
▁bahsetti
▁soruyor
▁orkestra
▁Merak
▁karıncalar
▁Devam
▁dizüstü
▁yatıyor
▁sorunumuz
▁durmak
▁gerçekleştirmek
▁güçleri
▁somut
▁gösterebilir
▁bırakır
▁maddi
▁oturma
▁kasaba
▁kafasını
▁bizde
▁otobüs
▁800
▁kirli
▁anladık
▁hepimizi
▁İnanıyoru
▁ilgiliydi
▁bireylerin
▁ikincisi
▁akışını
▁gir
▁toz
▁ilki
▁buluyorum
▁yuzde
▁dunya
▁etraf
▁fil
▁artışı
▁laboratuvarda
L
▁Ortalama
liyor
▁yapmaktan
▁derim
▁başlayı
▁hapse
▁köşesinde
▁söyleyeyim
▁sev
▁kadına
▁Geleneksel
▁farkındalık
▁öğretmek
▁kullanılır
▁başlay
▁okulun
▁akıllıca
▁görmeyi
▁uzmanlar
▁kelimesi
▁günümüz
▁riskli
▁ilgimi
▁ölçü
▁ailenin
▁atıyor
▁moleküller
▁yazıcı
▁sınıfta
▁negatif
▁beraberinde
▁maddeler
▁masa
▁Sonraki
▁güce
▁karikatür
▁görebiliyor
▁meslek
▁ulaştı
▁çağında
▁acımasız
▁tedarik
▁koloni
▁etmeli
▁okyanusta
▁ağaçların
gide
▁tamamiyl
▁Frank
▁düşündüğünüzde
RB
▁konum
▁olmasıydı
▁işimi
▁durma
▁yapıldığı
▁sorunlarını
yıp
▁yenilenebilir
▁telefonları
▁gelmesini
▁ilişkisi
▁Chicago
▁çalışabilir
▁sistemlerini
▁kalitesini
▁ormanda
▁adama
▁rüya
▁ayni
▁karşılaştırma
▁ah
▁iyileşme
▁karbondioksit
▁başlıyorlar
▁aynısı
▁belediye
▁fikr
▁çizgiler
▁içeride
▁bazılarının
▁hayatınızı
▁düşünceler
ğ
▁diyen
▁Sa
▁sebepten
▁Erkek
▁birleştir
▁araştırmacılar
▁ikisinin
▁Hâl
▁ilgileniyor
▁yaramaz
▁konuştu
▁kadını
▁uzmanları
▁kararı
▁gerektiriyor
ayet
▁ada
▁tutun
▁gönderme
▁aranızda
▁ederdi
▁avukat
▁şüphesiz
▁içimizde
▁İç
▁göreceğiniz
▁lu
▁bilin
▁davranışsal
▁ofis
▁deneyimler
▁Aslın
▁Noel
▁elma
▁Si
▁bağlaya
BI
▁benlik
▁elinizde
▁kullanılması
▁Yap
▁emekli
▁Ebola
▁ndaki
▁hükümetler
▁ışıkları
▁dağıtım
▁oh
▁refah
▁konuşuyordu
alıyorum
▁robotik
▁Bil
▁ağırlığı
▁azaltmak
▁ağları
▁başladığını
▁sanıyorum
▁özü
▁yazdığı
▁yaklaşıyor
eşke
▁edebilecek
▁arkadaşlarını
▁Normal
lerimi
▁gelmeye
▁gay
▁dilin
▁şartlar
▁fikrimiz
▁hareketli
▁yazın
▁tuttu
▁dikkatini
▁ölme
▁oluşturu
▁İtalya
▁şiddeti
▁ağrı
▁alkol
▁çocukluk
▁yeme
▁bulunabilir
▁eli
▁söyleyin
▁dramatik
▁ailesini
▁Özel
▁odası
▁ilişkileri
▁örnekte
▁etmedi
▁kanıtı
▁tavuk
▁kaynaklanıyor
▁geçirdik
▁projede
▁görmedi
▁sor
▁tanrı
▁söylemişti
▁gezegeni
▁çarpışma
▁nöroloji
▁kazanan
▁ekibi
▁Sahip
▁tahrip
▁keşfetti
▁eksikliği
▁kalkıp
eceği
▁desteklemek
▁başladığımız
▁Ford
▁arabası
▁açıldı
▁pound
▁gelişti
▁aşamasında
▁açıklıyor
C
▁başladığımızda
▁şehrinde
▁re
▁çalışacağım
▁aday
▁yüzeyi
▁yıkıcı
▁topluluklar
▁bazılarınız
▁icinde
▁hakkinda
▁onemli
▁Eg
▁malzemeleri
▁büyüklüğü
▁maaş
▁etmekten
▁politikacılar
▁gerçekler
▁vermeyi
▁yapacağımız
▁olacaksınız
▁anlattım
▁mahkum
▁olasılıkla
▁sormaya
▁ölümü
▁eğitimli
▁Wall
▁karşıtı
▁hareketler
▁verdiğini
▁alırken
▁Pazar
▁hikayem
dirler
▁bebeğin
▁çiftlik
▁Scott
▁yüzün
▁çalışmalarını
▁Hayatta
▁fena
▁sebze
▁faydası
▁duvarı
▁verirse
▁protez
▁kalanını
▁sigorta
▁gözler
▁çalışanları
▁geçiren
▁parası
▁balıklar
▁alınmış
▁gelmedi
▁ilaçların
▁Devlet
▁izleyi
▁ümit
taki
▁kaybetmiş
▁seç
▁kahverengi
▁çikolata
▁maalesef
▁eti
▁verilere
▁hayatımızda
▁yapıları
▁telif
▁diyalog
▁slayt
▁gibiler
ch
▁Fizik
▁düşündüğümüzde
▁özelliklerini
▁harcama
▁yüzeyinde
▁gönderdi
▁Silikon
▁gönderiyor
▁liderleri
▁gittiğimiz
imin
yorsunuz
▁say
▁türlerini
▁oynuyor
▁Hızlı
▁azalıyor
▁gölge
▁bulunmakta
ımızın
▁tanımlama
▁gözü
▁birşeyleri
▁şiddetin
▁arkadaşların
ire
▁gövde
▁anneler
▁Bankası
▁elbise
▁izni
▁koşu
▁sinek
▁Çocukların
▁kumanda
▁defalar
▁ilave
▁tarafına
▁hikayelerini
▁sesli
▁travma
▁Stanford
▁kâr
▁tabiki
▁paralel
▁hita
▁kurban
▁elinizi
▁kalite
▁Kan
▁başladığında
▁takılı
▁olasılık
▁hapishane
yapabileceğimizi
▁aldığını
dığımız
likte
▁Eric
▁Ray
▁Ri
▁vermişti
▁döndük
▁MR
ist
▁bağlamda
▁yardımıyla
▁nerde
▁Fikir
▁dilini
▁sınırlar
▁uğraş
▁konuşur
▁inanan
▁geldiğimde
▁kalktı
lanıyor
▁istey
yacağım
▁kalıp
▁bulunma
▁odaklı
▁Krallık
▁ölçek
▁maliyetini
▁lisede
▁annemin
▁gercekte
▁hani
▁Iste
▁doların
nıza
▁Go
▁bekleme
▁oluşturabilir
▁güneşin
▁hükümetin
▁aklımda
▁sağa
▁tutkulu
▁tatil
▁etmem
▁oynayan
▁Altın
▁edinme
rayı
▁oluşturduğu
▁sevdiği
▁akışı
▁sahipsiniz
▁sentetik
▁pirinç
▁mühendis
▁yürüdü
▁mutsuz
▁yasak
▁masada
▁kabile
▁göndermek
▁kaldılar
▁alırsa
▁dinleme
▁zorluklar
▁bağlantılar
▁alırlar
▁kilise
▁çevrimiçi
▁kaybediyor
▁sade
▁Atlantik
▁süt
▁lazer
▁doları
▁diyecek
▁Ja
▁ölçekli
▁Tarih
▁öncülü
▁ürünlerin
▁hayatlarında
▁Gülüşme
▁radyasyon
▁Demokrasi
▁devrey
labilir
▁götürüyor
▁bölgenin
▁anahtarı
▁hatırlatıyor
▁felci
▁ekledi
▁Benzer
▁terim
▁kon
▁başlattık
▁yüzeyde
teki
ber
▁maymunlar
ood
▁kapasite
▁arkadaşlarımı
▁anları
▁çağrı
▁inkar
▁üzücü
▁kanat
▁tak
▁platform
▁işimiz
▁Ekim
▁Erkekler
▁Genellikle
▁yürüme
▁kuralı
▁elleri
▁adımı
▁yaradı
▁Kongo
▁teması
▁tropik
▁enfekte
▁Ailem
▁konuşması
▁içten
▁geliştirmeye
▁davranışlarını
▁Niye
layıcı
▁gezegenlerin
▁renkte
▁maden
lanabilir
▁hiçbirşey
▁duyduğu
▁sanatçılar
▁kurumların
▁vizyon
▁denemek
▁Kral
▁çöl
▁tadını
▁gününde
▁deneysel
▁sayılır
▁as
▁diyet
▁büyümeye
ntarktik
▁iz
▁incelemek
▁bölgeler
▁geçtim
▁çektim
mıyoruz
▁geçir
▁genlerin
▁programlar
▁bilgisi
▁genler
▁etkiledi
▁seçimi
▁Projesi
▁tanımlamak
▁düşünmüştü
▁rüşvet
▁yöntemleri
▁anlamında
▁aracın
▁tüketim
▁enfeksiyon
▁katıldı
▁mutluyum
▁akla
▁konunu
▁kalk
▁güncel
▁yangın
lerimizde
▁İsa
▁Britanya
▁28
▁alkışlar
▁robotun
▁sıradaki
▁duyar
▁göstergesi
seydi
▁yeter
▁fizikçi
▁ödün
▁programın
▁başlamış
▁azaltma
▁Rus
▁bil
▁geçmişi
▁ortamında
▁itibari
▁odasında
▁hastalığ
▁kitabını
▁zarif
▁isterler
leyen
it
▁analizi
▁Belli
▁köle
▁gübre
▁söyledikleri
▁bel
▁siber
▁iyiye
▁binaların
▁Bush
▁ormanın
mle
diler
▁estetik
▁düzine
▁çıkması
▁hareketlerini
leyici
▁Seyirciler
▁yapmalı
▁katılım
▁çıkmaya
▁bilgisayarların
▁evcil
▁piyano
▁konuştuğumuz
▁mağaza
▁gelişmeler
▁Herşey
▁zekice
▁Dijital
▁bıraktım
▁kapasitesi
▁karşılığında
▁animasyon
▁görüldüğü
▁birimi
▁motivasyon
▁odaklanma
▁ülkelerdeki
▁yaklaşımı
▁ettiklerini
▁felç
▁şuan
▁yaşımda
▁Bilmiyorum
▁üyeleri
▁parçacıklar
▁kırılgan
▁yıldızı
▁uzaklıkta
▁mesafede
▁yükselen
▁edildiğini
▁cerrahi
▁boyle
▁değişken
▁aykırı
▁tanık
lerindeki
▁mürekkep
▁donmuş
▁yoksun
▁çıkmaz
▁değişiklikleri
▁Har
▁Hintli
▁eşcinsel
▁öldürmek
▁satmak
▁ağız
leniyor
▁alakası
emeyiz
▁kadarını
▁acayip
▁aleti
▁kelimeleri
▁görebiliyorum
▁hangisi
▁ellerini
▁çıkarın
▁sanatın
▁alabilme
ılıyor
▁miras
▁Ber
▁ölmüş
▁çal
▁Or
▁götürmek
▁millet
▁çalışmamız
▁düşünecek
▁ciddiye
▁ilgisini
▁getirip
▁Co
▁Oradaki
▁andan
nızın
▁ilaçları
▁anlayabilir
▁boyun
▁emniyet
▁sizleri
▁genleri
▁çocuklarım
▁kimi
▁anlamsız
▁Tim
▁felsefe
▁üretir
▁basınç
▁almıştı
▁AM
▁bağlar
▁ekosistem
▁tarayıcı
▁bulaşıcı
▁Wikipedia
▁yaşanan
▁Kişisel
▁tanıştığım
▁Na
▁saha
▁yaptığında
▁güne
▁üretmeye
▁istemem
P
▁çoğunda
▁ilgilenen
▁biten
luyoruz
▁avcı
▁duyduk
▁beyninde
▁Örnek
▁boyut
mesini
▁Alan
▁duy
▁ertesi
▁dön
▁anlamını
▁tartışmalar
istan
▁söyley
▁önemini
▁yaşıyorum
▁atar
▁tepesinde
▁yürürken
▁yarış
▁bilmiyorduk
▁alıyorsunuz
▁kesi
▁Florida
▁Yanlış
▁sitesi
▁yasalar
▁görünmüyor
don
▁olacağımız
▁çalışmaların
▁yöneten
▁Cambridge
▁Aşağı
▁çapta
dıklarını
▁Gene
▁fiyatı
▁interaktif
İH
▁yararı
30
▁Kutbu
▁evlerinde
▁ucu
▁Yedi
▁Aksi
▁sinyali
▁gene
▁denizaltı
▁örümcek
▁konuşmaları
▁başlıca
▁bardak
▁bildirim
▁arabaları
lanması
▁duymuşsunuz
▁yetenekleri
▁uçağı
cek
▁enerjisini
▁liberal
▁yaşadık
▁Biyoloji
halde
▁aralık
▁bakıyorlar
▁şebeke
▁davranışları
▁sessizlik
▁gitmesi
▁biliyorsun
▁baska
▁güzelliği
▁f
▁geçirir
▁evvel
▁huzur
▁uzana
leyip
▁ölüme
▁izi
▁düşme
▁eşitlik
▁yakalanma
▁geliştir
▁kırıklığın
▁grub
▁öykü
▁feminist
▁paylaş
▁kenarında
▁işleyen
▁kuralların
▁tekerlekl
▁Fi
▁dersler
▁yuvarlak
▁Mükemmel
▁izleyici
▁düşündüğü
▁askerler
▁toprağın
▁taze
▁iskelet
▁ailemi
▁yapıyordum
▁reçete
▁seçmek
▁değilsiniz
▁Haziran
▁açı
▁Smith
▁elimizdeki
▁etmeleri
▁Seyirci
▁dalış
▁varlıklar
▁roman
ebilecek
▁ağacın
labiliriz
û
▁yapmalarını
▁görülmemiş
dığınızda
▁Oyun
▁mali
▁İspanya
▁King
▁ilacın
▁kalması
▁halihazırda
▁başarısızlık
▁kendilerinin
▁gerçeğin
▁algoritma
▁bahsetmiyoru
▁yaparım
▁Kültür
▁bütünüy
▁haliyle
▁devletler
▁yayılıyor
▁dünyasının
▁vardık
▁birşeyi
▁azaldı
luğu
▁beton
▁şehirleri
▁bakıyordu
▁sağlay
▁85
▁c
▁küre
▁Proje
▁Big
▁aslin
▁dogru
▁oranla
▁arkadaşımı
▁değiştirerek
iliyor
▁bahsettiğimiz
▁bulunmaktadır
▁yıldızın
▁evreni
▁çalan
▁okullarda
▁unutmayı
▁görülebilir
▁oluşmuş
▁Le
▁protesto
▁hedefler
relim
▁LED
▁öğrencilerim
çı
▁bugünün
▁Film
▁yapabileceği
▁filmler
▁baktığımız
▁kazanma
▁duruyordu
aten
▁başkasının
lerdeki
▁kazanç
▁katlı
▁öngörü
▁cevabını
▁gerçeğ
▁arasın
▁dokunma
▁yapıyorsun
▁sistemimizi
▁Brown
▁bağlantısı
▁Müzesi
▁bulan
dığında
▁Hazır
▁aramızda
▁gözüken
▁dost
▁antik
▁Süper
▁konusunu
yordu
▁Sıradaki
▁arılar
▁Pi
▁tohum
▁gelmede
▁sinema
▁ları
▁telefonlar
rmal
▁faaliyet
▁Durum
▁Afgan
▁Gi
▁söylemem
▁değişikliğini
▁Gates
▁Simdi
mıştır
▁kg
▁İz
▁yil
▁şahane
▁şansımız
▁gönder
▁sanatsal
▁birimiz
▁aletleri
▁duydun
ri
▁boru
ral
▁beyne
▁eğilimi
▁fiyatları
▁yapardı
▁çabu
▁kültürünü
▁Binlerce
nizle
▁Taliban
▁toplayı
▁söylendi
▁altta
▁aldıkları
▁Günü
▁döngü
▁aracını
▁duymuş
▁çıkardığı
▁işkence
▁denizin
▁yüzen
▁arkadaşlarımız
▁dönüşür
▁erkeklere
▁arayı
▁Bron
▁Doğrusu
▁anlattığı
▁Masa
▁hisse
▁kurar
ilerinin
▁yerdeki
▁edilecek
nu
▁biliniyor
sunu
▁kısıtlı
▁adamla
▁interneti
▁etmenizi
▁çalışmıyor
▁hatalar
▁Yemek
▁nota
▁ulus
▁söylüyordu
▁Korku
▁yaşa
▁gençlerin
tra
▁bal
▁yabani
▁sistematik
▁dağınık
▁Tony
▁dönemi
▁kullanılmış
▁kodu
▁Yardım
▁bağlantıları
▁kalkınma
▁kutusu
▁Vakfı
rebiliriz
▁düşündüğünüz
▁uğraşan
▁onlarda
bir
▁yetki
▁Gün
eger
▁denemeye
ven
▁yakaladı
▁edebilirim
▁has
▁bilmez
▁memeli
▁açıklaması
▁olmamızı
▁tabaka
▁seksi
▁filmini
▁uzayın
▁Kara
ach
▁vatandaş
▁ruhu
▁etmektir
ılmış
▁organizasyonlar
▁aya
▁sürücü
▁kalmaya
▁örneğini
▁yetiştirme
▁konuşuyorum
▁başlamada
▁yapabilecekleri
▁açma
▁doğdum
▁filmin
▁bambaşka
▁şeyde
▁aradı
▁azı
müş
miştir
ha
▁damla
mizde
▁29
▁umudu
▁ş
▁Der
▁yaşlarında
▁kimlik
▁konuşuyoruz
▁İzleyici
▁etkileşime
▁söylenen
▁Doktor
▁Tıp
▁hastaları
▁varsayım
diklerini
▁gittiler
▁anket
▁seçiyor
▁oluşturmaya
▁eşi
▁Inc
▁Kendini
▁coğrafi
▁Yunan
▁İsviçre
▁Sahra
▁sektör
▁açıkladı
▁yüze
▁uygulaması
▁korkusu
▁Gana
▁yayılması
ua
sha
▁yerleştirdi
▁Jane
▁aklımız
inizi
ının
▁hissediyor
▁gecekondu
▁olanlardan
▁anti
▁karaciğer
▁dizisi
▁kış
▁Filistin
▁ölçmek
▁bölgesel
▁komşu
▁işgal
▁sistemlerin
▁yüzeyini
▁düzen
▁Mac
ian
▁mini
▁uğramış
▁Veri
asyon
▁oluştuğunu
▁yiyor
▁beynimiz
▁beyinde
madan
▁başlayacağı
▁gelirler
▁saniyeli
▁kılavuz
▁Yahudi
▁yakalamak
erry
▁Koruma
▁öbür
▁lideri
▁önceydi
▁olsam
▁kesme
▁esasın
▁şükür
▁dokun
▁hedefi
▁yanım
▁ifadesi
▁hissetmek
▁etiketi
▁solda
▁olurken
▁yazılımı
ndaki
▁Nihayet
▁renkleri
▁bakterilerin
Y
▁başlığı
▁ulaştık
▁hap
▁bulunmak
▁kişileri
▁böcekleri
▁senede
▁ilerleye
una
▁referans
▁hissini
▁materyal
▁içsel
▁Joe
▁Jeff
▁finans
mıza
▁Suriye
▁ürettiği
▁ulaşıyor
▁düşünmeliyiz
▁avantaj
ard
▁trajedi
▁diyebilirim
▁gitmeyi
▁hoşum
▁göründüğü
▁seçenekler
▁Microsoft
▁çarpma
▁rahatlık
▁Kev
▁yaban
nizde
▁görünmeyen
▁geldiğin
▁St
▁yerleştirme
▁gördüğünde
▁tüketimi
▁At
▁köşede
▁pişmanlık
▁aylar
▁varlık
▁kıl
▁tasarladı
▁hayvanın
▁Siyah
▁sokaklarda
▁vasıtası
▁bölgelerin
▁yürüyen
▁Şarkı
▁Bi
▁hatırladı
▁gore
▁Ayn
▁açıklamaya
lük
▁siyaset
▁beklenen
▁nesiller
▁v
▁haricinde
▁donanım
▁patlaması
▁hic
▁çare
▁vücudu
▁kalori
▁hergün
▁beyniniz
▁geçirmiş
▁şeklin
lke
▁gökyüzünde
▁gösteriyorum
▁şanslıyı
▁makineleri
hur
▁Ödülü
▁Virgin
▁hissetme
▁paket
if
▁buluş
▁örtüsü
▁yayılmış
sından
▁hayatınızda
▁söyleyebiliriz
▁senaryo
▁yapısal
▁zamanımız
▁nesneleri
▁oynamaya
▁Pekâl
▁yaşamını
▁temelinde
▁görüyordu
▁çekimi
▁buralarda
▁çocuğunu
▁haftalık
▁girmiş
▁operasyon
▁fırtına
▁olsalar
▁mikroplar
▁sağladık
▁cihazları
▁yükseldi
▁direnç
▁doğuştan
▁bit
▁küme
▁bozukluğu
▁isteği
▁odaklan
î
▁şempanzeler
▁depo
▁belge
▁işçiler
▁derse
▁okuyor
▁benzersiz
▁şeffaflık
BC
▁izole
▁başarmak
▁Sırada
▁bilerek
▁fit
▁yönleri
▁Wal
▁Arjantin
▁gerçeğini
▁inceledik
▁ayrılmış
▁karmaşa
▁baskın
▁tasarrufu
▁yozlaşma
▁roket
▁proteinler
▁kafatası
▁ölçüm
▁kılıyor
acağım
▁193
▁dayanan
▁molekülleri
▁zorunlu
▁inovasyon
▁cazibe
▁ordu
▁Berlin
▁özünde
▁bilgilerini
▁küreselleşme
▁toplumların
▁yetenekler
▁kablolar
▁motoru
▁market
▁cm
▁umuyoru
&
men
▁anlayışı
▁işlediğini
▁Başkanı
ğe
▁akan
▁yerleştirdik
▁olabileceğin
▁ikili
▁duyguları
▁geçirdiğim
▁d
▁uzerinde
▁org
▁zenginlik
▁artar
▁yiyecekler
▁atalarımız
▁mühendisi
▁toprağı
▁kamp
▁heyecanlıyı
▁Düşünün
▁Delhi
▁paraya
▁masum
▁Hayatımı
▁sesle
▁kurulmuş
▁ispat
larımdan
▁ilgilenmeye
▁sonuçların
ck
▁bırakın
R
▁filmde
▁sınırlarını
▁zorundadır
▁okudu
▁koşul
▁gittiğinde
▁sorduğu
▁kirlilik
▁görülür
▁sinyaller
▁Pe
▁kitabında
▁topluyor
▁verdiğiniz
▁anlatma
▁Hollanda
lanır
▁ekleme
▁nesnelerin
▁ormanlar
lerimden
▁çalıştıkları
▁anlayabilmek
▁şeffaf
▁yenilikler
▁başkası
▁kağıdı
▁internetten
▁çalıyor
▁tekniği
▁terörizm
▁öldürücü
▁enjekt
▁yapabilirdi
▁yolsuzluk
▁geliri
▁CD
▁Ruanda
▁Hal
▁bıçak
▁döngüsü
▁kaybetme
▁almamız
▁seviyesin
▁2020
▁Ku
▁buzul
▁sırt
▁gömülü
▁bilgisayarı
▁alkış
▁dikkatinizi
▁kapsaya
▁oynadı
▁arayan
▁yüzme
▁yarışı
▁Arapça
▁ritim
▁tartışmaya
▁karanlıkta
▁girişimciler
▁değiştirebil
▁sırrı
▁yaşamayı
▁birisini
▁harcıyoruz
▁gelişimin
▁36
▁niha
▁Yavaş
▁yerdi
▁yaşandı
▁kameralar
▁mekanizması
▁geçtiği
▁bilmiyordu
▁arıyor
▁yurt
▁dedikleri
pi
▁Sistem
▁butun
▁pişirme
▁araştırmak
▁çevrede
▁sini
▁üye
▁kalitel
▁gökyüzün
▁durdurmak
▁öğretiyor
▁yargı
▁düşünürsünüz
▁zorla
facık
▁karmaşıklığı
▁çağdaş
▁kurallarını
▁yaşı
▁konuşmasını
J
▁ısrar
▁seninle
▁evim
▁yetiştirmek
▁doğaçlama
▁Bayanlar
▁Kendimizi
▁anatomi
▁Eh
▁belirtmek
▁kafamda
layan
▁ötesi
▁indi
▁katılmak
▁bulmuş
▁saklı
▁meslektaşım
▁durumla
▁biçim
▁Körfezi
▁bacak
▁yay
▁masay
▁hayvanı
▁Nick
▁giderseniz
▁arayüz
▁muayene
sinizdir
▁iyileştirmek
abileceği
▁gütmeye
▁kes
▁cömert
▁ışığ
▁hayran
▁istihdam
▁etnik
▁Bazılarınız
▁dersleri
▁dediğini
▁aklınızda
şık
maları
laşıyor
▁değillerdi
▁toplumlarda
▁hattı
▁gücümüz
NSA
▁yatay
▁çık
▁kardeşi
▁odasına
▁çeviri
▁çiçekler
▁gitmemiz
▁öncü
▁doğasını
yl
▁ormanı
▁öğret
▁çevirmek
▁Diğeri
▁tükenmiş
▁genişliğinde
▁ormanları
▁National
▁Görünüş
▁yaşayacak
▁seti
▁içerir
▁Sal
▁başkaları
meyeceğim
▁Parkinson
▁sorabilirsiniz
▁kaybettik
▁Okyanusu
▁tanım
▁amaçlar
▁çoğunluk
▁çıkabilir
▁Nelson
▁hapiste
▁yılları
▁Cola
▁arabaların
▁kapak
▁önlemek
▁kampanyası
▁ulaşır
▁değerinde
dınız
▁oldugu
▁bitirdi
▁ç
▁çektik
▁duman
▁Aralık
▁asılı
▁adamlarını
▁Gelin
▁uyan
▁Dahası
▁seyler
▁Cun
cik
saydı
▁olsak
▁Saat
▁Öte
▁kısmının
▁silahları
ville
▁Çince
▁hayatınız
▁baktığınız
▁kaçma
▁okuduğum
▁Am
laştırıyor
▁erkeğin
▁karşın
▁Normalde
▁söylemedi
▁ilgilenir
▁Var
▁fiber
▁Kaçınız
▁Matematik
▁gerçekleşir
▁profesör
▁eşitsizlik
▁Brad
▁bağımlılık
▁samimi
▁ilerledi
▁Şubat
▁yerleştiriyor
v
ero
▁gündüz
▁yüzeyin
▁muhafaza
▁yayınladı
▁engellemek
▁açısını
▁Dediğim
▁geçebilir
▁maddeleri
▁Dev
▁Yaptığım
▁spesi
▁nehrin
▁varmak
▁obezite
▁atın
attle
▁Yok
▁dönüştürüyor
▁avuç
▁deneyin
▁görelim
▁önyargı
▁detaylar
▁niyetli
▁dilinde
▁gerçekliğin
▁başlangıcında
▁Örgütü
▁yarıya
dılar
▁bahsettiği
▁kütüphane
▁yoğunluğu
▁GSM
▁neşe
ebiliyor
▁dağın
▁objeler
▁Cit
▁düşünüp
▁aksi
▁arkadaşlarınız
▁gereklidir
▁Brun
old
▁yarattığımız
▁doğmuş
▁problemlerin
▁düşünmenin
▁halkını
▁ekonomisini
▁takdirde
▁düşünürdü
▁lezzetli
▁Muhamm
▁Ticaret
▁gerçekleri
▁kavramsal
▁yapmaz
▁zamanımızı
▁Coc
▁Mutlu
▁yaşamlarını
▁sınırı
▁olduğunuzda
▁uçaklar
▁geldiğimiz
▁gelişiyor
▁teker
▁sahibim
▁şarj
▁çağda
▁olmazsa
▁ötede
▁elektron
▁tanımlayan
ander
larak
▁keşfed
▁Hill
▁sözleri
▁boyutunda
▁avantajı
▁etkileyecek
▁yankı
▁ülkesi
▁geldiklerinde
niversite
▁güzeldi
gras
▁deprem
▁zira
▁götüren
▁hemşire
▁sembolü
▁kalmıştı
▁dinin
▁verilmiş
miyoruz
▁aradım
▁fikirle
▁çalar
ny
▁üzgünü
▁babasını
▁seferde
▁anlamayı
▁umutsuz
▁yılan
DR
▁eğitmek
▁sezgisel
▁gösterdim
▁aldığınız
dilerim
▁Medya
▁aslı
▁oynay
▁herkeste
▁Yaşlı
▁verilerini
▁günleri
▁Şili
▁darbe
▁filtre
▁sopa
▁anlaşılması
▁soyu
▁davran
▁iletişimi
▁Sanal
▁diyorsunuz
ğını
▁benzetme
larımıza
▁sizde
▁insanoğlunu
▁bakmayı
▁tutu
▁konuları
▁patates
▁olaya
▁hatası
▁hayattaki
▁seçeneği
▁baya
▁çeviriyor
▁Pat
▁çeşidi
▁problemini
▁atan
▁Problem
▁öğren
▁işitme
▁yönetici
▁Sam
aalesef
ho
▁trans
▁sizlerin
▁saldırgan
▁karışımı
▁Me
▁çıkarabilir
▁Brian
▁yerleşim
▁kavramlar
▁ayıran
▁edeceksiniz
▁federal
rseniz
▁mahallede
▁ettiğinde
▁sonlarında
▁g
leştiren
▁doğrusal
▁çektiğim
▁kuşların
▁oluşturacak
▁uygulanabilir
▁Bayan
▁Singapur
▁diken
▁metin
▁düşünürüz
▁yaşayabilir
we
▁Josh
▁tutarlı
▁Grön
▁Dikkat
▁sıralarda
▁Devrimi
▁Lester
▁ulaşan
▁SW
▁riskleri
▁versiyonunu
▁sivrisinek
`
▁cihad
▁koruyor
▁çıktılar
▁koşullarda
▁çözümün
▁katıldım
▁mesajlar
▁kümesi
▁görüldü
▁Dün
▁Henr
lamazsınız
▁unu
▁çıkardığımız
▁bireyin
▁parçasıdır
▁gündem
▁odak
▁geleni
▁42
▁payı
▁keşfi
▁Arka
▁programını
▁yıldızları
▁savaşmak
by
▁sizce
▁harf
▁sıcaklığı
▁dörtte
▁Şehir
▁delikler
▁ak
▁edebilirdi
▁Watson
▁aklınız
▁Okulda
▁kadınla
▁Nere
▁öldürüyor
▁bozucu
▁değişimler
lanmıştı
▁bekledi
▁bağlanmış
▁pozisyon
▁giy
▁ayrıla
▁paylaşacağım
▁nu
▁araştırmayı
▁işle
▁videoda
▁Elektrik
▁Jack
▁üçü
▁gözünde
▁bilgisayarda
▁formu
▁Yapa
▁alabiliyor
▁karakterler
▁tarzda
▁kafam
▁Bangladeş
▁haberdar
▁makul
▁Çalışma
▁düş
cu
landı
▁iyilik
▁içindeydi
▁muz
▁batarya
▁amacım
▁kuram
diğinde
▁resimlerini
▁bulmayı
▁ayırmak
▁Bell
▁hikâyeler
▁güçlerini
▁yapacaklarını
▁düzeyinde
▁salgını
▁virüsün
▁hüküm
▁teknikleri
▁kurula
▁sayısal
▁eleştiri
▁zehir
▁yırtıcı
▁bilinci
▁eksi
ciler
▁tüket
▁Soğuk
▁Steven
▁Şehirler
▁bağlılık
▁koşulları
▁gideceği
▁Titan
▁sağdaki
▁almaz
▁organlar
▁yapılacağın
▁yeteneğin
▁grupların
▁edeceğini
▁metan
▁birbiri
▁Charl
▁doktoru
▁getirerek
▁karakteri
▁Mayıs
▁ticareti
▁kuruluşları
▁Yer
▁Kolay
▁Somali
▁kavrama
▁yaşay
▁başlamalıyız
▁bilime
▁ağını
▁olanın
M
▁bulmamız
▁Vietnam
▁Carl
kar
▁zamanları
▁duyulan
▁solunum
▁Beynin
▁yolculuğun
▁ağların
▁geçmeye
▁Ö
▁dalgalar
▁paradigma
▁başlı
▁kurtardı
▁Ortak
▁gezegenimizi
▁durumları
▁sebeplerde
▁yeraltı
▁Kura
▁şanslıydı
▁Gar
▁Okulu
nmeyen
▁odaklanmak
▁Akıllı
▁belirlemek
▁sever
ll
▁yeteneklerini
▁bitir
▁ihtiyaçlarını
▁yaklaş
landığını
▁koyabilir
cılar
lacak
▁endüstrisini
▁bulunması
▁teknolojimiz
▁koş
▁çaldı
▁doz
▁merkezli
▁olduklarından
▁pamuk
▁toplar
▁it
▁diyebilir
▁beklemek
▁ilginçtir
▁Petrol
▁Cok
▁Göz
mizden
▁televizyonda
▁olanağı
▁azalt
▁gayri
▁evler
▁göstermişti
▁pompa
lıkta
▁bilmediğimiz
▁işlevsel
▁çocuğum
▁davranıyor
▁restoran
▁eşdeğer
▁leri
▁şeylerde
▁eser
▁kuyruk
▁isimlerini
▁bakmanız
▁yazmıştı
▁gitmedi
▁evrimi
▁genomu
▁gittiğinizde
▁yerleştirmek
▁yolculuğu
▁oğlunu
▁Nano
▁faktör
▁sorusunu
▁hissettiğim
▁sorununu
▁sağır
▁yaratık
▁İncil
uel
▁otel
▁istiyorsun
▁taşıdı
ly
▁sunum
▁okyanuslar
▁iPod
▁yerindeki
▁Olay
▁bayılıyoru
▁yönlü
▁göründüğünü
▁Sonsuz
▁karşılaşma
▁çapl
▁Kendimiz
▁üret
▁yaptığımızda
▁Kontrol
▁yakıtlar
siyle
▁molekülü
▁Kaide
▁belirt
▁satır
▁uğultu
▁2002
▁becerileri
▁döndüğüm
▁uçakta
▁bulunduğunu
▁Kar
▁Etiyopya
▁görüyorlar
▁temizlik
▁hissetti
▁ağırlık
▁kayak
▁Sıfır
ydık
▁metro
▁karmaşıklık
▁Şurada
▁soldaki
▁görünebilir
▁fevkalade
▁bakılır
▁Kulağa
▁fenomen
▁çevresindeki
▁kültürler
iniz
▁sunu
▁gram
▁beynimizi
▁miktarlar
▁paylaşım
▁sistemde
amaz
▁sorabilir
▁tepede
▁Yıl
▁erkekleri
▁yöneticisi
eşlik
▁okuyan
▁Halk
▁edilmişti
rtesi
▁inandı
▁hakkını
elanda
▁ürkütücü
▁rolünü
▁duvarın
▁uygulamaları
▁sayılmaz
▁kalbi
▁savunmasız
ira
▁detayları
▁meraklı
acağımızı
▁koyuldu
▁Şirketler
▁Nik
▁inceler
▁petrolün
meyi
▁aşina
▁üstündeki
▁se
▁opera
ry
▁bilirsin
▁görmüştü
▁alabiliriz
▁kanı
▁Dışarıda
▁kullanacağım
▁kastediyoru
▁kategori
▁genişlet
▁Adaları
▁noktalarda
▁çalışanların
▁mantığı
▁bilmeniz
ör
▁vatandaşlar
▁dibinde
▁gelme
▁48
▁In
▁yaradığını
▁teknikler
▁Bar
▁William
▁ikimiz
ama
▁krizini
▁Türkiye
▁cennet
▁içindi
▁jenerasyon
▁diğerinde
üstü
▁nerdeyse
▁firması
▁hasat
▁oyunlarını
▁kelimelerin
▁matematikçi
▁Nor
▁Leonardo
▁EM
▁yunus
▁Car
O
▁Kızıl
▁boşa
▁prensip
▁tanımlar
▁Hristiyan
▁zorundalar
▁tanımlıyor
▁350
ram
▁soy
▁Dışarı
▁Mesele
▁boyunda
bilirsiniz
▁oluşu
▁araştırması
▁tuz
▁teorik
▁yaşadıkları
▁Aristo
▁Günde
▁uçuyor
▁Patlama
▁Hans
▁makinalar
▁Lu
▁kuruldu
▁korteks
▁dönüştürebilir
▁iskeleti
▁görünüş
▁çalmak
lenir
▁etrafımızdaki
▁yazdığım
▁Kapı
▁Çinli
▁kapatmak
▁Gidi
▁gülümseme
▁yapabileceğim
▁üstte
▁seçimleri
▁ebeveynler
▁lüks
▁çalıştığınız
▁yayınlandı
▁ebeveyn
mayı
▁temsili
▁bulmaca
▁War
▁veriyordu
▁seçilmiş
▁midir
▁sözcük
laşmış
▁sevgili
▁almanız
▁Yeteri
▁jeo
▁böceği
▁eklemek
▁arttır
▁ettirmek
▁kullanı
▁Kendinizi
▁şunun
▁otomobil
▁w
▁köpekler
▁tercüme
▁kadarı
▁seçtik
▁ailelerini
▁cevapları
▁bitiyor
▁Profesör
▁çağın
▁olduğuyla
▁makinası
▁görüşlü
▁Anti
▁istatistikler
▁verirler
▁çıkarmaya
▁karşılaşıyor
▁araçlarını
▁şapka
▁İnsanlık
▁almadı
▁izler
▁taraftaki
▁ekranın
▁kullandığım
▁hat
▁yakınlarında
▁binaları
▁çaresiz
dıkları
▁Hawaii
▁taraflı
▁araştır
▁Başta
▁değiştirmemiz
▁yönünü
▁kanıtlar
▁öldürme
▁zincirini
▁oranlarını
▁halı
▁yöntemle
▁olmamı
▁Detroit
▁anlayan
▁kuruluş
▁55
▁dinleyici
▁hevesli
▁Wi
▁AB
▁yağı
▁politikası
▁astronomi
▁dönecek
▁olmadığımız
▁üretti
lim
süz
▁şansınız
▁dirençli
olly
▁şartları
▁bilgisayarları
▁Avrupalı
▁başımıza
▁Green
▁Aşk
▁kraliçe
▁anlaşıl
▁olmamış
▁zekâ
▁entropi
▁asal
çüncüsü
▁inşaa
▁Linu
ydik
mamız
lamaz
▁hemfikir
▁götürür
▁adlandırdığımız
▁Tanzanya
▁ını
▁başlık
▁konuşalım
▁harcıyor
▁eşittir
▁kisi
▁neresi
▁kaos
▁lık
▁performansı
▁medyada
▁Yüzlerce
▁simdi
▁korunma
▁diger
iyorsunuz
▁tarafinda
▁kucuk
▁bulabilir
▁Diyelim
▁Sayı
▁anlaşılır
▁dönersek
▁yapabileceğini
larımızla
▁çalışmış
▁zar
▁edebileceği
▁bazlı
▁anlattığım
▁örgüt
▁gerçekleşmesi
▁transfer
▁sığ
▁Evde
▁ulaşması
▁Jo
mızda
▁Sekiz
▁İtalyan
let
▁tema
▁zıt
▁dindar
▁istemişti
▁sınıfı
lıyoruz
▁lanet
leşme
▁başla
▁bırakan
▁masanı
▁alacağım
▁robotu
▁robotların
▁Öğrenciler
▁denetim
▁yaratıcılığı
▁kullanıldığını
▁romantik
▁girmeye
ic
▁vermez
▁ipucu
▁başlarsınız
▁köşe
▁Gel
▁görevler
▁çamur
▁sağlıyorlar
▁tersini
▁iğrenç
▁yaptın
mayan
▁koyan
▁hissediyorsunuz
▁bilmede
▁Teksas
▁şekl
▁genişleme
▁turuncu
▁akış
▁çekmeye
▁ekledik
▁hayalini
▁hissettiğiniz
▁dokusu
▁farkli
anlayabilirsiniz
mişlerdi
▁gördüğünüzde
▁hissed
▁Ara
▁akımı
▁içerisin
▁Bo
▁dünyamızda
é
▁balıkların
▁bulgu
▁Fo
▁kullanacağı
▁beceriler
▁zorlukları
▁Bugünkü
▁karın
▁enstrüman
▁adamdı
▁öğretmenin
▁bizzat
ladığımız
▁fazladır
▁katil
▁sonunu
▁Hu
▁ayar
▁yaşını
▁genetiği
▁yapabilirse
▁kitapta
▁Bey
▁bulundukları
▁yaramıyor
▁Güç
▁sayfası
▁denklem
▁toplulukta
▁tutmaya
▁sözünü
▁annesini
ebileceği
eographic
▁kaygı
abileceğiniz
▁inceley
ren
▁öldürdü
▁otuz
▁büyülü
▁1930
▁dönük
▁sunduğu
▁kızgın
▁çay
▁şair
▁üretebilir
▁görmemişti
▁Yapmak
▁feet
▁çöküş
▁gücünde
▁sınırların
▁dinler
▁çıkart
▁SS
▁kapitalizm
▁Whit
▁beklentisi
▁şunlar
▁birkaçı
▁Neler
▁ilerler
▁güçler
▁yapmazsa
▁olmamıştı
▁Bölge
▁kolunu
▁kamyon
▁çözümleri
▁bağlama
▁dostu
▁taksi
▁nakli
▁edebilme
▁hiyerarşi
leşti
▁teorisini
▁şehirdeki
▁üçgen
ue
▁arıyoruz
▁uydular
ımızdan
▁Apollo
müz
▁izlemeye
▁kısımda
▁Asli
▁Mike
▁calisma
▁yapılabilecek
▁kilolu
▁değerlerini
▁Ken
▁irade
▁ulaşacak
▁neresinde
▁Milyonlar
▁yaşlandık
▁ışıkta
▁duyarı
▁müdür
▁kahkaha
▁katılıyor
▁sağda
▁tsunami
▁açacak
▁almaları
ebileceğimizi
▁açabilir
▁araştırmaları
▁topladık
▁Dur
▁bıraktığı
▁söylemiş
▁II
▁işlemci
▁ivme
▁ayırma
▁kelimesinin
▁çanta
▁World
▁kapat
▁kafası
ji
▁testler
▁doluydu
▁Çoğunlukla
▁mühim
▁bilmem
▁kazanır
▁düzeltmek
▁ortama
▁elli
▁ediyorlardı
▁pekço
▁dağlar
▁kaybeder
▁ürünlerini
▁Mc
▁potansiyelini
▁dayanır
▁deneyimini
▁Dunya
▁kurbağa
▁yatırımlar
▁zorlama
▁kullanabiliyor
▁büyükanne
ana
▁kutunu
▁Danimarka
▁zamanım
▁ayırıyor
▁sahi
▁başlayacağım
dığınız
▁haklar
▁sektörü
▁trajik
▁üretimin
▁bahsettim
▁eğilim
▁duvarlar
▁gerekmez
▁diğerinin
unuzu
▁emeklilik
han
▁ömür
▁parasını
▁Afrikalılar
▁söylemiyorum
▁kaldığını
▁Eşim
lo
▁mülteciler
▁başını
▁uçar
▁Dördüncü
▁iyileştirme
▁görevli
▁mahkeme
▁Görünen
▁Batılı
▁çocuklardan
yü
▁Homo
▁Yemen
▁cerrah
▁geldiğimizde
▁sevdikleri
▁çizdi
▁Sabah
▁seçenekleri
▁tümünü
▁kaldırmak
▁peynir
▁düzeltme
▁otur
▁LG
▁mizah
▁burun
▁karşılaştığım
▁An
▁rota
▁Tor
▁bilgisini
landırıyor
▁Aşama
▁organları
▁zirve
▁biriyim
▁çözebilir
▁edeceğiniz
arası
▁getirdiler
▁kola
▁değiştiği
▁buğday
▁gezegenimizde
▁doktorların
▁olduklarında
▁şirkette
▁ötey
lenebilir
▁söyledik
▁isimleri
▁gösterdik
▁nazar
▁geleceğimiz
▁dönüştür
▁44
▁mor
▁canlandırma
▁çevreleye
▁fotoğrafın
▁sıçrama
▁çekilen
▁biziz
uza
▁Nefes
▁almıyor
▁seven
▁yerle
meyecek
▁giderler
▁hizmetler
umuz
▁duymaya
▁yapılmıştı
acaktır
kları
▁gelecektir
liyiz
▁Ted
▁kozm
▁yakınında
▁Nehri
▁Long
▁çalışırlar
▁Git
▁evlat
sünüz
▁Acı
▁teşkil
▁ruhunu
alesef
▁boy
▁hatalı
▁kıyısında
klarını
▁değiştiri
▁mutfak
▁yatakta
▁arkada
▁aklı
▁işaretleri
▁olmayanlar
▁fiil
▁oğlumu
▁söylediğimde
▁toprağ
▁aksiyon
▁düşünürü
▁ayakları
▁gümüş
▁ter
▁bıraktık
▁beyefendi
▁aktarma
▁birincisi
▁belirler
▁deyin
▁açıklar
▁açılan
▁tweet
▁üretimini
▁ölür
▁72
diğinizde
▁dinleyi
▁Carolin
▁bahçesinde
▁dönüştürme
▁nispet
▁Bildiğimiz
▁etiket
▁keşfetmeye
▁büyü
▁yaptığınızı
fer
▁edecekler
luyor
▁Kendim
▁çektiği
▁gelirli
▁paralarını
▁şansını
▁sorarsanız
▁deneyelim
▁koymaya
▁Derin
▁hayalim
▁Karanlık
▁Mu
▁söylediğini
arth
eceğim
▁perde
▁yazısı
▁yapmanızı
▁olabilirim
▁pizza
▁bağlamak
▁duygusunu
▁Clint
▁Sudan
▁kuruluşlar
▁istihbarat
rest
▁kimseyi
▁istediğinizi
▁Norveç
▁Saray
▁dönemin
▁çizgisi
▁ağa
▁formları
▁ölmek
▁yapacağınız
▁varolan
▁unutu
▁davranışını
▁elit
▁Disney
▁fotoğrafçı
▁ka
▁servisi
▁numune
▁geni
▁penguen
▁ileti
▁Kal
▁ayır
▁Ra
▁oluş
▁tel
▁beslemek
▁oluşturduğumuz
▁dördü
▁santimetre
▁belirleye
▁bilimciler
▁görünüşü
▁Ani
▁olağandışı
lursunuz
▁neleri
▁kayıtları
▁ortasın
▁açıklık
▁Şüphe
BM
▁1900
▁Tesl
ooh
▁damar
▁belirsizlik
▁titreşim
▁kodlama
▁yarasa
▁aldatma
▁formül
▁lif
▁etken
▁RNA
ster
▁konuştuğu
▁girdiğim
▁öğreniyorlar
▁ışıklar
▁kutlama
▁dışkı
larınızın
▁yaya
▁dolaşan
▁bilge
▁çıkarsa
▁şuradaki
▁Bakanı
▁sokağ
▁Star
▁Brooklyn
▁Bunda
▁parçacık
▁ayrılıyor
▁verebilecek
▁ölç
▁süreçler
lendiğini
▁düşünceleri
▁dünyamız
▁başlıyorum
gun
▁demeye
▁kral
liydim
▁beyninizi
▁bulamadı
yarak
▁Şaşırtıcı
▁Hepinizi
▁çarpı
▁açım
▁bakımı
receğiz
▁Gitti
▁duyabilir
▁sürer
▁sembol
▁yazıyordu
▁geçirme
▁param
▁asit
▁imha
▁evini
▁salonda
▁kalmaz
▁tasarlama
▁gitmiyor
▁Selam
▁yaşım
▁Johnson
▁riskler
▁kimler
▁hastalıkta
▁İleri
▁babalar
▁Yaptığı
▁IM
▁Ek
▁bebeklerin
▁yapacağımızı
▁Görsel
layacak
▁Telefon
▁Rose
▁getirmiş
▁arz
▁temelini
▁So
▁yorumlar
▁dilde
▁Yan
BA
▁inanmayı
▁ipek
▁amacımız
▁Diğerleri
▁içinizde
▁gözlerinizi
iyordum
▁işlevi
ımda
▁atıp
▁modelleme
▁probleme
▁dinleyiciler
▁poster
▁es
ul
▁görüntülerin
▁psiko
▁aktiv
lanma
▁duydukları
▁uzmanlık
▁krizin
▁kavramını
▁ihlal
▁kızları
▁çiftleşme
▁Rob
▁bebeği
▁yapamıyor
▁filan
▁orjinal
▁Şimdilerde
▁demografik
▁edemeyi
▁çalma
▁yorucu
▁yapmama
▁mutasyon
miyorsunuz
▁dilim
▁kuvveti
▁merdiven
▁izini
▁ayrılma
▁Elimizde
iş
▁Düşü
▁No
▁yemeğin
▁yapacağımı
▁eğit
▁frekans
▁Başlangıçta
▁heyecanlıydı
▁engelleye
rdiniz
▁farklıydı
▁dal
▁dergisinde
▁arkadaşını
▁Oda
▁güvercin
▁cihazın
▁deneyimleri
▁katılımcı
▁tüp
▁taşınabilir
▁duyacak
▁Life
▁dalgaları
▁riskini
ney
▁Suud
▁virüsler
▁Mill
▁edenler
▁Matt
▁meslektaşlarım
▁maske
▁öneri
▁balinalar
▁tabanlı
▁yayınlana
▁gerçekleştirdi
▁büyümesini
▁İlaç
▁matematiğin
▁Arada
▁origami
▁dokusunu
▁sürecek
▁tutacak
▁oluşturuyorlar
▁mutluluğun
▁hissettiriyor
▁salgının
▁inandığım
▁kirliliği
▁bölgesin
▁etmelerini
▁Atlanta
ğin
▁Polis
▁dönüşü
▁West
▁yürümek
▁görünüyorlar
▁çekirdek
▁söylerler
▁hoşun
▁Ciddi
▁filmleri
▁yapacaklar
▁şempanze
▁ayrıntıl
▁insansı
▁kullandığınız
amayacak
▁ortalıkta
▁talebi
▁hikayemi
▁oluşturabiliriz
▁tahminler
▁dolaylı
▁farketti
▁gürültülü
▁soruların
sinler
▁sesimi
▁verirken
▁edindi
▁aslın
▁bela
▁Yaptıkları
▁ucun
▁dersin
▁aktivist
▁Hakları
▁başlarlar
▁araştırmacıları
▁ayın
▁okumayı
▁şirketlerini
▁oturuyordu
▁kitapların
▁hazırlamak
litik
lmayacağını
▁ışını
▁geliştirir
▁özenl
▁bugünlerde
▁planda
▁yapmamızı
▁bulunmuyor
▁Michel
▁çoğumuzun
▁avlanma
▁faktörler
▁fırsatları
▁alarm
yon
▁uygulay
▁Mi
▁malzemelerin
▁yaprak
▁mobilya
▁etkilendi
▁gücümüzü
▁oranına
▁görmesin
▁bozulma
▁etkiye
▁goz
▁materyaller
▁grubunu
▁sınıfın
▁binalarda
▁istemek
▁Lego
▁başlıyorsunuz
▁işinde
▁yerleştirilmiş
▁Soldaki
▁gelirdi
▁isteyebilir
▁söylenir
▁davranma
▁yanda
▁sanıyor
▁tartışmalı
▁Demokrat
▁derdim
▁İnternette
▁sattı
▁tepesin
▁Gri
▁hey
▁uğraşmak
▁atma
▁Yağmur
▁yerlerini
▁değişikliğin
▁ülkelerini
▁belgesel
▁hizmetlerini
▁değiştirilmiş
▁Annemi
▁saldırısı
▁gemisi
▁öldüren
▁yapanlar
mizle
▁uçağ
▁görüntüy
▁yapışkan
▁kazı
▁bitkileri
▁istemiyordu
▁idam
günlerde
▁ormanların
▁karşımız
▁par
▁yemeğ
▁havalandırma
▁kullanmış
▁ulaştım
▁olmayacaktı
▁karalama
▁aydınlanma
▁dövme
▁eğilimli
▁alışık
▁depolama
▁açıklayacağım
gün
▁çalışanı
▁alttaki
▁balonu
▁yılların
▁arttırıyor
▁Merkez
▁alınması
▁algoritmalar
▁videosu
▁koruyan
▁ihmal
▁kaynaklana
▁telefonun
eri
▁öğrenmiş
▁bileşen
▁alırdı
▁anlatacak
▁dışa
▁Bina
▁büyümüş
▁ot
▁bulmalıyı
▁yapamazsınız
▁işçileri
▁tahmini
▁aklında
▁fırın
abiliyoruz
▁öğretmenlerin
▁lezzet
mo
▁Kong
▁oksitosin
▁ilgilendiren
▁varoluş
▁benziyordu
▁satıyor
▁96
▁kanunlar
▁canına
▁Fazla
emezsiniz
▁kurşun
▁kuramı
▁etmekle
▁kullanırlar
▁Sistemi
▁soluk
▁keşfettiğimiz
▁fakirlik
▁gun
▁Temmuz
ebilmek
▁uygulamak
▁boyutları
▁yeteneğini
▁vücud
▁harcay
ste
car
▁kurabilir
▁deliğin
▁deneyleri
▁şüpheci
▁Yarın
▁ömrü
▁kabiliyeti
▁Endonezya
▁yaşlarda
▁paylaşmaya
liler
▁eşitliği
▁gelenek
▁sorulan
▁içki
▁yaptığın
▁yapabildiğimiz
▁robotları
▁girecek
▁sihir
▁sabahın
▁yaptığınızda
▁zararsız
ilir
malı
▁eğitimini
▁Don
▁durdurma
▁banyo
25
▁benzemiyor
larımın
▁bedeli
▁antibiyotik
▁sahipliği
▁vücudunda
▁Çoğunuz
ırken
▁İsmi
▁köyün
▁paylaşan
▁Adem
▁gelene
▁kalanlar
▁prensibi
▁çeyrek
▁aracılığı
▁bölümleri
▁monte
▁kaldırma
▁bacakları
▁inanma
▁do
▁edemiyoru
▁hayatlar
neyse
▁Stephen
▁kayboluyor
▁figür
▁hiper
ınızı
▁olabilmek
▁em
▁geçtiğini
▁gördüler
▁zavallı
▁kullanıyordu
▁rengini
▁ayakkabılar
▁balığın
▁ödemek
▁düşü
▁formda
▁cezası
▁yolladı
▁mektubu
▁kurumları
▁düşündüğünü
▁satan
▁kaçınız
▁vücudunuz
▁bandı
▁yapmamı
▁belirleme
▁ortamın
▁gökyüzünü
▁başlaması
▁dönmeye
▁kuran
mayız
▁Snow
▁sözde
yacağız
▁moral
▁Pa
▁etmektedir
▁Mur
▁görmüyoru
▁Okyanus
▁bulutlar
▁İkisi
▁tanıdığım
▁tesadüf
▁tahıl
▁900
▁gözlerim
▁Hayatımda
▁silahı
▁bencil
▁görüntüsünü
cilik
▁yönlerde
▁ruhsal
▁hepsinden
▁1999
▁kanunları
▁esneklik
mla
▁bağlamında
▁vermiyor
▁dolaşı
▁önerdi
▁yükseliyor
▁çizimler
▁engelleri
▁Tunus
▁yazarken
▁oluştuğu
▁izleyebilir
▁kemiği
▁kitaplarda
▁adımlar
▁yeryüzünde
▁kanalı
▁incelemeye
▁ölçer
▁kaplan
▁bulunduğum
▁yaşımdayken
▁götürecek
▁paylaştığımız
▁kaçak
▁çevrili
▁kaybeden
▁uzmanların
▁dahası
▁tasarımcıları
▁bilgimiz
▁düşündüklerini
▁köpekbalığı
▁Öğrenme
▁yedek
▁kule
▁karşılaş
▁güneşte
▁organizmaların
▁hapis
▁şefkatli
▁okyanusu
▁aşağıdaki
▁gayret
▁kadarki
ebilecekleri
▁Bali
▁Fransızca
▁tanrım
▁kil
▁Hous
▁tuna
▁varlığın
▁dinley
▁Ağustos
▁inanmaya
▁istese
▁inanır
▁elektriği
▁sağlamaya
▁kullanmakta
▁yerçekimi
▁Herşeyi
▁araştırdı
berg
▁cadde
▁taşları
▁Air
▁düşmüş
▁64
▁tasvir
▁Satur
▁gezegenimiz
▁diğerini
▁inancı
▁kararları
▁muydun
▁ağırlığında
dığımızda
▁büyüktür
▁kalanında
▁kent
▁şiddetle
▁ödüyor
malıyım
▁oylama
▁aktarmak
▁gittiğim
▁acıyı
▁yaptıklarında
▁etse
▁Sir
▁yapamayı
▁bar
▁uyuyor
▁döneme
▁hatırlamak
▁arazide
▁kaldırıyor
▁bağı
▁çip
▁Başarı
▁verimlilik
▁anlatıyorum
▁düşündükleri
▁düzeni
▁2014
▁izledik
▁yapabilme
▁giysi
▁yazmış
▁yapıların
▁sağduyu
▁kibar
▁kıyafet
▁azala
▁canlıları
▁yem
▁to
#
▁fikirde
▁yapıyorlardı
▁kullanmıyor
▁yönetmek
▁Hükümet
▁polisi
▁Hav
▁uğraşıyoru
▁ekipman
▁Olan
▁tasarim
▁Lo
▁seyirciler
▁çizme
ası
▁istediğin
▁pekala
▁Çoğumuz
▁oynayabilir
▁basladi
liyim
ro
▁bulundum
▁katta
▁fotograf
▁hastayı
▁gördüğünü
▁bölgesini
mazsınız
imizde
ray
▁mahrum
▁tuğla
▁çıkarıyorlar
▁izlerken
▁hangisini
▁Akıl
uther
▁yapıda
▁biter
▁ayırdı
▁yazmayı
▁Dış
▁bildikleri
▁duyuyordu
▁sun
▁hük
▁geliştirilmiş
▁pazarı
▁yanılma
▁indir
▁entellektüel
▁netice
▁istenen
▁oysa
▁Bilgisayarlar
▁sayfalar
▁hesaplamalar
▁taşıyıcı
takım
▁gördükleriniz
▁kontrolünü
▁projem
▁geçiyoruz
▁gününü
▁çıkmıştı
▁Tarım
▁sipariş
▁gerçekleştirme
▁Edward
▁telefonlarını
▁suyunu
▁işletmeler
▁sunma
▁Craig
▁başlatmak
▁simetrik
▁yaymak
▁rutin
right
▁Sanıyorum
▁profesörü
▁eserleri
▁av
▁gelişimini
▁düşünürler
lıyor
▁becerisi
▁lamba
▁fren
▁Aşırı
▁AG
▁kalabilir
▁şef
▁sahil
▁omurilik
▁koltuk
▁evimde
▁harikulade
▁Ekranda
▁konumda
▁fo
liğinde
▁Da
▁tasarladık
▁parçacıkları
▁üzeri
▁göstermeme
▁Yapmam
▁gençlik
▁bölgelere
DI
▁yaratabiliriz
ga
mıştık
▁Bhu
▁kullanıcıları
▁değişmeye
ac
angelo
larınızda
▁dolaşır
▁parçacıkların
▁manevi
▁klip
▁uluslar
▁farkettik
▁huylu
MS
▁kodun
▁piyango
▁Alaska
mekte
sler
▁Yunanistan
▁Sekoya
▁dileğim
▁gide
▁ayrım
▁öteki
▁tarafın
▁eylemi
▁amaçları
▁iyiler
▁merkezleri
▁inceledi
▁ülkelerinde
▁ölümleri
▁unsur
▁işaretler
▁yapmıyorum
▁etrafımda
▁modellerini
yip
▁usta
▁çalışıyorduk
▁çarptı
▁biçimleri
▁Evreni
▁mantıksız
▁şerit
▁foto
▁Işık
leşiyor
▁sevdiğimiz
▁bilimci
▁hesabı
▁kafasında
▁uzunluğu
▁Bas
digim
▁alay
▁Ni
RA
▁gerektiğinde
▁ameliyatı
▁mutluluğu
▁edinmek
▁aklını
▁dansı
▁gecede
▁yoğunluk
▁yakalama
▁Kelime
▁ürettiğimiz
▁ilişkilerini
▁kıza
▁görevlisi
▁koruyacak
▁ellerin
▁savaşçı
▁saldırılar
j
▁kılar
▁evli
▁yolunun
▁Kur
rebilirim
▁sağlığını
▁evsiz
▁söylemekte
▁dünyasını
▁bilmediği
fi
▁180
▁Davranış
▁Avusturya
▁hayatlarımızı
▁aktör
▁mesajları
zgünü
▁ışığında
▁civarı
▁vücutta
▁hazırladık
▁bağlıyor
▁mutluydu
▁vurdu
▁ipuçları
▁ip
▁işiniz
▁günümüzü
▁bahsedelim
▁perspektif
▁atıklar
▁00
▁kaydetti
▁işletim
ino
▁Şiir
▁istediğinde
▁dinle
▁sebebini
▁jeoloji
gu
▁sunulan
▁adlandırılır
▁dönmüş
▁açtık
▁grafiği
▁olmamak
▁STK
▁altını
▁fonksiyonu
▁tasarlar
▁videolar
▁kutuda
▁oyuncağı
▁hayranı
▁sofistike
▁çizgisini
▁hatırlatmak
▁üretici
▁olmanızı
umuzu
▁ressam
▁seçkin
▁parçasıydı
▁beyzbol
▁sabahı
▁edebileceğimiz
▁şunları
▁çocuklarınız
▁toplayan
▁bileşeni
▁topluluğ
▁başarmış
▁yönet
▁Söylediğim
▁çocukla
▁oralarda
▁Prince
▁göstermektedir
gie
▁konser
▁yaşadığınız
▁suçu
▁itici
▁fonksiyon
▁süregel
▁bittiğinde
▁içgüdüsel
rak
▁problemlere
▁yemeye
▁katında
▁Emma
▁gösteriliyor
▁görevini
▁tasarlandı
▁kolektif
▁milimetre
▁yemeğinde
▁atıldı
▁dokuyu
▁toplulukları
▁oturmak
fel
▁insanoğlu
▁gökyüzü
▁kafamı
▁hissetmeye
yet
▁sırtında
▁olmadığınız
▁Medi
▁sorunla
▁levha
▁çeşitliliğin
▁SE
▁haberleşme
▁konferansta
▁elverişli
▁ihtiyacın
▁tarafını
▁hidro
▁denizde
▁Lab
▁liderlerin
▁ekonomistler
▁yatırımcılar
▁üzgün
▁paylaşıla
▁istediğimizi
▁çarpan
▁pil
▁Sanayi
▁vadi
▁düzene
▁eskisi
▁andı
▁programcı
▁Monter
▁direnci
▁yarasalar
▁CR
▁nakit
▁teşhisi
LP
▁üstel
▁Milo
▁hamur
▁çözecek
▁bilgili
▁Mandela
▁Ortada
▁düştüğünü
▁öldüğünü
▁Tip
▁anlaşıldı
▁karşılaştığı
▁götürü
▁Kimin
▁ata
▁43
okyo
lerim
▁yatkın
▁190
▁tum
izm
▁bilimler
▁görünecek
▁projesini
larındaki
▁47
▁böyleydi
lerimize
▁Ge
▁Milli
▁gönderildi
▁yörüngesinde
▁hareketsiz
▁büyüklüğünü
▁teleskop
▁varan
▁keşifler
▁edebilen
▁derecesi
▁kronik
▁kalir
ligi
▁birsey
siydi
les
lamak
▁düşünüyorlardı
▁barındırıyor
▁konsept
▁çevir
▁gergin
▁muydu
▁İrlanda
▁buluşma
▁veriliyor
▁aşılar
▁gözlerimi
▁ülkesinde
per
▁Sara
▁korkuyordu
amanla
▁dahilinde
kı
▁Benjamin
▁algısı
▁öğretir
▁fantastik
▁Venüs
▁söylüyoruz
▁Hayatım
▁başlama
▁harfi
▁dı
▁tokuş
▁inanıyordu
▁üretilmiş
▁zamandı
▁yüzleri
eni
▁taciz
▁sal
leştirmek
▁buldukları
▁Hayatın
▁pis
▁içimde
▁basketbol
tesi
▁basamak
▁kurtarmaya
▁yemin
▁Gör
▁kimyasallar
▁maddelerin
▁kullanırız
▁istifa
▁Ga
▁uçmak
▁yüzyıllar
▁Kop
▁toplamay
ev
ington
to
▁yanınızda
▁duvarları
▁hissedebilir
▁Hayvanlar
▁gelebilecek
well
▁elim
▁yazarlar
▁geçerlidir
▁kartları
▁Wa
▁toplumumuzu
▁karşılamak
▁deneyde
▁gördükleri
▁Top
▁Konuşmamı
▁konuşabilir
▁odaklanmış
▁korkuyor
ivil
▁tat
▁geçelim
▁düşündüğümü
▁Öğretmen
▁rejim
▁gitmişti
▁haberlerde
▁değişmesi
▁bahsetmişti
elişmekte
▁memnuniyet
▁mülk
▁ilginçti
▁olmadığından
▁grafikler
▁ayrıldı
▁diğerlerini
▁içeriğin
▁kökeni
▁şaşırta
▁yolumuz
▁Kişi
▁Çocukları
▁Elizabeth
▁tasarlamaya
iyordu
evi
▁paylaştı
▁ayrımcılık
▁seçer
▁barışçı
▁çember
▁deneyimin
▁fabrikası
▁tarafındaki
diğim
▁odun
atif
▁sınırsız
▁adaleti
▁dönüştürücü
malısın
▁genin
▁işlenmiş
▁etmeyin
▁röntgen
▁eşya
▁Cuma
▁yardımın
▁Kendiniz
▁AK
▁ge
▁ihtimalleri
rmeliyiz
▁Verme
▁JF
▁çapraz
▁metrekare
▁arkadaşlık
▁kurduğumuz
▁olmadıkları
▁sembolik
yüz
▁ettiğimizde
▁tuzlu
▁sürme
▁bağları
▁düzenleyen
▁hissettiğimiz
▁metabolizma
▁olduğumdan
▁Alt
▁soracak
▁sorumluluğu
▁haritalar
▁Yasası
▁matematiği
içi
▁Rand
▁Pete
lendirilmiş
▁Tez
▁tarafsız
▁konuşuyorlar
▁anlayacak
▁karşıt
▁yararına
▁vakası
▁bölgeden
▁konuştuğum
▁denizler
▁yürümeye
ğini
▁zamanımı
▁kaldırdı
ara
▁Cep
▁gök
▁kimleri
▁heryerde
▁özelliklerin
▁taşınma
▁yöntemin
13
▁politikacı
▁boşlukta
ron
▁keşfedildi
▁esrar
▁parlaya
▁sektöründe
▁geçin
▁yapamaz
▁97
▁beyinlerini
▁vücudumuzu
▁ünü
▁çorba
▁sayısında
▁yediğimiz
▁soğutma
rsanız
laşma
▁kalmayacak
▁dışarda
tor
▁Fas
▁davul
▁adamış
▁görürdü
▁çıkarken
▁yaklaşır
▁kurtaracak
▁bekliyoruz
▁inanmıyorum
▁ödülünü
▁getiriyorlar
▁şov
▁düşünülen
▁Mevcu
▁görülme
▁boyutunu
▁izleri
▁fabrikada
▁kurumu
▁ilgileniyoru
▁akraba
atılan
▁Ro
▁kayboldu
▁mail
▁görüşüm
▁vefat
▁etkisiz
▁Lew
▁değersiz
▁tablosu
▁ebeveynleri
▁çıkıyorlar
▁yönlendirme
▁arayüzü
▁çizer
▁açılır
▁Garip
▁yatar
▁Kadınları
▁hataları
w
▁tehlikede
▁terapi
▁kaplama
▁birebir
▁farkındayım
▁Adamı
mıyorum
▁hakaret
▁geliştiriyor
ıyoruz
▁mantarlar
▁Silah
▁am
▁yapardım
▁karşılığı
▁temizlemek
▁toplamında
▁şirin
▁sarhoş
▁önündeki
▁hemşireler
▁durun
▁sokmak
▁bağlanıyor
▁konuşmam
▁litre
▁Fort
▁birleşme
▁çevirdi
▁inanılmazdı
▁uygulayabilir
▁makinelerin
▁sıralar
▁inanıyorlar
▁çevirir
▁çevremizdeki
▁elimi
▁numarası
▁130
▁onlari
▁evlerini
▁resimlerin
▁projeleri
▁Görme
niversitesinde
▁annelerin
▁istek
▁programların
von
▁notlar
▁çekecek
▁görmesi
▁pazarın
▁Gördü
▁bölme
▁ikisinde
▁dinliyor
▁sürücüsü
▁çizmek
▁anın
▁beşinci
▁kırıklığı
▁sezon
▁vücudunuzda
ımıza
▁öğretme
▁edeceğimiz
▁klavye
▁tarzını
mızdan
▁çubuk
▁hissettiğini
▁adlandırıyoru
▁kendisinde
▁başlamamız
▁düşürdü
landığı
ation
▁makinesini
▁olmamalı
▁Lee
▁olabilmesi
larım
▁Sky
▁duymaz
▁Hall
▁kutular
▁dayanışma
lışılmadık
▁dalgası
▁süresini
▁yolculukta
▁çocuktu
▁koştu
▁organı
▁SP
▁mecbur
▁şifreleme
mu
▁severdi
dor
▁du
▁olurum
▁inci
▁kaldığı
▁kazandığı
▁Nathan
▁masrafları
▁My
▁noktalarını
▁çalışmada
rinlemesin
▁evleri
▁Peru
▁taşlar
▁tutkum
ad
▁atmaya
▁tanımak
▁dinledi
▁konuşacağı
▁düğüm
gin
▁kaçını
▁yoğunluğunu
=
TI
layayım
▁Ross
▁kullanıcılar
▁Kolombiya
▁sözcükler
▁Marc
▁istiyorlardı
▁oto
▁yolcu
▁rüzgâr
▁öncelikli
‘
▁ağac
▁zorladı
▁sadık
▁düşüncesini
▁şefi
▁sistemlerinde
▁sız
▁füzyon
PR
▁kitaplarını
▁Geçmişte
▁ölecek
tta
▁sevdiğiniz
▁kullanımın
▁balıkçılık
▁tepkisi
▁Roy
▁hektar
▁açtığı
▁obez
▁retina
▁öğretim
▁soruyorlar
▁götürebilir
▁gönderir
▁Konseyi
▁hacker
▁aslan
▁düğmey
▁öğrenen
▁ihtimalini
▁imge
▁edebilirler
▁diplomasi
▁Libya
▁kabullenme
▁kalmasını
lerimin
▁geldiklerini
▁başarısı
▁bo
▁kasabada
▁problemlerini
▁kaplıyor
▁inç
▁yöntemini
▁birleşimi
▁icadı
▁biriniz
▁birleştirmek
▁düşünüyorsun
▁yapılmasını
▁tasarımlar
▁destekliyor
dus
▁geçiyordu
▁kütlesi
▁katkısı
▁mühendisleri
▁buluşlar
▁gezegenleri
▁olamazdı
▁Robot
▁gösterin
▁ulaşmaya
ight
▁söylemeyi
▁soyle
▁kusur
▁Hay
▁FDA
▁mikroskop
▁ironik
lıyorlar
▁maliyetleri
▁getireceği
▁keşfediyor
▁yörünge
ebileceğiniz
▁düzensiz
▁galaksiler
▁çalıştır
▁Radyo
▁Barış
▁yaşadığını
▁attım
▁Blue
▁birleştirme
▁dünyalar
▁Kah
▁bilincin
▁geldiğim
▁haz
▁kadından
▁takıyor
dığımda
▁kararlı
▁biliriz
▁prostat
▁kardeş
▁keçi
▁muhafazakar
▁yapım
▁yaşındayım
▁zamanını
▁vermesini
▁satranç
▁biç
ık
▁söyleyebileceği
▁yükseklikte
▁geliştiriyoruz
▁kazandık
▁fen
▁tasarımcısı
nizden
▁Ko
▁bekle
▁açın
▁Birçoğunuz
▁endüstrisinde
▁yapacaktı
▁onay
▁sensörler
tık
▁sağlaması
▁öyküler
▁bayrak
ince
▁ağrısı
▁Yıld
▁inceledim
▁öyleydi
▁arkadaşlarımla
▁mahkemey
▁Karşı
▁çözmemiz
▁ağzı
▁değişecek
do
▁Emin
▁kurbanı
▁kapatıyor
▁imalat
▁uğruna
laştırılmış
▁uzanıyor
▁konuşu
▁çıkmasını
▁işlemler
▁dikkatle
▁adaptasyon
▁tanesinde
▁santim
▁gözlü
▁bölümün
▁salonunda
▁kullanılacak
▁astım
▁düşüncem
▁hâlde
▁ölçe
▁arkamda
rey
ırsınız
▁eşiğinde
▁5000
▁floresan
▁yapış
▁örnekle
▁basma
▁gelmektedir
▁tehlikesi
▁zorluklarla
▁Adası
▁Wolf
▁anlatı
der
▁olduğumuzdan
▁büyüdüğüm
▁öğretmenleri
▁Sevgili
▁askerleri
▁canavar
▁kullanacak
▁Black
▁anonim
▁DVD
th
▁ayrıntı
▁sıkıca
▁bilmiyorlar
▁gönderdik
▁140
▁stresli
▁Des
▁olmakta
▁erişilebilir
▁mikrop
▁bebeğim
▁tepey
▁takımını
▁kalbinde
▁Rüzgar
▁kardeşimi
▁geçirmeye
▁kitaplarında
▁hücresini
▁Geleceğin
▁girme
▁kuvvetleri
▁31
▁haklıydı
▁değişmez
▁takas
▁kaybolan
▁Andrew
▁montaj
▁sahipleri
▁yayılır
▁acele
▁yarayı
▁gizlilik
▁oku
▁mahremiyet
▁başlayınca
ardı
▁Nata
▁Gülme
▁olayda
▁barışı
▁etmede
▁merkezde
▁gözün
▁Bab
▁boyutlarda
▁filminde
▁Tur
▁olmaktadır
▁bakmamız
▁felçli
▁Yukarı
▁geliştirdiğimiz
▁Kütüphanesi
▁kırık
▁konuşmacı
▁uzaklarda
▁Makine
▁Galap
agos
▁görebileceği
▁kaçış
▁dizileri
▁34
▁ekonomist
▁kemoterapi
▁şeklimizi
▁geliştirildi
▁isteyeceğim
bar
larımla
E
▁zorluğu
▁Yaratıcı
▁zamanlarında
▁hırslı
▁nü
▁yıkım
▁hatırlattı
▁mimarlık
▁Parkı
▁müdürü
▁tesis
▁belirleyici
▁kademe
▁iniyor
▁Ladin
▁parkı
▁Hayvan
leşen
▁tüketiciler
▁Sinir
▁oyunların
▁Tazmanya
▁implant
acağımız
▁uzlaşma
▁silahların
▁satıcı
▁kullanın
lendi
▁etmeliyim
▁Nepal
▁temizleme
▁hacim
▁şansın
▁sınıflandırma
▁yasası
▁çekiyordu
▁isminde
▁bahsed
▁Hukuk
▁meseleler
▁grafikte
▁üstteki
▁Müthiş
▁aradığımız
ilen
▁Fl
▁sentez
▁söyleniyor
▁espri
▁mikrofon
▁orduy
▁telefonunu
▁inceliyoru
▁bizimki
▁vurgulama
▁nöronların
▁canlıların
▁besinler
▁şekillerini
▁ayrılır
▁kaybettiğimiz
▁sili
▁alanındaki
▁geçmesi
▁eyaletler
▁bambu
▁MRI
▁minnettarı
▁döndüğünü
▁hızında
▁grubunda
▁ölçeğinde
▁edildiğinde
ladığı
▁emek
▁göreve
▁yiyen
▁şırınga
▁müslüman
▁tabu
▁uçuşu
▁farklılıkları
▁Mar
▁Kasım
▁olmaktı
▁öncelik
▁Bebek
▁servet
▁öğretmey
▁paha
▁uzaklık
leştirme
▁objeleri
▁delice
▁çalışın
▁Tuhaf
▁problemimiz
meli
▁kızılötesi
▁aşan
▁yarayacak
ünü
▁iklimi
▁verimsiz
▁verilir
▁yönetiyor
▁yükselt
keley
▁muamele
▁kalbine
▁tükenme
▁tüylü
▁etmeme
▁Komik
▁sözlük
▁Kızlar
▁beklenti
▁etkileşimi
▁gerekliydi
▁fakirler
▁okulları
▁formunda
▁bilinçsiz
▁Geçmiş
▁adlandırdığım
▁ziyan
▁gerçekleştiği
▁dinozor
▁gitmesini
▁kapısını
▁vardi
▁herzaman
▁itme
▁General
▁galib
net
stik
▁birikim
aktif
▁işit
ılan
▁havlu
▁adamım
▁Can
▁dönüşümün
▁tanıştık
▁Aralarında
▁çalışmam
▁Sarı
▁bozukluk
▁Annesi
▁bilmemiz
▁soracağım
▁Boş
▁aydınlık
▁Savunma
▁düzenledi
▁olasılıklar
▁vaat
▁etkilediğini
▁Mozart
▁duyduğumda
▁bulanık
▁borsa
▁mevsim
▁bahar
▁bulabilmek
▁göreceli
lanmamış
▁eğiliminde
▁çalışanlarını
igan
▁mitoloji
▁Nairo
▁kurumlarda
▁kurumun
▁planları
▁aydınlatma
▁açıklayan
▁etmekti
▁Daniel
▁98
▁merhaba
lıkla
ban
▁kaplanmış
▁Maria
▁soykırım
▁cinayet
▁hayranlık
▁zorlukların
▁Kutup
▁bitiş
▁edemezdi
▁ihra
▁Beraber
▁öneriyor
▁takımımız
▁şizofreni
▁düşüncelerini
▁baskısı
▁kulübe
fasında
▁Jones
▁alacağız
▁açılı
▁bulduğu
▁oyunda
▁kalça
▁atılmış
▁Aranızda
▁katılmaya
▁Adım
▁büyümesi
zerine
▁anten
▁olmadıklarını
▁fizyoloji
▁sundu
▁sensör
▁durağan
▁Cha
▁kazanmış
▁tartışmak
▁Sylvi
▁yaratığı
▁fikriniz
▁Hastalığı
▁tümörü
▁tasarımları
▁oluşumu
▁verilmesi
ness
▁gitmesin
▁girebilir
▁kafes
▁çoğunluğunu
▁Kopenhag
▁komedi
▁eğim
ından
▁Sürdürülebilir
hio
▁Isa
▁barındıra
likli
larınız
▁Mü
▁karides
▁düşünülüyor
▁taban
▁palmiye
▁vücudumuzda
▁Arabistan
▁ömürlü
lanacak
▁sektörün
opi
▁gördüğünüzü
▁mide
▁kuzu
▁çatışmalar
▁harcadık
▁Ordu
▁sokaklar
▁toplulukların
▁tasarladığımız
▁gruplarını
▁sevk
▁Hiçbiri
▁felcini
▁tahminim
▁çözer
▁merkezlerinde
▁cevapladı
▁Kamera
▁Düşündüm
▁farz
▁doğrultusun
▁bilgilerin
▁etrafımızda
laştırma
▁değişmedi
▁Belediye
▁değiştirdik
▁sunar
▁kısma
▁harcanan
tif
▁noktaların
▁bulmakta
▁evimiz
▁ettiğimizi
lyn
▁ortaklık
▁Boyle
▁sarf
▁işlev
▁kullanması
▁ettiğimde
▁etmemizi
▁cevabım
▁göründü
▁sürüş
▁iletişimin
▁açmaya
meyiz
▁etraflarında
▁Albert
▁çekebilir
▁iddialı
▁gerçekleşecek
▁anlaşılıyor
▁hapishanede
▁başınıza
▁kaçan
▁suçlular
▁etmişler
▁sağlamış
ebilirim
şte
▁kalabilme
▁Sıtma
▁dönüşümü
umu
▁katılan
ğım
▁tanıtma
▁klişe
▁yakalıyor
▁ailesinde
▁favorim
▁illüzyon
▁pop
▁yazıldı
▁sara
rizon
▁tutucu
▁sorgulama
▁bireyleri
▁karşılaştıkları
▁Hücre
lduğumuz
▁seçebilir
go
▁sözler
▁bilmiyorsunuz
▁mücadelesi
▁terimi
▁aklımı
▁etkileşimin
▁Söz
▁bölümler
▁azaltıyor
▁bloğu
▁yerleştir
▁akıyor
▁boyuta
▁arttırma
▁heyecanlandıran
lemek
▁becerikli
▁Model
▁aynıdır
▁unuttu
yorlar
▁yaka
▁işgücü
▁portre
▁deyimi
▁zamanların
▁bişey
▁yiyecekleri
▁politikasını
▁doktorun
▁gelse
▁Çılgın
▁yönlendiren
▁uyandıra
▁azaltabilir
▁üçüncüsü
▁sınav
▁imkanları
16
▁memeliler
▁kısımlarında
▁rastladı
▁severler
artmaya
▁kalacağız
▁Lin
üm
▁amatör
▁rock
▁yazılar
▁imkânsız
▁â
▁melodi
maz
▁katlan
▁kazanacak
▁bahsedeyim
▁başarabiliriz
▁öğretebilir
▁biteni
▁kesti
▁yazıları
▁içerisindeki
▁Dağı
▁araştırmada
▁imal
▁yönlerini
▁kaçırma
▁MT
▁savaşlar
▁ailede
▁kast
meliyim
▁şeklimiz
▁türümüzü
▁ansiklopedi
▁domates
▁sevme
▁Johnny
▁Seks
▁arkadaşın
▁suçlar
▁filozof
▁Tit
▁çıkıyordu
▁domuzu
▁Hareketi
▁tamamının
▁ağaçlarda
▁kaçın
▁anlamanız
▁içer
atarak
▁Bur
▁biyologlar
▁çalıştıklarını
▁taşıyabilir
▁biyoteknoloji
▁katmak
▁kurucusu
▁Temiz
▁ateşi
▁Sierra
▁okyanuslarda
+
▁ortamlar
▁Kamu
▁ALS
▁tıbbın
▁değerin
▁durumdalar
▁geçmişin
▁dinledim
▁Leon
▁peri
▁bio
▁girdik
▁ortadaki
▁alışma
▁TS
▁hissediyordum
▁Amaç
▁teknolojilerini
▁bilişim
▁Olağanüstü
▁çektiğimiz
manız
▁statü
▁planlar
▁Parti
▁gelmekte
▁İspanyol
▁Li
▁İzlanda
▁koşar
▁bildiğini
▁gezegenlerde
▁hara
▁kuruluşu
▁yayılma
▁dilimi
▁Line
▁oturmuş
▁cansız
▁kimliğini
▁tüketiyor
▁geçişi
▁berber
▁vatandaşları
▁1984
▁ıslık
▁Unutmayın
▁demekti
▁sponsor
▁kökenli
▁Plastik
▁karada
▁tasarımcıların
▁kahvaltı
▁MoM
▁Muhabir
▁oyuncuları
▁tabir
▁adlandırılıyor
▁güvenliğini
▁Meydanı
▁Gelecekte
▁öğrenmemiz
▁ulaşı
▁ishal
▁yorgun
▁uçakları
▁üretiliyor
▁taşımaya
▁getirmemiz
▁Deney
▁söyleyemez
way
acağı
lıp
▁değerlerin
sıra
▁kökten
ydiler
▁doğruluk
▁Gazze
ja
▁karma
20
▁pay
▁tabakası
▁çevreci
▁mekaniği
▁fiziğin
▁Bang
▁zafer
▁karakterin
▁saatin
gini
larinda
oz
ilmis
▁torba
digimiz
▁faydalan
▁becer
▁Gul
▁düzinelerce
▁harcamak
▁eşyaları
▁isteme
▁alışkanlıkları
ılması
lendirme
▁cisim
▁bittiği
▁pozisyonda
▁edilme
▁başkanlı
▁düşünmemişti
▁açılıyor
▁söylerken
▁çıkışı
▁uğradı
▁olmadığım
▁kalbim
▁kırıcı
▁koro
▁cuma
▁giyiyor
▁bırakmaya
▁uçtu
▁olasılığını
nacak
▁ebeveynlerin
▁takıntılı
▁yapımcısı
▁doğduğu
▁ayaklı
▁uzaylı
▁uyguladık
▁kaldırır
▁Louis
▁ürettik
▁derste
▁testleri
ow
▁yapımcıları
▁karşılaştık
makta
▁stüdyo
▁rüzgarın
▁bacaklarını
▁muzdarip
▁icra
▁istismar
▁galeri
▁atıkları
klerini
▁dalgalarını
▁rehberlik
▁götürdük
▁Oğlum
▁değilsin
düz
▁paylaşıyorlar
▁sitesinde
▁aldığında
▁etkileşimde
▁Tayland
▁ülkemde
▁duyarsınız
▁hissediyorlar
▁aramızdaki
▁ilgim
▁Bizde
▁tanışma
▁çalışırsa
▁Birbirimiz
▁Moda
▁gösteriş
▁kanunu
▁adresi
▁mimarlar
▁guzel
▁Cin
▁teksti
▁duyulma
mus
id
imdir
▁sokaklarında
▁bölünmüş
▁dişli
▁beşer
▁kutuları
abileceğimizi
▁hazırdı
▁yılımı
▁salonun
▁eviniz
▁yazabilir
▁öğrencilerini
▁geliş
▁bitirme
▁sosyo
▁ilişkilerin
▁Cal
▁pazarlık
▁artır
▁nedenleri
▁dönüştüren
▁dibin
▁sını
▁görecek
▁ağzın
▁işçilerin
▁patron
▁uydurma
▁bazılarına
▁neşel
▁gitar
▁müzisyen
▁kader
▁Sovyet
▁bilgisayarla
▁160
▁37
▁dolardı
▁rekabetçi
▁Etrafta
▁anlayabiliyoru
▁gösterilmiş
▁İlgi
▁46
▁sayıdaki
▁tık
▁birkaçını
▁düşünmüyor
▁toparlama
▁ayrıldık
▁hastaneler
▁sunan
▁sunucu
ers
▁hikayelerin
▁çığlık
▁akar
▁dediğinde
▁düşmüştü
▁Mimari
▁açılardan
▁görmekte
▁üzerimde
▁Carne
▁reçine
▁kurt
▁Elimizdeki
▁parazit
▁Hastalık
▁kaçınma
▁öldürüldü
▁takma
▁bağımsızlık
▁yığını
▁arttığını
▁gösteriyorlar
▁ölçüsü
▁neslin
▁görevleri
▁yansıta
▁Tibet
my
▁Santa
▁güveni
▁kaldığım
▁oynadığı
▁öğretmeni
▁yukarıdaki
▁aklımızda
▁belirtileri
tü
▁yüzlerini
▁İstediğim
▁istiyorsa
▁düşündüğümde
▁toplumunu
▁dopamin
▁ediyorduk
▁izleyerek
▁denizlerde
▁katlama
▁Yapı
▁gözükür
▁tedavisinde
▁hisseden
inize
▁toplamı
▁uçta
▁enstitü
utube
▁eksen
▁Şang
▁şansım
▁hedefimiz
▁değişimleri
▁çözünürlüklü
▁görevimiz
▁dinlerken
▁Test
▁buzulların
▁kararını
▁ücreti
▁uçma
aylarca
▁evdeki
▁Bra
▁dağılım
engin
dison
SB
▁geometri
▁havacılık
▁balinaların
gas
▁kızıl
▁vermemiz
▁dayanıklılık
▁unun
▁çekili
▁vatandaşların
▁başlandı
▁bahçesi
▁sözleşme
▁KA
▁ellerim
▁Philadelphia
▁disiplin
▁Ti
▁israf
▁maya
▁hastalarını
▁Sevgi
▁düzenlemek
▁slaytta
▁puzzle
▁üretebiliyor
▁insülin
▁Second
▁hammadde
▁çukur
▁Chuck
▁sicim
▁iyimserlik
▁yüklü
RIS
▁teröristler
▁bakanı
▁azınlık
▁sok
▁yoksulluğu
▁eyaletinde
▁sanatçısı
▁ulaşmış
▁genişliyor
▁cazi
▁kullandıklarını
ranın
▁çağırdı
▁Seçim
▁mutfakta
▁galon
▁450
▁öğreten
▁çakıl
▁Toplam
▁doğar
▁tasavvur
▁keşfin
cela
▁bulgular
▁verimliliği
▁büyüğü
▁yatırımı
▁ekonomimiz
▁Karbon
▁bulutu
▁dostum
▁Akşam
▁kazalar
▁gor
▁panik
▁bazi
▁san
▁Po
▁benimki
leştiğini
▁senkroniz
▁iletmek
▁Power
▁kurduğum
▁yaptırmak
mayacağım
▁bilet
▁sektörde
▁ekleyebilir
▁koyduğumuz
arry
▁yaratılmış
▁vuran
▁yakınlarda
▁hassasiyet
▁görebilecek
▁bakışı
▁bazılarında
▁kullanmamız
▁gözlerinde
▁sevin
▁belirledik
▁Lise
▁yerlerinden
▁duymuştu
▁Ka
▁isyan
▁birleştiriyor
▁etkinlik
▁şöyleydi
▁güvenin
▁yorumu
▁uyandı
▁programlarını
▁büyükbabam
▁anıt
▁çalışıyorlardı
▁aktiviteler
▁olmadığımı
▁sorusun
rat
▁yükü
▁edecekti
▁Tanı
▁ayağı
▁dağılımı
▁etrafın
▁bekleyin
▁erkeği
▁ima
▁değilmiş
▁görmemiz
▁şeylerdi
▁insancıl
▁yaşlılar
▁kocam
▁Askerler
▁öldürür
▁kalıyorlar
luruz
▁onarma
▁Jud
▁ateşli
▁şaşırttı
▁sesim
▁kondom
▁yanlız
▁sanatta
▁tadı
▁Walter
▁karışım
▁kesilmiş
▁toplayıcı
▁yetişe
▁girmesin
▁tesisi
▁kısımları
▁petrolü
▁kaybetmek
▁demo
▁Umuyoru
▁sakın
▁açmış
▁kökleri
▁eklem
▁kasıtlı
cal
▁hipotez
▁kuşları
ell
▁karşılaştırırsa
cok
▁evlerde
▁kotu
▁asil
▁kokusu
▁geometrik
▁çalıştığın
▁kazara
▁etrafı
▁bilirler
▁gördüğümüzde
▁geçirecek
▁buluyorlar
▁Geniş
▁görebilmek
▁çıkınca
▁husus
▁kaybettim
▁Free
▁politikacıların
▁verirdi
▁ortamlarda
▁ayrılmak
▁yönetme
▁Sovyetler
▁sanatını
▁Diyor
▁duyguların
▁topluluğunu
▁içeriğini
▁Anna
▁bulabiliyor
▁kılmak
▁filler
▁Adalet
▁Dokuz
▁kötüydü
saydım
▁yetiştir
▁Denizi
▁alındığında
▁artırma
▁To
▁evinizde
▁durumdaydı
▁Lak
▁ayrıldım
▁gönderi
▁ihtimaliniz
▁topladım
▁yöneticiler
▁besleme
layabilir
▁özen
▁Çağı
▁olduğumda
▁taşın
▁şık
▁coğrafya
▁Kendilerini
▁emir
▁sebepler
▁dikkatimizi
ınıza
▁isteseydi
▁korktu
▁malum
▁Genetik
▁kontrollü
▁iyiyiz
▁demiştir
▁kölelik
▁öldüğü
▁Van
▁mana
▁hamburger
▁sonda
▁format
▁yiyeceklerin
▁anlatabilir
▁karakteristik
▁ardın
▁açıları
▁hormon
000
▁verisi
▁yaramadı
▁başardım
▁Jil
▁kariyerimi
▁derinliklerin
▁kaydetmek
▁yeniliğin
▁cesareti
▁senelik
▁ipi
▁geçirebilir
▁paketi
▁yoludur
▁mülkiyet
▁38
▁Dick
▁yansı
▁eğitimde
▁Kas
▁Cumhuriyetçi
▁biçimini
▁koltuğu
▁koruması
▁ağırlığını
▁atmosferde
▁aldığınızda
▁tanış
▁olmalıyı
▁izlerini
▁yükselmesi
▁Harr
▁bilimadamı
▁mıknatıs
▁Christoph
▁devrimin
▁Fare
▁yaklaştık
▁yağış
▁sayıların
▁arıyoru
▁kuşu
▁Oo
▁kurtar
▁analog
▁düşüncelerin
ımı
▁salondaki
medi
▁Kansa
▁besleniyor
▁kâğıt
▁önleme
▁hazırlanmış
▁meclis
▁döngüsünü
▁portakal
▁ulaşabiliyor
▁kemikleri
▁Büyüme
▁ulaşabilir
▁çiftçilerin
▁ülkem
▁devrimini
▁liderlerini
▁meşru
▁Çift
▁vaaz
▁giderdi
▁yapamam
▁güçsüz
▁bağlanma
▁Namibya
▁başarısını
miyorlar
▁bekliyorlar
▁toplumları
▁kurtarabilir
▁sil
▁doğuyor
▁severiz
▁seviyorlar
▁önümde
▁Venedik
ladık
▁bindi
▁zincirinde
▁Arabalar
▁Pro
▁vermem
▁tartış
▁vatandaşı
▁fiziği
▁birleştiri
▁zekanın
▁tanıyan
▁Belirl
▁bekleniyor
▁yapılma
▁duruyorlar
▁alçak
▁adayı
▁1975
▁Kuantum
▁gösteriyordu
ildi
▁silikon
▁adanmış
▁kac
▁polisler
▁yardim
▁sakat
▁sure
eceksiniz
▁filmlerin
▁email
▁hayvanlarla
▁nöronu
▁kolaydı
▁başlarda
rebilmek
▁oluşturulan
▁paylaşımı
▁kapama
▁örgü
▁ürettikleri
▁uzayı
saydık
▁sormalıyı
▁oranın
▁toplandı
bur
▁çerçevesinde
▁Sorunu
▁şaşkın
▁ilahi
▁zorlaya
▁saçları
▁bekar
▁cami
▁yaratılan
▁Liberya
af
▁etmeyen
▁edemedi
▁Ak
▁etkilenen
▁danışmanlı
▁kalmamıştı
▁getirin
▁Kanadalı
▁çocuğunuz
▁değişmişti
▁hissettire
▁yapılanma
▁almasını
▁planlıyor
▁esinlen
▁aracımız
▁öğrencilerimiz
leştirilmesi
▁Köpek
▁Risk
▁sonuncusu
▁ırkçı
▁söylediğimiz
▁niteliğinde
▁numaraları
▁sırası
▁seçimlerini
lacaksınız
▁zorlayıcı
▁çözünürlükte
uazzam
▁lens
▁kesiminde
▁gerçi
▁yürüyordu
▁yetisi
▁gezegene
▁toplumumuzda
▁sperm
▁ömrünü
layabilmek
▁vermeme
▁kır
▁başlarken
▁dengeli
▁planlaması
▁yetmez
emin
▁biyolog
▁sorulardan
▁yaşarlar
▁savaşıyor
▁sörf
▁geçirmez
▁getirilmiş
▁yollara
▁mühendislerin
▁Engelli
leyecek
▁kollektif
▁dönüştürdü
▁ilgilendiğimiz
▁dilek
▁Bati
▁kopru
▁sis
▁bağlan
▁hissettiği
▁sendromu
▁kova
irler
▁kata
▁büyüklük
▁sorma
▁durdurabilir
lamaya
▁diyeceğim
▁Yaşa
▁geleceğimizi
▁Güçlü
▁yansıma
▁ayrıcalık
▁geliştirebilir
▁Vinc
▁yürütme
▁konuşacak
▁örnektir
▁kestirme
▁olmayacağı
▁bloklar
▁cenaze
▁ruhani
▁Dala
▁işsiz
▁diliminde
▁sorunlu
▁davranır
▁çizimi
▁okulunda
▁başladığınızda
▁müzikal
▁kapsa
▁kombinasyonu
▁genişleye
▁yayma
▁koruna
▁başkenti
▁aşısı
▁yerleştiri
▁gribi
▁istiyorsan
▁üretecek
▁kitabımı
▁sezgi
▁ayrımı
▁Mich
ary
▁kahramanlar
▁dönemlerde
▁ölçülebilir
▁tasarlıyor
▁rahatsızlık
▁nitelikte
▁duruş
▁mahkumlar
▁Liste
▁hatırlay
▁kayıtlar
amayacağını
▁Şuan
▁başlarsa
▁Kenne
▁bedenin
▁girdiğiniz
▁üzüm
▁omuz
▁oluşturulmuş
▁arıların
▁Karmaşık
▁lük
oid
▁sigortası
▁karım
▁artırmak
▁uygulanan
▁akın
▁Kabul
▁Post
▁gösterisi
▁hayalet
▁benliğin
▁ezber
▁oluşum
▁şahs
▁basar
▁İçinizde
▁anlaşmalar
▁hükumet
▁gelirin
▁tekil
▁yaşları
▁şahsi
▁Bruc
▁seçici
▁mamut
▁rasyonel
▁videoları
▁doğma
▁görmüyor
▁Cent
▁geçtiğinde
ılır
▁damarı
▁anlatın
▁çoğunluğun
▁görmediğimiz
▁büyütmek
▁evlenme
▁güneyinde
▁deniyoruz
▁bilgisayarlara
▁ekleyerek
▁Kep
▁çabalar
▁istediğinizde
▁yaptıklarımız
▁1500
▁öyküsü
▁çizgide
▁bilimadamları
▁sahada
▁okuyu
▁pasta
▁isabet
▁anlamış
▁ekonomisin
▁Akademi
▁isteğim
▁dediğimde
▁üçünü
▁besleyen
▁ihanet
lacağız
▁yüce
▁tanışmak
▁timsah
▁önerme
▁çevirmey
▁konuşmada
▁prova
▁istemiş
▁girdiği
▁bulmuştu
▁söylediklerini
▁sar
▁söylerse
▁52
▁Nisan
aliba
▁yapabilen
▁ped
▁Yabancı
▁şekillendir
▁tutuluyor
yapılabileceğini
▁gelişmeye
▁asansör
▁kalitede
▁korkarı
▁düşündüğünüzü
▁fi
▁uyuma
▁söylemiştim
▁yağlı
▁Oklahoma
▁ortaklaşa
▁ö
▁Nükleer
▁milyonda
ender
▁gösteriyoruz
▁Ur
▁Per
▁Joseph
▁yüzleşmek
▁Lübnan
▁kanal
▁Bert
▁öğrendiğiniz
▁kopyasını
▁Umut
▁tuvaletler
▁dert
▁başvuru
▁araçta
▁Kosova
▁harfler
▁kodunu
▁sürmek
▁yararlan
▁gama
▁hazırlık
BE
hol
▁plaka
▁sular
▁köpeği
▁gözlük
nlısı
▁otistik
▁Alpha
▁patern
▁Canlı
▁Rit
▁Gol
▁çıkarları
▁bildiğimizi
▁organizasyonun
▁oturduğunuz
▁eylemler
▁Yol
▁dinlemeye
▁içecek
▁Şaka
▁evlen
▁beşi
▁çözdü
▁gercek
▁gözlemci
▁koyacak
▁anlayı
▁değişikliklerin
▁korunmuş
▁luk
▁Cassi
▁itti
▁Fotoğraf
▁renklerde
▁duygularını
▁kullanabilirim
▁zalim
▁kışın
▁dusunce
▁anestezi
kac
▁oksijeni
▁orantılı
▁primat
▁86
▁harcadığımız
▁beslenen
▁yollarında
▁özünü
abildiğini
▁ettiğimi
▁Et
▁Hoş
▁yaratmamız
▁harcar
▁ad
▁hücum
▁dalgaların
▁birbirlerinin
kal
ari
▁kullandığını
▁çarpıyor
▁Katolik
▁beyninizde
▁yoksullukta
▁edili
▁anneleri
▁Özgürlük
▁tanımlay
▁ingilizce
▁listesinde
▁Hindistanda
unun
▁söyleyi
▁konuşmalarını
▁mesajını
▁okuy
ünüzü
▁yemekleri
▁ekonomide
▁çalışmasında
▁üyelerini
▁belirten
▁kırma
▁hedefin
▁vücudunuzun
▁Hale
▁dağılımını
▁MA
▁elektro
▁Hy
▁olayını
▁koşan
landığında
▁dolaş
▁testini
▁Deri
▁sadakat
▁hayaller
▁bayrağı
▁engelliyor
▁Pho
▁öfkeli
▁azar
▁aşikar
▁kurbanları
▁kimseler
▁İnşa
▁anlamam
▁boğa
sün
▁görüntünü
▁yapabilirsin
▁Söylemek
▁salgı
▁yüzer
▁katmanı
▁düzenledik
▁telefonunuz
▁Gelişim
▁Ateş
▁Philip
lıktan
▁tarımsal
▁balıkçı
▁manevra
▁fiyatını
▁Android
▁yanlarında
▁katılımcılar
▁saydam
▁deneyeceğim
▁örneğim
▁topladı
▁Tabiki
ans
▁istasyonu
▁resimdeki
▁öğrenin
▁seviyelerde
▁Hakkın
▁kazası
tis
▁meyilli
▁kaydını
▁köklü
▁diyabet
▁oyuncusu
▁Siyahi
▁bilmediğim
▁duracak
▁Kent
▁taşınıyor
▁Okyanusun
▁laboratuvarımda
▁kişilerden
▁işbirlikçi
▁görürler
▁zihnimde
▁düzelt
▁eBay
▁uzanı
▁Lama
▁büyüktü
▁kısır
▁kaynakta
▁şema
▁Mil
▁çocuklarımı
▁vaktim
▁tura
▁yorumlama
▁edilmemiş
▁şeytan
▁mirası
rası
leştirmeye
▁ayakkabıları
▁milyonun
▁belirliyor
▁abartılı
mun
▁doğuşu
▁kurtaran
▁değişebilir
▁tabak
etho
▁hissediyoruz
▁karlı
▁şekillerin
▁günümüzdeki
▁gözlemler
▁reform
▁büyüdüğünü
CD
▁pantolon
▁İnsanın
▁belgeler
▁gazeteciler
▁dener
mez
▁bilme
▁Hani
▁alamıyor
▁vermeyen
▁bedel
▁bedelin
▁Cam
▁mecaz
▁yaşamanın
▁aşkı
▁toplantısı
▁Hali
▁çekilme
▁açıktı
▁soya
▁telafi
▁suçlama
▁tutsak
▁eroin
▁kabileler
▁davranışların
▁agresif
▁problemle
▁müzede
▁alabilecek
▁rakamları
▁imkânı
lenmesi
▁öğrenebileceği
▁arabasını
▁testere
▁keser
▁güçlerin
▁atmosferin
▁kolera
▁sente
▁görevim
▁bilmeyen
▁tören
▁haritada
▁gözümü
▁çifte
▁cins
▁sorumlulukları
▁kaçtı
▁uzaklar
▁ilerlemeye
▁tanıştır
▁sanata
▁doğasında
▁sahiptim
▁olasılıkları
▁gibiyiz
▁olduğumuzda
▁tahliye
▁malzemesi
layabileceğimiz
▁kitab
▁gösterim
▁olaydı
▁vermelerini
▁ger
▁nehirler
▁hizmetlerinde
▁kalınlığında
▁yapabiliyorlar
▁Doktorlar
▁Bel
▁katıl
▁inen
▁yönlendiriyor
▁bahsettik
▁yayıldığın
▁Ailesi
I
▁itiyor
▁işlerde
▁videosunu
▁Beatb
▁kapsıyor
▁insanlardı
▁ormanlarda
▁yükseklik
▁şaşırdı
▁Mahkeme
▁işlemini
▁data
▁etmiyoru
▁dokular
▁Okuma
▁benzerlik
▁ideolojik
▁yanıtı
layalım
▁solar
▁satmaya
▁kanalları
▁tanrılar
▁Deneyim
▁fikrinden
▁zincir
▁gecesi
▁uçağın
▁alaycı
▁keşfedilmemiş
▁amaçla
▁tutum
▁Beck
▁parkta
▁götür
▁parkın
▁paraları
▁olamadı
▁gerçeklikte
▁Öğrendiğim
▁Jenni
▁içindeyiz
▁Ali
▁astronot
▁yapımında
▁bul
▁deneyimleye
▁hücreli
▁başkalarını
▁ekranı
▁Julia
▁gelmemiz
▁tepkiler
▁kuşak
▁organizasyonu
▁kullanıldığı
▁ES
town
▁matematikte
▁karikatürist
▁senesinde
▁küp
▁pul
▁hücresel
▁sorduğumuz
sizin
▁vermedi
▁yahut
▁komplo
▁Rai
▁yaratıcılığın
▁iPad
▁sevmek
▁taşıy
günün
▁boz
▁birazını
HC
▁karadelik
▁idrak
rsek
▁esir
▁soktu
▁stratejisi
▁yüzbinlerce
▁yayılmasını
▁paramız
▁girişi
▁evrimini
gı
▁fizikçiler
▁bitmiş
▁açılış
▁destekledi
▁Şehrin
▁kesintisi
lardaki
▁çatlaklar
▁gelişmesi
▁teoriler
ant
▁oluşturdular
▁güzelliğin
▁yaratı
▁televizyonu
▁Evan
▁Lagos
▁asi
▁kuzeyinde
▁paneli
▁cikar
▁inekler
▁maymunların
▁beyinleri
▁olmadığımızı
▁atalarımızı
▁yavaşlama
▁kimliği
▁itiraz
▁öneriyorum
▁edeceği
▁Şirketi
bes
▁başkalarıyla
▁düşecek
▁destekli
▁lobi
imizden
▁Akademisi
▁Samanyolu
▁ışığını
▁böylesi
▁Hubb
▁getirebileceği
▁Lord
▁duyuru
iyet
▁ulaşmamız
▁okuyacağım
▁Con
▁gez
▁müziğini
▁kesim
▁sevdiğini
▁babaları
▁yetiştiriyor
▁bahçede
▁uy
▁Ram
▁yüzyıllardır
▁emindi
▁kıyafetler
▁müziğ
▁Cumhuriyeti
▁dü
▁kolları
▁fırsatını
▁oturduk
muzu
▁Anneler
▁motorlar
▁koordine
▁ödüller
▁çizgileri
▁eşimi
▁eşleşme
▁laboratuvarımız
▁öğrencim
▁Özür
▁Will
▁içmek
▁anlaşılabilir
▁geçeceğim
▁aktörler
▁güvence
▁bedenini
▁anlatım
▁işletmelerin
▁örtüsünü
▁artışını
▁kamerası
▁alınır
▁kalıyordu
▁kurtulan
▁oğlan
▁ayrıcalıklı
▁hijyeni
▁sulama
▁ıssız
▁değiştirmiş
▁Sesi
▁yetişkinlerin
▁boşluklar
▁mezar
▁Şiddet
▁ilintili
▁Amanda
▁Dil
▁bölgelerini
▁yoksullar
▁kadındı
▁diyorlardı
▁sınıflar
▁firmalar
▁Gördüğümüz
▁kurtuldu
ıyorum
▁kariyerim
layabiliriz
ardo
cü
▁objeyi
po
▁akustik
▁araçlardan
▁varil
▁yelken
table
▁apaçık
▁aralar
▁kopyalama
▁ihtiyacını
▁Yazı
▁uyanı
▁geliştirdiği
▁Yıldızlar
ernik
▁sorgu
bil
▁uzerin
▁sa
sinda
▁insa
▁apartman
rim
▁girmede
▁yükselir
▁hatırlayacak
▁kaldığımız
▁reaksiyon
▁eşliğinde
▁konuşmaların
▁inancım
▁çalışacağı
▁zorundasın
▁Sea
▁vurma
▁Bilinç
▁imkân
▁söylemiyor
▁ilerlemeler
ego
▁birçoğunuz
▁hâlinde
▁keşfeder
▁Wood
▁kırmak
▁yaşamları
▁kullanabilecek
▁kusurlu
▁rehber
▁başladıklarında
▁yükselme
▁gönderebilir
▁nüfuz
▁Oyuncu
▁kuşun
▁öğrenim
▁bilgelik
▁ritmi
▁kapattı
▁gelişir
kullanılabilecek
▁reddetti
▁yenme
▁koleksiyon
▁ticaretin
▁olmayışı
▁hazırda
▁akışın
▁kaydediyor
▁Portekiz
▁çeşitliliğ
▁reklamı
hall
▁notları
▁bulunmuş
▁toplumumuz
▁Günümüz
▁il
▁kumaş
he
▁hizmetlerin
▁tanıklı
▁haftalar
▁yıllarında
▁gidebiliyor
▁olmalısın
▁Pal
▁oluşumunu
▁teknolojide
▁yürüy
▁niyet
▁bırakıyoru
▁bozu
▁sanıyordu
▁ekibimiz
▁bahsediyordu
▁müfredat
▁fırça
▁destekler
▁State
▁bileşenler
▁başbaşa
▁politikalar
▁ağlama
▁ölmüştü
▁kanlı
▁devletlerin
▁yükselişi
▁artması
▁alınıyor
▁tekrarladı
▁canlandırmak
▁izleyiciler
▁hackerlar
▁yiyorlar
▁kalanın
▁Çocuklarım
▁çıkarmayı
▁tohumlar
▁atış
▁iflas
▁galaksilerin
▁sorumlusu
▁deneyimlerini
sky
▁kü
▁tavır
▁öğlen
▁kargaşa
▁anladığım
▁sınıftan
▁hayvanat
▁Genom
▁psikolog
art
▁toplanıyor
▁Mantık
▁yemeyi
msi
▁dekor
▁bitireceğim
▁bisikleti
▁girdiğinde
▁hazırladım
▁yapsa
▁sınırlama
etti
▁Teknik
▁karşılaştırın
▁Sahara
dırlar
▁karbonu
▁ilkesi
▁aşaması
▁idrar
▁basitlik
▁açıklamalar
edeyim
▁patoloji
▁iyileştir
▁kürek
▁kaplayan
▁ayaklanma
▁sandviç
▁Hol
▁dergisini
▁ölçme
▁verilecek
▁bilimcisi
▁eleman
▁sarmal
▁videonu
▁alışkın
▁savaştı
▁Gülmeler
▁akıntı
▁Kitap
▁yüzünde
▁sahası
▁uçakların
▁avantajları
▁safi
mily
▁depresyonda
▁böbrek
▁kaydetme
▁bilgilendirme
▁kaderi
cektir
▁Federal
▁kaynağını
ekliyoruz
▁tabanda
▁kafanızda
▁Anlatıcı
▁görece
▁sıralama
▁söylememe
▁anlatıyordu
▁gözetim
▁korsan
▁yunuslar
▁Jüpiter
▁saklamak
▁Bahsettiğim
▁Pantheon
▁otonom
▁açılma
▁Motor
▁Duru
▁eşitsizliğin
▁şüpheli
▁görünümü
▁Sıcak
▁yıkama
▁büyümekte
▁sünger
▁besliyor
▁Patent
▁ekibin
▁birşeydi
▁ekosistemin
▁aksanı
▁Güven
▁High
▁Arm
▁yapmıyorlar
▁veririz
▁Jac
MM
▁duş
▁Düzen
▁lambası
▁duyurdu
▁Bağımsız
▁danışman
▁Ölü
▁devreler
▁tansiyon
▁ağacının
▁asfalt
iribati
▁baktığında
▁Ushahidi
▁haritaları
▁bla
▁türe
▁spektrum
▁dinazor
▁Politik
ISA
▁konuşmuyor
▁benzediği
▁büyüyü
▁topraktan
▁pazarlar
lacağını
▁yanımızda
▁İst
▁co
▁köylerde
▁prosedür
har
▁biçiminde
▁istemiyorlar
▁sürdüğü
▁vazgeçmek
▁şehirlerimiz
▁memuru
▁yazması
▁edilmek
▁bilimle
▁noktasını
▁yaklaşımlar
▁dükkan
▁kapatma
ab
▁çıkartıyor
▁Nokta
▁tutabilir
▁Arkadaşım
▁öldüğünde
klasik
▁arasinda
artik
▁konusma
▁hersey
▁tasarlan
▁Alkislar
▁beynini
▁Kural
▁artacak
▁büyüklüğün
▁metaboli
▁buzdolabı
▁mütevazi
▁elektromanyetik
▁patladı
▁geliştirecek
▁müşterileri
▁gideceğim
▁alacağınız
▁Kay
▁okuldaki
▁bağladı
▁Port
▁ışıkla
▁feci
leşerek
▁Korkunç
▁Sun
▁yakalayı
▁Han
▁saçlı
▁koşmak
▁önceleri
▁toplantıda
▁odaklanır
▁inançlar
dığım
▁birarada
▁Gizli
▁İşleri
kleri
chi
▁lezbiyen
▁tereddüt
cılık
▁h
▁kollarını
▁çekiliyor
▁kişiydi
▁tutulur
est
▁Kitabı
▁bulabileceğiniz
▁Yazar
▁uçurtma
▁Bekle
▁hissettikleri
▁ayağını
▁basıyor
▁görebildiğiniz
▁teli
▁engeli
▁Baş
▁şablon
field
▁işimizi
▁olabileceğiniz
liydi
lıydı
▁kesmek
▁yazılımın
▁tara
▁sahiptik
▁uğraştı
▁yazıyorum
▁takımın
klarında
ona
▁kocası
▁bot
▁yosun
▁kireç
▁bırakacak
▁materyalleri
▁oyna
▁zihnin
▁keyfi
▁sine
▁istatistikleri
▁ikram
▁verebilirsiniz
▁nesi
▁böceklerin
amanı
▁puanı
▁veriyorsunuz
▁odağı
▁Yaşamın
▁erişti
▁mucit
▁platformu
fa
▁deneyimim
▁fırlatma
▁bacaklar
▁büyüdüğü
▁kuyruğu
▁Shakespear
▁bırakacağım
▁Kol
▁söylediğinde
▁telefonunuzu
▁konuşmakta
▁Dağları
lediğimiz
▁çıkarlar
▁Kağıt
▁doldu
▁pro
isi
▁tonu
▁durak
▁kaybolur
▁belir
▁kalkış
▁Beynimiz
▁kültürümüzü
▁görmemiş
▁Hastane
▁kaydettik
▁zenginliği
ünüzdür
▁harcamaları
▁derinliklerinde
▁seçimlerin
▁topun
▁arda
▁görünmeye
ıcık
▁binası
▁Ez
▁göstermesi
▁alev
▁koru
▁hikayede
▁kapasitesini
▁Babası
▁çekmiş
▁doldurmak
▁gül
▁muhabir
▁şekillendire
▁sına
▁müzisyenler
▁duvarların
▁eylemleri
▁ayakkabısı
▁isimler
▁hikâyesi
▁Babamı
▁edilmeye
▁satılan
▁insanlığı
▁beşte
▁bellek
▁virüsünü
▁değişme
▁yaralı
▁SB
▁ülkemizde
▁aldıklarını
▁dergisi
▁faydalanma
▁Pittsburgh
▁dönemlerinde
▁köşesin
▁yüksekliğinde
▁tıklama
▁taşını
▁Finansal
abilecekleri
▁ortalaması
▁konut
▁yapmadığı
▁durumdaki
▁imkanlar
▁baktığı
▁psikiyatri
▁yapılmalı
▁Gine
▁tesadüfen
▁katılma
▁dönüşme
başı
▁fırsatımız
▁br
lendirici
▁İçeri
▁Suriyeli
▁belirtti
lıyım
▁Hawkin
▁anlayabileceği
▁proteini
▁türünden
▁arıları
▁yönetimin
bilirim
▁Kutu
lılar
▁kralı
▁entelektüel
ılacak
▁mekanda
lmüş
▁alem
▁gözlerimizi
▁sormamız
▁istendi
▁koruy
▁aletin
▁Günün
muzun
▁dolduruyor
▁sepet
▁Öğle
▁Simon
▁56
▁suistimal
▁etrafını
▁kitlesi
▁kası
▁Alic
▁ilişkisini
▁müzikle
tnik
▁döneceğim
▁düşünmüş
▁edersin
▁kenarın
lemeliyiz
▁yargılama
▁verdiğinde
▁duygularımızı
▁kazanmaya
▁artırıl
▁Las
▁sivri
▁kararlarını
▁dökme
▁istiridye
▁Mumbai
▁alabileceğiniz
▁fincan
▁görmenizi
▁boylu
▁büyükannem
egon
▁yoksulluğun
▁sığır
ğımız
▁imkansızdır
▁yanan
▁gözde
▁yeryüzündeki
▁anlaması
▁Allen
▁karmaşıktır
▁İçine
▁şirketinin
▁geçirdiği
▁çalışıyorsunuz
▁yaptığımda
▁İşler
▁Jonat
▁yapmalıyı
▁Çölü
▁miktarın
▁tabanı
▁olacakları
▁birilerini
▁dolaşıyor
▁başlatma
▁NA
▁Başarısız
▁ortalarında
▁ölçümler
▁Jeffer
▁hekim
▁yapabildi
▁arayarak
▁disk
rdiğinizde
▁iri
▁okyanusların
▁unsuru
abilirim
▁durduru
▁Warr
▁Yılın
▁bozulmuş
▁Scho
▁basmak
▁ayaklarını
▁yanımız
▁Çinliler
layabilirsiniz
▁öznel
kine
▁tabanında
▁medeniyet
▁kokuyor
▁Dee
▁kanallar
▁edebiliyorsunuz
▁politikaları
▁kasvet
▁Maya
▁oluşmasın
▁egzotik
▁Global
▁fareler
▁ilgilendi
▁Nag
▁bombası
▁düşürmek
▁hesaplamak
▁hareketle
▁asl
▁Devrim
▁Ham
▁ser
▁durduğu
▁kuraklık
▁bağlam
▁sitesin
▁metodu
▁derecelendirme
▁boyutlar
▁unsurlar
▁sistemlerine
▁yapılmıştır
▁kodlar
▁yaratıldı
▁ultra
▁kadinlar
▁bataklık
biliriz
ide
▁yakınlık
▁arabam
▁müşterilerin
▁boyutların
▁Buzul
▁Cher
Gowan
▁soyutlama
▁diplomat
▁öğün
RNA
▁sivrisinekler
▁Mola
▁gitmeniz
▁öldürmeye
▁gerilim
▁dalında
▁yetkili
▁çalıştırıyor
▁öngörüyor
▁ulaşacağı
▁Amerikanın
▁ar
▁genişliği
▁tanımadığım
▁tasarlay
▁yaklaştı
▁uzunlukta
▁4000
▁Teori
▁görüşün
▁mekanizmaları
▁oluşmasını
▁erişmek
▁sunabilir
▁keyifli
meleri
▁hedefleri
▁kaçırıyor
▁karşılaşır
▁açılmış
▁geldikleri
▁şeridi
▁simülasyonu
▁göstermiyor
manın
▁arayış
▁fenomeni
▁olamayacak
▁gördüklerini
▁dinleyen
▁up
▁davrandı
▁beyler
rasi
▁yaptim
▁İletişim
▁nörona
▁çekirdeği
▁beynimizde
▁pratikte
▁uyanık
▁pişir
▁arkadaşımla
▁sanatlar
▁Toyota
▁aradığım
▁korusun
▁ağda
leşecek
▁Amacımız
▁dönebilir
▁deliği
▁Budist
ung
▁ülkemiz
▁güvenliğin
▁soruşturma
▁tecrübeler
▁sarılı
▁korur
▁tişört
▁güvenmek
▁kaynağıdır
▁toplanan
▁gereksinim
▁çöktü
▁giyme
▁çevresini
▁kalkıyor
▁seçilen
▁kardeşin
▁tanımladığımız
▁başarılıydı
▁Hafta
▁Bre
▁kurucu
▁eğlen
▁paylaştık
▁kuruma
▁ödev
▁Japonca
▁beklemiyordu
▁sensörleri
▁Çalışan
▁takımlar
▁kıvılcım
▁fikirlerimizi
▁layık
aş
gat
▁riskin
tum
▁kaldırabilir
▁ko
▁doldurma
▁uçurum
▁elimiz
▁dişleri
▁söyleşi
▁objektif
▁kapılar
▁seyretti
▁tercüman
▁Önceki
leşir
ildiği
▁Cur
▁çalışmıştı
▁kimyasalları
▁duyabiliyor
sındaki
▁dengede
▁gülünç
▁atlat
abilen
▁medika
ladı
▁boşluğun
▁öğüt
▁anlatılan
▁göstereceği
▁görüyorsun
▁Jay
▁yöneticileri
▁Pardon
▁salonu
▁simge
▁taktı
▁savaşmaya
▁tamamlama
▁yayıyor
▁milletler
▁hisleri
▁bitirdik
▁ahşap
▁yapıştırıcı
▁kabuğu
▁donanımı
▁şaşırmıştı
▁uğraşıyor
▁maksim
▁plastiği
▁parmaklarını
▁konferansın
▁şiiri
▁gülme
▁Hmm
▁çantası
▁kanıtları
▁cevre
▁damga
▁hayallerini
▁gülüyor
▁Katar
▁dönün
▁birleşik
ümkün
▁Çöp
▁çevremizi
ish
▁ilgilen
▁Sınır
cca
▁seçtiğimiz
▁değiştirdiğini
▁görmemizi
▁girin
▁vaktimiz
▁politikaların
▁masrafların
▁ödevi
▁kapıları
▁uzan
▁görüşleri
▁çıkaracak
▁çekmişti
▁yaşamda
▁aşmak
▁Solda
▁yoldur
▁bastır
▁memur
▁edeceğimizi
▁sonlandırma
▁götürme
▁öğrendikleri
▁eylemin
▁seslerin
▁derinliği
▁çılgınlık
▁olmadığında
▁Öğretmenler
▁öğretilen
▁edince
▁domuzlar
▁serisi
▁işlemleri
▁Geliş
▁ölümlerin
▁çalışmalarında
▁vaad
▁okuyabilirsiniz
▁kesmeye
ick
▁semboller
▁karesi
▁Aklım
▁çeşitleri
▁üzüntü
▁Neyi
emez
▁kalıntıları
▁yaklaşımın
▁genomik
▁uzaktaki
▁dizisini
▁Suç
▁anayasa
▁değiştirmeliyiz
▁olanakları
sterd
▁çalışmalarım
▁destekleme
▁toplay
▁özgürlüğünü
▁Haberler
▁sifon
iği
imize
▁Sor
▁elmas
ilebilecek
meden
▁vurduğu
▁Başarılı
▁kıldı
▁arşiv
▁penis
▁dokunuyor
▁sürdürmek
▁etkileşimler
▁maliyetle
▁müşterek
▁sunacağım
▁tesadüfi
mışlardı
▁etiketleme
▁arkadaşınız
▁felsefi
▁demesi
▁uçu
mıyorlar
▁yedim
▁mem
▁sağladığımız
▁anlaşmaya
▁güldü
▁kale
▁davranan
▁Hayatı
inizde
▁haksız
▁Resmi
ussani
▁Bilmiyor
▁Ger
▁hazırlar
▁bulacağım
▁rahip
▁yemekte
▁anlamıştı
▁saklama
▁Sunucu
▁başlatan
▁vazgeç
▁yabancıları
▁sempati
ydılar
▁gösterebiliri
▁aklımızı
▁terimler
▁Endüstri
▁karısını
yüm
▁ihtiyar
▁bırakmış
▁Bangal
▁indirebilir
▁Resimde
lebilir
▁Mes
▁cilt
▁başlıyordu
▁okulumuz
▁Siber
▁Afrikada
▁kalkan
▁geliştire
▁okyanusları
▁tüberküloz
▁doğruyu
▁andır
▁klik
▁düğme
▁tedaviler
▁yerimiz
▁moleküllerin
▁gördüğün
▁Veriler
▁uyur
▁grafiğ
▁kullanıcıların
▁logo
sizlik
▁çekin
▁görünme
▁çalışmalarımız
▁kaydedilmiş
▁eyalette
▁kavuştu
▁rap
▁kanatları
▁alıştırma
▁laboratuvarında
▁İşim
▁alamadı
▁konuşmasında
▁birimler
▁oluşturduğunu
▁Dar
▁siteleri
▁bastı
▁uygarlık
▁vuru
▁dalı
recektir
▁okulların
▁nanometre
▁atladı
▁yabancılar
▁tehditler
▁buralar
▁memnunu
▁gözetleme
▁zorluyor
▁Norman
▁kuruş
▁sanatçıların
▁matbaa
▁girdiler
▁sorumluluğunu
▁unutmuş
▁Şehri
▁havuzu
▁görüntülerini
▁sende
▁işlemek
▁yasaları
▁görüşe
▁elektriğin
▁büyüklüğündeki
▁mola
▁sayfasında
▁hamle
▁ünite
▁karıştırıcı
▁disiplinler
▁sıkıntısı
▁parmakları
ella
▁bodrum
▁ampul
▁kazandım
▁kok
▁bilgisayarınız
▁kalbin
▁piyasada
▁hayvana
▁alınma
▁aralığında
▁varlıkları
▁çevirme
▁geldiğinizde
▁dolaştı
▁sınırını
▁Dürüst
▁Müslümanlar
▁yavrusu
▁endişeli
▁kumu
▁sıkışı
▁dilleri
▁müsaade
▁beyinlerimiz
patch
▁ideoloji
▁pes
▁peşine
▁kurabiye
wand
▁dereceden
▁ölçümleri
▁Uyuşturucu
▁Avusturalya
▁Cennet
▁kafatasını
▁yöneticilerin
▁dodo
▁dağıtılmış
▁mekanizmasını
▁lav
▁soz
▁tümörün
bilmek
ddin
iflu
▁şekillendirir
▁İnd
isha
▁gökada
▁çözülebil
▁görüşlerini
▁yürüyü
▁azaldığını
leyebilir
▁ilişkilendir
▁hop
maması
▁tanımını
▁kazandırdı
▁bilemezsiniz
▁kadardı
▁Amerikada
▁jet
▁yor
▁gözükmüyor
▁sebepleri
▁harcıyorlar
▁kullanacağımız
▁uzaklaşmak
▁eşyaların
▁caddede
▁beklediğimiz
▁Tre
▁anlıyorlar
▁yaralanma
▁yansıtıyor
▁hazırladı
▁Tıbb
▁hasıla
80
giz
▁benzemeye
▁niteliği
▁sözlerini
▁edemem
▁cümleler
▁Mari
wi
▁Jersey
▁Televizyon
▁Hastalar
lesi
▁ekibim
abil
▁doldura
▁doldurur
▁dolduru
▁fonksiyonel
▁berrak
▁sıçan
▁arttırmak
89
▁saatini
▁Günlü
▁kapağını
▁önsezi
▁verildiği
diğiniz
▁CIA
▁binde
▁sistemimizde
▁kira
▁Min
▁düşüncelerimizi
▁kılacak
▁Din
▁kazanabilir
▁çalın
▁şarkıları
▁yayınlanmış
▁etkilenmişti
▁çalışkan
binlerce
▁hızlandırıl
▁bırakırlar
▁başlatıl
▁etrafınızda
▁çevremizde
▁yaşanabilir
▁kaka
▁evrenimizi
▁ülkemizi
▁getirmesi
▁no
▁sokaktaki
▁almam
▁çalmaya
▁bahseden
ilemez
▁Bosna
▁kaybın
▁kapsamında
▁toplan
▁iade
şa
▁satılıyor
▁kızla
▁bilmeli
▁giydi
▁polisin
▁alçakgönüllü
▁ettiklerinde
▁Değişim
▁Movem
▁destekleyecek
▁bıyık
▁eğlenceliydi
ront
▁odaklanıyor
▁gelişi
one
▁gözüküyordu
▁fabrikalar
▁geçiriyorlar
▁duyarlar
ladığında
▁odasını
▁aldığımda
▁düşüşü
▁tekerlek
▁çalıştırmak
▁yarışması
▁biliminin
▁görkeml
▁yavrularını
▁yokmuş
▁düzeyi
▁güvenle
▁kürtaj
▁hayvanlarını
▁kupa
▁Ron
▁inatçı
▁dansçı
▁poz
oto
▁paylaştığı
▁Olimpiyat
▁faktörü
▁Map
▁ikiz
▁bebekleri
▁anladığımız
▁köyünde
▁Koca
▁salon
▁turizm
▁ifadesini
▁önemseme
▁yüzeyleri
▁bakterileri
▁saptama
▁attık
▁yetişti
▁taşına
ria
▁artırıyor
▁çizmeye
▁hatları
▁tamamlanmış
▁kurtarıcı
▁düşünebiliyor
▁Kitle
▁Kredi
▁İskoç
▁desen
▁Kök
▁yaratıkların
▁üretiyorlar
▁andaki
▁göl
▁farkındayız
▁hissettik
▁geliştirmiş
▁beğendi
▁boyama
▁inandığımız
▁sansür
▁çığır
▁aşıların
▁kanıtlama
▁tıpta
▁tutuyordu
▁kalemi
▁Russel
tun
▁360
▁eyleme
fo
▁inanilmaz
▁yakin
▁ergenlik
▁Parla
▁körlük
ymuş
syon
▁dönüşümlü
▁kırdı
▁göstermiş
▁kitabım
▁yiyeceği
▁varsayılan
ınız
▁tanıdığınız
▁aileniz
▁değinmek
▁sağlanması
▁Yukarıda
▁liderliğin
▁geçiyorlar
▁Jean
▁üzerlerinde
▁sonucunu
▁gözleriniz
▁eksende
▁izley
▁stratejiler
▁canlandır
▁farklılığı
▁utan
▁satıldı
▁sevmem
▁kısm
▁evliliği
▁gitmem
▁bozma
yordum
▁Yakında
▁senfoni
▁konuşmamız
▁alışkanlık
▁gördüğümüzü
▁çatışmaya
▁gerçekleştiğini
▁Bono
▁yaşamakta
▁Aşı
▁üretiminde
▁hantal
▁kitaptan
▁gönderilen
▁yapmışlar
lektronik
▁dairesel
▁bağır
▁Görev
ics
▁taşınması
▁ifadeleri
▁Red
▁deve
▁birşeyin
▁yöneliyor
▁genomunu
cül
▁Sonuçlar
▁Nijeryalı
▁ümitsiz
▁engelliler
▁yapıldığında
▁ifşa
▁ilgilenmek
▁Gıda
▁ekin
▁göremiyor
oloji
▁pankreas
▁yaşayabilecek
▁çıkmakta
▁inceliyor
▁stil
▁bekliyorum
▁Col
▁Bahçesi
▁tartışması
▁davranmak
▁kıymetli
▁ortağı
nter
▁kamyonlar
▁kastettiğim
▁Toprak
▁prensipler
▁far
▁koordinasyon
derlerdi
▁indirdi
▁kutusunu
▁örneklerini
▁kültüründe
▁vur
▁yönlendirir
▁aileden
▁eserler
▁özet
▁Beşinci
▁sağladığını
vari
▁Finlandiya
▁atlama
▁vazgeçme
▁Aşağıda
▁güneşi
▁standartlarını
▁araçtır
▁anlaşılan
▁58
▁sevmiyoru
▁tünel
▁kampta
▁tuzak
▁santigrat
olog
▁Stan
▁potansiyelin
▁vizyonu
▁Dağ
▁diller
▁tecrübesi
▁özlem
▁beynim
▁68
▁odam
▁arayışı
mayacak
▁ofiste
▁Gençler
▁çete
▁kartlar
▁bileşenleri
▁damarları
▁iletken
uzdur
tım
▁sayfaları
▁yakındı
▁zamanlardı
▁kaz
▁hakkınızda
▁Taş
▁helyum
ledi
▁içersinde
▁ayırır
yal
▁grupta
▁fonksiyonları
▁paylaşıyoruz
▁patlak
▁oynat
▁molekülün
▁teleskoplar
▁paraşüt
▁köşedeki
▁cihazların
▁aşamaya
▁Yaşlanma
▁yaşlıları
▁vitamin
▁Politika
eith
▁etmediği
▁tuttuğu
▁Amy
▁doğduğunda
ikago
▁Biliyorsun
▁projelerin
▁gitsin
▁gemileri
ış
▁olduysa
▁turist
▁yaşayanlar
▁Suyun
▁dikkati
▁tahtası
▁ettiğinizde
▁refahı
▁Ameliyat
▁pencereler
▁havası
▁yansıması
ling
▁dediklerini
▁düşünseniz
▁kanıtlamak
▁götürdüm
▁moleküllerini
stron
lkeni
▁Op
▁yapamayacağı
▁adlandırdığı
▁listesini
▁raporu
▁papaz
▁ulaşabileceği
▁Hata
▁konsantr
▁vakum
▁tırmanıyor
▁Roger
▁Cidde
▁adada
▁kurmamız
▁kalkar
▁Sağlıklı
sis
▁kesinlik
▁büyümek
▁sağlığ
leşmeye
▁yüzeysel
▁görebileceğimiz
▁Sony
▁kıkırdak
▁yapılmamış
▁tembel
▁düşünse
▁Balık
▁kısıtlama
▁demiryolu
▁Arşi
▁helikopter
▁ilçe
▁geleceğim
▁dönüyoruz
▁Hindu
▁öğrendiği
misti
ıyordu
▁yaklaşan
▁olabil
▁yat
lendiği
▁alacağı
▁Dalla
▁takıldı
▁fok
▁İhtiyacım
▁dizilimini
▁sülfür
▁ölçeği
▁ağaçta
▁unsurları
▁Julie
▁baloncuk
▁dalgıç
▁inmek
lüğü
▁sırları
▁zenci
▁formlarını
▁Anas
▁Margaret
memiz
▁AV
▁derinlikte
▁White
▁Baltimor
▁reklamlar
▁FO
▁Mig
▁albüm
▁Arktik
▁Mimarlar
▁kediler
programlanabilir
▁maymunun
▁form
_
▁şempanzelerin
▁cevaplamak
▁girişimcilik
▁yemekler
▁özelliğini
▁organizmaları
▁guven
▁Jona
▁Talk
▁evrenler
▁RIS
▁Yiyecek
▁insanlığ
▁Montana
▁kazma
NC
▁plasebo
▁JC
▁doğduğum
▁mammografi
▁fraktal
▁Gezgin
▁üremesin
iath
▁karakterini
▁talimat
▁belirtiler
▁sorunlarımız
▁soran
▁öğrenecek
▁İlerleme
▁imkansızdı
▁hip
▁Elleriniz
▁belirtiyor
▁düşünmekten
▁değiştireceği
▁buhar
▁hayatlarımız
▁kirliliğin
▁Eğlence
▁Wil
▁sandığımız
▁kabiliyet
▁çıkartı
▁randevu
▁denemeler
nızda
▁gidebilme
▁araştırı
▁bulunuyorlar
▁bunlari
▁Hedefler
▁sokağın
▁bağlanır
▁yeryüzünü
▁Grand
▁oluşturuldu
ugu
▁şeritler
▁Europa
▁çıkartabilir
▁görünüml
▁ödedi
▁atomlar
▁dolanan
▁olamayacağını
▁kütlesini
▁Satürn
▁Vo
üs
▁kahramanı
▁ulaştığı
▁Ele
▁Dinleyiciler
▁geribildirim
▁1986
▁kullanmama
▁cerrahlar
▁anla
▁doldur
▁çözülmesi
▁sayılarını
▁nöronları
▁hesaplayabilir
▁yiy
▁nitelik
▁ayırabilir
▁Madde
▁Dans
▁genişletmek
▁bağımlılığı
▁sağlanan
▁salınımı
▁seçildi
▁versiyon
derhal
▁gerçekleştirdik
▁bucaksız
▁şarkılar
▁delikleri
ecektir
▁eksiksi
ür
▁duyardı
acaklar
▁göreceğimiz
▁kolun
▁bakımdan
▁kilisede
▁görüştü
▁Evi
nness
▁Gid
▁savunmak
▁küçülüyor
▁kesimi
▁güvensizlik
aydın
▁amca
▁etiketler
▁boyda
▁gezer
▁mücevher
▁kazandır
evel
▁kardeşler
▁kardeşlerim
▁Kanseri
▁partner
▁istikrarlı
▁54
▁kuruluşların
▁eyaleti
▁düşüktü
▁İşbirliği
▁bulduğunuz
▁Mutluluk
▁depresif
▁Mor
ER
▁simülasyon
▁kameraları
▁Laboratuvarı
▁DARPA
▁Gördüğüm
▁filmlerde
▁yatağ
▁unutulma
meyeceğini
▁konuşun
▁kültürlerde
▁atılım
▁Kutsal
▁yüzyüze
▁giyer
▁performansın
▁performansını
▁görünmesi
▁demedi
▁tutmayı
▁uğruyor
▁Jenn
▁yapmamış
▁ölümle
▁bacaklarım
▁ilaçlarını
▁sureti
▁mercanı
leştiğinde
▁tamamlamak
▁Karayipler
▁Kesin
▁çeşitliliğini
▁anlamadı
▁eleştire
▁korkma
İ
▁Ash
▁As
gan
ihin
▁davranışın
▁intikam
▁Nüfus
ıldı
▁dokuma
▁aittir
▁dişiler
▁fotoğrafların
▁koyuyorlar
▁kanatlarını
▁fedakarlık
▁eliniz
▁yapısında
▁masaüstü
une
▁toplumla
▁Yapmay
ıldığı
▁yenmek
▁KB
▁maça
▁kayma
▁varlığında
▁şartlarda
▁İskoçya
▁deniliyor
rack
salar
▁yasam
▁nanoteknoloji
▁toprakta
▁topluluklarda
▁klima
▁kasa
▁goster
▁eserlerini
▁inme
▁korkmuştu
altı
mıyorsunuz
▁kağıtta
▁Brit
▁yönlendirdi
▁görmekten
▁yarattığını
niversitede
▁ikisine
▁getirdiğimiz
▁yapıştır
larınıza
▁bürokrat
▁Ders
lur
▁Harle
▁McDonald
▁dakikayı
▁Çocuklarımız
▁saçmalık
▁yansıtma
▁Meksikalı
▁atmış
▁kategoriler
▁tırmanma
▁içindeler
▁göründüğün
▁genelleme
▁beklentiler
ıl
▁kutusunda
▁kurul
▁zihni
▁umu
▁sorunum
▁Yunus
▁yanıyor
▁baktığım
▁zirvesinde
▁Fried
▁Macar
▁Yalan
bilmenizi
▁Spor
▁yüzdesi
▁yaklaşı
▁düşmanı
▁uzaklaştı
▁üretmeyi
▁hazırlıklı
▁deste
▁faz
vay
▁önünüzde
emeyecek
▁adlandır
▁Oy
▁vermeniz
▁programa
▁şefkatin
leştiriyor
▁Carol
▁reng
▁Uygulama
▁Alab
▁pencereden
▁Diş
▁üretebiliriz
▁trend
▁yatır
▁Afrikalıların
▁öğrenmesi
▁inanmıyor
▁teşvikler
▁görebiliyordu
▁altının
▁bekliyordu
▁yerleştirebilir
▁yayınlama
arı
▁gönderiyorlar
▁araştırmaların
amadım
▁yapabileceğimi
▁dinlenme
▁yapmayacağım
▁yapmamıştı
birya
▁Antartik
▁ekim
▁yapılandır
▁afetler
hma
▁ultrason
▁manası
▁Sizleri
▁öldür
▁İkisini
▁tabiat
▁vücudumu
▁hisler
▁yaşan
▁yerleşik
▁biçimin
▁atlar
▁yıldaki
▁alış
▁mesafeler
▁azalması
▁tablonu
▁avcılar
▁Rönesans
▁Bolt
▁hazırlama
▁deneyimdi
▁ağlarını
amadı
▁Mikro
▁uzanır
▁şaşkınlık
▁savaşların
▁pişirmek
▁mektuplar
kan
▁politikalarını
▁dalları
▁ayarlanmış
▁paylaşıyor
▁kendimizin
▁getirile
ss
ani
▁taslak
▁Dave
▁bulunuyordu
▁Soo
▁odalarında
▁söylemez
▁yattı
▁kabus
▁koyduğunuz
▁Yerde
ft
▁Bol
▁Tehlike
▁ucunu
▁Nazi
seler
▁müzakere
▁kesik
▁çevirdiler
▁solucan
▁Mat
▁zıttı
▁bip
▁gönderen
▁sınıflarda
üzel
▁şeyim
▁laboratuvarı
▁karakterleri
ışı
▁tost
▁proteinin
▁tesir
▁yükseğ
▁mikroskobu
▁yolların
▁tarımın
▁arkeoloji
▁Teleskop
lenmemiş
▁taşınır
▁yapıştırdı
▁düzenler
▁çevrelerinde
▁arıyorlar
▁Iva
▁yanardağ
▁indirmek
▁gitse
▁yetisini
▁ölçüyor
▁Wire
▁ulaşabiliriz
▁gerçekleştiren
▁şehirlerinde
▁kolon
▁eşitsizliği
▁uygulamaların
▁vatan
▁kopyası
▁Meclis
▁görüşmeler
▁Sev
▁kayıtların
▁dosyası
▁Berbat
▁pervane
▁kullanımında
▁projelerini
malıdır
▁Lind
▁ısır
▁prensipleri
▁gösterge
yabilirsiniz
▁Orman
▁dönüyordu
▁iptal
sch
▁piramidin
▁94
▁düşmek
▁Camero
▁yaptıklarının
▁çeliş
▁canını
▁boyutuna
▁ayırmaya
abileceğinizi
▁anlatabiliri
▁Trans
▁adımda
▁kurabilme
▁kabuk
▁Scien
▁İranlı
▁vereceğini
▁nakliye
▁liman
▁biti
▁kıyısı
▁değişkenlik
ceği
▁tutkusu
▁Mobil
meyen
illa
▁uğraşırken
▁yetmiş
masıdır
▁çıkartma
▁girmişti
▁Başkalarını
▁bildiri
▁imaj
▁topluyorlar
ncy
▁ediyorsun
▁nedense
rah
▁sinirli
▁canavarı
▁planın
▁fonu
▁düşünmedi
▁trilyonlarca
▁sistemindeki
▁Sau
▁kullanıyorsunuz
▁karşınızda
▁çoğal
▁Av
and
▁emri
bage
▁yeteneğimiz
▁anladılar
▁yapamadı
ımın
▁anımsay
▁gazetede
▁Mısırlılar
▁seviyordu
larini
▁Es
▁Düşünce
▁iletişimde
▁gerçekle
▁azaltmay
nlü
▁donanımlı
▁yönler
▁Örümcek
liğimiz
▁sıkma
▁Mag
▁Mario
▁dokunmati
▁yen
▁America
▁zamanlardan
▁Gezegeni
▁BJ
▁Miami
sy
▁düşürüyor
▁çağırma
lenmeye
▁yazılan
▁formlar
▁Fa
▁istekleri
▁hikâyeleri
▁aşkımı
▁takmak
▁şarkıcı
ikipedi
▁haritalama
▁İnternetin
▁sindirim
▁evinizi
▁etkilemek
▁örüntü
▁ithal
ligin
▁uyarlama
▁yaprakları
▁fa
▁yüksekliği
▁Mos
▁trenin
▁içindedir
▁Pop
▁dikdörtgen
▁dişlerini
▁radar
▁zekası
▁kereste
▁rahatsızlıkları
▁gözlükleri
tme
▁çölleşme
▁tanısı
▁dinleri
▁tüy
▁Fib
▁Maldivler
▁azaldığı
▁hamuru
▁vat
▁konservasyon
GS
▁Everglade
▁şifreler
▁yönel
▁Bahar
▁Diplomat
▁paradoks
▁yapamazdı
▁edilmez
▁hızlandırmak
▁gidişatı
▁elemanı
luğ
▁saklıyor
▁bulaşma
▁aşılama
▁mikrofonu
▁arabanızı
▁işlediği
▁kristal
▁seleksiyon
▁bilimleri
▁istikamet
ite
idir
leyebilirsiniz
uare
▁gideceğini
▁anketler
▁trafiği
mam
▁binmek
▁tedirgin
▁kapılarını
▁odaklandık
▁gündü
▁CE
▁Doğum
▁sahnesinde
▁yörüngede
▁güzelliğini
üydü
▁etkileme
▁tanıtım
tfli
▁karton
▁ma
alim
▁ez
▁onlarin
▁patlamalar
▁Neyin
▁Boy
▁pilleri
▁pili
▁nitrojen
▁bedenim
▁Besin
▁sağlıyordu
▁sunumu
▁borcu
▁birikimi
ru
▁ayarlamak
▁faydaları
▁araçlarımız
▁Eş
▁hesaplar
▁yapsaydı
▁Yeryüzünde
▁yaratıkları
▁ulaşımı
▁pat
▁dikme
▁kurduğu
▁duygusun
▁çabaları
sıdır
▁kültürleri
▁aklınızı
▁Ortadoğu
▁sığınma
▁etkilenmiş
lendiğinde
▁birincil
▁babalarını
▁parmağını
▁hayırseverlik
▁borçluyu
▁savunucusu
▁makyaj
▁hediyesi
▁bağışı
▁buluştu
▁belirleyecek
▁evre
▁şaşır
▁ba
▁South
▁raf
▁Endişe
▁doğuruyor
▁konsepti
▁çalı
▁Serbest
▁yapılara
ment
▁oynuyorlar
▁çalışırı
▁çalışmalı
▁alakasız
▁sinsi
▁Klasik
▁garson
▁istemeyen
▁varlıklarını
▁hobi
▁çözüyor
▁ebedi
amanın
▁hareketlerin
lenme
▁çekimin
▁final
▁penceresi
▁oyunlarda
▁Susan
lduğunda
▁sinekler
▁türümüz
▁Mercan
▁dokuları
▁süreçleri
ımızdaki
▁surat
▁çivi
▁belirlen
▁korkutuyor
▁bıktı
▁etmemi
▁yengeç
tasyon
▁personel
▁dağıtmak
▁esna
▁sarma
▁erdem
▁tipte
▁plastikler
▁dolaşım
▁bulacağınız
▁polimer
▁temizliyor
tör
▁denizci
acaksınız
▁gözlemlemek
▁dergide
▁kertenkele
▁denizanası
▁im
▁belirtisi
▁düşündünüz
▁Pas
ladığını
bilirler
▁ellerimi
kta
hoo
▁deposu
▁makinelerini
▁sokuyor
▁halleri
▁yasinda
▁beyinle
▁Salı
▁noktadır
▁görürse
ilmemiş
▁besleyici
▁ihtiyaçlar
▁sırasını
▁görevlileri
▁eğitiyor
▁çözümlerin
▁ordusu
▁Rebe
all
▁güvenir
▁sokma
▁sağlayabilecek
▁görmüşs
▁seçin
▁üniversitelerde
▁biyolojide
▁evrenimiz
▁ördek
▁Dike
▁Titanik
▁konuların
▁arttığı
▁bolluk
▁adaletsizlik
▁söyleyemem
▁girişimler
▁hareketlilik
▁Massachusett
▁cent
▁uğraşıyordu
▁anlatmayı
▁Sahne
hu
▁oğul
▁Job
▁koşma
▁yaramadığını
▁çıkarıldı
▁çıkmasın
▁mütevaz
▁yanları
▁reklamları
▁edemeyeceğimiz
▁asteroid
▁çarp
▁Aramızda
▁oluşması
▁virüslerin
▁çabası
▁çorap
▁1940
▁Ad
▁salın
▁karısı
▁köprüler
▁Küb
▁içen
▁tefe
▁gördüğümü
▁ku
leştirdiğimiz
▁hissettiğimi
▁inceleyebilir
▁bahsetmiş
▁kayalar
▁varmaya
abilseydi
ebilseydi
▁dokunun
▁çürü
▁tanır
▁yasama
▁tahammül
▁çözüldü
▁Kate
▁varlıkların
▁devleti
▁ekonomimizi
▁OE
▁görmeli
▁Stewar
▁Dehşet
▁konuştuğumuzda
▁memelilerin
▁düşünmez
▁bulutların
▁sahilinde
▁kana
▁gidiş
▁uygunsuz
▁Algı
▁kuşa
▁rahatsızlığı
▁oranlarda
▁salladı
▁mermi
▁kırılmış
▁ellerindeki
▁nedenim
tin
▁Anlaşıla
▁önlem
▁güçlüdür
▁Island
▁kalmıştım
▁savaşlarda
▁Görüş
▁komşuların
▁Pink
▁dönüşmüştü
▁kuşku
▁belgeleri
▁Devasa
aj
▁mekân
▁simgesi
▁aktivitesi
▁Par
▁olmalılar
▁medeniyetin
▁beynimi
daydım
▁yüzlü
ıldığını
▁anlayışını
▁konuşmama
ang
▁Fakir
▁kullanıcısı
▁alamazsınız
▁Cart
SC
▁izlediğimiz
▁mikrodalga
▁meseleleri
eceğimizi
▁yaşamımızı
▁sizsiniz
iel
▁tanıt
▁bulunmuştu
▁istersen
▁gör
▁duyur
▁içindeydim
▁günüydü
iro
▁rengin
▁Wom
▁istikrar
▁ödenek
▁cephe
▁Oz
▁çevrilmiş
seksüel
▁duymayı
▁bilmesi
▁kırılma
▁platformlar
▁ofisinde
▁odaklandı
▁halim
▁Ağ
▁sürdürüyor
▁multi
▁tarla
▁akıcı
▁oluşturulması
▁görselleştirme
▁Bilme
▁bezi
▁serin
laştırmak
▁açıklayabilir
▁konserve
▁düştüğü
▁yürüdük
▁gördüklerimiz
▁koyarsak
▁popülasyonu
▁fasulye
▁çayır
▁Intel
▁medeniyeti
▁abartma
tansa
▁yayını
▁farketme
▁işlevini
▁Birbirlerin
▁bilimcileri
▁ışınları
▁algılamak
▁karşıladı
▁tüketicilerin
▁ağırlıklı
ili
▁özelliklerinden
▁şehirlerimizi
sü
gar
▁doksan
▁cehennem
▁görüşmesi
▁hatırlat
▁dönemini
▁değerlendirir
▁yakalanan
▁Gui
▁lazımdı
▁ortaklarımız
▁notalar
▁Adını
▁iliği
▁asma
▁kullanırsa
▁kafe
▁şanslıysa
▁doludur
▁çıktığınızda
▁ücr
▁engelleme
uck
▁attığımız
▁dönmesin
▁110
▁başaramadı
▁kapağı
▁söylediğiniz
leştirebilir
▁anlaşılmaz
▁gidebilecek
▁Karo
▁Empati
▁vurmak
▁atlayı
▁Yapma
▁trafikte
▁uyarıcı
▁Tatlı
▁yaşındakiler
▁anlayabiliyor
▁canım
ty
▁yenileme
▁mahallelerde
▁Kendisini
▁düşündürdü
▁sanatçıyı
▁karanlığın
▁Au
▁zihninde
▁yayınladık
▁hepsinde
▁çiftliği
rsak
▁Space
▁Kum
amıyorlar
▁Kanyon
▁farkındaydı
▁hissetmişti
▁becerilerini
▁ironi
ğında
▁kaynaklandığın
▁zirvey
▁kül
▁Ol
▁jel
▁hücrelerinizi
▁gezin
▁tohumları
▁tasma
▁Mama
▁fikirdi
▁karbondioksiti
▁lastik
▁bulabilirse
▁tekrarlama
▁keşfedecek
▁tanımladığı
▁Hangisi
29
▁bilgisayarlarla
▁bey
▁Elinizde
▁danışma
aft
▁dolarla
▁Portland
▁keseli
▁bileşenlerin
▁umum
▁çalışmamı
▁hissettirir
▁somon
▁ayırı
▁numarayı
▁kuvvetler
▁favorilerim
▁matematikçiler
▁Yeterli
▁bakır
▁prenses
▁Uyum
▁yunusların
▁aşamalı
▁bırakıyorlar
▁PRI
▁Julian
▁evlendi
▁beklenmeyen
▁görmeniz
▁kurumlarını
▁Andy
▁karakteriz
▁sağlayabileceği
▁yenilenme
▁bedenimi
▁Bitcoin
▁markalar
▁Erken
▁Yirmi
▁leopar
▁aslanlar
▁Ig
▁Şefkat
ago
▁geçeceği
▁çevrim
▁Küreselleşme
▁yüksekte
▁Böcekler
▁Window
▁optimiz
▁Acc
▁Siyasi
▁Sher
▁farkla
larıdır
▁arabanız
▁zihniyet
▁asır
▁Mimar
▁sabun
ymou
▁ola
▁rekoru
▁rekor
acci
▁Coh
▁Dışişleri
▁Türk
▁ultraviyole
▁olacağımı
▁çocuklarda
▁Sif
▁koşucu
▁Jesse
▁Romo
işleri
▁Tahri
▁oluşuyordu
▁götüreceğim
▁standartların
▁desteklene
bilmeliyiz
▁güvenme
▁güçlendirmek
▁yöntemlerini
▁girişimi
▁suları
▁yakar
▁192
▁Öz
▁flört
▁kurtarıyor
▁kurtul
▁menzil
▁bisikletler
▁bürokrasi
▁ilgisiz
▁gözlemliyor
▁Devletin
▁yürür
▁lityum
▁azalır
ecegim
▁toplumunda
▁karşınız
▁fizikte
▁izah
▁yaşanıyor
▁ayırdık
▁Trafik
▁Bisiklet
▁binme
▁yaşandığı
▁uydusu
imde
▁Hel
▁Oksijen
▁element
ity
▁bankası
▁stand
▁tırnak
▁yatağında
▁aşkım
ima
irim
▁Tak
▁calisiyor
▁telefonla
▁Insanlar
▁nakil
▁yetkin
▁yapamadığı
▁varsayımı
▁ibaretti
▁mantıksal
▁düşünüldüğü
▁beslenir
▁geçirirler
▁limit
▁sürtünme
dikal
▁seyircilerin
▁eğilimindedir
▁yapacakları
▁çevirebiliri
▁delikanlı
▁yatağın
▁salak
▁boşanma
▁Galile
▁ekley
▁farkeder
▁eğriler
▁Hud
▁yüzüyor
▁barışın
▁84
▁geçmemiz
▁kıyafeti
▁seçimlerinde
▁örgütü
▁adli
▁çim
▁güvensiz
▁Mısırlı
▁görmeyen
▁vermeleri
▁tamamında
▁ediliyordu
▁Yarım
▁konferansında
▁yaşamlarında
▁güvenen
▁baskıcı
▁tanına
▁Roos
▁görüşünü
▁Mali
▁koymuş
▁traş
▁toplayabilir
▁tanımladık
▁herbir
▁keman
▁ihtimalin
▁edilemeyen
▁anlatamam
▁Ayak
▁planlanmış
▁gezgin
▁uygulamalı
▁harici
▁özerk
▁yönetti
▁dolanı
▁görürüm
▁deşifre
▁gözükebili
▁Cinsel
▁şaşırtma
▁soruldu
▁me
▁tanımıyor
▁Şahs
▁okuyucu
zy
▁yaratmıştı
▁sözlü
▁rahatlama
▁programında
▁yapabileceğin
▁yerdeydi
▁alsa
▁eşleştirme
▁telaffuz
▁gördüklerinde
▁bakire
▁tutkunu
emiyorum
▁getirildi
▁mültecilerin
▁kahramanları
▁özgürlüğün
▁düzenini
▁uymaya
▁değmemiş
▁şişman
▁yaşayabileceği
▁faktörleri
▁krizler
▁ayrıcalığın
▁gelenler
▁anlayama
▁Super
▁zırh
rlar
▁tehlikelidir
ktir
▁Takım
▁sarsıcı
▁merhametin
▁travmatik
▁sonuçlarında
▁sunuyoruz
kini
▁Sık
▁sabırsız
gen
▁muhteşemdi
▁alfabe
▁operasyonu
▁fakirlikte
▁Starbuck
▁böceğin
▁seviyelerin
▁geçmişteki
ebileceğini
▁köpük
▁yapraklar
▁düzenlenmiş
▁yükselmeye
▁İstediğiniz
▁yayınlamak
▁öner
▁oyuncaklar
▁motorları
▁müzesin
▁ID
▁değişmiş
▁Toplumun
lock
▁hüzünlü
▁biliminsanları
▁varsayımlar
▁uzaklığı
▁döndüğünde
▁büyüdük
▁Plan
▁Tepe
▁bes
▁dolayi
ill
▁degildi
▁herbiri
▁taraflar
▁yas
▁kareler
▁yargıç
▁manzaralar
▁karikatürler
▁vurgu
▁internetteki
▁dönüşebilir
▁Sınıf
▁önermek
▁çalışmakta
▁tevazu
▁üstünlük
▁sevmeyi
▁Finans
ildiğinde
▁burs
ich
▁sineklerin
▁düzenek
▁topları
▁hazine
▁yaratabileceği
sidir
▁göçmenler
▁girerim
▁vermekten
▁kehanet
▁yaptır
▁alacaksınız
▁muhtaç
▁üreticileri
col
▁gidişat
▁eziyet
▁süpermarket
▁sıkıntılı
▁kesit
▁dizilimi
▁bekleyebilir
▁geçiriyordu
▁zulüm
▁umursama
▁cesaretlendir
▁fiziki
▁Jordan
▁telefonda
▁bazında
▁çalabilir
▁sisteminiz
▁geçiri
▁yaratmış
nd
▁azaltı
▁satma
▁çıkarılan
bert
▁algılıyor
▁yapabildikleri
▁ayrılık
▁tabanın
▁nesnel
▁Rock
▁eşinin
▁kemikler
▁mevcuttu
▁kıyafetleri
emeyen
▁kestik
▁emlak
▁gönderiliyor
▁kardeşlerin
▁Araştırmalar
▁yoksulluğ
rıcı
▁Basın
▁ağladı
ğının
▁içimdeki
▁merkezlerini
▁Uygun
▁ettirir
▁hiçbirimiz
▁keyfini
▁dinlemeyi
▁çatal
▁başlangıcını
▁Cooper
▁karizma
▁engin
▁nektar
▁getirdiğiniz
▁komplik
▁hissederdi
▁anlayışımızı
▁yanılıyor
▁davranışlarımız
▁mesajlarını
▁arkadaşınızı
▁hack
▁Cezayir
▁derisini
▁gibiyim
yorduk
▁tuş
▁yaşadığımızı
▁devrelerin
low
▁Kafa
▁yönetilen
▁kenarındaki
▁odaları
▁taktik
▁bağlayabilir
▁Sakin
▁Afro
▁manzarası
▁bulacak
▁bağlıydı
▁Sydney
▁genlerini
▁kategoriy
▁yavruları
dora
▁yürütüyor
▁denekler
▁üyelerin
▁grupla
▁Grace
▁mantığın
▁kafanızı
▁detaylarını
▁hastaneleri
▁çevirirse
▁evrimleşmiş
▁cinste
▁hikayemiz
▁yaratmakta
▁uzat
▁bahsetmeye
▁artırır
hassa
▁başlat
▁vazgeçti
▁burnunu
var
▁geçmez
▁uğraşma
▁karıştırıyor
▁kromozomu
▁durumdu
▁çıkacağını
▁kimisi
▁çıkarması
liyoruz
▁eşyalar
▁Hakikat
▁kayna
▁aslanları
▁çiftlikte
müyor
▁eriyen
▁çıkartmak
▁yiyeceğin
▁emisyon
▁Binası
▁glikoz
▁değin
▁köpeğin
▁keşfe
▁etrafınızdaki
ırım
miyordu
▁bakabilme
▁yaramayacağın
▁deneye
▁faiz
▁değişimini
▁devir
▁Wilson
▁bırakılma
▁akılda
▁aralığı
▁kendimin
▁köken
▁kalıpları
lemiş
▁ilerlemek
▁organların
▁ergen
▁iyiliği
miştik
▁çalıştığımı
▁Kraliçe
▁gitmeli
▁taşımacılığı
▁fikirden
▁kalpte
nci
▁heyecanı
▁Opera
ğünü
▁içim
▁unutuyoru
▁ahmak
▁birleştirir
▁hükümette
▁bedeni
▁parmaklarım
▁seçilme
▁destekçi
▁Cape
▁ekleyin
rmektedir
▁kısaltma
▁Yasa
▁profil
▁konuştuğunu
▁kısıtlamalar
▁öden
leyeceğim
▁almalarını
▁havayolu
▁Nedeni
▁inancın
▁Elimde
▁göstermeyi
▁varsay
▁boşlukları
▁Vücut
▁aldatıcı
▁Anladım
▁Hatırlar
▁üstünü
▁İçeride
▁etmen
▁Uyku
▁ekseninde
▁biliminde
▁eserin
▁giyen
▁vücudum
▁saklanan
abiliyorsunuz
▁derslerin
bileceğimiz
ünün
▁vuruş
▁önlenebilir
▁doktorum
▁sinyallerini
▁kanıtladı
▁Gülüyor
▁propaganda
▁hasarlı
▁Düşünüyoru
▁takılan
▁santrali
▁alüminyum
▁panelleri
▁rehabilitasyon
▁Acil
▁uyduları
▁salınımları
▁fikrimi
▁anlatmanı
▁çörek
layın
▁oluşacak
▁slaytı
▁kalbe
▁dilekçe
▁Edinburg
▁bulması
▁Yolda
▁azını
▁kapısında
▁dönemli
▁belirleyebilir
▁gelmeyi
▁eşiğin
▁83
▁cesurca
▁alıcılar
▁ci
▁dunyada
▁projemiz
▁alıkoya
laştır
tro
▁Yatırım
▁deneyimli
▁varlıklı
▁Brook
▁vuruyor
▁oyuncular
▁fiyatlarını
▁listede
▁vali
▁antropoloji
zlu
▁düğün
▁giymek
FL
▁Nesneleri
▁dalgalanmalar
▁marangoz
▁beraberce
▁selam
▁set
liyorum
▁geçmişti
▁Sağdaki
▁düzenlemeler
▁ölçümü
▁anlamlar
▁Gü
▁Fe
▁tesisat
▁Yarı
▁6000
▁bunalım
▁başlangıcın
▁diski
▁hastalığını
▁mensup
▁kıran
▁Elde
NT
▁deha
▁ajandası
▁kızamık
▁inceleyen
▁iletme
▁basitti
▁sitesini
▁mağaralar
umun
▁yetişkinliğ
▁gelmesin
▁açığı
▁paylaşabilir
▁ülkesini
▁yapmamak
▁Mahat
▁kokain
▁değiştirmesi
▁Edu
DT
▁Şeria
▁çıkabiliyor
bilirdi
▁ettir
▁Barbar
▁taraması
▁enerjik
▁UV
▁kısıtlamaları
▁yeniliği
▁durduk
▁çıkarmış
▁avukatlar
▁Ida
▁nöro
▁elastik
▁önderli
▁girdiğini
▁Kimyasal
▁oluşmaya
OL
▁ölçeklerde
▁penguenler
▁dürüstçe
▁üretkenlik
▁polenleri
▁yüzümde
▁pref
▁annemi
▁We
▁Seyahat
▁mikroskob
▁kalsiyum
NG
▁ölümsüz
▁dublör
▁Scratch
▁kobra
▁koymanız
▁Molalar
onica
▁Bage
▁Basse
▁oyuncuların
▁Öteki
larınızla
▁sokakları
▁savaşma
▁kurtarabiliriz
▁belirledi
▁öğe
▁unda
▁çevirdik
▁kaldırım
▁demeyi
▁düzenleyici
▁yakı
▁yakmak
▁rakamların
▁zamanlarını
▁elektriğ
▁tanımlanmış
▁nitelikleri
▁ihtiyac
▁dengesi
▁bilimde
▁taşıdığı
mayacağını
▁sokakların
▁gelişmelerin
▁sandalyeler
▁bakımını
▁Programı
▁gözümüzü
▁sunduğum
▁Dolar
▁atomların
▁yakalanmış
▁yo
▁1920
▁Hum
▁ilgiliyim
▁tanıştırmak
▁tarzında
11
▁eğitici
▁seyi
enler
▁calisti
usmeler
▁isi
▁Görüntü
▁cocuk
▁elimizi
▁umar
▁paralar
▁yeteneğ
▁içeriyordu
▁bili
▁bölümlerinde
▁53
▁oturara
▁karşılama
▁ışın
▁atomları
▁dansçılar
▁fırtınası
▁salınımını
▁tas
▁dondurma
▁soku
▁döngüy
▁ilerletme
▁aygıt
▁Orleans
bilecek
▁aygıtlar
▁ölçeklenebilir
▁Kanunu
▁takılmış
▁yörüngey
▁üzerlerin
▁şelale
▁görmedik
▁arkalarında
▁azal
izdir
▁olman
erken
▁gelecekler
▁veremez
▁Sri
▁istila
▁Day
▁ırkçılık
▁gelmeli
▁gövdesi
▁bilmediğiniz
lanamaz
▁Şans
▁okumaları
▁LGBT
▁çağlarda
▁takı
ıyordum
▁muhabbet
▁bırakmayı
▁fatura
▁habersiz
▁yakıtı
▁Aust
▁tanımlamaya
rma
▁getirmişti
▁sez
▁Yıldız
mişsinizdir
▁dönüyorlar
▁ayağın
▁hoşgeldin
▁sıkıştırılmış
▁Robotlar
▁sanatları
▁uyandırma
▁öldürdüğü
çiler
iriz
▁çıkmıyor
▁devri
▁doğumu
▁durması
▁malı
▁hamilelik
▁fera
▁sormayı
▁arzusu
▁izlediğiniz
▁edil
▁Kat
▁gazetesinde
▁Gelir
▁atı
tay
▁vücutlarını
▁ikon
▁tanıyacak
▁denek
▁verdiklerini
malıydım
▁kafalarını
▁ruhun
▁kelimelerini
▁çalışabilecek
abileceğim
▁ortası
▁bronz
▁kampı
▁kesiyor
▁vaziyette
▁seçi
▁Mer
▁resifleri
▁tortu
▁omurga
▁mercanların
▁resif
▁kağıdın
▁alarmı
▁yüzeylerde
▁rastla
▁Nite
▁ebeveynlik
▁Bakteriler
▁infaz
▁rezil
▁yapamazsın
▁Project
▁yüzüm
▁oyunlarında
▁Birey
▁hapı
▁Köy
▁Tere
▁ilkokul
▁yaratın
▁yanıtlama
▁sahnesi
▁perspektifi
▁feda
▁76
▁düştüğünde
▁kalıbı
▁işlemin
▁matris
▁hapsetme
▁dümen
▁garaj
▁Birçoğu
▁inanış
▁umduğum
▁pan
▁Cevabı
▁başlamaz
▁değişikliğ
▁bilgisayarım
▁Uçak
▁koyarsa
▁parmağı
▁kaybolma
▁gorme
▁for
▁goru
▁istatistiklerin
▁dakikalar
lenecek
▁metalleri
▁diren
▁For
▁donu
lma
chang
▁sonuçlandı
▁Ilk
▁halüsinasyonlar
▁halüsinasyon
▁hiçbirini
▁Deli
▁minyatür
unda
▁yüzler
▁epilepsi
▁kaybettiği
▁anormal
ston
▁imgeler
▁bilincinde
▁yetisin
▁Olive
abiliyorum
▁nehri
bolik
▁başvurdu
▁sorardı
▁kliniğin
▁limon
▁geçiriyoru
▁ofisin
▁niyeti
▁üniversiteler
▁hakkımda
▁komşuları
▁yargılar
▁korkar
▁gelmeyecek
zdan
▁anlatmalıyı
▁araştırmasını
▁alanım
▁kutuplaşma
▁değerlendirmeye
▁başlamaları
▁Patric
▁evrimleş
▁yayan
ent
▁RG
▁dinozorları
▁izleyeceği
▁gözlemley
▁Kimi
▁denemede
▁sözcükleri
▁kötülük
mit
▁İşimi
▁gösterdiğimiz
▁şefkati
▁Tayvan
▁kanatlı
▁bırakıyoruz
▁Gelişmiş
▁fiyatlar
▁üreticiler
▁beğen
▁mekanı
▁anneniz
▁Ruh
▁bankacı
▁ustası
red
▁İl
▁Hıristiyan
▁etmiyordu
▁söylüyorlardı
▁dilimiz
▁Tarihte
rün
▁markası
▁volkanik
▁korkutan
▁bazılarımız
▁Virüs
▁üretime
▁artmış
▁karıştır
▁aldınız
▁koyduğu
▁Kanal
▁İçimde
▁Hit
landırılmış
▁kavramak
▁Conne
▁dedikodu
▁erişebilir
▁aşığı
▁kolej
▁gösterimi
▁türünde
▁çözünürlük
▁üstlenme
▁döviz
▁edebiliyorlar
▁kıtada
▁Darfur
▁ekonomiler
▁Yuva
▁takibi
▁kayıtlarını
▁geliştirile
▁tümörler
▁gönderdiği
abiliyordu
▁edindiğimiz
▁bağlantıların
▁batır
▁Tahminim
▁sağlıksız
▁güzeldir
▁yapacağınızı
▁komşusu
▁mikropları
▁tarımı
▁virüsleri
▁çeşitlilikte
▁Bireysel
▁teşvikleri
▁karmaşıklığın
▁denebilir
▁karmaşıklığını
▁artırabilir
▁içermeye
▁roll
▁yükseliş
▁dib
▁öldürecek
lmesi
▁başları
▁İslami
▁zihnini
▁Hükümeti
▁Mesaj
▁söylemeniz
▁girerek
▁başarma
▁yükselecek
▁Del
▁lezyon
▁cismi
▁rastlantısal
▁zararı
▁damlası
▁Tan
▁kaybedecek
▁iştir
▁balta
▁etmemişti
▁Çatı
▁inançları
abildiği
▁sürdürme
▁PC
▁bütünün
▁takımım
▁geliştiğin
list
▁Spu
▁öyküy
▁ısıtma
oş
▁aileyi
▁bulduğunu
▁Körfez
▁İste
▁ekosistemi
▁köpeğim
▁Anayasa
▁Savaşın
▁mat
▁dengesini
▁beyan
▁kuyruğunu
▁gözüktüğü
▁şekillendirme
▁hoşlanıyoru
▁yazarları
değiştirebilecek
▁tuval
▁bırakmıştı
▁vida
▁arıtma
▁ruhlar
▁Gen
▁Br
▁oluşmakta
▁desenler
▁Kaplan
▁tarifi
▁toplanma
▁zarfında
▁Kömür
▁çalışırdı
▁Shar
▁gezinti
▁yaşanmış
▁denizi
▁Organik
▁lokal
▁besler
▁milyonu
▁günlerinde
▁isteyebileceği
▁Ufak
▁gösterildiği
▁yolladık
▁gü
▁gezdir
▁Başlama
▁kampa
▁tanıdı
▁coşku
▁deneyimlerin
bin
▁oynatabilir
▁bilinmez
▁vücudumuz
▁geçit
▁takiben
▁bü
▁koyabiliriz
amayacağı
▁Makale
▁mega
▁ölümler
▁Sert
▁yudum
▁dinleyebilir
ümüzü
▁Oturu
▁çalışmalarımı
▁küçültü
EO
▁kaçınmak
▁gitmeleri
▁yükleme
▁yuz
▁Yenilik
bury
▁görmüştüm
▁ölçmeye
▁ölçüt
▁denklemin
▁unut
▁konumuz
▁farelerin
▁kabiliyetin
ille
abildiğim
▁noktalarında
▁binada
▁yaptıklarımızı
▁tamamladık
▁hoparlör
▁İnanı
▁Koro
▁yapmaktı
▁konuşurdu
▁Psikoloji
▁Walk
▁yılımızı
ırız
▁lojistik
▁vatandaşlarını
▁yığınları
▁bahsetme
▁olabilirsin
▁Archi
▁solu
▁edebileceğim
▁Kitaplar
▁sağlayacaktır
▁performanslı
▁kazandırmak
▁anlaşması
▁dudak
▁alacaklar
vin
▁büyüt
▁itibarı
▁isteğini
▁evliliğin
lamıyorum
▁tenis
▁çıkmıştır
▁imzaladı
▁bacağı
▁gerektirme
▁adımları
▁Ofis
▁gitmez
▁Yargıç
TO
çu
▁Akdeniz
▁İstihbarat
laştığını
▁formülü
▁yapılmakta
je
▁bulaşan
▁arkadaşlarınızı
▁Anlama
▁ikizleri
▁Varlık
nası
▁ağaçlarını
▁taşındık
▁bacağını
▁alçı
▁kalırlar
▁kızımın
▁saman
▁karıncaların
▁içermekte
▁kurbanlar
▁sınırında
▁özeti
▁yüzleşme
▁posteri
▁notu
▁kokusunu
digini
▁irtibat
▁Kurallar
▁yosunu
▁tabakasını
▁Barbi
▁parasal
anılan
▁tasarla
▁numaralar
▁karavan
▁yiyi
▁vurur
▁ettiyse
▁uzatma
▁kadınlarda
▁tepkileri
▁Sıra
▁ikilem
▁uçakla
▁yöneltti
mart
▁altındaydı
▁sualtı
ebildiği
lah
▁sergiler
▁doğmuştu
▁leke
▁doğrulama
▁meta
▁beklentilerimiz
cası
▁termo
▁dürtü
▁Stüdyo
▁yerim
▁Child
▁yönetiminde
▁yüzeyler
▁yapılarını
▁transistör
▁yatırımcı
▁göremediğimiz
kins
ambiya
▁yaramayacak
▁şartların
▁günah
▁düşmesi
▁ayrılı
▁hippi
▁gösterildi
▁Count
▁mesane
▁teşebbüs
▁yakınlaşma
▁yayınlar
▁sında
▁itfaiye
ew
▁Dinleyici
▁İsveçli
▁açıktır
▁hırs
▁gözleme
▁Lisa
▁tabağı
▁kontak
düs
▁Juan
▁yapacaksın
▁mineral
▁Dişi
▁gemisini
▁Neandertaller
▁Kurumu
▁benzerlikler
▁gerekeni
ickr
▁Uni
▁bilgeliğin
▁haham
▁biçimlerini
▁bitmeye
▁hâli
▁Uç
▁sığınak
▁ozon
▁barınak
▁görülmüş
▁SAR
▁İspanyolca
▁penguenleri
▁elektrotlar
▁uçuşlar
▁şiirin
▁sayfada
▁insanda
▁alanlardaki
▁manipül
▁olgun
▁hastalıklarında
▁yuvarlan
▁farklar
▁Kosta
▁istemediği
▁sondaj
▁dolanıyor
▁Metafor
▁topa
▁elementler
▁sineğin
▁Dreyfus
▁sivrisinekleri
▁koklea
▁Sue
▁Evin
▁fikirli
▁sülfit
▁anımsayan
̈
▁miselyum
▁çatışmaların
▁mo
▁dürüstlük
▁deneyimlerimiz
▁kongre
▁kopuk
▁geliştirmemiz
▁şeyimiz
▁teneke
▁kuruluşlarını
▁çocukluğumda
▁inde
▁bebeğini
▁çözümünü
amam
kiler
shire
▁uygulan
▁paten
▁durmaya
▁çalışabilme
▁yaşarken
▁kilogram
▁üzerini
60
▁Howar
▁yaştaki
▁kozmoloji
sina
▁bitiriyor
▁lambaları
▁davalar
▁tıka
▁Guard
▁bütçesi
▁tü
▁buzları
▁Evrende
▁1968
▁elek
▁çıkartır
▁etkenler
▁anlamamızı
▁sorgulamaya
▁yapamayacak
gü
▁keşfeden
▁öğretecek
▁hürmet
▁Parça
▁şeref
▁egitim
▁yetiyor
▁hastanelerde
▁One
▁Roslin
▁ti
▁Pencere
▁tetkik
▁karsi
▁bildiklerini
▁tanımlayabilir
▁tonlu
▁içerde
▁Molekül
▁lifler
▁ülkemi
▁teşkilatı
▁azaltacak
▁uza
▁beste
▁gölgesi
▁deliklerin
▁inanmadı
▁ışıklı
leşmesi
▁istemeyiz
▁ulaştığında
▁katran
▁verebil
▁Williams
▁gitmekten
▁Men
▁mayın
▁Arazi
▁hayalleri
▁geçenleri
▁binlercesi
▁yaratıyorlar
▁eleştiriler
▁adadı
▁organlarını
yer
ıcı
▁duyuyorlar
▁etkileniyor
▁devirme
▁atladım
▁ofisimde
▁dönüştürdük
abi
▁toplumlarında
▁ekliyor
▁endişeliydi
▁hissettiklerini
▁Kalan
▁CNN
▁çağırı
▁içgörü
▁Bach
▁alışılmışın
▁topladığımız
▁77
▁sohbetler
▁bildi
▁sabır
▁rolleri
▁karıştırdı
▁iyiyim
▁periyod
▁kukla
▁işleyiş
▁Dışı
dayken
▁döndüğü
▁koyacağı
▁Roboti
▁kabloları
▁Yu
▁yazımı
▁ofisim
▁Robin
menin
atman
▁bilseydi
▁Gerç
▁yarayabilir
▁Tarihi
▁efekt
▁mum
▁yapmalıydı
▁kemiğin
▁Rick
▁çene
▁isimlendir
▁ışıklandırma
▁Kış
▁ço
off
▁uydur
▁misli
▁değiştirin
▁kesici
▁kapısı
laşan
▁basılmış
▁sütun
▁alanımız
▁hakkımız
▁elindeki
▁hakem
▁tehditleri
▁telefonum
▁İn
▁Cinsiyet
▁asgari
▁önemsiyoru
▁Kilise
▁dağıt
▁Aferi
▁ulaşabilme
lenmişti
▁yapsın
▁ihtiyaçlarına
▁Milenyum
▁Sessiz
▁kırı
▁Cazibe
▁profili
leştirilebilir
▁kanserojen
▁yakalayan
▁karışıyor
▁yetiştirebilir
▁yalıtım
▁ambalaj
▁birleştirdi
▁eko
▁satar
▁öğrenirler
▁Sanatçı
▁heykeller
▁baskının
▁harfini
▁tez
▁değişkenler
▁zorundadırlar
▁or
ebilen
▁seyred
mdi
▁istedigim
▁kurumlara
▁Bio
xx
tus
lmaz
rin
▁bugun
▁hizli
▁misafir
▁ağzını
▁Beyniniz
▁büyükbaba
mazlar
▁tanıdığı
▁Nadir
▁lob
amıyorum
▁aura
▁talihsiz
▁enkaz
▁kozmetik
▁ilgileniyordu
▁Barry
▁dakikam
▁Gei
▁söylemesi
▁hizmetin
▁tadın
▁Klinik
▁değineceği
▁ibadet
▁basmakalıp
▁koyacağım
▁Büyükanne
meyeceğiz
▁görebilme
▁AR
▁masal
▁fakirliğin
▁gitmekte
▁bulmuşlar
▁kardeşleri
▁göndermeye
▁girdiklerin
▁giriyorlar
▁yakalar
▁Konuşmam
▁sağlanıyor
▁sensin
▁kalıyorum
▁formunu
▁dağların
▁çıkacağı
▁yargılanma
▁çağının
▁işçisi
▁mevzu
▁bitmez
▁getirmekte
▁yorma
▁öğretmenim
▁gruptan
▁Picasso
▁orduda
▁dersinde
▁Sihirli
▁ağzında
▁besteci
▁açıcı
▁öğrencilerimi
▁dolaşmak
▁tavşan
▁günümde
▁kendimizle
üst
▁kastetmiyor
▁reklamın
viral
ico
▁umud
▁firmaların
nemez
▁edebi
▁çabaların
▁Site
▁bulmaktı
▁geçmişim
▁hatırlama
▁saatleri
▁koymayı
▁tecrübeleri
▁canlısı
▁Clark
▁Etki
▁geziniyor
ctic
▁Bakış
▁farkları
▁gazeteler
▁ifadelerini
▁konumunu
▁konumu
▁merakı
mişim
▁Görüyor
▁kastım
▁uçurumun
▁mutasyonlar
▁yerleşmiş
▁şaşırıyor
▁dönmüştü
▁kalkın
▁hesabın
▁terfi
▁yüksel
▁makro
▁har
uba
▁boşluğ
▁kıtlık
▁çiftler
▁geliyorsa
▁gazetecili
▁vakalarda
▁korumamız
▁kıtalar
▁haberlerin
▁kanama
▁aşçı
▁tanımladı
rmiştir
▁kullanabilirler
muyor
▁koşullarını
▁kapasitesin
▁pürüzsüz
▁kıyaslandığın
▁standartlar
▁çubukları
▁deyim
ot
▁Vi
▁parçalı
jen
▁Resim
▁babamı
▁hissedile
▁Trum
▁isteyecek
▁oturduğu
▁basıncı
▁hizmetini
▁bilincimiz
▁Bitki
▁Arı
▁şirketle
▁zorlamak
▁ilişkimizi
▁iner
düm
▁bekliyordum
▁küçükler
▁bahset
▁düşünmüyordu
▁Musa
▁Sad
▁bağlayı
▁çekilir
▁oranlarında
▁isteksiz
▁hırsız
▁karşılıklılık
▁1800
▁düşündüğümüzü
▁sü
▁mimarisi
▁sarılma
▁kamuoyu
▁Gösteri
lmasını
▁telefonların
▁heykeli
▁tepedeki
▁komuta
▁seyrediyor
▁konuştuğumda
▁pazarların
▁tamamlayıcı
▁bilgisayarlı
liklerini
▁uğraşı
dar
▁oynuyoru
▁duymuyoru
sıydı
▁Kamboçya
▁koleksiyonu
eceğimiz
▁kırk
▁köyü
▁Is
▁lab
▁yokluğu
▁Arkadaşlarım
▁Asker
▁Aklımda
cin
▁atası
▁plu
tent
▁Dian
▁toplantılar
▁yolumu
▁hanım
▁öğreneceği
▁gözünüzü
▁Filistinli
▁direniş
▁müdahele
▁felsefesi
▁bilindi
▁yapmayacak
▁çekimini
vet
▁materyali
▁geleneği
▁şeklim
▁Prens
▁hazırız
▁titreme
▁amcam
▁hiçkimse
jo
▁Chi
▁dikiş
▁kentleşme
▁sarılmış
▁egzersizi
▁zihnimizde
▁böl
▁programlanmış
▁uzaysal
▁Şef
▁koyduğum
▁kömürü
▁ettirme
▁düşmeye
▁evlenmek
▁hatırlatır
▁topuklu
▁gerçekleşme
▁ulaştığımız
umuza
şe
▁bulunmayan
▁olabileceğimiz
▁hesapları
▁çeşidini
eka
▁şe
▁örneğ
▁kuyu
▁mezunu
▁59
▁televizyonun
▁Yapılan
IK
▁hayallerimiz
▁alamaz
▁izlediği
ial
▁rakamın
▁Verileri
▁çalışmaktan
▁oluşumlar
▁savaşla
▁kargo
▁yükünü
▁İnsanlığın
▁dolan
lıyorsunuz
▁durumlarını
▁Meme
▁açılacak
▁yatağı
▁Ukrayna
▁şekillendiriyor
▁Paulo
▁faaliyetlerini
▁gelişmeyi
▁mesajım
▁yediğiniz
▁havuç
▁senaryolar
▁sevmiyor
▁klibi
▁Stone
▁kabine
▁dönüşmesi
▁psikiyatrist
▁katılın
▁Sinema
▁yönetmeni
▁hükümetleri
▁hakik
▁yalancı
▁fabrikasında
▁başarısızlığ
▁isteklerini
▁sürdürüleme
abildiğimiz
▁Mach
▁DE
▁kesen
▁aştı
▁Çeşitli
▁arıyordum
▁karamsar
▁hissedebiliyor
▁memurları
▁çekiç
▁geçmeyi
▁fareleri
▁gerçekleşmesini
▁oluşturabilecek
▁saniyeler
ımızda
▁ekibinin
▁sürüm
V
▁mesajlaşma
▁Program
▁dokundu
▁karışmış
▁Bilgisayarları
▁Travma
▁terapisi
jansı
▁cevabın
▁anlamadığımız
▁uçurma
▁forum
▁Gemi
▁yazılımlar
▁erişimleri
▁uluslu
▁konuşmacılar
▁Maymun
▁bahane
▁vesile
▁maraton
▁evimizde
▁Yolu
▁kasları
▁inandırıcı
▁firmasını
▁Luk
▁tamamlandı
▁gittikleri
▁engelleyecek
▁ödedik
▁ölmeye
▁kaosun
▁yükseltme
▁Dua
klerinde
OS
▁kazanması
▁Gold
▁yükseltmek
▁anlayacağı
▁evrimleşti
ebiliyorsunuz
▁delme
▁katarak
▁Pen
▁köpeklerin
▁adalar
▁çekiyorlar
▁ölüyorlar
▁Sahil
▁kalabalığın
▁hissetmemiz
▁kemiklerin
lması
▁Sain
▁ilerde
indeki
▁enfeksiyonlar
▁kıyılarında
▁yükselti
▁Gezegen
ff
▁getirilmesi
▁belirttiğim
▁tesisler
▁Kyoto
▁alternatifler
▁değerlendirmek
▁başlarım
▁sırrını
▁geçirdiler
▁damarlarını
▁yetişmiş
▁minimum
▁sağlamakta
ibera
▁yakıyor
▁Sayfa
▁araştırıyoru
▁artışın
▁Uça
▁tüketimini
▁kalırdı
▁nötr
▁takımında
▁açıklayacak
▁Hapishane
▁girişini
▁İsrailli
▁hakkımızda
▁kuracak
▁yapsak
▁Netice
▁evimin
▁tırmandı
▁besinleri
▁ormanlarında
▁patenti
▁gecikme
▁açtığınız
▁PR
▁bilecek
▁dayanmakta
▁farkındalar
▁korkusunu
▁sulu
▁algıları
ksiyon
▁saldırmak
▁Denge
set
▁kromozom
▁karşılaşacağı
▁işinizi
▁videolarını
anj
▁Musevi
▁kuşağı
▁mekanizmalar
▁yitir
▁anlayışın
▁Terörizm
▁terörizmi
▁sığdır
▁HP
▁versiyonları
▁bıraktığımız
▁edemeyeceğiniz
▁Tevrat
▁umrumda
diğimi
▁UNI
▁tahminen
▁Neil
▁benzeyecek
▁Reagan
▁Jun
▁göremedi
▁Biyo
▁Kocaman
▁yüzdü
▁yolcular
▁Saf
▁kurtlar
▁örneklerde
▁kavramları
▁piramit
▁yapman
▁katılımı
▁kaynaklarımız
ntagon
▁gömülmüş
▁ego
▁yarasaları
▁yapmazdı
feld
▁kullanmaları
▁düzende
▁etkinliği
▁maddesel
▁Yaşaya
▁hikayesinde
▁ateist
▁hızlanıyor
▁gelmeyen
▁sula
▁lifi
▁karmakarışık
▁fakirlerin
▁haklılar
▁uçuru
▁kaldırmay
lduğunu
▁dönüştürmeye
▁attığı
▁rüzgarlar
▁oğlumuz
▁karışma
▁farklılıkların
▁sınırlarında
▁bağımlılar
bon
▁Tasarruf
▁kapa
▁meslektaşları
▁çoban
▁erozyon
▁Clay
▁buzulun
▁Almanlar
▁Galo
▁seferber
▁yönlendir
▁tarzımızı
▁Hedef
▁Penns
▁çıkmayı
▁kölelikte
yana
▁Denn
▁dinazorlar
pher
▁Mahm
kütlel
▁Justine
reran
▁çatışmaları
▁konuşursa
▁masasında
▁kapsamı
▁satıyorlar
▁hangilerini
▁kuruluşun
▁sağlarız
▁Uzak
▁birleşi
▁engelleyebilir
▁Durumu
▁tasarlanan
▁isteğimiz
▁seçeneğimiz
ceğini
▁ekiple
▁sokar
▁eğ
▁volt
bot
▁belirti
abilme
▁geleneklerin
▁Bilimi
▁kıyas
▁kavramının
▁alışverişi
▁Broad
▁programımız
▁benzerdi
▁57
emiyor
▁uydunu
▁Gaz
▁maliyetlerini
▁Keşif
▁atomun
▁elektronlar
▁Güzellik
▁Gezegenimizi
▁geçiyorum
▁geceler
▁Vahşi
cel
▁hazir
▁derisi
▁Sur
▁sereb
▁kortekste
▁harcadığı
▁beslen
▁beslenmesi
▁sorsa
▁sözüm
Point
▁sanatçıları
▁Deneme
▁korkmuş
▁endişeliyi
▁arabalarını
▁Fırtına
▁ala
▁Katrina
▁filmdeki
▁bitin
▁TEDTalk
▁çarpar
▁düşüren
▁kaynağımız
tar
▁yaşadıklarını
▁kuşkusuz
▁animasyonu
▁yaradılış
▁edilmiştir
▁Mai
▁Kalkınma
▁bırakıldı
▁duyurmak
▁köşesi
▁birleştirici
▁festival
▁güçten
▁tarafımızda
▁soyma
▁uğraşmaya
▁mağdur
▁söylemesini
▁Agnes
ğü
▁gururla
▁kalmaktan
▁öykünü
▁fiyatın
▁aydınlat
▁bekliyorsunuz
▁kültürlerin
ğimiz
▁açtığını
irken
▁baksa
▁aletlerin
▁gelenekler
▁Lay
▁verilmişti
▁durdular
▁kontrolünde
▁kızının
▁kalbimi
▁sakal
▁Erkeklerin
▁Dinle
▁Toronto
▁üzereydi
▁Bac
ükran
▁geçirmişti
▁yaratmaktı
▁çalıyordu
▁Japonlar
▁İşletme
▁norm
▁başarıları
▁Daim
▁ötesini
▁arkadaki
▁çapı
▁Ayağ
▁Uzakta
▁daydı
▁kemeri
▁kıyafetlerini
▁gerekçesi
▁cezalandırma
▁devlette
▁öldürülen
▁gençleri
ğın
▁kapatı
▁söylesem
▁yaşlanan
▁Eng
▁birimleri
▁Ata
▁oyuncunu
▁hüsran
gel
▁gerekenler
▁uyumsuz
▁zürafa
▁sözcüğü
▁sütü
▁yaşlarındayken
▁vücutları
▁öldürülüyor
▁Ap
▁dipte
▁ilgimizi
▁Suyu
▁tehlikeler
yahut
▁tohumu
▁sorgulamak
▁ilgilenmiyoru
duğunu
▁duyduğunu
▁yapanları
▁sırlarını
▁gerisinde
▁yulaf
▁büyütür
▁sağlığımız
▁kazanacağı
▁Oralarda
▁Filipinler
▁Amca
▁başbakan
▁müşteriler
▁başarabilir
▁haklarında
▁Cap
▁kubbe
▁yetiştiriyoruz
▁Değişik
▁görebilen
▁toksik
rı
▁seneler
▁görmediğiniz
▁yetiştirdik
▁sunduk
▁endişelen
▁seçeneğiniz
▁Ardu
▁Rahat
▁kullanmasını
ıydı
▁Cre
op
▁güçle
▁dönerken
▁kumar
müştü
▁hipotezi
▁jüri
▁iplik
▁sorunsuz
▁güncelleme
▁kağıd
izi
▁edilmedi
▁merkezlerine
retim
▁almakta
▁bulunduk
▁kadin
yuk
▁yaşamıştı
▁çeşitte
▁Kes
▁bölümlerini
▁Kör
▁migren
▁Çek
▁İstasyonu
▁çözülme
leştirici
zer
▁hamam
acaktım
▁fakültesinde
▁enfeksiyonu
▁getirirler
▁gönderdiler
▁antibiyotikleri
ınızın
scar
▁korunmasın
▁heyecanlandı
▁yargıları
▁etrafınız
▁yarayacağın
▁sihirbaz
▁çevrelerde
▁beslemeye
▁öğrenciyi
▁nitelikli
pus
▁Bebekler
▁kabuğunu
▁edebiyat
▁oluşma
▁karşılıyor
▁tartışıyor
▁karakterlerin
▁kökler
▁hatırlata
▁otomasyon
▁ilgilenme
▁olacaksın
akın
▁kıskan
▁diyorsun
▁yazdık
▁olamadığım
▁borular
▁kalmasın
▁ulusun
▁tezi
▁yiyordu
▁dediğimi
▁denemeleri
dığımı
▁protestolar
▁muhalif
▁aşikâr
▁kıyaslama
▁halkla
▁dağıtımı
▁indirim
▁çiftin
▁1918
▁Çiçek
▁patojenleri
▁Ceb
▁değişmek
▁bildirdi
▁klas
▁azdır
▁şöhret
▁gözükmesi
▁makaleleri
▁bulabildiğim
▁kapasiteleri
▁isteyeceğiniz
▁taşıyacağı
▁anlatmama
▁tükeniyor
▁işimde
▁keşfettiğim
▁töreni
▁bakardı
▁metni
mizdeki
▁bağırsak
▁tutuklama
▁Nuh
▁mücadelede
▁konularında
▁Kıta
▁Roman
▁Brand
▁kolonisi
▁kesimden
safi
▁neokorteks
ışını
▁korkusuz
▁deneyimlemek
▁deneyimlerim
▁bağımlısı
▁seyahati
▁metropol
▁birleştiği
yapabiliyorsunuz
▁sıkıştır
▁61
▁duymuyor
▁süslü
▁üzerim
▁onar
▁uzaylılar
▁katmanları
▁hortum
raf
▁sözlükler
▁maçı
▁karıştı
▁bez
▁hikâyesini
▁sağla
▁okuyacak
▁işlemeye
▁Savaşında
▁mahalleler
▁içerikte
▁uyguluyoruz
▁arayüzleri
▁kalacaklar
▁müsait
▁ilişkimiz
▁vicdan
▁Stalin
▁yatma
bül
▁düşüşün
▁saldırıların
▁zamanlama
▁ettirdi
▁uygulamada
▁kullanmamızı
▁öğreti
muştu
▁gücünüzü
▁kravat
▁tele
▁kaset
leştirdi
▁davranı
▁Kenyalı
acağınız
▁Franklin
▁ediliyorlar
▁çökme
ring
▁Polonya
▁benimsedi
▁tempo
▁anlayın
▁Banka
▁Malezya
▁hükumetin
▁çağrısı
▁sinirler
▁yapımcı
▁olacaklarını
▁güvenliğ
▁faydalarını
▁bölü
▁felaketler
▁kasırga
▁zorluklara
▁görmeliyi
▁Jami
▁Adet
▁katalizör
kov
▁Ep
▁Kardeşim
▁törenin
▁edebileceğini
▁kork
▁kızdı
▁bağırıyor
▁anlatıyorlar
▁bitişik
▁Nas
▁yumruk
▁almalı
▁kartlarını
▁Ticar
▁çifti
▁akrabası
▁öğrenmişti
ripo
▁fili
▁Haklı
▁Vali
▁davrandığını
emeyeceği
▁kaybetmişti
▁kor
▁beğeni
▁evrimleşme
▁düşünmem
▁kaynağ
▁bozan
▁işti
▁doğurdu
▁yaklaşımını
▁Russ
▁boyutlara
▁çatısında
▁kullanmalarını
▁gerektirecek
▁dinlediğiniz
atıp
▁açılarını
▁gerçekleşmiş
▁dizilim
▁fonksiyonlarını
▁terimleri
▁harcayabilir
▁sürebilir
▁ızgara
▁125
▁süzülüyor
▁gazlar
▁otomobiller
▁Arama
▁incelediğimiz
▁yaklaşımımız
▁Kenar
▁çalışmaz
▁kültürde
▁hele
oney
▁geçebiliyor
▁Hafif
yuz
▁altyapısı
▁sevinç
▁meditasyon
▁anlarda
▁baraka
▁buzullar
▁kabloların
▁kaçırmış
▁gereksinimi
▁hukukun
▁diyecekler
▁kontrolün
idari
▁Dub
▁odaklanmalıyı
elli
▁van
▁yakalandı
▁görünümünü
ıklıkla
▁Clo
▁Wei
▁sessizliği
vey
▁saplantı
▁fantazi
▁güdü
▁yolculuğunu
▁bulamadık
▁açmayı
▁taşıyacak
▁Makina
▁çalıştığında
▁üretmesi
▁görmediği
▁açıklığ
▁kesimin
▁pişman
rü
yacağını
▁devamı
▁solunda
▁tekrarlaya
▁koşuyor
▁şiirsel
▁uğraştığımız
▁kıtlığı
▁yaşanır
▁mikroorganizma
▁grafiğin
▁iskeletini
▁kalıntılarını
more
▁grafikleri
▁Glas
▁değiştiriyorlar
▁anladığı
eau
▁Yolsuzluk
▁konuşmamda
eller
▁halt
▁işledi
gal
▁Doh
▁devriminde
▁teoride
▁yaymaya
▁kültürümüz
▁Düz
▁bazılarınızın
▁olmamaları
pont
▁mahallelerinde
▁konuşabiliyor
▁zihninizde
▁Odysse
▁günlüğün
▁Gitme
▁düşünenler
▁Blog
▁kuvvetlerin
▁kambur
▁çıkaracağım
▁ayarladı
▁yanlışlıkla
▁anlamama
▁şanslar
▁yüzümü
▁tasarımda
▁tasarımla
▁Yaşamı
▁yetkililer
▁bilirdi
▁eşzamanlı
▁kurtuluş
erler
▁yıllara
▁üzerimiz
▁başlayın
▁etsin
▁karşılaşacak
▁yuvası
▁antibiyotikler
▁gerginlik
▁paylaşır
▁TR
^
▁kazaları
▁doğruluğunu
▁savunuyor
▁üremesi
▁sularda
▁Ye
▁oyle
▁dinozorlar
▁ayaklar
▁binasını
▁Haber
▁tabiri
▁fikirlerimiz
▁tasarlayabilir
▁araştırmamı
▁ilkeler
▁biyolojisi
▁çubuğu
▁Panama
▁Makineler
▁sorumluluğumuz
▁diyenler
▁varsayar
▁çıkmadı
▁okuyabiliyor
▁Kitabın
▁İranlılar
▁sergiledi
▁sürüsü
▁büyütebilir
üneydoğu
▁ulaştırmak
▁yapmadığını
▁yaşlar
▁kurulmuştu
▁çöplük
▁hazırlanıyor
▁toplanmış
▁etkilerinde
▁sunacak
▁dolaşmay
tıyor
▁tekrarlanan
▁getiri
▁kel
▁Açlık
▁Hatırlıyoru
▁Savaşta
▁sanma
▁üçlü
▁Tedavi
▁kalbinin
ran
▁yaptırdı
▁sür
▁yaptırma
▁ettiğinizi
▁tercihler
▁güvenini
▁hi
▁ailemiz
▁camın
▁geçim
▁fırsatım
▁alıcısı
▁sunuyorlar
lbert
▁kalmalarını
▁umudunu
▁etiğini
▁koda
▁Maymunlar
▁deneylerde
▁köpekleri
▁Billi
▁yüzgeçli
▁tükenmek
▁Kayıt
▁Tat
▁Araştırmacılar
▁düşünmemizi
▁Rastgele
▁Interneti
▁bozuldu
▁elektrot
▁Neumann
▁iyon
▁Dergisi
▁ney
▁ortağım
▁cömertlik
▁durdurmaya
▁sembolleri
▁Endüstriyel
▁sınırın
▁yalıtıl
▁Şirket
▁uçuşa
▁girmemiş
ise
mble
▁sormuş
imbabve
▁dağa
▁indiri
lacağı
▁Kaza
▁zorlaşıyor
▁yaratılış
▁konuşulan
▁sistemlerimiz
▁düğmesi
▁transferi
▁kuzenim
▁Fakültesi
▁çıkışını
▁piyasalar
▁edilmesini
*
▁yaşamının
▁ittir
▁başlamalı
▁guru
▁bulundur
▁yemeğini
▁başlarını
▁yelpaze
▁kurak
▁Bitkiler
▁yaklaşımla
▁tabakaları
▁hatlarını
ham
▁dizisinde
▁içeriğ
▁gülen
▁alım
▁emtia
laştı
▁birçoğumuz
▁vatandaşlı
▁ortaokul
▁Cocuk
▁katili
▁tap
jan
▁planını
▁toprakların
▁ayılar
empoz
▁dağcılar
▁dinlerin
▁gerçeklikle
▁yedinci
▁And
▁görebiliri
▁petr
▁Pac
▁milisaniye
▁mammogram
lvani
▁akılcı
▁Gay
▁hedeflerin
▁motif
▁Root
▁Shoot
▁Leo
▁Anon
▁defin
▁konektom
▁PH
DG
▁Biyosfer
▁kaçıyor
▁hazırlanır
▁konuşmadı
▁itaat
laştırabilir
▁Made
▁açımı
▁taahhüt
▁dokunmaya
▁şaşı
▁Kola
▁prezervatif
▁örgütleri
▁anlarsa
▁yapılabileceği
▁yararlanmak
▁durmuyor
▁çalışmanız
▁tuvalette
▁mutlulukla
▁toplumlardaki
luğunu
▁söyleyebilirdi
▁otomotiv
▁görüneceğin
▁çevire
▁gezen
cağı
▁sorarsa
emem
▁ortamları
▁uzmanlaşma
▁adi
▁kavramın
▁ilişkisel
▁yapılı
▁kullanış
▁razı
▁kaldırımda
▁tutkal
▁sürdük
▁mahallesinde
▁ilerledik
▁bütçesini
▁Resmin
▁adası
▁Mühendislik
▁parlama
▁atmosferinde
▁göremeyecek
▁kalanları
▁geziyor
▁Cle
▁don
▁tu
▁uc
▁acik
▁Mississip
▁edindik
▁78
▁Ellerinde
▁katılacak
▁okumuş
▁piş
▁keşifleri
▁şaşırt
▁gözünüz
▁gürültüsü
▁araştırmalarını
▁oluşturmanız
▁fuhuş
▁çıktığımd
▁başkasını
▁gelirini
▁Yoğun
receksiniz
▁uygulamasını
kışıklı
▁kullanılmaya
▁yansıyan
▁tok
▁sap
zafiyet
▁eğil
amazdı
▁Schwarz
▁okuyordu
▁terimini
▁galaksimizde
▁kafanız
▁güçlük
▁bahsedilen
▁karışıklık
▁edebilirse
▁kodları
leştirecek
bel
oo
rik
▁sorduğunuzda
▁ayırabil
▁sınavı
▁saplantılı
ion
▁çağırıyor
▁kafalarında
▁Bölgesi
▁kimileri
▁olgusu
▁heteroseksüel
▁göreviniz
▁İçlerinde
▁tutmuş
▁parçalanmış
▁gizemi
etmek
▁pazarda
▁satıcısı
▁İğne
▁uygulamalarını
▁tanıştırdı
zik
▁kucağında
▁saatlerde
▁kardeşini
▁kampında
▁başımı
▁tarihimizi
mızla
▁tedbir
▁so
kte
▁izliyordum
▁yolculuktu
▁şa
▁Organizasyonu
str
▁sabırlı
amadığı
▁Jon
▁karışıklığı
▁Kriz
▁babaların
▁caz
▁doğruydu
▁özgüven
▁senaryosu
▁göbek
▁fikirlerim
▁oturum
▁denklemler
▁cebir
▁hatırladığım
riz
▁biriysen
duğunuzda
▁taşların
▁hastalıkla
▁izlemiş
▁yönetmen
▁İmkansız
▁kaynağın
▁doğumunda
▁toplantıları
▁hissediyordu
▁nakletme
▁yansıtıcı
▁sos
değer
▁dişler
▁tamamladı
▁edebilmesi
▁tahsis
▁Geli
▁üzerindeydi
▁kocasını
▁başarıyor
▁Tecavüz
▁batılı
▁kliniğ
▁tabloları
▁eserlerin
▁tablolar
▁sökü
▁kurması
▁Yaşadığımı
▁olabilecekleri
▁kanalizasyon
rmüştü
▁manşet
▁araştırdık
cy
▁karşılaştıralım
▁embriyon
▁Sebebi
▁Büyür
▁biçme
▁çocukluğum
▁Asl
▁karı
▁imkanımız
▁aktivistler
▁porno
▁koza
▁vakıf
▁bulunmaya
▁uyguluyor
▁tutuyoru
▁yılanlar
▁aş
▁indik
▁bunlardı
▁Gelişme
▁çoğalma
▁kullanıyorlardı
▁tırmanı
▁proto
▁tahri
for
▁bunlarda
▁bulmaları
▁çevirebilir
▁zam
▁yetişiyor
▁Atık
▁bileşimi
▁rüzgarı
▁yelkenli
▁yapıyormuş
▁takdim
▁dalgalanma
▁planla
▁noktamız
▁düşünülür
▁umudumuz
▁bacakların
▁bağırdı
▁editör
▁köşelerinde
▁hissetmiyoru
▁poli
üş
▁benziyorlar
▁alkışlay
yacaktır
▁görünmek
ncou
▁peyzaj
▁cik
▁tesekkur
▁mumkun
bet
▁mili
▁Fabrika
▁izlenim
▁Young
▁Mao
▁istediklerinde
▁stratejisini
▁hane
▁alışkını
▁merdivenlerde
▁Havada
▁torunları
▁ateşleme
▁hissetmiş
▁Freud
▁endişelendire
▁rastlana
▁olamıyor
şer
▁oyuncakları
abilirler
ofi
ucker
▁stili
▁Güvenli
ınca
▁yönlendirmek
▁karşılayacak
▁kaçar
▁gittiklerini
▁Daire
▁bütünsel
▁Sonuncusu
▁işlerinde
▁merkezini
acaklarını
▁isteyenler
▁yaptıysa
▁geliştiri
up
▁İlham
üz
▁kitleye
▁çubuklar
▁öğrenebilme
▁ardındaki
▁Of
▁Burdaki
▁Duygusal
▁iyimserim
▁volkan
▁altındadır
▁kurtarır
▁öğrettiği
▁Gu
▁eğme
▁bulmam
▁Fran
▁göstermedi
▁Müdür
▁She
▁oynadığını
raham
ves
▁akılları
▁daral
▁karıştırma
▁seçeneğin
▁planlarını
▁doldurulmuş
▁ispatlama
▁ulaş
▁renklerin
▁siteler
▁bakmadı
▁servisler
▁felaketleri
▁kontrolsüz
▁bağışıklığı
▁güçlüydü
irsek
▁çıkıntı
▁edilebilecek
▁ulaştır
▁dizaynın
▁41
▁uyaran
▁çalışıyorsun
emiyorlar
▁nasıldı
▁eğitimim
▁yetim
▁çizelge
şır
▁menü
▁hakimiyet
▁okun
olojik
▁sayfalarını
▁çizimleri
▁Aurora
▁nişasta
▁gösterdiğini
▁demeli
lamıyordu
▁dalgalanmaları
▁kendinizin
▁odaların
▁Hele
▁duyduklarında
▁Eylem
▁okuyun
▁belirlediği
▁çalışmadı
▁soruyordu
▁umursamıyor
▁ödeyen
▁minnettar
▁görevlerini
▁ulaşama
▁ilerlemesi
▁istasyonunda
▁bakmakta
▁göstermekte
▁dönemindeki
▁fırtınalar
▁dirsek
▁katılmış
▁kuşaklar
▁titreş
▁kulaklık
▁Profesyonel
▁plak
▁buluyordu
▁koyuyorsunuz
▁sallıyor
▁kişiyim
▁projesinde
▁açıklamasını
▁edilebilen
▁Birşeyler
▁Parmak
▁çiçeğin
▁toplanır
▁bildir
▁ölmesi
▁Spi
▁okuduğunuz
törler
▁kutusun
▁konuşmuştu
▁hatırlamıyoru
▁ettiğin
▁işlemiş
▁Ormanları
▁logaritm
▁ilerlemiş
▁komşularınız
▁tehdidi
▁benzerleri
▁belirttiği
▁bombalama
▁başlığın
ben
▁çemberi
▁fotoğrafçısı
▁Samu
▁kılıç
▁yanmış
▁gideceğimiz
▁Öfke
▁servisleri
ıyorsunuz
▁masaj
▁Hız
▁yarışa
▁parka
▁okullarında
▁fırla
▁ticaretini
▁oturuyoru
▁alacağımız
▁73
▁teselli
▁erdi
▁takla
▁Gelecekteki
akland
▁Değer
▁övgü
▁görebil
▁misyonu
▁bağlanabilir
▁MB
▁Liderlik
▁Down
▁önerir
▁ışıltı
▁Fil
▁kağıtları
bileceğini
▁seçen
▁boğuldu
▁masalı
▁yaparsın
▁deme
▁suçlulu
▁kombinasyon
▁canlandırıyor
▁azot
▁öncüsü
eğe
▁yavrular
tt
▁Blair
▁isimsiz
▁inançlarını
▁kulakları
▁ettiren
▁cazibeli
▁River
▁büyükler
▁gözlerimiz
▁Hangisini
layamadığımız
▁gözünün
▁edebiliyoru
▁vermeyeceğim
acakları
▁askerlerin
▁EB
▁yükselişini
▁eğitimle
▁başlamadı
▁Hastanede
▁kararlılık
▁kusurları
▁ıslah
▁öldürül
▁Yaşamak
▁gazetelerde
▁gelecekti
▁Yapacak
▁Gabriel
▁sanatında
▁sayılabilir
▁yaratıcısı
▁hasarı
▁ölçebilir
▁Rod
▁eği
▁dokuya
▁Altta
ımsı
▁bölün
▁harcayı
▁bölümde
▁Mantar
▁yaptıklarım
▁Düşündü
▁bileti
▁akımını
▁geceley
▁köşey
▁gazları
▁rakip
▁tarafları
lamalıyız
▁dağılmış
▁etkilemeye
▁bağlanan
▁HC
47
▁sonuncu
▁bayıldı
▁icatlar
▁üreticisi
▁aca
▁aktarır
▁seviyelerini
▁Mitch
▁Orda
▁cemiyet
▁üreteceği
▁ortaklığı
▁popülasyon
▁dağları
▁deneylerin
▁olacağından
▁kampların
zun
▁hay
▁zarf
▁entegrasyon
▁yetmezliği
▁yedikleri
▁hazırlıyor
▁Depresyon
▁gelişmesini
▁Kabil
▁reformu
enberg
▁keşfetmiş
▁nedenler
dom
▁değiştirdiği
▁araştırmacısı
▁sonuçlarının
▁yıkıyor
▁günlerini
▁general
▁istersin
▁çocuğumuz
▁çözen
▁iyimserliği
▁sürücüler
▁istasyonları
▁güler
▁Filmde
▁avı
▁herbirimiz
▁Hyper
▁projelerinde
▁dizilerini
▁Mad
▁Bor
▁seyretme
▁işleyişini
▁Maslow
▁kalmaları
▁cogu
▁kapitalizmi
▁oturtu
▁Sahibi
▁ekosistemler
▁Doug
▁demokrat
▁koruyabilir
▁yapılandırma
▁çalışanın
▁arabada
▁camı
▁duymadı
▁özelliğ
▁aydın
▁Bilinçli
▁Büyükbabam
▁şekillendirmek
▁girmesi
▁bozulur
▁delil
▁suların
▁nereler
▁gönderdiğimiz
▁tartıştık
cilerin
▁sitemiz
▁yaşandığın
▁asistan
▁Kupa
▁Uydu
▁karo
▁özne
▁yasasını
▁sandalyede
ng
▁pusula
▁limitleri
▁Jaw
▁kanıtlanmış
▁düşündüğünde
▁başar
▁dikkatimi
▁kucaklama
▁paranız
▁başvuruyor
▁dokusun
▁Bat
▁yolumuzu
▁kiralay
▁dükkanları
▁Eşit
▁etmişsinizdir
▁reformlar
▁bağdaştır
▁kesimde
▁gerileme
▁yolculuğum
▁ambulans
▁Destek
▁belirtilerini
▁destekleyici
▁turşu
▁Fen
▁gezme
▁boyutlarını
▁gururu
▁Çaresiz
▁işleyişin
madı
▁yaratması
▁Cost
▁yayılmay
▁askeriye
▁rekorunu
▁çıksa
lendiriyor
▁trenler
▁kovboy
▁edilmeli
▁gömlek
▁esin
▁Renkler
mode
▁Fosil
ther
▁acısını
▁forma
▁Yönetim
▁rastlantı
▁takıma
▁atmosferdeki
ith
▁arttırır
▁görgü
▁Sigara
▁imzalama
▁çevrelenmiş
▁korunuyor
▁çalışmalarda
▁Toplu
▁etkilediği
▁bitmedi
▁Juli
▁döküyor
▁avlu
ırlar
▁torbalar
▁kapsayıcı
▁bakabiliyor
▁memleketim
▁gücüm
▁Ess
▁Viktorya
▁uyuya
▁yardımsever
▁soğan
▁atletler
▁nerelerde
▁koka
▁parcasi
10
sey
▁hikayemizi
▁tanıyordu
▁karışmıştı
ziko
uke
▁vermemek
▁adlandırdı
▁kapsül
▁Dava
▁aktarıyor
▁saldırıları
▁kasların
▁otları
▁belirlenmiş
▁frekansı
▁şiddetini
▁yeniliklerin
▁alıştı
▁kökünde
▁Kamp
▁Hesap
▁Ceza
▁kararların
▁katıldığı
▁ordusunu
▁Irk
▁yerleşti
▁Georgia
▁evimizi
▁sayma
▁sundum
▁tanımlana
▁yapabildiği
▁genini
▁ilkeleri
PEC
lidir
▁vazo
▁düşünmüştük
▁amino
▁bulabileceğimiz
rdün
▁olabilseydi
▁Söyle
▁tartışmaların
▁döneceği
thy
▁sualtın
▁bekley
▁aşma
▁yüklüyor
ekli
▁Islık
eyin
▁taslağı
▁Harita
▁dersini
▁şifreli
▁algılar
▁82
▁atalarını
▁başlayacaklar
▁insanlardaki
▁umutlar
▁salgınını
▁stratejileri
▁etkinlikler
70
▁bağlantıda
▁kurmuş
▁cihazlarını
onald
▁bankaların
▁açımızı
▁tutumu
▁dille
▁Ros
▁tutumları
▁Madagaskar
▁anlatıcı
▁Not
▁Mal
▁Kilisesi
▁anlaş
▁Ahlak
▁çağır
abileceklerini
▁IP
▁ekonomistleri
▁öngörülebilir
▁farkındalığı
▁havuz
▁170
▁aerodinamik
head
▁ailenizi
▁yaprakların
▁yakalamaya
▁gözlemlediğimiz
▁hedeflerini
▁Up
▁kazasında
▁bok
▁şekeri
▁işyerinde
yorlardı
▁yakasında
▁görevde
▁suşi
RT
▁yaşların
▁mantarı
▁Mauri
▁farkını
▁sürdürdü
▁Asyalı
▁merkezler
▁simül
▁eğrisi
▁diziler
▁yayınlıyor
▁Sonuc
▁alkışlama
▁yaratıcılığ
▁örümceğin
▁dışadönük
▁Tel
▁tüpü
yüzündeki
HAL
▁çözmüş
▁nemli
bilen
AM
▁ayıları
▁umutsuzluk
▁Kayıp
▁piyasaların
▁uçuşta
▁görüntüde
▁liderin
▁Derneği
▁grafiti
atch
▁tükettiğimiz
▁treni
▁yapabilmeleri
▁efor
▁madeni
▁araştırmamız
▁zatürre
▁edebilirsin
▁bat
▁49
▁savunması
▁karbonat
▁azaltılması
▁etmemek
imbab
▁kolonoskopi
▁Karar
▁Farm
▁harcadıkları
▁geçmiyor
▁yanlis
ebildi
▁beynimde
▁figürü
▁açlığı
▁çölde
▁dioksit
▁bilginiz
▁gönüllüler
▁açlığın
▁Numara
SA
▁sıfırlar
▁Uzayda
▁Teleskobu
▁Arkansas
▁Raj
BT
▁Mello
▁KS
▁gerilla
▁Merhamet
▁RD
▁Bonobo
sion
For
She
▁water
▁römork
▁gökadalar
▁cıvı
olduğunu
▁ilişkilerde
▁döngüleri
▁takımları
▁yararlanma
▁Salla
▁başlıklar
▁kaydedildi
▁1600
▁kişide
▁sekizinci
yanılmaz
▁anladığınız
▁Şehirde
▁ray
▁motorun
▁ısısını
lt
▁oldugumuz
andıran
▁Sabit
▁içindeyse
▁verilmiyor
▁çekmemiz
▁odaklanmamız
▁barın
▁sıkışma
▁süpriz
▁Stu
▁kullanılmayan
▁görebilirsin
▁daireleri
▁Sokak
▁giyinmiş
▁otobüsler
▁ED
akıp
▁saklanmış
▁gazetesi
▁harcamaların
▁harca
RN
▁edilemeyece
▁almayan
▁çıkıntılar
▁çekirdeğin
▁mız
▁profesyoneller
▁oldugun
lanmis
▁Problemi
ecekler
▁komite
▁dort
▁ornek
digi
▁mezuniyet
▁beklenir
▁saymak
▁karşılaştırıl
▁66
▁beklediğiniz
layabileceği
▁fast
▁yükleri
▁ulaşınca
▁soğur
▁Minneso
▁farzed
▁desteğini
▁artıracak
▁düşürece
▁ücretini
▁Kablosuz
▁kılabilir
▁tıkanıklık
▁geçirdikleri
▁itiş
eceğiniz
▁erişimin
▁verim
▁Eyalet
ğu
child
▁ateşin
▁saklan
▁mercek
▁vurmaya
▁sıkışmış
llah
▁patlaya
▁sarar
▁Çoklu
▁Burma
iyorlardı
ping
▁Shad
▁Grove
▁Kentucky
▁International
▁Music
▁koridorda
▁ağlamaya
▁eriş
şey
▁Lanka
parça
▁atıl
▁açılması
▁koydukları
▁Kurulu
▁giymiş
▁cinsellik
▁Rif
▁kesilmesi
▁inançların
▁sürmeye
▁şişesi
▁62
▁bilmece
▁Ren
▁birisiydi
▁desteklediği
▁programda
luğun
▁klipte
masından
▁gözüm
▁yenilenmiş
▁sezonu
▁saatlerinde
▁kucaklamak
▁koltukta
▁raflarda
▁Çocuklarımızı
▁görülüyordu
▁UCL
▁ahlaklı
▁gösterebilmek
▁modelimiz
▁bacaklı
▁melez
▁basılı
▁yüksekliğini
▁eller
▁kenarı
▁yolluyor
▁ettiriyor
▁kazandığımız
▁çiziyoru
▁anını
▁onayladı
▁Kedi
▁regl
▁düşünmüşler
▁portresi
▁amacını
▁aleminde
bb
▁gösterdikleri
▁içiyor
ald
▁karıştığı
yacaksınız
▁stüdyoda
▁cinsiyeti
our
▁fosfor
▁sayımı
▁Aç
▁mekanlar
▁yaratabiliyor
▁sahneleri
▁görünüşünü
▁antrenman
▁yürek
▁madalya
▁zenginliğin
▁gelirlerini
▁yeryüzü
▁kimyager
▁kimyasını
▁kaygan
▁yumurtaları
▁çözdük
▁yakaladık
▁bırakmamız
ŞİD
▁Kızların
▁tapınak
▁attığım
liğimi
▁post
▁müttefik
▁gür
▁durdur
YR
▁yardımlaşma
▁yaşayanların
▁katma
epsi
▁Kaptan
▁vakaların
▁Kırsal
lanırdı
▁çıkartacak
▁koklama
▁ışıldaya
▁sağol
▁paradoksu
▁öğrenmeniz
▁umutlu
▁öğretmenlerim
▁yaratabilmek
mayacaklar
▁görünüm
▁deniyordu
▁buluşların
▁satışı
▁işlerle
▁gücünüz
▁yürüdüğünü
▁okyanustaki
▁Grafik
▁sallana
▁kimliklerini
▁Bip
▁Gözlerini
▁kabın
▁sonucun
▁deyince
▁seçilim
▁algılaya
▁populasyon
▁gec
▁doga
rit
▁ocak
▁heyecanla
▁arastirma
▁fotograflar
▁dinledik
▁yapi
▁j
▁uyu
▁üçünde
▁yuksek
▁Gun
▁sag
▁dusu
▁kaybol
▁iskele
▁akşamı
▁aşamaları
▁kenarları
▁hayalin
özetlemek
▁ilgilendiriyor
▁Du
▁Kuru
▁çektiğiniz
▁Sene
▁çorbası
gane
▁etanol
▁Diz
▁Beat
ata
▁vermeyecek
▁39
▁yakma
▁duracağım
▁Hayret
▁uzaklaşı
▁vaiz
▁gencin
▁otoyol
▁savcı
▁yıktı
▁sefil
ps
▁yansıtır
▁yoğunlukta
▁erectus
▁bakması
▁bağlantılarını
▁Pier
▁kalıtım
▁çıkarımlar
▁değiştirdiğimiz
▁temsilcisi
▁özetliyor
▁Oyuncak
▁İşaret
laştırılması
▁öğrenimi
▁Arkadaşlar
abileceğimi
▁dükkanın
▁Karım
▁Kızım
▁olayım
▁eposta
▁Ağacı
▁dağı
▁etmesinde
▁göstermez
▁solcu
▁Mont
▁bitenler
▁öyledir
▁yazarın
▁Dönüşüm
▁Öğrencilerim
▁bitkin
▁boyamak
lanmıyor
▁geyik
▁yitirmiş
amıyor
▁söyleyebiliyor
▁sahneler
▁yazdıkları
▁babamız
▁Şeytan
▁kimlikler
▁kızdır
▁atışı
▁stüdyom
▁rejimin
▁Lider
▁ayrılması
▁yalanlar
▁sav
▁düşünmeleri
▁izlediğini
▁söylediğimi
▁edindiğim
▁bilemedi
▁eğitilmiş
▁cumartesi
▁ayakkabılarını
▁eğlenmek
▁hâkim
▁opsiyon
▁öldüler
▁aşıları
▁salgılama
▁sağlayacağı
▁yakalanıyor
▁taşıyorlar
mıyordu
▁uçabilir
▁dizaynı
▁kaldıracak
abilmemiz
▁edeceğin
▁yumurtalarını
▁bilemiyoruz
▁göremeyeceği
▁uzaklaşır
▁Onlarda
▁reklamcılık
▁çevreleri
▁çimento
▁restoranlar
▁bilebilir
▁atlıyor
▁pilotu
▁gözümüzde
▁zorlayacak
▁açımız
▁arttırdı
▁keşfedebilir
▁tarıyor
▁düzenlenen
▁yansıtıl
▁söylentiler
▁sağlığımızı
▁bulmuşlardı
▁proteinleri
▁geleceklerini
lamıyor
▁çalınmış
liğimizi
▁Fonu
telekomünikasyon
▁bankacılık
▁gittiğiniz
▁yetimhane
▁bebeğ
▁topraklarda
▁davranışlarında
▁sağlayıcı
▁Kell
▁yatırdı
▁motorunu
▁anlattıkları
▁saklanıyor
▁seçimin
▁büyüyecek
▁Mall
▁rakım
▁karşısındaki
▁kalkma
▁gelmesinde
▁çökmüş
▁afet
▁asimetrik
▁İçin
▁etrafımız
▁Sessizlik
▁usul
▁tanınmış
▁canlandırı
▁paylaşı
▁teröristleri
▁İnanç
▁bitmiyor
▁yüzleş
▁tanıttı
zı
▁Kütüphane
▁topladığı
ilmesi
▁düzeltmeye
▁prensiplerin
▁işbirliğini
▁ekler
▁eylemlerini
▁Grup
▁rakipler
▁değerlidir
▁bilgeliği
günkü
▁düşüşte
▁Lawrence
▁göçebe
▁biçimlerde
▁psikologlar
▁yükseldiğini
▁betimleme
▁Sergi
▁titiz
▁değdi
▁Met
▁Blackberry
▁sapı
▁çiftçileri
lly
▁fenomenin
▁Batıda
eceklerini
▁yaramadığı
ov
▁paravan
▁Vir
▁kilitli
lenemez
▁cila
▁varolma
atıyorum
▁aramayı
▁sevdiklerini
▁yama
▁İşçi
▁bırakırsa
▁bağlıyız
▁kaybedebilir
▁sevmez
▁cebimde
▁ısınıyor
▁örtü
▁getirt
▁seçmiş
▁evrak
ümüz
▁çarpması
▁ölüyordu
▁Tri
▁Kel
▁yum
▁sevebilir
▁incelikl
▁gösterirler
▁görülmeyen
▁öğrettik
▁Rum
▁şairi
▁sapiens
▁Lou
▁notaları
▁kazandıracak
▁engellerin
▁vardığım
▁dükkanı
nıyor
▁günümü
▁karıştırmak
▁engelle
▁Kha
▁semboliz
▁harikalar
▁psikopat
▁korkak
▁çıkaracağımız
▁kızartma
▁çıkarılacak
▁Doku
▁brokoli
▁Kaynak
▁oradadır
burg
▁eyaletin
▁aktiviteleri
▁hatırlamamız
▁diyagramı
▁karşılaştırmak
▁Devri
▁milenyum
▁israfı
▁Phil
▁izniniz
▁varlığımızı
▁Nichol
▁Dikkatli
▁yıldönümü
▁Türleri
▁masraflı
▁prototipi
▁kapitalist
▁Kod
ıvır
▁kul
EA
▁sağlıkla
▁noktasıydı
▁öyküsünü
▁girdiğimiz
▁ayarlayabilir
▁saptan
leştirdik
▁doldurdu
▁makinasını
ilmişti
▁inanamıyoru
▁operasyonlar
▁kızlarım
▁kısımlar
▁kurtuluyor
▁şansları
▁hücrede
▁standartlarında
▁tetikleme
▁tanecikleri
▁bıraktıkları
▁Gölü
▁derinliğin
▁seramik
▁aşağısında
▁deneylerini
asyonu
MI
▁Başlangıç
▁temelleri
▁650
▁sınama
▁biber
▁göndermişti
labilecek
▁ölçülen
pur
ülü
▁kattı
▁Yemeği
▁tofu
▁şarabı
▁cüretkar
▁SL
rika
dığınızı
▁planımız
ountain
▁iyileşti
layamazsınız
▁Mühendisler
▁harcandı
▁şapkası
▁kaçırmak
▁görebildiği
▁gerçekleştirmey
▁enstrümanları
▁sesinizi
▁Hastanesi
▁ormanlarını
▁kaydedi
▁atılıyor
▁Piyano
▁sormama
▁insandı
▁Kralı
▁günüm
▁Atlas
▁düzeyini
▁Journ
▁yetmiyor
▁uzattı
▁aradığınız
▁sevmezler
▁odalar
▁sağlığınız
▁Devletlerin
▁adaylar
dil
▁algoritmaları
▁kenarda
▁milyarda
▁bulmanız
▁Fırın
▁Bazılarınızı
▁Programlama
▁meselesini
▁kaydede
▁Endişelenme
▁Meslektaşlarım
▁depresyonun
ES
▁bakmaları
▁hükümetlerin
▁ajanı
▁yorumları
▁Tahr
raft
▁ellerinizi
▁uygularsanız
▁Maça
▁sinekleri
▁benliğim
▁elbisesi
▁bitiri
▁ulaşabilmek
▁geçireceğim
▁Hatırlay
▁kararlılığı
▁hatırlana
▁Aya
▁makinaların
▁deneyimleme
▁Varsay
▁Gizem
▁hologra
▁Yaz
▁dönüştüğü
▁tahminleri
▁hissettirdiğin
▁döndür
▁düşüncesinde
▁tutuldu
▁derinlerde
▁büyüyebilir
▁kesindir
▁banliyö
▁diyagram
▁İhtiyaç
▁düzenin
▁oluşmuştur
▁mikrobi
tığınızda
▁teklifi
▁bahsi
▁çocuklukta
▁Harikaydı
▁yazacak
▁bayılırı
▁Spino
▁CB
▁sinirleri
▁mezarlık
▁Rocke
ğınızda
▁haliniz
▁Tasarımcılar
ekâ
▁Entropi
▁ayarlama
▁odaklanacağım
▁uyduların
▁2500
▁reaktör
▁ısınmaya
▁santralleri
▁açması
▁salgınında
▁Yellowston
▁Kaba
▁varıyoruz
▁parklar
▁Ağaçlar
▁narin
iwa
into
▁Pun
▁iyileştirilmesi
▁çağırır
▁cezbedici
bule
▁aldığımızda
▁kuzeni
▁haberini
▁edemeyeceği
▁dönüştürecek
▁olduklarımız
▁Takip
▁yaramayan
▁alanla
▁posterler
▁izleyecek
▁molekul
giniz
cektim
▁aroma
rum
▁arkadaşımız
▁farkediyor
▁Demo
▁Simpson
▁halat
▁August
▁devinim
▁zincirin
▁bulacağımız
▁Ağı
▁Öğrenci
▁Boe
▁kötümser
▁yürü
▁ikilemi
▁saldır
▁beyinlerimizi
▁argüman
▁yönetiliyor
▁farketmez
▁Farz
▁Hayatımızı
▁Departmanı
▁bardağı
▁Ligi
▁kalbinizi
▁işleyişi
▁egemen
▁Arzu
▁sistemle
▁alınacak
▁Petrolü
▁biriken
▁kullandığınızda
▁taşınmış
▁Rem
▁elbiseleri
▁uca
▁cahil
▁güçlendir
▁alacağını
▁eğitmen
▁örgütler
▁kolaylaştır
lsaydı
▁mağduru
▁Luc
▁içti
▁Başlık
▁bahsetmiyor
▁Gal
▁girişinde
▁inanırlar
▁ajan
lacaktır
▁çıkarı
gerçekleştirecek
uart
▁185
▁artmasın
▁etkilenme
▁giydiğim
▁lisansı
▁durdurdu
▁varıyor
▁cehalet
ues
▁elemanlar
ğına
▁avatar
▁Dun
▁zorunluluğu
▁cetvel
▁içerdiği
▁Oyunları
▁neslimiz
▁seksen
▁şiş
▁modüler
gile
anlamasını
▁makinaları
tığını
▁kullanılma
laştırıcı
▁Nollyw
▁Hayvanların
▁ulaşamıyor
▁kapanıyor
▁meslekler
▁yağar
▁jenerasyonun
sünü
▁iter
▁muhalefet
▁savaşları
zman
lunacağını
▁yapılmadı
▁taşımıyor
gir
▁gümrük
sari
▁püf
▁faaliyetleri
▁hâlihazırda
▁söylemeyeceğim
▁söylen
▁Stein
▁rezonans
▁başlasa
▁istemediğim
▁bölünme
▁şirketim
▁alışkanlıklar
▁Kam
▁gevreği
▁Yatak
TM
▁jeton
▁Fiyat
▁gelebileceğini
▁hatırlayabilir
▁çadır
shi
▁çekişme
▁yollamak
▁Potter
▁alınmıştı
▁Anlatma
▁göçmenlik
▁orangutan
▁zirvede
▁limitlerini
od
▁cips
so
▁vurucu
▁zenginler
▁dol
▁kalabalığı
▁hizmetçi
▁Bilge
▁Altyapı
▁bilemeyiz
▁Geç
▁bağlantısız
▁Mau
▁katmanlı
▁başarabilirse
▁oluşturmamız
▁uçurdu
▁geldiğimizi
▁Metro
▁kaslar
lmak
▁dönüştürülebili
▁istediğimizde
▁Neandertal
▁genomun
▁algoritmik
▁Blo
▁Fareler
malarını
▁terbiye
▁gelmeleri
▁Devletlerde
▁penguenlerin
▁nitelikler
▁üreti
▁elementleri
▁İskenderiye
▁transistörler
▁tırmanış
▁gelirleri
▁körfez
▁prens
▁büyükleri
▁akarsu
▁Çernobil
▁Kad
▁Abu
▁kurmakta
▁izlemeyi
▁surec
▁What
▁flüt
▁yöntemlerin
▁Bren
▁papaya
▁şuurlu
▁Play
▁gıdaları
lediğinizde
▁dünyam
▁Alo
▁DC
▁mudur
▁örneğinde
▁sertifika
▁Ern
▁sermayesi
▁tapir
▁Hikâye
▁Ira
lla
▁Usa
▁patlamaları
▁kuramını
▁Dimitr
bao
▁okudukları
▁çözümleme
▁kazanı
▁sonbahar
▁söyleriz
▁Alternatif
▁gitmeliyi
▁ılımlı
▁yükseldiği
▁götürmeye
▁toptan
▁elemanları
▁dayandığı
▁girişimcilerin
▁hayatla
▁sloganı
▁Kimisi
▁ünde
ark
▁Aileler
▁çocuğunuzu
lattı
▁Bağış
▁sorsaydı
▁çalıştırmay
▁çin
▁odamda
▁rafine
▁katlanıyor
▁Gezegende
▁yapabil
ğiniz
▁kullanmadı
▁piller
mazsanız
▁ilginci
▁sıkıştırma
▁ısının
▁Mekani
▁yaptigim
▁Hristiyanlık
▁tanımlanır
▁evreninde
▁Darwinci
▁Siyaset
▁tabela
▁Pla
▁akışkan
▁yansıtmak
▁boyadı
▁otopark
▁kıtası
▁ekonomisinde
▁elementi
▁Solar
▁vardığımız
▁bulmamızı
▁Saga
▁cümleleri
▁tanıdığımız
ld
▁karşımda
▁aldim
▁kask
▁ulke
▁ihtiyaci
▁yakalan
▁ihtiyacimiz
▁cikti
▁yaptik
▁problemlerimiz
▁cocuklari
▁67
▁Oldu
seyler
▁ozel
▁bilmeyenler
▁bulmasını
▁çıkageldi
▁homojen
▁korteksin
▁muhakeme
▁primatlar
▁hesapladı
▁yiyeceklerini
▁akşamlar
▁görebilmeniz
▁frekanslar
▁uçuyorlar
▁doktoram
▁Doktora
▁arayın
▁alışılmış
▁borcun
▁Sokakta
▁umduğumuz
▁düşür
▁ulaştığım
▁arıza
▁üyeler
▁başlatıyoru
▁eklenmiş
▁oynayacak
▁Kullan
▁aletle
labilen
▁Özetle
▁düğmesini
▁sapma
▁yağdığın
▁sürüklen
▁cisimler
▁ezilmiş
diğinizi
▁Galaksi
▁kulağınız
▁demin
read
şim
▁Dünyamız
▁eylemini
▁kaybediyorlar
▁getirebilmek
▁çabalarını
mont
▁planım
▁partide
▁Toplantı
▁gözyaşları
▁bahsetmeyeceği
▁öleceği
▁uğrayan
▁yönlendirebil
▁atmayı
▁takmış
▁gelişmeleri
▁etkilemiş
▁muğlak
▁yoruldu
▁gezmek
▁kibrit
▁yaktı
▁baskılar
▁küçüktü
▁kızlarını
▁götürdüler
▁yarama
▁kutlay
rt
▁East
▁başladığınız
▁keder
▁Ebeveynler
▁çalışmıyordu
▁söylenmişti
▁Vergi
▁Hipok
tıcı
▁yetiştirmey
▁kitaptaki
▁dinamiği
▁Savaşları
▁Kahve
tmak
▁tekerleği
▁metot
▁oralar
▁hesaplıyor
▁Yüzey
ium
▁Geçiş
çoğumuzun
▁dağıttı
▁orgazm
▁tutulması
▁Koleji
lir
▁modeldir
▁konuştuğunuzda
▁Kare
▁kartların
▁yeteneğiniz
gram
▁Cor
▁hor
lemez
▁efektler
▁Filmin
▁Brother
ebilme
▁göstermemiz
▁tik
▁karakterlerini
▁uyuş
▁sonraları
▁belirme
▁üniforma
▁görünse
▁coşkulu
▁bulunanlar
▁isteyeceği
▁özgürlükleri
▁ölmedi
▁hekimi
▁şişmiş
▁farklılıklarını
▁esaslı
leştirebilecek
▁mercanları
▁yosunlar
▁görse
▁canımı
▁Baskı
▁Yetişkin
▁edebileceğimizi
mekten
▁laboratuar
▁düşünmemi
▁Birilerini
▁uçurmak
▁atlamak
▁inancını
▁alabileceği
SE
▁yaparsan
▁kısıl
▁maç
▁yazısını
▁Yayın
▁Tezahürat
▁Kanun
▁telgraf
▁pre
▁aktivitelerini
▁personeli
▁Kullandığım
▁hı
▁kılık
▁enzim
▁değecek
▁almışlar
cılığı
▁bulana
▁gazileri
▁kırıldı
▁zeminin
▁pişiriyor
▁pas
▁blokları
▁kabuklu
▁akıntısı
▁pozisyonu
▁yörüngesini
▁yerleştirir
▁patentini
▁kiraladı
▁Süreci
▁telefonunuzda
▁çeşitlerini
▁boyanmış
▁Ağır
▁okuyabilir
▁hiçbirinin
▁bilmeni
▁Elini
▁etseydi
▁ap
▁modelde
▁edebilmemiz
▁sebeplerini
▁kayaların
▁iklimin
▁gazlarını
▁tecrube
lme
▁almama
ug
▁BA
▁kay
uyorlar
ister
▁etkileyebilir
bilmesi
▁vak
▁hastalarım
▁yakındır
▁dörde
itha
▁tempor
▁hücrelerde
▁sormanız
▁lafın
▁kullansa
mazdı
▁105
▁sindir
▁kirlenme
▁soyları
▁mantarları
▁toksin
ius
▁duygularınız
▁Night
cell
▁ödediği
▁savunan
▁vereceğiniz
▁hemşireleri
▁tebrik
▁eczane
▁Festivali
▁havuzunda
▁beklediği
▁yüklenme
▁istenil
▁düşüncemiz
▁kullanılmakta
▁Pu
▁vakaları
▁zahmetli
▁Gökyüzünde
izse
▁Kusur
▁sınırda
▁firmaları
▁aciliyet
▁kazmay
▁başladıkları
▁havaalanı
▁kazandıkları
▁rağbet
▁diploması
▁ödeyecek
▁karanlığ
▁tozu
▁balığını
▁yakalayabil
▁desenleri
▁gaga
▁kaplumbağa
▁yaşamla
▁tasarladığı
ilişsel
▁yüzdesini
▁seferki
▁alınca
▁bulunacak
▁Hım
ilginizi
▁dâhi
▁buton
▁News
▁özgürlükçü
amadığımız
▁bahse
▁gazetelerin
▁doğusunda
▁temsilcileri
▁sınıfını
▁çalışmaktadır
▁savunul
▁Church
▁yalın
▁performansları
▁gördün
▁söyleyeceği
▁bale
ladım
▁geçerler
▁dansın
▁Koreli
▁müziksel
ih
▁kutlamak
▁sevmeye
lduğu
▁edeceğinizi
▁eylemci
▁kibarca
▁Pazarlama
umartesi
▁çevrimdışı
▁muamma
▁öğrendiklerinde
▁plazma
▁antikorlar
▁süreceğini
▁slide
▁başarılılar
▁gözlemledik
▁varyasyon
▁yapılmaya
▁elimin
▁geçebilecek
▁sağlandı
▁eklersen
▁kullanılabile
▁katılıyoru
▁taklidi
▁dök
▁McL
▁baktığını
▁sabırsızlanıyor
▁bağıntı
▁getiriyordu
▁adları
▁Pack
▁yoğunlaşma
▁sorunlarımızı
▁sanatla
▁yollama
ildiğini
▁bloglar
▁güneşli
▁simgeliyor
▁tasarlanmıştı
▁lü
leyebiliriz
▁çizelgesi
▁iskeletin
▁mikroskopi
▁uygulanıyor
▁duymadığınız
eigh
▁Mücadele
▁başardığımız
▁Katı
▁mineraller
▁değerde
▁bankalar
▁oluyorsa
▁videodaki
▁koşulların
hane
▁çaresizlik
▁telkin
▁erişme
▁tanıyabilir
▁düzenle
arda
LA
▁patronum
▁nesilleri
▁bakımda
▁çözünürlüğü
lanarak
▁yeteneğimizi
▁oturduğum
▁bitmemiş
skaly
▁masraf
▁indirgey
▁edemiyor
▁dönüştürü
▁ikilik
▁çıkarılmış
▁sars
▁dağlarda
▁cüce
orado
▁objelerin
▁çekirge
▁geliyorsunuz
▁yitirdi
▁kapandı
▁görünüşte
▁üzeriniz
▁Sırt
▁Donald
▁Bağ
▁Colle
▁götürebileceği
▁kapladığı
abilsin
▁çiçeğ
▁kaslarını
▁olabilen
▁konsantrasyon
▁çiçekleri
▁koçu
▁büyütüyor
▁Anthon
▁bilinmiyor
▁katliam
▁yoldu
▁yükselişin
▁raporlar
▁duruşma
ebileceğim
▁prensibini
▁bıraktığını
▁63
▁çalıştırı
▁bakmaktan
▁sergisi
▁kostüm
▁doktorunuz
▁Şifre
▁İbrahim
ntal
▁deneyimle
arsanız
▁elinizdeki
▁ilişkilerimiz
▁isteklerin
▁bank
▁sözkonusu
▁Politikacılar
▁turun
í
▁Anlaşma
▁duvarlarını
▁çimen
▁yalnızlık
▁geçirdiğiniz
ks
▁geçirdiğimiz
▁Columbi
▁zahmet
▁olabildiği
▁etkilen
▁zorlukla
▁kökünü
▁Çalıştığım
▁Hayatlarını
▁kıt
▁tutuklu
▁Yapabileceğiniz
▁birçoğunuzu
ig
▁döşeme
▁kulağın
▁bağırı
▁Gözlerinizi
▁kurtulu
▁restoranda
▁çuval
▁yeğenim
▁alevler
▁ıslak
▁evlatlık
▁sürüleri
gerçekleştiriyor
▁foku
▁kalamaz
▁çatışmalarda
▁haş
▁özdeşleştir
▁beysbol
▁kitleler
▁müzisyenlerin
▁kurtulmuş
▁üzerimizde
▁konseri
▁okulunu
▁oynadıkların
▁dövüş
▁değişimlerini
▁etin
▁ustalık
▁Liz
▁Kid
▁Pembe
lemeye
▁Tekerlekl
▁Yara
ugh
▁dükkanda
▁vazgeçi
▁limitli
▁vurmuş
▁düm
▁tebeşir
▁Korkar
▁öğeler
▁acısı
▁çekicidir
▁Bombay
▁beklentileri
leridir
▁cereyan
▁gözlerin
▁Cornel
▁analizler
▁mekaniğini
▁anlayamıyoru
▁spontan
▁öğreni
▁İpek
▁nakled
▁parçasında
▁enzimler
▁fikirlerinizi
şi
▁Photoshop
▁fotoğrafladı
▁viski
▁bulanmış
▁alındığı
▁ailemizi
▁bıçağı
mar
▁lisansım
▁Hayatında
▁gözükecek
▁kilometrekare
dale
▁dinleyicilerin
▁Hur
▁yardımlar
▁çiftçilik
▁Sera
arch
▁kaynaya
▁sinyalin
▁tespiti
▁edebilecekleri
▁yaprağı
▁devamlılığı
▁yayımladı
▁çipi
▁tavanı
▁konuşmanız
▁mimarı
▁İngilizler
çü
abilmesi
▁bakışta
▁tutabiliyor
▁bulmada
▁görüştük
▁getirebiliyor
▁Eksik
▁sonlandır
▁yararsız
▁işletiyor
▁Düş
▁durumların
▁birleşiyor
▁sorumuz
▁ellerimiz
▁koç
▁botlar
▁faydaların
▁laik
▁bütünlüğü
▁yeraltında
▁gizemin
▁kuruyorlar
▁gölün
▁Ruslar
▁aynalar
▁irtifa
▁Bilmem
▁sağında
▁haberim
▁Diyabet
▁bozuklukları
▁algılayıcı
inlediğiniz
▁Epey
▁paylaşmama
▁çıkarım
▁başkanları
▁Honduras
dad
rez
▁bastırmak
▁süreçlerini
▁Hollandalı
▁gizlenmiş
▁yiyebilir
▁taşırlar
▁faktörlerin
▁koltuğun
▁cenneti
▁yaralarını
▁düşünül
▁kondu
▁öğreniriz
▁uçur
▁laf
▁tuttuğumuz
▁hazırlanma
▁cebinde
▁yozlaşmış
▁vermiyoruz
▁hatırla
adikal
▁Araç
▁bağlantısını
▁döndürmek
▁Bırak
iv
ock
▁anlatımı
▁zirvesin
▁heyecanlanmıştı
ılınca
▁Viyana
▁buzdağını
▁iyileştire
▁kaplar
▁TM
▁bölümlerin
▁kırıl
▁yağmurun
▁ulaşabilecek
▁bilmeyi
▁Müşteri
▁tutulamayan
▁Fransızlar
▁kaydırma
▁tanıyı
▁İnsanoğlunu
▁Düşün
▁atıyordu
▁kayıtsız
▁yürünebilir
▁topluluklarını
▁Perde
▁çevirmen
▁hatlar
▁saatlerini
▁Kurumsal
▁belleği
ura
▁uzanmış
▁kurtulabilir
yandığını
▁Tren
▁sokmaya
▁gözenekli
▁yayılacak
▁sayar
▁sönme
▁Görmek
▁Senegal
▁yazmasını
▁İnan
▁komut
▁bombalar
▁askerin
▁gaziler
▁yarattıkları
▁yayınladığı
▁samimiyet
▁Langle
▁North
▁mantıkla
▁ödüyorlar
▁oyununun
▁Cat
▁aralarından
▁kaptan
▁Cod
▁Sui
▁anlaştık
▁retinanı
▁çalışmıyoru
▁bırakabilir
▁harcamaya
▁kano
▁izliyoru
▁edenlerin
▁yapama
▁elektroniği
▁vizörü
▁katıyor
▁sağlayın
▁azalta
▁annemle
▁Okullar
▁olanaklar
▁gömül
▁korkularımız
▁Wag
▁endişeleniyoru
▁yönelme
▁tedavileri
▁Ang
▁Villa
▁babamdan
▁kızımı
▁mahkumu
▁parılda
▁ulaşmasını
▁Ulaşım
▁tavsiyem
▁arazileri
▁cerrahları
▁Acu
▁söyleyebilecek
▁Little
▁stok
▁oturttu
▁unutama
▁geçmesini
lanmasını
▁uymuyor
▁görüşler
▁pano
▁Sağda
akut
▁çeyreği
▁roketler
▁Nevada
Ş
▁Tüketici
▁paneller
▁kopyalamak
▁İlişki
▁Hoşçakal
▁çevresi
▁Ple
▁eylemlerin
▁mekanın
▁Kamen
▁ulaştırma
▁keşfedi
▁karıştıra
▁Tartışma
▁uçtuk
▁suyumuz
▁lehin
▁atığı
▁santral
iyasal
▁döndüğümüz
▁önlemler
▁kimyası
▁toplamını
▁çam
▁başlamam
▁söylenece
▁kullanmanız
▁lağım
▁muson
▁Mahalle
▁sıkışık
▁Owen
▁karıncaları
▁bozonu
▁sıkışıklık
▁tahribatı
▁verildiğinde
▁getirisi
▁evsizler
▁derinin
▁hücresinde
ens
▁hissetmeniz
▁Nerde
▁kokla
▁semt
▁öğrenmem
▁aktar
▁Stock
▁Almanca
rsa
▁Daw
▁raporunu
labora
▁beklerdi
▁turta
▁süperbilgisayar
▁lütuf
▁kaybet
▁açıkca
▁rezervasyon
▁kapitalizmin
▁vermekte
▁mimarlığı
▁adres
▁vurguluyor
▁doğrusunu
▁öğrenmeli
dikte
▁eriyor
▁hoşnut
▁link
▁kalbiniz
melerini
▁Futbol
▁kek
▁standard
▁gıdalar
▁hissettirdi
▁imkânları
▁Rover
vatar
▁Bahamalar
tayı
▁haşere
▁düşünmesi
DK
▁imparatorluk
▁silahla
▁topraklarını
▁harfli
▁met
▁koyabiliyor
▁matematikçileri
▁Sorular
▁göremiyoruz
▁süsleme
▁93
▁korunması
▁yapmada
▁Kendin
▁filmlerini
▁bakıcı
▁kampanyaları
acagim
▁anketi
▁azaltır
umuzun
abildik
▁stereo
▁Odada
ebiliyoruz
▁yürüyüşü
▁mağdurları
▁gözlüğü
▁resmed
landır
▁tasarı
▁Seçimler
▁mahkemede
▁firmalarını
age
▁bitecek
▁mas
▁Hanna
▁izleyebiliyor
laboratuvarlarda
▁Papa
▁merhametli
▁Af
▁konferansı
▁açılışın
CE
▁bizleriz
▁köylerin
▁madenci
▁seve
▁makaleler
▁düzlem
▁aşinayı
▁telefonunda
▁egemenliği
▁kıdemli
▁yüzüşü
▁yüzücü
▁ızdırap
▁sıcaklığını
▁kazanıyorlar
▁teorileri
▁Mem
▁yaşlanmaya
▁fonksiyonlar
▁Yağ
sburg
▁çocuğumu
▁tohumlarını
▁cemaat
▁yüksekti
▁uygulanması
▁rakamı
▁kopuklu
▁Yorum
▁kamyonun
layacağım
▁almaktadır
▁Luca
▁kesilir
▁kullanmıyorlar
▁Kadin
▁yağdı
▁fırlatı
emiyoruz
▁keşfettiği
stein
▁NP
zo
▁soralım
▁yanılsama
kova
likler
▁Bitkileri
▁halletmek
▁Chad
▁bağlanması
▁mülakat
▁çıkardığınız
▁ihtimaller
▁çetin
▁May
▁sırtını
▁farkedeceksin
▁otlar
▁Eee
▁Telefonu
▁olabildi
▁sıklığı
▁sürüyordu
▁giyin
▁büyütmey
▁BR
▁dinazorları
▁aktarımı
▁bulunabileceği
▁tarlası
▁öbek
▁müdürünü
tacak
▁Bahse
▁güneyde
▁Otizm
▁cibinlik
▁yeryüzün
▁azalmış
▁etiketlenmiş
▁Gehr
▁bireyi
cıların
▁detayın
ladılar
▁ısırma
▁döndürme
▁buzullarda
lduğumuzu
▁metaller
▁kavrayış
▁Yunanlılar
▁nör
▁metod
▁elektrotları
▁evresinde
abiliyorlar
▁Liberal
▁ürünle
▁toprakları
mayacağınız
▁Merri
▁BC
▁tepesini
▁ameliyatta
▁atarsa
▁Tiyatro
▁koridor
▁parçacığın
▁merkezimiz
ator
▁dergilerde
iyel
▁fotoğrafım
▁ekonomileri
▁ekmeği
▁yatağını
▁yüzleşti
▁mürekkepbalığı
▁yaklaştığınız
▁toplumlarını
▁Feminist
▁temizler
ysek
▁Ada
▁ekseni
▁seller
▁bitirdiğimde
▁kapasitemizi
▁hadise
▁atleti
▁kortikal
▁ineği
▁laptop
▁Manyeti
▁Karşılıklı
▁biyolümines
▁CC
▁Çözüm
▁sahipse
▁sandviçi
chran
▁vereceği
▁şaşırmış
▁kaldığında
TEM
▁ısıtıcısı
▁olmasi
▁Morgan
▁sivrisineklerin
▁Douglas
mada
▁arsa
▁delilik
▁Mathe
▁Malt
▁bulduğumu
▁Rocket
▁ölçtük
▁atardamar
▁mesuliyet
▁Konuşmak
▁sonsuzluk
▁Furby
berry
▁Filistinliler
▁isteyemediğ
▁evlenmezse
▁Mou
TK
▁mağaralarda
▁Suz
▁kütleçekim
▁progeria
ıvı
▁ajanda
ydınız
▁kaybed
▁konuşamaz
mazsa
▁bombasını
▁slogan
▁kavra
▁girişimleri
▁şaşırtıyor
▁yapabiliyorsa
▁süpermarkette
▁satışları
▁Hükümetler
▁gerekenleri
▁uzağında
▁borçlu
▁saygınlık
▁Sokaklarda
▁Tuvalet
▁erkeklerde
▁düzenlendi
rın
▁kollarında
▁sürat
▁eğlenme
ğümüz
larız
▁Kalabalık
▁geçek
▁bozulduğun
▁Heyecan
▁uzunluk
▁telefonumu
▁olucak
▁çevirim
▁çalıştırabilir
▁Sıvı
▁arındırma
▁ölümünü
▁eğlendirme
▁inandıkları
▁bilimcilerin
▁düşüncelerimiz
▁birleşmesi
▁faydalar
▁İnsanoğlu
▁Bloom
▁durgunluk
▁esnaf
▁konumlar
▁gelmemişti
▁yapa
enos
▁kopyaladı
▁oranlar
▁uçmaya
▁gülüşler
▁öndeki
▁Jupiter
▁altıda
▁çıkarttı
▁yaydığı
▁gidermek
▁tarayı
▁taşlarını
▁kahramanım
▁tarihimizde
▁budala
▁ajansı
@
▁Kit
▁Soyle
▁sunumda
▁Gap
▁hizmetinin
▁bakim
▁cesit
▁yilda
▁bakin
▁odul
sever
irsiniz
lerinizde
▁Tesekkur
istir
▁dis
lugu
▁bizimkiler
▁başaran
▁düşüncelerimi
▁keşfedile
▁uçlar
▁Sanatçılar
▁facia
▁Muzi
▁Etkili
▁giderim
▁sıkışıklığı
▁bekleyecek
▁sınıftaki
▁ücretleri
▁standartları
▁yürürlü
▁biçimlendir
▁takılır
▁Karl
abildi
▁barındırır
yacağımız
▁destekliyoru
▁Hedefleri
▁partisi
▁anladığını
▁toplandık
▁Gölge
▁rahatlatıcı
▁Nash
▁ölümlü
▁Vajina
▁Fikirler
mışlar
▁gezdi
lip
▁özgürlüğ
▁korkuları
▁dayak
▁sığınağı
▁basında
▁Ru
▁vajina
▁genital
ok
▁iktidar
▁kabullen
▁kapıldım
▁vermeli
▁Gördük
▁fikirlerimi
▁kaldıkları
laşması
▁doğurur
▁tepsi
▁steril
ayan
▁eğleniyor
▁erdir
▁dul
▁izliyordu
▁gelenekleri
▁takar
▁sallar
▁İleride
gre
▁Grubu
▁tanışmış
tleri
▁şarkılarını
▁zorlandı
▁yeniliklere
▁iplikler
▁görmeme
leştikleri
▁sağlığının
▁mesai
▁sunucusu
▁gerçekleşebil
▁yapmayacağı
▁elçi
▁kuresel
▁seçiyorlar
▁alkışlıyor
▁yoga
▁getireceğini
▁Çağ
▁Geleceği
▁adaletsiz
▁erdemli
▁senaryoları
▁yokluğunda
▁fiziğini
▁direksiyon
▁JPL
▁batma
▁ziyaretçi
▁DA
rew
▁kapar
▁defteri
▁Sabahı
▁bilgisayarımı
▁bulurlar
▁utancı
▁Hamile
▁nitelendir
▁tanrıçası
▁akademisyenler
▁istemezler
▁dürtüsü
▁değiştirildi
▁kutluyor
▁Yarattığım
▁sayılıyor
▁eleme
▁yaşlılık
▁roller
likleri
▁cinsin
▁ışıkların
▁veritabanı
▁Gözler
▁87
▁aktörleri
▁edemiyordu
▁gerçekleştirile
▁Tutku
▁dakikası
▁saçı
▁şişme
▁bulunmaz
▁sömürü
▁ölmesin
▁sıva
▁yapılmıyor
▁süpürü
▁tabanını
▁mikrobiy
▁tansiyonu
▁hatıra
▁gülmek
cığı
▁genişledi
▁iddialar
▁uzantısı
▁ölenleri
▁vermelisiniz
▁aktarılan
▁etmedik
▁gidemez
▁girişti
▁ataları
▁Fuller
▁analizleri
▁esnekliği
▁Mantarlar
▁biyokütle
▁kabukları
ebiliyorlar
▁BP
▁sızıntısı
▁olursun
▁şişir
▁gözünü
▁birçoğunu
ueen
▁ağacında
▁man
▁Matthew
▁yaşamım
▁edecekleri
▁beklemediğim
▁Potansiyel
▁Sh
▁bağını
▁öngörüler
▁duvarda
▁parmaklarımı
av
▁hicbir
baharda
▁kariyeri
▁bakir
▁ilgilendirme
▁Motors
▁Bah
▁yakan
▁uygar
zen
▁Shang
cisi
▁fabrikalarda
▁mantik
▁cin
▁iletisim
▁getirdikleri
▁sekli
▁sürüklüyor
▁giyiyorlar
▁Rüya
▁pa
▁hastam
▁ke
iform
▁hücreleriniz
▁seviyeler
▁rüyalar
▁korkuyorlar
▁Millet
▁hece
▁paketleri
▁laboratuvarın
▁Bakterileri
▁afiş
▁uygular
▁hizmetinde
▁İdaresi
ebileceklerini
▁etmediğimiz
▁evlendim
▁davrandığı
▁bağlayacak
▁naif
▁yaşaması
▁başarısızlığı
▁endişelenmemiz
▁parasız
▁tanışıyor
ladığınız
▁patlar
▁planında
▁parmağım
▁biyoloğu
▁Solomon
▁şahin
▁kanın
▁öğrendiğini
▁Laur
▁gösterirse
▁önemsiyor
▁keşfedilme
▁duyacağınız
▁nicelik
▁oyununu
▁tarafımda
▁doğruluğu
▁Birbirimizi
zde
▁yıkıldı
▁hayranım
▁Ağaç
▁deyiş
▁sarılmak
▁yanılgı
▁işsizli
▁kaşifler
▁gerçeklerin
▁anası
▁ilerlediğini
▁fiili
▁bıkkın
▁odaklana
mışsınız
▁Yapmanız
▁dalın
▁Duvar
▁ölçüleri
▁ufuk
▁yıldı
▁titizlik
▁rakibi
▁kılavuzu
▁dokuzuncu
▁lo
▁satacak
▁piyasasını
▁emsalsiz
▁hastalıklarının
▁anımsıyor
▁modifi
▁Den
▁aylarında
▁etkeni
▁Tanım
▁kısmın
▁grib
▁bahsedebiliri
▁yoğurt
▁Malum
▁hissettir
▁Birileri
▁minimal
▁gelmediğin
40
▁imajını
▁anlayabilecek
▁öğretmenlerini
▁kot
▁duygunu
mamak
▁doğrultuda
statik
▁zannediyoru
▁sanır
▁dengesizlik
▁bulduğunda
▁sergiliyor
▁telaş
▁tipleri
▁demet
memiş
▁dişçi
▁etmişim
▁fırsatların
▁edilmiyor
▁Sorumluluk
▁ayarlıyor
▁Sigorta
▁ihracat
▁kalmakta
▁ağlıyor
▁bırakılıyor
▁sağlayabilirse
lıların
▁yaratabilecek
▁hoşlanmadı
▁bulabilirler
▁mahk
▁Swa
▁sızan
emedi
▁Papua
▁adaları
lıdır
▁düşüncelerinizi
▁Sözün
▁tanıtıl
▁tecrübelerim
▁saatimi
▁baktığımı
fred
▁manzaraları
▁sebebim
▁bırakılan
▁Demir
▁döktü
▁ceket
▁ölmekte
▁kapatır
uyduğunuz
ılmamış
▁uzaklaş
▁olabilme
▁deydim
▁kutum
▁nörolog
▁sarıldı
▁açtığında
▁ayarlar
▁yaratacağı
▁Burn
▁yetiştiricileri
▁müzikte
▁evrilmiş
▁ayık
▁kısası
▁kelebekler
▁erişebileceği
▁Şirketlerin
▁karmaşıklığ
▁Ansiklopedi
▁amerika
▁söylese
▁sevdiğin
▁Çıplak
▁yöneldi
▁İzniniz
▁edebil
▁dine
▁parçalanma
▁askıy
▁izleyicilerin
▁söylediklerinde
▁ölçeğ
▁yükselişte
▁savunucu
▁zorunluluk
▁göremediğiniz
▁imparatorluklar
▁yaşamında
▁becerisini
▁azalmasını
▁bakmamızı
▁müzesi
▁geçemez
▁kırıklıkları
▁zorlaştıra
▁finansman
nizm
▁geliştirmeyi
▁Ayna
▁öğrendiğin
▁kolunuz
▁modunda
▁döngüler
▁yavaşlar
▁ritimler
▁başlattılar
mes
▁Angola
cıları
▁topraklarında
hore
▁dükkanında
▁denemesi
▁verebileceği
▁enflasyon
▁yumurtalık
▁dayanak
▁Ann
▁kapsama
▁yerleşimciler
fiil
▁konumunda
▁liderliği
▁Ubu
ntu
mektir
▁değiştirmeniz
▁belirtmeliyi
azi
ó
▁filmim
▁masamda
▁Evlat
otelde
▁Cruz
~
▁umuyordum
▁büyükannesi
▁duruşu
▁mahcu
▁sevmişti
▁sevindi
▁dolaşıyordu
▁itfaiyeci
▁açtığım
14
▁Ton
▁Ryan
▁Sha
▁dağılma
▁çayırlar
▁kabiliyetini
▁Sayıları
▁doğacak
19
▁Yahudiler
▁çocuklarınızı
▁liberaller
▁Harri
▁etmeyeceğim
▁öldürdüğünü
▁başarılarını
▁palto
▁ateşkes
▁yağma
▁sürdürebilir
▁Sufi
▁Fred
▁barındır
vre
▁torunlarımız
▁Favori
▁Justin
▁Çevremizde
▁Cy
▁bilgimizi
▁telefonlarımız
▁bulaşık
▁anlatmam
▁koyması
▁kıyamet
▁bütünlük
▁istemeye
▁çöpü
▁hayallerim
▁süreçle
▁perspektifin
▁ağlıyordu
▁protokol
▁gerekçe
▁bilmesini
▁yapmaktadır
▁adlandırıyor
▁ceset
hr
▁dokusunda
▁metali
▁hurda
▁mekaniğin
EG
▁oklar
▁sıcaklığında
▁maddesi
▁ölçüsünü
▁yaptırabilir
kül
▁Kulesi
▁öğrenmesini
▁Kısme
▁satırı
▁şekilli
etine
▁şartı
lph
ağlayan
▁okulum
▁canlandırabilir
▁ormanlarının
lanmak
▁istemediğimiz
▁Yerin
▁otlak
▁marul
uğu
▁gölü
▁adalarda
▁getirelim
▁gid
▁azalttı
▁yapmadığımız
değiştirilebilir
▁Ter
▁olabileceğimizi
▁olamayacağı
▁açımızda
rake
▁dördünü
▁dağıtma
▁arayışında
▁Askeri
▁çözülmüş
▁aldın
▁yağmurlu
▁mektupları
▁müşterilere
▁Detay
▁duvarlarda
▁konteyner
▁tarlada
▁oluşturması
▁patronu
▁tasarlamamız
▁işlevler
▁Hayatını
▁network
▁ortalamasını
▁düşündüğün
▁sandım
▁beğenmiş
▁merdivenleri
▁daireler
▁ölümsüzlük
▁tetikleyen
▁taşıdığını
▁bota
▁mitokondri
laşmaya
▁oradalar
▁evrimleştik
▁sağlayabilmek
▁harcamış
▁kurulması
▁gerçekleştirir
mama
muşum
Sh
▁ekipleri
▁geçinme
▁Er
▁tanımlayacak
▁riskte
▁Nüfusun
▁şehirleşme
▁nüfuslu
▁istihbaratı
▁Süreç
ble
▁çalışmalarımda
▁mallarını
▁yüzüğü
▁ağrılı
▁dezavantajları
▁StoryCorp
▁affet
icha
▁Hatırla
▁konuştuğunuz
▁şekillendirdi
▁dönmesi
▁balonları
▁otoyolda
▁haklısınız
▁getirmektir
▁bitiren
▁inşası
▁Sıcaklık
ladığımızda
▁Giriş
▁Herbi
▁balinaları
▁gemisinde
▁platformun
▁ümidi
▁Paylaşma
▁sergileyen
ello
▁buluşmak
mezdi
▁girebilme
▁kesildiğin
▁üretebilme
▁botun
▁verecekti
▁yanlışlık
▁öğrenmeliyiz
ecekti
▁temizleyici
▁aşamalarda
▁ölçebiliyor
▁almamızı
▁aşağısı
▁birçokları
▁politikada
▁meslektaşlarımı
▁yanıtlar
▁seçimde
▁tuşun
ğımda
▁umursamaz
▁kolumu
▁sürükledi
▁birliktelik
▁kullanmaz
▁çıkabilece
▁rahatsızlıklar
▁anlatırdı
▁kazandıran
▁şirketini
▁çarpık
▁taran
▁sayıdır
▁kitabımda
▁Yapabileceğimiz
▁yapabilmesi
▁Vin
▁atıyorsunuz
▁mesajın
ket
▁olmada
▁sprey
▁Karşılaştığım
▁inanırı
▁koyuyordu
▁psikoterapi
▁iyileştirmeye
▁Gücü
▁yüzeyindeki
▁boyutlarında
▁ihti
▁Yüzeyde
▁ısısı
▁şartlarında
▁idealist
▁dinleyenler
▁faks
▁teorim
▁seviyedeki
unuzun
▁tartışıyorlar
▁kurduğunu
▁ütopik
▁denizciler
▁Moğol
▁affedersin
▁Ayı
▁Sinek
▁bahis
▁Beden
▁dilemek
▁sorması
▁Buffet
▁işlerinden
▁Fon
▁Oyunu
▁yoldaki
▁değiştireceğini
▁hatırlayan
▁rafta
▁yapabilmemiz
▁etkisinde
▁Görevim
amadık
▁yaşamımı
▁denediğimiz
▁Müslümanların
▁Yerli
▁Bazılarımız
▁çatışması
▁bahsediyorlar
melisin
▁suçluların
▁önerim
▁taşımakta
ota
▁sakınca
▁ölçebiliriz
▁olanaklı
▁iyileri
▁Chen
▁piksel
▁sorduklarında
▁korelasyon
▁yaşıyorsunuz
▁araştırmalarda
▁kısımlarını
▁işlediğin
▁Kasırgası
▁karartıcı
▁Kuzeydoğu
ilmek
▁batısında
▁sahilde
▁alg
▁Nino
▁çömlek
▁sağlayabiliyor
▁Anahtar
▁yuvarla
olmuyordu
▁fırlat
▁uçuşun
üsü
▁metrede
▁görmediğim
▁değnek
▁kabar
▁sapan
urus
▁kemiklerini
▁Indiana
▁koşullarında
▁deneyimimiz
▁zorundaydınız
▁sakinlerini
▁hatırlayacağı
▁yapımız
▁altyapısını
▁Fey
nman
▁araştırmasında
▁düzenley
▁kanalın
▁miller
▁harcanıyor
▁hesaplamayı
▁arazisi
kullanılabiliyor
▁madenciliği
strom
CA
▁karbonun
▁yenilebilir
▁kapatıldı
▁algısını
▁Eli
▁Hanım
▁anlayabilme
▁kuzeydoğu
▁anlamada
▁dokuların
▁embriyo
▁inorganik
▁kuma
▁yayıldığı
▁kıymeti
▁Bahçe
▁sporu
▁algımızı
▁içlerini
▁boruları
▁çıkardığım
▁getiriliyor
▁Lyn
▁lardaki
▁çekmiyor
emen
▁geçmeliyiz
▁Kızgın
▁gelebilme
▁kontrat
▁bölündü
▁ölçülebile
▁Mah
▁Kanıt
▁hissetmez
▁kaptır
▁Başında
▁dus
▁ozellikle
▁muhte
▁Amerikalının
06
▁gitmediği
▁Programın
▁shirt
▁Açı
▁yayınlanma
ester
▁belada
▁terketme
▁şeytani
▁Gezi
▁Rika
▁Karıncalar
▁konak
▁bahçeler
ebilirler
▁talimatları
▁atak
▁hafızası
▁anlardı
▁sevdiğimi
▁yayınlay
ngham
▁keşfini
salardı
▁gülü
▁ödüllendir
▁çıkarımı
leştirmenin
▁emirler
▁seçeneklerin
▁tüketme
ürler
▁finansı
▁gelindiğinde
▁dövmeler
▁mizahın
▁verebiliyor
▁tutuklandı
▁tatsız
▁Sonucun
▁Yolun
▁geçirmeyi
▁yanyana
▁gidecekti
▁kibir
▁biyoçeşitlilik
▁Kariyerimi
▁fişek
▁üretildi
▁korunmak
▁Hopkin
▁ayırdığınız
▁ulaştığınız
▁kârlı
▁onayı
▁etiketleri
▁ekranlar
▁prototipler
▁devrimci
▁kişilikleri
▁ırkını
Ç
▁küçümsen
▁yetiştirile
▁Rachel
▁tank
▁kurtarabilme
ıyorlar
▁Institut
▁düşünmeme
▁Kodu
▁Joy
▁Gazeteci
▁nezle
▁teyi
lkeler
▁müslümanlar
▁gelenleri
▁etmeliydi
▁anılar
▁verdiğimizde
▁önemliler
▁benimseme
▁yarattığınız
▁kuruyordu
leştirir
▁katılır
▁ittifak
▁Biyologlar
▁dağılır
▁hatırlamaya
▁bağlandığı
▁satıcıları
▁zıplaya
▁Maden
▁tıbb
▁tarihli
▁Öğren
▁zihinleri
▁oyu
▁hususunda
nstein
▁ışınlarını
▁Laboratuvarda
▁ufukta
▁sistemlerde
▁Ferm
▁bekledik
sunuyorum
▁avantajlı
▁yaratmada
▁ekonomilerde
▁maliyetler
▁altmış
▁Fotoğrafçı
▁cüzdan
▁kenarlar
▁paylaşabileceği
▁yeteneklerin
▁Nin
▁ürününü
▁Konferansı
▁Kuveyt
▁yaklaşmak
tıp
▁aylığı
▁partiler
▁gülümsüyor
▁Page
▁Bowl
▁çıkın
▁komünist
▁tığ
▁salyangoz
▁dinliyordu
▁inovasyonu
▁öl
otik
▁hatırlamanız
▁dillerde
▁alta
▁yık
▁oluşturuyordu
▁öp
▁Reklam
ins
▁basının
layabil
▁kanıtlıyor
▁yıldızlı
▁hormonlar
▁geçmeleri
▁ampulleri
▁sitelerde
▁muhasebe
▁ille
▁gerekliliği
▁Hart
▁Organ
▁hastalarda
▁bileşenin
▁Domuz
▁salgınlar
▁maksadı
▁gideceğiniz
row
kti
▁otobüste
▁göstermem
▁Beverl
▁ateşle
▁avcıları
▁yılanı
▁kapasitesinin
▁yoğunlaş
▁Ödül
▁kalıb
mond
▁şimşek
▁eksikti
▁sıcaklığın
▁domin
▁kaide
▁Malavi
▁öğrettiğimiz
▁kota
▁çıktığımız
▁yapılıyordu
▁salınım
▁soyundan
▁nehr
▁kullanımları
▁bulacaklar
▁konuşmayacağı
▁öder
▁servisinde
▁döndürebilir
▁ekmeğin
▁gruptaki
▁Rich
▁görselleştirmek
▁fotosentez
▁göktaşı
▁AT
▁işaretlerin
özüne
▁antropologlar
▁Tamamı
▁satıl
▁paternler
▁aşağılık
glo
▁Bağlantı
▁ücretlerini
▁anlattığımız
▁bildiklerimizi
▁bet
tip
▁dokuzu
▁Eco
▁ekipmanları
▁modası
▁heves
▁sürücüleri
▁benimse
▁anlaşmazlık
▁Yoksul
unuzda
▁Chev
▁anlaşmaları
▁dolaysı
▁dallar
▁Ağaçları
▁Arkamda
▁Değişe
▁Simetri
▁mikron
▁yaratılmasın
▁edebildik
▁stent
▁pist
▁ritüeli
▁aks
▁bozuluyor
▁topunu
▁Venezuella
▁tüysüz
▁platformda
▁musluğu
▁cebinizde
▁popülasyonunu
▁çevremiz
▁ağabeyim
▁katkıları
phon
▁eşyalarını
▁sevmedi
▁kimyasalların
▁adlandırma
▁biriktir
▁peçe
ust
▁tuttuğunuz
▁değişmesini
▁komutları
opter
▁İzleyiciler
▁elektrikle
▁filminin
▁CP
▁Cole
iger
▁Çiftçiler
▁katmanlar
▁masasın
▁bulabilecek
▁korkularımızı
▁puanları
▁Kusursuz
▁tolerans
kâr
▁eksponans
▁lineer
▁konuştuğumu
▁setini
▁mıknatıslar
▁yediğim
▁plastikleri
▁kablolu
▁yakıtları
85
▁tozun
▁yürümekte
▁döndürebiliri
elif
▁tamamlanmamış
▁401
▁zıplama
▁sıcağı
▁dusun
▁Alkis
▁devamında
▁ressamı
▁Swee
cret
▁ayısı
▁dinlet
▁uçurumda
abildiklerini
▁süperstar
▁Endeksi
▁çerçevesi
▁analoji
▁üstleniyor
▁toleranslı
▁hacmi
▁çipin
matik
▁İnterneti
▁açıkta
uyor
▁silindir
▁erotik
▁sürmekte
▁Homer
mdeki
▁olamayı
▁satı
▁Cehennem
▁Trini
▁Gözleri
▁ölçülü
▁iyiliğin
▁Cyr
matic
▁dipteki
▁kayı
▁inişi
gill
▁Male
▁Tugay
▁BL
▁kalkülüs
▁Pr
▁konvülsiyon
▁Mozambik
▁Bryan
▁bakımcı
▁şifreleri
▁zeplin
▁sandviçini
▁uğultuyu
▁sibersuçlular
▁silahsız
▁konuşacağımız
▁direnme
▁Pri
▁esaret
▁çöz
▁çözümlerini
▁korktuğumuz
▁satıldığı
▁eğitmey
▁hazırladılar
▁bisikletle
▁ateşini
▁hijyen
ğun
▁mikrobu
▁arkamızda
▁aksam
BO
ımdan
▁saklay
▁ünün
▁arabalarımız
▁düzeltil
▁Grey
▁hanımefendi
▁sözlüğ
▁vermiyorlar
sus
▁şehirli
▁mesafesinde
▁taktir
ario
▁Bilimin
▁görelilik
▁Anlam
▁görüşünüz
▁perspektifte
▁rotasın
▁yakış
▁kapattık
▁perakende
▁aşamasını
▁mahallesi
▁Boya
▁yaralanmaları
ct
▁ilerisinde
▁280
▁hattında
▁hazırladığım
ras
▁oluşumun
▁çekildiği
yager
▁Gök
▁penisilin
▁ulaştığını
the
▁olmayın
▁Heather
▁arkamdaki
▁Yay
▁Dol
▁yaşamımız
▁saglik
▁gecir
▁gidebiliri
▁mukemmel
▁isik
▁Kazan
▁gosteriyor
lemiyor
▁beyinler
▁erit
▁beyinlerinde
▁işlevleri
▁herbirini
▁çiğ
meniz
▁yemeklerden
▁Isı
▁gelişigüzel
▁gösterecektir
▁konuştukları
▁tetikler
▁sunumlar
▁zararlar
çılar
▁sektörlerde
▁göreceğim
▁mutlular
▁Alışveriş
▁çeşidin
▁efendi
▁aygıtı
▁geçişte
▁takıntı
▁titre
▁Uzayı
▁Ordusu
lığından
▁etkilendiğini
▁görebilmemiz
▁hesaplamaları
▁geçmişinde
▁Hiro
▁duyurma
rme
▁getirebilecek
▁Bett
▁Kaos
com
▁benliğimiz
▁uzaklaşıyor
▁hissetmeme
▁seviş
ınızla
▁plajda
mesinden
mişler
▁prodüksiyon
lanıyordu
▁gittiğimi
▁Düşünsen
▁atması
▁adlandırdık
▁hastanesinde
▁taşıdıkları
▁enformasyon
▁eğilimlerin
▁hain
▁koruyucuları
amanda
▁Cro
▁Alın
▁Beij
▁yazarlığı
▁gerektirdiği
▁eklendi
anları
hai
▁Ghan
▁avukatı
▁kurumunu
▁paylaştım
▁almaktan
▁harcamıştı
▁caddelerde
▁topladığım
▁itmek
▁karşılaşıyorum
▁gösterici
▁ilişkilendiril
▁söylendiği
▁makarna
▁uğraşır
▁sorumluyu
▁nezaket
▁döndürüyor
▁sallamak
▁yaklaşma
▁bacağın
▁fakülte
EM
kav
▁dereceli
▁IV
eceğinden
▁reklamlarda
▁aktörü
▁değmez
▁dönüşmüş
▁Birçoğumuz
▁alınmaya
hul
▁reddediyor
▁bozmak
▁şovu
▁önüm
üt
▁Gazete
key
rich
▁Pitt
▁yönetmenin
▁kaldırdık
▁bulunmadı
▁markette
▁vaktinde
▁teknolojisinde
▁kurabiliyor
▁ayrıştır
▁Yü
▁hedefleme
▁atıf
▁Sevdiğim
▁atasözü
▁taşıyıcılar
▁kentinde
▁kaderini
▁sorgulayan
▁Sophi
▁zarafet
rmak
▁unutmak
▁bağlarını
▁kampın
dıklarında
rod
▁köyler
▁sürdürmeye
▁teşhir
▁zorlar
▁nimet
▁güvencesi
▁yumurtalar
▁bölünür
▁adasında
▁mercanlar
▁çatlak
▁dondurucu
▁tükenen
▁tezgah
▁istemedik
▁Şükür
Spee
ografi
▁pornografi
▁kesişim
▁yaşla
▁milyarlar
▁kuleler
▁kadınım
▁yapmadık
▁kase
U
▁merdivenler
▁uygulaya
▁mensubu
▁Rahibe
▁aldıklarında
▁gö
▁parfüm
▁per
▁albümü
hh
arın
▁yaşındakileri
▁alabilirler
▁kategorileri
▁benliğiniz
ılmıyor
▁oturuyorlar
▁Okyanusta
▁görevlendiril
▁edersen
▁rüzgarla
▁tekniğini
▁süzül
▁Dönüş
▁karşılaşırı
starte
▁direği
▁prototipin
▁kull
▁korumalıyız
▁bilmedikleri
▁benzemesi
▁sevecen
▁Bizleri
▁Duyu
▁bardağın
▁kaybettiğiniz
▁tatili
▁Tebrik
▁bükül
▁gözlemi
▁botları
▁verecekler
▁Organiz
▁Dünyası
▁Pensilvanya
▁cikarma
▁pe
ucu
▁seye
▁Cinde
▁Dam
lendirmek
▁icerisinde
▁Diger
▁gidemedi
▁bagli
▁Great
▁uzere
▁yazi
▁koya
▁kurs
▁Dedik
▁yaşlarındaki
▁belirtme
▁Bonnet
▁175
▁yanınızdaki
▁masasını
▁birleşmiş
▁oluyorlardı
▁duyular
MRI
▁karikatürü
▁Başlar
▁Hayatınızı
▁edemeyecek
▁tasviri
▁sürükley
▁Hard
▁toplayacak
▁Öncüleri
▁şansımızı
▁indeksi
▁izliyorlar
▁kriterler
dığımızı
▁açıl
▁eğildi
▁uçaklarda
▁farklılığın
▁ayrışma
bileceğiz
▁yolunuz
▁tatilde
▁güle
▁aitti
▁genişletmey
▁Biliyordu
▁1700
▁teste
▁çekerler
▁71
▁teçhizat
▁arıyordu
lecek
▁sürüngenler
▁seçmen
▁deneyecek
▁deneyen
▁sinirbilim
▁kültürümüzde
▁marketlerde
ayağı
▁incitme
▁eriyi
ebilmemiz
▁sevdiklerim
▁gelsin
▁Ateşi
▁yaratabilme
▁kökü
▁yürüyecek
▁korkan
▁abartı
▁ödenen
▁tuzağ
▁otomat
▁seçiminde
▁işaretini
▁Valle
▁101
▁görüşte
▁Sıkı
▁drama
▁Saçma
▁cümlesi
yorsun
mezler
▁tanıyorsunuz
▁Kilit
▁Kumanda
▁tuttur
▁tasarımını
▁dize
▁Kuşlar
▁anlamları
▁Öğrencilerin
▁dünyaları
▁uyandırdı
▁sorduğunuz
▁yıkmak
▁göndermeyi
▁değiştirmişti
▁yenilenmesi
▁kala
▁Amacım
▁bankaları
▁hikâyelerin
cher
▁Prof
▁pandemi
▁kaybedil
▁milyonlarcası
▁bulguları
▁önünü
▁bulursa
▁Aklın
▁Tasarımın
▁Milan
▁Metropoli
iydi
▁sayfasını
▁kaçı
ıyorlardı
▁umuyor
▁katılmıyor
▁Yapabilir
tica
▁zamanınız
▁köpeğini
▁gereçler
▁simgeler
▁Robotu
▁alışılagelmiş
▁belirlemey
▁görselleştir
▁belirlene
▁etmediğini
▁havuzda
▁vasıf
▁ifadeler
sana
▁olayla
▁çölü
▁Cezire
▁Lib
▁durgun
▁yürüt
▁kodların
▁gösterebileceği
▁değişimle
▁istemediklerini
▁imajı
▁Bahsetme
emeyeceğimizi
▁maaşı
▁birleştirdik
▁Bank
▁Çocuklarını
▁550
▁diyebilirdi
▁gezdirdi
▁uyandırı
▁çırpma
▁ayıp
▁bitirebilir
▁gazetecileri
▁casuslu
▁Found
▁Fotoğraflar
▁karışır
▁idame
▁Kilo
▁kaybetmeye
▁verince
▁kurutma
▁Elli
▁ilgilendikleri
▁ayrılığı
▁meteor
▁Deprem
▁hasarın
▁Değişimi
▁oktav
▁uykuda
▁ilişkide
▁benzerini
▁ras
gele
▁ortamlarını
▁Center
▁salonlarında
▁parçaladı
▁sözlüğün
▁kurbağalar
sama
▁arşivi
▁boşluğunda
▁bırakmadı
▁saçını
▁yüzleşmeye
▁vuruldu
▁dengesiz
▁otopsi
▁hoşlanma
▁uzmanlığı
▁taramaları
▁bitenleri
tabilir
▁Arılar
▁çiçeği
▁ekme
▁Penn
▁başlıkları
▁kampanyalar
▁kümeler
▁şirketinde
▁karımı
▁Gerçeği
▁kurala
▁izolasyon
▁sorumludur
▁futbolu
sindeki
▁yurtdışında
▁sormuştu
▁varolduğu
▁ölçeğin
▁Ke
▁dağlık
▁yaptırım
▁azalmasın
▁biçimimiz
▁kayıtlarda
▁kuralın
amamış
şik
▁pahalıydı
▁yün
ndiğini
▁haftası
▁taç
▁görmelerini
▁cihazla
iyorsa
▁Romanti
▁ortaklıklar
▁Atalarımız
▁simülasyonun
▁becerilerin
▁hissederi
▁super
▁paragraf
▁yandı
uş
rürüz
▁Beslenme
▁hoşlanırı
▁çocuklarınızın
▁kesimini
▁başlamaya
maktadırlar
▁kaçmaya
aşırı
▁mallar
▁Jose
▁Brezilyalı
▁bulamıyor
▁Yoksulluk
▁buluşları
▁dedem
▁zeminde
▁ayıklama
▁Himalayalar
▁metaforu
▁Sanatı
▁komple
▁kütüphaneler
▁çalışıla
pal
▁öğreniyorum
▁yapabildiğim
▁katkılar
▁ünlüler
▁kanaat
▁dönemler
▁ölçülerde
▁duygularımız
▁affedi
▁mutsuzluk
ladığım
▁kaldıran
▁soğuktu
▁kapanış
▁bahsedin
▁yeğeni
▁yaşamasını
şan
▁bekliyorlardı
▁yatıyordu
▁ikramiye
▁düşünebileceğin
▁giysileri
▁dağlarında
ilebileceğini
▁Otomatik
▁çorak
▁klonlan
▁uyarılmış
▁durumlarında
▁Standfor
▁Show
▁Angel
▁mağlu
▁patladığın
▁korkularını
▁hatalarını
ktif
▁yönettiği
▁ressamlar
▁heykelleri
▁ortamlarında
▁yaratılması
▁tırman
pper
▁Home
▁erişebilme
▁şakalar
▁giyinme
▁salata
▁dedektörü
▁vücutlarımız
▁sahibini
▁göremez
▁çevremdeki
▁küçüğü
▁ortopedi
▁Cerrah
▁kimliğimi
▁üzereydim
▁yarattığım
emediği
▁Victor
▁kollarım
▁bağla
▁anlatmıştı
▁iyileşmesi
▁alemi
ib
▁gençliği
▁Sub
▁düzenliyor
▁incelediğim
▁bahsediyorsun
▁tomografi
▁düğümler
▁statik
▁kaydedebilir
▁Koşu
▁hologram
▁Who
▁iyileşir
▁basitleştir
▁böldü
▁barbekü
▁dilimler
▁sayılabilece
▁yıkan
▁aşıyor
▁gitmeme
▁bacaklarımı
▁kanadı
▁ailemde
▁duyduğunda
▁derslerinde
▁diyeme
▁gazın
▁biyoenerji
▁soyunu
▁yansımasını
cus
▁Kökeni
▁yayımla
▁keşfetmemiz
▁havuzun
imizle
▁yapıştırma
▁gerekliliğin
▁zıvır
▁anlayamadı
▁dekorasyon
▁buluşu
▁kedilerin
▁hiza
leyin
EC
▁değişkeni
▁çevirin
▁ikonu
dürücü
▁semptomlar
▁sit
▁semptomları
▁bağlanacak
▁Brazil
▁edebildi
▁deneklerin
▁heyecanlandır
▁kalanların
▁ilerleyi
▁hazırlıyordu
▁odalarda
▁tırmanır
▁Glenn
▁teminat
▁sahtekar
▁buzu
▁stratosfer
▁balonun
▁telsiz
▁bileğiniz
▁tutmamız
aldığınızı
▁Korn
▁74
▁hayırsever
ümün
▁kullanılacağın
▁düşmesini
▁yönetecek
▁adaletli
▁vahim
▁korkutma
gor
▁79
▁grubum
▁söylendiğin
▁nörobilim
▁Kurt
▁idik
▁kaydeder
▁söyleyecekler
▁romantizm
▁dinlen
▁rüyası
▁İp
▁gökte
▁balonlar
▁ettirmeyi
▁gönderebilecek
▁Too
▁Sihir
▁kemer
▁Gram
▁açıklarında
▁Dalga
▁programla
▁vücudunuzu
scor
▁kişiliklerini
▁mantığ
▁Şam
▁çark
▁mirasını
▁utangaç
▁ölçtü
▁duyamıyor
▁değişmiyor
▁Ormanda
▁dalların
▁sönük
▁saatli
ette
▁Vivi
▁yakınındaki
▁göstergeler
▁başbakanı
▁ağrıları
▁Sorumlu
▁torunlarımızı
▁edilebiliyor
▁harcamalarını
▁ameliyatlar
▁eğitiminde
▁Binalar
▁geçirile
▁ederlerdi
▁bulutları
▁Şapel
▁Ölçek
raliyet
▁yakınlaştır
▁Efektler
▁eyaletlerde
AC
▁çalışabileceği
▁kese
▁kısıtlayıcı
▁umutsuzluğ
▁Def
▁Rica
▁üstlen
▁genci
▁atıyorlar
▁kapatın
▁tanımları
▁Negro
▁özürlü
▁ustalıkla
▁Kahka
▁istediğimde
laması
lamasını
▁askerlerini
madığı
▁Viking
▁bağışlama
▁Jet
lüğ
iyorsun
▁Tepki
▁vektör
▁kazanım
▁grubumuz
▁yüzmeyi
▁Yüzme
▁gösterdiğinde
▁Fransisco
▁mucizeleri
▁tarafınızda
▁kemerleri
▁düşündüklerinde
▁devamını
▁haritaların
▁avukatları
▁çıkarıcı
▁gösterirdi
▁karşılaşan
▁yaşamımızda
▁dezavantaj
▁kazandırma
▁kapanmış
▁inandırma
▁İlişkiler
▁şaşırma
▁Kon
▁meclisi
▁buyrun
▁dayanma
▁Başbakanı
▁koşmaya
▁Liderler
▁öğrenciydi
▁üstümde
▁yaşardı
▁Başkaları
▁ettirebilir
▁doktorları
▁mimaride
▁hocası
▁kopmuş
▁ejderha
▁karmaşası
▁fuar
▁dairem
▁fırsatta
▁planımızı
▁bakmış
▁seyir
▁bulunmadığı
▁partiküller
▁yosunları
▁sahillerinde
▁morina
▁avcılığı
▁plankton
▁çit
▁bütünü
▁çöker
▁beklemeyi
Cit
▁masrafı
▁küçültme
▁olacaksa
▁uyandırıyor
▁mahsu
▁Auto
▁ılım
▁iktisad
▁uygarlığı
▁derinlik
anılıyordu
▁kut
▁selüloz
▁tesisleri
▁Kurzweil
▁güçlendirdi
▁tanınma
▁Büyü
liyorlar
tiraf
▁getirdiğim
▁Çiftçi
ooth
▁kullanacağınız
▁cezalandırıl
vasküler
▁Söylemey
▁unutur
ueens
▁gitmiştik
▁uyguladı
▁mesleğin
▁suikast
▁yelek
▁bölük
▁af
▁borçlarını
▁gösterileri
▁filin
▁motivasyonu
▁değişeceğin
▁Cong
▁kütüphanesi
musunuz
▁üniversitesinde
▁katlanmış
▁Yanımda
▁mümkündü
▁Goul
▁hatırı
▁Market
▁büyümüştü
▁çekeceğim
▁uçucu
▁bileşikleri
▁davranis
▁yapiyoruz
▁Ooh
▁uzmanlaşmış
▁mükemmeldi
sol
▁emre
▁Terminat
▁stajyer
▁dosyaları
▁davaları
▁üretmiş
▁Ph
▁mesleğim
▁büyürler
▁destekleniyor
istler
▁yükümlü
▁durmamız
▁ilgilendiği
ergey
▁vermeyin
▁elips
▁tutarsız
▁çamaşırları
▁onarım
▁soylu
▁boşveri
▁söylenmiş
▁sıcaklıkta
▁Görünmez
▁Best
▁dokunur
▁dönemdi
▁sormada
▁çat
▁içinizdeki
▁sahasında
nızdaki
▁pilini
▁kesiliyor
▁kontrolu
▁simbiyo
▁tahtadan
▁seyrek
▁gönül
rılmış
▁yıkıl
▁filizlen
▁değerdi
▁lokma
▁odamız
▁Jeo
▁tohumların
▁nakledil
▁yaşananlar
▁eşik
▁çöpleri
▁Kuş
▁stresin
▁çevrenizde
▁SA
▁gördüyse
▁pompalar
▁Tarihin
▁dönüştüğünü
▁aktardı
▁etek
▁yükledi
▁Çoktan
▁incelemesi
▁hibe
▁kültürlü
▁konuldu
▁rollerini
▁Hafıza
▁bozabilir
emezler
▁Tar
▁ogrendi
▁Garden
▁bitirmem
▁bitirmiş
▁tümünde
▁düğmeleri
gg
▁gençti
▁bahsettiğiniz
▁depolan
▁kabiliyetleri
▁plaj
▁İçi
▁iştah
▁dillerinde
▁yürüttü
▁gidişatını
▁spektrumu
▁Görüntüleme
rcis
▁şifrelenmiş
▁sıfat
▁açısında
▁kaybedeceği
▁Orwel
▁sözcüğün
lâ
▁Willi
oit
▁peş
▁miktarında
▁keşfedilmiş
▁amacın
▁ilerlemesini
▁kandır
▁görevlendirildi
▁düşürücü
▁vergisi
▁masraflar
▁doğdukları
laşır
▁denemeyi
▁Modeller
▁AS
▁denetleme
▁Eşi
▁taşıt
▁durmuş
▁Cami
▁ikonlar
58
▁korkuttu
▁duymakta
▁panel
▁evlerimiz
▁oynattı
▁felaketin
▁bağlayıcı
▁kavis
▁Thula
▁bitirir
▁ekiplerin
▁subay
▁kapıcı
▁Ty
▁Müze
▁edemediğimiz
▁inanmıştı
▁kıvır
▁biçimli
▁kümesini
▁aktivisti
ou
▁Farkın
▁mar
▁yüzmek
▁trafiğini
▁sosu
▁toplantılarda
▁meyveleri
▁komşularımız
▁ikamet
▁etkilemesi
▁sürmeyece
▁bakarlar
▁Marco
▁Çocukluğumda
▁öldürebilir
▁güveniyor
▁zincirleri
▁devral
▁yastığı
▁büyüle
▁remi
▁gelebilirler
▁Deneyin
▁Mutluyu
ildişi
▁haydut
▁taviz
▁sağlanabilir
▁Golf
▁yoğunluğunda
▁dalmak
▁dokunan
▁donma
▁aci
▁yanıtladı
▁dusunuyor
▁Otuz
▁Botswana
▁kedileri
▁Güneşte
▁önleyecek
▁okumuştu
▁olmasalar
▁sonlu
▁fırçası
▁Ingiltere
▁çektiğini
▁makalede
▁yapabildiğini
▁sıralanmış
▁istekler
▁peyniri
▁üçün
▁dergisin
▁trendi
lvis
▁çıkarlarına
▁Eames
▁çözümünde
▁cevaplamaya
▁rehberi
▁projelerde
▁hatıraları
▁iktisatçı
▁hamileydi
▁faydacı
▁Rivers
▁sitelerinde
▁olmayacaklar
▁sürdür
lis
ris
▁ulaşamaz
▁cezasını
▁depolaya
▁değerlerimiz
▁oluştuğunda
PA
▁bireylerde
▁umulmadık
▁Pra
▁yapışı
▁örgüsü
▁rolünde
▁bileşikler
▁240
▁ölecekti
▁dövizleri
▁kafesin
▁rupi
▁barda
▁nöbet
▁bilmeleri
▁asıllı
▁yıkma
▁tabloda
▁Konuş
▁yatırımın
▁yiyiyor
▁eğilimindeyiz
▁hazırlanan
▁indirir
▁yayıncı
▁büyüley
▁kötülüğü
▁geçirgen
▁araçla
▁torbası
▁muhasebeci
▁dinliyoru
▁Geliştirme
layacağını
▁senemi
▁uğraştığım
▁seçmenler
▁isabetli
▁ertele
▁sonuçlarla
▁yüzleşiyor
▁katlandı
▁muzik
▁Orkestra
ano
▁tümörleri
▁bozulmamış
▁aydınlatmak
▁önemseyen
▁alabilecekleri
maktan
▁olasıdır
▁kasabasında
▁metrik
SY
▁görmüyorlar
▁Pakistanlı
▁ameliyatları
▁sözlüğü
▁proses
▁tutamaz
▁cerrahı
▁kafatasında
▁depresyonlu
▁düzelme
▁değerlendirilme
▁kabuklarını
▁festivali
▁buraları
▁Hesaplama
▁katalog
▁tünelleme
▁proton
▁direncini
▁fener
▁tabanca
▁miti
▁belirleyi
▁Tiyatrosu
▁veritabanını
izüstü
▁Kanat
▁eşitliğin
▁elleriniz
▁Kuyruklu
▁dağcı
▁titanyum
▁kaybolmuş
▁söylenmesi
▁akımları
▁biseksüel
landıkları
▁sağlamaktı
sh
▁ritüel
▁Pic
▁ağacını
▁gözlemleyebil
▁Tümü
▁mükellef
▁muhbir
▁demokraside
▁kullanımda
▁unuttuk
▁reçel
▁kişilerde
▁Enstitü
▁komedyen
▁oturmaya
▁saygın
▁çipleri
▁guclu
▁içmeye
▁tütün
▁şiirler
▁delilleri
unuz
▁Faiza
▁Case
▁tekme
▁küpü
▁Kuz
▁yırt
▁körün
▁tarafların
▁peni
▁denemelerde
▁yapamayacağımız
▁ST
▁göçmenleri
▁Buralar
▁Bulutlar
▁kullanılmıyor
▁bük
▁Farkında
of
▁SM
▁şahıs
ofa
▁Çarpıştırıcısı
▁Kitapları
hamb
▁kayaları
▁ısıtıl
▁yusufçuklar
▁patlıyor
▁düşüncemi
▁katlamak
▁evlenir
PT
▁seçtikleri
▁güçlüğü
▁Sicim
▁harfin
▁ed
▁detayı
▁güzellikte
ska
▁adim
▁biftek
▁Cono
▁tapirleri
▁tapirler
▁gururlu
▁büyükannemi
▁gülmeler
▁faaliyetler
▁oranımız
▁köpekbalıkları
▁Caltech
▁Budrus
TP
▁Cord
lenmesini
▁neredeydin
▁kapan
▁Bonobolar
▁otizmi
▁Jeni
▁seans
▁Ekva
▁şempanzeleri
hirley
▁kartpostal
▁Spiker
▁sekans
▁uu
▁pigmentli
▁becerimiz
landırma
▁gerekebilir
▁Mini
zsek
▁katetme
▁medeni
▁çözmede
▁İslamcı
▁oluşturacağı
▁Planı
▁büfe
▁ilgilenecek
▁gebe
▁istemesi
▁yöresel
▁Özgürlüğü
▁başımız
▁inanabiliyor
▁kafamızı
▁kaşı
▁paramızı
▁alabilirse
▁yasaktı
▁istememiz
▁kullanırdı
▁olu
▁Cadde
duğumuz
▁Eğlenceli
ound
▁cocuklar
▁bilinçaltı
▁çözüyoruz
▁fırını
▁çözümümüz
▁enstitüsü
▁Gençleri
▁zamanımda
ünkü
▁Tanri
▁doruk
▁yerinin
▁zaferi
▁oturacak
▁Meydan
▁çalışacağını
▁sağlarsa
▁bilemem
▁içerecek
▁korudu
çilik
▁onaylama
▁kariyerimde
▁Şahane
▁harcamalar
▁750
▁havuzları
▁tayfı
▁gözlemledi
▁priz
▁tayf
▁yapabildik
▁hacmini
▁patlayacak
▁atomu
▁süpernova
▁çerçevede
▁kibirli
▁Insan
▁kahramanlarım
▁dünyaların
▁Lond
▁sessizliğin
▁ede
ginde
tti
minder
miyordum
▁rag
▁yogun
kul
▁soyluyor
▁suna
▁soyledi
▁aldi
▁dusundum
lukta
▁disinda
▁lazim
▁davranışlarının
▁çözücü
▁hesapladık
▁düzenlen
▁matematiğ
▁incelerse
▁kazandığını
▁vücudumuza
▁besinlerin
▁ideali
▁uzatır
▁yeterlilik
ıdır
▁düşürme
▁düşürür
▁Saatler
▁davranmaya
▁takıl
▁sonuçtan
▁vergileri
▁çalışacağımız
▁suçları
▁görüşümüzü
▁teleskobu
▁farkeden
▁Göreceğin
▁mahvetme
▁Saniye
▁İşi
▁kaynaş
▁hesaplaya
▁bakımın
▁çalışmaktır
▁yaramasını
▁durumundayız
▁yönetmelik
eceğimi
▁Müziğin
▁Şov
▁çıkamaz
▁karıştırır
rsınız
▁kılma
▁çektikleri
▁dönüştürmeyi
▁Bakan
emeyeceğini
▁toplamış
▁taşıyordu
▁yardımcısı
▁geldiğimi
▁kullanmıyoru
▁durumumda
▁vizyoner
▁bulabil
▁yıkamak
▁ateşledi
▁bulunduruyor
▁tasarladığım
▁kırılıyor
▁logosu
▁kurtarılma
▁kurtardığı
▁baskıları
▁olabiliyorlar
▁ebeveynlerim
▁Ran
▁yalvar
▁okullarını
▁okuyabilme
▁gülümsedi
▁başkaldırı
▁dışlanmış
ack
▁Umu
▁ritm
cılığın
▁Tayl
▁sardı
▁Ellen
lendiler
▁ilişkilerinde
▁Michelle
▁ör
▁kasım
▁çiftçisi
▁dokunaklı
▁sıktı
▁büyüttü
▁Robbi
▁tı
▁Barn
▁yasakladı
▁ödevleri
▁anlayışlı
▁kavanoz
▁banyoda
▁Orijinal
▁sarka
▁Kulağı
▁başlarının
▁çaresin
▁Well
▁prensiplerini
▁Yere
▁hareketliliği
cker
[...]
