<pad>
<unk>
<s>
<\s>
∇
τ
ú
ZZ
777
û
ë
\
̊
Č
ē
¿
ĂŤ
Ō
â
ì
XX
æ
¢
ć
İƏİ
İQ
`
ô
QQ
ø
ā
ê
อร
่
อย
Á
​
É
£
ï
ZX
ō
~
▁subjectiv
à
*
&
ä
ñ
QİÇ
è
▁estimat
–
̈
▁explod
▁advanc
▁balanc
▁illustrat
^
ã
▁ignor
@
explored
symmetr
quarter
terior
á
▁deconstruct
▁Anthon
▁ingenious
▁clitoris
▁sprawl
▁saturat
▁patron
▁Psycho
▁plural
▁opponent
▁heartbeat
▁subtract
▁Evolution
▁clich
▁CNN
▁1908
rmostat
▁loom
▁disparate
▁rigorous
▁distill
▁feasib
▁Orleans
▁Galile
▁Convention
▁discomfort
▁LGBT
▁repertoire
▁feminis
▁reservoir
▁Essential
▁Progress
▁elastic
▁giraffe
▁patriarch
▁Feminis
lateral
credit
▁Village
▁MBA
▁sniff
▁petrol
▁incubator
▁instructor
▁scour
▁electora
▁demonstrat
▁intellect
▁Cuba
▁delusion
▁honeybee
▁Enlighten
gatherer
▁primordial
▁homicide
▁paranoi
▁Grace
▁unpleasant
▁tyrann
partisan
▁utopia
▁ripple
▁sponge
▁Network
▁contradict
▁Cloud
▁socket
▁solemn
▁embryonic
▁photosynthesi
▁calculator
▁extremism
▁aspire
▁carpenter
▁gül
▁qapı
ölçülü
▁kamera
▁müasir
▁asılı
▁ibarət
▁səviyyə
▁mübarizə
▁yığ
▁təkrar
▁təqdim
▁için
▁səliqə
▁Darfur
▁whistleblower
▁Challenge
▁Friend
disproportionate
▁headphone
▁plume
▁premier
▁conscience
supervis
▁infuse
secure
▁Cameron
▁Massac
▁juni
▁hummingbird
▁homosexual
▁gorilla
▁servant
▁slamm
present
▁kindergarten
▁withdraw
▁convenience
▁Democracy
▁summon
▁marijuana
▁deflect
▁acknowledg
▁Millenni
▁bureaucrac
▁allocate
▁emulat
▁Netflix
▁PowerPoint
▁rhetoric
▁vicious
▁eliminat
▁catalog
▁Soldier
▁pornograph
▁queue
▁carcinogen
▁slap
▁skyscraper
▁McDonald
▁holistic
▁Murray
▁mundan
▁astonish
▁chord
▁Lawrence
▁unfamiliar
fetch
▁Algeria
▁reflex
▁unnatural
▁Genom
▁extremist
▁identification
▁vegetarian
▁Discover
▁populat
▁hurdle
▁monarch
▁Odysse
▁Perfect
▁brute
▁Francis
▁stagna
different
replicating
▁crochet
▁delegat
▁asylum
▁reprogram
▁bonobo
▁barbershop
▁knob
sanitary
▁capacit
▁superconductor
.000
▁narahat
▁səyahət
▁ideya
▁işlədi
vvəl
▁qaç
▁dövlət
▁əyləncə
▁balaca
▁hörmət
▁cəmiyyət
birimiz
▁mütləq
▁fakt
▁başlanğıc
▁Teacher
degree
▁announcement
▁horrific
▁anomal
▁applaud
▁optimal
▁tribute
▁plaque
▁cereal
▁Martian
▁Guardian
parent
▁heartbreak
▁recreation
▁millenni
▁tumbl
▁improvisation
▁inexpensive
▁Lanka
▁pneumo
▁Palestine
▁regulator
▁adjacen
▁turbulen
▁1.4
ippi
▁rainbow
▁distress
ovember
▁pivot
▁ambassador
▁tinker
▁radioactiv
▁superhero
nutrition
plausibl
▁royal
▁Politic
▁Taiwan
▁Fantastic
▁immersi
▁Virtual
▁recipient
▁warrant
▁Group
▁empirical
▁Dream
▁reckless
▁strap
▁appliance
▁lettuce
▁biofuel
▁altruis
▁Ukrain
▁interrogat
▁intestine
▁turbine
▁introduc
▁Safe
▁grassroots
▁Veg
withstand
▁mutant
ibera
▁Armstrong
retroviral
▁apparatus
▁Spider
frost
▁Shoot
▁Tamiflu
▁plutocra
▁Everglade
▁cihaz
▁rəqs
▁əsl
▁cümlə
▁Başqa
▁məşhur
▁qorxu
▁Nigeriya
▁qrup
▁qoyma
▁zəif
▁şəhər
▁işığı
▁söyl
▁çiçək
▁Picasso
▁delete
▁dictate
great
▁Conservati
▁Normal
▁draft
▁tectonic
▁equator
▁uncertain
▁unthink
▁sapien
▁multitask
▁Sydney
▁irregular
▁spawn
gnostic
▁excavat
▁algebra
▁Common
▁offshor
▁plunge
▁cheek
▁thunder
▁Sputnik
▁doctrine
▁commerc
▁metropolitan
sumabl
▁anecdote
▁fundrais
▁satisfaction
▁Current
▁decode
appy
▁firefl
▁juvenile
▁unaware
▁moderate
▁deteriorat
▁biodegrad
▁pediatric
▁Text
▁squeak
▁Defen
▁swirl
▁coworker
▁Guinea
▁ultrasound
▁collage
▁catalyst
▁refrigerat
▁Desert
▁irrigat
▁collaborat
▁vitamin
▁propagat
▁Excuse
▁activis
▁asphalt
counterintuitive
▁responsive
▁Major
▁provision
▁sulfur
▁cochlea
▁Nanopatch
▁commodity
▁unequal
▁fikirləşi
▁rəsm
▁inanılmaz
▁şirkət
▁təşəkkür
▁ədalət
▁diqqət
▁dəyişiklik
▁yaradıl
▁Həyat
cəksiniz
▁saniyə
▁Günəş
▁prosecut
communication
▁catastrophic
▁circum
▁sleeve
▁burial
▁cafeteria
▁disseminat
▁narrat
▁2016
▁glide
▁instantaneous
▁immigration
▁Short
lcome
▁accommodate
economic
▁premature
▁separat
▁Electro
▁orientation
▁Saint
▁pervasive
▁resort
▁taxpayer
munition
▁kidnappe
▁Though
▁energetic
▁redundan
▁glorious
▁throat
ronto
▁patien
confiden
▁Hyper
▁abortion
▁template
▁implicit
▁comprise
▁resonance
▁migraine
▁improbab
▁approval
▁resign
fashion
▁relevanc
▁Cooper
▁beekeeper
▁paragraph
social
▁hominid
sensitive
▁Empire
▁sync
▁cynic
▁pheromone
▁choreograph
▁jacket
▁Dallas
▁Pixar
▁Balti
ahedron
▁Window
▁Montana
▁hectare
▁Scratch
▁metronome
nterviewer
▁tərk
▁başlayır
▁burax
▁təsvir
▁saat
▁arzu
▁qeyd
▁sərhəd
▁otaq
▁çəkdi
▁altında
▁ərz
▁müsahibə
lbət
ngilis
▁nəzəriyyəsi
▁thorough
▁Student
▁Economic
▁immunit
competent
▁mortgage
▁CIA
▁Type
▁Control
▁superior
▁microwave
▁Oregon
▁excerpt
▁advertisement
▁releas
▁Buddha
▁Jacque
▁glory
▁vulture
▁Philippi
▁sneak
▁Exact
▁anthropolog
▁surge
▁counterpart
▁ruling
▁delicate
ermaid
▁compass
▁vapor
▁Serious
▁destructive
▁filament
▁nuance
▁hatred
▁temperat
▁biotechnolog
▁Forget
▁persuasi
▁emphasi
▁dwarf
▁graduat
▁orangutan
massive
▁occupie
▁feminin
▁matern
▁migrant
evident
▁epilep
educat
▁Hundred
Barack
▁Stewar
nourish
Africa
▁Simon
▁ingenu
ó
▁Father
▁exclude
▁complication
▁Depressio
▁Click
nanometer
▁nanoparticle
▁existential
▁Pantheon
piece
▁advent
▁timber
▁cabin
advert
▁invasion
▁unpredictabl
▁battlefield
▁laundr
_
▁ozone
Gowan
▁mammogram
▁CMU
▁düşünmə
▁istəyirdi
▁olduğumuz
▁gətiri
▁aydın
▁kasıb
▁içəri
▁kənar
▁peyk
▁araşdırma
▁öldü
▁Russell
▁Explor
▁eager
▁jealous
▁Amsterdam
▁consent
▁Merc
▁Cambodia
▁unimaginabl
▁treasure
▁curtain
▁Service
criminat
▁wreck
▁monk
▁reconnect
▁unacceptabl
▁symbio
▁prohibit
▁millisecond
▁wavelength
▁Radio
▁Colombia
▁Falcon
▁waist
▁archaeolog
▁pension
▁embark
▁quantitative
▁Klei
cientific
abbage
▁Ultimate
ithium
utilize
sleep
▁strive
▁sermon
▁confusing
▁Fire
▁caregiver
▁susceptib
positive
bladder
▁ignit
▁cognition
▁condemn
▁alternat
amma
disciplinar
▁meadow
▁sentiment
▁compensat
government
▁advoca
▁cathedral
▁intimidat
▁tutor
▁enslav
group
▁Ninety
cultural
▁Emil
▁Magazine
▁diminish
▁extrovert
▁dissect
▁regenerati
▁salmon
▁submarine
▁testimon
ibati
▁Ushahidi
▁calci
▁RIS
▁declin
▁mammograph
▁puncture
▁təyyarə
▁uçuş
▁qoru
▁xət
nsanlar
▁məsafə
▁üzərin
▁həftə
plain
▁anesthesi
▁genital
▁devastate
▁rival
▁resonate
▁unnecessar
▁regain
▁Secretary
▁Monday
▁biosphere
▁haunt
uestion
▁dissolve
utheast
▁Mahat
▁decentraliz
▁assault
▁technician
▁humiliat
▁lesbian
▁prejudice
▁polymer
▁grind
▁improvise
▁savanna
▁marshmallow
▁Copernic
▁abnormal
▁undergraduate
▁classmate
▁disparit
▁shield
▁essay
▁Pittsburg
▁execution
▁surplus
▁lesion
▁permit
▁cultivate
í
▁Georgia
▁fibr
▁secular
▁restorati
▁plague
▁neurological
▁crocodile
▁calv
▁marathon
▁reasonabl
▁autonom
▁boson
sembl
ctopus
▁compliment
▁parliament
▁conspirac
▁plumb
▁Swee
▁göstərmək
iyor
▁axı
▁müəllimlər
▁gülüş
▁qanun
▁sürətlə
▁qat
▁həqiq
▁dizayn
▁Məsələn
▁bölgə
▁yağış
▁fotoşəkil
▁bənzər
▁cənub
▁parçacıq
▁riyaziyyat
▁subsequent
▁modify
▁anxious
banish
▁chaotic
▁scroll
▁Skype
▁communis
▁tuberc
▁repetiti
▁modification
▁arbitrar
▁socio
▁obscure
▁reassur
▁differ
▁Arizona
▁timing
▁exhilarat
structure
▁measl
▁certificate
▁dentist
▁Margar
process
▁brainstorm
▁sensitivit
▁prevail
▁remov
▁recreate
▁bloom
▁album
▁nanotechnolog
▁introvert
▁Hmm
▁smash
▁graffiti
▁neocort
▁pancrea
=
▁smuggl
sourc
▁chemotherap
▁mash
ficial
▁deplet
▁Venezuela
▁contagio
▁neurogenesis
▁chick
▁tilt
frontal
▁autist
▁Whitopia
▁CRISPR
▁elektro
▁gələcək
▁razı
▁gətirə
▁təbiət
▁nümunə
▁dəyişmə
▁müşahidə
▁fəaliyyət
▁oğlan
▁kifayət
▁xəritə
▁anlayış
▁okean
▁dərin
▁ulduz
▁quruluş
▁iynəcə
▁hung
▁convincing
▁slip
▁guideline
▁Himalaya
▁fierce
▁visceral
▁Modern
▁Walter
▁cinema
▁catastrophe
▁grammar
▁atheist
wash
▁radar
▁stabilize
▁responsibilit
▁beneficia
▁singular
▁gadget
▁1989
resolution
▁intricate
condition
▁northeast
▁retain
▁scatter
craft
▁DARPA
▁plac
clusion
▁appoint
▁Certain
▁billboard
▁customiz
▁cerebr
▁calculating
▁choir
plus
▁reproductive
▁ladder
▁worship
▁respirator
▁miniatur
▁pharmac
▁urgent
▁bolt
▁Fried
▁mixture
▁Environment
▁recession
▁enabl
▁audaci
▁philosophical
▁interdependen
▁Bruc
▁minimize
▁evaluate
▁multinational
sustainabl
arliament
▁superpower
▁lamb
▁laboratori
uddin
▁telefon
▁dünyanı
▁əməl
▁incəsənət
▁adlandır
▁yaxınlaş
▁istədiyim
malıyıq
▁qolf
▁zəng
▁istərdi
▁dəyər
▁masterpiece
▁Risen
▁Connect
▁mutilat
▁Help
▁gaze
,200
▁coheren
▁shelve
▁fame
▁Jean
▁logistic
uke
▁headquarter
▁shepherd
▁prophet
▁glove
▁thrust
▁flick
▁Societ
+
▁puppet
▁grim
▁psyche
▁Vinc
aluza
▁snapshot
▁devise
▁cylinder
▁equilibr
▁maximize
▁intervene
▁folk
minded
▁beef
▁virtu
▁portray
▁embryo
▁hammer
▁alphabet
▁Thirty
plasma
▁cement
▁Ministr
▁province
plex
▁resemble
▁Nazi
▁correlate
conduct
▁patholog
▁disadvantage
▁parameter
centric
▁iPad
▁Oklahoma
▁pollutant
▁supercomputer
▁checklist
▁guerrilla
▁cybercriminal
▁niyə
▁Sonra
▁düşündü
▁yüksək
▁irəli
sanız
▁təhlükə
▁həşərat
▁edildi
▁məhsul
▁fraud
▁prosecutor
▁violin
▁Michigan
▁erupt
genesis
▁certifi
▁immerse
colonial
▁rob
worm
▁prototyp
▁ideological
▁affirm
▁dispute
▁southwest
▁unifie
▁wool
▁Similar
arriage
▁surrender
▁2,
▁fluorescent
front
▁Architect
▁irrelevan
▁inhibit
▁gamma
▁crank
▁Ground
▁watt
▁Wonder
▁Data
▁cream
▁controvers
▁Louis
▁swap
▁slope
▁cocktail
▁hamburger
▁flexibilit
percent
▁ethanol
Bay
▁Tower
alai
▁flame
▁Movement
▁commoditi
anyon
▁Public
▁statue
▁escalat
litary
▁ancestr
▁64
▁Auto
▁rhino
▁unsee
▁ambulance
▁vanish
▁Small
▁ALS
▁defect
▁indicator
▁Jamaica
walk
▁boost
hhh
▁rectangle
▁Alpha
▁Chuck
▁juggl
▁qəribə
▁biləcək
▁hadisə
▁olmağı
▁vəziyyət
▁qoyu
▁edilə
▁güclü
▁əldə
▁vasitə
▁Learn
▁elementary
▁praise
▁Nu
broad
▁hobby
▁terminal
▁romance
▁voyage
▁satisfie
▁racial
ulosi
▁Lago
▁confusion
▁hatch
▁digg
▁robb
▁bonus
▁butterfl
▁benign
▁obligation
▁volcan
▁hypothetical
▁46
▁shade
▁grape
▁embodie
▁lump
▁gallon
▁Large
orbital
▁flock
▁1.3
▁vagina
▁Bosnia
▁acute
▁syringe
▁mustache
▁imperative
▁gross
▁Patient
▁cease
▁antibod
▁flush
▁Daniel
▁elbow
▁steep
▁Jones
fact
▁52
▁bypass
▁bombsight
▁perceptual
100
▁blockchain
▁səth
▁ölüm
▁öncə
▁yüz
▁yaratmaq
▁qısa
▁ruh
▁görmə
▁səbəbdən
▁bilmirdi
▁qlobal
▁vasitəsi
▁görürsünüz
▁istiqamət
▁Bibliya
▁comprehensi
liberation
igital
▁Saturday
▁rust
grand
▁cockroach
▁apologize
▁Christopher
Aid
▁geological
▁hostile
▁corridor
▁embrac
▁ghost
▁anthropologist
shel
course
▁Beatbox
▁dismiss
▁Hindu
▁gigant
▁Mathematic
shift
▁Clear
▁cabinet
▁overlap
▁dispers
▁captiv
valuation
▁triumph
▁lawsuit
▁resilien
▁peripher
▁Cancer
▁monument
verbal
▁Phoenix
▁fingertip
▁spade
▁skeptic
▁calendar
▁pollut
▁asthma
▁Medicine
▁stratospher
▁collar
▁propagand
▁8,000
▁hollow
▁imperfect
▁Nathan
▁feather
▁postcard
▁swamp
▁carrot
▁Rica
vascular
▁Yellow
▁Leban
▁cue
AV
▁Arabia
▁Linux
▁metabolism
edici
▁prevalence
▁nəyi
▁etməyi
ördüyünüz
▁inanır
▁aşağı
▁bunları
çini
▁öyrəndi
▁müxtəlif
▁celebration
▁macro
▁Carne
▁envision
▁cafe
▁pave
▁meditat
▁suspicious
built
▁hotte
▁Shakespeare
▁submersible
▁duty
▁Climate
▁Namibia
▁perpetu
▁adolescence
▁Scientist
▁absurd
▁relativ
million
▁vegetati
▁rehabilitati
speak
▁divine
▁eternal
stein
kyo
spread
▁keen
▁Down
▁Nav
▁erase
▁exquisite
▁helium
▁Hawk
▁slogan
▁FDA
▁pleasant
▁doubling
▁Buddhis
▁Liberia
▁towel
fidel
▁algae
▁maneuver
▁hypothes
▁outdoor
▁textile
▁Hospital
▁nonprofit
▁misunderst
▁occupation
▁specimen
▁significan
▁unleash
▁zoo
▁oyster
▁dopamine
taircase
▁headache
▁squid
elphi
▁speculati
▁Kosov
▁leopard
▁flap
bundan
▁başlaya
▁böyü
▁oyna
▁gəz
▁əsr
▁izah
▁idarə
▁bilirik
▁təcrübə
effective
▁frustrating
▁Natural
▁Columbia
AP
▁Hubb
▁accompani
▁fracture
▁celebrat
▁capsule
▁sympath
▁Austria
▁Maria
▁incomplete
▁enlighten
▁invitation
▁adolescent
▁Case
▁Warren
▁1,500
▁silicon
▁Change
▁spike
▁43
fensive
▁famine
▁Siberia
▁stadium
12
▁neglect
▁larva
▁wander
▁opposition
▁confess
▁Senat
▁skeptical
▁98
▁cardiac
▁plea
▁authoritarian
▁25,000
▁obsole
▁metabolic
▁contemplat
▁taboo
▁Republic
▁fetus
▁virgin
▁enrich
▁sediment
traumatic
▁tactic
▁intrinsic
ius
▁expense
▁melod
▁Step
▁Recent
▁integr
▁brake
plat
▁cholera
invasive
▁replacement
▁characterize
▁cooperative
▁JF
▁Sylvi
▁guest
▁Journal
▁sovereign
plication
▁Alaska
▁Pete
▁Milo
inizi
▁özünü
▁əsər
▁təmin
▁Bunlar
▁məqsəd
▁özümüz
Ü
larımız
ılmış
▁edirdi
▁görmək
▁daxil
▁dörd
▁kənd
▁yəni
▁Interesting
▁guitar
▁Edward
profit
reedom
▁sweep
▁scholarship
skirt
▁extensive
▁dune
▁sexualit
openha
change
▁import
ump
Tech
▁spatial
▁reproduction
▁prim
▁manifestation
▁convention
qualifie
style
▁practic
▁microscop
▁Consider
glass
▁mammoth
▁transit
▁institute
▁harsh
▁Uncle
controll
▁epiphan
diagnose
▁Office
▁depriv
▁shatter
▁competitor
18
▁minimal
▁preced
▁underestimate
▁trunk
▁pesticide
▁fractal
▁31
▁niece
▁McC
▁straw
▁Machine
▁jungle
▁Somalia
▁Emma
▁commut
▁elevator
tolerant
▁sulfide
kinci
▁ifadə
▁müəlli
▁burda
▁görünüş
▁hekayələr
▁identit
▁snap
▁anniversar
▁fleet
conserv
securit
▁Sudan
▁summarize
▁Mexican
▁stereotype
▁revelation
▁thriv
▁victor
apped
▁intimacy
▁swarm
▁doom
▁Know
▁irrational
▁disabilit
▁resurrect
▁atmospher
▁innovator
▁optimize
▁fuzz
▁Kepler
▁Nai
▁guid
▁diarrhea
▁Computer
▁conquer
▁deficit
▁Development
▁Atlant
month
dental
▁1.2
▁rigid
▁soccer
▁Benjam
▁Robot
▁microbi
▁entitle
▁Nike
▁polariz
▁decent
▁Civil
▁Portug
▁correlation
▁sequenc
▁lethal
▁gluco
▁DR
▁yeast
quality
▁MR
▁janitor
▁foi
▁şəxs
▁təsəvvür
▁öyrənmə
▁bağ
▁etmiş
▁etməli
▁müəyyən
▁dərəcə
oyunca
▁ölçü
▁ingilis
▁Wolf
▁impulse
▁drama
▁spouse
▁courageous
▁blueprint
▁Commun
▁Johnny
bound
▁Nepal
▁SL
▁angel
closure
App
▁Government
▁petition
▁Milk
▁captain
▁Catholic
▁therapist
▁couch
▁premise
▁Mumbai
▁purple
ipping
▁Garden
▁schedule
▁holiday
▁Education
▁Elizabeth
▁Everest
▁Jupiter
▁exaggerat
▁admitted
▁evaporat
▁DVD
proof
▁Bern
▁Craig
▁velocit
▁distinction
Col
▁helmet
▁surgical
▁elaborate
▁prostitut
▁Probab
▁thus
field
incidence
▁constrain
ED
▁symbolic
▁turtle
▁abundant
▁similarit
▁funeral
▁mytholog
▁costume
▁transformati
▁crude
▁counsel
corn
%
▁greet
pago
▁entrance
rhythm
vril
▁edib
▁tamam
▁Təşəkkür
▁oyun
▁sənə
▁edirlər
izə
▁otur
▁göstərir
adlı
▁ölçülər
▁etdiyimiz
▁təxmin
▁istədi
▁ehtimal
▁düşünür
▁əhəmiyyətli
▁smil
▁unfair
▁legend
▁Financ
▁constitution
▁Business
▁Grow
▁whip
▁Tibet
▁spiral
▁stagger
▁vu
▁endeavor
▁persuade
▁vocabular
▁Sub
▁Map
▁Opera
▁Suppose
▁cheer
▁beetle
▁nasty
▁poke
▁Light
▁flipp
▁hint
▁Mean
▁stimul
▁spare
▁arrange
▁retail
▁pursu
▁fuse
order
▁negotiation
▁locomot
▁squeeze
▁harbor
▁reclaim
▁mosque
▁sauce
▁slipp
▁armor
▁replac
▁illuminat
▁Cost
▁rig
▁polite
▁vocal
▁toxin
▁explicit
▁stereo
▁bacteri
▁Santa
▁Clinton
▁journalis
▁PC
▁Tunisia
▁disgust
▁incarcerat
▁temple
osphere
▁genomic
▁Earl
▁isolation
▁Norden
angelo
▁favela
▁consensus
AL
LP
itcoin
▁RNA
▁sözlər
▁hissəsi
▁yerdə
▁Gör
▁yaradıcı
ğımız
▁şəkli
▁lazımdır
▁prior
▁alert
▁classical
▁Watch
▁exposure
▁defining
▁faint
lapse
▁1998
▁Librar
▁Scot
urricane
▁nitrogen
▁exot
▁annoy
▁Iceland
▁Berk
▁wow
▁Add
▁synthesi
▁96
▁kingdom
urgenc
▁circular
▁sake
▁crap
▁Indonesia
13
▁selective
▁1930
▁friction
▁Bhutan
▁pipeline
▁modifi
▁Libya
▁Happ
▁generic
▁ventilat
▁pric
▁dropping
▁belt
▁settlement
▁Thai
▁neo
▁acoustic
GM
▁basement
▁diverge
▁Jordan
▁vivid
▁separation
▁Nata
▁Laden
▁penis
▁scrap
▁empire
▁titan
mankind
▁reactor
▁valve
script
▁CR
▁strict
▁odor
rude
▁digitiz
▁trustworth
▁connectome
tez
▁axtar
▁rəqəm
▁bağlı
▁məşğul
▁gördü
imizdə
▁açıq
▁qüvvə
▁idiot
sense
▁storyteller
eigh
▁manag
▁Post
eopard
▁criteri
▁achiev
▁prince
ennis
▁redefine
▁manifest
▁doodl
▁protocol
imbabwe
▁coverage
▁assure
▁prospect
screen
▁multiply
▁translator
▁flesh
▁shoe
Fi
▁stunn
income
▁mum
▁priest
▁juice
▁arrangement
▁blob
speed
▁analytic
solv
▁council
▁girlfriend
▁modest
▁congesti
▁triple
▁nightmare
▁festival
▁devastating
▁Jenn
▁myceli
▁possess
▁horror
▁Free
▁remix
▁penetrat
▁compet
▁absence
symmetrical
▁substitut
▁insert
▁immortal
▁Kong
▁tapir
▁lak
▁qala
▁olmayan
▁edəcək
▁bacar
▁öl
▁elmi
▁göz
iyyə
▁proqram
▁ətrafında
▁yaşı
▁görünür
iylə
▁dictator
▁Fund
oil
▁swo
▁passage
▁riot
▁Brooklyn
▁cycl
▁stumbl
▁discriminati
▁genocide
▁Peace
▁uninten
▁tribal
worth
▁legitima
▁crab
▁destination
scape
AG
▁Venus
ncyclopedia
▁index
lvani
▁blast
▁Apri
▁flourish
▁fluctuation
▁Keep
▁1.5
▁rubb
▁precis
▁Stephen
▁shak
▁rubber
▁chew
▁mesh
▁revolutionar
▁sperm
▁denial
▁Philip
▁numer
▁bioluminescen
▁pizz
▁vulnerabilit
▁neuroscientist
▁synapse
▁artifact
▁cage
▁shrimp
▁disk
▁democrac
▁xatırla
“
▁üstün
▁texnologiya
▁hamısı
▁rəng
▁xoş
▁etdik
▁həmişə
▁gökada
▁realization
osis
eye
▁controversial
▁Rand
▁division
▁Audi
▁injustice
▁Spring
▁glimpse
▁Iranian
▁campus
▁delicio
venge
▁trivial
wrestl
tolerance
▁scheme
▁Pu
▁occupy
pecific
gger
▁jaw
▁grip
▁Mario
▁Roman
▁Penn
iller
▁grocer
▁lever
ata
▁friendship
▁lifespan
▁tiger
▁describ
horn
▁prostate
▁blade
▁Pretty
RA
nformation
eague
▁indigen
▁egg
▁infra
▁banana
▁propell
▁incentive
▁volcano
▁receptor
▁2030
three
▁tomato
▁punishment
▁dependenc
▁redesign
▁Disney
interest
▁193
▁Securit
spring
▁EM
▁regenerate
▁Rover
▁regulate
”
▁fizik
▁şəkillər
▁qayda
▁kainatın
▁kütlə
▁dili
▁Late
▁creep
▁pencil
▁reputation
▁democratiz
▁envelope
▁Histor
▁bleed
▁honey
▁Canadian
▁preach
▁deck
▁Sierra
▁Power
▁execute
▁Simpl
▁Jose
▁chef
▁pursue
wide
▁Brother
▁iceberg
▁mini
▁parasite
▁Kha
▁Tele
▁proposal
▁pirate
▁Carl
▁impress
▁rode
▁digest
▁refrigerator
▁forbid
▁divorce
▁Intel
▁proposition
▁impair
▁chamber
second
▁rethink
▁Medica
▁abundance
band
▁Laugh
▁warehouse
▁monster
▁nonviolen
▁hyp
▁SP
▁approve
▁incorporat
▁bay
kton
▁insulin
▁olması
əhv
▁dön
▁ətraf
▁kəşf
▁qeyri
▁loose
▁amateur
culture
▁yoursel
tuned
▁sibling
▁stigma
▁beaten
▁Hope
▁AM
▁initiat
▁Enceladus
▁350
▁emphasize
▁optic
▁nail
▁filmmaker
▁Mandela
eastern
▁Yo
▁Beij
▁downtown
▁kilogram
▁adaptation
cula
▁44
promising
▁November
▁devote
▁broader
▁peculiar
▁summit
▁assign
▁endanger
▁migration
▁belly
▁swallow
witzer
oline
▁popp
promot
ruct
▁Water
▁6,000
▁fatal
▁unemploy
▁bamboo
▁Watson
▁executive
▁censor
▁ambigu
▁cliff
▁Media
▁Colo
▁Rose
touch
▁obtain
▁cigarette
▁proceed
▁preference
▁subsid
▁innovate
▁Republican
▁LG
▁threshold
▁Bali
▁qəbul
▁sözü
▁daş
▁dünyanın
▁qərar
▁təşkil
▁imkan
▁dəyişdi
▁kişi
▁Moz
▁miserable
▁cosmolog
▁warrior
▁exceed
▁arc
▁accura
▁crater
▁converg
▁pond
▁Albert
▁Gree
▁illustration
▁workshop
upreme
▁decid
▁container
▁harmful
▁satisfy
▁Allah
▁pedestrian
▁chemist
▁calculus
▁centimeter
▁maximum
▁indoor
▁2002
▁recall
▁Swiss
▁stamp
write
▁conceptual
law
SD
▁casual
▁configuration
step
▁substantial
▁slim
▁fertilizer
▁basketball
cycle
▁Build
▁Lead
▁Dah
▁appreciat
▁metric
▁Geographic
lub
▁tagg
▁trailer
▁Coast
▁Compan
▁Julia
▁pigment
▁cellphone
landı
▁söz
▁uyğun
▁ulduzlar
▁contest
▁suppress
minute
rich
▁starv
▁Snow
▁2015
▁Android
version
shirt
▁Story
▁hug
▁Johnson
▁visualization
▁drain
▁geographic
▁Apollo
▁optical
▁synthesize
▁awake
▁navigat
world
77
regulat
violet
▁Camp
▁cruel
▁segment
▁1900
literate
▁Half
▁electromagnet
clock
▁debri
position
▁approximate
▁retreat
▁playful
weight
▁Euro
▁aggregate
▁intensive
▁payment
▁Academ
▁Roo
▁delay
▁independen
▁specialist
orient
▁hypothesis
▁hallucination
▁Organiz
▁skelet
▁RS
▁liberat
▁deposit
▁60,000
▁dough
sız
▁xəbər
▁maraqlı
▁tələb
ımızı
▁qaz
▁verir
▁vacib
▁uç
▁update
lmost
▁Stop
▁Lego
▁criticiz
▁airline
▁aunt
▁attractive
▁Inter
▁herita
▁accelerate
▁Live
▁Try
▁accent
▁excess
▁geek
▁sufficient
▁Social
▁heavi
▁whisper
▁moralit
▁loving
▁deepest
▁pursuit
▁parachute
▁atomic
▁gorge
▁prayer
▁Twenty
elect
▁blink
gli
▁Mountain
▁40,000
drive
▁chimp
▁membrane
MW
▁surf
bacterial
▁enzyme
▁diagnostic
▁fortune
▁clon
▁Brian
zero
▁contrar
▁introduction
▁Singapore
▁manipulate
▁accountabilit
▁Greenland
▁glamo
▁nöqtə
▁deyildi
▁ehtiyac
▁bunlar
▁dragg
▁punish
▁oppress
▁corrupt
adequate
▁investigation
▁despair
▁teenage
▁mappe
▁grabb
▁syndrome
▁archive
▁phenomena
▁Telescope
robi
▁Democrat
▁frontier
▁torture
▁duck
racing
▁insane
creat
adays
▁Accord
▁42
▁cosmo
▁erect
▁toast
▁backyard
frame
▁phenomenal
▁pixel
▁wheat
▁lobby
▁exclusive
▁troop
▁outbreak
▁sidewalk
▁800
flow
▁episode
▁transistor
▁synchron
▁pride
▁nerd
▁nurtur
▁whistle
nforcement
▁contaminat
▁carpet
▁Jona
▁forecast
stage
▁drown
▁selfish
▁flaw
▁SE
width
▁libert
▁Lester
▁ES
ünüz
▁keçir
▁hesab
▁üç
▁başa
asında
▁arasında
lərindən
əzə
▁gəldi
▁inkişaf
▁Van
▁desktop
▁Young
▁Sound
▁rose
▁veteran
▁Bronx
▁quantit
▁Alex
▁millimeter
▁recogniz
▁formation
▁examine
perform
▁Creat
▁singer
▁sport
▁logo
▁unhapp
▁thrive
cast
▁chunk
▁mutual
▁depict
▁naive
▁striking
ectar
▁texture
▁Lord
▁pregnanc
▁requirement
shape
xcept
▁dumb
▁fad
▁Op
acco
▁diameter
▁chronic
▁Coke
▁suburb
▁integrate
▁artwork
▁operator
▁TEDTalk
▁displace
▁jewel
▁reinforce
▁Brad
▁tongue
▁Acc
▁jur
▁blindness
▁infectious
▁pathogen
▁advers
▁hara
▁Detroit
▁Yemen
▁Parkinson
▁SW
aeda
▁protocell
▁Redwood
▁şəkil
▁parça
▁fərq
▁məsələ
özüm
▁mümkün
▁uzun
▁yolu
▁Korean
▁Hav
▁Under
▁Tanzania
itz
▁minus
▁orphan
▁strain
▁Archi
▁realistic
▁blogg
▁steer
▁addiction
▁encouraging
▁virtue
▁fusion
▁arise
▁reproduce
▁commit
▁sculpt
▁Wait
▁tune
▁spray
heart
▁principal
▁manuscript
▁canvas
active
▁200,000
▁System
cost
▁hybrid
▁deliberate
▁junk
14
▁workplace
▁29
▁drunk
▁Carolin
▁antenna
generation
▁Seattl
▁influen
▁decorat
▁millennia
▁bedroom
▁branche
wandering
▁Stage
TI
▁chase
▁Bizi
▁apar
▁Burada
▁götür
ütün
mışdı
▁mövcud
▁güc
▁gəlmə
▁Amerika
▁kainat
▁marvel
▁reporter
▁upward
▁CD
▁Sudden
▁Department
▁Rock
▁frustration
▁dispos
▁rear
▁intimate
known
▁frog
▁appearance
keep
▁overwhelm
▁referr
▁marketplace
▁immigrant
new
▁Edi
▁suspend
▁computational
▁argu
▁gig
▁Joe
▁harness
▁span
▁unfold
▁relax
▁encode
nergy
▁collaborate
lider
▁drought
▁ironic
▁mainstream
▁statistical
▁historic
LA
ealand
▁elegant
four
▁Citi
▁hunter
▁lowest
▁hardest
▁harmon
▁Church
▁Sunday
▁Gar
▁margin
▁Tur
▁Still
▁Shanghai
▁scaffold
▁submit
▁prescription
▁foster
▁AI
▁wheelchair
▁detection
▁pup
▁həyatı
▁xüsusi
asına
▁Dünya
▁bilərik
lərimiz
▁sahə
▁gələn
▁olardı
▁kömək
▁supermarket
▁Michel
▁ongoing
▁grateful
efficient
▁mall
▁pun
function
▁horizon
▁Cassi
▁goat
▁sneaker
ollege
▁fantas
blew
▁retirement
▁magnificent
▁architectur
▁drift
▁composition
▁precious
▁merg
▁Square
▁unlock
▁ethic
▁racis
▁helpful
▁verb
▁inhabit
▁iPod
▁compress
▁geograph
produc
▁distinguish
▁gravitational
▁cake
▁monsoon
itting
found
▁Neanderthal
▁30,000
▁impressi
space
▁mobiliz
▁Hill
▁Mik
direct
▁sponsor
▁civilian
▁minimum
▁Eight
school
▁spontaneous
▁static
▁mood
▁compromise
▁schizophreni
▁Berli
▁retire
▁yoxdur
axşı
əbii
məz
▁olduq
▁müddət
▁geniş
▁işıq
▁Play
▁wrap
dministration
▁clos
▁stomach
▁resilienc
▁manner
▁horizontal
▁terra
▁fault
▁mud
▁comic
▁territor
▁calm
▁Pal
▁55
▁impression
▁invad
▁native
▁electro
▁circulat
▁Court
▁crawl
▁aggressive
▁quest
▁Koran
▁temporar
▁potato
▁uncertaint
▁Fortun
▁squa
▁Leonard
▁pie
▁glow
▁resolve
▁serving
▁hierarch
vian
▁tale
▁celebrit
▁bounc
▁innocent
mart
related
▁Bangladesh
▁cube
▁logg
▁Harr
▁ooh
two
lah
▁sahib
▁dəqiq
▁mövzu
▁musiqi
▁fikri
▁yarı
▁uzaq
▁Hər
▁tempt
▁interpretation
▁outrage
▁enterprise
fast
▁Dutch
▁server
▁determin
▁dawn
▁visualize
▁Sara
ggle
▁elevat
▁astronaut
▁unconscious
▁Homo
▁suggestion
▁Absolute
▁believ
▁realiz
▁Moor
▁grandparent
▁concentration
▁Eastern
person
▁entry
▁minorit
▁champion
▁barrel
▁wider
▁2020
arrow
▁rebel
pox
▁triangle
▁register
▁MRI
▁spill
chu
evel
▁Chile
▁align
▁rope
▁diamond
▁cotton
▁Bell
▁Woo
▁rabbi
▁declar
▁pandemic
▁wedding
▁confine
▁germ
▁nutrition
uk
▁Jane
▁contradiction
▁strategic
▁soap
▁olub
▁məlumat
▁qaranlıq
▁biləcəyi
▁görür
cou
▁Open
▁Work
.5
estate
ogue
▁knife
▁shine
▁psychiatr
▁Out
▁altitude
▁vent
▁wrapp
▁flute
▁Profess
▁hub
▁reduc
▁silver
▁transcend
free
material
convenient
▁deriv
▁Monte
▁glad
▁vaccinat
▁General
▁commission
▁transaction
▁lap
▁mill
▁occasion
▁Scr
▁Yal
▁imitat
▁frequent
▁Bol
▁leather
mağı
▁kitab
▁bilmir
imizi
▁günəş
▁shit
▁pant
▁woke
scope
▁homework
▁Minister
venue
▁Henr
▁exhibit
▁valley
▁spoken
▁Josh
osity
▁gang
▁Taliban
▁inherit
▁Obvious
▁Nel
laughter
▁blend
▁valid
▁ignoran
▁mapping
ote
▁conf
▁tendenc
▁drum
▁astronomer
▁Kev
▁poly
▁physiolog
▁auditor
▁kidney
▁custom
▁uniform
▁Spanish
▁genuine
▁Gandhi
▁refine
stream
▁Gates
▁aspiration
▁utilit
▁Port
▁float
▁thread
finite
▁pathway
▁experimental
▁baseball
▁tattoo
▁Marc
▁canopy
▁entrop
izi
əlkə
▁tərəf
asını
diyimiz
▁happi
▁documentar
▁warning
word
▁homeless
▁Bab
▁portion
▁compassionate
▁distort
▁endless
human
▁rape
▁awkward
▁substance
iful
▁Pop
▁makers
▁civic
hip
▁logical
▁happie
▁sheep
▁curriculum
▁batter
▁scholar
ueen
▁winning
▁entit
▁theoretical
▁85
▁critic
▁ideolog
▁intersection
▁tsunami
▁convey
▁dri
▁reinvent
▁Brown
▁participant
shot
▁irre
▁wrist
▁manual
▁fence
▁equit
▁dilemma
▁expectanc
ndustrial
rane
▁hələ
ıram
diyim
iyyat
▁gözlə
▁artıq
▁təhsil
dığımız
əsində
▁keyboard
racy
▁nuts
▁calorie
▁default
▁romantic
▁weekend
▁grasp
▁educate
▁interconnect
▁Ethiopia
▁humanitarian
▁representative
▁insist
▁Walk
range
▁Febr
▁Nick
hou
▁Asian
▁clay
▁mysterious
▁rotat
▁annual
▁vibration
▁collision
▁collaborator
▁jar
▁via
▁subway
▁lonel
▁primate
cker
▁LED
▁Florid
▁ethnic
▁agricultural
▁purchase
▁diagnosi
▁burie
▁Hawaii
▁Brun
type
▁deforest
▁formula
buna
▁oxy
ocin
▁səs
▁baxı
▁nəzər
▁məni
lamaq
hole
▁microphone
▁violat
▁typ
▁paralyz
▁spacecraft
▁stabilit
animate
▁forgive
▁scanner
▁Luc
▁March
▁Gala
▁intrigu
▁gentl
▁competitive
▁agreement
▁Palestinian
▁venture
ssociation
▁transmit
▁astonishing
▁Third
▁Tony
▁bush
▁Council
▁translation
▁lamp
▁ego
▁Mala
▁generous
▁Listen
HC
▁furniture
▁0.
▁contribution
▁internet
▁tent
▁viral
▁automobile
▁brick
▁pipe
▁Argentin
▁AB
▁hansı
▁Mənim
ündə
▁özü
ıdır
▁sizin
▁fərqli
laşdır
▁onların
ərkə
liyin
place
▁excuse
▁bribe
ku
▁upload
▁Hall
▁twist
▁ceremon
▁shelter
▁fate
▁hackers
▁terrifying
▁thrill
▁defeat
▁2001
uthern
▁brutal
▁reflection
▁patch
▁shin
▁journal
▁Islamic
▁bullet
▁east
▁upside
▁Nic
atrix
▁shrink
▁donor
▁Men
▁profession
engineer
▁navigate
▁punch
▁August
▁4,000
▁Sure
▁distract
▁routine
▁glue
▁augment
▁sensation
▁gase
▁gear
▁intens
▁specialize
▁spell
▁electrode
▁sandwich
▁connectiv
nda
▁nəticə
ırıq
▁üzərində
▁əslin
▁lazım
▁sağ
▁əlaqə
▁maşın
▁meydan
▁devil
▁mineral
▁restore
▁Bee
▁tragic
▁collaborative
▁vacuum
▁gathering
friend
▁ubiquit
▁descend
▁sink
▁urge
▁interior
▁Vietnam
▁Charlie
▁simulate
▁Dece
▁emit
▁Little
▁Maldiv
▁compell
▁crystal
▁automat
▁Alexand
▁Child
▁passive
▁neck
▁personaliz
▁adam
▁deaf
▁dövr
▁görün
düyü
alı
▁storytell
▁None
▁overwhelming
▁stole
▁inflat
▁shopp
▁bathroom
▁coach
▁dear
DI
▁preserve
vatar
▁Kim
▁healthie
▁panic
▁survivor
▁upset
vity
▁Northern
ER
▁detector
▁programmer
▁fulfill
▁lean
▁Oxford
▁pause
pple
▁sew
▁format
▁trash
▁Soviet
▁ecolog
▁verdi
▁gözəl
▁qalaktika
made
▁galler
▁legislat
▁luxur
▁shore
part
▁golden
▁determined
Corp
▁Eric
▁Should
▁bizarre
▁linear
▁leaf
▁merc
▁confirm
▁prosthetic
▁garage
▁disabl
▁flavor
▁hitting
▁fragile
▁gradual
▁consist
lace
▁Newton
▁rotate
▁bath
▁variable
▁migrat
▁eliminate
▁fifth
▁marry
▁reliabl
▁lane
▁mayor
▁intend
▁trap
▁negotiat
take
▁tweet
ilicon
▁district
▁genetically
ounce
▁pigeon
▁Sal
▁quad
▁structural
ığını
▁etməyə
▁Hindistan
▁Alqış
▁Belə
larda
luq
▁milyon
▁milyard
,500
▁burden
▁freak
▁currenc
▁trajector
▁chief
▁broadcast
▁damn
▁combat
▁arrow
▁extension
▁Gulf
round
▁exhaust
▁inherent
tact
tangible
▁instinct
▁enthusias
▁plain
▁Mag
20
▁Bush
▁condom
▁sanit
▁fanc
▁95
▁crew
▁copie
▁glamor
▁voting
▁Egyptian
▁philanthrop
▁Home
▁computation
mple
ella
lihood
▁pharmaceutical
▁bin
▁origami
▁çe
▁insanların
▁cavab
▁olsa
▁çətin
▁Beləliklə
▁doğru
▁növ
▁kosmos
face
▁Smith
▁alcohol
▁destin
▁export
▁Virgin
▁crush
▁Pr
drew
▁delight
▁projection
▁anxiety
▁disconnect
▁weapon
▁Jack
▁athlete
▁unprecedented
adi
▁fertil
▁Ku
▁fee
▁occasional
▁sharp
▁Design
ball
▁Micros
▁indicat
▁strand
▁formal
▁modul
▁feminist
▁advocate
▁frustrate
▁jelly
ological
stock
▁stor
▁hormone
▁robust
vor
▁retina
▁Dere
▁jihad
▁əl
malı
lərində
▁branch
▁mixed
▁Long
▁prepare
▁queen
▁audio
▁2012
▁ruin
▁concentrate
▁jet
thermal
▁120
▁creator
▁Love
▁cheese
▁pollinat
▁attribute
▁neuroscien
▁investor
▁Back
▁26
▁diabetes
▁pat
▁joint
▁senior
▁kilo
oft
▁analyze
▁till
▁amaze
▁mobil
▁locate
▁enhance
▁poison
▁winner
assembl
▁accus
▁Trans
▁installation
▁acquire
ının
▁bunun
irlər
mız
▁vacation
▁palm
▁20,000
▁Italian
▁bored
▁encrypt
▁Moon
▁snake
▁bound
▁dece
polis
▁manipulat
▁Time
▁textbook
▁communicat
▁darkness
▁ratio
▁hat
▁Aristot
▁Seven
▁abilit
rapped
▁prov
▁Research
▁Mil
▁dragonfl
▁strike
▁leak
nny
▁systematic
▁unclear
brush
▁vibrat
▁bulb
▁fragment
▁quit
▁consult
▁constraint
▁aesthetic
BM
▁institutional
RB
▁SS
▁regulation
▁çıxar
▁onları
▁hərəkət
irəm
kən
▁gö
▁disappoint
▁resist
▁Unti
▁bold
▁dancer
▁initiative
▁clock
▁rebuild
▁uncle
▁peaceful
▁fur
▁tower
▁classe
▁slave
▁march
▁borrow
▁Cambri
▁disability
ette
▁astronom
▁spectacular
▁Through
▁nucle
▁50,000
▁transparent
▁node
▁tension
▁industri
▁flexibl
▁33
▁struggl
▁2006
▁hid
▁fastest
▁axis
▁Tim
dominant
iniz
əgər
cü
▁yaxın
▁çat
▁tanı
▁intuitive
▁primitive
▁Fo
▁assignment
EC
▁federal
▁highlight
▁admir
children
▁dump
▁Put
▁Win
▁limitation
▁Nation
▁humbl
MS
▁philosopher
▁transmission
▁signature
▁transmitt
▁Sir
▁Friday
▁ecological
▁paradox
▁guarantee
train
▁calculation
▁helicopter
▁ethical
▁surrounding
▁interpret
▁garb
▁Turn
▁opera
grow
ğın
ından
eaten
▁dial
▁sketch
▁sel
▁2003
▁reserve
▁hous
cover
▁restrict
▁burst
▁Plan
▁shout
▁boot
▁acknowledge
▁render
▁alter
▁probe
▁pole
▁tropic
▁slavery
▁Up
▁195
path
▁addict
▁qualit
▁recipe
ison
▁terror
▁fraction
▁psychologist
▁inspiring
▁250
▁rip
▁naked
▁conclude
▁renewable
▁sacrifice
▁persist
▁mold
▁shirt
▁Narrat
▁Phil
▁pulse
miz
▁enerji
▁qar
▁şəkildə
▁qız
▁gesture
mount
▁contemporar
ndeed
▁Dad
▁28
▁smooth
▁chapter
▁Pre
▁neat
▁Technolog
▁Ghana
▁bang
▁methan
▁tick
▁advis
▁Never
▁editor
ogen
▁simultaneous
▁excellen
▁salt
▁array
▁rent
▁unbelievabl
▁eradicat
▁Mother
▁stunt
▁Yorker
▁Arm
▁slice
▁autonomous
▁synthetic
▁degrad
▁semi
▁indicate
BI
▁yaz
▁şeyi
likdə
▁məktəb
▁dəyiş
▁profile
▁convict
▁brows
▁Texas
evolv
▁marker
▁bump
alo
▁William
▁bind
▁chocolate
▁norm
▁cousin
▁jam
▁supplie
▁mindset
▁Arabic
BC
▁fool
organiz
maz
▁Rob
▁decrease
▁engagement
▁yield
bul
▁anatom
▁frighten
▁neural
rctic
cellular
▁leverage
Ö
▁içində
dığım
▁olmaq
▁əla
▁partnership
third
▁grave
▁confident
forward
▁White
▁agenda
erial
▁Congo
▁shooting
▁stake
▁pioneer
▁kiss
▁expansion
glo
▁wage
▁Jesu
hour
▁Israeli
▁copyright
▁package
pound
▁conservative
▁distinct
▁adjust
unda
scribe
▁Revolution
▁resident
▁slum
▁repeated
▁haqqında
lığı
▁sistem
▁düz
▁tərəfində
▁etmə
morph
▁charit
uction
▁Tell
▁hanging
stair
▁coat
▁Rome
▁repli
▁figur
▁external
azz
▁shake
ender
▁extinct
▁sacred
▁comparison
▁nei
▁yard
▁drawn
▁analyz
▁Miss
▁tunnel
▁breakthrough
▁pose
▁discipline
▁abandon
▁primari
▁citizen
▁mushroom
▁din
▁biodivers
▁nutrient
▁tam
▁dəfə
acağı
▁Alqışlar
▁təsir
muş
▁infant
sea
▁Rwanda
▁Manhattan
▁Eve
▁flo
hur
▁scann
bble
▁Nature
fare
▁exam
▁northern
▁laid
▁identifie
▁Lad
▁dialogue
▁imag
▁Law
▁colony
▁legac
▁aircraft
əcəyi
larında
▁həqiqətən
▁onu
▁olar
▁demək
▁davam
idir
▁ölkə
▁locked
▁capita
class
▁Prize
▁alarm
▁stroke
▁spark
▁ceiling
▁lake
▁epi
▁tackle
ivity
▁extinction
▁explode
▁smoke
▁Sch
▁screw
▁southern
▁Kar
▁reduction
▁backwards
▁inventor
▁Stanford
▁mechanic
level
▁intuition
▁heaven
▁Olympic
▁toxic
▁transparency
▁mutation
▁ça
diyini
diyi
uq
▁orta
▁breaking
iff
▁vol
▁Mac
view
▁scream
▁smartphone
▁disagree
▁recruit
cro
▁Mal
▁River
state
dollar
▁mate
▁farmer
▁sweat
▁faci
▁demographic
▁pur
bola
▁geri
▁yazı
▁başladı
ələ
▁olacaq
▁qadın
▁artistic
▁Next
▁blank
▁improv
▁concert
▁football
▁uncomfortabl
arch
▁clar
▁guilt
▁Thing
hildren
▁Mark
than
▁sunlight
▁demonstration
▁polar
▁magical
▁Atlantic
▁prosper
rid
▁immense
▁Bob
while
▁permission
▁incident
century
▁fabulous
▁Wikipedia
▁domain
▁wip
▁optimis
▁corn
▁NGO
▁dil
▁terrifi
▁vegetable
▁accumulat
ographic
▁welcome
ani
qo
▁glacier
▁mask
▁rating
▁sizə
▁maddə
lərdən
▁Fl
▁ridiculous
▁ill
hold
▁nano
▁guard
▁Uganda
▁lock
▁description
▁edit
▁judgment
▁achievement
▁cash
▁clue
▁output
▁recommend
▁bless
▁Haiti
▁Octo
▁Ocean
▁scratch
▁beside
▁trie
▁loan
▁1950
▁antibiotic
ease
urg
▁Siz
▁incentives
▁rainforest
nı
▁ticket
▁essence
▁boss
▁traged
ami
▁Wal
▁Foundation
▁anger
MA
▁miracle
▁preserv
▁pace
American
▁ensure
▁Was
org
▁Robert
▁poll
▁killer
▁brown
▁twin
▁intense
▁chromosome
ural
nia
▁Ven
▁debt
▁overcome
▁ought
aba
▁pul
▁liver
ərək
▁ağ
lü
▁bilir
▁Mom
▁bug
▁utter
▁Jeff
▁bother
▁mad
▁courage
▁birthday
▁pray
▁additional
▁hydro
grade
▁suppose
▁smok
▁consum
▁replicate
▁pad
,
▁flip
▁Jer
▁pyramid
▁mat
▁craft
▁Spa
▁Nothing
▁Six
▁cute
▁identical
▁settl
▁scal
vill
fold
play
▁corporation
▁manager
▁medication
▁Syria
▁reported
▁trait
▁BF
▁kim
▁bəzi
lində
▁hekayə
ləşdir
▁edirəm
▁gate
▁desk
▁club
▁International
▁36
▁household
▁afterward
▁prepar
▁proportion
▁Matt
▁Holly
her
▁parking
ference
▁affair
▁arrive
▁procedure
▁plug
▁geometr
▁shipp
▁trigger
▁probabilit
▁stack
▁psycholog
▁disturb
▁dust
▁hunger
angle
▁highway
▁Super
zo
▁Boy
▁scenario
▁Scott
▁request
▁rhythm
BG
▁tuna
sınız
▁genius
▁piano
book
▁32
▁plent
gun
▁dictionar
▁wings
▁narrow
▁earthquake
▁expedition
gged
▁apple
▁Basic
▁compound
▁marine
▁Hell
▁experienc
▁choos
▁Jim
▁passenger
▁fixed
▁Gene
▁Abou
▁chaos
▁candidate
▁appeal
▁coin
▁subtle
▁microbe
▁Make
▁diagram
▁Global
▁mice
ğu
məyi
lardan
kı
ırlar
ncaq
▁şeylər
asiya
▁PM
▁proof
▁Korea
▁vital
▁Sw
▁excite
▁tight
▁ambitio
cam
bot
unch
▁Mor
▁obstacle
lash
▁hungry
▁radi
▁Cal
▁diploma
▁assistan
▁column
▁corporate
dəki
▁sadə
▁Onlar
▁airport
▁2005
▁mail
▁drag
▁optimistic
▁poetry
▁murder
▁motivation
▁acid
▁reconstruct
▁Del
▁hill
ambi
▁hook
▁confuse
nonymous
▁anticipat
▁House
▁Turk
▁Blue
▁consistent
▁Cap
▁elect
▁suicide
▁floating
▁neuron
print
▁chest
▁orchestra
▁Pole
▁sev
▁kəs
acaq
▁Tri
▁Pol
▁illustrate
▁session
▁refuse
ogether
itch
▁diagnos
▁philosoph
▁2004
▁wound
mmer
▁psychological
▁portrait
▁trauma
oven
▁Jew
▁representation
▁whale
▁isolat
▁accessibl
▁productivit
omi
▁shell
▁Afrika
▁göstər
▁gəlir
larla
▁istəyirəm
▁ola
▁comfort
▁promote
▁bend
▁distant
▁suspect
▁stepp
▁pan
▁conventional
▁Far
▁Christmas
▁desperate
▁boil
▁pretend
▁headline
▁ears
▁densit
▁review
▁intervention
▁impos
▁defense
▁seal
awa
▁consume
abil
lərlə
▁əsas
▁deyir
▁ildə
▁telephone
ean
burg
▁pink
ough
▁universit
▁600
▁cosm
▁pitch
▁drove
dependent
▁horrible
▁laboratory
Y
▁Peter
▁Tu
▁investigat
fall
▁Kan
▁Lab
▁parallel
▁DH
▁üz
▁etdiyi
dür
gging
▁knock
▁tech
▁database
▁boom
▁digni
▁measurement
▁Angeles
▁worm
▁Gold
▁explosion
▁Bible
▁froze
▁skeleton
▁shadow
▁fake
▁mentor
town
ünü
ması
gər
▁revenue
▁pet
▁Museum
▁blame
house
▁Chicago
▁complain
▁tar
▁adventure
▁fluid
▁depress
▁Tru
box
▁implant
▁entrepreneurs
▁Greek
▁limb
▁presence
▁magnet
▁bow
▁educational
▁contribute
▁Egypt
▁item
▁Tes
▁skull
▁Nə
▁həyat
əb
▁elite
▁sala
▁surveillance
▁Ch
what
▁lad
▁printer
force
▁lifestyle
▁Ed
▁defend
▁classic
▁embedded
▁overall
▁Red
▁cloth
▁Dur
▁ugl
▁behavioral
cop
▁observe
▁transplant
▁silent
▁Voice
▁tri
▁gray
▁Count
▁eyni
▁ancaq
mişdi
▁afternoon
▁5,000
▁liberal
▁recognition
▁lion
▁shame
audi
▁selection
▁Rememb
▁poet
own
▁Th
oxide
▁route
▁orange
▁1,
▁physician
öv
▁onun
▁imagin
▁mono
ama
▁Par
Sahara
▁Wall
gie
▁interactive
▁phase
ua
▁Saturn
▁leap
▁spiritual
▁engag
born
▁painful
▁sports
▁mimic
▁breed
▁footprint
▁crucial
▁frequenc
▁Age
▁refer
▁mega
▁fisher
▁characteristic
raising
▁correspond
▁Day
imi
▁meme
▁embarrass
leg
inary
press
▁milk
▁Russian
▁port
▁Pan
▁organize
▁prepared
▁Bost
▁psycho
▁academic
▁Project
▁bicycle
▁polio
▁dish
▁exploit
▁CEO
▁flash
▁evil
▁asset
▁divers
▁authentic
▁laser
▁prisoner
▁cyber
truck
▁inject
▁reject
ether
▁compete
▁Girl
▁exten
▁install
▁exponential
ota
arian
▁burada
▁Bunu
liyi
ngry
▁regret
▁resolution
▁owner
berg
▁presentation
▁cable
▁burning
▁wo
▁mode
▁style
▁inequalit
▁download
▁GPS
▁biri
ıq
▁səbəb
əcək
▁digər
▁agreed
mission
▁globe
▁license
Something
▁guide
▁Antarctic
all
▁regime
▁meal
look
▁steal
▁wondered
call
▁gut
▁objective
▁confiden
▁depth
▁feeding
▁script
▁disrupt
ji
▁cri
▁stimulat
▁emerge
▁oldu
▁onlar
ulation
▁cord
▁prop
▁Latin
▁photographer
▁coordinat
▁officer
▁pit
▁trace
▁weigh
▁Paris
▁whales
▁attitude
point
▁Valle
▁solv
▁chimpanzee
▁immune
▁exhibition
indən
▁sual
▁flood
ung
roll
▁wireless
▁rap
▁commitment
▁Grand
▁sensitive
▁contrast
▁High
▁limits
▁animation
▁tank
▁MS
▁simulation
ake
▁barrier
▁framework
▁department
▁tag
▁Human
▁sens
▁percentage
▁pile
▁thumb
▁permanent
ttle
▁predator
▁frank
▁edən
▁dedi
▁arrest
▁brave
▁dominat
▁danc
▁Centr
▁Martin
▁curiosity
▁cheat
power
▁mathematician
▁Number
▁nor
▁Health
▁efficienc
▁Pakistan
▁hyper
▁humor
məyə
▁2009
nfortunate
▁cast
▁army
▁2.
▁Jun
▁Black
▁continuous
ock
▁meaningful
tial
▁minister
omb
▁privacy
▁absorb
▁stronger
read
▁greenhouse
▁nerve
▁improvement
▁contribut
▁repeat
▁boring
rous
▁musician
▁elder
ook
▁Science
▁rocks
▁flag
▁behave
11
▁Hə
▁çəki
▁unexpected
efore
ara
▁instruction
▁pregnan
▁eggs
tric
▁angle
▁rescue
▁sail
▁functional
▁penguin
▁lecture
▁nose
▁strip
▁Christian
▁sculpture
▁Ti
for
▁ban
▁auto
▁pollution
▁personalit
well
▁raw
▁collaboration
▁storm
▁kiçik
▁uşaq
lərdə
▁beach
▁dogs
dom
▁September
surance
▁Hol
▁plus
▁laptop
▁microscope
▁Tra
half
▁Amazon
▁domestic
▁grab
▁geo
▁relie
▁appropriate
▁fabric
cin
▁sophisticate
▁upper
▁pour
▁drill
heimer
▁ye
ləş
rət
ımız
▁çalış
▁password
▁instant
▁centuries
▁1990
▁finance
ility
▁spec
▁Swede
▁engaged
▁electron
destruction
▁rely
ridge
▁dig
▁poster
ark
▁65
icity
▁priorit
ura
▁admit
▁panel
▁poem
▁observ
▁wine
▁announc
onic
▁ear
▁advertis
▁staff
▁Green
▁obes
▁spider
niz
▁insan
▁deyə
▁çünk
Ş
▁phrase
▁Bi
source
▁accelerat
▁asteroid
▁1980
▁Russia
▁Give
▁innovative
▁rush
▁ultra
ional
long
▁flie
▁Adam
▁shoulder
▁habitat
▁hunt
▁violent
▁king
▁myth
▁breathe
▁neçə
▁sü
▁split
▁illegal
pping
▁church
▁teenager
▁younger
▁sphere
▁dedicat
▁Mary
▁file
▁paradigm
▁apparent
▁former
▁3,000
▁mechanical
▁Mc
iti
▁inevitabl
▁stretch
▁colon
stone
▁por
▁agent
▁Frank
▁gör
▁elə
▁gəl
anın
▁fikir
ası
lərə
▁implement
▁Whil
▁solid
stan
▁vertical
▁pool
▁1960
▁limit
▁intention
▁favor
▁productive
▁boxe
▁unusual
▁activat
ench
▁bla
▁magnetic
ole
▁Talk
▁Pacific
▁aim
down
▁relevant
▁illusion
imiz
50
▁suck
▁tribe
cı
ilə
▁Anyway
▁economi
▁clothes
▁Obama
▁boundar
▁select
▁ingredient
▁sil
J
▁fortunate
▁indi
▁secure
▁thick
ode
▁prefer
▁Thom
▁cla
▁symptom
▁needle
▁mənə
▁amma
▁advice
▁194
▁grandfather
hen
▁section
▁School
▁den
▁Sea
▁loop
▁oppos
▁Japanese
▁clever
▁awareness
▁musical
▁dense
▁propose
▁Park
cher
rtex
room
▁2010
generat
▁false
bit
▁harvest
▁hack
▁iki
məsi
▁busy
▁mountains
▁sheet
▁educat
▁droppe
▁dirt
▁severe
▁Get
▁participate
▁polic
▁author
▁iron
▁biologist
▁Islam
▁reverse
▁vessel
▁automatic
kar
▁peer
▁yalnı
uğu
ırdı
▁spring
▁handle
▁heal
▁cop
▁activist
▁compos
▁Space
▁molecular
▁England
▁attend
ibility
back
▁Jan
▁polle
foot
▁harm
▁Va
▁infection
▁prototype
▁decline
▁demo
▁symmetr
tta
▁keç
ında
▁Real
▁Air
▁jail
▁measur
rice
▁Ken
▁nest
▁dive
▁hotel
▁terroris
▁mal
▁deploy
▁status
▁rocket
▁internal
▁theater
▁swim
▁transportation
▁sale
▁firm
▁logic
▁autism
▁client
row
▁exchange
▁calculate
▁entertain
▁Part
▁accomplish
▁activit
▁circumstance
▁Canad
▁shall
▁crack
lock
col
▁mile
▁concrete
▁observation
▁plot
▁cluster
▁unknown
▁length
▁grain
▁regard
net
▁magn
▁196
▁Michael
▁lady
▁soft
▁challeng
▁demonstrate
pan
▁danger
▁grant
▁hip
▁reference
▁radiation
▁Ko
▁23
ption
▁capitalis
▁steel
iş
▁Wow
hood
▁infinite
▁roads
▁pilot
▁passionate
▁expectation
▁Arab
▁fiction
▁studio
▁Te
▁technological
hop
▁Harvard
▁Final
▁perceive
▁reef
▁broad
▁tea
▁Ah
▁drone
nız
▁qarşı
▁Pleas
▁Island
matic
▁according
▁Center
▁tip
▁Lin
▁thin
▁Ben
▁kitchen
▁Israel
▁Four
▁vulnerab
met
▁tube
▁apartment
▁Institute
▁habit
▁Higgs
▁qal
siz
▁tire
▁continu
▁iPhone
verse
▁Pi
▁Congress
▁bond
▁stranger
▁graphic
▁lawyer
▁2008
▁ritual
▁assembl
▁deserve
▁fe
▁prediction
▁seek
▁shoot
▁counter
iness
▁relate
▁99
bil
▁conservation
▁yol
dıq
▁MIT
▁knee
▁hire
▁fruit
▁forgot
▁threaten
▁Wa
▁Los
pit
▁icon
▁entrepreneur
▁empty
▁talent
▁title
▁Gi
ko
▁tape
▁Francisco
▁comfortabl
▁prime
▁winter
▁YouTube
▁Nor
▁primary
tech
▁worldwide
▁label
▁assumption
▁teeth
▁lens
▁joke
▁surgeon
▁tear
dü
▁tək
anı
dım
mış
▁celebrate
ev
▁reform
▁democratic
▁President
▁sweet
▁pure
▁div
▁Fe
▁confront
ories
▁repair
▁Lu
é
▁committ
▁Charles
▁economist
▁awful
▁bike
▁partners
▁employ
▁shut
▁Five
▁privilege
▁director
▁yester
▁awesome
▁inspiration
▁hang
▁prize
nın
gh
▁lie
▁Bar
▁statement
▁witness
▁mortality
▁zoom
▁south
▁implication
▁ga
▁height
▁Middle
▁toilet
▁ilk
ush
▁pin
▁actor
▁escape
jo
▁expos
▁crop
▁blog
▁evolve
▁Will
▁dolphin
▁clinical
▁illness
▁olur
üş
▁battery
▁pleasure
bar
▁enem
▁golf
▁transfer
▁kick
▁criminal
▁Apple
▁conclusion
▁appreciate
cut
pper
▁valuable
▁distribution
▁propert
▁filter
▁Min
▁wheel
▁cup
▁swimm
ept
▁pump
▁dünya
▁çıx
▁Bank
▁definite
▁encounter
▁recording
▁peak
▁Lak
▁provid
▁stupid
▁cart
▁physicist
▁horse
▁plate
▁historical
▁rational
▁Yet
▁hydrogen
▁weapons
dığı
çı
▁react
▁pr
▁hide
▁obsess
▁spectrum
▁accurate
▁feedback
ware
▁official
▁rat
ino
▁Biz
▁haqda
▁explanation
▁Jam
win
▁journalist
▁maintain
▁22
▁silence
▁motivat
▁Ten
▁explor
▁Brita
▁Mexic
gar
▁participat
del
▁setting
meter
▁grid
az
▁emissions
▁intellectual
unu
araq
plan
▁cow
▁cutting
▁caus
▁bill
▁bare
▁fan
▁protest
▁Star
▁attach
▁involve
▁pot
▁addition
▁melt
fully
▁lies
▁grade
▁management
▁Iran
▁visibl
▁abuse
▁gay
▁importan
▁convert
anda
▁authorit
▁grass
▁bees
▁undern
▁mammal
▁cru
▁terrorist
▁yox
▁olun
ğa
▁Du
▁doubt
▁transition
▁chicken
▁establish
▁protection
▁analog
▁mix
▁cure
▁heavy
▁transport
▁determine
▁load
▁clinic
▁empath
▁siz
şi
mağa
▁disaster
▁operate
▁credit
▁folks
▁partner
▁initial
▁input
▁II
▁France
▁capabilit
▁ol
▁relation
▁35
▁Sam
▁exception
▁Times
▁Bang
▁judge
▁myster
▁fiber
▁risks
▁gravity
▁Ke
▁infect
▁programm
▁mosquito
▁2,000
ıb
▁smile
▁button
▁exploration
▁King
▁Washing
▁inner
▁tie
▁voices
▁north
og
▁Darwin
▁evolutionary
▁volume
▁sugar
▁alien
▁Mar
▁cooperat
▁weak
oth
han
▁lunch
▁killing
▁Richard
▁medium
▁practical
▁combination
▁electrical
mı
▁həm
▁bl
▁pi
cal
▁Street
▁fourth
▁silk
▁loud
▁pocket
▁origin
▁broke
can
▁speaker
▁recycl
▁variation
▁mathematical
▁tail
air
sumption
▁integrat
tik
▁istifadə
▁construction
▁gather
lim
▁librar
▁collection
▁member
▁volunteer
▁diet
▁embrace
▁therap
▁telescope
▁wi
ix
▁highest
▁agenc
▁pill
çi
▁2000
▁Since
▁tall
▁Tom
▁sight
▁rural
work
aker
scale
▁sum
een
ground
▁George
▁surround
▁mənim
▁150
▁battle
▁liquid
▁processe
▁command
▁discussion
▁intelligent
▁cognitive
aking
▁puzzle
▁tele
▁Other
▁shoes
▁nurse
▁Their
▁quarter
ier
▁ev
▁May
▁par
▁categor
lara
▁soul
▁snow
▁survey
▁extract
▁dry
▁heads
▁lifetime
form
▁wake
▁chemistr
▁emergenc
▁topic
▁discuss
▁contract
U
▁stock
▁neuro
▁bizim
▁ordinar
▁receive
▁opening
▁lift
▁Last
▁injur
▁translate
▁hop
▁shapes
▁abstract
ına
üz
lam
▁mirror
ular
dor
mir
şə
▁writer
corruption
▁chart
▁Titan
▁channel
▁brilliant
▁stone
▁nervous
▁Ni
▁bil
▁yaş
▁hall
ping
▁grown
dik
▁quiet
versus
▁leaving
▁chip
▁comput
▁restaurant
top
▁disorder
▁yeni
▁bunu
▁agricultur
▁elephant
▁100,000
▁narrative
▁band
nna
rising
▁Could
▁frame
daily
▁lung
▁danış
▁university
▁Come
▁brief
life
▁45
▁Sha
▁unlike
▁dinner
spect
lf
▁employee
▁ideal
▁profit
SA
▁lu
▁NASA
▁spoke
▁robotic
mark
▁arms
▁resistan
▁mark
▁expression
▁ignore
▁quantum
▁hidden
▁Col
▁invention
▁Paul
▁shop
▁ancestor
▁hal
dakı
▁clip
▁fat
▁leader
▁wisdom
itude
▁400
▁round
▁season
▁truck
ink
▁gold
▁Steve
▁variet
▁pig
ago
▁etdi
▁applie
gg
▁budget
▁assume
▁ride
▁names
aging
ou
▁error
▁bi
rat
▁equip
▁balloon
qi
▁başqa
▁earn
▁Does
▁attract
▁depression
▁precise
▁host
ory
▁operat
▁comment
▁opinion
ograph
▁cent
▁bubble
▁statistic
▁occur
▁litera
▁crash
▁US
▁property
▁homes
▁conscious
▁compare
▁distribut
▁row
▁sc
fish
▁bax
▁insanlar
▁mouse
▁stoo
lk
▁independent
▁sorr
▁fellow
▁foundation
▁date
▁Pri
▁debate
▁trillion
▁198
▁taste
▁meat
▁negative
▁equivalent
ight
▁shark
▁tens
ram
▁parent
▁ski
▁curious
rail
▁fell
▁factory
▁whom
sha
board
▁stream
▁patent
ili
▁novel
▁wash
▁dress
▁calling
wood
▁court
▁copy
▁bias
▁hell
▁customer
▁existence
▁professor
▁collapse
▁düş
▁vaxt
▁əvvəl
▁yara
▁interface
▁weather
▁mothers
▁dozen
▁insight
ina
▁garden
▁bilmə
▁joy
▁monitor
▁suffering
▁deeply
▁Amma
ədə
oo
▁multiple
▁belong
▁display
▁politician
▁para
▁roof
▁circuit
▁Ya
▁baş
▁sexual
▁epidemic
▁Life
▁conduct
▁closed
▁pounds
▁marriage
▁Australia
▁zone
▁Ge
▁dreams
ju
▁facilit
▁honor
▁marrie
▁Har
▁chose
tive
▁perception
nin
ulate
▁construct
▁engine
aya
▁olduğunu
iyyət
▁proud
▁suffer
▁classroom
▁note
▁va
care
mar
▁harder
▁era
▁Twitter
▁universal
▁CO
▁score
▁analys
▁weird
▁newspaper
oid
▁metaphor
▁limited
▁British
▁scan
▁identify
▁bird
▁coal
əni
▁proper
▁driver
▁produc
▁carrie
▁Si
▁grandmother
▁Three
▁ring
▁bright
▁discovery
▁photos
▁Jo
▁fresh
▁pop
▁click
▁equation
▁civil
▁coast
▁Einstein
▁hurt
▁museum
▁dinosaur
▁fo
▁location
cha
▁Web
inin
▁string
▁Bill
▁party
▁fashion
▁fossil
▁gift
▁responsibl
amp
▁related
▁occurr
▁Sh
▁organic
rew
gram
▁succeed
ış
▁Any
▁Mr
▁Nigeria
▁foreign
▁breast
▁empower
▁memori
▁phenomeno
▁competition
▁AIDS
▁president
▁due
▁odd
▁regular
▁graduate
▁i
W
light
▁worri
▁Would
▁fr
mber
▁th
ney
▁associat
▁flat
▁symbol
bel
▁Ar
▁religious
▁atom
▁im
▁bottle
uz
▁French
ification
▁spirit
▁identity
▁engage
ee
atic
cent
▁stress
əti
▁az
▁architect
ong
▁govern
▁trend
over
▁quote
▁bread
use
▁Pe
▁yellow
▁conference
▁öz
▁min
▁transformation
▁desert
▁metal
▁attempt
▁bat
▁cartoon
▁mathematics
▁trans
▁heç
▁Dan
▁root
▁artificial
ım
▁reveal
▁arriv
port
▁previous
▁holding
▁tradition
▁fac
▁farmers
dur
▁olduğu
▁recover
af
▁sta
▁article
right
▁chair
ep
▁crime
▁ten
nu
▁Kenya
ner
▁opposite
▁gender
▁inform
▁sw
▁magazine
▁dramatic
▁alternative
▁dynamic
▁gentlem
▁pal
▁Sometime
▁diversit
▁ecosystem
▁burn
▁algorithm
▁replace
▁island
▁soil
▁gün
miş
▁childhood
▁etc
▁master
▁Again
ose
▁include
ual
▁hi
▁refugee
▁curve
ını
lərini
▁300
orrow
▁organiz
▁wood
▁soldier
▁Japan
▁olaraq
▁etmək
▁broken
▁pen
▁encourage
▁remote
▁sector
▁exercise
rop
▁sold
▁members
zz
▁Sta
▁hopeful
▁labor
▁graph
▁Asia
▁Gülüş
əli
▁gap
▁adopt
▁1,000
▁reward
▁technical
base
▁invisibl
▁funny
V
▁core
ov
▁necə
▁combine
▁See
▁detect
▁Sun
▁advantage
▁199
▁bridge
sı
və
▁lay
▁creation
▁faith
▁monkey
dimensional
▁avoid
▁reaction
Ç
aş
▁Good
▁mouth
pu
▁researcher
▁rapid
▁suit
▁mountain
kin
▁application
▁mechanism
larını
▁civilization
▁Facebook
ology
▁pair
$
▁estimate
▁Big
ologist
▁platform
▁ko
▁Da
▁malaria
▁opportunit
▁boat
▁disc
low
▁orbit
▁crowd
▁extend
▁coffee
▁Brazil
▁industrial
▁yaxşı
erson
let
▁husband
▁divide
▁notion
ük
▁laugh
DP
▁electronic
▁held
▁Gu
▁Her
ctor
▁More
▁hum
▁tax
▁Che
▁El
▁comp
▁claim
▁balance
▁fold
▁seed
▁pack
▁zaman
Ex
▁Over
▁sustain
▁aspect
▁chain
etic
▁oxygen
▁argue
▁Com
▁responsibility
▁background
▁su
▁strength
▁wire
▁definition
mer
▁controll
▁fully
▁blow
▁border
▁oh
ax
▁Muslim
▁Art
▁shock
▁Ja
▁European
mak
▁tumor
▁struggle
▁victim
▁coral
▁eating
▁unfortunate
▁forever
▁twice
▁tremendous
▁sample
ari
▁creativ
▁Sp
ğı
▁Audience
▁component
▁dollar
▁bag
ğ
▁sad
▁10,000
▁motor
▁National
▁radical
of
ain
▁6
▁switch
▁contain
▁complexit
▁threat
▁station
▁traffic
▁central
▁z
wi
▁plane
▁efficient
▁Iraq
dim
▁muscle
▁Did
▁desire
▁sick
▁babi
▁br
▁supply
ada
▁Na
▁birds
▁Un
sən
▁receiv
▁justice
▁gain
▁ship
▁campaign
▁adapt
▁drawing
▁edge
▁hearing
▁legal
▁lack
▁kilometer
▁Have
night
▁correct
▁rough
▁missing
▁rid
aq
▁continent
▁election
▁miss
▁cry
▁camp
▁feature
▁reflect
▁surprising
▁sand
▁California
▁Hey
▁Wom
▁trip
▁outcome
▁operation
▁remove
▁states
▁total
▁base
▁popular
uar
▁ən
▁evolved
▁sharing
▁consumer
▁earth
▁cave
▁cur
▁surger
io
▁motion
▁mid
▁below
▁anti
▁television
▁fle
▁vast
▁loss
▁edir
▁paid
▁flower
▁From
▁Ru
▁afr
▁mess
▁active
off
▁commercial
ndi
▁document
▁aid
▁careful
ley
▁highly
nə
▁airplane
▁na
▁Ri
▁contact
▁ancient
hand
cho
lıq
▁böyük
▁dad
▁tough
▁beat
▁serve
uck
▁math
▁Great
ches
istic
ult
▁gun
▁hate
▁option
▁Second
len
▁profound
▁Pro
▁cycle
▁edə
▁argument
▁Ho
▁rare
▁500
▁Ph
▁Lo
ang
▁Thanks
▁speech
▁mistake
zi
▁olma
▁flight
▁promise
uff
▁aware
♪
▁sentence
▁Hi
▁player
▁capacity
▁belief
ome
▁agree
▁giant
▁accident
▁disappear
▁noise
▁streets
▁scene
▁enable
led
▁rock
▁bus
▁convince
▁failure
j
▁infrastructure
▁smell
▁yer
▁honest
▁catch
▁imagination
▁Davi
▁His
▁capture
▁cultural
▁worst
▁hə
ray
▁Po
▁town
▁consciousness
▁method
▁bear
▁charge
qui
wa
▁net
car
▁sequence
▁express
▁breath
▁emotional
▁match
▁Li
water
▁birth
van
▁bütün
▁sing
▁trouble
lit
lay
▁Ver
▁sister
▁basi
ja
▁influence
ade
▁interaction
▁sensor
ero
tuck
▁forth
▁Ju
▁distance
▁useful
▁isə
▁Wi
▁plann
▁professional
▁tap
▁City
▁survive
▁Bir
▁John
▁biological
▁random
ction
ində
▁seat
▁except
▁Think
term
▁website
izing
▁destroy
▁teaching
▁sonra
▁imp
▁circle
▁laws
▁wealth
▁sustainabl
▁Your
▁nuclear
▁email
▁double
▁passion
▁none
F
▁vaccine
▁brand
▁hero
ically
har
inə
▁emerg
▁apart
▁generate
▁drink
▁Take
fa
▁Western
▁stem
▁mə
▁typical
▁magic
ice
▁willing
▁types
▁flu
▁Am
▁moon
▁trade
▁forget
val
▁dog
▁introduce
▁satellite
▁Many
▁peace
▁instrument
▁decade
▁collective
▁mission
▁neighbor
spite
▁summer
▁river
▁spot
▁underst
▁anyway
▁recent
▁temperature
▁fix
so
▁various
▁production
▁race
▁career
▁politic
▁investment
▁performance
fin
▁sat
▁Indian
▁decide
▁surviv
▁damage
▁prove
▁belə
▁Mən
▁Se
▁landscape
▁climb
▁expand
▁technique
▁app
ving
▁dot
▁layer
tor
▁London
▁j
▁Two
▁grand
▁gene
▁manufactur
▁win
▁invite
ership
▁income
▁slight
▁emotion
▁separate
▁cat
▁24
▁Which
▁strateg
▁protein
▁Like
rry
iv
den
▁prison
▁web
▁Car
▁significant
▁minds
▁driving
dge
▁consequence
ble
▁glass
▁dimension
▁dance
▁define
ft
▁urban
▁citizens
▁military
ward
▁Mi
▁radio
▁park
▁8
▁trial
▁mobile
fu
mu
▁training
▁organ
▁qədər
gra
▁atmosphere
▁Universit
▁cook
▁values
▁spin
ür
▁TV
▁remarkabl
▁familiar
za
ana
eath
▁wide
▁financial
▁trick
▁release
▁cloud
bra
▁genome
ped
▁ge
▁du
▁Ca
▁stopp
▁hair
aid
▁Chin
▁ilə
▁Ki
▁blind
▁instance
▁Cha
▁lo
▁police
▁vote
▁demand
▁communicate
▁vehicle
log
ag
▁HIV
▁straight
▁bomb
▁freedom
men
▁beaut
▁board
▁worry
▁rule
▁neighborhood
▁saving
▁crisis
▁respect
▁corner
▁target
▁physics
▁Per
▁roll
▁fantastic
lic
kept
▁interview
0,000
▁weight
▁tissue
ya
▁mom
▁wave
▁concern
▁clearly
▁reading
▁şey
ship
▁capital
▁East
▁brother
▁humanit
iz
▁bodi
H
▁deyil
lərin
▁expensive
▁series
▁reduce
▁critical
▁yea
▁report
▁user
▁görə
au
▁enjoy
art
▁9
▁Mu
▁path
▁Vi
▁international
▁dangerous
ritten
▁private
▁Hu
▁Ka
▁becom
▁terribl
▁happiness
▁micro
▁compar
▁massive
▁policy
▁positive
▁strange
▁respond
▁21
tter
▁healthy
▁Con
▁multi
▁apply
▁mention
▁window
▁cheap
▁decades
▁sky
▁content
▁cha
▁virtual
que
▁memory
ack
▁fascinat
00
ually
▁photo
though
▁Br
▁hot
▁5
▁lesson
▁slide
▁please
▁unit
▁13
▁improve
ger
▁enormous
▁wild
▁insect
▁effort
▁solutions
ible
▁constant
▁meaning
▁remind
▁luck
▁rise
▁enter
▁prevent
▁range
▁creature
siniz
mü
▁draw
▁ultimate
▁environmental
▁bunch
▁relative
▁moral
ek
▁biolog
ging
▁text
▁finger
▁ca
du
▁meter
ların
▁indeed
▁gra
▁square
▁drop
▁perform
▁shot
▁task
ug
▁principle
▁achieve
/
▁foot
▁heat
▁excited
▁press
▁farm
▁unique
▁afford
▁purpose
ious
▁female
▁organism
▁bone
gen
▁original
if
▁pain
▁San
▁4
▁intelligence
iya
▁impossibl
▁male
▁particle
like
▁cr
▁plastic
▁standard
ium
▁zero
▁advance
▁Act
▁mental
▁floor
magine
▁Chris
▁14
end
▁smaller
▁products
▁painting
▁expert
▁earlie
▁pressure
▁Ga
▁brains
▁architecture
▁compassion
▁neurons
▁meeting
mək
▁check
wise
▁paint
▁jump
che
▁fuel
▁link
dı
refore
ative
▁communication
▁activity
per
▁practice
▁famous
▁increasing
▁above
▁invest
▁Afghan
▁cold
▁interact
ka
▁launch
▁element
▁feed
hu
chi
ure
▁larger
▁rain
ham
▁se
▁genetic
ow
▁shift
▁West
Ə
▁hour
▁cap
▁Ta
▁worse
▁possibilit
▁pe
▁supposed
ought
▁eventual
▁direction
▁sleep
▁warm
▁return
▁gas
▁Su
▁publish
▁appear
▁Ne
▁German
▁account
▁address
▁V
▁models
▁extra
▁religion
ect
▁explore
tion
ng
▁version
▁quality
▁li
ot
▁daughter
▁ran
▁wife
der
▁lower
▁cross
istan
▁treatment
▁hər
▁factor
▁famili
ise
▁chemical
▁complicated
lı
▁iş
▁bed
▁accept
▁bacteria
▁surprise
▁transform
▁fine
▁depend
▁finding
▁conflict
▁higher
▁War
▁mis
ze
▁context
▁everywhere
▁genes
▁led
▁meant
▁dy
▁x
▁North
older
▁position
▁inspire
▁letter
▁Video
▁Pa
▁colleague
▁immediate
tally
▁finish
▁drug
▁La
▁larges
▁Man
▁card
ide
▁nation
▁il
▁medicine
▁16
▁print
go
▁creative
▁college
▁bilər
▁Are
ps
▁democracy
▁remain
ah
▁vi
▁worker
▁revolution
▁fill
▁leaders
▁necessar
▁traditional
▁stars
▁ready
uc
ini
▁olan
▁ha
▁throw
▁sh
▁month
▁software
gi
▁arm
▁poverty
▁exciting
▁Sa
▁onto
▁ball
▁drugs
qu
L
▁suggest
va
▁carry
▁manage
▁communit
▁bank
▁fit
▁further
ün
▁post
▁national
▁la
▁office
▁price
▁materials
▁faster
▁includ
▁ma
▁visit
▁biz
the
▁writing
ler
▁degree
▁favorite
▁signal
▁street
ək
▁walking
▁deliver
ud
▁sent
▁tru
▁join
▁fund
▁Most
▁count
▁successful
▁molecule
▁aren
▁crazy
▁securit
▁choose
▁adult
▁connected
ily
▁90
G
▁skin
▁violen
we
▁bio
▁evolution
▁mine
ite
▁detail
▁lose
lin
▁road
▁list
▁Even
▁function
▁hole
kay
▁stick
▁waste
▁tend
▁effective
▁Don
▁require
▁Dr
▁secret
ture
▁Maybe
▁online
▁scientific
how
▁search
▁designer
time
more
▁After
▁store
▁flow
▁virus
▁invent
ach
▁daha
do
side
▁response
▁visual
ifi
▁wish
ox
▁concept
ex
▁speed
▁2
▁benefit
▁25
▁perspective
▁80
ify
▁nine
▁extraordinar
▁evidence
▁fair
▁First
▁wear
X
▁event
av
▁usual
em
▁character
▁medical
▁South
▁equal
live
yə
▁describe
▁sounds
▁haven
▁ho
ber
▁connection
▁sell
▁song
▁predict
▁Co
▁collect
▁clean
▁Bo
▁mən
▁fail
▁kimi
▁Who
ga
▁connect
▁incredibl
▁class
tu
▁yes
▁success
lik
ile
▁represent
▁inter
▁several
▁gre
▁subject
▁institution
by
▁role
▁similar
mə
▁track
▁Look
line
▁sub
▁galax
▁trust
▁table
▁Where
▁offer
1
▁block
ak
▁Of
▁progress
▁star
▁ver
▁involv
ick
▁recognize
ood
▁among
▁solar
▁W
▁rules
head
▁type
▁leg
ip
▁rich
▁English
ese
▁super
ap
ho
▁door
▁Y
▁period
ization
▁vision
▁carbon
▁site
▁wind
▁goal
no
▁baby
6
▁scar
▁200
▁box
B
maq
▁guess
▁dead
▁World
▁current
▁skill
▁sit
ator
▁easi
▁teach
▁smart
yond
ff
dır
▁putting
▁journey
▁attack
▁dream
▁sex
sə
,000
▁studie
▁screen
▁Di
▁By
▁hospital
▁modern
▁special
▁affect
▁avail
▁main
▁runn
▁Və
▁industry
▁R
bu
▁direct
▁truth
▁cover
▁product
▁specific
▁lab
3
▁soon
▁page
▁Google
▁serious
▁wonder
▁fast
specially
▁solution
ating
▁worth
▁village
▁non
▁Me
▁late
▁mass
▁raise
▁recently
▁strong
▁With
▁Mars
▁general
İ
ha
▁creat
▁region
▁code
▁sun
▁touch
▁audience
▁voice
▁forest
▁meet
▁electric
▁60
▁law
▁ya
▁source
E
▁Le
ub
▁provide
son
▁Europe
▁theory
▁Ro
▁hit
▁ice
lan
▁fire
▁knowledge
▁sudden
▁eye
▁idi
ran
▁en
▁push
▁development
▁situation
and
▁sp
▁chance
▁11
9
▁N
▁spread
▁bar
bi
▁bottom
ın
N
▁train
▁break
▁CA
▁African
▁attention
ial
▁miles
▁nice
▁developed
gu
8
▁artist
▁conversation
▁plan
oc
R
▁literal
▁pull
4
▁innovation
▁understanding
▁condition
▁forward
rote
▁St
ır
▁morning
▁giv
I
▁books
▁digital
▁essential
▁Music
▁eat
▁potential
▁shape
O
əm
▁photograph
▁sign
▁write
▁mo
ları
▁Ha
▁nə
pe
▁climate
▁areas
▁qu
changing
▁average
ç
▁Ba
tə
▁Ra
con
▁expect
▁clear
▁cool
▁tin
▁spen
▁cut
ver
tro
▁increase
▁impact
▁consider
▁complex
▁green
▁risk
▁message
▁blood
ləri
▁doctor
ors
▁H
▁shows
▁stage
▁access
▁ex
▁camera
▁continue
K
▁L
▁extreme
▁technologi
▁fundamental
▁material
▁record
▁Can
rought
▁action
cy
▁feet
▁toward
▁treat
▁k
▁resource
▁18
ize
ful
▁dark
ke
▁low
alone
aught
P
▁white
▁sitt
ge
▁J
ər
▁economy
▁opportunity
he
▁present
id
▁ground
▁hold
▁service
▁growth
ither
▁12
▁obvious
▁born
credible
▁Not
M
▁tried
▁gone
hi
▁personal
▁dis
▁son
▁measure
▁perfect
▁key
▁Go
▁value
▁approach
▁Be
pa
Z
▁DNA
▁center
▁Yes
▁1
▁wall
▁die
▁People
▁fun
ary
▁absolute
▁boy
▁slow
▁pass
▁met
▁send
▁organization
ard
dən
min
ical
▁Right
felt
com
▁movie
▁map
▁oil
▁solve
dan
▁Our
▁rate
▁blue
▁decision
▁longer
▁eight
▁Just
▁thank
me
▁travel
▁notice
▁friend
▁paper
▁begin
▁save
▁rest
Q
ib
▁political
si
mp
▁protect
op
ster
▁near
tra
▁add
▁stay
▁19
▁fight
ik
▁humans
ish
▁movement
▁area
▁easy
▁kill
nt
▁normal
▁De
▁3
▁York
▁powerful
▁China
ki
▁st
▁generation
▁fall
▁behind
▁behavior
ton
▁sea
▁Ma
mo
▁major
▁40
year
▁red
▁teacher
ab
▁eyes
▁hands
▁wonderful
▁safe
▁var
▁film
▁happy
▁Re
▁bas
▁parents
▁physical
▁fish
▁full
land
▁media
▁deep
▁father
▁reach
▁local
▁wait
ig
cə
ized
▁K
▁feeling
▁Yea
ba
cu
▁üçün
▁effect
▁citi
moving
▁seven
▁drive
tic
▁support
▁fear
co
▁third
▁Al
▁pro
▁century
▁size
▁common
fi
▁beginning
old
▁surface
5
▁explain
▁focus
▁pattern
▁relationship
▁engineer
▁learning
▁Mo
▁device
▁gav
▁early
ie
▁buy
▁scientist
ö
T
▁poor
▁act
▁dur
▁short
▁won
ru
▁death
▁compani
▁step
ated
dir
▁amount
▁listen
▁choice
▁m
▁scale
▁population
▁systems
▁exist
▁pre
na
▁field
▁Oh
ni
2
▁At
▁middle
▁simpl
▁state
ck
ol
▁los
not
▁pick
C
▁difficult
▁tree
A
▁realit
▁Then
▁outside
▁God
▁OK
▁along
▁hours
ten
▁robot
ism
▁news
ine
▁çox
▁program
ti
▁word
▁culture
▁structure
ən
▁mother
ca
▁network
▁company
▁bigge
▁produce
▁leas
▁front
▁Some
haps
▁Oka
▁M
▁black
▁experiment
ant
where
▁oursel
▁color
▁natural
▁fly
▁100
ance
▁sometimes
bo
▁force
▁deal
▁ocean
’
msel
▁economic
▁cancer
▁TED
▁music
ta
▁spend
▁air
▁speak
▁discover
▁An
ia
▁questions
▁huge
▁America
▁team
▁object
▁15
▁cause
▁house
▁kne
▁leave
▁education
▁species
im
ling
▁stories
▁view
▁India
▁hear
▁quick
▁since
▁p
▁free
te
▁friends
▁follow
▁decided
am
▁sound
▁though
▁research
▁must
v
against
▁woman
▁tool
▁issue
▁night
mi
▁Unit
▁works
came
at
▁language
▁develop
▁g
ut
taking
▁Internet
▁Every
▁phone
▁happening
▁pay
▁D
ne
▁true
▁environment
▁nature
ph
▁past
▁Or
▁model
▁unti
up
▁State
▁P
▁heart
ry
▁American
lə
gan
▁couple
▁50
▁words
▁difference
▁di
▁market
▁30
▁...
D
ul
▁built
▁individual
▁final
ac
▁once
▁control
93;
▁entire
▁plant
ra
▁heard
▁challenge
▁head
▁result
▁universe
▁stand
▁lead
▁stop
▁term
▁patient
▁hundred
lu
▁walk
ability
ian
▁saying
▁game
▁də
▁wrong
▁cost
▁whe
▁exact
▁large
▁con
▁f
▁child
▁interest
▁land
▁run
▁On
▁co
▁book
vi
▁test
▁study
man
▁top
▁both
▁beautiful
▁minute
▁level
▁months
▁certain
▁O
91
▁war
ro
▁problems
▁student
▁figure
ü
də
▁watch
▁community
▁nothing
lər
▁public
▁ki
▁self
▁Do
ready
▁six
▁while
di
ş
▁yet
▁often
ter
▁age
▁mind
▁sure
▁read
▁city
▁order
▁amazing
▁histor
stead
po
less
▁happens
▁bad
▁video
▁girl
▁imagine
▁hope
▁particular
▁single
▁inside
▁New
▁disease
ci
▁thousand
▁care
ch
to
▁health
▁societ
▁makes
▁c
▁ways
▁almost
▁later
▁G
▁machine
▁days
▁business
ı
▁remember
▁realize
▁week
▁name
▁art
▁ra
age
▁set
▁complete
0
▁young
ent
▁men
▁science
▁else
▁All
un
▁government
▁share
▁da
x
▁such
▁allow
ything
▁far
et
▁half
lar
lo
▁saw
is
▁keep
▁hav
▁close
▁o
▁family
▁job
ous
▁global
▁Earth
▁build
▁line
us
▁side
▁coming
▁dollars
▁possibl
▁face
▁countr
▁Africa
▁grow
▁prett
cross
▁piece
▁seem
da
▁animal
▁stuff
▁body
▁Bu
▁probabl
▁lives
▁room
▁answer
▁simple
▁hand
▁image
▁As
▁less
▁Let
▁times
▁getting
▁basic
▁bring
▁energy
▁matter
▁To
▁interesting
▁process
▁best
S
▁mak
▁group
ness
quite
▁Wh
▁left
▁billion
▁five
as
▁open
ive
▁food
ir
▁These
▁social
ever
u
nough
▁am
um
▁case
▁For
▁hard
▁moment
▁money
▁future
q
▁sense
▁form
▁home
▁One
▁man
▁planet
▁My
▁thinking
▁project
▁high
▁She
el
▁No
▁country
ate
g
▁building
!
▁experience
▁computer
▁under
▁guy
▁old
ma
▁reason
▁working
▁small
▁information
▁T
▁20
▁picture
▁liv
▁four
li
▁w
ist
it
▁U
▁power
▁person
▁move
ld
▁children
▁second
▁always
thing
▁whole
▁10
est
▁per
f
ri
▁light
▁space
▁ever
▁done
▁F
il
▁S
▁al
ecause
▁live
▁women
ment
▁de
▁feel
ar
▁understand
▁real
▁car
▁data
▁believe
ok
▁b
▁too
▁become
▁cell
#
▁və
ween
▁un
▁How
▁found
▁play
▁question
▁kid
▁number
▁E
en
▁technology
▁C
▁again
▁water
ally
▁sort
▁bet
la
▁school
out
z
▁learn
▁When
▁brain
▁bu
▁system
ves
▁next
▁long
ur
▁design
▁ago
▁story
▁still
▁came
▁million
each
ther
an
▁love
▁course
7
▁point
ers
▁few
▁together
▁never
way
▁better
▁help
▁example
▁able
be
▁bir
or
th
▁off
▁before
▁big
▁might
▁last
▁problem
▁him
went
▁bit
▁should
▁thought
▁Thank
▁after
▁let
▁important
ation
▁end
▁create
▁turn
i
▁happen
w
▁why
other
▁find
on
k
▁own
▁year
body
le
▁fact
b
p
▁human
able
▁made
▁well
▁percent
c
self
one
ə
▁ask
ity
▁re
▁place
o
ic
▁three
▁part
▁day
▁doing
▁great
▁may
▁put
▁If
▁try
▁Well
▁give
▁show
▁same
▁use
▁tell
▁being
▁idea
▁mean
ion
ce
day
▁down
▁her
▁good
▁through
▁does
▁There
▁e
▁change
▁B
▁Appl
▁around
ause
▁♫
▁different
▁new
▁many
l
h
▁she
▁any
▁talk
▁What
▁his
▁A
▁even
▁life
▁most
.
▁That
▁thing
▁lot
▁back
▁little
▁come
▁He
▁got
▁kind
▁call
▁sai
lso
▁over
▁two
▁than
▁In
▁work
▁first
▁much
▁something
in
▁say
▁right
▁start
ll
▁no
▁take
▁need
hose
al
▁make
been
▁Now
▁where
▁things
▁Laughte
▁now
▁did
a
▁way
▁years
▁don
▁will
▁every
▁could
▁into
▁other
▁then
ies
▁actual
er
▁You
▁t
▁here
▁world
▁go
▁has
▁Thi
▁time
▁want
▁which
▁really
▁who
▁how
▁their
▁look
▁your
▁get
▁think
▁would
▁were
▁because
▁he
▁some
▁more
▁had
▁when
▁going
ve
es
▁by
▁them
▁up
▁if
▁out
very
▁these
▁know
▁me
▁see
▁or
▁But
▁us
▁just
▁We
▁but
▁our
▁:
(
▁)
▁from
▁people
▁so
▁like
▁It
▁one
▁there
m
▁my
▁do
▁all
e
▁not
▁an
▁at
▁as
▁The
▁about
r
▁what
re
▁So
-
▁?
▁be
▁can
▁—
▁with
▁have
n
▁are
▁for
▁on
▁was
d
▁this
ly
▁And
t
▁we
▁you
▁it
▁is
ing
ed
y
▁in
▁
▁I
▁that
quot
▁and
▁of
▁a
apos
▁to
▁&
;
▁the
▁.
s
▁,
