<unk>	0
<s>	0
</s>	0
▁,	-3.14904
s	-3.22332
▁.	-3.29828
▁the	-3.45473
;	-3.4844
▁&	-3.49659
▁to	-3.99281
▁a	-4.04903
apos	-4.07377
▁of	-4.12208
▁and	-4.22253
▁	-4.31356
quot	-4.34448
▁that	-4.37321
▁I	-4.42722
▁in	-4.519
y	-4.55526
ing	-4.67039
ed	-4.69338
▁is	-4.70225
▁it	-4.73098
▁you	-4.75146
▁we	-4.81393
t	-5.04137
▁And	-5.08402
ly	-5.10245
▁this	-5.15065
d	-5.18381
▁was	-5.40867
▁on	-5.44711
n	-5.4856
▁for	-5.51278
▁are	-5.54809
▁have	-5.55673
▁with	-5.57305
▁—	-5.65628
▁be	-5.65647
▁can	-5.66655
re	-5.71284
▁?	-5.72044
-	-5.72164
▁So	-5.7457
▁what	-5.78415
▁about	-5.82846
r	-5.8479
e	-5.86765
▁The	-5.88188
▁not	-5.96231
▁at	-5.98826
▁do	-5.99402
m	-5.99596
▁all	-5.99639
▁an	-5.99731
▁my	-6.01732
▁one	-6.06972
▁like	-6.07857
▁there	-6.09497
▁It	-6.09711
▁so	-6.11693
▁people	-6.12599
▁from	-6.13905
▁)	-6.18767
(	-6.18831
▁:	-6.20131
▁our	-6.22333
▁as	-6.23427
▁but	-6.23945
▁We	-6.24529
▁just	-6.26943
▁But	-6.29472
▁us	-6.29661
▁or	-6.31362
▁see	-6.31531
▁me	-6.32319
▁know	-6.33294
▁these	-6.33809
▁out	-6.36362
▁if	-6.38787
ve	-6.40132
▁up	-6.40198
▁by	-6.43291
very	-6.44219
es	-6.45166
▁them	-6.45837
▁when	-6.47908
▁had	-6.47909
▁going	-6.47985
▁more	-6.48672
▁some	-6.496
▁he	-6.50446
▁because	-6.51613
▁think	-6.53755
▁would	-6.54151
▁were	-6.54491
▁get	-6.55484
▁your	-6.57568
▁look	-6.5964
▁who	-6.5986
▁how	-6.60416
▁their	-6.60564
▁really	-6.61949
▁which	-6.62902
▁want	-6.63316
▁time	-6.65656
▁Thi	-6.69656
▁go	-6.69915
er	-6.70466
▁has	-6.71618
▁world	-6.71959
▁here	-6.72974
▁You	-6.74192
▁actual	-6.75316
a	-6.773
ies	-6.77319
▁other	-6.7785
▁t	-6.78889
▁into	-6.79382
▁could	-6.79852
▁way	-6.81584
▁will	-6.82195
▁every	-6.82752
▁don	-6.8533
▁did	-6.85424
▁now	-6.85569
▁Laughte	-6.85649
▁years	-6.86703
▁where	-6.87173
▁then	-6.87377
▁things	-6.89121
▁Now	-6.91011
▁make	-6.91181
▁no	-6.98578
▁need	-6.99177
▁take	-6.99257
▁start	-7.00636
▁right	-7.00899
hose	-7.01064
ll	-7.01244
▁say	-7.02525
al	-7.02889
▁work	-7.03681
▁something	-7.072
▁much	-7.0727
been	-7.08605
▁first	-7.09093
in	-7.09261
▁than	-7.09437
▁two	-7.1042
▁over	-7.10864
lso	-7.11039
▁sai	-7.11755
▁call	-7.13056
▁thing	-7.14224
▁kind	-7.14653
▁He	-7.14869
▁come	-7.14947
l	-7.1534
▁little	-7.15821
▁got	-7.16235
▁back	-7.16241
▁In	-7.17158
▁lot	-7.17164
▁That	-7.17808
▁any	-7.19885
.	-7.20148
▁most	-7.22214
▁A	-7.22311
▁life	-7.232
▁even	-7.24183
▁What	-7.26502
▁his	-7.26534
▁talk	-7.27516
▁she	-7.28154
▁new	-7.29201
▁B	-7.3166
▁many	-7.33286
▁different	-7.3347
▁♫	-7.34353
ause	-7.34388
▁Appl	-7.3538
▁around	-7.35549
▁change	-7.36086
h	-7.38673
▁does	-7.38979
▁There	-7.39189
▁use	-7.39584
▁through	-7.39661
▁good	-7.40182
▁her	-7.40914
▁down	-7.41612
day	-7.42149
▁mean	-7.44455
ion	-7.44532
▁idea	-7.4621
▁show	-7.46664
▁tell	-7.47285
ce	-7.48334
▁e	-7.49012
▁same	-7.49108
▁being	-7.53002
▁give	-7.536
▁Well	-7.53745
o	-7.54204
▁try	-7.55644
ity	-7.56258
i	-7.56294
▁If	-7.56387
▁put	-7.56502
▁day	-7.57342
▁may	-7.57436
▁part	-7.57906
▁great	-7.58706
one	-7.58722
▁three	-7.59601
▁human	-7.60422
▁place	-7.61759
▁doing	-7.63489
▁ask	-7.64127
self	-7.64673
en	-7.64909
▁percent	-7.66704
able	-7.67223
▁made	-7.67268
on	-7.67698
▁well	-7.68861
▁year	-7.69424
▁fact	-7.70466
body	-7.71384
ə	-7.71912
c	-7.72957
▁happen	-7.73241
k	-7.73874
▁own	-7.73952
▁find	-7.74994
other	-7.75273
ic	-7.76233
▁why	-7.77215
b	-7.78054
▁Thank	-7.78155
▁turn	-7.78734
p	-7.79266
▁important	-7.81276
▁end	-7.81323
▁let	-7.81442
▁after	-7.81838
▁problem	-7.81911
▁should	-7.82086
▁thought	-7.82633
▁bit	-7.82929
w	-7.83526
▁him	-7.85745
▁last	-7.8597
le	-7.8599
▁big	-7.8667
▁might	-7.87038
an	-7.87217
▁before	-7.87529
▁bir	-7.8844
▁example	-7.88863
▁help	-7.89047
▁better	-7.89371
▁off	-7.89695
▁re	-7.89731
be	-7.89887
▁never	-7.89918
▁together	-7.8992
▁few	-7.89968
way	-7.90069
▁point	-7.90386
▁course	-7.90594
▁able	-7.90767
▁love	-7.90806
or	-7.92222
▁create	-7.92627
▁system	-7.93104
▁million	-7.93632
▁still	-7.93763
▁story	-7.93966
ther	-7.94278
▁came	-7.94297
▁design	-7.94494
each	-7.94551
▁brain	-7.948
▁ago	-7.95127
th	-7.95402
▁long	-7.96368
▁next	-7.96952
thing	-7.97025
ation	-7.97088
ers	-7.97749
▁learn	-7.98028
▁live	-7.98057
▁bu	-7.98933
▁When	-7.98949
▁school	-7.9973
out	-7.99751
▁again	-7.9978
▁question	-7.99887
▁sort	-8.00763
▁C	-8.00788
ally	-8.01135
▁water	-8.01542
▁technology	-8.02163
ur	-8.0262
z	-8.03155
▁real	-8.03409
▁play	-8.03456
▁number	-8.03541
▁kid	-8.04
▁found	-8.04355
▁How	-8.04591
ween	-8.05361
▁ever	-8.05888
▁bet	-8.06911
▁və	-8.06946
▁cell	-8.07302
▁become	-8.07606
▁un	-8.07691
▁too	-8.08351
▁E	-8.08603
▁believe	-8.08979
▁car	-8.08993
▁understand	-8.09028
▁data	-8.09241
▁S	-8.10073
▁feel	-8.11209
ok	-8.12003
▁women	-8.12842
ecause	-8.13078
▁b	-8.135
la	-8.1375
▁space	-8.14548
▁light	-8.14842
▁done	-8.15349
ar	-8.15363
▁al	-8.159
▁10	-8.16043
▁whole	-8.17363
ment	-8.17468
▁always	-8.17841
▁second	-8.18346
▁old	-8.18726
▁F	-8.19015
ves	-8.19105
▁per	-8.1914
▁children	-8.19312
est	-8.19732
▁person	-8.19859
▁move	-8.20644
▁power	-8.21227
il	-8.21336
u	-8.22141
▁four	-8.23046
▁T	-8.23769
▁picture	-8.23804
▁20	-8.23908
ld	-8.23917
f	-8.23955
▁small	-8.24246
▁information	-8.24375
▁de	-8.24722
▁U	-8.25446
▁reason	-8.25666
▁under	-8.26226
▁guy	-8.26456
▁computer	-8.2709
▁home	-8.2712
it	-8.27642
▁No	-8.27973
▁working	-8.28144
▁building	-8.28819
▁experience	-8.28958
▁high	-8.29641
▁She	-8.29672
▁country	-8.2968
▁project	-8.30465
▁planet	-8.31008
▁One	-8.31328
ri	-8.31431
▁My	-8.31469
ma	-8.31749
▁sense	-8.31792
▁man	-8.31797
nt	-8.32083
▁w	-8.32121
went	-8.32437
▁future	-8.32817
▁money	-8.3305
▁moment	-8.33917
▁hard	-8.3446
ever	-8.34571
li	-8.34829
▁case	-8.34935
ir	-8.34979
▁For	-8.35019
▁form	-8.35897
▁thinking	-8.36257
▁Wh	-8.36587
▁process	-8.36781
▁open	-8.36864
▁liv	-8.36997
▁social	-8.37107
▁These	-8.37381
▁food	-8.37409
nough	-8.37427
ist	-8.38225
▁five	-8.38233
▁left	-8.38626
S	-8.39111
▁mak	-8.3919
▁group	-8.39477
us	-8.39794
▁billion	-8.40118
ness	-8.40414
quite	-8.40709
▁best	-8.4115
g	-8.4125
▁matter	-8.41285
▁energy	-8.41454
▁interesting	-8.41464
▁hand	-8.41564
▁bring	-8.4174
el	-8.41841
▁getting	-8.42252
▁To	-8.42404
▁Let	-8.42756
▁image	-8.43802
▁less	-8.43858
da	-8.4403
um	-8.44177
▁basic	-8.45691
▁ver	-8.45728
▁answer	-8.45757
ive	-8.45961
▁room	-8.46242
▁probabl	-8.46286
cross	-8.46349
▁stuff	-8.46998
▁animal	-8.47085
▁simple	-8.47244
▁countr	-8.47298
▁grow	-8.47528
▁piece	-8.47744
▁Africa	-8.47758
▁prett	-8.47803
▁possibl	-8.48613
ate	-8.4872
▁coming	-8.49255
▁seem	-8.49548
▁Bu	-8.49685
▁dollars	-8.49814
▁build	-8.49867
▁body	-8.49897
▁side	-8.49965
q	-8.50048
▁face	-8.50784
▁Earth	-8.50902
▁line	-8.51005
▁global	-8.51088
▁job	-8.51367
▁family	-8.5146
▁hav	-8.51482
▁close	-8.51907
▁keep	-8.51992
lar	-8.52129
▁saw	-8.52208
▁far	-8.52398
▁half	-8.5244
▁name	-8.52574
▁lives	-8.52927
▁allow	-8.53043
▁such	-8.53153
▁G	-8.53262
▁share	-8.54207
▁government	-8.54332
▁else	-8.54582
▁science	-8.54678
▁young	-8.55001
▁complete	-8.55742
▁All	-8.55885
▁set	-8.56054
▁o	-8.56227
▁da	-8.56404
ch	-8.56834
▁week	-8.56924
▁remember	-8.57112
ı	-8.57193
▁health	-8.57204
as	-8.57343
0	-8.57358
▁business	-8.57805
▁ra	-8.57894
▁c	-8.5825
▁machine	-8.58302
▁am	-8.58496
ous	-8.58533
▁later	-8.58684
▁almost	-8.58686
▁As	-8.58848
▁art	-8.59098
▁societ	-8.59406
▁men	-8.59406
▁care	-8.5945
▁thousand	-8.60114
▁disease	-8.60624
▁New	-8.60662
▁single	-8.61247
▁inside	-8.61334
▁particular	-8.61341
▁mind	-8.61405
▁girl	-8.61855
▁video	-8.62066
▁hope	-8.62088
▁bad	-8.62489
▁read	-8.62811
un	-8.62894
stead	-8.63209
▁histor	-8.63223
▁imagine	-8.63266
less	-8.63421
▁amazing	-8.63946
et	-8.64328
ro	-8.64539
▁order	-8.64591
▁city	-8.64744
▁sure	-8.6497
ready	-8.65911
▁yet	-8.65962
▁while	-8.66194
▁six	-8.66302
age	-8.67021
▁often	-8.67138
x	-8.67439
lo	-8.6767
▁age	-8.67841
is	-8.68223
▁book	-8.6848
▁times	-8.68672
▁public	-8.687
▁O	-8.68843
▁nothing	-8.69011
▁watch	-8.69033
▁student	-8.69144
▁community	-8.69202
lər	-8.69329
▁days	-8.69555
to	-8.69647
▁large	-8.69908
ra	-8.70004
▁certain	-8.70149
▁beautiful	-8.70713
▁level	-8.70716
▁minute	-8.70784
▁both	-8.7095
▁war	-8.71117
▁ki	-8.71234
91	-8.71301
də	-8.71672
▁study	-8.71734
▁months	-8.71805
▁Do	-8.71883
▁test	-8.72185
▁self	-8.7245
▁run	-8.7251
▁figure	-8.72601
▁interest	-8.72712
▁happens	-8.72814
▁co	-8.73487
▁On	-8.73582
▁whe	-8.73622
▁child	-8.73805
▁head	-8.74158
▁exact	-8.74276
▁cost	-8.74496
di	-8.74548
▁wrong	-8.74628
▁game	-8.74765
▁walk	-8.75152
▁f	-8.75482
man	-8.75633
▁top	-8.76038
▁hundred	-8.76166
▁land	-8.76173
▁stop	-8.76352
▁patient	-8.76543
▁term	-8.76879
▁D	-8.77022
▁stand	-8.77122
at	-8.77275
▁realize	-8.7748
▁universe	-8.77487
▁result	-8.77608
▁control	-8.77885
▁də	-8.78262
ent	-8.7841
▁model	-8.78422
▁heard	-8.78463
▁entire	-8.78825
▁plant	-8.78966
93;	-8.7907
▁challenge	-8.79087
▁problems	-8.79258
▁final	-8.79455
▁individual	-8.79686
▁built	-8.79742
▁...	-8.79947
D	-8.80015
▁market	-8.80184
▁saying	-8.80389
▁difference	-8.8043
▁couple	-8.80679
▁once	-8.80683
▁American	-8.81323
ter	-8.81334
▁30	-8.81424
▁50	-8.8179
▁State	-8.81958
vi	-8.81967
▁sound	-8.82131
▁heart	-8.82175
▁environment	-8.82505
▁past	-8.82603
▁unti	-8.8267
▁nature	-8.82952
▁M	-8.83078
▁true	-8.83368
came	-8.83435
▁develop	-8.83543
▁makes	-8.83586
ability	-8.83831
▁phone	-8.83977
▁words	-8.84054
▁Internet	-8.84106
▁Every	-8.84456
▁language	-8.84624
▁g	-8.84775
ac	-8.84869
▁Unit	-8.85022
▁issue	-8.8515
▁research	-8.85162
▁woman	-8.85383
▁night	-8.85508
▁must	-8.85668
▁ways	-8.85687
ü	-8.85695
taking	-8.8583
▁though	-8.85899
▁pay	-8.8591
▁hear	-8.8595
ian	-8.86076
gan	-8.86283
▁decided	-8.86561
▁follow	-8.8659
▁happening	-8.86725
▁lead	-8.86727
▁tool	-8.86869
▁India	-8.87076
▁free	-8.87233
ş	-8.87357
▁since	-8.87521
im	-8.87648
▁quick	-8.87657
am	-8.88073
▁P	-8.88131
ything	-8.88141
na	-8.88182
▁stories	-8.88205
▁view	-8.88333
▁education	-8.88387
v	-8.88388
▁Or	-8.88588
▁leave	-8.88595
▁species	-8.88643
ci	-8.88771
te	-8.88825
▁object	-8.88845
▁America	-8.88859
▁discover	-8.889
▁house	-8.89137
▁team	-8.89313
▁creat	-8.89342
▁huge	-8.89426
▁kne	-8.89708
▁friends	-8.899
▁speak	-8.89922
against	-8.90008
lu	-8.90444
▁music	-8.90493
ne	-8.90672
▁TED	-8.90781
▁cancer	-8.90924
▁15	-8.90969
▁economic	-8.90975
▁spend	-8.91012
▁ocean	-8.91056
▁deal	-8.91228
msel	-8.91237
where	-8.91304
▁mother	-8.91441
ta	-8.91662
▁word	-8.91774
▁sometimes	-8.92032
▁natural	-8.92309
▁color	-8.9245
▁Some	-8.92464
▁oursel	-8.92593
▁experiment	-8.92668
▁fly	-8.92902
▁100	-8.92949
▁black	-8.93298
up	-8.93337
▁air	-8.93838
▁force	-8.93873
haps	-8.93894
ten	-8.94014
lə	-8.94029
▁Oka	-8.94379
A	-8.94412
▁leas	-8.94579
ance	-8.94929
▁company	-8.95008
▁An	-8.95055
po	-8.95075
▁network	-8.95153
▁los	-8.95566
▁program	-8.95583
▁structure	-8.9564
▁culture	-8.95654
▁state	-8.95868
▁çox	-8.95876
▁robot	-8.96009
▁cause	-8.9618
▁simpl	-8.96225
▁front	-8.96353
▁con	-8.97008
▁along	-8.97034
▁OK	-8.97203
▁bigge	-8.97329
▁die	-8.97388
ni	-8.9783
▁outside	-8.97875
▁God	-8.97935
▁tree	-8.98302
not	-8.98368
ry	-8.98387
▁difficult	-8.98525
▁hours	-8.98595
ant	-8.98719
▁pick	-8.98981
C	-8.99125
2	-8.99627
▁questions	-8.99649
old	-8.99666
▁middle	-9.00028
ism	-9.00627
▁Oh	-9.01517
▁exist	-9.0203
▁field	-9.02095
▁population	-9.02638
ia	-9.03065
▁choice	-9.03259
▁listen	-9.03286
▁produce	-9.03446
▁amount	-9.03612
▁Al	-9.03615
ca	-9.03693
▁act	-9.03943
▁di	-9.0404
▁scale	-9.04069
▁step	-9.04084
▁At	-9.04202
ck	-9.04664
▁death	-9.04679
▁compani	-9.04683
▁short	-9.04835
ine	-9.04967
▁won	-9.04993
▁poor	-9.05313
▁scientist	-9.05472
▁dur	-9.0566
▁early	-9.06061
▁K	-9.06101
▁device	-9.06114
ul	-9.06304
▁pattern	-9.06436
▁focus	-9.06436
▁relationship	-9.06437
▁explain	-9.06598
▁engineer	-9.06666
dir	-9.07023
5	-9.07115
▁surface	-9.0741
mi	-9.07459
▁Then	-9.07466
▁beginning	-9.07739
T	-9.07852
ling	-9.07898
▁common	-9.079
ən	-9.07917
▁century	-9.08404
▁size	-9.0847
moving	-9.08559
▁support	-9.08722
▁fear	-9.08729
▁buy	-9.08883
▁third	-9.08887
▁learning	-9.09085
▁drive	-9.09226
▁seven	-9.09398
▁effect	-9.09697
land	-9.09733
▁citi	-9.09785
▁üçün	-9.09885
▁Yea	-9.09905
ti	-9.10012
bo	-9.10126
▁full	-9.10177
▁deep	-9.10434
ph	-9.10456
▁realit	-9.10538
▁wait	-9.10556
▁local	-9.10725
▁reach	-9.10761
▁father	-9.10893
▁media	-9.11103
ie	-9.11277
▁physical	-9.1157
▁p	-9.11575
▁fish	-9.11752
▁happy	-9.1191
▁film	-9.12081
year	-9.12112
▁safe	-9.12424
▁feeling	-9.12437
▁works	-9.1258
▁wonderful	-9.12611
ol	-9.12655
ized	-9.12785
▁parents	-9.12844
▁var	-9.13056
mo	-9.13095
▁Mo	-9.13358
▁major	-9.13457
▁sea	-9.1354
▁teacher	-9.13678
▁H	-9.13719
▁Re	-9.13923
▁behavior	-9.13929
▁st	-9.14088
ut	-9.14293
▁behind	-9.14327
tic	-9.14424
▁generation	-9.14605
▁kill	-9.14672
ru	-9.14683
▁fall	-9.14717
▁York	-9.14734
▁China	-9.14904
▁powerful	-9.15084
▁systems	-9.15128
▁friend	-9.15236
▁40	-9.15239
▁19	-9.15596
▁easy	-9.15912
▁normal	-9.16003
▁3	-9.16313
▁eyes	-9.16336
▁area	-9.16469
▁movement	-9.16697
▁fight	-9.16807
▁stay	-9.17288
▁near	-9.17341
▁protect	-9.17508
▁L	-9.17624
▁political	-9.18281
▁J	-9.18344
▁rest	-9.18402
▁begin	-9.18789
▁save	-9.18808
▁paper	-9.18974
▁red	-9.19167
▁add	-9.19321
▁Ma	-9.19372
▁De	-9.19424
▁travel	-9.19525
▁Just	-9.1972
▁eight	-9.1973
▁map	-9.19804
ki	-9.19839
▁decision	-9.19893
▁thank	-9.20059
▁news	-9.20076
▁blue	-9.20077
▁longer	-9.20136
▁notice	-9.20231
▁Our	-9.20316
▁value	-9.20359
▁movie	-9.20635
▁oil	-9.2065
felt	-9.20847
▁rate	-9.20912
▁Right	-9.2101
ish	-9.21431
▁hands	-9.2179
dən	-9.21846
▁organization	-9.22146
▁send	-9.22186
▁pass	-9.22417
si	-9.22446
▁fun	-9.2247
▁boy	-9.22714
▁slow	-9.2272
▁absolute	-9.22892
ba	-9.22994
▁People	-9.23083
dan	-9.23086
ik	-9.2328
co	-9.23288
ated	-9.23303
cə	-9.2358
▁personal	-9.23645
▁wall	-9.23682
▁pre	-9.23833
M	-9.23988
▁Yes	-9.2399
op	-9.23992
▁k	-9.24013
▁center	-9.24117
▁DNA	-9.24234
▁approach	-9.24427
▁key	-9.24438
▁perfect	-9.2462
ard	-9.2495
▁Can	-9.25188
fi	-9.25214
▁tried	-9.25435
ither	-9.25458
▁hold	-9.25479
▁gone	-9.25487
me	-9.25649
ton	-9.25651
▁material	-9.2566
▁obvious	-9.25788
▁born	-9.25802
▁service	-9.26181
▁growth	-9.26258
▁1	-9.26411
▁12	-9.26467
▁present	-9.26794
ab	-9.26802
ləri	-9.26921
▁ground	-9.2695
▁Go	-9.27042
▁complex	-9.27136
▁economy	-9.27169
▁opportunity	-9.27368
▁Not	-9.27503
▁bas	-9.27623
ary	-9.27631
▁risk	-9.27641
▁solve	-9.27705
▁white	-9.27767
▁dark	-9.27946
▁low	-9.28279
▁record	-9.28635
▁18	-9.28676
▁access	-9.28691
▁resource	-9.28779
▁sitt	-9.28794
▁treat	-9.28963
▁feet	-9.29062
ful	-9.29215
▁technologi	-9.29783
▁extreme	-9.29785
▁fundamental	-9.29785
id	-9.29863
▁toward	-9.29889
▁action	-9.29921
▁camera	-9.30055
▁stage	-9.30357
aught	-9.30599
▁pro	-9.30726
▁Be	-9.30799
▁incredibl	-9.30898
▁shape	-9.31094
▁giv	-9.31223
ize	-9.31295
▁doctor	-9.31313
▁eat	-9.31339
▁blood	-9.31432
▁message	-9.31644
▁measure	-9.31692
▁consider	-9.31845
▁impact	-9.31845
▁increase	-9.31845
▁clear	-9.31859
▁green	-9.31879
P	-9.32016
ları	-9.32301
▁cut	-9.32341
▁cool	-9.32492
▁expect	-9.32646
ge	-9.32649
▁average	-9.33102
changing	-9.33104
▁climate	-9.33312
and	-9.33499
▁spen	-9.33547
▁tin	-9.33804
▁photograph	-9.3399
▁write	-9.33997
▁sign	-9.34072
▁son	-9.34787
ig	-9.34957
▁Ra	-9.35011
▁essential	-9.35016
▁potential	-9.35016
▁digital	-9.35017
▁Music	-9.35018
▁plan	-9.35101
K	-9.35399
▁R	-9.35537
,000	-9.35612
▁Ba	-9.35625
▁N	-9.35695
▁met	-9.3579
▁morning	-9.35879
4	-9.36026
I	-9.36315
cu	-9.36384
8	-9.36452
▁condition	-9.36834
▁continue	-9.36921
▁miles	-9.36954
▁forward	-9.36966
▁innovation	-9.37188
ır	-9.37253
▁literal	-9.37264
▁conversation	-9.37408
▁artist	-9.37436
▁pull	-9.37593
▁nə	-9.37616
O	-9.37793
▁nice	-9.37853
▁humans	-9.3787
▁break	-9.38011
ster	-9.38144
mp	-9.38197
▁train	-9.38219
ö	-9.38471
▁attention	-9.38514
▁CA	-9.38789
tra	-9.39067
ib	-9.39231
▁areas	-9.39247
▁developed	-9.39442
▁law	-9.3946
▁bottom	-9.39633
▁African	-9.39816
▁gav	-9.39851
▁dis	-9.39903
▁voice	-9.39927
ver	-9.40061
ha	-9.40119
ical	-9.40345
ın	-9.40372
▁understanding	-9.40402
▁situation	-9.40536
▁chance	-9.40537
▁development	-9.40587
▁push	-9.40767
▁11	-9.4114
alone	-9.4119
▁sudden	-9.41449
▁knowledge	-9.41679
▁fire	-9.41688
▁Ha	-9.41735
rought	-9.41741
hi	-9.41808
▁solution	-9.41832
▁eye	-9.41886
▁Europe	-9.421
ke	-9.4267
▁ice	-9.42686
rote	-9.42973
▁meet	-9.43008
▁idi	-9.43024
▁product	-9.43061
9	-9.4308
▁electric	-9.43167
▁spread	-9.43173
▁books	-9.43335
▁theory	-9.43349
▁source	-9.43394
ors	-9.43956
▁audience	-9.44001
▁touch	-9.44153
ç	-9.44195
▁Le	-9.44346
▁code	-9.44371
R	-9.44436
▁60	-9.44469
▁region	-9.44473
▁general	-9.44711
▁dream	-9.44743
▁W	-9.44748
▁hit	-9.44943
▁strong	-9.45058
▁qu	-9.45107
▁sun	-9.45181
▁wonder	-9.45197
▁With	-9.45201
▁raise	-9.45226
▁special	-9.4527
▁late	-9.45307
cy	-9.45326
ial	-9.4534
▁forest	-9.45486
3	-9.45502
▁mass	-9.45527
▁recently	-9.45533
▁village	-9.4566
▁Ro	-9.45723
▁worth	-9.46035
▁sp	-9.46084
▁fast	-9.46163
▁serious	-9.46379
ər	-9.46489
▁Google	-9.4662
▁page	-9.46646
min	-9.46765
▁Mars	-9.46782
▁box	-9.46796
E	-9.46875
specially	-9.47129
▁lab	-9.4713
▁truth	-9.47141
▁specific	-9.47161
▁industry	-9.47347
▁direct	-9.47347
▁cover	-9.47354
▁affect	-9.4759
▁avail	-9.4759
lan	-9.47596
▁Və	-9.47635
▁main	-9.47661
▁modern	-9.47834
▁sit	-9.48019
▁hospital	-9.48078
▁soon	-9.48277
▁studie	-9.48324
dır	-9.48407
▁screen	-9.48459
B	-9.48461
▁ex	-9.48517
▁sex	-9.48671
▁runn	-9.48685
pe	-9.48811
▁teach	-9.48941
1	-9.4905
▁journey	-9.49062
▁attack	-9.49064
▁bar	-9.49089
▁putting	-9.49104
N	-9.49185
credible	-9.49203
▁type	-9.49358
6	-9.49402
▁Y	-9.49518
▁provide	-9.49627
pa	-9.49677
▁m	-9.49784
▁non	-9.49788
▁smart	-9.49814
yond	-9.49847
▁easi	-9.49869
▁World	-9.50306
▁current	-9.50306
▁guess	-9.50306
▁dead	-9.50309
▁skill	-9.50342
▁200	-9.50529
▁connect	-9.50754
▁baby	-9.50809
▁scar	-9.51099
head	-9.51234
▁period	-9.51313
▁carbon	-9.51313
▁vision	-9.51314
maq	-9.51513
▁leg	-9.52009
▁English	-9.52074
▁rich	-9.52245
com	-9.52267
▁goal	-9.52287
ood	-9.52528
▁site	-9.52725
▁similar	-9.53205
▁among	-9.53366
▁star	-9.5345
▁solar	-9.53709
ap	-9.53794
▁ya	-9.53926
ile	-9.53943
▁door	-9.53973
▁progress	-9.54133
▁block	-9.54403
▁Where	-9.54421
əm	-9.5458
▁galax	-9.54655
▁track	-9.54656
▁sub	-9.54667
▁Look	-9.54673
▁trust	-9.54678
▁wind	-9.54753
▁institution	-9.54765
▁St	-9.54875
▁role	-9.54919
▁Of	-9.54973
em	-9.55173
▁several	-9.55179
▁table	-9.55189
yə	-9.5521
▁represent	-9.55405
bi	-9.55545
▁success	-9.55629
▁rules	-9.55645
▁offer	-9.55686
line	-9.56172
▁mo	-9.56658
ating	-9.57049
▁class	-9.5705
▁fail	-9.57299
▁kimi	-9.57401
▁collect	-9.57493
▁yes	-9.57509
▁predict	-9.57514
▁clean	-9.57573
▁connection	-9.57641
▁By	-9.57728
▁sell	-9.57769
▁Who	-9.57793
▁song	-9.57806
▁mən	-9.58162
▁South	-9.58225
G	-9.58249
he	-9.58545
ually	-9.58616
ub	-9.58625
▁medical	-9.58659
▁shows	-9.58725
oc	-9.58749
▁subject	-9.58823
▁2	-9.58927
▁First	-9.58928
▁fair	-9.58934
ak	-9.58963
ought	-9.59063
ization	-9.5913
▁evidence	-9.59201
▁extraordinar	-9.59201
▁nine	-9.59213
▁character	-9.59227
▁perspective	-9.5975
▁benefit	-9.5975
▁recognize	-9.59787
more	-9.59805
time	-9.59914
ah	-9.59926
▁concept	-9.60113
ese	-9.60149
▁speed	-9.60181
▁leaders	-9.60221
bu	-9.60417
▁en	-9.60557
▁wish	-9.60616
▁visual	-9.60622
▁super	-9.60834
▁response	-9.60856
▁road	-9.60933
ip	-9.60969
ber	-9.60975
▁flow	-9.61071
▁80	-9.61136
▁wear	-9.61184
▁invent	-9.61217
how	-9.61374
▁After	-9.61414
▁virus	-9.61414
▁search	-9.61416
▁daha	-9.61438
▁25	-9.61535
▁Maybe	-9.61685
▁scientific	-9.61698
tə	-9.61821
▁secret	-9.61975
▁online	-9.62155
▁Sa	-9.6216
▁Bo	-9.62201
▁require	-9.62228
▁street	-9.62317
▁equal	-9.62356
▁effective	-9.62708
ex	-9.62739
kay	-9.62785
▁stick	-9.62832
no	-9.63205
▁Di	-9.63229
▁function	-9.6324
gu	-9.63286
▁list	-9.63369
lik	-9.63425
▁Even	-9.63548
▁violen	-9.636
▁hole	-9.63656
▁mine	-9.63871
▁Me	-9.63922
▁tend	-9.63931
▁detail	-9.63964
ach	-9.64113
▁evolution	-9.64287
live	-9.64395
▁event	-9.64425
▁Don	-9.64769
▁designer	-9.64854
▁arm	-9.64863
▁count	-9.64918
side	-9.64918
▁join	-9.65048
▁crazy	-9.65118
▁adult	-9.65123
av	-9.65162
▁skin	-9.65167
▁base	-9.65235
▁choose	-9.65256
▁securit	-9.65263
▁tru	-9.65293
▁inter	-9.65371
▁molecule	-9.65409
▁Most	-9.65451
▁successful	-9.65494
▁store	-9.65549
ga	-9.65576
ot	-9.65586
▁sent	-9.65855
▁lose	-9.65866
▁connected	-9.65892
▁month	-9.65956
▁Dr	-9.65963
▁deliver	-9.65995
▁Co	-9.66179
▁fund	-9.66528
▁signal	-9.66703
▁sounds	-9.66714
▁writing	-9.66875
▁favorite	-9.66877
▁degree	-9.66962
▁90	-9.67016
do	-9.67073
▁visit	-9.67172
▁office	-9.67203
▁communit	-9.67609
ran	-9.67617
▁faster	-9.67622
ini	-9.6763
▁post	-9.67683
ler	-9.67733
son	-9.67738
▁price	-9.67888
▁national	-9.67955
▁ha	-9.67961
by	-9.68059
▁walking	-9.68351
▁further	-9.68371
▁drug	-9.68586
▁carry	-9.68744
▁waste	-9.68783
▁suggest	-9.68906
ily	-9.69196
▁ball	-9.6926
▁exciting	-9.69267
▁poverty	-9.69267
▁software	-9.69571
▁revolution	-9.69626
▁gre	-9.69779
▁includ	-9.69819
▁throw	-9.69875
▁bacteria	-9.70175
▁necessar	-9.70179
▁fill	-9.70182
▁describe	-9.70314
ator	-9.70405
▁traditional	-9.70463
▁biz	-9.70486
▁onto	-9.70495
the	-9.70529
▁remain	-9.70791
▁democracy	-9.70927
▁olan	-9.71077
L	-9.71192
▁college	-9.71411
▁bilər	-9.71414
▁print	-9.71441
▁creative	-9.71625
▁16	-9.71729
go	-9.71836
▁nation	-9.71865
mə	-9.71953
▁medicine	-9.72028
ho	-9.72028
▁transform	-9.72263
tro	-9.72558
▁immediate	-9.72652
▁finish	-9.72652
▁Man	-9.72735
▁fit	-9.72842
lin	-9.72919
▁colleague	-9.72965
▁drugs	-9.73047
▁card	-9.73113
▁sh	-9.73127
▁ma	-9.73185
▁Pa	-9.73243
▁Video	-9.7328
▁bank	-9.73303
▁letter	-9.73397
we	-9.73406
ow	-9.73443
con	-9.73586
▁inspire	-9.73595
▁materials	-9.73724
▁position	-9.73731
▁North	-9.73937
▁depend	-9.73972
▁context	-9.74229
▁Ne	-9.7432
▁stars	-9.74463
▁everywhere	-9.74479
▁conflict	-9.74548
▁ga	-9.74613
qu	-9.74654
▁War	-9.74726
lı	-9.74795
▁led	-9.74928
▁fine	-9.75042
▁hour	-9.75069
▁higher	-9.75078
▁accept	-9.75188
▁surprise	-9.75188
▁Are	-9.75276
▁famili	-9.75481
▁chemical	-9.75509
▁complicated	-9.75509
▁account	-9.75783
▁treatment	-9.75877
▁lower	-9.7606
▁wife	-9.76155
▁hər	-9.76232
▁daughter	-9.7648
▁la	-9.7656
dı	-9.76576
ture	-9.76794
▁genes	-9.76952
▁version	-9.77021
▁religion	-9.77133
▁address	-9.77133
▁V	-9.77145
▁quality	-9.77275
va	-9.77304
▁ready	-9.77309
▁appear	-9.77447
▁German	-9.77461
ide	-9.77504
ng	-9.77591
▁gas	-9.77659
▁publish	-9.77789
▁return	-9.77789
▁factor	-9.77862
▁ho	-9.78159
▁sleep	-9.78234
▁direction	-9.78556
▁supposed	-9.78603
▁possibilit	-9.78783
▁worse	-9.78783
▁La	-9.79023
▁shift	-9.79264
▁cap	-9.79276
▁genetic	-9.79426
▁dy	-9.79558
▁warm	-9.79619
ite	-9.79664
▁feed	-9.79725
▁eventual	-9.79837
▁West	-9.79843
▁total	-9.79874
▁il	-9.79951
istan	-9.79954
▁rain	-9.80076
▁interact	-9.80381
▁element	-9.80451
▁launch	-9.80462
▁invest	-9.80619
▁larger	-9.80666
ox	-9.80676
▁iş	-9.80712
▁Afghan	-9.80799
▁famous	-9.808
▁increasing	-9.808
▁above	-9.80805
▁cross	-9.80941
▁meant	-9.80944
ify	-9.81024
▁worker	-9.81024
▁ran	-9.81076
▁communication	-9.81263
refore	-9.81322
▁check	-9.81481
▁fuel	-9.81481
▁jump	-9.81482
▁link	-9.81482
▁cold	-9.81532
▁activity	-9.81559
ick	-9.81771
▁moral	-9.81777
▁compassion	-9.81809
▁earlie	-9.81829
▁pressure	-9.81829
▁architecture	-9.81887
▁finding	-9.82053
ff	-9.82099
▁expert	-9.82167
▁paint	-9.82251
▁bio	-9.82314
like	-9.82315
▁practice	-9.82396
▁pain	-9.82499
▁Chris	-9.82513
▁14	-9.82772
▁floor	-9.82873
wise	-9.82996
▁explore	-9.83038
▁Act	-9.83043
▁neurons	-9.83049
▁painting	-9.83116
▁smaller	-9.83118
▁plastic	-9.83205
▁meeting	-9.83226
▁standard	-9.83233
▁mental	-9.83265
▁zero	-9.83433
gi	-9.83497
▁particle	-9.83554
▁impossibl	-9.8357
▁larges	-9.83746
▁haven	-9.83807
▁usual	-9.83842
▁intelligence	-9.83904
▁4	-9.84122
▁male	-9.84287
ək	-9.8434
▁li	-9.84384
▁şey	-9.84408
▁female	-9.84606
▁purpose	-9.84606
▁organism	-9.84617
aid	-9.84782
▁bone	-9.84898
▁original	-9.84938
▁afford	-9.8496
▁unique	-9.8496
▁drop	-9.85055
▁excited	-9.85129
▁mis	-9.85242
▁draw	-9.85382
sə	-9.8547
▁press	-9.8563
▁principle	-9.8567
▁task	-9.8567
▁farm	-9.8575
▁foot	-9.85861
▁perform	-9.85913
▁shot	-9.85957
▁indeed	-9.86031
▁square	-9.86098
ud	-9.86156
ious	-9.8623
▁text	-9.8637
▁finger	-9.86398
ship	-9.86407
00	-9.86448
▁hot	-9.86527
▁ultimate	-9.86745
▁bunch	-9.86755
▁biolog	-9.86771
der	-9.86794
▁relative	-9.86865
▁pe	-9.86893
▁prevent	-9.87107
▁creature	-9.87121
▁enter	-9.87136
▁San	-9.87165
▁extra	-9.87185
▁capital	-9.87286
though	-9.87396
ag	-9.87449
▁range	-9.87452
du	-9.87455
▁constant	-9.87469
▁luck	-9.87476
▁rise	-9.87479
▁remind	-9.87595
▁effort	-9.87832
▁enormous	-9.87832
▁wild	-9.87847
▁slide	-9.88246
▁please	-9.88286
ze	-9.88369
▁lesson	-9.88399
▁13	-9.8841
▁models	-9.8844
siniz	-9.88492
▁products	-9.8863
ise	-9.88804
mək	-9.88915
▁fascinat	-9.88931
▁memory	-9.88932
▁content	-9.88932
▁meter	-9.88991
▁virtual	-9.8911
▁cheap	-9.893
▁window	-9.89309
▁mention	-9.89325
▁rule	-9.89396
ka	-9.89552
magine	-9.89668
▁strange	-9.89752
▁5	-9.89764
▁heat	-9.90022
▁respond	-9.90042
▁apply	-9.90128
▁report	-9.90143
▁becom	-9.90146
▁9	-9.90428
ack	-9.90456
▁positive	-9.90546
▁21	-9.90553
▁massive	-9.90573
tu	-9.90696
▁terribl	-9.9079
▁happiness	-9.90796
▁unit	-9.90799
▁policy	-9.90862
H	-9.90948
▁deyil	-9.91058
▁enjoy	-9.91166
▁international	-9.91166
▁private	-9.91166
▁dangerous	-9.91174
▁aren	-9.91243
ium	-9.91244
ların	-9.91476
▁vi	-9.91562
▁görə	-9.91605
ped	-9.91644
▁photo	-9.91719
▁expensive	-9.91922
▁series	-9.91924
per	-9.92006
▁critical	-9.92087
▁path	-9.92178
▁Ta	-9.92289
▁East	-9.92308
▁bodi	-9.92315
▁environmental	-9.9233
▁brother	-9.92345
▁involve	-9.9236
ically	-9.92577
▁cr	-9.92633
ritten	-9.92669
▁concern	-9.92684
▁wave	-9.92696
▁Per	-9.92967
men	-9.92988
▁mom	-9.93028
▁decades	-9.9303
▁tissue	-9.93067
▁fantastic	-9.9307
▁interview	-9.93072
▁manage	-9.93218
kept	-9.93337
art	-9.93406
▁physics	-9.93452
▁target	-9.93452
▁crisis	-9.93452
▁saving	-9.93452
▁worry	-9.93454
▁neighborhood	-9.93454
▁respect	-9.93468
▁corner	-9.93532
uc	-9.93596
▁roll	-9.93706
▁clearly	-9.93812
▁HIV	-9.93838
▁straight	-9.93838
▁beaut	-9.9384
▁freedom	-9.93846
▁bomb	-9.93856
▁weight	-9.94054
▁Vi	-9.94078
▁healthy	-9.94181
▁vehicle	-9.94226
▁demand	-9.94226
▁sky	-9.9423
▁board	-9.94272
▁solutions	-9.94354
▁gene	-9.94499
▁vote	-9.94615
▁instance	-9.94616
▁insect	-9.9465
▁achieve	-9.9479
▁police	-9.94913
▁blind	-9.94983
au	-9.951
▁survive	-9.95289
▁Chin	-9.95344
▁hair	-9.95428
tion	-9.95429
▁x	-9.95505
tter	-9.95518
ek	-9.9579
▁communicate	-9.95872
▁yea	-9.95989
▁ilə	-9.96088
▁involv	-9.96126
end	-9.96157
▁improve	-9.96162
▁cloud	-9.96186
▁genome	-9.96186
▁financial	-9.96187
▁reading	-9.96193
▁trick	-9.96194
lərin	-9.96394
▁organ	-9.96472
▁br	-9.96478
▁Br	-9.96521
eath	-9.96546
▁remarkabl	-9.96587
▁wide	-9.96603
▁TV	-9.96603
▁familiar	-9.96618
ür	-9.96804
▁lo	-9.96842
▁park	-9.96881
ham	-9.96943
▁Universit	-9.96982
▁atmosphere	-9.97058
iz	-9.97064
▁cook	-9.97094
▁stopp	-9.97205
uck	-9.97267
▁qədər	-9.97382
▁trial	-9.97412
rry	-9.97529
▁radio	-9.97541
▁mobile	-9.97551
▁military	-9.97783
▁spin	-9.97784
ble	-9.97805
▁decade	-9.97822
▁dimension	-9.97857
▁emotion	-9.97974
▁prison	-9.97982
ana	-9.97999
ward	-9.98024
▁8	-9.98047
▁urban	-9.98186
▁define	-9.98199
▁strateg	-9.98311
▁Ka	-9.98474
▁Ga	-9.98496
▁consequence	-9.98591
lic	-9.98593
▁Like	-9.98598
▁driving	-9.98695
▁significant	-9.98755
▁glass	-9.98766
ger	-9.98775
▁meaning	-9.98885
ün	-9.98947
▁protein	-9.98998
▁Which	-9.98998
▁cha	-9.98999
▁24	-9.99011
▁invite	-9.99022
▁slight	-9.99035
chi	-9.99059
▁training	-9.99099
▁Su	-9.99138
▁income	-9.99236
ft	-9.99334
▁London	-9.99406
▁manufactur	-9.99406
▁Two	-9.99406
che	-9.99563
▁dog	-9.99605
▁gra	-9.99636
▁win	-9.99664
▁advance	-9.99711
▁expand	-9.99816
▁technique	-9.99816
▁Hu	-9.99949
▁reduce	-10.0004
▁layer	-10.0011
▁climb	-10.0023
▁landscape	-10.0023
▁decide	-10.0024
▁politic	-10.0054
▁fix	-10.0055
▁damage	-10.0064
▁performance	-10.0066
▁investment	-10.0068
▁sat	-10.0083
hu	-10.0087
▁recent	-10.0089
▁various	-10.0107
▁production	-10.0116
▁Car	-10.0121
▁race	-10.013
ging	-10.0142
▁temperature	-10.0147
▁Mən	-10.0151
▁belə	-10.0167
▁dance	-10.0174
▁neighbor	-10.0189
▁river	-10.0189
▁summer	-10.0189
▁spot	-10.019
▁collective	-10.0192
den	-10.0193
▁career	-10.02
spite	-10.02
▁Con	-10.0204
▁anyway	-10.0212
F	-10.0221
▁peace	-10.0224
▁instrument	-10.0231
▁satellite	-10.0231
▁magic	-10.0233
▁mission	-10.025
ice	-10.0253
▁ge	-10.0256
▁trade	-10.0274
▁forget	-10.0274
▁moon	-10.0281
▁ca	-10.0286
ible	-10.031
▁typical	-10.0324
za	-10.0337
▁underst	-10.0337
ifi	-10.034
ində	-10.0351
▁Western	-10.0358
▁stem	-10.036
▁citizens	-10.036
▁Take	-10.0364
▁Indian	-10.0373
▁Am	-10.0376
▁Many	-10.0392
▁drink	-10.0401
ya	-10.0415
if	-10.0424
▁Ki	-10.0424
ure	-10.0428
▁generate	-10.0435
▁brand	-10.0445
▁Ju	-10.0449
inə	-10.0473
▁separate	-10.0484
▁vaccine	-10.0487
▁email	-10.0487
▁double	-10.0487
▁nuclear	-10.0488
nə	-10.0492
ative	-10.0492
ray	-10.0497
▁passion	-10.0498
iya	-10.0514
▁circle	-10.053
▁wealth	-10.0531
▁Her	-10.0546
▁grand	-10.0557
▁except	-10.0568
▁cat	-10.0573
▁destroy	-10.0574
▁website	-10.0574
▁hero	-10.058
▁sonra	-10.0584
▁Ca	-10.0586
▁apart	-10.0591
▁values	-10.0595
▁rock	-10.0607
▁Think	-10.0618
▁web	-10.0625
▁bear	-10.0625
▁none	-10.0648
▁sustain	-10.065
ug	-10.0657
▁John	-10.066
water	-10.066
▁random	-10.0662
▁professional	-10.0675
▁biological	-10.0676
▁City	-10.0702
▁distance	-10.0705
mu	-10.0718
▁useful	-10.0719
▁Mu	-10.0734
▁teaching	-10.0741
▁trouble	-10.075
▁sister	-10.075
▁influence	-10.0751
▁flu	-10.0752
▁interaction	-10.0757
▁sensor	-10.0759
gen	-10.0765
▁Ver	-10.0771
▁realiz	-10.0781
▁plann	-10.0785
▁se	-10.0788
▁bütün	-10.0795
▁500	-10.0829
▁express	-10.0833
j	-10.0841
▁match	-10.085
▁birth	-10.0853
car	-10.0868
▁multi	-10.0872
▁charge	-10.0883
▁micro	-10.0885
▁produc	-10.0886
▁Li	-10.0889
▁tap	-10.0902
▁release	-10.0914
▁breath	-10.0922
▁consciousness	-10.093
tally	-10.0938
ving	-10.0941
▁emotional	-10.0952
iv	-10.0956
▁net	-10.0956
io	-10.0973
▁honest	-10.0974
▁worst	-10.0974
▁capture	-10.0975
▁Davi	-10.0975
▁imagination	-10.0975
▁cultural	-10.0988
▁catch	-10.0993
▁town	-10.0996
▁convince	-10.1019
▁infrastructure	-10.1019
▁smell	-10.1019
▁failure	-10.102
▁types	-10.1029
▁fac	-10.1033
▁forth	-10.1046
▁agree	-10.1051
▁compare	-10.1061
▁disappear	-10.1065
▁scene	-10.1065
▁noise	-10.1077
▁prove	-10.1094
▁basi	-10.1102
▁accident	-10.1111
▁sentence	-10.1111
▁giant	-10.1111
▁capacity	-10.1121
▁belief	-10.1122
ax	-10.1147
▁promise	-10.1157
▁du	-10.1157
▁flight	-10.1158
▁brains	-10.117
▁j	-10.1189
kin	-10.1196
▁Se	-10.1199
▁yer	-10.1202
▁speech	-10.1203
▁mistake	-10.1203
▁argument	-10.1204
dge	-10.1222
▁sequence	-10.1244
▁Second	-10.125
▁profound	-10.125
▁surviv	-10.125
▁option	-10.125
▁Po	-10.1252
ade	-10.1255
▁serve	-10.1267
▁aware	-10.127
▁Great	-10.1296
▁document	-10.1303
▁math	-10.1307
▁tough	-10.1313
▁Your	-10.1314
▁laws	-10.1324
▁airplane	-10.1343
▁ancient	-10.1343
▁contact	-10.1344
▁böyük	-10.1344
hand	-10.1354
▁gun	-10.1356
off	-10.1362
▁rare	-10.1364
▁Wi	-10.1367
▁Mi	-10.1368
▁edir	-10.1373
▁cycle	-10.1374
fa	-10.1382
▁edə	-10.1422
lıq	-10.1433
▁From	-10.1438
▁commercial	-10.1438
▁paid	-10.1439
rew	-10.1442
▁afr	-10.1445
▁imp	-10.1455
log	-10.1455
▁hə	-10.1456
▁anti	-10.1469
▁active	-10.1478
izing	-10.1478
que	-10.1485
▁television	-10.1486
▁motion	-10.1486
▁mid	-10.1493
▁vast	-10.1495
▁careful	-10.1513
▁below	-10.1514
▁flower	-10.1526
▁minds	-10.1531
ps	-10.1533
▁sharing	-10.1533
▁earth	-10.1535
▁player	-10.1545
▁fle	-10.1546
▁surger	-10.1549
ada	-10.1563
▁consumer	-10.1565
▁evolved	-10.1568
▁dad	-10.1574
▁popular	-10.1582
▁cave	-10.1583
▁Ru	-10.1592
▁user	-10.1595
▁operation	-10.1605
▁Cha	-10.1622
night	-10.1624
▁Un	-10.1627
▁California	-10.163
▁outcome	-10.163
▁Wom	-10.1636
ect	-10.1637
zi	-10.164
▁sand	-10.1642
▁trip	-10.165
ğ	-10.1661
▁receive	-10.1665
▁reflect	-10.1669
aş	-10.167
▁seat	-10.1676
▁camp	-10.1678
▁continent	-10.1678
▁feature	-10.1678
▁surprising	-10.1678
▁election	-10.1681
▁isə	-10.1682
0,000	-10.1689
▁cur	-10.1708
▁streets	-10.1717
▁rough	-10.1718
▁dollar	-10.1728
▁correct	-10.1738
▁kilometer	-10.1776
▁lack	-10.1778
▁highly	-10.1784
▁edge	-10.1786
▁emerg	-10.1786
▁Ri	-10.1795
▁method	-10.1797
ome	-10.1799
▁Have	-10.1808
▁adapt	-10.1822
▁missing	-10.1822
▁campaign	-10.1825
▁gain	-10.184
ari	-10.1842
▁justice	-10.1847
▁app	-10.1858
▁Lo	-10.1867
▁Hi	-10.1869
▁supply	-10.1875
▁desire	-10.1875
▁Ho	-10.1879
▁babi	-10.188
▁sick	-10.1883
▁compar	-10.1886
▁enable	-10.1887
▁legal	-10.1903
lay	-10.1904
▁drawing	-10.1907
▁muscle	-10.1925
▁Iraq	-10.1928
▁contain	-10.1929
▁sing	-10.1942
▁ship	-10.1958
▁efficient	-10.196
▁threat	-10.197
▁traffic	-10.1975
▁central	-10.1975
▁switch	-10.1975
▁station	-10.1985
▁aid	-10.1986
▁Did	-10.2022
uar	-10.2026
▁motor	-10.2026
▁radical	-10.2026
▁National	-10.2028
aq	-10.2029
▁10,000	-10.2033
▁sad	-10.2036
older	-10.2041
▁Bir	-10.2045
▁Audience	-10.2075
▁component	-10.2075
▁bag	-10.2084
wa	-10.2118
▁6	-10.2126
▁sample	-10.2126
▁tremendous	-10.2126
▁twice	-10.2126
▁unfortunate	-10.2126
▁hearing	-10.2135
▁miss	-10.2146
▁plane	-10.2167
▁victim	-10.2177
▁tumor	-10.2177
▁coral	-10.2177
▁shock	-10.2177
▁hate	-10.2182
▁His	-10.2184
▁European	-10.2186
▁introduce	-10.2192
▁sustainabl	-10.221
▁birds	-10.2217
▁bed	-10.2222
▁strength	-10.2228
▁Muslim	-10.2228
▁border	-10.2229
▁blow	-10.2238
▁definition	-10.2239
▁oh	-10.2262
▁wire	-10.2264
▁background	-10.2286
▁responsibility	-10.2296
▁orbit	-10.2302
▁Sh	-10.2312
▁rid	-10.2331
▁oxygen	-10.2332
▁Over	-10.2336
▁chain	-10.2343
▁leader	-10.2345
▁mountain	-10.2349
▁Art	-10.2357
▁hum	-10.2359
dim	-10.2362
▁laugh	-10.2381
▁pack	-10.2384
▁zaman	-10.2384
▁claim	-10.2385
▁300	-10.239
▁forever	-10.2392
▁Da	-10.24
V	-10.241
fu	-10.2415
▁Ph	-10.242
▁eating	-10.2424
▁aspect	-10.2428
▁opportunit	-10.2436
▁Na	-10.2456
▁electronic	-10.2465
ley	-10.2476
▁husband	-10.2489
▁divide	-10.249
har	-10.249
of	-10.2499
DP	-10.2504
fin	-10.2508
▁beat	-10.2538
bra	-10.254
▁Brazil	-10.2542
▁coffee	-10.2542
▁crowd	-10.2542
▁malaria	-10.2542
▁boat	-10.2542
▁yaxşı	-10.2542
▁fold	-10.2542
▁industrial	-10.2546
▁More	-10.2547
▁held	-10.255
ang	-10.2563
▁Pro	-10.2565
▁extend	-10.2572
tor	-10.2572
term	-10.2579
ction	-10.2579
▁platform	-10.2595
▁pair	-10.2596
▁include	-10.2605
gra	-10.2605
let	-10.2621
▁balance	-10.2624
▁Big	-10.2627
▁199	-10.2641
▁Facebook	-10.2648
▁civilization	-10.2649
▁fully	-10.2654
ndi	-10.2669
▁olma	-10.2676
van	-10.2685
qui	-10.2692
ee	-10.2694
ctor	-10.2702
▁mechanism	-10.2702
▁application	-10.2702
▁mouth	-10.2702
▁El	-10.2702
▁rapid	-10.2703
▁Good	-10.2706
▁suit	-10.2717
aging	-10.2752
▁faith	-10.2756
▁avoid	-10.2756
▁monkey	-10.2756
▁reaction	-10.276
▁controll	-10.2767
▁creation	-10.278
▁detect	-10.2794
dimensional	-10.2801
▁cry	-10.2805
▁advantage	-10.2811
▁combine	-10.2811
▁bridge	-10.2812
▁struggle	-10.283
▁graph	-10.285
▁technical	-10.2865
▁necə	-10.2865
▁invisibl	-10.2866
▁funny	-10.2866
▁adopt	-10.2868
▁1,000	-10.2868
▁See	-10.2871
▁reward	-10.2871
▁Asia	-10.2872
▁gap	-10.2881
low	-10.2906
wi	-10.2919
▁loss	-10.292
▁Gülüş	-10.292
▁encourage	-10.292
▁remote	-10.292
▁sector	-10.2921
▁exercise	-10.2921
▁labor	-10.2928
▁members	-10.293
▁ən	-10.2935
▁notion	-10.2936
▁broken	-10.2951
▁caus	-10.2956
▁willing	-10.2969
val	-10.2973
▁Japan	-10.2975
▁Sun	-10.2975
▁olaraq	-10.2976
▁soldier	-10.2976
▁etmək	-10.2978
ep	-10.2988
▁burn	-10.2995
ja	-10.2998
ult	-10.3001
▁states	-10.3004
▁argue	-10.3016
len	-10.3017
▁researcher	-10.3023
▁core	-10.3024
orrow	-10.3027
▁refugee	-10.3031
▁Again	-10.3031
▁childhood	-10.3032
▁master	-10.3033
▁Sp	-10.3053
▁Sta	-10.3057
▁etc	-10.3059
uz	-10.3061
▁curve	-10.3072
led	-10.3075
▁algorithm	-10.3087
▁dynamic	-10.3087
▁ecosystem	-10.3087
▁gentlem	-10.3089
▁Sometime	-10.309
▁hopeful	-10.3091
▁wood	-10.31
port	-10.3101
ero	-10.3138
ış	-10.314
▁mess	-10.3141
▁magazine	-10.3143
▁alternative	-10.3143
▁opposite	-10.3143
▁gender	-10.3143
▁crime	-10.3144
▁dramatic	-10.3144
▁Kenya	-10.3144
ını	-10.3148
▁tax	-10.3158
▁Ja	-10.3181
right	-10.3183
▁article	-10.32
▁recover	-10.3202
▁chair	-10.3203
▁tradition	-10.3204
larını	-10.3206
▁complexit	-10.3209
ner	-10.3216
oo	-10.3225
▁sold	-10.3228
▁inform	-10.3231
▁previous	-10.3256
▁reveal	-10.3257
▁olduğu	-10.3257
▁estimate	-10.3258
▁soil	-10.3265
erson	-10.3276
▁öz	-10.3283
▁architect	-10.3284
▁associat	-10.331
▁artificial	-10.3313
▁root	-10.3314
ches	-10.3319
mü	-10.3339
▁diversit	-10.3353
▁bat	-10.337
istic	-10.3371
▁attempt	-10.3371
▁mathematics	-10.3371
▁cartoon	-10.3371
▁desert	-10.3371
▁transformation	-10.3378
▁island	-10.3396
W	-10.3406
▁heç	-10.3408
▁metal	-10.341
▁govern	-10.3426
▁yellow	-10.3429
▁trend	-10.3429
▁conference	-10.3429
▁bread	-10.343
▁farmers	-10.3447
▁symbol	-10.3447
▁engage	-10.3451
▁spirit	-10.3482
▁sw	-10.3487
▁French	-10.3487
▁stress	-10.3487
▁Che	-10.3491
▁identity	-10.351
nu	-10.3521
▁atom	-10.3525
▁holding	-10.3535
▁religious	-10.3545
▁bottle	-10.3545
▁flat	-10.3546
▁remove	-10.3551
light	-10.3561
tuck	-10.3588
▁AIDS	-10.3604
▁Would	-10.3604
▁competition	-10.3604
▁president	-10.3604
▁regular	-10.3604
▁worri	-10.3604
▁odd	-10.3606
▁gün	-10.361
▁Ar	-10.3631
mak	-10.3635
mber	-10.3658
▁Nigeria	-10.3663
▁breast	-10.3663
▁foreign	-10.3663
▁phenomeno	-10.3663
▁empower	-10.3663
af	-10.3675
▁memori	-10.3677
▁pal	-10.3695
▁sexual	-10.3704
▁z	-10.3705
▁Gu	-10.3706
▁due	-10.3708
▁responsibl	-10.3723
▁succeed	-10.3723
▁gift	-10.3723
▁sta	-10.3737
▁quote	-10.375
ologist	-10.3771
▁occurr	-10.3781
▁fossil	-10.3783
▁string	-10.3784
▁Any	-10.3785
▁Pe	-10.3786
over	-10.3791
▁Bill	-10.3792
ov	-10.3792
▁pop	-10.3799
▁fashion	-10.3802
▁na	-10.3803
▁Mr	-10.3804
▁related	-10.3807
▁Dan	-10.3821
▁min	-10.3823
▁organic	-10.3825
amp	-10.3833
▁civil	-10.3841
▁Einstein	-10.3843
▁click	-10.3843
▁dinosaur	-10.3843
▁equation	-10.3843
▁location	-10.3843
▁museum	-10.3843
▁coast	-10.3843
▁hurt	-10.3843
▁proper	-10.3844
cent	-10.3869
inin	-10.3874
əli	-10.3895
ership	-10.39
▁grandmother	-10.3904
▁fresh	-10.3904
▁Three	-10.3904
▁creativ	-10.3905
▁bright	-10.3907
▁era	-10.3924
▁lay	-10.393
care	-10.393
▁suffer	-10.3931
▁carrie	-10.3934
▁scan	-10.3951
▁British	-10.3965
▁identify	-10.3965
▁metaphor	-10.3965
▁newspaper	-10.3965
▁su	-10.3965
▁weird	-10.3971
ual	-10.3998
▁driver	-10.4012
▁coal	-10.4012
cho	-10.4019
▁ring	-10.4024
▁ten	-10.4025
▁Twitter	-10.4026
▁universal	-10.4026
▁score	-10.4026
▁classroom	-10.4026
▁analys	-10.4027
▁hi	-10.4027
▁proud	-10.4028
▁Hey	-10.4029
▁limited	-10.4029
▁CO	-10.4035
lam	-10.4038
▁bi	-10.4046
▁engine	-10.4051
ification	-10.4061
▁Web	-10.4078
▁parent	-10.4079
▁construct	-10.4082
▁perception	-10.4088
▁honor	-10.4088
▁marrie	-10.4088
▁olduğunu	-10.4088
▁facilit	-10.4096
▁baş	-10.4101
▁harder	-10.4124
▁chose	-10.4146
▁Australia	-10.415
▁epidemic	-10.415
▁Life	-10.415
▁marriage	-10.415
▁pounds	-10.4152
▁zone	-10.4156
▁Har	-10.4157
mer	-10.4162
dur	-10.4163
▁conduct	-10.4175
uff	-10.4177
▁400	-10.4201
▁circuit	-10.4212
▁roof	-10.4212
▁display	-10.4213
▁politician	-10.4214
▁bird	-10.4221
▁multiple	-10.4223
▁US	-10.4229
▁belong	-10.4236
ğı	-10.4238
▁bax	-10.426
▁dot	-10.4264
▁monitor	-10.4275
▁joy	-10.4276
wood	-10.4277
lit	-10.4279
aking	-10.4284
▁Amma	-10.4286
ain	-10.4333
board	-10.4333
ong	-10.4335
▁garden	-10.4338
▁interface	-10.4339
▁dozen	-10.4339
▁weather	-10.434
▁insight	-10.4343
▁ski	-10.4349
use	-10.4371
▁suffering	-10.4373
▁discovery	-10.4387
ou	-10.4394
▁collapse	-10.4402
▁professor	-10.4402
▁existence	-10.4402
▁vaxt	-10.4402
▁əvvəl	-10.4402
▁court	-10.4402
▁dress	-10.4402
▁novel	-10.4403
▁bias	-10.4405
▁replace	-10.4414
▁customer	-10.4427
▁graduate	-10.4438
▁provid	-10.4449
▁patent	-10.4467
▁curious	-10.4467
ight	-10.4476
▁copy	-10.4477
▁Ge	-10.4481
▁fell	-10.4486
base	-10.4501
▁deeply	-10.4507
▁150	-10.4511
▁pen	-10.4512
▁statistic	-10.4514
▁stream	-10.4516
▁yara	-10.4521
fish	-10.453
▁equivalent	-10.4531
▁negative	-10.4531
▁shark	-10.4531
ology	-10.4538
ier	-10.454
oid	-10.4546
▁photos	-10.4566
▁closed	-10.4569
lərini	-10.4577
▁Mar	-10.4578
və	-10.4582
▁bl	-10.4592
▁trillion	-10.4596
▁debate	-10.4596
▁198	-10.4596
▁fellow	-10.4596
▁mouse	-10.4596
▁taste	-10.4597
▁litera	-10.46
ama	-10.4603
lk	-10.4611
▁Ya	-10.4613
▁foundation	-10.4635
lf	-10.4638
ük	-10.464
▁distribut	-10.4655
▁conscious	-10.4659
▁crash	-10.4661
▁occur	-10.4665
▁independent	-10.4673
▁Si	-10.4675
▁factory	-10.4679
▁va	-10.468
▁date	-10.4691
▁meat	-10.4696
nin	-10.4697
miş	-10.4708
▁attract	-10.4726
▁opinion	-10.4727
▁comment	-10.4727
▁bubble	-10.4729
▁depression	-10.473
▁precise	-10.4735
▁continu	-10.4739
▁row	-10.474
sən	-10.4745
▁hop	-10.4747
▁property	-10.4749
▁earn	-10.4762
▁balloon	-10.4793
▁error	-10.4793
▁budget	-10.4793
▁equip	-10.4793
▁başqa	-10.4793
▁assume	-10.4797
▁applie	-10.4797
sı	-10.4825
▁Does	-10.4825
mark	-10.484
əni	-10.4854
▁wisdom	-10.486
▁variet	-10.486
▁Steve	-10.486
▁clip	-10.486
▁etdi	-10.4862
▁season	-10.4863
▁humanit	-10.4871
▁pig	-10.488
ım	-10.4882
▁spoke	-10.4885
▁hell	-10.4889
▁shop	-10.4892
tive	-10.4897
▁bil	-10.4907
▁tens	-10.4911
▁th	-10.4916
▁Come	-10.4917
▁round	-10.492
▁NASA	-10.4927
▁ancestor	-10.4927
▁quantum	-10.4927
▁hidden	-10.4927
▁Paul	-10.493
▁expression	-10.4936
▁invention	-10.4941
▁truck	-10.4952
itude	-10.4952
▁profit	-10.496
▁measur	-10.4967
ping	-10.4969
▁mə	-10.4978
▁gold	-10.4981
▁note	-10.4994
▁brief	-10.4994
▁dinner	-10.4995
▁employee	-10.4996
dakı	-10.5
▁unlike	-10.5001
▁mark	-10.5009
mı	-10.5022
▁agricultur	-10.5045
▁ride	-10.5054
▁comp	-10.5056
▁ol	-10.5057
▁stoo	-10.5057
▁university	-10.5058
zz	-10.506
▁elephant	-10.5062
▁Could	-10.5063
▁narrative	-10.5063
▁lung	-10.5063
▁100,000	-10.5071
▁comput	-10.5092
▁bunu	-10.5096
▁bus	-10.51
▁frame	-10.5108
ram	-10.5112
▁ideal	-10.5125
▁leaving	-10.5131
▁restaurant	-10.5131
▁quiet	-10.5131
▁disorder	-10.5131
▁chip	-10.5136
▁robotic	-10.5137
▁yeni	-10.5147
▁band	-10.5154
▁tie	-10.5165
versus	-10.5178
pu	-10.5185
▁dreams	-10.519
▁channel	-10.52
▁nervous	-10.52
▁chart	-10.5202
▁Titan	-10.5202
▁brilliant	-10.5208
rop	-10.5209
▁operat	-10.5216
▁insanlar	-10.5226
▁sc	-10.5248
▁45	-10.5254
▁mirror	-10.5269
form	-10.5274
U	-10.5274
ına	-10.5287
ose	-10.5289
▁i	-10.5291
▁writer	-10.5296
▁stone	-10.5304
▁hal	-10.5328
▁abstract	-10.5339
▁translate	-10.5339
▁lift	-10.534
▁explor	-10.5342
▁injur	-10.5343
▁ordinar	-10.5345
▁Last	-10.5345
corruption	-10.5345
▁Jo	-10.5348
▁Com	-10.5358
▁az	-10.5358
▁par	-10.5391
air	-10.5392
▁trans	-10.5396
ili	-10.5397
sha	-10.5401
▁discuss	-10.5404
▁survey	-10.541
▁contract	-10.541
lim	-10.541
▁wake	-10.5412
▁emergenc	-10.5413
▁bizim	-10.5413
▁dry	-10.5414
aya	-10.5418
dik	-10.5418
ular	-10.5419
daily	-10.5425
▁lifetime	-10.5428
▁pi	-10.5441
oth	-10.5446
▁grown	-10.5453
▁chemistr	-10.5457
▁categor	-10.5481
▁puzzle	-10.5481
▁nurse	-10.5481
ground	-10.5482
work	-10.5484
og	-10.5489
scale	-10.5498
▁quarter	-10.5499
▁bilmə	-10.5501
▁Other	-10.5504
▁soul	-10.5509
▁surround	-10.5529
▁mənim	-10.5534
▁extract	-10.5539
▁battle	-10.5552
▁cognitive	-10.5552
▁command	-10.5552
▁intelligent	-10.5552
▁liquid	-10.5552
rat	-10.5554
▁operate	-10.5557
▁discussion	-10.5558
▁wash	-10.5563
▁receiv	-10.5572
▁topic	-10.5577
ware	-10.5585
▁gather	-10.5592
ory	-10.5595
▁shoes	-10.5601
gram	-10.5616
▁organize	-10.5619
▁George	-10.5624
▁Since	-10.5624
▁rural	-10.5624
▁origin	-10.5628
▁Pri	-10.563
▁sight	-10.563
▁2000	-10.5635
▁arrive	-10.5648
▁partner	-10.5666
▁party	-10.5678
▁volunteer	-10.5696
▁librar	-10.5697
▁telescope	-10.5697
▁agenc	-10.5699
▁construction	-10.5703
▁member	-10.5706
▁whom	-10.5709
▁pill	-10.571
▁collection	-10.5712
▁highest	-10.5725
▁Their	-10.5726
▁para	-10.5727
▁broke	-10.5729
▁sum	-10.5729
ink	-10.5744
▁fat	-10.5745
▁istifadə	-10.5769
▁mathematical	-10.5769
▁pocket	-10.5769
▁variation	-10.577
▁Street	-10.577
▁tail	-10.577
▁loud	-10.5771
▁silk	-10.5773
▁Ch	-10.5787
lara	-10.5794
rising	-10.5805
▁fourth	-10.5806
bel	-10.5812
▁lu	-10.5827
▁seed	-10.5828
▁solv	-10.5835
▁cooperat	-10.5841
▁Richard	-10.5843
▁combination	-10.5843
▁lunch	-10.5843
▁medium	-10.5843
▁alien	-10.5844
▁Ke	-10.5853
▁recycl	-10.5856
▁cure	-10.5856
fully	-10.5858
▁Tom	-10.5875
▁practical	-10.5894
▁arms	-10.5904
▁resistan	-10.5908
▁fe	-10.5911
nna	-10.5915
▁danış	-10.5916
▁Darwin	-10.5917
▁volume	-10.5917
▁Washing	-10.5917
▁sugar	-10.5917
▁weak	-10.5917
▁evolutionary	-10.592
▁exploration	-10.5921
▁tele	-10.5922
ıb	-10.5958
▁electrical	-10.5959
▁infect	-10.5985
▁organiz	-10.5986
▁judge	-10.5992
▁mosquito	-10.5992
▁fiber	-10.5992
▁gravity	-10.5992
▁2,000	-10.5994
▁button	-10.5995
▁Bang	-10.6004
▁programm	-10.6006
▁fr	-10.6012
▁fan	-10.6016
▁cow	-10.6024
▁May	-10.6027
▁speaker	-10.6044
etic	-10.6044
ulate	-10.6045
▁mix	-10.605
▁clinic	-10.6063
▁relation	-10.6066
▁disaster	-10.6067
▁France	-10.6067
▁input	-10.6068
▁initial	-10.6069
▁diet	-10.607
ney	-10.6076
▁Biz	-10.6078
▁exception	-10.6079
▁myster	-10.608
tta	-10.6084
▁credit	-10.6087
▁inner	-10.6088
▁35	-10.6101
▁wi	-10.6109
▁host	-10.6109
nın	-10.6121
▁lie	-10.6136
▁transport	-10.614
▁cent	-10.6142
▁establish	-10.6143
▁empath	-10.6143
▁load	-10.6143
▁heavy	-10.6143
▁doubt	-10.6143
▁chicken	-10.6144
▁determine	-10.6146
▁transition	-10.6147
▁folks	-10.616
ev	-10.6162
life	-10.6162
▁protection	-10.6167
▁ignore	-10.6191
▁opening	-10.6196
een	-10.6205
▁Times	-10.6213
çi	-10.6217
▁hall	-10.6218
▁mammal	-10.6219
▁convert	-10.6219
▁analog	-10.6219
▁yox	-10.6222
▁olun	-10.6222
▁management	-10.6225
▁abuse	-10.6228
▁visibl	-10.6231
rail	-10.6237
▁capabilit	-10.6241
▁killing	-10.6248
▁grass	-10.6249
ina	-10.6254
▁addition	-10.6262
▁Te	-10.6264
▁smile	-10.6266
sumption	-10.6269
▁terrorist	-10.6276
▁rat	-10.6289
▁snow	-10.6296
▁protest	-10.6296
▁attach	-10.6297
▁cutting	-10.6298
▁melt	-10.63
mar	-10.63
▁həm	-10.6306
▁grade	-10.6339
▁mothers	-10.6343
▁motivat	-10.635
▁pot	-10.6369
▁Mexic	-10.637
▁King	-10.6371
ograph	-10.6372
▁explanation	-10.6373
▁silence	-10.6373
▁maintain	-10.6373
▁emissions	-10.6374
▁Brita	-10.6374
▁grid	-10.6374
▁intellectual	-10.6375
▁setting	-10.6378
▁bare	-10.6378
▁Star	-10.6385
▁journalist	-10.6415
▁emerge	-10.6432
atic	-10.6444
▁spectrum	-10.6452
▁obsess	-10.6452
▁haqda	-10.6452
▁feedback	-10.6452
▁accurate	-10.6452
▁Col	-10.6455
▁gay	-10.6475
▁hide	-10.6479
▁tape	-10.6482
▁II	-10.6484
▁official	-10.6485
▁22	-10.6485
hip	-10.6486
▁fo	-10.649
ark	-10.6494
▁authorit	-10.6498
▁ev	-10.6511
cal	-10.6517
dım	-10.6517
▁challeng	-10.6519
▁Thanks	-10.6523
▁Iran	-10.6524
▁Pi	-10.6525
▁div	-10.6526
▁physicist	-10.653
▁stupid	-10.653
▁encounter	-10.653
▁horse	-10.653
▁hydrogen	-10.6531
▁rational	-10.6531
▁Bank	-10.6531
▁definite	-10.6531
▁plate	-10.6531
▁peak	-10.6532
▁Yet	-10.6536
verse	-10.6537
▁Ten	-10.654
meter	-10.6552
▁Jam	-10.6566
▁çıx	-10.6573
▁embrace	-10.6576
ğa	-10.6579
▁abilit	-10.6585
▁dünya	-10.6591
▁propert	-10.6591
▁blog	-10.6603
▁criminal	-10.661
▁filter	-10.661
▁valuable	-10.661
▁transfer	-10.661
▁pleasure	-10.661
▁conclusion	-10.661
▁pump	-10.661
ix	-10.6611
▁therap	-10.6611
▁enem	-10.6612
▁distribution	-10.6617
so	-10.6622
▁cup	-10.6624
▁wheel	-10.6625
▁golf	-10.6625
▁mal	-10.6628
▁evolve	-10.6634
▁kick	-10.6644
▁swimm	-10.6649
▁battery	-10.6659
▁im	-10.6662
▁undern	-10.6664
▁bill	-10.667
▁lies	-10.6677
▁expos	-10.6689
▁siz	-10.669
▁dolphin	-10.669
▁illness	-10.6691
▁escape	-10.6692
▁olur	-10.6694
▁crop	-10.6694
az	-10.6696
all	-10.6699
çı	-10.6706
▁Will	-10.6706
dıq	-10.6706
▁participat	-10.6709
▁Fe	-10.6718
▁tall	-10.6736
▁weapons	-10.6748
▁hang	-10.6759
▁Middle	-10.677
▁witness	-10.677
▁implication	-10.677
▁south	-10.6771
▁mortality	-10.6771
▁toilet	-10.6774
▁clinical	-10.6775
▁zoom	-10.6777
mağa	-10.6782
▁statement	-10.6786
▁height	-10.679
▁shapes	-10.6794
ura	-10.6803
qi	-10.6811
▁historical	-10.6829
▁Sha	-10.6834
▁stock	-10.6846
50	-10.6847
▁employ	-10.685
▁awesome	-10.6852
▁privilege	-10.6852
▁awful	-10.6853
▁ilk	-10.6853
▁bike	-10.6854
▁prize	-10.6855
▁yester	-10.6857
mış	-10.686
▁inspiration	-10.6865
▁Wa	-10.6866
dığı	-10.6868
▁shut	-10.6871
▁Five	-10.6877
▁director	-10.6884
ivity	-10.6885
şə	-10.689
ara	-10.6893
▁ye	-10.69
iş	-10.6901
▁recording	-10.6907
col	-10.6914
tech	-10.6915
▁qal	-10.6925
▁düş	-10.6929
▁Charles	-10.6934
▁President	-10.6934
▁democratic	-10.6934
▁repair	-10.6934
▁sweet	-10.6934
▁confront	-10.6934
▁economist	-10.6936
▁reform	-10.6938
▁committ	-10.6974
anda	-10.6997
▁actor	-10.7007
▁YouTube	-10.7016
▁teeth	-10.7016
▁title	-10.7016
▁Francisco	-10.7016
▁primary	-10.7017
▁joke	-10.7017
▁surgeon	-10.7017
▁talent	-10.7017
▁winter	-10.7019
▁worldwide	-10.7021
▁label	-10.7025
▁lens	-10.7025
▁assumption	-10.7045
▁tear	-10.7047
▁importan	-10.7066
imiz	-10.7069
▁arriv	-10.7072
▁shoot	-10.7089
▁Ni	-10.709
▁habit	-10.7098
▁MIT	-10.71
▁empty	-10.71
▁fruit	-10.71
▁forgot	-10.71
▁Israel	-10.7103
▁threaten	-10.7108
▁relate	-10.7127
ook	-10.7135
ədə	-10.7136
▁icon	-10.7141
▁prime	-10.7147
jo	-10.7149
▁pure	-10.7167
▁hire	-10.7174
▁tip	-10.7181
▁Congress	-10.7184
▁iPhone	-10.7184
▁ritual	-10.7184
▁conservation	-10.7184
▁deserve	-10.7184
▁bond	-10.7184
▁lawyer	-10.7185
▁2008	-10.7186
bar	-10.7187
▁disc	-10.7199
▁react	-10.7199
▁prediction	-10.7202
iness	-10.7223
▁tea	-10.7225
han	-10.7225
▁Sam	-10.7226
▁counter	-10.7228
▁Du	-10.7233
▁Bi	-10.724
▁stranger	-10.725
▁vulnerab	-10.7254
▁insan	-10.7258
ake	-10.7267
▁assembl	-10.7268
▁Institute	-10.7268
▁according	-10.7268
▁kitchen	-10.7268
▁Higgs	-10.7268
▁Center	-10.7268
▁Pleas	-10.7269
▁tube	-10.7269
▁den	-10.7269
▁Four	-10.7271
▁apartment	-10.7274
nız	-10.7281
top	-10.7287
▁thin	-10.729
▁Island	-10.7293
▁graphic	-10.7294
▁Bar	-10.7299
▁Ah	-10.7305
▁partners	-10.7312
▁Arab	-10.7323
▁voices	-10.7328
▁tire	-10.733
▁iron	-10.7335
▁cart	-10.7341
▁Harvard	-10.7354
▁fiction	-10.7354
▁pilot	-10.7354
▁studio	-10.7354
▁perceive	-10.7354
▁drone	-10.7354
▁qarşı	-10.7354
▁reef	-10.7354
▁technological	-10.7355
▁Wow	-10.7356
▁passionate	-10.7358
▁Final	-10.7359
▁expectation	-10.7368
hood	-10.7372
gar	-10.7375
▁ko	-10.7377
▁broad	-10.7378
▁calling	-10.7387
aker	-10.7387
mir	-10.7392
▁infinite	-10.7392
▁Min	-10.7394
▁north	-10.7404
ush	-10.7407
▁Apple	-10.7411
▁participate	-10.7419
▁activit	-10.7421
ında	-10.7437
▁magn	-10.7438
▁danger	-10.7438
▁Michael	-10.744
▁regard	-10.744
▁steel	-10.744
▁196	-10.7442
▁radiation	-10.7443
▁23	-10.7443
▁reference	-10.7443
▁grant	-10.7446
▁Lu	-10.7447
ilə	-10.7456
▁appreciate	-10.7471
▁author	-10.7476
▁soft	-10.7495
▁logic	-10.751
▁lady	-10.7525
▁limit	-10.7526
▁entertain	-10.7527
▁accomplish	-10.7527
▁calculate	-10.7527
▁circumstance	-10.7527
▁client	-10.7527
▁cluster	-10.7527
▁concrete	-10.7527
▁length	-10.7527
▁plot	-10.7527
▁exchange	-10.7527
▁crack	-10.7528
▁unknown	-10.7529
▁observation	-10.753
▁shall	-10.7531
▁seek	-10.754
▁grain	-10.7545
▁Lak	-10.7558
niz	-10.7561
foot	-10.7568
▁swim	-10.7573
SA	-10.758
▁risks	-10.7582
back	-10.7589
lock	-10.7606
▁deploy	-10.7615
▁firm	-10.7615
▁status	-10.7615
▁jail	-10.7615
▁autism	-10.7615
▁internal	-10.7615
▁rocket	-10.7619
▁polic	-10.7619
▁transportation	-10.7619
▁hotel	-10.762
▁sale	-10.7621
gh	-10.7622
▁nest	-10.7623
▁theater	-10.7631
pper	-10.7635
▁manag	-10.7639
ju	-10.7646
▁harm	-10.7651
▁symmetr	-10.7676
▁keç	-10.7676
▁entrepreneur	-10.7689
▁Air	-10.7696
▁England	-10.7703
▁molecular	-10.7703
▁attend	-10.7705
▁Space	-10.7707
anı	-10.7709
▁infection	-10.771
gg	-10.7711
▁activist	-10.7716
siz	-10.7718
▁compos	-10.7721
rtex	-10.7739
▁Ben	-10.7746
room	-10.7747
rice	-10.775
▁neuro	-10.7752
▁spring	-10.7756
▁cop	-10.7762
▁demo	-10.7764
▁hack	-10.7775
▁Los	-10.7778
del	-10.7791
▁iki	-10.7792
▁vessel	-10.7792
▁severe	-10.7794
▁Islam	-10.7795
▁reverse	-10.7797
▁yalnı	-10.7798
▁dirt	-10.7799
▁biologist	-10.7799
J	-10.7838
▁Part	-10.7843
▁knee	-10.7844
▁sheet	-10.7857
▁oppos	-10.7882
▁2010	-10.7883
▁School	-10.7883
▁advice	-10.7883
▁grandfather	-10.7883
▁harvest	-10.7883
▁false	-10.7883
▁clever	-10.7883
▁propose	-10.7883
▁section	-10.7883
▁Japanese	-10.7884
▁loop	-10.7885
▁awareness	-10.7887
▁194	-10.7887
▁danc	-10.7888
cha	-10.7891
▁Park	-10.7891
▁terroris	-10.7896
▁peer	-10.7899
▁Jan	-10.7901
generat	-10.7905
▁handle	-10.7907
▁dense	-10.7923
net	-10.7924
imi	-10.7928
plan	-10.7934
▁Get	-10.7943
▁gəl	-10.795
▁yaş	-10.7951
▁needle	-10.7954
▁economi	-10.7962
▁select	-10.7967
▁Gi	-10.7973
▁fortunate	-10.7973
▁Obama	-10.7973
▁ingredient	-10.7973
▁symptom	-10.7973
▁prefer	-10.7973
▁Thom	-10.7974
▁thick	-10.7974
down	-10.7977
▁Anyway	-10.7979
▁clothes	-10.7988
▁contribute	-10.7988
▁prototype	-10.7992
▁busy	-10.7995
▁boundar	-10.7997
▁secure	-10.7999
▁consume	-10.8009
▁mənə	-10.8022
▁ear	-10.8028
▁droppe	-10.8041
▁amma	-10.8045
bit	-10.8048
for	-10.8055
▁dig	-10.8063
▁musical	-10.8063
▁favor	-10.8065
▁implement	-10.8065
▁Pacific	-10.8065
▁illusion	-10.8065
▁relevant	-10.8065
▁unusual	-10.8065
▁intention	-10.8065
▁pool	-10.8065
▁Talk	-10.8066
▁vertical	-10.8066
▁solid	-10.8067
▁1960	-10.8067
▁tribe	-10.8068
▁productive	-10.8074
▁mile	-10.8075
▁breathe	-10.8079
▁suck	-10.8083
▁activat	-10.8083
▁names	-10.8096
▁sil	-10.8106
▁Sea	-10.8107
▁imagin	-10.8121
▁magnetic	-10.8128
tric	-10.8141
ko	-10.8142
▁Frank	-10.8158
▁church	-10.8158
▁illegal	-10.8158
▁inevitabl	-10.8158
▁paradigm	-10.8158
▁stretch	-10.8158
▁apparent	-10.8158
▁sphere	-10.8158
▁dedicat	-10.8158
▁split	-10.816
▁3,000	-10.8162
▁file	-10.817
▁teenager	-10.8171
▁agent	-10.8183
▁heads	-10.8188
▁elə	-10.8198
▁hunt	-10.82
▁gör	-10.8203
▁Russia	-10.821
▁mechanical	-10.8217
▁Ed	-10.8218
▁decline	-10.822
lərə	-10.8224
unu	-10.8238
▁por	-10.825
▁innovative	-10.8251
▁neçə	-10.8251
▁phrase	-10.8251
▁asteroid	-10.8251
▁ultra	-10.8251
▁rush	-10.8252
▁Adam	-10.8252
▁1980	-10.8254
▁flie	-10.8256
ino	-10.8257
long	-10.8257
▁Ti	-10.8259
tik	-10.8267
▁younger	-10.828
▁pin	-10.828
▁Ko	-10.8282
▁Give	-10.8292
half	-10.8307
▁cla	-10.8307
▁electron	-10.8314
▁fikir	-10.8317
▁deyə	-10.8319
▁Mary	-10.8321
destruction	-10.8346
▁centuries	-10.8346
▁çünk	-10.8346
▁spider	-10.8346
▁advertis	-10.8346
▁poem	-10.8346
▁admit	-10.8346
▁password	-10.8346
▁staff	-10.8346
▁instant	-10.8347
▁panel	-10.8347
▁obes	-10.8348
▁announc	-10.8348
▁1990	-10.8349
▁Swede	-10.8354
▁heal	-10.8355
▁Green	-10.837
▁former	-10.8374
ridge	-10.8384
▁figur	-10.8387
lərdə	-10.839
pping	-10.8394
araq	-10.84
▁mountains	-10.8409
▁celebrate	-10.8426
kar	-10.8435
▁priorit	-10.8437
ibility	-10.844
▁automatic	-10.8441
surance	-10.8441
heimer	-10.8441
▁Amazon	-10.8441
▁September	-10.8441
▁domestic	-10.8441
▁sophisticate	-10.8441
▁çalış	-10.8441
▁laptop	-10.8441
▁pour	-10.8441
▁habitat	-10.8444
▁grab	-10.8445
▁drill	-10.8446
well	-10.8448
▁relie	-10.8449
▁Lin	-10.8452
▁roads	-10.8459
▁microscope	-10.8462
▁pregnan	-10.8465
▁appropriate	-10.8465
▁violent	-10.8467
spect	-10.8473
▁comfortabl	-10.8475
▁plus	-10.8479
ode	-10.8479
▁wine	-10.8482
▁upper	-10.8484
▁poster	-10.8488
▁observe	-10.8498
▁comfort	-10.8503
▁biri	-10.8504
ories	-10.851
▁ban	-10.851
omb	-10.8512
source	-10.8514
cut	-10.852
▁engaged	-10.8522
▁kiçik	-10.8537
▁lecture	-10.8537
▁penguin	-10.8537
▁unexpected	-10.8537
▁uşaq	-10.8537
▁instruction	-10.8537
▁Christian	-10.8537
▁sculpture	-10.8537
▁rescue	-10.8538
▁collaboration	-10.8539
▁pollution	-10.8539
▁strip	-10.8541
▁myth	-10.855
▁oldu	-10.8556
▁storm	-10.8557
▁sorr	-10.8563
dom	-10.8566
▁65	-10.8568
ole	-10.8569
▁raw	-10.8577
ua	-10.8584
▁polle	-10.8585
▁Nor	-10.8587
▁indi	-10.8601
pit	-10.8617
▁beach	-10.8625
▁angle	-10.8628
▁Science	-10.8634
▁elder	-10.8635
▁behave	-10.8635
▁flag	-10.8636
▁repeat	-10.8639
▁finance	-10.8644
11	-10.8644
▁musician	-10.8644
▁fabric	-10.8653
ung	-10.8659
▁functional	-10.866
▁integrat	-10.8669
ırdı	-10.8671
cher	-10.8674
▁geo	-10.8677
efore	-10.8678
▁Va	-10.8686
▁capitalis	-10.8689
power	-10.8695
▁nose	-10.8703
uğu	-10.8714
▁eggs	-10.8715
onic	-10.8726
nfortunate	-10.8732
▁absorb	-10.8732
▁privacy	-10.8732
▁Black	-10.8732
▁minister	-10.8733
▁boring	-10.8733
▁greenhouse	-10.8733
▁nerve	-10.8733
▁continuous	-10.8735
▁2009	-10.8735
▁improvement	-10.8739
▁meaningful	-10.874
▁king	-10.8746
can	-10.8748
▁pr	-10.8753
anın	-10.8768
▁stronger	-10.8784
▁dominat	-10.8791
▁demonstrate	-10.8793
▁sens	-10.8804
▁cast	-10.8808
ıq	-10.8812
▁accelerat	-10.8827
ota	-10.8829
▁Pakistan	-10.8831
▁curiosity	-10.8831
▁mathematician	-10.8831
▁arrest	-10.8831
▁Number	-10.8831
▁Health	-10.8831
▁Martin	-10.8832
▁cheat	-10.8832
▁Centr	-10.8833
▁99	-10.8833
▁Hol	-10.8834
▁humor	-10.8839
▁efficienc	-10.8845
məyə	-10.8867
▁dive	-10.8876
Ex	-10.8881
ası	-10.8889
point	-10.8898
şi	-10.8908
roll	-10.8918
▁improv	-10.8929
▁permanent	-10.8931
▁contrast	-10.8931
▁department	-10.8931
▁frank	-10.8931
▁simulation	-10.8931
▁thumb	-10.8931
▁predator	-10.8931
▁barrier	-10.8931
▁flood	-10.8931
▁animation	-10.8931
▁Grand	-10.8931
▁tank	-10.8931
▁framework	-10.8932
▁High	-10.8932
▁commitment	-10.8933
▁wireless	-10.8935
▁Human	-10.8935
▁bees	-10.8943
▁tag	-10.8945
▁pile	-10.8954
▁sensitive	-10.8963
▁weigh	-10.8969
▁percentage	-10.8975
met	-10.8976
mission	-10.8997
məsi	-10.9001
▁onlar	-10.9019
▁experienc	-10.9021
icity	-10.9029
▁chimpanzee	-10.9032
▁immune	-10.9032
▁coordinat	-10.9032
▁Valle	-10.9032
▁attitude	-10.9032
▁trace	-10.9033
▁Latin	-10.9033
▁Paris	-10.9034
▁cord	-10.9035
look	-10.9036
▁exhibition	-10.9037
▁MS	-10.9044
call	-10.9047
ock	-10.9049
▁confiden	-10.9058
▁edən	-10.9068
▁Canad	-10.9076
▁homes	-10.909
ility	-10.9097
▁army	-10.9098
▁sual	-10.9103
▁shoulder	-10.9109
▁diagnos	-10.9125
▁officer	-10.9133
▁Antarctic	-10.9134
▁license	-10.9134
▁depth	-10.9134
▁disrupt	-10.9134
▁globe	-10.9134
▁steal	-10.9134
▁regime	-10.9135
▁objective	-10.915
▁entrepreneurs	-10.9151
cı	-10.9152
▁gut	-10.9153
▁brave	-10.9157
ani	-10.9157
▁script	-10.9166
▁wo	-10.9195
▁yol	-10.92
▁photographer	-10.9217
truck	-10.922
▁whales	-10.9232
▁səbəb	-10.9236
▁GPS	-10.9237
▁download	-10.9237
▁regret	-10.9237
▁digər	-10.9239
▁mode	-10.9244
ngry	-10.9247
▁inequalit	-10.9253
▁presentation	-10.9255
iti	-10.9261
▁agreed	-10.9261
▁resolution	-10.9278
dor	-10.9287
▁style	-10.9288
▁cable	-10.9289
▁divers	-10.929
liyi	-10.9293
▁exten	-10.9295
▁aim	-10.9326
▁install	-10.9339
▁exponential	-10.9341
▁authentic	-10.9341
▁reject	-10.9341
▁inject	-10.9341
▁Girl	-10.9341
▁cyber	-10.9342
▁burada	-10.9345
▁evil	-10.9345
▁laser	-10.9345
▁asset	-10.9353
▁Bunu	-10.9362
rous	-10.9366
matic	-10.9391
▁burning	-10.9413
ünü	-10.9418
▁engag	-10.9418
ttle	-10.9423
nı	-10.9425
▁feeding	-10.9428
▁dogs	-10.9435
▁limits	-10.9438
▁CEO	-10.9447
▁Project	-10.9447
▁exploit	-10.9447
▁polio	-10.9447
▁embarrass	-10.9447
▁milk	-10.9447
▁bicycle	-10.9447
▁academic	-10.9447
▁flash	-10.9448
indən	-10.9452
ago	-10.9476
▁spec	-10.9476
ept	-10.9487
▁Pol	-10.9493
▁Russian	-10.9494
own	-10.9496
▁prisoner	-10.95
▁dish	-10.9502
▁colon	-10.9507
▁refer	-10.9512
▁Real	-10.9521
raising	-10.9524
▁cosm	-10.9525
▁wondered	-10.9541
▁correspond	-10.9553
▁Saturn	-10.9553
▁crucial	-10.9553
▁phase	-10.9553
Sahara	-10.9553
▁mimic	-10.9554
▁footprint	-10.9554
▁characteristic	-10.9554
▁600	-10.9556
▁breed	-10.9559
▁interactive	-10.956
▁painful	-10.9561
▁spiritual	-10.9562
▁frequenc	-10.957
▁rocks	-10.9575
▁mono	-10.9581
▁prepared	-10.9584
▁observ	-10.9593
əcək	-10.9616
ional	-10.9621
what	-10.9634
▁2.	-10.9639
force	-10.9643
▁cru	-10.9643
dəki	-10.9655
▁liberal	-10.9661
▁physician	-10.9661
▁recognition	-10.9661
▁afternoon	-10.9661
▁Rememb	-10.9661
▁1,	-10.9661
▁route	-10.9662
▁shame	-10.9662
▁orange	-10.9662
▁5,000	-10.9663
awa	-10.9667
▁selection	-10.9668
▁rely	-10.9668
oxide	-10.9668
▁fisher	-10.9671
▁poet	-10.9674
▁lion	-10.9684
▁Mc	-10.9696
▁tək	-10.9699
pan	-10.9702
▁boxe	-10.9725
▁classic	-10.9731
əti	-10.974
▁Wall	-10.9741
▁compete	-10.9752
house	-10.9753
▁cloth	-10.9753
▁Bost	-10.9754
▁Day	-10.9756
box	-10.9768
▁Voice	-10.9769
▁surveillance	-10.9769
▁transplant	-10.9769
▁defend	-10.9769
▁Count	-10.9769
▁embedded	-10.9769
▁elite	-10.977
▁silent	-10.9771
▁eyni	-10.9772
▁lifestyle	-10.9772
▁sports	-10.9776
▁overall	-10.9782
▁Pr	-10.9785
▁meme	-10.9786
ench	-10.9792
▁magnet	-10.9807
▁həyat	-10.9816
ji	-10.9818
bil	-10.9821
ami	-10.9823
▁sala	-10.9838
berg	-10.9847
▁Ken	-10.9854
▁lad	-10.987
▁depress	-10.9876
▁Egypt	-10.9878
▁Chicago	-10.9879
▁Museum	-10.9879
▁complain	-10.9879
▁presence	-10.9879
▁skull	-10.9879
▁implant	-10.9879
▁adventure	-10.9879
▁Greek	-10.9881
▁fluid	-10.9881
▁revenue	-10.9882
▁printer	-10.9885
gər	-10.9887
▁limb	-10.9889
▁blame	-10.989
▁bow	-10.989
▁processe	-10.989
▁Tru	-10.9899
▁behavioral	-10.991
▁Dur	-10.9914
town	-10.9929
▁ancaq	-10.9933
▁poll	-10.9934
mişdi	-10.9951
▁ugl	-10.9955
ımız	-10.9963
▁Angeles	-10.999
▁explosion	-10.999
▁froze	-10.999
▁knock	-10.999
▁shadow	-10.999
▁boom	-10.999
ean	-10.9991
▁skeleton	-10.9993
▁fake	-10.9993
read	-10.9994
fall	-10.9995
▁database	-10.9996
▁universit	-10.9997
▁guide	-10.9997
▁mentor	-10.9998
▁pet	-10.9998
▁owner	-10.9999
▁measurement	-11.0006
▁Bible	-11.0008
ption	-11.0011
▁Gold	-11.0023
win	-11.0027
▁pit	-11.0029
▁worm	-11.0037
▁meal	-11.0041
zo	-11.0041
▁educational	-11.0057
▁gray	-11.0061
▁neuron	-11.0093
▁investigat	-11.0093
lərlə	-11.0093
▁parallel	-11.0103
▁telephone	-11.0103
▁drove	-11.0103
▁laboratory	-11.0103
▁horrible	-11.0106
▁DH	-11.0107
▁whale	-11.0109
▁pink	-11.0115
▁Peter	-11.0118
▁Par	-11.0121
▁sail	-11.0127
▁pitch	-11.0131
▁onun	-11.0149
▁hyper	-11.0154
üz	-11.0169
▁tech	-11.0174
ether	-11.0177
▁etdiyi	-11.0177
▁Onlar	-11.0184
▁Tu	-11.0192
▁dedi	-11.0208
▁citizen	-11.021
▁Christmas	-11.0216
▁defense	-11.0216
▁intervention	-11.0216
▁pretend	-11.0216
▁distant	-11.0216
▁çəki	-11.0216
▁suspect	-11.0217
▁boil	-11.0218
▁review	-11.022
▁əsas	-11.0222
▁desperate	-11.0222
▁headline	-11.0224
▁üz	-11.0235
▁promote	-11.0235
▁stimulat	-11.0238
nia	-11.0238
▁Age	-11.0241
▁densit	-11.0242
dü	-11.0244
▁conventional	-11.0245
▁philosoph	-11.0274
▁bend	-11.0278
▁auto	-11.0279
▁deyir	-11.0283
▁ola	-11.0284
stone	-11.0284
▁item	-11.029
▁nor	-11.03
burg	-11.0301
hen	-11.0313
print	-11.0323
▁bug	-11.0324
ması	-11.0327
ogether	-11.0329
▁Afrika	-11.0331
▁istəyirəm	-11.0331
▁portrait	-11.0331
▁wound	-11.0331
▁session	-11.0331
▁Jew	-11.0331
▁refuse	-11.0332
larla	-11.0335
▁2004	-11.0335
▁isolat	-11.0338
▁psychological	-11.034
▁representation	-11.0346
▁tar	-11.0353
▁digni	-11.0356
▁scal	-11.0358
▁seal	-11.036
row	-11.0363
▁Th	-11.0372
▁Fl	-11.0376
nny	-11.0377
▁gəlir	-11.0392
ulation	-11.0396
▁describ	-11.0398
▁ill	-11.0403
▁Del	-11.0405
▁Tra	-11.0407
▁sev	-11.0414
acaq	-11.0418
▁drag	-11.0424
▁ildə	-11.0427
▁Red	-11.043
oven	-11.0432
▁productivit	-11.044
hold	-11.0442
▁murder	-11.0448
▁anticipat	-11.0448
▁orchestra	-11.0448
▁reconstruct	-11.0448
▁suicide	-11.0448
▁Blue	-11.0448
▁House	-11.0448
▁consistent	-11.0449
▁optimistic	-11.0449
▁poetry	-11.0449
▁kəs	-11.0449
▁chest	-11.045
▁confuse	-11.045
▁airport	-11.045
▁2005	-11.0453
▁acid	-11.0457
▁Tri	-11.0457
▁hook	-11.0458
▁hill	-11.0465
ləş	-11.0466
▁mail	-11.0469
▁analyze	-11.0474
▁motivation	-11.0483
▁educat	-11.0487
▁rap	-11.0488
state	-11.049
▁excite	-11.0509
▁floating	-11.0511
ncaq	-11.0512
▁Pole	-11.0513
▁cri	-11.0522
▁Korea	-11.0524
▁pan	-11.0528
▁personalit	-11.0531
▁Jun	-11.0537
▁hekayə	-11.0541
▁Turk	-11.0544
▁educate	-11.0559
▁column	-11.0565
▁corporate	-11.0565
▁diploma	-11.0565
▁obstacle	-11.0565
▁hungry	-11.0566
▁ambitio	-11.0567
▁vital	-11.0571
▁assistan	-11.0571
▁hat	-11.0572
▁PM	-11.0574
▁sadə	-11.0576
üş	-11.0576
book	-11.0576
▁polar	-11.0577
▁tight	-11.0588
▁Cal	-11.0594
▁Far	-11.0594
▁mat	-11.0606
▁stepp	-11.0611
gun	-11.0624
▁choos	-11.0628
▁proof	-11.0628
▁quit	-11.0645
▁radi	-11.0646
▁prepar	-11.0659
ambi	-11.0678
▁candidate	-11.0684
▁compound	-11.0684
▁diagram	-11.0684
▁earthquake	-11.0684
▁expedition	-11.0684
▁passenger	-11.0684
▁dictionar	-11.0684
▁genius	-11.0684
▁piano	-11.0684
▁plent	-11.0684
▁appeal	-11.0684
▁marine	-11.0684
▁narrow	-11.0685
▁subtle	-11.0685
▁chaos	-11.0685
▁ağ	-11.0686
▁mice	-11.0688
▁microbe	-11.0695
▁Abou	-11.0695
▁Global	-11.0703
ğu	-11.0703
lardan	-11.0714
asiya	-11.0716
▁shell	-11.0724
▁ears	-11.073
▁wings	-11.0745
▁apple	-11.076
▁Make	-11.0771
▁Jim	-11.0772
▁Kan	-11.0774
kı	-11.0776
▁contribut	-11.0779
grade	-11.078
her	-11.0785
,	-11.079
▁psycholog	-11.0794
▁illustrate	-11.0797
qo	-11.0799
▁International	-11.0805
▁disturb	-11.0805
▁procedure	-11.0805
▁request	-11.0805
▁scenario	-11.0805
▁proportion	-11.0805
▁affair	-11.0805
▁geometr	-11.0805
▁trigger	-11.0805
▁probabilit	-11.0805
▁tuna	-11.0805
▁club	-11.0806
▁household	-11.0806
▁desk	-11.0807
▁Super	-11.0808
sınız	-11.0809
▁36	-11.081
▁hunger	-11.081
▁stack	-11.0811
▁32	-11.0811
▁dust	-11.0812
▁tri	-11.0816
▁plug	-11.0816
▁afterward	-11.0817
▁resist	-11.0822
məyi	-11.083
▁pul	-11.0834
▁Scott	-11.0836
fold	-11.0858
▁flip	-11.086
▁highway	-11.0865
▁rhythm	-11.0867
▁suppose	-11.087
▁Holly	-11.0876
▁Hə	-11.0881
▁pray	-11.0886
play	-11.0894
▁Whil	-11.0897
American	-11.0915
mmer	-11.0918
gging	-11.0919
▁Sw	-11.092
▁courage	-11.0925
▁Jeff	-11.0927
▁bəzi	-11.0927
▁identical	-11.0927
▁medication	-11.0927
▁pyramid	-11.0927
▁replicate	-11.0927
▁Syria	-11.0927
▁trait	-11.0927
▁utter	-11.0927
▁corporation	-11.0927
ləşdir	-11.0928
▁edirəm	-11.093
▁shipp	-11.093
▁pad	-11.0931
▁dil	-11.0931
▁Six	-11.0935
iff	-11.0939
▁birthday	-11.0943
▁BF	-11.0946
▁Mal	-11.0948
lash	-11.0949
ough	-11.095
▁gate	-11.0953
▁Wal	-11.0953
▁fixed	-11.0955
▁cute	-11.0955
gged	-11.096
▁craft	-11.0975
▁additional	-11.098
▁Basic	-11.0982
▁Nothing	-11.0986
cin	-11.099
▁struggl	-11.1006
▁stor	-11.101
▁settl	-11.1014
▁Mac	-11.1025
itch	-11.1037
ference	-11.1044
▁Foundation	-11.105
▁chromosome	-11.105
▁essence	-11.105
▁miracle	-11.105
▁traged	-11.105
▁ensure	-11.105
▁debt	-11.1051
▁Robert	-11.1051
▁brown	-11.1051
▁ticket	-11.1052
▁boss	-11.1052
▁overcome	-11.1052
▁Mom	-11.106
▁kim	-11.1061
▁twin	-11.1067
hop	-11.1067
▁farmer	-11.107
▁intense	-11.1072
▁Fo	-11.1073
idir	-11.1094
▁elect	-11.1094
▁parking	-11.1096
▁mad	-11.1124
▁smoke	-11.1126
▁anger	-11.1129
▁Ven	-11.1142
dependent	-11.1153
lərdən	-11.1156
ease	-11.1165
while	-11.1167
century	-11.1167
▁Octo	-11.1167
press	-11.1169
arch	-11.1173
born	-11.1174
▁antibiotic	-11.1175
▁description	-11.1175
▁judgment	-11.1175
▁rainforest	-11.1175
▁recommend	-11.1175
▁ridiculous	-11.1175
▁scratch	-11.1175
▁Uganda	-11.1175
▁Ocean	-11.1175
▁guard	-11.1175
▁output	-11.1175
▁clue	-11.1175
▁nano	-11.1176
▁Haiti	-11.1176
▁cash	-11.1177
▁1950	-11.1178
▁achievement	-11.1184
▁loan	-11.1188
▁edit	-11.1188
▁manager	-11.1194
▁bless	-11.1213
leg	-11.1214
▁accessibl	-11.1225
▁Jer	-11.1226
▁killer	-11.1233
▁Boy	-11.1233
▁reported	-11.1236
stan	-11.1243
Something	-11.1248
▁bother	-11.1256
▁Hell	-11.1263
▁psycho	-11.1266
alo	-11.1266
▁pur	-11.1272
▁imag	-11.1274
view	-11.129
dollar	-11.1295
▁Cap	-11.13
▁optimis	-11.13
▁NGO	-11.1302
▁Wikipedia	-11.1302
▁fabulous	-11.1302
▁glacier	-11.1302
▁guilt	-11.1302
▁immense	-11.1302
▁uncomfortabl	-11.1302
▁vegetable	-11.1302
▁accumulat	-11.1302
▁concert	-11.1302
▁terrifi	-11.1302
▁Next	-11.1302
▁blank	-11.1302
▁prosper	-11.1302
▁leap	-11.1302
▁incident	-11.1302
▁football	-11.1302
▁domain	-11.1302
▁mask	-11.1302
▁sunlight	-11.1303
▁Atlantic	-11.1304
▁demonstration	-11.1304
▁permission	-11.1305
ırlar	-11.1307
▁maddə	-11.1309
▁lock	-11.1309
▁sizə	-11.1312
▁Bob	-11.1319
▁welcome	-11.1326
▁Mark	-11.1327
▁beside	-11.1335
vill	-11.1336
cro	-11.1339
▁corn	-11.1342
unch	-11.1342
hur	-11.1346
▁smok	-11.1352
lü	-11.1357
tial	-11.1377
▁clar	-11.1388
nda	-11.1392
▁incentives	-11.1401
class	-11.1424
▁disagree	-11.143
▁demographic	-11.143
▁qadın	-11.143
▁recruit	-11.143
▁smartphone	-11.143
▁scream	-11.143
▁sweat	-11.143
▁vol	-11.143
▁olacaq	-11.143
▁başladı	-11.1432
▁River	-11.1433
▁bin	-11.1441
▁artistic	-11.1447
▁geri	-11.145
bola	-11.1452
▁Thing	-11.1458
▁rating	-11.1472
▁mechanic	-11.1477
▁bla	-11.1488
▁indicate	-11.1497
▁impos	-11.1506
▁250	-11.1506
bul	-11.1518
level	-11.152
inary	-11.1534
▁capita	-11.1552
▁magical	-11.1552
▁wip	-11.1553
▁Stanford	-11.156
▁Olympic	-11.156
▁intuition	-11.156
▁mutation	-11.156
▁stroke	-11.156
▁ceiling	-11.156
▁heaven	-11.156
▁tackle	-11.156
▁screw	-11.156
▁backwards	-11.1561
▁spark	-11.1561
▁reduction	-11.1561
▁transparency	-11.1562
▁Prize	-11.1562
▁hip	-11.1563
▁toxic	-11.1564
fare	-11.1564
▁extinction	-11.1565
▁alarm	-11.1566
▁ça	-11.1574
▁southern	-11.1577
arian	-11.1588
▁reduc	-11.1621
▁Was	-11.1622
▁inventor	-11.1628
MA	-11.1628
diyi	-11.1631
▁bilir	-11.1632
▁lake	-11.1638
▁integrate	-11.1645
▁flo	-11.1649
▁yazı	-11.1652
▁locked	-11.1657
hildren	-11.1669
▁ought	-11.1682
▁prov	-11.1687
▁trie	-11.1689
▁hydro	-11.1691
▁Manhattan	-11.1691
▁Rwanda	-11.1691
▁identifie	-11.1691
▁həqiqətən	-11.1691
▁davam	-11.1691
▁dialogue	-11.1691
▁northern	-11.1691
▁infant	-11.1692
▁aircraft	-11.1692
▁ölkə	-11.1692
▁port	-11.1693
▁Nature	-11.1693
▁dəyiş	-11.1695
▁exam	-11.1697
▁legac	-11.1699
▁demək	-11.1701
▁laid	-11.1706
▁Law	-11.1707
▁happi	-11.1716
▁olar	-11.1722
▁Rob	-11.1738
ata	-11.1739
acağı	-11.1741
▁scann	-11.1748
bble	-11.1774
rid	-11.1788
unda	-11.1789
rət	-11.1796
ərək	-11.1803
▁extinct	-11.1819
▁colony	-11.1823
▁biodivers	-11.1825
▁breakthrough	-11.1825
▁discipline	-11.1825
▁external	-11.1825
▁mushroom	-11.1825
▁nutrient	-11.1825
▁sacred	-11.1825
▁tunnel	-11.1825
▁təsir	-11.1825
▁abandon	-11.1825
▁dəfə	-11.1825
third	-11.1825
▁primari	-11.1825
▁comparison	-11.1825
forward	-11.1825
miz	-11.1826
▁repli	-11.1826
▁Alqışlar	-11.1826
▁shake	-11.1828
▁charit	-11.1829
muş	-11.183
▁Rome	-11.184
▁Tell	-11.1841
bot	-11.185
▁yard	-11.1853
▁pose	-11.1856
hour	-11.1861
▁terror	-11.1872
▁Miss	-11.1877
▁Tes	-11.1893
▁prop	-11.1908
▁Lad	-11.192
cover	-11.1922
▁norm	-11.1937
▁distinct	-11.1954
pound	-11.1955
▁adjust	-11.196
▁conservative	-11.196
▁expansion	-11.196
▁haqqında	-11.196
▁resident	-11.196
▁sistem	-11.196
▁pioneer	-11.196
▁Revolution	-11.196
▁copyright	-11.1961
▁Jesu	-11.1961
▁partnership	-11.1961
▁slum	-11.1962
▁Congo	-11.1962
▁agenda	-11.1962
organiz	-11.1964
▁package	-11.1965
aba	-11.1966
▁stake	-11.1968
▁White	-11.1969
lində	-11.1976
▁mate	-11.1979
scribe	-11.1979
▁drawn	-11.1982
▁hanging	-11.1983
larında	-11.1985
lığı	-11.1991
▁tərəfində	-11.1992
sea	-11.1992
▁wage	-11.1993
nonymous	-11.1994
▁breaking	-11.1996
▁preserve	-11.2019
▁liver	-11.2025
▁göstər	-11.2026
▁Nə	-11.2034
erial	-11.2045
▁grave	-11.2048
▁etmə	-11.2056
mount	-11.2065
▁tam	-11.2072
▁recogniz	-11.2078
than	-11.2079
▁Spa	-11.2081
▁repeated	-11.209
▁yaz	-11.209
stair	-11.2091
▁William	-11.2097
▁anatom	-11.2097
▁chocolate	-11.2097
▁decrease	-11.2097
▁frighten	-11.2097
▁profile	-11.2097
▁supplie	-11.2097
▁yield	-11.2097
▁Texas	-11.2097
▁neural	-11.2097
▁cousin	-11.2097
▁brows	-11.2097
▁convict	-11.2097
evolv	-11.2098
▁leverage	-11.2098
▁fool	-11.2099
▁mindset	-11.2103
▁engagement	-11.2104
▁olmaq	-11.2104
rctic	-11.2104
▁Arabic	-11.2104
▁jam	-11.2104
▁confident	-11.2106
▁shooting	-11.2115
▁bump	-11.2121
▁hous	-11.2143
▁içində	-11.2147
iniz	-11.2155
▁kiss	-11.2156
ının	-11.2162
▁sü	-11.2184
urg	-11.2185
▁Mil	-11.2185
▁Sir	-11.219
▁coat	-11.2194
uq	-11.2194
▁communicat	-11.2202
▁nei	-11.2202
▁marker	-11.2205
audi	-11.2207
▁şeylər	-11.2214
▁əla	-11.222
▁Pan	-11.222
▁Israeli	-11.223
▁simultaneous	-11.2236
▁Ghana	-11.2236
▁Technolog	-11.2236
▁chapter	-11.2236
▁contemporar	-11.2236
▁excellen	-11.2236
▁məktəb	-11.2236
▁synthetic	-11.2236
▁unbelievabl	-11.2236
▁eradicat	-11.2236
▁gesture	-11.2236
▁stunt	-11.2236
▁smooth	-11.2236
▁neat	-11.2236
▁advis	-11.2236
▁array	-11.2238
▁salt	-11.2238
▁slice	-11.224
▁28	-11.224
Y	-11.2241
ndeed	-11.2243
cop	-11.2245
▁editor	-11.2248
▁Never	-11.2255
▁methan	-11.2256
əcəyi	-11.226
▁autonomous	-11.2265
▁qualit	-11.2271
BI	-11.2275
path	-11.2275
▁din	-11.228
▁tick	-11.2288
▁Mother	-11.2313
▁onu	-11.2314
20	-11.2316
▁rent	-11.2321
▁bind	-11.2335
▁degrad	-11.2363
▁addict	-11.2372
▁bang	-11.2374
▁conclude	-11.2377
▁enerji	-11.2377
▁fraction	-11.2377
▁inspiring	-11.2377
▁qız	-11.2377
▁recipe	-11.2377
▁renewable	-11.2377
▁sketch	-11.2377
▁Narrat	-11.2377
▁reserve	-11.2377
cellular	-11.2377
▁naked	-11.2377
▁burst	-11.2377
▁render	-11.2377
▁restrict	-11.2377
▁tropic	-11.2378
▁slavery	-11.2378
▁persist	-11.2379
▁pole	-11.2379
▁psychologist	-11.2379
▁2003	-11.2381
angle	-11.2383
▁pulse	-11.2383
▁Up	-11.2383
▁195	-11.2384
▁Plan	-11.2387
▁Phil	-11.2387
grow	-11.2387
children	-11.2389
▁qar	-11.2389
▁opera	-11.2389
▁shout	-11.2392
▁Dad	-11.2398
▁boot	-11.24
MS	-11.2402
▁probe	-11.2403
▁alter	-11.2406
▁Time	-11.2415
▁şəkildə	-11.2421
▁mold	-11.243
maz	-11.2434
▁sel	-11.244
▁Arm	-11.2441
diyini	-11.2446
▁preserv	-11.2457
▁shirt	-11.2467
▁rape	-11.2469
▁Yorker	-11.2472
▁dial	-11.2476
new	-11.2485
▁semi	-11.2486
azz	-11.2496
▁mobil	-11.2498
▁özü	-11.2499
▁interpret	-11.2516
ından	-11.2518
▁calculation	-11.2519
▁federal	-11.2519
▁guarantee	-11.2519
▁helicopter	-11.2519
▁intuitive	-11.2519
▁paradox	-11.2519
▁primitive	-11.2519
▁signature	-11.2519
▁Friday	-11.2519
▁garb	-11.252
▁transmission	-11.252
▁assignment	-11.2521
▁dump	-11.2523
▁admir	-11.2525
▁limitation	-11.2525
▁highlight	-11.2526
▁ecological	-11.2531
▁120	-11.2534
▁Nation	-11.2535
▁Kar	-11.2545
▁sacrifice	-11.2553
▁yaxın	-11.2554
▁tent	-11.2563
▁Turn	-11.2564
▁ethical	-11.2567
▁philosopher	-11.2573
▁Put	-11.259
▁astronom	-11.2591
dür	-11.2616
org	-11.2617
▁branch	-11.2621
▁industri	-11.2653
▁Gene	-11.2657
▁nucle	-11.2662
▁uncle	-11.2662
▁slave	-11.2663
▁Through	-11.2664
▁disappoint	-11.2664
▁rebuild	-11.2664
▁spectacular	-11.2664
▁Cambri	-11.2664
▁flexibl	-11.2664
▁transparent	-11.2664
▁axis	-11.2665
vor	-11.2665
dominant	-11.2665
▁initiative	-11.2666
▁march	-11.2667
▁2006	-11.2669
▁automat	-11.267
▁33	-11.2671
▁borrow	-11.2672
▁50,000	-11.2676
▁tension	-11.2678
▁fastest	-11.2682
train	-11.2688
ette	-11.2688
▁peaceful	-11.2688
▁tower	-11.2694
▁weapon	-11.2705
▁transmitt	-11.2708
▁fur	-11.2711
▁surrounding	-11.2711
▁Pre	-11.2723
▁disability	-11.2731
▁rotate	-11.2734
▁trauma	-11.2738
▁Unti	-11.2744
▁hid	-11.2747
▁humbl	-11.2747
▁clock	-11.2761
▁vibrat	-11.2772
▁node	-11.2777
▁Siz	-11.2801
▁çat	-11.2803
likdə	-11.2805
▁consum	-11.2809
▁dragonfl	-11.2811
▁fragment	-11.2811
▁Aristot	-11.2811
▁Research	-11.2811
▁aesthetic	-11.2811
▁encrypt	-11.2811
▁hərəkət	-11.2811
▁strike	-11.2811
▁vacation	-11.2811
▁snake	-11.2811
▁regulation	-11.2811
▁consult	-11.2812
▁bulb	-11.2812
▁Italian	-11.2812
▁textbook	-11.2812
▁Seven	-11.2812
▁leak	-11.2814
▁unclear	-11.2814
▁systematic	-11.2821
▁bored	-11.2823
assembl	-11.2824
▁Sal	-11.2826
▁darkness	-11.2828
▁20,000	-11.2832
əgər	-11.2836
irəm	-11.284
▁Tim	-11.2841
brush	-11.2846
▁constraint	-11.2848
▁bound	-11.2849
əb	-11.2851
▁Moon	-11.2851
▁dancer	-11.2864
▁formal	-11.2865
▁SS	-11.2867
uction	-11.2869
ələ	-11.2871
▁çıxar	-11.288
▁institutional	-11.2897
▁Lab	-11.2912
▁palm	-11.2925
▁dece	-11.2932
▁bold	-11.2946
round	-11.2947
▁pat	-11.2956
▁neuroscien	-11.296
▁acquire	-11.2961
▁attribute	-11.2961
▁concentrate	-11.2961
▁diabetes	-11.2961
▁enhance	-11.2961
▁senior	-11.2961
▁poison	-11.2961
▁cheese	-11.2961
▁audio	-11.2961
▁locate	-11.2961
▁ruin	-11.2962
▁rip	-11.2962
▁2012	-11.2962
▁till	-11.2962
▁queen	-11.2963
▁winner	-11.2963
▁pollinat	-11.2963
▁26	-11.2965
▁Long	-11.2965
▁installation	-11.2966
thermal	-11.2968
▁jet	-11.2968
▁prepare	-11.297
▁Mor	-11.2975
lah	-11.2976
▁believ	-11.2992
▁Back	-11.2996
BG	-11.2999
face	-11.3002
oft	-11.3019
adi	-11.3029
öv	-11.3029
EC	-11.3031
lace	-11.3031
▁Love	-11.3036
ball	-11.3047
▁investor	-11.3051
▁bunun	-11.3052
▁onları	-11.3081
▁creator	-11.3085
stock	-11.3091
▁destin	-11.3109
▁disconnect	-11.3112
▁Design	-11.3112
▁Virgin	-11.3112
▁alcohol	-11.3112
▁frustrate	-11.3112
▁hormone	-11.3112
▁jihad	-11.3112
▁unprecedented	-11.3112
▁Smith	-11.3112
▁anxiety	-11.3112
▁athlete	-11.3112
▁robust	-11.3112
▁fertil	-11.3112
▁jelly	-11.3112
▁strand	-11.3112
▁sharp	-11.3112
▁retina	-11.3113
▁Micros	-11.3114
▁crush	-11.3114
▁export	-11.3114
▁advocate	-11.3115
▁delight	-11.3119
▁Jack	-11.312
▁modul	-11.3126
▁feminist	-11.3134
▁mixed	-11.3147
▁argu	-11.3153
part	-11.3155
▁trap	-11.3166
▁disabl	-11.3167
mız	-11.3169
▁amaze	-11.3176
▁achiev	-11.3185
▁sanit	-11.3198
RB	-11.3211
take	-11.3215
▁projection	-11.3232
▁computation	-11.3235
ote	-11.3245
drew	-11.3248
rapped	-11.3261
ogen	-11.3263
,500	-11.3265
▁Beləliklə	-11.3266
▁cavab	-11.3266
▁chief	-11.3266
▁enthusias	-11.3266
▁exhaust	-11.3266
▁kosmos	-11.3266
▁origami	-11.3266
▁pharmaceutical	-11.3266
▁philanthrop	-11.3266
▁trajector	-11.3266
▁voting	-11.3266
▁çətin	-11.3266
▁combat	-11.3266
▁instinct	-11.3266
▁doğru	-11.3266
▁inherent	-11.3266
▁burden	-11.3266
tangible	-11.3266
▁broadcast	-11.3266
▁extension	-11.3266
▁freak	-11.3266
▁Gulf	-11.3267
▁damn	-11.3268
▁Egyptian	-11.3268
▁condom	-11.3268
lihood	-11.327
▁crew	-11.3272
gie	-11.3276
ural	-11.3277
▁Child	-11.3285
▁Bush	-11.3285
▁tune	-11.3288
▁currenc	-11.3291
▁çe	-11.3295
▁acknowledge	-11.33
▁Win	-11.3303
▁joint	-11.3304
▁insanların	-11.331
tact	-11.3312
▁plain	-11.3323
▁navigate	-11.3325
▁ratio	-11.3336
▁olsa	-11.3341
▁Home	-11.3348
larda	-11.3358
▁clos	-11.336
.5	-11.3361
▁introduc	-11.3377
▁95	-11.3378
▁arrow	-11.3378
▁Eve	-11.3382
▁coin	-11.3383
▁journal	-11.3384
▁etməyə	-11.3408
▁negotiat	-11.3416
▁migrat	-11.3416
BC	-11.3419
▁Alqış	-11.342
ilicon	-11.3421
▁consist	-11.3422
▁Hindistan	-11.3422
▁Should	-11.3422
▁flavor	-11.3422
▁fragile	-11.3422
▁legislat	-11.3422
▁luxur	-11.3422
▁milyard	-11.3422
▁prosthetic	-11.3422
▁structural	-11.3422
▁confirm	-11.3422
▁tweet	-11.3422
▁district	-11.3422
▁milyon	-11.3422
▁pigeon	-11.3422
▁bizarre	-11.3422
▁galler	-11.3422
▁garage	-11.3422
▁leaf	-11.3422
▁pace	-11.3423
▁variable	-11.3423
▁shore	-11.3423
▁gradual	-11.3424
▁marry	-11.3425
▁hitting	-11.3426
▁Mag	-11.3431
▁intend	-11.3432
malı	-11.3432
▁Belə	-11.3433
▁reliabl	-11.3434
▁golden	-11.3434
▁Dere	-11.3438
▁Newton	-11.3438
▁genetically	-11.3438
▁fee	-11.3447
made	-11.3452
▁fifth	-11.346
▁lane	-11.3461
▁linear	-11.3471
▁Eric	-11.3475
▁fanc	-11.3476
polis	-11.3481
▁verdi	-11.3484
▁orta	-11.3486
▁copie	-11.3494
▁occasional	-11.3499
▁bath	-11.352
▁format	-11.3525
▁Matt	-11.3533
▁storytell	-11.3535
lərində	-11.3547
▁ecolog	-11.3577
▁Oxford	-11.3581
▁fulfill	-11.3581
▁qalaktika	-11.3581
▁gözəl	-11.3581
▁trash	-11.3581
▁Soviet	-11.3581
vatar	-11.3581
▁bathroom	-11.3581
▁Northern	-11.3581
▁inflat	-11.3582
alı	-11.3582
▁lean	-11.3583
▁stole	-11.3584
▁merc	-11.3585
▁coach	-11.3591
▁upset	-11.3592
▁sew	-11.3597
friend	-11.3605
▁detector	-11.3614
▁Kim	-11.3616
▁survivor	-11.3622
▁determined	-11.3622
dığım	-11.3634
luq	-11.3644
▁pause	-11.3645
▁dear	-11.3646
▁None	-11.3651
▁overwhelming	-11.366
▁shopp	-11.3677
known	-11.3698
place	-11.3699
▁mayor	-11.3706
▁programmer	-11.3717
iyyət	-11.3735
▁Charlie	-11.3742
▁descend	-11.3742
▁simulate	-11.3742
▁vacuum	-11.3742
▁Vietnam	-11.3742
▁dövr	-11.3742
▁tragic	-11.3742
▁ubiquit	-11.3742
▁devil	-11.3742
▁compell	-11.3742
▁crystal	-11.3742
▁neck	-11.3742
▁Little	-11.3743
▁Maldiv	-11.3743
itting	-11.3743
▁collaborative	-11.3743
▁mineral	-11.3743
morph	-11.3746
▁deaf	-11.375
▁sink	-11.3754
▁restore	-11.3756
▁AB	-11.3759
▁passive	-11.376
▁urge	-11.3762
▁görün	-11.3771
engineer	-11.3771
▁interior	-11.3776
▁typ	-11.3791
▁Dece	-11.3793
▁əl	-11.3798
abil	-11.3803
▁emit	-11.3821
▁custom	-11.3822
▁manipulat	-11.3832
▁tanı	-11.3835
▁formula	-11.385
▁profession	-11.3855
▁transmit	-11.3858
▁şeyi	-11.386
▁via	-11.386
▁replac	-11.3873
izi	-11.3876
▁shin	-11.3877
▁mega	-11.3877
▁adam	-11.3891
▁east	-11.3904
▁lazım	-11.3905
▁ceremon	-11.3906
▁August	-11.3906
▁defeat	-11.3906
▁excuse	-11.3906
▁routine	-11.3906
▁sandwich	-11.3906
▁shrink	-11.3906
▁terrifying	-11.3906
▁upload	-11.3906
▁thrill	-11.3906
▁brutal	-11.3906
▁bullet	-11.3906
▁shelter	-11.3906
▁twist	-11.3906
▁distract	-11.3906
▁augment	-11.3906
▁spell	-11.3906
▁əlaqə	-11.3907
▁bribe	-11.3907
▁maşın	-11.3907
▁sağ	-11.3908
▁electrode	-11.3908
▁4,000	-11.391
▁glue	-11.3911
▁punch	-11.3911
▁2001	-11.3911
▁sensation	-11.3912
▁meydan	-11.3912
▁nəticə	-11.3912
▁Islamic	-11.3914
▁gear	-11.3918
▁intens	-11.3927
▁reflection	-11.3937
▁Sch	-11.3941
▁faci	-11.3946
▁gathering	-11.3958
▁patch	-11.3961
▁üzərində	-11.3973
▁explode	-11.3977
uthern	-11.3983
▁indicat	-11.3983
▁Hall	-11.3985
▁glamor	-11.3992
atrix	-11.4
▁upside	-11.4006
▁fate	-11.4008
▁Mənim	-11.4021
▁Sure	-11.4052
▁Ku	-11.4057
▁Argentin	-11.4073
▁Council	-11.4073
▁Palestinian	-11.4073
▁competitive	-11.4073
▁furniture	-11.4073
▁intrigu	-11.4073
▁microphone	-11.4073
▁translation	-11.4073
▁automobile	-11.4073
▁paralyz	-11.4073
▁Listen	-11.4073
▁hansı	-11.4073
▁forgive	-11.4073
▁venture	-11.4074
▁generous	-11.4074
▁viral	-11.4074
▁violat	-11.4074
▁internet	-11.4074
▁spacecraft	-11.4074
▁fərqli	-11.4075
▁brick	-11.4075
▁gentl	-11.4077
▁contribution	-11.4081
▁lamp	-11.4082
irlər	-11.4082
▁agreement	-11.4083
▁March	-11.4086
▁Tony	-11.4087
▁sizin	-11.4088
BM	-11.409
▁Third	-11.4091
ırıq	-11.4093
▁0.	-11.4095
uk	-11.4095
hole	-11.4097
▁panic	-11.4098
▁pipe	-11.4099
▁Gala	-11.4104
▁astonishing	-11.4106
▁ego	-11.4106
▁personaliz	-11.4108
▁scanner	-11.4117
▁məni	-11.4169
▁critic	-11.4182
range	-11.4188
▁epi	-11.4204
ğın	-11.4211
▁hackers	-11.4213
animate	-11.4217
▁Pu	-11.4225
▁remov	-11.4231
▁deforest	-11.4242
▁Ethiopia	-11.4242
▁Florid	-11.4242
▁Hawaii	-11.4242
▁collision	-11.4242
▁default	-11.4242
▁interconnect	-11.4242
▁romantic	-11.4242
▁purchase	-11.4242
▁ethnic	-11.4242
▁nəzər	-11.4242
▁calorie	-11.4243
▁humanitarian	-11.4243
▁nuts	-11.4243
▁Febr	-11.4243
▁LED	-11.4243
▁mysterious	-11.4244
▁primate	-11.4244
▁grasp	-11.4244
▁keyboard	-11.4245
▁representative	-11.4245
▁lonel	-11.4247
▁collaborator	-11.4249
▁oxy	-11.425
▁weekend	-11.4251
▁Nick	-11.4253
▁jar	-11.4254
▁Brun	-11.4258
▁annual	-11.4258
▁Walk	-11.426
▁bush	-11.4264
▁subway	-11.4267
▁agricultural	-11.4285
▁advanc	-11.4286
human	-11.4287
▁vibration	-11.4288
shot	-11.4308
HC	-11.4309
▁onların	-11.4312
▁batter	-11.4314
▁diagnosi	-11.4317
▁pant	-11.4318
▁occasion	-11.4331
▁insist	-11.4337
kən	-11.4345
▁səs	-11.4346
▁burie	-11.4357
▁ideolog	-11.4408
▁entit	-11.4412
▁scholar	-11.4414
ndustrial	-11.4414
▁awkward	-11.4415
▁civic	-11.4415
▁curriculum	-11.4415
▁dilemma	-11.4415
▁intersection	-11.4415
▁participant	-11.4415
▁reinvent	-11.4415
▁substance	-11.4415
▁tsunami	-11.4415
▁təhsil	-11.4415
▁theoretical	-11.4415
▁distort	-11.4415
▁fence	-11.4415
▁wrist	-11.4415
▁expectanc	-11.4415
▁Brown	-11.4416
▁equit	-11.4416
▁winning	-11.4416
▁convey	-11.4417
▁artıq	-11.4418
▁hələ	-11.442
▁warning	-11.4421
ueen	-11.4421
▁portion	-11.4424
▁dri	-11.4424
▁compassionate	-11.4425
word	-11.4428
ündə	-11.4436
▁sheep	-11.4437
▁clay	-11.4442
▁Asian	-11.4447
stream	-11.4454
▁homeless	-11.4458
laşdır	-11.447
▁endless	-11.4483
ocin	-11.4496
▁float	-11.451
▁pie	-11.4521
düyü	-11.4527
▁tərəf	-11.4549
▁shit	-11.4552
cker	-11.4553
▁Pop	-11.4564
▁exhibit	-11.4582
person	-11.4585
venue	-11.4587
▁Gandhi	-11.459
▁Obvious	-11.459
▁Taliban	-11.459
▁genuine	-11.459
▁physiolog	-11.459
▁tattoo	-11.459
▁uniform	-11.459
▁Minister	-11.459
▁Spanish	-11.459
▁valley	-11.459
əlkə	-11.459
▁entrop	-11.459
▁inherit	-11.459
▁drum	-11.459
▁tendenc	-11.459
▁thread	-11.4591
▁baseball	-11.4591
▁düz	-11.4591
▁utilit	-11.4592
▁Josh	-11.4593
▁valid	-11.4593
▁Gates	-11.4593
▁woke	-11.4593
▁canopy	-11.4594
▁mapping	-11.4594
▁homework	-11.4597
▁kidney	-11.4598
▁gang	-11.46
▁poly	-11.46
▁refine	-11.4601
▁Port	-11.4603
▁85	-11.4605
▁makers	-11.4605
▁pathway	-11.4608
▁bilmir	-11.461
▁Kev	-11.4611
free	-11.4614
▁blend	-11.4615
▁gözlə	-11.4616
▁logical	-11.4627
material	-11.4634
▁aspiration	-11.4637
▁Luc	-11.4651
▁Men	-11.467
▁astronomer	-11.468
▁geograph	-11.47
▁spoken	-11.4701
▁appreciat	-11.4704
omi	-11.4725
▁analyz	-11.4729
▁Henr	-11.473
eaten	-11.4739
▁documentar	-11.4743
▁determin	-11.4756
convenient	-11.4769
▁Work	-11.4769
▁frequent	-11.4769
▁knife	-11.4769
▁leather	-11.4769
▁transaction	-11.4769
▁vaccinat	-11.4769
▁psychiatr	-11.4769
▁Profess	-11.4769
▁commission	-11.4769
▁günəş	-11.4769
▁altitude	-11.4769
▁kitab	-11.4769
▁General	-11.4769
▁glad	-11.4769
▁hub	-11.477
▁imitat	-11.477
▁Monte	-11.4771
▁mill	-11.4772
▁Open	-11.4773
ssociation	-11.4779
▁flute	-11.478
laughter	-11.478
▁Out	-11.4787
▁deriv	-11.4801
▁Bab	-11.4814
▁releas	-11.4829
▁specialize	-11.4849
▁silver	-11.4856
▁shine	-11.4856
space	-11.486
▁manual	-11.4879
▁donor	-11.4901
fast	-11.4909
▁vent	-11.492
▁accus	-11.4934
▁conf	-11.4937
▁elevat	-11.4944
acco	-11.4945
hou	-11.4945
▁Bee	-11.4949
▁tempt	-11.4951
▁Absolute	-11.4951
▁astronaut	-11.4951
▁champion	-11.4951
▁concentration	-11.4951
▁diamond	-11.4951
▁enterprise	-11.4951
▁məlumat	-11.4951
▁pandemic	-11.4951
▁qaranlıq	-11.4951
▁register	-11.4951
▁unconscious	-11.4951
▁Dutch	-11.4951
▁declar	-11.4951
▁spill	-11.4951
▁cotton	-11.4951
▁align	-11.4951
▁rabbi	-11.4951
▁grandparent	-11.4951
▁triangle	-11.4951
▁Eastern	-11.4951
▁dawn	-11.4951
▁biləcəyi	-11.4951
▁barrel	-11.4951
▁entry	-11.4951
▁minorit	-11.4951
▁MRI	-11.4951
▁görür	-11.4951
▁outrage	-11.4952
▁Chile	-11.4952
▁contradiction	-11.4953
▁wedding	-11.4953
▁2020	-11.4954
▁olub	-11.4954
▁Homo	-11.4955
▁interpretation	-11.4955
▁confine	-11.4964
▁germ	-11.4967
dığımız	-11.4969
▁rope	-11.4986
▁suggestion	-11.4987
related	-11.5
two	-11.5002
▁rebel	-11.5005
▁nutrition	-11.5014
pox	-11.5032
▁manipulate	-11.5034
ggle	-11.5034
▁Jane	-11.5045
▁Bol	-11.5046
▁rotat	-11.5051
▁Moor	-11.5055
▁wrapp	-11.5061
▁server	-11.5067
▁verb	-11.5072
▁wrap	-11.5077
▁wider	-11.5089
▁Hər	-11.5091
▁electro	-11.5096
▁squa	-11.5101
▁visualize	-11.5104
▁soap	-11.5117
▁apar	-11.5119
▁Sara	-11.512
liyin	-11.512
▁auditor	-11.5131
▁celebrit	-11.5136
dministration	-11.5136
▁Bangladesh	-11.5136
▁Leonard	-11.5136
▁aggressive	-11.5136
▁circulat	-11.5136
▁crawl	-11.5136
▁dəqiq	-11.5136
▁hierarch	-11.5136
▁musiqi	-11.5136
▁mövzu	-11.5136
▁sahib	-11.5136
▁stomach	-11.5136
▁temporar	-11.5136
▁territor	-11.5136
▁innocent	-11.5136
▁potato	-11.5136
▁fault	-11.5136
▁serving	-11.5136
▁Court	-11.5136
▁fikri	-11.5136
▁ooh	-11.5136
▁Fortun	-11.5136
▁terra	-11.5137
▁Koran	-11.5137
▁cube	-11.5137
▁resolve	-11.5137
▁calm	-11.5138
▁native	-11.5139
▁Trans	-11.514
▁glow	-11.514
▁Play	-11.5142
ıram	-11.5143
▁accelerate	-11.5144
▁yarı	-11.5145
▁mud	-11.5145
▁impression	-11.5145
▁manner	-11.5146
▁comic	-11.5147
▁invad	-11.5148
▁tale	-11.5153
▁quest	-11.5153
▁horizontal	-11.5156
▁lap	-11.5158
▁uncertaint	-11.5164
▁Scr	-11.5165
produc	-11.5188
found	-11.5189
efficient	-11.5189
function	-11.5189
school	-11.519
direct	-11.5203
glo	-11.5213
imizi	-11.5215
▁logg	-11.522
▁şəkil	-11.5247
▁əslin	-11.525
▁ethic	-11.5262
▁classe	-11.5264
▁strategic	-11.5266
ison	-11.529
ender	-11.53
arrow	-11.5303
▁horizon	-11.5304
▁Bell	-11.5313
▁retire	-11.5322
axşı	-11.5323
▁spontaneous	-11.5324
▁müddət	-11.5324
▁Neanderthal	-11.5324
▁Square	-11.5324
▁compromise	-11.5324
▁distinguish	-11.5324
▁geniş	-11.5324
▁grateful	-11.5324
▁iPod	-11.5324
▁magnificent	-11.5324
▁monsoon	-11.5324
▁precious	-11.5324
▁schizophreni	-11.5324
▁sponsor	-11.5324
▁supermarket	-11.5324
▁Michel	-11.5324
▁composition	-11.5324
▁minimum	-11.5324
▁inhabit	-11.5324
▁gravitational	-11.5325
əbii	-11.5325
▁compress	-11.5325
▁drift	-11.5325
▁yoxdur	-11.5325
▁işıq	-11.5326
▁ongoing	-11.5327
▁retirement	-11.5327
ollege	-11.5328
▁civilian	-11.5329
▁racis	-11.5329
▁static	-11.5331
▁unlock	-11.5331
▁olduq	-11.5333
▁mood	-11.5333
▁cake	-11.5333
▁Eight	-11.5334
evel	-11.5335
▁Berli	-11.5341
▁30,000	-11.5342
active	-11.5346
lamaq	-11.5347
asını	-11.5352
▁eliminate	-11.5354
▁sneaker	-11.5356
▁Hill	-11.536
▁Cassi	-11.536
blew	-11.5364
14	-11.5375
law	-11.538
four	-11.5382
▁baxı	-11.5382
▁helpful	-11.5386
keep	-11.5388
▁historic	-11.5393
▁thrive	-11.5394
▁experimental	-11.541
▁merg	-11.541
▁stabilit	-11.5415
mple	-11.5415
▁glamo	-11.5417
▁bounc	-11.5421
▁overwhelm	-11.5422
diyim	-11.5448
▁Tur	-11.5451
▁goat	-11.5458
lider	-11.5474
▁span	-11.5475
quality	-11.5481
▁gig	-11.5484
▁dispos	-11.5499
▁Woo	-11.5507
nergy	-11.5511
▁Department	-11.5517
▁Shanghai	-11.5517
▁Sudden	-11.5517
▁elegant	-11.5517
▁frustration	-11.5517
▁immigrant	-11.5517
▁intimate	-11.5517
▁kömək	-11.5517
▁prescription	-11.5517
▁scaffold	-11.5517
▁suspend	-11.5517
▁wheelchair	-11.5517
▁margin	-11.5517
▁marvel	-11.5517
▁xüsusi	-11.5517
▁relax	-11.5517
▁Dünya	-11.5517
▁encode	-11.5517
▁Still	-11.5517
▁Church	-11.5517
▁harness	-11.5517
ealand	-11.5517
▁frog	-11.5518
▁mainstream	-11.5518
▁marketplace	-11.5519
▁foster	-11.5519
▁submit	-11.552
▁unfold	-11.5522
▁sport	-11.5523
▁bilərik	-11.5523
▁drought	-11.5523
▁CD	-11.5524
▁appearance	-11.5525
▁Rock	-11.5528
▁pup	-11.5535
▁detection	-11.5538
▁Sunday	-11.5538
▁gələn	-11.5539
▁celebrat	-11.5541
▁lowest	-11.5545
▁kilo	-11.5546
▁sahə	-11.5548
▁computational	-11.5566
▁arc	-11.558
▁AI	-11.5582
▁hardest	-11.5589
▁referr	-11.5592
heart	-11.5594
▁upward	-11.5597
▁commit	-11.5613
cou	-11.5614
▁olardı	-11.5614
▁hunter	-11.5625
▁yolu	-11.5628
▁həyatı	-11.5629
▁harmon	-11.5631
cam	-11.5639
▁rear	-11.5639
stage	-11.565
ius	-11.5658
▁Op	-11.5664
▁kainat	-11.5677
▁Marc	-11.5682
▁corrupt	-11.5696
ıdır	-11.5698
▁influen	-11.5705
ütün	-11.571
▁sculpt	-11.5712
▁mövcud	-11.5713
▁Amerika	-11.5713
▁System	-11.5713
▁Tanzania	-11.5713
▁deliberate	-11.5713
▁drunk	-11.5713
▁encouraging	-11.5713
▁hybrid	-11.5713
▁junk	-11.5713
▁manuscript	-11.5713
▁principal	-11.5713
▁götür	-11.5713
▁decorat	-11.5713
▁fusion	-11.5713
▁orphan	-11.5713
▁antenna	-11.5713
▁güc	-11.5713
▁steer	-11.5714
▁reproduce	-11.5714
▁bedroom	-11.5714
ological	-11.5715
▁Archi	-11.5715
▁spray	-11.5717
▁Wait	-11.5719
▁29	-11.5719
▁strain	-11.572
▁addiction	-11.5721
▁canvas	-11.5721
cost	-11.5722
▁minus	-11.5722
▁Burada	-11.5722
▁arise	-11.5722
▁workplace	-11.5724
▁realistic	-11.5725
▁Carolin	-11.5726
osity	-11.5729
▁Stage	-11.5729
▁200,000	-11.5731
əsində	-11.574
eye	-11.5757
▁reporter	-11.5777
▁architectur	-11.5778
perform	-11.5779
▁Korean	-11.5783
TI	-11.5783
▁800	-11.5796
ku	-11.5801
▁virtue	-11.5814
ella	-11.5824
▁söz	-11.5825
▁Seattl	-11.5848
lub	-11.5878
mışdı	-11.5879
rane	-11.5881
▁mobiliz	-11.5905
xcept	-11.5907
▁fantas	-11.5907
▁fərq	-11.5911
▁55	-11.5913
▁quantit	-11.5913
▁Bronx	-11.5913
▁Detroit	-11.5913
▁Parkinson	-11.5913
▁TEDTalk	-11.5913
▁chronic	-11.5913
▁chunk	-11.5913
▁depict	-11.5913
▁diameter	-11.5913
▁jewel	-11.5913
▁millimeter	-11.5913
▁protocell	-11.5913
▁striking	-11.5913
▁veteran	-11.5913
▁Yemen	-11.5913
▁məsələ	-11.5913
▁suburb	-11.5913
▁tongue	-11.5913
▁mutual	-11.5913
▁unhapp	-11.5913
▁uzun	-11.5913
▁desktop	-11.5913
▁Redwood	-11.5913
▁Lord	-11.5914
▁reinforce	-11.5914
▁Brad	-11.5914
▁displace	-11.5914
▁infectious	-11.5914
▁rose	-11.5915
▁parça	-11.5915
▁Sound	-11.5916
▁texture	-11.5917
▁logo	-11.5918
▁artwork	-11.5918
▁Coke	-11.5919
▁Alex	-11.592
▁naive	-11.592
▁examine	-11.5921
▁pathogen	-11.5923
▁SW	-11.5924
▁blindness	-11.5925
▁dumb	-11.5933
▁requirement	-11.5933
▁impress	-11.5934
▁operator	-11.5939
▁blogg	-11.5944
vity	-11.5948
▁Acc	-11.5952
ünüz	-11.5956
estate	-11.5968
frame	-11.5983
cast	-11.5991
əzə	-11.5993
shape	-11.5997
▁Young	-11.5999
▁healthie	-11.6007
▁formation	-11.6013
▁mall	-11.6014
▁Van	-11.603
itz	-11.6032
▁SE	-11.6049
▁Joe	-11.6051
Fi	-11.6064
▁pregnanc	-11.6066
▁stimul	-11.6079
oil	-11.6079
▁Creat	-11.608
▁verir	-11.6087
▁teenage	-11.6088
mart	-11.6093
racy	-11.6097
▁phenomena	-11.6107
▁hara	-11.6108
lərindən	-11.6111
▁punish	-11.6115
nforcement	-11.6117
▁üç	-11.6117
adequate	-11.6117
▁Democrat	-11.6117
▁contaminat	-11.6117
▁despair	-11.6117
▁drown	-11.6117
▁exclusive	-11.6117
▁inkişaf	-11.6117
▁lobby	-11.6117
▁outbreak	-11.6117
▁pixel	-11.6117
▁synchron	-11.6117
▁syndrome	-11.6117
▁transistor	-11.6117
▁whistle	-11.6117
▁episode	-11.6117
▁Accord	-11.6117
▁oppress	-11.6117
▁libert	-11.6117
▁Telescope	-11.6117
▁archive	-11.6117
▁forecast	-11.6117
▁troop	-11.6117
▁nurtur	-11.6117
▁carpet	-11.6117
▁növ	-11.6117
▁arasında	-11.6117
▁backyard	-11.6118
▁sidewalk	-11.6118
▁pride	-11.6118
▁flaw	-11.6119
width	-11.6119
▁gəldi	-11.612
▁nerd	-11.612
▁torture	-11.6121
▁frontier	-11.6122
▁Jona	-11.6124
▁Lester	-11.6125
▁duck	-11.6126
▁phenomenal	-11.6127
▁grabb	-11.613
▁cosmo	-11.6134
▁investigation	-11.6135
▁selfish	-11.6136
▁erect	-11.6137
▁advers	-11.614
▁pursue	-11.6142
▁wheat	-11.6146
▁ignoran	-11.6148
lmost	-11.6154
▁hesab	-11.6156
▁dragg	-11.6158
▁ES	-11.6163
▁statistical	-11.617
adays	-11.6176
▁branche	-11.6178
▁keçir	-11.6182
▁heavi	-11.6187
▁insane	-11.6189
▁singer	-11.6191
drive	-11.6203
▁Inter	-11.6206
zero	-11.6212
▁başa	-11.624
▁bunlar	-11.624
▁liberat	-11.6248
▁chase	-11.6259
▁Harr	-11.6271
▁Gar	-11.6279
▁Carl	-11.6303
▁starv	-11.6312
▁Mountain	-11.6325
▁Singapore	-11.6325
▁enzyme	-11.6325
▁membrane	-11.6325
▁nöqtə	-11.6325
▁parachute	-11.6325
▁whisper	-11.6325
▁chimp	-11.6325
▁excess	-11.6325
▁fortune	-11.6325
▁contrar	-11.6325
▁surf	-11.6326
▁sufficient	-11.6326
▁accent	-11.6326
▁gorge	-11.6326
▁introduction	-11.6326
▁Twenty	-11.6326
▁blink	-11.6326
▁Social	-11.6326
▁pursuit	-11.6327
▁loving	-11.6327
version	-11.6327
▁diagnostic	-11.6328
▁Greenland	-11.6328
▁geek	-11.6328
creat	-11.6329
▁clon	-11.6331
▁Lego	-11.6331
▁attractive	-11.6332
▁Brian	-11.6333
robi	-11.6335
▁airline	-11.6337
▁40,000	-11.6338
▁Stop	-11.6341
▁gase	-11.6343
▁aunt	-11.635
mağı	-11.6354
▁deepest	-11.6362
cycle	-11.6368
▁Try	-11.6372
▁update	-11.6378
aeda	-11.6392
izə	-11.6393
▁Hav	-11.6396
▁RS	-11.6402
▁prayer	-11.6402
shirt	-11.6402
▁wander	-11.6403
minute	-11.6403
world	-11.6403
weight	-11.6405
▁atomic	-11.6412
▁collaborate	-11.6419
▁Mik	-11.642
clock	-11.6423
vian	-11.6431
▁42	-11.6444
chu	-11.6446
▁import	-11.6461
▁independen	-11.6473
▁impressi	-11.6506
▁gəlmə	-11.6512
ump	-11.6516
▁criticiz	-11.6523
məz	-11.6523
▁skelet	-11.6533
▁Euro	-11.6538
▁2015	-11.6538
▁Academ	-11.6538
▁Apollo	-11.6538
▁approximate	-11.6538
▁electromagnet	-11.6538
▁segment	-11.6538
▁suppress	-11.6538
▁xəbər	-11.6538
▁maraqlı	-11.6538
▁debri	-11.6538
▁drain	-11.6538
▁retreat	-11.6538
▁vacib	-11.6538
violet	-11.6538
▁qaz	-11.6538
▁Snow	-11.6538
▁awake	-11.6538
▁contest	-11.6538
▁uç	-11.6538
▁Android	-11.6539
▁dough	-11.6539
▁hypothesis	-11.6539
▁hallucination	-11.6539
▁synthesize	-11.6541
▁Story	-11.6541
▁Half	-11.6541
▁intensive	-11.6541
▁Johnson	-11.6542
▁Yo	-11.6542
▁Organiz	-11.6542
▁cruel	-11.6542
▁visualization	-11.6543
▁1900	-11.6544
orient	-11.6545
▁60,000	-11.6548
▁aggregate	-11.6549
▁delay	-11.655
MW	-11.6551
asına	-11.6558
▁specialist	-11.6559
▁Camp	-11.6561
ectar	-11.6572
▁decid	-11.6576
SD	-11.6579
▁payment	-11.6585
▁ironic	-11.6588
cü	-11.6592
lərimiz	-11.6594
▁Pal	-11.6595
▁playful	-11.6602
regulat	-11.6604
▁chemist	-11.661
▁yoursel	-11.6616
ruct	-11.6616
▁optical	-11.6623
▁Roo	-11.6629
▁resilienc	-11.6635
▁deposit	-11.6641
▁compet	-11.6641
step	-11.6646
literate	-11.6666
▁Laugh	-11.6692
▁herita	-11.6693
▁Gree	-11.6695
eigh	-11.6733
▁Live	-11.6737
▁enabl	-11.674
▁accura	-11.6754
▁substantial	-11.6755
▁basketball	-11.6755
▁calculus	-11.6755
▁centimeter	-11.6755
▁configuration	-11.6755
▁maximum	-11.6755
▁pedestrian	-11.6755
▁satisfy	-11.6755
▁uyğun	-11.6755
▁fertilizer	-11.6755
▁cellphone	-11.6755
▁miserable	-11.6755
▁warrior	-11.6755
upreme	-11.6756
▁trailer	-11.6756
▁Coast	-11.6756
▁crater	-11.6756
▁Swiss	-11.6756
▁Geographic	-11.6756
▁Build	-11.6756
▁exceed	-11.6756
▁Compan	-11.6756
▁converg	-11.6756
▁Albert	-11.6756
▁indoor	-11.6756
▁Julia	-11.6756
▁pond	-11.6757
▁harmful	-11.6758
▁illustration	-11.6758
▁workshop	-11.6758
▁Lead	-11.6759
▁stamp	-11.6763
▁casual	-11.6763
▁recall	-11.6765
▁pigment	-11.6765
▁2002	-11.6766
▁mini	-11.6768
▁Allah	-11.6773
▁slim	-11.6776
▁metric	-11.6798
▁Moz	-11.6799
▁tagg	-11.6804
write	-11.6808
▁fad	-11.6813
▁toast	-11.6824
rich	-11.6838
touch	-11.6843
▁dili	-11.6852
▁optic	-11.689
▁350	-11.6893
sız	-11.6896
▁conceptual	-11.6906
asında	-11.691
diyimiz	-11.6941
▁Yal	-11.6945
▁container	-11.6957
generation	-11.6958
▁guid	-11.6962
promot	-11.6967
▁assign	-11.6975
▁Beij	-11.6978
▁stigma	-11.6978
▁Enceladus	-11.6978
▁bamboo	-11.6978
▁censor	-11.6978
▁cigarette	-11.6978
▁cliff	-11.6978
▁devote	-11.6978
▁executive	-11.6978
▁obtain	-11.6978
▁peculiar	-11.6978
▁qəbul	-11.6978
▁qərar	-11.6978
▁swallow	-11.6978
▁threshold	-11.6978
▁təşkil	-11.6978
▁unemploy	-11.6978
▁Watson	-11.6978
▁innovate	-11.6978
▁amateur	-11.6978
▁sibling	-11.6978
▁ambigu	-11.6978
▁endanger	-11.6978
▁filmmaker	-11.6978
▁summit	-11.6978
▁Mandela	-11.6978
▁imkan	-11.6978
▁kilogram	-11.6978
promising	-11.6978
▁November	-11.6978
▁proceed	-11.6978
▁emphasize	-11.6979
▁Alexand	-11.6979
▁loose	-11.6979
▁preference	-11.6979
▁Republican	-11.6981
▁Hope	-11.6981
▁Media	-11.6982
▁6,000	-11.6982
▁Water	-11.6982
▁44	-11.6983
Corp	-11.6984
▁kişi	-11.6984
witzer	-11.6986
▁migration	-11.6986
▁LG	-11.6986
▁nail	-11.6989
▁downtown	-11.699
▁adaptation	-11.6994
▁sequenc	-11.7004
▁dünyanın	-11.7005
▁fatal	-11.7006
▁beaten	-11.7007
▁broader	-11.7011
▁initiat	-11.7013
▁daş	-11.7014
▁subsid	-11.7017
▁hug	-11.7024
band	-11.7024
▁incentive	-11.7029
▁egg	-11.7032
▁belly	-11.7041
▁deyildi	-11.7044
racing	-11.7053
ographic	-11.7059
ığını	-11.706
▁Nic	-11.7063
▁AM	-11.7064
▁hyp	-11.7069
second	-11.707
▁Rose	-11.7071
▁embrac	-11.7073
▁Nel	-11.7077
wide	-11.7096
▁Bizi	-11.7107
▁popp	-11.7136
▁ölçü	-11.7141
▁Free	-11.7181
iylə	-11.7193
▁cycl	-11.7196
▁ətraf	-11.7201
▁qeyri	-11.7205
▁democratiz	-11.7205
▁envelope	-11.7205
▁execute	-11.7205
▁kəşf	-11.7205
▁nonviolen	-11.7205
▁pencil	-11.7205
▁proposal	-11.7205
▁reputation	-11.7205
▁rethink	-11.7205
▁divorce	-11.7205
▁Sierra	-11.7205
▁approve	-11.7205
▁warehouse	-11.7205
▁monster	-11.7205
▁creep	-11.7205
▁abundance	-11.7205
▁insulin	-11.7205
▁parasite	-11.7205
▁Power	-11.7205
▁dön	-11.7205
▁chef	-11.7205
▁proposition	-11.7206
▁impair	-11.7206
▁pirate	-11.7206
▁incorporat	-11.7206
▁iceberg	-11.7207
▁honey	-11.7207
▁chamber	-11.7207
▁forbid	-11.7207
▁Histor	-11.7208
▁Canadian	-11.7208
▁refrigerator	-11.721
▁rode	-11.7211
▁Jose	-11.7212
əhv	-11.7214
▁bleed	-11.7214
▁digest	-11.7215
buna	-11.7215
▁Tele	-11.7222
▁preach	-11.7222
▁bay	-11.7226
▁Brother	-11.723
oline	-11.7235
▁SP	-11.7239
▁accountabilit	-11.724
▁deck	-11.7241
▁dəyişdi	-11.7243
kton	-11.7259
▁Simpl	-11.7281
▁geographic	-11.7295
▁smil	-11.7296
spring	-11.7302
interest	-11.7302
three	-11.7307
RA	-11.7314
DI	-11.7315
eastern	-11.7334
▁edib	-11.7342
iyyə	-11.7345
▁navigat	-11.7348
▁sözü	-11.7366
▁Medica	-11.7366
▁gö	-11.7378
ogue	-11.7388
▁gördü	-11.7403
▁transcend	-11.7405
gli	-11.7425
pecific	-11.7432
▁integr	-11.7437
▁Securit	-11.7437
▁division	-11.7437
▁glimpse	-11.7437
▁grocer	-11.7437
▁injustice	-11.7437
▁kütlə	-11.7437
▁occupy	-11.7437
▁qayda	-11.7437
▁receptor	-11.7437
▁redesign	-11.7437
▁scheme	-11.7437
▁trivial	-11.7437
▁2030	-11.7437
▁Pretty	-11.7437
▁Disney	-11.7438
▁fizik	-11.7438
▁propell	-11.7438
▁jaw	-11.7438
▁controversial	-11.7438
eague	-11.7438
▁lifespan	-11.7438
▁tiger	-11.7438
▁quad	-11.7438
▁tomato	-11.7438
▁infra	-11.7438
▁Spring	-11.7439
▁indigen	-11.7439
▁banana	-11.7439
wrestl	-11.7439
▁prostate	-11.7439
▁lever	-11.7439
▁regenerate	-11.7439
▁delicio	-11.7441
▁punishment	-11.7441
▁volcano	-11.7441
▁dependenc	-11.7442
▁Iranian	-11.7442
nformation	-11.7442
▁mappe	-11.7444
▁blade	-11.7445
▁Penn	-11.7445
▁193	-11.7446
▁friendship	-11.7449
tolerance	-11.7449
▁Rover	-11.745
▁campus	-11.7454
▁Roman	-11.7456
▁grip	-11.7458
▁EM	-11.7475
▁kainatın	-11.748
▁realization	-11.7485
osis	-11.7497
▁connectiv	-11.7507
horn	-11.7508
▁shoe	-11.7512
▁regulate	-11.7516
▁Bali	-11.7525
worth	-11.754
▁Kha	-11.7558
uke	-11.7568
▁democrac	-11.757
▁olması	-11.7595
▁precis	-11.7646
scape	-11.7672
▁Philip	-11.7675
ncyclopedia	-11.7676
▁Brooklyn	-11.7676
▁artifact	-11.7676
▁bioluminescen	-11.7676
▁dictator	-11.7676
▁flourish	-11.7676
▁genocide	-11.7676
▁gökada	-11.7676
▁həmişə	-11.7676
▁shrimp	-11.7676
▁synapse	-11.7676
▁texnologiya	-11.7676
▁xatırla	-11.7676
▁legitima	-11.7676
▁tribal	-11.7676
▁hamısı	-11.7676
▁neuroscientist	-11.7676
▁üstün	-11.7676
▁Peace	-11.7676
▁numer	-11.7676
▁uninten	-11.7676
▁rəng	-11.7676
▁Stephen	-11.7676
▁stumbl	-11.7676
▁riot	-11.7676
▁chew	-11.7676
▁Apri	-11.7676
▁sperm	-11.7677
▁Keep	-11.7677
▁fluctuation	-11.7677
▁pizz	-11.7677
▁1.5	-11.7678
▁denial	-11.7678
▁discriminati	-11.7678
scope	-11.768
▁Venus	-11.768
▁index	-11.7681
▁destination	-11.7681
▁crab	-11.7682
▁rubb	-11.7688
▁rubber	-11.769
▁etdik	-11.7691
▁passage	-11.7698
▁millennia	-11.7698
▁vulnerabilit	-11.7715
▁crap	-11.7725
▁cage	-11.7725
▁ignor	-11.7729
▁blast	-11.7744
▁yaşı	-11.775
▁Mario	-11.7754
screen	-11.7784
income	-11.7784
▁Colo	-11.7786
sense	-11.7788
larımız	-11.779
flow	-11.7795
gger	-11.7798
ER	-11.7799
▁disk	-11.7809
finite	-11.781
speed	-11.782
▁practic	-11.7833
▁shak	-11.7845
▁bacteri	-11.7846
cula	-11.7875
▁rig	-11.7905
▁mesh	-11.7916
▁manifest	-11.7916
imbabwe	-11.7919
▁absence	-11.7919
▁council	-11.7919
▁devastating	-11.7919
▁festival	-11.7919
▁horror	-11.7919
▁immortal	-11.7919
▁penetrat	-11.7919
▁possess	-11.7919
▁protocol	-11.7919
▁substitut	-11.7919
▁translator	-11.7919
▁prince	-11.7919
▁proqram	-11.7919
▁redefine	-11.7919
▁juice	-11.792
▁blob	-11.792
▁remix	-11.792
▁analytic	-11.792
▁congesti	-11.792
▁stunn	-11.792
▁multiply	-11.792
▁priest	-11.792
▁bacar	-11.792
▁nightmare	-11.792
eopard	-11.792
▁criteri	-11.792
▁olmayan	-11.792
▁görünür	-11.792
▁doodl	-11.792
▁myceli	-11.792
▁flesh	-11.7921
▁prospect	-11.7922
▁arrangement	-11.7922
▁girlfriend	-11.7922
▁ətrafında	-11.7923
▁modest	-11.7926
▁Kong	-11.7926
▁öl	-11.7927
▁insert	-11.7928
▁idiot	-11.7929
▁prior	-11.7929
▁elmi	-11.7932
▁tapir	-11.7932
iful	-11.7935
▁coverage	-11.7937
▁assure	-11.7953
frontal	-11.7954
lvani	-11.7973
mankind	-11.7973
13	-11.7988
▁storyteller	-11.7991
▁mum	-11.7999
▁cosmolog	-11.8004
▁pun	-11.8017
▁resilien	-11.8056
solv	-11.8057
symmetrical	-11.8062
▁triple	-11.8066
▁Post	-11.8089
ennis	-11.81
▁Scot	-11.8104
▁happie	-11.8118
ipping	-11.8133
ərkə	-11.8148
▁synthesi	-11.8167
urricane	-11.8169
▁Bhutan	-11.8169
▁Indonesia	-11.8169
▁acoustic	-11.8169
▁circular	-11.8169
▁friction	-11.8169
▁modifi	-11.8169
▁məşğul	-11.8169
▁nitrogen	-11.8169
▁empire	-11.8169
▁qüvvə	-11.8169
▁rəqəm	-11.8169
▁Jordan	-11.8169
▁axtar	-11.8169
▁settlement	-11.8169
▁Librar	-11.817
▁Watch	-11.817
▁Thai	-11.817
▁vivid	-11.817
▁Libya	-11.817
▁faint	-11.817
▁defining	-11.817
▁açıq	-11.817
▁titan	-11.817
▁digitiz	-11.817
▁strict	-11.817
▁kingdom	-11.817
▁diverge	-11.817
▁bağlı	-11.817
▁trustworth	-11.817
▁Iceland	-11.8171
▁pipeline	-11.8171
▁ventilat	-11.8171
▁exposure	-11.8171
▁generic	-11.8171
▁1930	-11.8172
▁dropping	-11.8172
▁annoy	-11.8172
▁scrap	-11.8172
▁valve	-11.8173
▁connectome	-11.8173
▁1998	-11.8174
▁96	-11.8175
▁separation	-11.8175
▁selective	-11.8175
▁odor	-11.8176
▁Fund	-11.8181
▁Laden	-11.8182
▁alert	-11.8183
▁penis	-11.8186
▁sake	-11.8187
▁exot	-11.8189
▁irre	-11.8189
urgenc	-11.8193
▁şəkillər	-11.8194
▁basement	-11.8195
▁Nata	-11.8197
▁belt	-11.8197
▁wow	-11.82
lapse	-11.8202
▁reactor	-11.8204
▁CR	-11.8206
▁Happ	-11.8206
▁Berk	-11.8208
▁jur	-11.8221
ımızı	-11.8247
tez	-11.8274
apped	-11.8278
▁Add	-11.828
▁Edi	-11.8284
▁SL	-11.8287
▁neo	-11.8295
▁ulduzlar	-11.834
order	-11.8343
▁göz	-11.8354
▁swo	-11.8365
▁classical	-11.8372
▁revolutionar	-11.8379
▁edəcək	-11.8411
▁Map	-11.8418
▁hissəsi	-11.842
▁arrange	-11.8424
▁explicit	-11.8426
▁Clinton	-11.8426
▁RNA	-11.8426
▁Suppose	-11.8426
▁Tunisia	-11.8426
▁consensus	-11.8426
▁constitution	-11.8426
▁disgust	-11.8426
▁endeavor	-11.8426
▁favela	-11.8426
▁genomic	-11.8426
▁harbor	-11.8426
▁illuminat	-11.8426
▁incarcerat	-11.8426
▁locomot	-11.8426
▁persuade	-11.8426
▁polite	-11.8426
▁reclaim	-11.8426
▁squeeze	-11.8426
▁unfair	-11.8426
▁vocabular	-11.8426
▁vocal	-11.8426
▁yaradıcı	-11.8426
▁spiral	-11.8426
▁retail	-11.8426
▁sauce	-11.8426
▁Gör	-11.8426
▁Tibet	-11.8426
▁temple	-11.8426
▁nasty	-11.8426
▁mosque	-11.8426
▁Business	-11.8426
▁stagger	-11.8426
▁beetle	-11.8426
▁şəkli	-11.8427
▁lazımdır	-11.8427
▁Norden	-11.8427
▁cheer	-11.8428
▁toxin	-11.843
▁Light	-11.843
▁Grow	-11.8431
▁legend	-11.8431
▁spare	-11.8432
▁Financ	-11.8433
▁negotiation	-11.8436
▁hint	-11.8438
▁Santa	-11.8439
▁isolation	-11.844
▁whip	-11.8441
▁poke	-11.8448
▁PC	-11.845
▁Rand	-11.8456
▁armor	-11.8459
▁Earl	-11.8467
angelo	-11.8467
▁fuse	-11.8473
itcoin	-11.8474
▁istədi	-11.8475
▁pric	-11.8489
type	-11.8503
▁Mean	-11.8504
▁Opera	-11.8506
▁graduat	-11.8541
rhythm	-11.8553
proof	-11.8553
bound	-11.8553
field	-11.8554
▁slipp	-11.8555
▁flipp	-11.8569
wandering	-11.8592
Col	-11.8593
▁Mala	-11.8606
▁constrain	-11.8624
▁yerdə	-11.8629
▁vu	-11.8667
▁drama	-11.8684
▁Wolf	-11.8689
▁Catholic	-11.8689
▁DVD	-11.8689
▁Education	-11.8689
▁Elizabeth	-11.8689
▁Government	-11.8689
▁Jupiter	-11.8689
▁Mumbai	-11.8689
▁Təşəkkür	-11.8689
▁counsel	-11.8689
▁düşünür	-11.8689
▁ehtimal	-11.8689
▁elaborate	-11.8689
▁entrance	-11.8689
▁evaporat	-11.8689
▁exaggerat	-11.8689
▁impulse	-11.8689
▁petition	-11.8689
▁prostitut	-11.8689
▁purple	-11.8689
▁schedule	-11.8689
▁turtle	-11.8689
▁təxmin	-11.8689
▁velocit	-11.8689
▁Craig	-11.8689
▁holiday	-11.8689
▁Commun	-11.8689
▁surgical	-11.8689
▁captain	-11.8689
▁helmet	-11.8689
▁Everest	-11.8689
▁premise	-11.8689
▁funeral	-11.8689
▁Nepal	-11.8689
▁couch	-11.8689
▁spouse	-11.8689
▁Garden	-11.869
▁angel	-11.869
▁əhəmiyyətli	-11.869
▁abundant	-11.869
▁sənə	-11.869
▁admitted	-11.8691
▁blueprint	-11.8691
▁foi	-11.8691
▁etdiyimiz	-11.8692
▁Johnny	-11.8692
▁courageous	-11.8693
▁Probab	-11.8693
▁tamam	-11.8693
▁oyun	-11.8694
▁costume	-11.8694
▁otur	-11.8694
closure	-11.8695
▁therapist	-11.8697
▁Milk	-11.8699
▁distinction	-11.8701
▁edirlər	-11.8701
▁separat	-11.8702
▁thus	-11.8704
▁crude	-11.8704
vril	-11.8705
▁greet	-11.8707
▁Bern	-11.8714
Bay	-11.8717
pago	-11.8721
corn	-11.8723
incidence	-11.8741
▁Cost	-11.8784
▁göstərir	-11.8793
▁prim	-11.8808
securit	-11.8824
month	-11.8825
▁disabilit	-11.8853
▁identit	-11.8854
▁atmospher	-11.8907
▁Sub	-11.8918
▁Atlant	-11.8957
▁Computer	-11.8959
▁Development	-11.8959
▁Kepler	-11.8959
▁anniversar	-11.8959
▁correlation	-11.8959
▁deficit	-11.8959
▁diarrhea	-11.8959
▁dərəcə	-11.8959
▁innovator	-11.8959
▁intimacy	-11.8959
▁irrational	-11.8959
▁janitor	-11.8959
▁müəyyən	-11.8959
▁optimize	-11.8959
▁resurrect	-11.8959
▁revelation	-11.8959
▁soccer	-11.8959
▁summarize	-11.8959
▁təsəvvür	-11.8959
▁öyrənmə	-11.8959
▁1.2	-11.8959
▁şəxs	-11.8959
▁fuzz	-11.8959
▁gluco	-11.8959
▁swarm	-11.8959
▁Civil	-11.8959
▁conquer	-11.8959
▁stereotype	-11.8959
▁Benjam	-11.8959
▁ingilis	-11.896
▁Portug	-11.896
▁rigid	-11.896
▁bağ	-11.896
▁lethal	-11.8961
▁victor	-11.8962
▁Nike	-11.8962
▁Robot	-11.8965
▁microbi	-11.8966
▁Sudan	-11.8968
▁fleet	-11.897
▁Mexican	-11.8973
▁MR	-11.8976
▁decent	-11.8976
▁yeast	-11.8978
▁DR	-11.8978
▁uzaq	-11.8979
oyunca	-11.8981
▁etməli	-11.8988
özüm	-11.8988
▁qala	-11.8993
▁doom	-11.9006
conserv	-11.9019
iller	-11.9034
AL	-11.9049
▁entitle	-11.9049
12	-11.9088
style	-11.9097
18	-11.9097
profit	-11.9101
adlı	-11.9101
controll	-11.9103
▁mytholog	-11.9105
▁etmiş	-11.9106
▁Nai	-11.911
change	-11.9129
▁snap	-11.9136
▁symbolic	-11.9147
▁journalis	-11.9156
▁microscop	-11.9175
▁Dah	-11.9175
▁sözlər	-11.9204
GM	-11.9208
▁convention	-11.921
▁31	-11.922
▁mümkün	-11.9229
▁transit	-11.9233
▁müəlli	-11.9236
▁depriv	-11.9237
▁commut	-11.9237
▁epiphan	-11.9237
▁fractal	-11.9237
▁guitar	-11.9237
▁institute	-11.9237
▁jungle	-11.9237
▁mammoth	-11.9237
▁pesticide	-11.9237
▁reproduction	-11.9237
▁spatial	-11.9237
▁sulfide	-11.9237
▁underestimate	-11.9237
▁Consider	-11.9237
▁Machine	-11.9237
▁Office	-11.9237
▁Somalia	-11.9237
▁Uncle	-11.9237
▁competitor	-11.9237
▁niece	-11.9237
openha	-11.9237
▁sweep	-11.9237
▁shatter	-11.9237
▁Interesting	-11.9237
▁harsh	-11.9237
▁trunk	-11.9237
▁extensive	-11.9237
▁görünüş	-11.9237
qualifie	-11.9238
▁minimal	-11.9238
▁Emma	-11.9238
▁ifadə	-11.9238
▁scholarship	-11.9238
▁Edward	-11.9239
▁preced	-11.9239
▁McC	-11.924
▁manifestation	-11.9241
▁elevator	-11.9247
tolerant	-11.9248
▁dune	-11.9253
skirt	-11.9272
▁Citi	-11.9317
imizdə	-11.9353
effective	-11.9388
culture	-11.9391
LP	-11.9406
▁Nu	-11.9423
▁burda	-11.9435
▁plea	-11.9461
▁Pete	-11.9501
▁Republic	-11.9519
▁Alaska	-11.9523
▁Austria	-11.9523
▁Columbia	-11.9523
▁Natural	-11.9523
▁Sylvi	-11.9523
▁accompani	-11.9523
▁adolescent	-11.9523
▁cholera	-11.9523
▁contemplat	-11.9523
▁enlighten	-11.9523
▁expense	-11.9523
▁fracture	-11.9523
▁frustrating	-11.9523
▁incomplete	-11.9523
▁intrinsic	-11.9523
▁metabolic	-11.9523
▁məqsəd	-11.9523
▁neglect	-11.9523
▁obsole	-11.9523
▁sediment	-11.9523
▁sovereign	-11.9523
▁sympath	-11.9523
▁Journal	-11.9523
▁capsule	-11.9523
▁dörd	-11.9523
▁famine	-11.9523
▁invitation	-11.9523
▁stadium	-11.9523
▁taboo	-11.9523
▁virgin	-11.9523
▁Siberia	-11.9523
▁cardiac	-11.9523
▁opposition	-11.9523
▁əsər	-11.9523
▁Change	-11.9523
▁fetus	-11.9523
invasive	-11.9523
▁daxil	-11.9523
▁guest	-11.9523
▁authoritarian	-11.9523
fensive	-11.9523
▁təmin	-11.9524
▁enrich	-11.9524
▁confess	-11.9524
▁1,500	-11.9525
▁brake	-11.9525
▁Warren	-11.9525
▁melod	-11.9525
▁spike	-11.9528
▁Recent	-11.9528
▁görmək	-11.9528
▁yəni	-11.9529
▁43	-11.953
▁98	-11.953
▁JF	-11.953
▁cooperative	-11.9531
▁25,000	-11.9532
▁silicon	-11.9533
▁tactic	-11.9533
▁larva	-11.9534
▁Case	-11.9534
▁Step	-11.9535
▁replacement	-11.9536
▁kənd	-11.9544
▁skeptical	-11.9546
▁Milo	-11.9553
▁zoo	-11.9554
kinci	-11.9556
▁Senat	-11.9573
plat	-11.9606
▁ulduz	-11.9619
▁demonstrat	-11.9628
rude	-11.9641
Tech	-11.9645
traumatic	-11.9667
million	-11.9682
spread	-11.9682
built	-11.9683
▁thriv	-11.9709
speak	-11.971
▁relativ	-11.9718
▁Bunlar	-11.9728
elect	-11.975
▁significan	-11.9752
▁prototyp	-11.9757
▁pursu	-11.9778
LA	-11.979
▁böyü	-11.9813
▁hypothes	-11.9815
▁perpetu	-11.9817
taircase	-11.9817
▁Buddhis	-11.9817
▁Climate	-11.9817
▁FDA	-11.9817
▁Hospital	-11.9817
▁Namibia	-11.9817
▁Scientist	-11.9817
▁Shakespeare	-11.9817
▁absurd	-11.9817
▁adolescence	-11.9817
▁dopamine	-11.9817
▁envision	-11.9817
▁eternal	-11.9817
▁exquisite	-11.9817
▁idarə	-11.9817
▁maneuver	-11.9817
▁occupation	-11.9817
▁rehabilitati	-11.9817
▁specimen	-11.9817
▁submersible	-11.9817
▁suspicious	-11.9817
▁təcrübə	-11.9817
▁unleash	-11.9817
▁misunderst	-11.9817
▁vegetati	-11.9817
▁Liberia	-11.9817
▁doubling	-11.9817
▁slogan	-11.9817
▁Kosov	-11.9817
▁pleasant	-11.9817
▁izah	-11.9817
▁leopard	-11.9817
▁algae	-11.9817
▁squid	-11.9817
▁outdoor	-11.9817
▁helium	-11.9817
▁Hawk	-11.9817
▁oyster	-11.9817
▁cafe	-11.9817
▁headache	-11.9817
▁nonprofit	-11.9818
▁oyna	-11.9818
▁macro	-11.9818
▁bilirik	-11.9819
▁meditat	-11.982
fidel	-11.9821
▁towel	-11.9821
▁duty	-11.9821
▁keen	-11.9822
▁divine	-11.9822
▁əsr	-11.9823
▁textile	-11.9823
kyo	-11.9824
▁flap	-11.9825
▁Down	-11.9825
▁celebration	-11.9826
stein	-11.983
▁pave	-11.983
▁Carne	-11.9832
ğımız	-11.984
bundan	-11.9841
▁özümüz	-11.9856
▁moralit	-11.986
▁Late	-11.9871
▁Maria	-11.9871
▁gəz	-11.9914
▁özünü	-11.9953
elphi	-11.9974
course	-11.9985
shift	-11.9986
grand	-11.9986
100	-12.0037
▁skeptic	-12.0096
▁pollut	-12.0116
igital	-12.0119
▁comprehensi	-12.012
vascular	-12.012
▁Beatbox	-12.012
▁Christopher	-12.012
▁Linux	-12.012
▁Mathematic	-12.012
▁Medicine	-12.012
▁Phoenix	-12.012
▁Saturday	-12.012
▁Yellow	-12.012
▁apologize	-12.012
▁aşağı	-12.012
▁calendar	-12.012
▁cockroach	-12.012
▁corridor	-12.012
▁ghost	-12.012
▁imperfect	-12.012
▁lawsuit	-12.012
▁metabolism	-12.012
▁monument	-12.012
▁müxtəlif	-12.012
▁peripher	-12.012
▁stratospher	-12.012
▁triumph	-12.012
▁öyrəndi	-12.012
▁hollow	-12.012
▁Hindu	-12.012
▁postcard	-12.012
▁propagand	-12.012
▁dismiss	-12.012
▁fingertip	-12.012
valuation	-12.012
▁Clear	-12.012
▁Leban	-12.012
▁feather	-12.012
▁dispers	-12.012
▁collar	-12.012
▁Cancer	-12.0121
▁carrot	-12.0121
▁geological	-12.0121
▁rust	-12.0121
▁Nathan	-12.0121
venge	-12.0121
▁cabinet	-12.0121
▁swamp	-12.0122
▁anthropologist	-12.0122
▁edilə	-12.0122
▁hostile	-12.0123
ED	-12.0123
▁prevalence	-12.0123
▁gigant	-12.0124
▁spade	-12.0125
▁8,000	-12.0127
ördüyünüz	-12.0127
▁etməyi	-12.0154
▁cue	-12.0175
▁asthma	-12.0182
▁overlap	-12.0191
▁hekayələr	-12.0191
▁başlaya	-12.0192
▁Arabia	-12.0227
▁nəyi	-12.0271
position	-12.0277
▁speculati	-12.0281
▁ehtiyac	-12.0284
▁vasitə	-12.0295
broad	-12.0297
glass	-12.0297
reedom	-12.0298
▁olmağı	-12.0308
▁bunları	-12.0323
▁Rica	-12.0334
sourc	-12.0373
▁eliminat	-12.0383
▁edirdi	-12.0385
▁reasonabl	-12.0396
▁volcan	-12.0428
▁tələb	-12.0432
▁Bibliya	-12.0432
▁Patient	-12.0432
▁blockchain	-12.0432
▁confusion	-12.0432
▁elbow	-12.0432
▁embodie	-12.0432
▁hobby	-12.0432
▁hypothetical	-12.0432
▁imperative	-12.0432
▁obligation	-12.0432
▁perceptual	-12.0432
▁praise	-12.0432
▁qlobal	-12.0432
▁qısa	-12.0432
▁romance	-12.0432
▁satisfie	-12.0432
▁syringe	-12.0432
▁vagina	-12.0432
▁voyage	-12.0432
▁öncə	-12.0432
▁1.3	-12.0432
▁Daniel	-12.0432
▁benign	-12.0432
▁görürsünüz	-12.0432
▁istiqamət	-12.0432
▁yaratmaq	-12.0432
▁butterfl	-12.0432
▁gallon	-12.0433
▁gross	-12.0433
▁steep	-12.0433
▁bombsight	-12.0433
▁ölüm	-12.0433
▁bonus	-12.0433
▁Learn	-12.0433
▁mustache	-12.0433
▁Bosnia	-12.0433
▁bypass	-12.0433
▁racial	-12.0433
▁Large	-12.0433
▁səth	-12.0433
▁terminal	-12.0434
▁acute	-12.0435
▁flush	-12.0435
▁səbəbdən	-12.0436
▁yüz	-12.0436
▁Under	-12.0436
▁lump	-12.0437
▁Jones	-12.0437
▁shade	-12.0437
▁cease	-12.0438
▁grape	-12.0439
▁46	-12.044
▁captiv	-12.044
▁flock	-12.0441
▁Lago	-12.0441
▁elementary	-12.0442
▁52	-12.0443
ulosi	-12.0471
▁patholog	-12.0499
verbal	-12.05
▁hatch	-12.0507
▁ruh	-12.0535
▁declin	-12.0538
liberation	-12.055
ounce	-12.0588
front	-12.0612
▁explod	-12.0616
worm	-12.062
▁similarit	-12.062
walk	-12.062
percent	-12.0623
▁robb	-12.0627
▁erase	-12.0633
inizi	-12.0671
▁folk	-12.0682
▁plac	-12.0698
▁characterize	-12.0714
▁polariz	-12.0722
▁millenni	-12.0724
▁bilmirdi	-12.0727
▁2,	-12.073
▁regenerati	-12.0731
pple	-12.0752
▁controvers	-12.0754
▁Similar	-12.0755
▁Architect	-12.0755
▁affirm	-12.0755
▁rhino	-12.0755
▁Jamaica	-12.0755
▁Michigan	-12.0755
▁Public	-12.0755
▁ambulance	-12.0755
▁cocktail	-12.0755
▁commoditi	-12.0755
▁defect	-12.0755
▁dispute	-12.0755
▁ethanol	-12.0755
▁fluorescent	-12.0755
▁hamburger	-12.0755
▁irrelevan	-12.0755
▁qəribə	-12.0755
▁rectangle	-12.0755
▁surrender	-12.0755
▁vəziyyət	-12.0755
▁Wonder	-12.0755
▁fraud	-12.0755
▁southwest	-12.0755
▁violin	-12.0755
▁crank	-12.0755
▁flexibilit	-12.0755
▁inhibit	-12.0755
▁Alpha	-12.0755
▁ancestr	-12.0755
▁statue	-12.0755
▁boost	-12.0755
▁ALS	-12.0755
▁Louis	-12.0755
▁Movement	-12.0755
▁vanish	-12.0755
▁slope	-12.0755
▁Small	-12.0755
▁immerse	-12.0755
▁cream	-12.0755
▁juggl	-12.0755
▁escalat	-12.0755
▁güclü	-12.0755
▁qoyu	-12.0755
▁watt	-12.0756
▁flame	-12.0756
▁Tower	-12.0756
▁biləcək	-12.0756
▁gamma	-12.0757
▁erupt	-12.0757
▁virtu	-12.0757
▁Chuck	-12.0757
▁Ground	-12.0759
▁64	-12.0761
▁wool	-12.0761
▁Audi	-12.0761
litary	-12.0762
▁prosecutor	-12.0766
▁Data	-12.0768
hhh	-12.0769
▁ideological	-12.0771
▁əldə	-12.0774
▁indicator	-12.0783
▁unifie	-12.0793
arriage	-12.0816
▁hadisə	-12.0836
▁ölçülər	-12.0836
tuned	-12.0861
alai	-12.0862
▁certifi	-12.0887
▁unsee	-12.0892
▁vasitəsi	-12.0899
colonial	-12.0902
▁northeast	-12.0906
landı	-12.0911
minded	-12.0936
conduct	-12.0953
▁rob	-12.0961
sanız	-12.0964
▁Nav	-12.0989
▁digg	-12.1009
ılmış	-12.1022
plex	-12.1032
▁embryo	-12.1088
▁təhlükə	-12.1088
▁Oklahoma	-12.1088
▁alphabet	-12.1088
▁cybercriminal	-12.1088
▁cylinder	-12.1088
▁disadvantage	-12.1088
▁equilibr	-12.1088
▁guerrilla	-12.1088
▁iPad	-12.1088
▁maximize	-12.1088
▁mutilat	-12.1088
▁məhsul	-12.1088
▁shepherd	-12.1088
▁yüksək	-12.1088
▁həşərat	-12.1088
▁puppet	-12.1088
▁province	-12.1088
▁thrust	-12.1088
▁checklist	-12.1088
▁psyche	-12.1088
▁logistic	-12.1088
▁Connect	-12.1088
▁coheren	-12.1088
▁flick	-12.1089
▁snapshot	-12.1089
▁Ministr	-12.1089
▁intervene	-12.1089
▁Societ	-12.1089
▁irəli	-12.1089
▁prophet	-12.1089
▁niyə	-12.1089
plasma	-12.1089
▁masterpiece	-12.1089
▁supercomputer	-12.1089
▁Thirty	-12.1089
▁correlate	-12.1089
▁Help	-12.1089
▁headquarter	-12.1089
centric	-12.1089
▁resemble	-12.1089
▁parameter	-12.109
▁portray	-12.109
▁Risen	-12.109
▁pollutant	-12.109
▁glove	-12.109
▁hammer	-12.109
▁devise	-12.109
▁düşündü	-12.1091
▁Jean	-12.1092
aluza	-12.1092
▁grim	-12.1093
▁cement	-12.1093
▁beef	-12.1094
▁gaze	-12.1094
▁Nazi	-12.1094
▁fame	-12.1094
▁shelve	-12.1098
▁Sonra	-12.1114
,200	-12.1118
▁transformati	-12.113
App	-12.1185
bacterial	-12.1195
▁edildi	-12.1197
▁Vinc	-12.1199
shel	-12.121
▁antibod	-12.1211
dental	-12.1227
iyyat	-12.1229
▁slip	-12.1263
▁əsl	-12.1274
craft	-12.1294
sustainabl	-12.1296
resolution	-12.1297
AP	-12.1298
condition	-12.1299
plus	-12.1308
wash	-12.1312
▁responsibilit	-12.1328
uddin	-12.1347
▁inanır	-12.1379
genesis	-12.1395
▁socio	-12.1406
▁hung	-12.1416
clusion	-12.1432
arliament	-12.1432
▁Certain	-12.1433
▁DARPA	-12.1433
▁Environment	-12.1433
▁Himalaya	-12.1433
▁calculating	-12.1433
▁catastrophe	-12.1433
▁cerebr	-12.1433
▁convincing	-12.1433
▁evaluate	-12.1433
▁multinational	-12.1433
▁recession	-12.1433
▁reproductive	-12.1433
▁respirator	-12.1433
▁scatter	-12.1433
▁visceral	-12.1433
▁fierce	-12.1433
▁telefon	-12.1433
▁worship	-12.1433
malıyıq	-12.1433
▁qolf	-12.1433
▁stabilize	-12.1433
▁grammar	-12.1433
▁zəng	-12.1433
▁gadget	-12.1433
▁Modern	-12.1433
▁intricate	-12.1433
▁incəsənət	-12.1433
▁minimize	-12.1433
▁choir	-12.1433
▁istərdi	-12.1433
▁retain	-12.1433
▁miniatur	-12.1433
▁appoint	-12.1433
▁lamb	-12.1434
▁dəyər	-12.1434
▁audaci	-12.1434
▁radar	-12.1434
▁adlandır	-12.1434
▁cinema	-12.1434
▁Fried	-12.1434
▁billboard	-12.1435
▁singular	-12.1435
▁ladder	-12.1435
▁guideline	-12.1436
▁superpower	-12.1436
▁bolt	-12.1436
▁laboratori	-12.1436
▁mixture	-12.1436
▁beneficia	-12.1437
▁1989	-12.1438
▁Walter	-12.1438
▁urgent	-12.1439
▁əməl	-12.1446
▁atheist	-12.1453
amma	-12.1461
▁dünyanı	-12.1473
▁philosophical	-12.1476
▁görmə	-12.1497
fact	-12.151
▁istədiyim	-12.1539
AG	-12.1558
edici	-12.1559
▁interdependen	-12.1562
▁lak	-12.1588
▁Bruc	-12.164
structure	-12.1655
process	-12.1656
Aid	-12.1686
▁yaxınlaş	-12.1705
▁chick	-12.1786
▁differ	-12.1789
▁repetiti	-12.179
▁subsequent	-12.179
▁Arizona	-12.179
▁CRISPR	-12.179
▁Skype	-12.179
▁Venezuela	-12.179
▁Whitopia	-12.179
▁arbitrar	-12.179
▁bloom	-12.179
▁chemotherap	-12.179
▁communis	-12.179
▁elektro	-12.179
▁exhilarat	-12.179
▁graffiti	-12.179
▁introvert	-12.179
▁iynəcə	-12.179
▁kifayət	-12.179
▁nanotechnolog	-12.179
▁obscure	-12.179
▁prevail	-12.179
▁quruluş	-12.179
▁certificate	-12.179
▁fəaliyyət	-12.179
▁müşahidə	-12.179
▁nümunə	-12.179
▁təbiət	-12.179
▁xoş	-12.179
▁xəritə	-12.179
▁anlayış	-12.179
▁brainstorm	-12.179
▁contagio	-12.179
▁deplet	-12.179
▁modification	-12.179
▁sensitivit	-12.179
▁smash	-12.179
▁razı	-12.179
▁smuggl	-12.179
▁modify	-12.179
▁anxious	-12.179
▁oğlan	-12.179
▁tuberc	-12.179
▁chaotic	-12.179
▁dentist	-12.179
▁album	-12.1791
▁neurogenesis	-12.1791
▁neocort	-12.1791
▁gətirə	-12.1791
▁pancrea	-12.1791
▁gələcək	-12.1791
▁scroll	-12.1791
▁Hmm	-12.1792
▁Margar	-12.1792
▁recreate	-12.1793
▁timing	-12.1794
▁mash	-12.1794
▁okean	-12.1794
▁reassur	-12.1794
▁tilt	-12.1795
▁measl	-12.1815
▁dərin	-12.1832
▁sexualit	-12.1839
banish	-12.1871
▁swap	-12.1876
▁collaborat	-12.1972
plain	-12.2024
▁axı	-12.2032
▁autist	-12.2068
▁acknowledg	-12.2078
orbital	-12.2083
AV	-12.2138
sembl	-12.215
▁autonom	-12.2159
▁stereo	-12.2161
utheast	-12.2161
▁Copernic	-12.2161
▁Məsələn	-12.2161
▁Pittsburg	-12.2161
▁anesthesi	-12.2161
▁bölgə	-12.2161
▁bənzər	-12.2161
▁compliment	-12.2161
▁crocodile	-12.2161
▁cultivate	-12.2161
▁cənub	-12.2161
▁decentraliz	-12.2161
▁devastate	-12.2161
▁disparit	-12.2161
▁execution	-12.2161
▁lesbian	-12.2161
▁marathon	-12.2161
▁marshmallow	-12.2161
▁plague	-12.2161
▁prejudice	-12.2161
▁savanna	-12.2161
▁shield	-12.2161
▁surplus	-12.2161
▁technician	-12.2161
▁undergraduate	-12.2161
▁unnecessar	-12.2161
▁yağış	-12.2161
▁Georgia	-12.2161
▁abnormal	-12.2161
▁assault	-12.2161
▁conspirac	-12.2161
▁dizayn	-12.2161
▁fotoşəkil	-12.2161
▁genital	-12.2161
▁neurological	-12.2161
▁parçacıq	-12.2161
▁riyaziyyat	-12.2161
▁secular	-12.2161
▁grind	-12.2161
▁qanun	-12.2161
▁essay	-12.2161
▁həqiq	-12.2161
▁regain	-12.2161
▁classmate	-12.2161
▁gülüş	-12.2161
▁resonate	-12.2161
▁haunt	-12.2161
▁plumb	-12.2161
▁rival	-12.2161
▁boson	-12.2161
▁lesion	-12.2161
▁biosphere	-12.2161
▁Mahat	-12.2161
▁humiliat	-12.2161
▁Secretary	-12.2161
▁Monday	-12.2161
▁polymer	-12.2162
▁dissolve	-12.2162
▁qat	-12.2162
▁parliament	-12.2162
▁göstərmək	-12.2162
▁müəllimlər	-12.2162
çini	-12.2164
▁improvise	-12.2165
▁sürətlə	-12.2167
▁fibr	-12.2167
▁permit	-12.2171
▁Intel	-12.2184
ctopus	-12.2186
▁restorati	-12.2199
▁calv	-12.2291
iyor	-12.2293
▁Hubb	-12.2328
▁Swee	-12.2332
▁üzərin	-12.239
ficial	-12.2394
positive	-12.241
government	-12.241
group	-12.241
sleep	-12.2414
uestion	-12.2468
▁pharmac	-12.2502
ibati	-12.2524
▁estimat	-12.2533
▁advoca	-12.2538
cientific	-12.2541
criminat	-12.2541
▁Know	-12.2544
▁symbio	-12.2545
disciplinar	-12.2545
▁Amsterdam	-12.2545
▁Cambodia	-12.2545
▁Explor	-12.2545
▁Magazine	-12.2545
▁Russell	-12.2545
▁Service	-12.2545
▁Ultimate	-12.2545
▁Ushahidi	-12.2545
▁caregiver	-12.2545
▁cathedral	-12.2545
▁cognition	-12.2545
▁condemn	-12.2545
▁diminish	-12.2545
▁embark	-12.2545
▁extrovert	-12.2545
▁jealous	-12.2545
▁mammograph	-12.2545
▁meadow	-12.2545
▁millisecond	-12.2545
▁prohibit	-12.2545
▁puncture	-12.2545
▁reconnect	-12.2545
▁salmon	-12.2545
▁sermon	-12.2545
▁submarine	-12.2545
▁susceptib	-12.2545
▁treasure	-12.2545
▁təyyarə	-12.2545
▁unacceptabl	-12.2545
▁unimaginabl	-12.2545
▁uçuş	-12.2545
▁wavelength	-12.2545
▁Colombia	-12.2545
▁archaeolog	-12.2545
▁intimidat	-12.2545
▁Ninety	-12.2545
▁monk	-12.2545
▁testimon	-12.2545
▁Falcon	-12.2545
▁curtain	-12.2545
▁məsafə	-12.2545
▁sentiment	-12.2545
▁confusing	-12.2545
▁ignit	-12.2545
▁həftə	-12.2545
▁wreck	-12.2546
▁tutor	-12.2546
▁qoru	-12.2546
▁strive	-12.2546
▁enslav	-12.2546
▁waist	-12.2546
▁Radio	-12.2546
▁xət	-12.2546
▁calci	-12.2546
bladder	-12.2546
▁eager	-12.2546
▁quantitative	-12.2546
▁dissect	-12.2546
▁RIS	-12.2546
▁pension	-12.2547
▁consent	-12.2547
abbage	-12.2548
▁Fire	-12.2549
▁Klei	-12.2555
▁alternat	-12.256
▁Emil	-12.2594
nsanlar	-12.2595
▁Merc	-12.2616
ithium	-12.2723
diagnose	-12.2799
▁surge	-12.2806
piece	-12.281
Africa	-12.281
massive	-12.281
educat	-12.2845
▁dəyişmə	-12.2866
▁sneak	-12.2878
▁compass	-12.294
▁anthropolog	-12.2943
▁cabin	-12.2944
▁emphasi	-12.2944
▁advent	-12.2945
▁temperat	-12.2945
▁Exact	-12.2945
▁Buddha	-12.2945
▁CMU	-12.2945
▁Economic	-12.2945
▁Hundred	-12.2945
▁Oregon	-12.2945
▁Pantheon	-12.2945
▁Student	-12.2945
▁araşdırma	-12.2945
▁biotechnolog	-12.2945
▁destructive	-12.2945
▁dwarf	-12.2945
▁epilep	-12.2945
▁excerpt	-12.2945
▁exclude	-12.2945
▁existential	-12.2945
▁filament	-12.2945
▁immunit	-12.2945
▁istəyirdi	-12.2945
▁içəri	-12.2945
▁mammogram	-12.2945
▁migrant	-12.2945
▁mortgage	-12.2945
▁nanoparticle	-12.2945
▁occupie	-12.2945
▁orangutan	-12.2945
▁persuasi	-12.2945
▁thorough	-12.2945
▁unpredictabl	-12.2945
▁vulture	-12.2945
▁Jacque	-12.2945
▁kasıb	-12.2945
▁laundr	-12.2945
▁olduğumuz	-12.2945
▁CIA	-12.2945
▁complication	-12.2945
▁delicate	-12.2945
▁microwave	-12.2945
▁gətiri	-12.2945
▁invasion	-12.2945
▁advertisement	-12.2945
▁vapor	-12.2945
▁Click	-12.2945
▁Serious	-12.2945
▁superior	-12.2945
▁glory	-12.2945
▁ozone	-12.2945
evident	-12.2945
▁nuance	-12.2945
▁feminin	-12.2945
▁Simon	-12.2946
▁timber	-12.2946
▁Father	-12.2946
▁aydın	-12.2946
▁Control	-12.2946
▁Forget	-12.2946
▁Stewar	-12.2946
▁düşünmə	-12.2946
▁battlefield	-12.2946
▁ingenu	-12.2946
▁Depressio	-12.2946
▁ruling	-12.2946
▁counterpart	-12.2946
▁matern	-12.2946
▁hatred	-12.2947
▁kənar	-12.2947
▁Type	-12.2948
nourish	-12.2948
▁Philippi	-12.2949
Gowan	-12.2949
advert	-12.2949
▁Auto	-12.2951
ermaid	-12.2953
▁öldü	-12.2958
nanometer	-12.299
▁customiz	-12.2997
▁peyk	-12.3006
Barack	-12.3135
sensitive	-12.3226
confiden	-12.3226
fashion	-12.3226
cultural	-12.3227
economic	-12.3227
communication	-12.3227
social	-12.3228
lcome	-12.3281
▁patien	-12.3297
▁strap	-12.3307
▁straw	-12.3343
▁prosecut	-12.3348
anyon	-12.335
nterviewer	-12.3359
▁narrat	-12.336
ngilis	-12.3362
▁choreograph	-12.3362
▁implicit	-12.3362
▁instantaneous	-12.3362
▁premature	-12.3362
ahedron	-12.3362
munition	-12.3362
▁2016	-12.3362
▁Empire	-12.3362
▁Montana	-12.3362
▁Pixar	-12.3362
▁Scratch	-12.3362
▁Window	-12.3362
▁abortion	-12.3362
▁accommodate	-12.3362
▁approval	-12.3362
▁beekeeper	-12.3362
▁cafeteria	-12.3362
▁catastrophic	-12.3362
▁circum	-12.3362
▁disseminat	-12.3362
▁energetic	-12.3362
▁glorious	-12.3362
▁hominid	-12.3362
▁immigration	-12.3362
▁improbab	-12.3362
▁jacket	-12.3362
▁metronome	-12.3362
▁migraine	-12.3362
▁müsahibə	-12.3362
▁nəzəriyyəsi	-12.3362
▁paragraph	-12.3362
▁pervasive	-12.3362
▁pheromone	-12.3362
▁relevanc	-12.3362
▁sleeve	-12.3362
▁sərhəd	-12.3362
▁taxpayer	-12.3362
▁template	-12.3362
▁throat	-12.3362
▁təsvir	-12.3362
▁hectare	-12.3362
▁resign	-12.3362
▁resonance	-12.3362
▁Cooper	-12.3362
▁Dallas	-12.3362
▁Electro	-12.3362
▁qeyd	-12.3362
▁redundan	-12.3362
▁resort	-12.3362
▁orientation	-12.3362
▁tərk	-12.3362
▁burax	-12.3362
▁Short	-12.3362
▁başlayır	-12.3362
▁otaq	-12.3362
▁burial	-12.3362
▁sync	-12.3363
▁Hyper	-12.3363
▁comprise	-12.3363
▁altında	-12.3363
▁ərz	-12.3363
▁Saint	-12.3363
▁saat	-12.3363
▁çəkdi	-12.3363
▁cynic	-12.3364
▁arzu	-12.3364
lbət	-12.3365
▁kidnappe	-12.3365
▁Balti	-12.3378
ibera	-12.3395
cəksiniz	-12.3397
▁Though	-12.3461
explored	-12.353
script	-12.3661
great	-12.3662
competent	-12.367
osphere	-12.3723
▁uncertain	-12.3731
▁activis	-12.3732
▁glide	-12.3782
▁refrigerat	-12.3786
sumabl	-12.3791
counterintuitive	-12.3797
▁Conservati	-12.3797
▁Current	-12.3797
▁Excuse	-12.3797
▁Günəş	-12.3797
▁Nanopatch	-12.3797
▁Picasso	-12.3797
▁Sputnik	-12.3797
▁Sydney	-12.3797
▁algebra	-12.3797
▁anecdote	-12.3797
▁biodegrad	-12.3797
▁catalyst	-12.3797
▁cochlea	-12.3797
▁commodity	-12.3797
▁doctrine	-12.3797
▁draft	-12.3797
▁dəyişiklik	-12.3797
▁excavat	-12.3797
▁inanılmaz	-12.3797
▁irregular	-12.3797
▁irrigat	-12.3797
▁juvenile	-12.3797
▁metropolitan	-12.3797
▁multitask	-12.3797
▁pediatric	-12.3797
▁responsive	-12.3797
▁sapien	-12.3797
▁satisfaction	-12.3797
▁spawn	-12.3797
▁sulfur	-12.3797
▁tectonic	-12.3797
▁təşəkkür	-12.3797
▁ultrasound	-12.3797
▁unequal	-12.3797
▁vitamin	-12.3797
▁şirkət	-12.3797
▁ədalət	-12.3797
gnostic	-12.3797
▁dictate	-12.3797
▁diqqət	-12.3797
▁equator	-12.3797
▁plunge	-12.3797
▁saniyə	-12.3797
▁thunder	-12.3797
▁asphalt	-12.3797
▁squeak	-12.3797
▁unthink	-12.3797
▁Defen	-12.3797
▁provision	-12.3797
▁Guinea	-12.3797
▁Major	-12.3797
▁collage	-12.3797
▁unaware	-12.3797
▁Desert	-12.3797
▁cheek	-12.3797
▁coworker	-12.3797
▁swirl	-12.3797
▁rəsm	-12.3797
▁Common	-12.3797
▁decode	-12.3797
▁deteriorat	-12.3797
▁propagat	-12.3797
▁Text	-12.3797
▁commerc	-12.3797
▁moderate	-12.3797
▁Həyat	-12.3797
▁offshor	-12.3799
▁hotte	-12.38
▁yaradıl	-12.3801
▁Normal	-12.3802
▁firefl	-12.3802
▁fikirləşi	-12.3802
▁delete	-12.3809
▁fundrais	-12.3974
lateral	-12.4001
nutrition	-12.4115
degree	-12.4116
parent	-12.4127
ippi	-12.4141
▁işığı	-12.4201
appy	-12.4213
▁Palestine	-12.4251
▁Ukrain	-12.4251
▁məşhur	-12.4251
retroviral	-12.4251
▁Armstrong	-12.4251
▁Everglade	-12.4251
▁Fantastic	-12.4251
▁Guardian	-12.4251
▁Taiwan	-12.4251
▁Tamiflu	-12.4251
▁Virtual	-12.4251
▁ambassador	-12.4251
▁apparatus	-12.4251
▁applaud	-12.4251
▁appliance	-12.4251
▁biofuel	-12.4251
▁cihaz	-12.4251
▁cümlə	-12.4251
▁empirical	-12.4251
▁grassroots	-12.4251
▁heartbreak	-12.4251
▁horrific	-12.4251
▁improvisation	-12.4251
▁inexpensive	-12.4251
▁interrogat	-12.4251
▁mutant	-12.4251
▁optimal	-12.4251
▁pivot	-12.4251
▁plaque	-12.4251
▁plutocra	-12.4251
▁pneumo	-12.4251
▁qorxu	-12.4251
▁qrup	-12.4251
▁recipient	-12.4251
▁rəqs	-12.4251
▁superhero	-12.4251
▁tribute	-12.4251
▁turbine	-12.4251
▁turbulen	-12.4251
▁çiçək	-12.4251
▁şəhər	-12.4251
▁Başqa	-12.4251
▁Group	-12.4251
▁Nigeriya	-12.4251
▁distress	-12.4251
▁intestine	-12.4251
▁rainbow	-12.4251
▁1.4	-12.4251
▁Spider	-12.4251
▁adjacen	-12.4251
▁lettuce	-12.4251
▁reckless	-12.4251
▁Shoot	-12.4251
▁announcement	-12.4251
▁Lanka	-12.4251
▁altruis	-12.4251
▁cereal	-12.4251
▁Martian	-12.4251
▁royal	-12.4251
▁recreation	-12.4251
▁zəif	-12.4251
▁Dream	-12.4252
▁söyl	-12.4252
▁tinker	-12.4252
▁warrant	-12.4252
▁anomal	-12.4252
▁Politic	-12.4252
▁regulator	-12.4252
frost	-12.4252
plausibl	-12.4252
▁qoyma	-12.4253
▁Teacher	-12.4253
▁Safe	-12.4253
▁immersi	-12.4254
▁Veg	-12.4256
▁tumbl	-12.426
▁Jenn	-12.4261
withstand	-12.4308
ovember	-12.4345
▁radioactiv	-12.4512
present	-12.4588
secure	-12.4592
different	-12.4592
▁capacit	-12.4622
▁astonish	-12.4633
.000	-12.4648
▁Francis	-12.4727
▁Millenni	-12.4727
▁Odysse	-12.4728
▁əyləncə	-12.4728
disproportionate	-12.4728
▁Cameron	-12.4728
▁Challenge	-12.4728
▁Darfur	-12.4728
▁Democracy	-12.4728
▁Lawrence	-12.4728
▁McDonald	-12.4728
▁Netflix	-12.4728
▁Perfect	-12.4728
▁PowerPoint	-12.4728
▁balaca	-12.4728
▁barbershop	-12.4728
▁başlanğıc	-12.4728
▁bonobo	-12.4728
▁bureaucrac	-12.4728
▁carcinogen	-12.4728
▁conscience	-12.4728
▁convenience	-12.4728
▁crochet	-12.4728
▁cəmiyyət	-12.4728
▁deflect	-12.4728
▁dövlət	-12.4728
▁extremist	-12.4728
▁gorilla	-12.4728
▁holistic	-12.4728
▁homosexual	-12.4728
▁hummingbird	-12.4728
▁hurdle	-12.4728
▁hörmət	-12.4728
▁identification	-12.4728
▁kindergarten	-12.4728
▁marijuana	-12.4728
▁monarch	-12.4728
▁mütləq	-12.4728
▁narahat	-12.4728
▁qaç	-12.4728
▁reflex	-12.4728
▁reprogram	-12.4728
▁rhetoric	-12.4728
▁servant	-12.4728
▁skyscraper	-12.4728
▁superconductor	-12.4728
▁səyahət	-12.4728
▁unfamiliar	-12.4728
▁unnatural	-12.4728
▁vegetarian	-12.4728
▁vicious	-12.4728
▁whistleblower	-12.4728
▁withdraw	-12.4728
▁knob	-12.4728
▁plume	-12.4728
▁queue	-12.4728
▁Friend	-12.4728
▁Murray	-12.4728
▁chord	-12.4728
▁asylum	-12.4728
▁headphone	-12.4728
replicating	-12.4728
▁brute	-12.4728
▁Soldier	-12.4728
▁juni	-12.4728
▁slamm	-12.4728
▁premier	-12.4728
▁summon	-12.4728
▁Discover	-12.4728
▁pornograph	-12.4728
▁Algeria	-12.4728
▁mundan	-12.4728
▁stagna	-12.4728
▁fakt	-12.4729
▁allocate	-12.473
fetch	-12.4731
▁delegat	-12.4731
▁Genom	-12.4732
▁Massac	-12.474
▁ideya	-12.475
▁işlədi	-12.4756
▁infuse	-12.4762
▁catalog	-12.4775
▁populat	-12.4788
▁slap	-12.4792
▁emulat	-12.4797
supervis	-12.4798
plication	-12.4863
vvəl	-12.4929
sanitary	-12.4947
▁balanc	-12.4956
▁için	-12.5084
credit	-12.5093
utilize	-12.5109
▁feminis	-12.5155
▁intellect	-12.5219
▁contradict	-12.5222
▁Enlighten	-12.5227
▁1908	-12.5228
▁Cloud	-12.5228
▁Convention	-12.5228
▁Essential	-12.5228
▁Evolution	-12.5228
▁LGBT	-12.5228
▁MBA	-12.5228
▁Orleans	-12.5228
▁Progress	-12.5228
▁calculator	-12.5228
▁carpenter	-12.5228
▁clitoris	-12.5228
▁deconstruct	-12.5228
▁discomfort	-12.5228
▁disparate	-12.5228
▁elastic	-12.5228
▁extremism	-12.5228
▁giraffe	-12.5228
▁homicide	-12.5228
▁ibarət	-12.5228
▁incubator	-12.5228
▁instructor	-12.5228
▁müasir	-12.5228
▁mübarizə	-12.5228
▁opponent	-12.5228
▁patriarch	-12.5228
▁photosynthesi	-12.5228
▁plural	-12.5228
▁primordial	-12.5228
▁repertoire	-12.5228
▁reservoir	-12.5228
▁rigorous	-12.5228
▁sprawl	-12.5228
▁səliqə	-12.5228
▁səviyyə	-12.5228
▁tyrann	-12.5228
▁təqdim	-12.5228
▁unpleasant	-12.5228
▁CNN	-12.5228
▁delusion	-12.5228
▁kamera	-12.5228
▁utopia	-12.5228
▁Village	-12.5228
▁heartbeat	-12.5228
▁Network	-12.5228
▁embryonic	-12.5228
▁solemn	-12.5228
▁Galile	-12.5228
▁Grace	-12.5228
▁təkrar	-12.5228
▁Anthon	-12.5228
▁ripple	-12.5228
▁ingenious	-12.5228
▁patron	-12.5228
▁sniff	-12.5228
▁socket	-12.5228
▁sponge	-12.5228
▁Feminis	-12.5228
▁aspire	-12.5228
▁asılı	-12.5228
▁honeybee	-12.5228
▁scour	-12.5228
▁subtract	-12.5228
▁loom	-12.5228
▁distill	-12.5228
▁yığ	-12.5229
▁clich	-12.5229
▁Cuba	-12.5229
▁paranoi	-12.5229
▁petrol	-12.5229
partisan	-12.523
▁saturat	-12.5234
▁feasib	-12.5236
▁qapı	-12.5237
rmostat	-12.5237
ölçülü	-12.5244
▁gül	-12.5244
▁electora	-12.5245
▁illustrat	-12.5255
▁Psycho	-12.5263
▁compensat	-12.5322
gatherer	-12.5351
birimiz	-12.5367
ronto	-12.5392
▁subjectiv	-12.5426
terior	-12.5558
symmetr	-12.5614
quarter	-12.5617
&	-13.7737
♫	-14.0117
:	-14.0118
)	-14.0119
?	-14.012
—	-14.0121
