<unk>	0
<s>	0
</s>	0
▁.	-3.10765
▁,	-3.3286
;	-3.755
▁&	-3.8052
▁bir	-3.97281
quot	-4.20465
▁ve	-4.32093
▁	-4.38701
▁bu	-4.70156
apos	-4.81863
n	-4.82506
a	-5.0118
k	-5.01871
e	-5.17871
lar	-5.24902
m	-5.2565
▁Bu	-5.29484
▁için	-5.35189
t	-5.38571
i	-5.40075
ler	-5.53017
s	-5.53718
▁da	-5.55491
▁Ve	-5.57169
▁?	-5.58431
▁çok	-5.6012
da	-5.60221
▁de	-5.6369
▁daha	-5.71863
de	-5.82351
in	-5.89645
▁ki	-5.90956
ları	-5.91071
la	-5.92812
▁var	-5.94145
▁)	-5.94511
(	-5.94612
ya	-5.97993
▁:	-5.99782
leri	-6.00145
y	-6.06115
▁gibi	-6.07165
ı	-6.07206
li	-6.0895
▁olarak	-6.11478
r	-6.12426
▁şey	-6.12654
si	-6.13334
p	-6.13631
▁—	-6.15053
le	-6.15154
▁...	-6.18702
den	-6.20682
▁o	-6.21528
▁olan	-6.23236
▁ne	-6.23429
dan	-6.26651
z	-6.28563
l	-6.29598
nın	-6.29604
nin	-6.30133
ye	-6.32263
▁kadar	-6.3327
▁en	-6.37501
ın	-6.39524
▁her	-6.40734
er	-6.4412
na	-6.45658
ü	-6.48391
▁değil	-6.49271
▁ile	-6.50616
▁ya	-6.5136
en	-6.53745
an	-6.55626
di	-6.55943
▁zaman	-6.56164
▁iyi	-6.59786
u	-6.60876
ce	-6.61854
▁olduğunu	-6.63092
sı	-6.64445
lı	-6.6473
▁the	-6.6511
yi	-6.65346
▁Bir	-6.65352
▁ama	-6.66076
ma	-6.66473
ki	-6.67859
dir	-6.68717
▁sonra	-6.68743
▁büyük	-6.6876
▁Ama	-6.69579
▁bunu	-6.69585
ların	-6.70213
-	-6.73598
▁a	-6.73838
▁nasıl	-6.73937
ne	-6.76729
ş	-6.76911
lerin	-6.78907
.	-6.80129
ta	-6.80439
▁sadece	-6.80706
▁O	-6.8146
te	-6.82914
d	-6.85775
dır	-6.85781
ca	-6.8836
lik	-6.88478
▁çünkü	-6.89088
ti	-6.89327
▁önce	-6.90632
▁şu	-6.91556
yı	-6.91708
ni	-6.91845
▁şekilde	-6.92044
larını	-6.92678
lerini	-6.93355
▁yıl	-6.95677
▁iki	-6.9611
&	-6.96173
▁fazla	-6.97152
me	-6.98657
▁yeni	-7.01511
▁aynı	-7.05142
lık	-7.06429
▁gerçekten	-7.08041
se	-7.08469
un	-7.08602
daki	-7.10781
▁insan	-7.11209
▁Yani	-7.11886
▁mi	-7.12143
▁Şimdi	-7.12527
▁hakkında	-7.13119
▁olduğu	-7.15177
▁ben	-7.1557
im	-7.1573
▁to	-7.16352
re	-7.17136
▁benim	-7.17409
▁kendi	-7.17838
o	-7.1814
▁ilk	-7.18874
uz	-7.18977
▁Ben	-7.19287
▁tüm	-7.19323
▁A	-7.21167
sa	-7.21322
▁I	-7.2236
▁S	-7.23122
▁diğer	-7.23256
▁farklı	-7.23369
b	-7.23804
▁başka	-7.24117
lara	-7.24423
▁insanlar	-7.26121
um	-7.26363
▁ilgili	-7.27193
▁in	-7.27225
f	-7.27546
ir	-7.28561
▁içinde	-7.28775
▁yok	-7.29361
ri	-7.29454
lere	-7.3022
dı	-7.30287
tan	-7.30525
▁biz	-7.30618
▁an	-7.30934
▁sahip	-7.31094
▁bile	-7.31379
▁aslında	-7.31967
ini	-7.32092
▁bunun	-7.32221
h	-7.32388
▁doğru	-7.33003
ə	-7.33323
ar	-7.33337
du	-7.33813
▁küçük	-7.34106
lu	-7.35298
▁♫	-7.35931
q	-7.36124
▁burada	-7.38167
▁Gülüşmeler	-7.39305
mak	-7.40662
tı	-7.41033
▁gün	-7.41226
▁veya	-7.41399
▁of	-7.41701
▁;	-7.4259
▁yer	-7.42784
▁ise	-7.42845
mi	-7.43307
yla	-7.43563
▁önemli	-7.45174
▁biri	-7.45242
▁bizim	-7.45321
▁eğer	-7.45682
▁son	-7.46322
▁şeyler	-7.47859
▁Faka	-7.48458
▁oldu	-7.48463
▁bana	-7.48601
▁tek	-7.49797
▁bütün	-7.50734
▁iş	-7.50785
▁size	-7.51134
sel	-7.51502
ed	-7.52404
▁and	-7.52596
▁geri	-7.53518
ç	-7.54128
▁Eğ	-7.54208
▁biraz	-7.54366
miz	-7.54749
deki	-7.56325
g	-7.56488
al	-7.56795
ten	-7.57018
mış	-7.57288
ci	-7.58124
nda	-7.5826
ır	-7.58325
il	-7.58369
▁üzerinde	-7.58768
▁insanların	-7.59033
▁az	-7.59184
ing	-7.59346
▁-	-7.594
ydi	-7.59445
c	-7.59622
▁hiç	-7.59937
ra	-7.60515
▁gerçek	-7.60837
▁E	-7.61392
yle	-7.61426
sine	-7.61802
▁göre	-7.61959
mek	-7.62302
▁su	-7.62399
iz	-7.62543
ken	-7.62815
▁Bunu	-7.62817
▁karşı	-7.62899
▁diye	-7.63443
▁bilgi	-7.63684
▁vardı	-7.6468
▁neden	-7.64872
▁tha	-7.64989
st	-7.68015
sini	-7.68053
ını	-7.68343
▁yüzden	-7.68543
▁böyle	-7.69026
ım	-7.69259
ine	-7.69781
▁zamanda	-7.70113
▁onu	-7.70196
larının	-7.70378
▁is	-7.70634
▁üç	-7.70651
niz	-7.7079
nı	-7.70838
ndan	-7.7126
▁al	-7.71393
▁Çünk	-7.71399
lardan	-7.71425
▁C	-7.71676
▁it	-7.71921
ik	-7.72329
▁be	-7.72587
▁olması	-7.72754
▁tam	-7.729
▁at	-7.73151
tir	-7.73379
▁bazı	-7.73656
▁yapmak	-7.73795
miş	-7.74497
larına	-7.75086
▁dünya	-7.75813
▁tarafından	-7.76234
▁şimdi	-7.76295
at	-7.76637
▁hareket	-7.76787
larda	-7.77023
lerine	-7.77062
▁Kahkaha	-7.77284
▁olacak	-7.77508
arak	-7.77781
dim	-7.77955
lan	-7.78182
lerden	-7.78243
▁olmak	-7.78562
▁İşte	-7.79071
▁mı	-7.79418
▁istiyorum	-7.79625
▁tür	-7.79662
sanız	-7.79878
siniz	-7.80731
▁Çok	-7.81288
nde	-7.81666
▁soru	-7.82047
lerde	-7.82132
ip	-7.82153
acak	-7.82814
▁ortaya	-7.84632
▁oluyor	-7.84921
▁zor	-7.85032
▁teknoloji	-7.85096
yu	-7.8527
ch	-7.85624
mız	-7.8599
▁Peki	-7.87007
▁Ne	-7.87101
ba	-7.8749
▁və	-7.87876
▁oldukça	-7.88003
▁Dünya	-7.88149
▁Bunun	-7.88155
▁bize	-7.88227
larında	-7.88318
sını	-7.886
ıyor	-7.88932
▁kişi	-7.89169
▁yol	-7.89368
▁şeyi	-7.89426
on	-7.89688
▁etmek	-7.89867
▁karar	-7.90116
▁Burada	-7.90209
lama	-7.90255
▁Her	-7.90295
lerinin	-7.90529
▁birkaç	-7.90627
▁fakat	-7.90749
▁para	-7.90792
▁güzel	-7.90825
maya	-7.9113
ıp	-7.91358
▁uzun	-7.9183
▁olabilir	-7.9224
nız	-7.92317
▁yani	-7.92539
▁fark	-7.92646
▁beni	-7.92997
▁tekrar	-7.93045
ro	-7.93099
ün	-7.93316
▁onları	-7.93374
▁bunlar	-7.93571
dur	-7.9361
lerle	-7.94421
ydı	-7.95142
▁Aslında	-7.95162
▁onun	-7.95254
sına	-7.95304
▁olur	-7.95763
▁you	-7.95822
▁anda	-7.95887
ur	-7.96421
▁onlar	-7.9643
el	-7.96675
▁kötü	-7.96742
▁K	-7.96826
▁Alkış	-7.97278
▁açık	-7.97491
ve	-7.97601
▁boyunca	-7.97678
▁hayal	-7.98371
▁10	-7.99045
▁devam	-7.99686
cı	-7.99723
larla	-7.99794
tır	-7.99906
▁geliyor	-8.00021
▁milyon	-8.00335
▁Alkışlar	-8.00356
abilir	-8.00457
su	-8.00573
▁!	-8.00669
▁siz	-8.01035
▁çıkar	-8.01454
▁Anca	-8.01635
▁on	-8.02045
▁yakın	-8.0206
▁Daha	-8.02343
▁yüzde	-8.03058
▁mu	-8.03304
siz	-8.03474
▁olma	-8.03521
▁süre	-8.03975
sin	-8.04292
x	-8.04396
▁Biz	-8.04513
ına	-8.04539
▁konu	-8.04611
▁ay	-8.04851
▁birçok	-8.05194
▁B	-8.05588
▁Siz	-8.05726
ter	-8.05764
▁enerji	-8.05887
▁arasında	-8.05935
▁Ya	-8.06162
inde	-8.06433
ecek	-8.06437
▁3	-8.06525
▁bak	-8.06561
▁yüksek	-8.06731
ly	-8.07319
or	-8.07384
▁Ka	-8.07679
▁Evet	-8.07899
▁hikaye	-8.08036
▁yardım	-8.081
▁20	-8.08226
erek	-8.08234
liği	-8.08431
▁göz	-8.08834
tik	-8.08876
▁G	-8.09062
▁we	-8.09365
be	-8.09518
▁el	-8.09676
▁orada	-8.09852
nun	-8.10045
▁Bunlar	-8.10218
lığı	-8.10437
▁belki	-8.10515
sal	-8.10721
▁kaç	-8.10971
▁Ma	-8.11109
ğ	-8.11182
▁dedi	-8.11222
lü	-8.11922
▁ev	-8.12017
▁do	-8.1213
v	-8.1256
▁tamamen	-8.12573
bi	-8.1266
▁aile	-8.13388
▁durum	-8.13519
▁etme	-8.13963
▁çalışma	-8.13973
▁bugün	-8.14169
ge	-8.14176
▁Afrika	-8.14377
▁birlikte	-8.14397
▁Ha	-8.14488
▁c	-8.14568
tu	-8.14776
▁buna	-8.1489
lo	-8.15078
▁kat	-8.15638
▁basit	-8.15741
▁harika	-8.15749
▁bilgisayar	-8.16123
▁F	-8.16207
▁gelen	-8.16431
ması	-8.16451
iyor	-8.16782
▁ülke	-8.16912
▁f	-8.17277
▁dünyanın	-8.17501
sız	-8.1786
▁öyle	-8.18091
kı	-8.18185
▁T	-8.18192
▁fikir	-8.182
▁yerine	-8.18209
▁pek	-8.18226
inin	-8.1824
▁gereken	-8.18589
▁kadın	-8.18608
▁konuşma	-8.18666
▁yapma	-8.18998
▁işte	-8.19565
et	-8.20044
▁yapı	-8.20683
dım	-8.21187
▁geldi	-8.21332
də	-8.21428
▁And	-8.21989
▁üzerine	-8.22104
▁proje	-8.22275
▁çocuk	-8.2232
▁şöyle	-8.22498
▁artık	-8.22509
▁alan	-8.22701
ha	-8.22818
sinin	-8.2366
▁hiçbir	-8.23727
▁me	-8.23752
lardı	-8.23773
▁he	-8.23923
lər	-8.24117
es	-8.24283
▁nokta	-8.24652
ında	-8.24796
lerinden	-8.25104
▁veri	-8.2513
sinde	-8.25492
▁ederim	-8.25548
dü	-8.25791
dik	-8.25953
▁Amerika	-8.26062
ıl	-8.26186
lerinde	-8.26355
▁eden	-8.26465
larından	-8.26641
▁sene	-8.26699
▁araba	-8.27098
▁onların	-8.27352
▁baş	-8.27575
▁Böylece	-8.27768
▁temel	-8.2778
▁yüz	-8.27841
▁adam	-8.27888
▁U	-8.28031
▁zorunda	-8.28052
▁ediyor	-8.28193
▁vardır	-8.28973
sun	-8.29123
▁hava	-8.29261
ll	-8.29309
ru	-8.2938
▁saat	-8.29488
▁Sonra	-8.29737
▁konusunda	-8.29797
▁hayat	-8.29975
ul	-8.30366
to	-8.30528
▁sorun	-8.3056
▁hızlı	-8.30598
min	-8.30769
▁örnek	-8.30805
▁parça	-8.30806
▁çoğu	-8.31192
▁H	-8.31412
▁Şu	-8.31459
▁bizi	-8.31589
meye	-8.31592
çi	-8.31761
ga	-8.32346
▁araştırma	-8.32599
cu	-8.32662
▁bilim	-8.32751
▁19	-8.32796
▁gelir	-8.33262
zi	-8.33407
▁Tamam	-8.33521
▁tane	-8.33735
▁göster	-8.33762
sak	-8.33849
▁Sade	-8.34345
sunuz	-8.34617
mı	-8.3462
▁yaşam	-8.34649
▁ilginç	-8.35179
▁genç	-8.35216
ck	-8.35221
▁sizin	-8.35396
gi	-8.35568
▁sonunda	-8.35578
dum	-8.35603
▁çevre	-8.35622
▁as	-8.35731
▁yeniden	-8.35865
▁yerde	-8.36082
▁işe	-8.36412
lə	-8.36446
▁Onlar	-8.36631
sınız	-8.36742
▁herkes	-8.36837
▁yaklaşık	-8.36876
▁s	-8.37088
▁ancak	-8.37179
▁2	-8.37491
imiz	-8.37521
▁sosyal	-8.37763
S	-8.37805
▁ona	-8.38091
▁onlara	-8.38376
▁hale	-8.38813
man	-8.39069
▁toplum	-8.39227
ça	-8.39322
▁olmayan	-8.39401
▁P	-8.39409
▁dört	-8.39466
▁hafta	-8.3966
▁sa	-8.4015
▁beyin	-8.40401
▁istediğim	-8.40497
▁elde	-8.40789
▁savaş	-8.40922
▁milyar	-8.41128
▁iç	-8.41264
▁D	-8.41332
▁kolay	-8.41401
ebilir	-8.4142
▁Sa	-8.4236
▁re	-8.42486
▁hem	-8.42634
▁birşey	-8.42752
▁inanılmaz	-8.42931
▁can	-8.4295
ür	-8.42981
dığı	-8.43077
▁kontrol	-8.43081
▁eski	-8.43275
▁ma	-8.43364
▁sürü	-8.43446
▁ver	-8.43697
▁ta	-8.43748
▁eğitim	-8.43782
▁kız	-8.44015
▁altında	-8.4403
▁Benim	-8.44219
▁herhangi	-8.44249
▁hemen	-8.44413
▁hala	-8.44622
▁Teşekkürler	-8.44721
▁inan	-8.44753
ng	-8.44761
va	-8.44994
▁demek	-8.45026
ö	-8.4506
▁özel	-8.45166
seniz	-8.45265
▁dolar	-8.45279
▁yarat	-8.45482
mizi	-8.45583
ğı	-8.45597
▁söz	-8.45692
▁çalışan	-8.45919
▁yolu	-8.45936
▁Be	-8.4594
▁En	-8.46016
▁böylece	-8.46081
▁durumda	-8.46253
▁insanları	-8.46556
▁ses	-8.46665
▁dünyada	-8.46925
▁güç	-8.47003
hi	-8.47202
▁şeyleri	-8.47498
▁gerek	-8.47532
sının	-8.47773
muş	-8.48207
▁parçası	-8.48542
vi	-8.48699
▁güçlü	-8.4874
▁izin	-8.49061
▁mü	-8.49071
▁hasta	-8.49123
sek	-8.49502
▁sağ	-8.49709
▁mümkün	-8.50028
luk	-8.50229
▁ara	-8.50252
▁benzer	-8.50259
▁geç	-8.50408
▁Bugün	-8.50486
▁yalnız	-8.50571
▁cevap	-8.50788
▁ağ	-8.50844
▁başladı	-8.51253
larımız	-8.51281
2	-8.51314
mayı	-8.51584
tim	-8.51621
za	-8.51867
nden	-8.52074
▁kabul	-8.52326
rken	-8.52745
▁etti	-8.52941
▁dair	-8.52989
nu	-8.5316
▁problem	-8.53736
▁inşa	-8.5389
▁So	-8.54094
▁te	-8.54368
▁beş	-8.54387
ünü	-8.54476
▁edin	-8.54554
▁De	-8.54585
ğa	-8.54701
▁də	-8.54793
▁this	-8.55018
▁was	-8.55023
▁4	-8.55155
len	-8.55299
▁yine	-8.55491
diği	-8.55497
dık	-8.55799
▁hepsi	-8.55972
▁kal	-8.5612
dığını	-8.56415
▁hatta	-8.56877
leme	-8.57084
▁hazır	-8.57243
▁aşağı	-8.57668
▁seç	-8.57683
ız	-8.57702
▁görme	-8.5781
unu	-8.57856
abiliriz	-8.57952
dığımız	-8.58011
▁so	-8.5803
▁kimse	-8.58102
us	-8.58105
▁Neden	-8.58204
ən	-8.58278
▁New	-8.58389
▁tahmin	-8.58489
▁sistem	-8.58518
1	-8.58566
ıcı	-8.58661
▁bağlı	-8.58843
çı	-8.59062
▁şunu	-8.5916
▁bunları	-8.59176
▁film	-8.59177
▁idi	-8.5946
▁gösteriyor	-8.59698
▁30	-8.59796
çe	-8.59908
▁gir	-8.60026
▁olsa	-8.60031
0	-8.60159
▁düşünce	-8.60438
▁bölge	-8.60459
▁i	-8.60522
▁anlama	-8.6058
A	-8.61062
▁ön	-8.61204
▁ana	-8.61302
▁İlk	-8.614
▁video	-8.61616
▁deney	-8.61658
▁gezegen	-8.61774
▁grup	-8.61906
▁5	-8.61958
▁araya	-8.62263
▁50	-8.62288
▁değer	-8.6249
3	-8.62629
▁gördüğünüz	-8.627
▁kullan	-8.62804
▁yaptığı	-8.62851
fi	-8.63152
▁for	-8.63223
▁geniş	-8.63261
nüz	-8.63308
sın	-8.63332
▁insanlara	-8.63424
ının	-8.63461
▁sayı	-8.63478
sında	-8.63803
▁oda	-8.63959
▁di	-8.63982
▁yan	-8.64008
▁ilişki	-8.64009
ver	-8.64089
B	-8.64342
▁yara	-8.64397
▁et	-8.64438
▁bence	-8.6467
▁Hindistan	-8.6468
▁yanlış	-8.6468
▁değildir	-8.64843
▁dedim	-8.65066
▁Çin	-8.65134
▁tak	-8.6519
▁not	-8.65641
w	-8.65809
▁İ	-8.65991
imi	-8.66
ol	-8.66013
▁kez	-8.6605
▁doğa	-8.6606
▁öğren	-8.66225
▁Ba	-8.66231
▁verme	-8.66293
th	-8.66582
ımız	-8.66838
▁neredeyse	-8.66852
▁kap	-8.66914
▁Son	-8.67064
▁dakika	-8.67149
▁kısa	-8.67254
▁güven	-8.67422
it	-8.67485
▁va	-8.67713
diğini	-8.67874
▁The	-8.67932
▁se	-8.67938
▁yapmaya	-8.68323
▁sizi	-8.68378
▁Kendi	-8.68556
▁değildi	-8.68672
mızı	-8.68952
▁özellikle	-8.68973
▁ba	-8.68977
lerimiz	-8.6909
▁yaz	-8.69093
▁çıktı	-8.6911
ry	-8.69284
▁yap	-8.69354
▁TED	-8.69556
▁tedavi	-8.69556
▁oyun	-8.69961
▁sistemi	-8.69962
▁Al	-8.70076
▁derece	-8.70078
▁gelecek	-8.70201
iyoruz	-8.7021
▁birisi	-8.70238
▁alma	-8.7028
▁olduğuna	-8.70316
▁ak	-8.70332
▁fa	-8.70533
▁yapıyor	-8.70658
▁gece	-8.70766
4	-8.70783
▁yapan	-8.70806
▁olay	-8.70881
ze	-8.70901
yim	-8.71335
▁gerekiyor	-8.71476
▁neler	-8.71652
mo	-8.71661
▁gen	-8.71827
▁ölüm	-8.71835
▁100	-8.71839
▁haber	-8.71844
D	-8.71914
8	-8.72005
▁k	-8.72082
5	-8.72115
▁genel	-8.72204
▁ka	-8.72256
▁üzere	-8.72357
ebiliriz	-8.72416
nizi	-8.72513
▁ifade	-8.72628
▁yere	-8.72704
iş	-8.72872
leşme	-8.7333
▁derin	-8.73369
▁deniz	-8.73399
▁ışık	-8.73589
mesi	-8.73598
▁kan	-8.73708
▁Ç	-8.73937
▁çalış	-8.73986
▁altı	-8.74112
▁dikkat	-8.74115
▁iletişim	-8.74129
▁yaptığımız	-8.74171
▁kelime	-8.7429
▁düşünün	-8.74323
▁1	-8.74336
ran	-8.74357
şa	-8.74442
tur	-8.74729
▁kim	-8.74845
▁olmadığı	-8.75024
▁işi	-8.75124
▁bundan	-8.7514
▁15	-8.75212
▁deneyim	-8.75288
▁doğal	-8.7532
▁mo	-8.75326
▁verici	-8.75397
ış	-8.7546
ılmış	-8.75499
▁ek	-8.75583
▁kar	-8.7565
▁sanat	-8.75716
▁üst	-8.75838
▁ikinci	-8.75923
▁beraber	-8.75935
▁başladım	-8.76207
nızı	-8.76279
yız	-8.76338
abilirsiniz	-8.76445
▁fotoğraf	-8.76529
6	-8.76632
▁Ş	-8.76888
▁destek	-8.76999
M	-8.77031
▁getir	-8.77068
go	-8.77072
▁bakın	-8.77186
▁kafa	-8.77204
▁olmadığını	-8.7763
▁tasarım	-8.77843
â	-8.77907
▁ayrı	-8.78
▁tanı	-8.78043
diğimiz	-8.78118
▁geçen	-8.78259
▁ister	-8.78279
▁aç	-8.78488
▁etki	-8.78602
▁bunların	-8.78773
▁fikri	-8.78799
▁Aynı	-8.78808
▁g	-8.78929
▁şeyin	-8.78937
▁kullanarak	-8.78972
▁muhtemel	-8.79067
alım	-8.79197
▁karmaşık	-8.79262
▁çox	-8.79507
▁b	-8.79541
▁olduğumuz	-8.79779
▁Tüm	-8.79926
▁Te	-8.80019
bo	-8.80093
dən	-8.80093
▁bin	-8.80106
▁yoktu	-8.80146
üm	-8.80149
▁değiştir	-8.80241
▁eder	-8.80418
▁biliyor	-8.80548
C	-8.80578
▁okul	-8.80594
▁bağ	-8.80658
▁plan	-8.80685
7	-8.80849
▁canlı	-8.80887
ici	-8.81048
▁bağlantı	-8.81107
kar	-8.812
▁arasındaki	-8.81277
▁çeşit	-8.81304
▁İnsanlar	-8.81367
ah	-8.81452
▁sebep	-8.81503
▁ortak	-8.81752
▁sonraki	-8.81757
▁uzay	-8.81858
▁anne	-8.82025
▁J	-8.82033
ül	-8.8209
lanma	-8.82099
▁ulaş	-8.82413
▁ihtiyacımız	-8.82555
▁anlat	-8.82575
▁sağlık	-8.82737
id	-8.82738
acağım	-8.82805
▁ekonomi	-8.82827
00	-8.8286
▁bırak	-8.82947
▁M	-8.83101
ley	-8.83638
▁biliyoruz	-8.83747
elim	-8.83753
▁are	-8.83889
▁Me	-8.84217
▁Belki	-8.84414
▁yaptık	-8.84604
▁çocuklar	-8.84607
▁görüyorsunuz	-8.85039
▁He	-8.85196
lamak	-8.85217
▁insanın	-8.85475
▁rağmen	-8.85487
▁sebebi	-8.85487
iyet	-8.85503
bil	-8.85533
ydu	-8.85607
sinden	-8.85709
▁hücre	-8.85824
▁tamam	-8.85935
inden	-8.85949
şi	-8.85992
▁koy	-8.86017
▁yapılan	-8.86042
muz	-8.86132
▁düşünüyorum	-8.86152
▁have	-8.86187
▁ele	-8.86191
▁teşekkür	-8.86292
▁görebilirsiniz	-8.86433
▁Ro	-8.86473
▁üçün	-8.86512
▁alıp	-8.86693
▁görmek	-8.86756
▁erkek	-8.86949
▁model	-8.87008
lığın	-8.87065
▁Mo	-8.87251
▁Bo	-8.87341
▁dolayı	-8.87346
▁madde	-8.87356
▁York	-8.87356
mə	-8.87516
▁küresel	-8.87525
ləri	-8.87676
yım	-8.87704
▁Di	-8.87995
▁gitme	-8.88037
▁uygulama	-8.88062
▁internet	-8.88103
▁bakış	-8.88139
dür	-8.88187
▁telefon	-8.88252
ımı	-8.88299
ilmiş	-8.88308
▁açı	-8.88432
▁yılda	-8.8856
ist	-8.8875
mişti	-8.88775
▁olursa	-8.88801
▁nedir	-8.88819
tü	-8.88873
▁sıra	-8.88962
▁yanı	-8.89058
▁kur	-8.892
▁bina	-8.8933
▁robot	-8.89417
▁dolu	-8.8942
▁bas	-8.89427
cə	-8.89557
▁olsun	-8.896
▁mutlu	-8.89601
▁test	-8.89703
▁ders	-8.89845
▁çizgi	-8.904
ğe	-8.90547
▁adı	-8.90569
▁içine	-8.90623
▁ettim	-8.90625
▁yardımcı	-8.90798
▁güneş	-8.9088
T	-8.91025
▁Avrupa	-8.91035
▁asla	-8.9108
▁düşündüm	-8.91093
▁art	-8.91126
üyor	-8.91174
ok	-8.91226
P	-8.91235
▁adım	-8.91246
leriyle	-8.91256
▁orta	-8.91475
▁la	-8.91798
▁etmeye	-8.91841
▁Su	-8.9192
ği	-8.91964
▁başına	-8.91978
▁sor	-8.9205
yum	-8.92065
▁yaşayan	-8.92245
mda	-8.92263
ste	-8.92274
▁ilgi	-8.92361
▁bazen	-8.92392
I	-8.92564
▁verir	-8.92614
▁Ayrıca	-8.92679
▁ileri	-8.92741
ey	-8.92773
▁Bütün	-8.92845
fe	-8.92961
ton	-8.93034
bu	-8.93261
▁hep	-8.93385
▁Do	-8.93392
▁hayvan	-8.93412
▁yukarı	-8.93511
ebilirsiniz	-8.9358
▁meydan	-8.93679
▁değişim	-8.93765
▁kendini	-8.93784
▁Ta	-8.93874
acağız	-8.93884
▁olup	-8.93903
▁Büyük	-8.9397
▁eş	-8.94058
▁yapar	-8.94159
▁hangi	-8.94182
▁çal	-8.94237
is	-8.94293
▁Bizim	-8.94338
▁sen	-8.94392
taki	-8.94411
▁yılında	-8.94526
▁hoş	-8.94586
▁Diğer	-8.94687
▁iz	-8.94695
▁bil	-8.94741
▁merak	-8.94876
9	-8.94913
▁arka	-8.94917
▁dışında	-8.94987
▁İki	-8.95029
▁hepimiz	-8.95169
san	-8.95183
▁defa	-8.95243
▁şehir	-8.95252
▁ç	-8.95418
son	-8.95534
▁içerisinde	-8.9559
▁ayrıca	-8.95659
▁dünyayı	-8.95697
po	-8.95792
▁orman	-8.96001
▁Se	-8.96051
liğin	-8.96066
▁Başka	-8.96092
▁duy	-8.96093
op	-8.96129
▁kısmı	-8.9614
tor	-8.96417
.000	-8.96472
miyor	-8.96683
▁Buna	-8.96699
▁yazı	-8.96797
▁Yeni	-8.96811
▁40	-8.96834
▁La	-8.9688
▁kazan	-8.96881
ku	-8.96886
▁dil	-8.97103
ər	-8.9712
▁engel	-8.97194
lanmış	-8.97332
▁düşün	-8.97525
▁Ban	-8.97554
▁sürekli	-8.97611
▁yaşında	-8.97799
▁kesinlikle	-8.97808
▁geliştir	-8.97816
asyon	-8.97856
▁Co	-8.97932
mıştı	-8.97932
let	-8.98254
▁takip	-8.98363
▁with	-8.98478
▁6	-8.98518
▁An	-8.98527
▁ekonomik	-8.98549
▁tabi	-8.98554
iyle	-8.98583
co	-8.98616
▁gel	-8.98646
▁görüyoruz	-8.98701
▁çık	-8.98724
▁beri	-8.98741
▁ciddi	-8.98829
fa	-8.98846
▁El	-8.98979
▁yaş	-8.98981
▁vermek	-8.98986
diğim	-8.9919
▁düşünme	-8.9924
▁resim	-8.99241
▁sık	-8.99351
▁hayatta	-8.99407
▁almak	-8.99535
▁olurdu	-8.99711
meyi	-8.99811
ber	-8.99888
▁yatırım	-9.00251
▁resmi	-9.00253
bir	-9.00263
larıyla	-9.00391
▁konuda	-9.00435
▁gerektiğini	-9.00544
▁binlerce	-9.00554
mıyor	-9.00632
▁Ko	-9.00684
▁ihtiyaç	-9.0077
▁program	-9.00838
▁or	-9.00903
▁uygun	-9.00968
▁metre	-9.00973
kan	-9.01071
▁gerekli	-9.01182
▁kuş	-9.01493
lük	-9.01531
▁sonuç	-9.01742
ab	-9.01862
▁Li	-9.01873
▁haline	-9.01964
ıyoruz	-9.02109
▁devlet	-9.02246
▁Teşekkür	-9.02305
▁başarılı	-9.0238
▁hedef	-9.02421
▁p	-9.02443
▁ha	-9.02456
sə	-9.02493
ay	-9.02518
▁yaptı	-9.02616
▁öz	-9.02728
duk	-9.02799
▁alır	-9.02868
j	-9.02944
▁ait	-9.02992
▁uzak	-9.03003
▁gidiyor	-9.03022
▁anlamın	-9.03088
▁nedenle	-9.03133
▁bulunan	-9.03454
▁pa	-9.03465
▁acı	-9.03521
▁arada	-9.03538
▁don	-9.03699
kten	-9.03762
suz	-9.03865
▁risk	-9.03965
▁başarı	-9.04084
▁sınır	-9.04116
▁çözüm	-9.04124
sh	-9.04158
▁korku	-9.04165
▁say	-9.04173
▁kalan	-9.04235
▁Gerçekten	-9.04417
▁yaptığım	-9.0447
▁olmalı	-9.04494
▁seçim	-9.04513
▁San	-9.04597
▁İş	-9.04688
ho	-9.04769
ör	-9.04822
ık	-9.04932
▁kır	-9.04947
▁yemek	-9.04957
ren	-9.04964
▁Hayır	-9.05008
▁evet	-9.0505
▁konuş	-9.05131
tar	-9.05165
▁aşı	-9.05266
▁kadınlar	-9.05269
ıldı	-9.05337
▁iste	-9.05558
▁dünyadaki	-9.05835
larımızı	-9.05874
layan	-9.05933
▁verdi	-9.05944
▁top	-9.05964
▁edecek	-9.06048
▁yapabilir	-9.06055
▁ediyorum	-9.06107
▁yaptım	-9.06196
tım	-9.06321
▁lazım	-9.06328
▁kalma	-9.06432
▁başladık	-9.06579
▁yavaş	-9.06731
▁ettik	-9.06966
▁yanında	-9.06996
▁söylüyor	-9.0702
der	-9.07044
▁makine	-9.07084
▁mükemmel	-9.07091
▁gidip	-9.07121
▁asıl	-9.07206
yiz	-9.0721
▁tut	-9.07259
abiliyor	-9.07294
meyen	-9.07323
▁ko	-9.07341
▁varsa	-9.07409
▁işaret	-9.07489
▁çek	-9.07659
▁şarkı	-9.07667
▁müzik	-9.07667
G	-9.07803
▁gönder	-9.07811
ebilecek	-9.07857
▁elektrik	-9.07859
▁bilme	-9.07865
ət	-9.07866
unun	-9.08007
mu	-9.08167
▁bit	-9.08172
▁silah	-9.0825
tık	-9.08268
▁sayesinde	-9.0845
▁tanım	-9.08476
▁18	-9.08657
▁Da	-9.08675
▁giy	-9.08699
▁söyledi	-9.08823
▁DNA	-9.08828
▁zengin	-9.09024
▁düşük	-9.09024
dığım	-9.09062
▁Ga	-9.09329
lıyor	-9.09381
▁yöntem	-9.09427
E	-9.09518
▁ayır	-9.09645
▁der	-9.0974
ad	-9.09741
▁normal	-9.09754
▁my	-9.09849
pi	-9.0989
▁gerekir	-9.10079
▁musunuz	-9.10102
▁zamanlar	-9.10312
▁tabii	-9.10316
▁oluştur	-9.10335
▁Ke	-9.10433
müş	-9.10528
▁olmadan	-9.10571
91	-9.10668
mde	-9.10695
▁yedi	-9.10699
▁sev	-9.1084
▁ö	-9.10872
▁Ku	-9.10875
eceğim	-9.10922
lerimizi	-9.10937
▁mevcut	-9.10994
▁what	-9.11005
▁8	-9.11054
▁12	-9.11109
▁araç	-9.1115
masını	-9.11301
ko	-9.11338
▁kara	-9.1142
,000	-9.11558
▁görüntü	-9.11771
▁gücü	-9.11875
▁Re	-9.11893
▁kitap	-9.11937
L	-9.11954
▁muhteşem	-9.11994
▁dahil	-9.11996
▁Bil	-9.12071
▁R	-9.12192
▁nə	-9.12319
▁sahne	-9.12397
▁olduğum	-9.12684
▁din	-9.12835
▁sesi	-9.12919
mize	-9.12932
os	-9.12981
ger	-9.13077
▁il	-9.13092
▁bo	-9.1317
teki	-9.1321
▁nerede	-9.1339
▁ye	-9.13458
▁tıp	-9.13465
▁düzen	-9.13501
gu	-9.13667
▁büyüme	-9.13749
sem	-9.13829
▁7	-9.13985
▁ilaç	-9.14005
▁veriyor	-9.14028
ot	-9.14095
kları	-9.14219
▁L	-9.14229
▁görüş	-9.14246
▁heyecan	-9.14264
▁götür	-9.14306
▁Le	-9.1435
up	-9.14422
▁geçir	-9.14457
▁sinir	-9.14466
▁veren	-9.14479
▁boş	-9.14521
▁ol	-9.14657
sam	-9.14709
yken	-9.14749
▁biliyorum	-9.14986
ılan	-9.15008
▁şeye	-9.15159
liğe	-9.1517
met	-9.15218
▁başlıyor	-9.15259
▁dur	-9.15328
▁yüzey	-9.1533
▁yıldır	-9.1538
ıyorlar	-9.15436
▁ABD	-9.15471
▁ayak	-9.15573
▁aldı	-9.15662
▁hata	-9.1573
iniz	-9.15737
yor	-9.15837
mıza	-9.15844
▁kapı	-9.15907
ic	-9.16014
▁edil	-9.16045
ğin	-9.16052
landı	-9.16061
▁alanı	-9.16192
▁öğret	-9.16258
rt	-9.16468
▁sahibi	-9.1654
▁kes	-9.16586
əm	-9.1659
▁çift	-9.16668
abilecek	-9.16719
▁bilirsiniz	-9.16756
▁Ra	-9.16822
▁büyü	-9.16832
▁dizi	-9.16841
yə	-9.16981
▁anlamak	-9.16994
▁em	-9.17145
▁sayfa	-9.17165
▁paylaş	-9.17189
▁göstermek	-9.17229
tör	-9.17282
ilen	-9.17293
▁h	-9.17294
▁kaynak	-9.17321
ladı	-9.17507
▁görünüyor	-9.17529
▁olacağını	-9.17574
▁yayın	-9.17693
wa	-9.17733
ama	-9.17733
iyorlar	-9.17938
▁şiddet	-9.18028
▁N	-9.18201
ildi	-9.18354
▁bakar	-9.18497
ebiliyor	-9.1864
▁tepki	-9.18643
▁algı	-9.18648
▁mesaj	-9.18739
lemek	-9.18759
▁hal	-9.18777
tion	-9.18862
mez	-9.18862
▁kendimi	-9.18867
▁aracı	-9.18937
▁çalışıyor	-9.18967
he	-9.19009
ktan	-9.19053
▁kullanma	-9.1909
ıyordu	-9.19158
▁başlar	-9.19217
▁diyor	-9.19218
▁çıkan	-9.19286
meliyiz	-9.19439
▁kendisi	-9.19509
▁kimi	-9.19552
▁dış	-9.19649
▁mavi	-9.1977
▁hastalık	-9.19866
▁kişisel	-9.19925
▁yarı	-9.19993
▁ortalama	-9.20026
▁fırsat	-9.20071
▁görün	-9.20173
nü	-9.20214
▁sat	-9.20306
▁sal	-9.20556
uyor	-9.20698
▁bulmak	-9.20703
mızda	-9.20712
iyorum	-9.20733
▁kas	-9.20818
▁beyaz	-9.21036
▁9	-9.21184
tif	-9.21262
acağı	-9.21378
▁alıyor	-9.21508
▁emin	-9.21568
▁60	-9.21681
▁kanıt	-9.21714
▁hâl	-9.21759
▁şekli	-9.21856
yo	-9.21878
▁beynin	-9.2204
ıyla	-9.22057
▁oldukları	-9.22192
▁sağlıyor	-9.22204
▁u	-9.22219
▁oluşan	-9.22274
▁başar	-9.22422
▁herkesin	-9.22549
bout	-9.22628
▁şirket	-9.22684
▁kol	-9.22703
▁taraf	-9.22725
▁sol	-9.22789
▁anlamı	-9.22844
▁sun	-9.22939
▁Onun	-9.22989
▁nedeni	-9.23018
▁dönüş	-9.23019
▁okuma	-9.23035
▁gör	-9.23141
do	-9.23147
▁kamera	-9.23259
▁ar	-9.23378
▁birinin	-9.23383
▁olsaydı	-9.23386
sti	-9.23475
ından	-9.23481
▁tip	-9.23553
▁bulma	-9.23563
▁buraya	-9.23706
▁arkadaş	-9.23819
▁olmaya	-9.23863
eri	-9.23883
▁gördük	-9.23918
▁kanser	-9.23919
▁kurtar	-9.23927
▁Müzik	-9.23936
▁zaten	-9.23937
▁söyle	-9.23956
▁11	-9.24193
▁uç	-9.24218
▁see	-9.24549
sından	-9.2463
▁görev	-9.24635
▁medya	-9.24847
▁tarafta	-9.2485
▁işin	-9.24862
▁koruma	-9.24909
R	-9.2512
▁Mars	-9.25312
▁Artık	-9.25317
▁çocukların	-9.25376
▁kültür	-9.25434
▁sınıf	-9.255
▁masa	-9.256
▁gider	-9.25664
▁Herkes	-9.25766
▁söylemek	-9.25878
▁Amerikan	-9.25881
▁alt	-9.259
lerdi	-9.25964
▁alın	-9.25968
▁us	-9.25975
▁molekül	-9.25995
▁gelişme	-9.25998
▁harita	-9.26002
▁zamanı	-9.26031
▁ra	-9.26038
▁verdim	-9.26051
oloji	-9.26067
▁öğrenme	-9.26098
mamız	-9.26116
▁yerlerde	-9.26119
dılar	-9.26175
▁Birleşi	-9.26244
▁Ho	-9.26248
▁pazar	-9.26248
▁bakalım	-9.26277
malıyız	-9.26301
laşma	-9.26406
▁tartışma	-9.26479
▁Ni	-9.26527
diğiniz	-9.26599
▁fakir	-9.26693
▁fiziksel	-9.26719
mək	-9.26733
▁bulun	-9.268
▁günde	-9.27015
▁all	-9.2704
▁there	-9.27063
▁yapacak	-9.27239
▁CA	-9.27263
▁dönem	-9.27445
▁çöz	-9.276
▁ufak	-9.27627
▁aldım	-9.27644
▁yasa	-9.27726
▁eşit	-9.27779
▁düz	-9.27841
ster	-9.27844
▁yeterli	-9.27863
leyen	-9.28015
▁temiz	-9.2812
ation	-9.28173
lanan	-9.2819
▁Örneğin	-9.28334
93;	-9.28335
▁virüs	-9.28335
▁Orta	-9.28381
▁şeylerden	-9.28454
▁yaşama	-9.28478
▁ısı	-9.28498
▁Google	-9.28571
▁petrol	-9.28571
▁karakter	-9.28572
N	-9.28751
▁okyanus	-9.2887
▁kon	-9.28889
▁düşünüyor	-9.28966
▁bazıları	-9.28991
▁kök	-9.29007
ıyorum	-9.29141
eceğiz	-9.29191
K	-9.29252
▁çevir	-9.29258
▁belli	-9.2929
▁si	-9.29368
▁co	-9.29404
▁dünyaya	-9.29514
▁temsil	-9.29525
▁icin	-9.29631
▁mücadele	-9.29765
▁gördüm	-9.29883
▁baskı	-9.29883
▁yıllık	-9.29943
▁yaşıyor	-9.29953
sıyla	-9.30095
▁cihaz	-9.30222
▁üniversite	-9.30257
▁kaldır	-9.3032
▁mən	-9.30541
▁şekil	-9.30576
O	-9.30649
▁öğrenci	-9.30696
▁takım	-9.30699
▁geli	-9.30699
▁birini	-9.30718
▁yiyecek	-9.30829
▁ihtiyacı	-9.30838
▁pro	-9.30858
▁Si	-9.30894
mın	-9.31019
şe	-9.31036
▁Bazı	-9.31133
▁üstünde	-9.3119
lenmiş	-9.31208
yü	-9.31225
▁Və	-9.31259
▁dışarı	-9.31287
▁oluş	-9.31331
▁olmasını	-9.3138
▁buradaki	-9.31401
ysa	-9.31401
▁ke	-9.31404
▁çıkıyor	-9.3142
▁söyley	-9.31536
▁sayıda	-9.31572
▁İnsan	-9.31581
▁duygu	-9.31595
▁Kuzey	-9.31704
▁bebek	-9.31706
▁derecede	-9.31719
▁görsel	-9.31766
▁Orada	-9.31818
▁açıklama	-9.31895
▁Güney	-9.31957
▁tanesi	-9.32051
▁if	-9.32071
▁içeri	-9.32094
▁gelme	-9.32111
▁suç	-9.32128
▁yeşil	-9.32195
▁davranış	-9.32279
▁Mesel	-9.3234
▁fi	-9.32654
▁yerinde	-9.32669
▁noktada	-9.32693
▁sanırım	-9.32716
una	-9.328
▁söyleme	-9.32806
üz	-9.32858
▁konusu	-9.32946
▁mesele	-9.32951
▁biçimde	-9.33111
anırım	-9.33114
▁ediyoruz	-9.33159
▁politika	-9.33167
▁hak	-9.33195
▁ku	-9.33273
sunu	-9.33299
diler	-9.33319
▁kutu	-9.33325
▁örneğin	-9.33412
nuz	-9.33511
▁yapıyoruz	-9.33624
sta	-9.33668
▁deneme	-9.33716
▁geçti	-9.33783
▁duvar	-9.3388
umuz	-9.33903
▁As	-9.33921
▁yaşlı	-9.33948
▁25	-9.3397
▁bitki	-9.34005
lenme	-9.34009
▁tə	-9.34034
▁Sen	-9.34093
▁bar	-9.34166
▁halde	-9.34194
▁bakım	-9.34256
▁ince	-9.34299
▁yön	-9.34382
▁tepe	-9.34443
cü	-9.34475
▁fro	-9.34525
dikleri	-9.34535
▁go	-9.34634
sen	-9.34645
▁iklim	-9.34686
▁Nasıl	-9.34687
ucu	-9.34835
▁gittim	-9.34876
▁We	-9.34879
▁işler	-9.34991
▁sp	-9.35076
manın	-9.3509
▁belir	-9.35157
▁kalp	-9.35163
▁seviye	-9.35324
▁çalışmak	-9.35378
▁tarih	-9.35403
▁Mu	-9.35404
▁aşırı	-9.35714
sü	-9.35753
▁bi	-9.35887
▁Ge	-9.35902
▁katı	-9.35909
▁dijital	-9.35955
▁yapılmış	-9.35981
▁şeylerin	-9.36059
▁Mi	-9.36076
▁yerel	-9.3616
▁Hatt	-9.36238
▁farkında	-9.36292
▁sar	-9.36366
unda	-9.36383
▁Tanrı	-9.3639
▁etkileşim	-9.36559
yse	-9.36567
eceğini	-9.36579
▁gü	-9.36585
▁zarar	-9.36586
siyle	-9.36609
▁hizmet	-9.36706
▁80	-9.3671
▁yaratmak	-9.3672
▁gerçekleştir	-9.36764
▁kişiler	-9.36841
ınız	-9.36961
rak	-9.36966
yon	-9.36984
▁ilgilen	-9.37043
▁Jo	-9.371
▁gizli	-9.37244
▁liste	-9.37265
▁erkekler	-9.37341
▁It	-9.37374
▁olduklarını	-9.37413
yorum	-9.37421
▁edebilir	-9.37505
▁olacaktır	-9.37519
▁altın	-9.37706
tra	-9.37755
▁hayır	-9.37793
▁biliyorsunuz	-9.37812
▁ürün	-9.37901
▁hayatın	-9.38009
▁his	-9.38012
▁şaşırtıcı	-9.38026
▁one	-9.38277
▁numara	-9.3828
▁sabah	-9.38281
mizin	-9.38283
▁cam	-9.38362
▁saniye	-9.38468
▁milyonlarca	-9.38567
▁cep	-9.3859
▁tutu	-9.38746
maz	-9.38776
▁gid	-9.38818
▁kaynağı	-9.38919
ünün	-9.38922
▁çocukları	-9.38945
▁etkili	-9.38971
▁zamanlarda	-9.39014
▁yaklaş	-9.39096
▁dönü	-9.39182
▁olmuş	-9.393
▁topluluk	-9.39343
▁kişinin	-9.39381
▁balık	-9.3943
▁evrim	-9.39486
diniz	-9.39546
ana	-9.39641
▁başla	-9.39746
▁site	-9.39763
▁edilmiş	-9.39909
▁Böyle	-9.39984
▁dışı	-9.40012
H	-9.40046
▁çeşitli	-9.40077
▁gördüğümüz	-9.40136
▁kendine	-9.40168
▁Baş	-9.40178
▁bilər	-9.40221
▁gözlem	-9.40334
acağını	-9.40359
ect	-9.40424
▁sonucu	-9.40451
▁sağlayan	-9.40504
▁dayan	-9.40554
▁gösteren	-9.40562
▁dev	-9.40597
▁bitir	-9.40644
▁amacı	-9.40696
▁oran	-9.4075
▁azında	-9.40751
▁Va	-9.4077
▁dön	-9.40854
▁davran	-9.40871
▁işle	-9.40898
▁bununla	-9.40982
▁gözü	-9.41026
▁Yap	-9.41113
mekte	-9.41133
▁istedim	-9.41141
▁düş	-9.41167
▁Onu	-9.41188
luğu	-9.41206
▁etkisi	-9.41449
▁açısından	-9.41511
gen	-9.4155
▁pe	-9.41562
▁Ara	-9.41651
medi	-9.41686
▁adında	-9.41889
▁yüzünden	-9.42059
▁insanlarla	-9.42228
▁istiyor	-9.42249
▁ilham	-9.42287
abilmek	-9.42299
▁söylen	-9.42462
▁verdik	-9.42471
▁rol	-9.42541
▁adlandır	-9.42555
▁200	-9.42597
raf	-9.42739
▁Bi	-9.42787
larımızın	-9.42787
▁durumu	-9.42811
▁Pa	-9.42932
▁dans	-9.42949
▁sanki	-9.42959
imizi	-9.42997
▁like	-9.43042
▁teşekkürler	-9.43046
▁organ	-9.43052
▁Ki	-9.43148
▁merkez	-9.43369
▁Birkaç	-9.43375
▁kırmızı	-9.43401
▁ülkeler	-9.43536
ışı	-9.43639
nızda	-9.43648
▁bekle	-9.4365
▁mesela	-9.43653
▁yük	-9.43681
ight	-9.43753
lığ	-9.43914
▁per	-9.43959
▁hastane	-9.43961
larım	-9.43988
kçe	-9.44011
▁başında	-9.44072
▁arkadaşım	-9.44078
▁olun	-9.44158
▁yaratıcı	-9.4421
madı	-9.44261
▁lo	-9.44331
imizin	-9.4441
▁alet	-9.44654
▁ex	-9.44816
▁biyo	-9.4495
yoruz	-9.45006
ow	-9.45018
dıkları	-9.45033
▁sayısı	-9.45049
▁ettiği	-9.45067
▁san	-9.45114
ası	-9.45123
▁git	-9.45143
ff	-9.45182
▁renk	-9.45277
▁işlem	-9.45312
▁hükümet	-9.45326
▁our	-9.45385
mesini	-9.45408
▁aldık	-9.45449
▁Batı	-9.45463
▁duyu	-9.45527
▁ortada	-9.45578
▁ekran	-9.45653
▁anlamda	-9.45702
ther	-9.45774
ində	-9.45797
▁beceri	-9.45866
ıyorsunuz	-9.4602
▁değilim	-9.46027
miştim	-9.46062
▁esas	-9.46068
▁bilmiyor	-9.46273
▁Na	-9.46424
▁İyi	-9.46437
▁kalk	-9.46497
▁av	-9.4664
▁yüksel	-9.46687
▁tercih	-9.46732
ans	-9.46752
▁istiyoruz	-9.46813
▁kullanmak	-9.46852
▁yaptıkları	-9.46965
▁Hiç	-9.47007
▁laboratuvar	-9.47017
▁teknik	-9.47029
▁üçüncü	-9.47037
▁önünde	-9.47052
▁merkezi	-9.4738
men	-9.47404
▁dolaş	-9.47404
▁Ev	-9.47422
▁geçmiş	-9.47429
▁kendilerini	-9.47446
▁oranı	-9.47523
▁ucuz	-9.47552
▁amaç	-9.47569
mizde	-9.47626
▁akıllı	-9.47669
▁yapabiliriz	-9.47707
nize	-9.47751
dy	-9.47876
▁çaba	-9.47879
▁vi	-9.4788
▁İkinci	-9.47916
▁göstereceğim	-9.47947
kleri	-9.4796
▁yıllar	-9.47972
▁karbon	-9.48167
▁kullanıl	-9.48186
eyim	-9.48308
▁dalga	-9.48349
▁Dolayısı	-9.48454
▁hesap	-9.48489
lerim	-9.485
▁ateş	-9.48504
▁yoksa	-9.48533
▁önceki	-9.48622
ğimiz	-9.48645
▁mikro	-9.48672
ılması	-9.48834
▁Kim	-9.48858
▁pi	-9.48862
▁tur	-9.48902
amaz	-9.48975
▁uğraş	-9.49023
▁no	-9.49029
ebileceği	-9.4903
▁hikâye	-9.49035
dığınız	-9.49162
▁oray	-9.49267
▁form	-9.49277
▁kesin	-9.49365
▁getirmek	-9.49467
▁Ar	-9.49571
▁olanlar	-9.49594
▁hayvanlar	-9.49637
▁inanıyorum	-9.49673
▁Ye	-9.49875
▁mal	-9.49904
▁mə	-9.49912
▁yaşan	-9.50019
▁içindeki	-9.50061
▁süreç	-9.50068
▁satın	-9.5016
▁umut	-9.502
muyor	-9.50241
lanıyor	-9.50309
▁çiz	-9.50328
▁gerçekte	-9.50358
lardır	-9.50442
▁görüyor	-9.5048
▁evren	-9.50498
▁Go	-9.50527
▁has	-9.5062
▁tutku	-9.50628
▁kod	-9.50653
maq	-9.50695
lerdir	-9.50767
▁gerektiği	-9.50849
▁anlam	-9.50877
▁po	-9.50972
▁bulduk	-9.50972
▁bilimsel	-9.50976
▁Tek	-9.50981
▁anlaşıl	-9.51042
cılar	-9.51118
▁70	-9.51122
▁get	-9.51264
▁Bunları	-9.51268
▁yazma	-9.51351
maktadır	-9.51363
mektedir	-9.5138
▁senin	-9.514
▁denge	-9.51423
iliyor	-9.51432
▁olduğundan	-9.51449
▁ölç	-9.51489
yıp	-9.5153
gin	-9.51562
▁tarz	-9.51571
▁w	-9.51581
F	-9.51638
▁16	-9.5168
▁uçak	-9.51706
▁gaz	-9.51706
▁konuşmak	-9.51858
▁arı	-9.51879
▁budur	-9.51947
▁akıl	-9.5198
▁Video	-9.51989
▁garip	-9.51989
umu	-9.52014
▁kilo	-9.52021
mayan	-9.52022
▁günlük	-9.52091
▁yapıyorlar	-9.52103
▁demokrasi	-9.52289
▁karanlık	-9.52291
▁yüzlerce	-9.52291
▁Hepimiz	-9.52293
▁Ja	-9.52467
▁duruyor	-9.52518
▁söyler	-9.52548
▁elbette	-9.52591
▁korkunç	-9.52591
▁had	-9.52619
▁sanatçı	-9.52632
▁seviyorum	-9.5264
▁Kar	-9.52666
▁problemi	-9.52697
▁kere	-9.52709
▁Gerçek	-9.52729
▁sür	-9.52746
nce	-9.52758
cık	-9.5282
▁know	-9.52893
▁just	-9.52893
▁eylem	-9.529
▁arama	-9.52923
▁Lo	-9.52967
imin	-9.52975
▁sağlıklı	-9.53002
▁söylediği	-9.53116
land	-9.5315
▁Gülüş	-9.53195
▁teori	-9.53218
▁Biraz	-9.53289
▁gitmek	-9.5332
seydi	-9.53351
▁mil	-9.53377
▁fikirler	-9.53385
▁kendimizi	-9.53442
▁İnternet	-9.535
▁bilmiyorum	-9.53588
▁out	-9.53681
▁Y	-9.53768
▁Çoğu	-9.53805
▁W	-9.53887
ımın	-9.53894
liyor	-9.5394
▁bilir	-9.53969
▁kural	-9.54002
ək	-9.54009
▁yoktur	-9.54109
▁endüstri	-9.5411
▁zeki	-9.54114
▁Tabii	-9.54178
▁dağ	-9.54263
laştır	-9.54275
▁giden	-9.54299
▁hücreleri	-9.5436
ron	-9.54423
▁herşey	-9.54438
▁Pe	-9.54455
▁sevgi	-9.54457
▁x	-9.54481
▁edə	-9.54507
▁nerey	-9.54577
ac	-9.54597
▁aşama	-9.54635
▁oldum	-9.5464
▁Ak	-9.54832
▁okuy	-9.54836
▁man	-9.54876
▁güvenli	-9.54889
raya	-9.5499
▁kıl	-9.54998
▁değişik	-9.55065
▁Onları	-9.55118
▁baba	-9.55165
▁miyiz	-9.55169
▁nesil	-9.55231
▁çıkma	-9.55365
▁90	-9.55438
▁yaratma	-9.55441
▁gösterdi	-9.55578
▁sorunu	-9.55631
▁gitti	-9.55652
▁alakalı	-9.55654
▁rakam	-9.55654
▁doku	-9.55673
nün	-9.55705
▁açıdan	-9.5572
▁gül	-9.55742
▁bunlardan	-9.55746
cause	-9.5576
▁mar	-9.55814
▁gelecekte	-9.55842
▁rahat	-9.5596
▁döndü	-9.56129
ebilme	-9.56219
ji	-9.56243
▁geldiği	-9.5626
▁indir	-9.56435
▁üzerindeki	-9.56586
▁ila	-9.56588
▁modern	-9.56592
▁buluş	-9.56631
▁who	-9.56643
▁uyan	-9.56674
ndeki	-9.56687
▁ter	-9.568
▁olmayacak	-9.56956
▁türlü	-9.56967
▁hayatı	-9.56996
▁konuşuyor	-9.57047
tal	-9.57147
▁edilen	-9.57153
▁Gör	-9.57168
▁köpek	-9.57221
▁hissed	-9.57225
van	-9.57277
▁sonsuz	-9.57326
▁başlama	-9.57368
▁eve	-9.5747
▁belirli	-9.57616
▁buldum	-9.57629
ize	-9.57693
▁rahatsız	-9.57836
▁etrafında	-9.57842
▁people	-9.57855
▁piyasa	-9.57855
▁icat	-9.57858
▁geleneksel	-9.57874
▁motor	-9.57887
ment	-9.57898
▁sinyal	-9.57907
▁üret	-9.58045
▁olduğunda	-9.58103
liğini	-9.58161
▁cevabı	-9.58173
▁dile	-9.58176
▁birbirin	-9.5818
▁ortam	-9.58363
landır	-9.58392
ılır	-9.58422
▁sağladı	-9.58451
▁sefer	-9.58476
▁süper	-9.58498
ğu	-9.58517
▁çalışır	-9.58537
ayım	-9.58594
▁anlay	-9.58616
lüğü	-9.58641
▁önemlisi	-9.58662
▁kaya	-9.58686
▁dönüştür	-9.58719
▁li	-9.58733
lamaya	-9.58823
▁ilerleme	-9.58829
▁hakkı	-9.58874
▁up	-9.58881
▁bulunduğu	-9.58974
adlı	-9.59024
▁düşünür	-9.59084
ndaki	-9.59166
les	-9.59345
▁pat	-9.59369
▁park	-9.59393
malı	-9.59476
▁aktar	-9.59491
▁Tam	-9.59502
▁yet	-9.59538
▁deyil	-9.59552
leyici	-9.59556
▁öte	-9.59564
lma	-9.59596
▁yeri	-9.59627
▁tasarımcı	-9.5968
▁bizler	-9.59681
▁sorular	-9.59778
▁Pekala	-9.59782
▁kayıt	-9.59784
inizi	-9.59806
▁girdi	-9.59815
ram	-9.59908
▁istediğimiz	-9.59925
ies	-9.59938
nizde	-9.59973
yordu	-9.59988
▁kom	-9.60039
▁John	-9.60106
iyorsunuz	-9.60232
▁isteme	-9.60246
▁sırada	-9.60275
▁hər	-9.60276
▁ad	-9.60371
▁sağlamak	-9.6046
miyorum	-9.60464
▁bakarsa	-9.60479
▁keşfed	-9.60556
▁tarafı	-9.6061
▁ardında	-9.60626
▁ülkede	-9.6071
▁yetiştir	-9.60735
▁genetik	-9.60759
üş	-9.6076
▁örneği	-9.60786
▁You	-9.609
▁Çocuk	-9.6097
▁anlamaya	-9.61067
▁Burası	-9.61112
cak	-9.61147
memiz	-9.61166
▁parmak	-9.61218
▁taşı	-9.61255
rik	-9.6129
▁Ri	-9.61315
▁verin	-9.61345
▁olmaz	-9.61356
▁Birçok	-9.61415
▁bölüm	-9.61433
▁kısım	-9.61558
▁otur	-9.61561
▁çocuğu	-9.61592
▁yazılım	-9.61616
▁öğrenciler	-9.6171
▁ediyorlar	-9.61722
cek	-9.61753
▁insanı	-9.61829
▁boyut	-9.61847
▁yapmayı	-9.61874
▁endişe	-9.61926
hr	-9.61961
▁geldiğini	-9.61987
▁gerçeği	-9.62029
▁ikisi	-9.62044
▁sekiz	-9.62081
▁verimli	-9.62085
▁Mən	-9.62122
▁genellik	-9.62158
▁yaparken	-9.62175
▁ruh	-9.62218
▁yönet	-9.62291
ırlar	-9.62374
▁sistemin	-9.62431
▁yaşadı	-9.62468
▁anı	-9.62486
▁değiştirmek	-9.62493
▁gösteri	-9.62523
▁duyma	-9.62585
▁annem	-9.6265
▁dahi	-9.62679
layıcı	-9.62709
ted	-9.6273
▁teşvik	-9.62742
▁ziyaret	-9.62742
▁İnsanların	-9.62809
ümüz	-9.62836
▁doğu	-9.6287
▁çalışıyoruz	-9.6289
larınız	-9.62914
▁ada	-9.63083
▁yapmamız	-9.63124
▁yana	-9.63174
sidir	-9.63318
mızın	-9.63505
▁yağ	-9.63522
▁sahibiz	-9.63711
▁yık	-9.63719
▁hayatını	-9.63729
▁olağanüstü	-9.6375
▁politik	-9.63752
ğü	-9.63769
▁siyah	-9.63791
▁Fi	-9.63835
▁hastalığı	-9.63903
tür	-9.63942
iyordu	-9.63988
▁ge	-9.64004
▁geçme	-9.64077
▁gıda	-9.64089
▁14	-9.64128
▁sırasında	-9.64267
▁önem	-9.6427
likle	-9.64278
▁modeli	-9.64295
▁hız	-9.64324
▁ortasında	-9.64351
▁odaklan	-9.64355
▁süreci	-9.64374
▁toprak	-9.64443
▁sessiz	-9.64457
▁Or	-9.64479
ılıyor	-9.64479
▁düşünmeye	-9.64491
▁In	-9.64493
▁halinde	-9.64607
▁dal	-9.64638
▁çocuğun	-9.6471
▁mor	-9.64716
▁yarısı	-9.64745
▁gösterme	-9.64789
▁ettiğimiz	-9.64902
▁Po	-9.64948
diğinde	-9.64948
▁fazlası	-9.64959
ft	-9.64967
▁öğretmen	-9.6509
▁vücut	-9.65107
▁yağmur	-9.65111
▁şehrin	-9.65144
indeki	-9.65145
▁13	-9.65152
qu	-9.65177
▁kurtul	-9.65268
ara	-9.65403
▁getirdi	-9.65483
▁davet	-9.65492
▁benziyor	-9.65493
▁gittiği	-9.65511
▁değiş	-9.65573
▁köy	-9.65648
▁uzman	-9.65798
▁ikna	-9.65811
▁düşündük	-9.65863
▁sıcak	-9.65933
▁beden	-9.65987
▁kavram	-9.66002
ğini	-9.6602
▁üretim	-9.66113
▁tecrübe	-9.66138
▁taş	-9.66222
arı	-9.66231
lendi	-9.66324
▁kitabı	-9.66348
kal	-9.66426
▁Beni	-9.6646
▁yönlendir	-9.66461
ev	-9.66524
▁Kız	-9.66591
we	-9.66594
▁yaparak	-9.66606
▁katkı	-9.66665
▁gəl	-9.66778
lıkla	-9.66805
mühendis	-9.66808
mer	-9.66865
▁ışığı	-9.6706
▁televizyon	-9.67179
▁böcek	-9.67183
▁olmayı	-9.67208
▁çekici	-9.67297
▁yıldız	-9.67392
ırken	-9.67401
▁yazar	-9.67413
mayacak	-9.67425
if	-9.67477
ydım	-9.67533
▁yoğun	-9.67537
▁es	-9.67565
mıştım	-9.67584
ib	-9.67612
▁sok	-9.67618
bar	-9.67638
▁geriye	-9.67671
▁demektir	-9.67682
▁uydu	-9.67683
▁oy	-9.6769
▁taşın	-9.67738
▁günü	-9.67838
▁zihin	-9.6788
▁erken	-9.67918
▁edildi	-9.67957
▁yeterin	-9.68047
▁saldırı	-9.68136
acaktır	-9.68151
▁ni	-9.68159
▁sonuçlar	-9.68169
lığını	-9.6817
ent	-9.68213
▁yüzyıl	-9.68221
▁yaygın	-9.68232
▁gemi	-9.68323
▁year	-9.68372
▁belirt	-9.68382
▁isim	-9.68407
▁con	-9.68464
ut	-9.68542
▁yorum	-9.68546
▁deri	-9.68571
▁sey	-9.68721
▁Kur	-9.68729
luyor	-9.68758
▁Vi	-9.68778
nca	-9.68822
ers	-9.68889
▁üz	-9.689
▁Doğru	-9.6894
▁Geçen	-9.6894
▁kimyasal	-9.6896
▁hi	-9.68975
▁gördü	-9.69017
▁onunla	-9.69036
▁istedi	-9.69065
tığımız	-9.69077
▁araçlar	-9.69081
▁Demek	-9.69096
gan	-9.69129
▁kenar	-9.69171
▁fare	-9.69176
var	-9.69199
▁Gi	-9.69204
▁ağır	-9.69224
▁some	-9.69258
▁Chris	-9.69296
▁strateji	-9.69296
▁But	-9.69377
syon	-9.69407
▁getiriyor	-9.69429
▁açıkça	-9.69441
▁burda	-9.69547
▁olmamız	-9.69632
▁sıfır	-9.69653
▁zeka	-9.69655
▁edir	-9.69749
▁by	-9.69764
▁toplam	-9.69874
izm	-9.69882
▁bulunma	-9.69907
▁görürsünüz	-9.70014
ığı	-9.70023
▁Öyle	-9.7004
▁kendime	-9.70119
▁çalışıyorum	-9.70154
▁başa	-9.70167
▁doktor	-9.70174
▁programı	-9.70187
so	-9.70197
▁yayıl	-9.70203
▁bağlan	-9.70224
▁sergi	-9.70391
▁olduğumu	-9.70399
▁kadınların	-9.70404
▁boyutlu	-9.70442
ğim	-9.70472
▁kullanıyor	-9.705
▁Ay	-9.70518
▁kapa	-9.70527
yacağım	-9.70539
makta	-9.70566
lerimi	-9.70659
▁aş	-9.70662
duğu	-9.70671
eceği	-9.70685
▁ş	-9.70688
▁dava	-9.70688
▁koru	-9.70743
▁şans	-9.70752
▁sonrasında	-9.70759
▁when	-9.70793
▁adet	-9.70826
▁polis	-9.70847
madan	-9.70909
▁hücreler	-9.70947
abileceği	-9.70965
▁öldür	-9.7101
▁Yüz	-9.71013
▁qu	-9.71042
▁hissetme	-9.71242
▁ayar	-9.71258
mle	-9.71278
▁Ona	-9.7128
▁ölçü	-9.71437
▁Hayat	-9.71561
miştir	-9.71667
▁noktası	-9.7173
▁şirketler	-9.71849
▁17	-9.71863
▁birşeyler	-9.71901
▁yabancı	-9.71907
▁telefonu	-9.7193
▁görür	-9.72006
▁hepsini	-9.72065
lərin	-9.72074
▁ülkelerde	-9.72244
▁arazi	-9.72288
▁adını	-9.72332
ebilirim	-9.72371
▁çalışmaya	-9.72408
▁olduğunuz	-9.72431
▁Mü	-9.72487
leşmiş	-9.72531
▁obje	-9.72558
▁Doğu	-9.72579
▁malzeme	-9.72642
▁nöron	-9.72779
▁işçi	-9.72789
▁buz	-9.72831
tığını	-9.72842
▁ger	-9.72865
▁güvenlik	-9.72885
ous	-9.72905
▁seyahat	-9.72926
ard	-9.72965
▁tarihi	-9.73026
▁devre	-9.7305
▁beyni	-9.73102
lerimizin	-9.73121
aman	-9.73274
▁Tabi	-9.73284
▁tehdit	-9.73296
▁kaybol	-9.73329
▁düşür	-9.7333
▁fil	-9.7335
ves	-9.73353
lerinizi	-9.73378
▁time	-9.73389
▁getirme	-9.73407
▁babam	-9.73555
▁tehlikeli	-9.73559
▁whi	-9.73581
▁kare	-9.73652
▁pahalı	-9.73669
ble	-9.73701
▁edici	-9.73708
▁adına	-9.73711
hane	-9.73736
▁imkansız	-9.7374
▁Buradaki	-9.7374
▁nesne	-9.73809
iği	-9.73827
▁par	-9.73844
▁girme	-9.73888
landırma	-9.73903
▁miktarda	-9.73936
▁kuru	-9.74048
▁dik	-9.74074
▁kaldı	-9.7409
▁boy	-9.74096
▁Adam	-9.74153
zer	-9.74168
▁çalıştığım	-9.74227
▁hızla	-9.74245
▁benze	-9.74265
▁Bilim	-9.74295
rü	-9.74328
▁fiyat	-9.74385
▁would	-9.74416
▁Öyleyse	-9.74425
▁analiz	-9.74426
gun	-9.74444
▁verdiği	-9.74461
▁eğlenceli	-9.74464
▁nefes	-9.74467
▁olduk	-9.74513
▁yollar	-9.7452
▁Du	-9.74539
emez	-9.7455
▁eriş	-9.74583
▁dokun	-9.74625
▁katıl	-9.74641
▁suyu	-9.74714
lardaki	-9.74746
▁fabrika	-9.74792
▁sorunları	-9.74851
▁yaklaşım	-9.74868
leştirme	-9.74954
▁kalbi	-9.7498
ebileceğimiz	-9.75029
▁pre	-9.75069
▁besle	-9.75084
▁sektör	-9.7517
▁saygı	-9.75174
▁tarım	-9.75199
▁gücünü	-9.75474
▁parti	-9.75698
▁etmiş	-9.75728
ladık	-9.75754
art	-9.75768
▁sonu	-9.7584
▁anlatmak	-9.7587
▁rüzgar	-9.75928
▁muazzam	-9.75929
ınca	-9.75933
▁Hasta	-9.75979
▁bildiğimiz	-9.76023
▁Kal	-9.76054
▁cok	-9.76079
▁yüzü	-9.76118
▁ede	-9.76161
evi	-9.76179
▁şa	-9.76189
▁geçerli	-9.76204
▁kurum	-9.76264
▁bahsed	-9.76299
▁tasarruf	-9.7631
larca	-9.76321
▁azalt	-9.76341
▁Sizin	-9.76402
▁gerekiyordu	-9.76643
▁yaşındaki	-9.7665
▁bahçe	-9.767
posta	-9.76747
▁kör	-9.7678
▁Sonuç	-9.76907
▁imkan	-9.76994
▁performans	-9.77078
▁akşam	-9.77078
▁bağımlı	-9.77081
▁dis	-9.77088
▁çapında	-9.77107
▁kurma	-9.77193
dığında	-9.77206
fet	-9.77214
▁düşünmek	-9.77238
mıştır	-9.77272
▁Bazen	-9.77465
▁kopya	-9.77468
▁hav	-9.77503
▁olduğumuzu	-9.77518
fer	-9.77543
▁öğrendim	-9.77593
▁adamı	-9.7769
▁ürünü	-9.77774
▁önün	-9.7779
kat	-9.77844
▁makale	-9.77854
▁yapmış	-9.77881
▁kamu	-9.779
▁herşeyi	-9.78227
▁organizasyon	-9.78241
▁ederek	-9.78262
▁ağaç	-9.7831
rit	-9.78376
▁etkin	-9.78453
▁ettiler	-9.78469
▁uğra	-9.78492
▁alanda	-9.78505
▁halk	-9.78615
▁bisiklet	-9.78631
▁Güneş	-9.78632
▁işbirliği	-9.78632
▁bulunuyor	-9.78654
▁Yine	-9.78692
liler	-9.78755
▁sana	-9.78772
▁seks	-9.78929
süz	-9.78976
▁kısmını	-9.78989
ımızı	-9.7899
▁çalıştık	-9.78999
▁sanal	-9.79027
▁sokak	-9.79042
je	-9.79085
▁okula	-9.79086
▁alış	-9.79099
▁burası	-9.79105
▁fo	-9.79292
düğü	-9.79304
▁gaye	-9.79317
▁ilə	-9.79341
▁görə	-9.79373
▁olmaları	-9.79374
rek	-9.79405
▁barış	-9.79435
▁elimizde	-9.79467
ting	-9.79503
,	-9.79505
▁sağlığı	-9.79614
▁kapat	-9.79637
▁onlarla	-9.79705
▁neyse	-9.7973
▁azal	-9.79737
▁sağlayacak	-9.79775
nızın	-9.79789
▁olmadı	-9.79998
▁bakma	-9.80068
▁oku	-9.80143
▁mahalle	-9.8021
▁look	-9.8023
▁kay	-9.80246
▁gor	-9.8033
▁uçuş	-9.80363
net	-9.80403
▁men	-9.80445
▁24	-9.80677
▁özü	-9.80685
▁mimari	-9.80696
▁t	-9.80749
larınızı	-9.80784
▁biyolojik	-9.80836
▁almaya	-9.80838
▁gö	-9.80842
örü	-9.80878
▁karşılaştır	-9.80967
▁müthiş	-9.81007
▁qədər	-9.81007
▁reklam	-9.81014
▁bakteri	-9.81124
▁çekti	-9.81141
▁Br	-9.81274
▁sıkı	-9.81299
▁verileri	-9.81333
▁kaçır	-9.81345
abileceğimiz	-9.81353
▁sap	-9.81375
▁sürdür	-9.81403
▁değişikliği	-9.81409
▁alanlar	-9.81521
▁spor	-9.81531
▁isteyen	-9.8154
▁dönme	-9.81563
▁soğuk	-9.81564
▁boya	-9.81677
▁çıkart	-9.81811
▁tablo	-9.81812
▁kağıt	-9.81812
▁kuvvet	-9.81984
▁hü	-9.82036
▁döv	-9.82038
▁yaşay	-9.82048
lıyız	-9.82072
▁arkadaşlarım	-9.82104
▁vatandaş	-9.82217
muştu	-9.82217
▁bomba	-9.8222
▁göreceksiniz	-9.82224
▁ceza	-9.82225
▁sordu	-9.82267
▁salgın	-9.82283
▁kendimiz	-9.82295
gel	-9.8231
▁parçaları	-9.82395
▁öğrenmek	-9.8241
▁devrim	-9.82453
lanması	-9.82511
▁diş	-9.82534
əl	-9.82616
▁çöp	-9.82624
▁kilometre	-9.82626
▁ayı	-9.82643
▁Devletler	-9.8267
▁ettiğim	-9.82678
▁uyum	-9.82761
▁hali	-9.82825
▁düşündü	-9.82862
▁kart	-9.82956
▁HIV	-9.83032
▁mesafe	-9.83032
▁bağımsız	-9.83032
▁standart	-9.83034
▁başta	-9.83069
▁Sta	-9.83147
▁tehlike	-9.83152
▁çeki	-9.83167
▁Wi	-9.83203
▁veriler	-9.83247
▁çarp	-9.83297
ld	-9.83313
ünde	-9.83328
▁şüphe	-9.83408
▁gördüğüm	-9.83417
▁zayıf	-9.83442
▁Küçük	-9.83442
▁anahtar	-9.83442
▁çatışma	-9.83446
▁buçuk	-9.83446
▁makina	-9.83448
hu	-9.8345
▁Hem	-9.83477
▁arası	-9.8354
▁saç	-9.83564
▁etrafı	-9.83583
ımda	-9.8362
▁benimle	-9.83692
▁bakıyor	-9.83695
▁başarısız	-9.83703
▁geçiyor	-9.83714
▁olacağı	-9.83728
▁To	-9.83736
▁buldu	-9.83748
▁benzeri	-9.83793
▁tuhaf	-9.83853
▁yakıt	-9.83879
▁Dr	-9.84028
▁kum	-9.84045
▁boyu	-9.84072
ity	-9.84133
▁birine	-9.84177
▁Pi	-9.84202
▁ödeme	-9.84229
▁Par	-9.84233
▁çalıştım	-9.84233
▁buydu	-9.84264
▁iddia	-9.84266
▁İngiltere	-9.84266
▁uzan	-9.84297
▁firma	-9.84313
▁değiştirme	-9.84354
▁belə	-9.84465
▁hepimizin	-9.84552
▁Sonun	-9.84579
saydı	-9.84676
▁seçenek	-9.84681
▁think	-9.84681
▁Hiçbir	-9.84698
▁düştü	-9.84706
▁çoğunu	-9.8475
▁geçiş	-9.84753
manız	-9.84758
▁Thi	-9.84824
har	-9.84913
▁kuruluş	-9.84952
▁hap	-9.84988
▁km	-9.85032
birine	-9.85075
▁yeteneği	-9.85098
W	-9.85104
▁ölü	-9.8511
abilirim	-9.85114
▁kanseri	-9.85139
ırsınız	-9.85232
▁görmeye	-9.85243
▁şansı	-9.85287
▁Ju	-9.85293
birimiz	-9.8536
▁fayda	-9.85372
▁sorumlu	-9.85374
▁verilen	-9.85387
▁yemeği	-9.85404
▁lider	-9.85444
▁them	-9.85511
▁nefret	-9.85516
▁vur	-9.85528
▁aklım	-9.85557
ğın	-9.85591
▁ofis	-9.85626
▁dök	-9.85629
▁Gel	-9.85678
▁şeklinde	-9.8569
▁sordum	-9.85699
▁yerleştir	-9.85704
▁uyar	-9.8573
▁doğum	-9.85745
▁oynama	-9.85801
▁görünen	-9.85824
▁geleceği	-9.85857
▁suyun	-9.85886
▁sorunlar	-9.85946
larındaki	-9.85971
▁değiller	-9.85979
▁kullanıcı	-9.86001
▁birleştir	-9.86066
▁biyoloji	-9.86117
▁sonuçları	-9.86242
▁banka	-9.86272
▁grafik	-9.86358
▁protein	-9.86364
nıza	-9.86404
▁Car	-9.86469
▁İngilizce	-9.86473
ven	-9.86533
▁ağı	-9.86608
▁kullanılan	-9.86615
ebilmek	-9.86672
oz	-9.86744
▁bakmak	-9.86751
▁keşif	-9.86782
üne	-9.86805
▁İç	-9.86826
▁dergi	-9.86841
▁yapabilirsiniz	-9.86926
ds	-9.86955
▁sıradan	-9.87058
▁büyüdü	-9.87114
▁farklılık	-9.87154
▁hesaplama	-9.87157
▁Hadi	-9.87158
▁500	-9.87176
▁uygulan	-9.872
▁Elbette	-9.87208
▁Şöyle	-9.87208
acaksınız	-9.87208
▁kaybed	-9.87283
▁Bar	-9.87302
ümü	-9.8734
▁çıkardı	-9.87498
▁giriş	-9.87506
▁denedi	-9.8758
sizlik	-9.87594
maları	-9.87601
▁kullanır	-9.87616
▁dediler	-9.87622
▁kullandığı	-9.8763
▁sürdürülebilir	-9.87635
▁istediğiniz	-9.87654
▁miktar	-9.87675
▁hissi	-9.87677
mıyorum	-9.87697
▁Amerikalı	-9.8775
▁kaza	-9.87781
▁değiştirdi	-9.87948
▁dediği	-9.87984
ilmesi	-9.88089
▁durdur	-9.88094
▁ata	-9.88103
▁Davi	-9.88128
▁hikayeler	-9.88347
▁bıraktı	-9.88401
▁yürü	-9.88406
bilir	-9.88412
▁saf	-9.88437
▁hafif	-9.88495
▁Harika	-9.88496
▁zorundayız	-9.88574
▁dönüşüm	-9.88672
▁terk	-9.88722
▁geliştirme	-9.8874
▁boz	-9.88786
larımı	-9.88843
lıyoruz	-9.88843
▁Ses	-9.88869
▁gez	-9.88946
▁duygusal	-9.88982
▁ton	-9.89053
▁sizinle	-9.89065
▁önemlidir	-9.89068
▁sü	-9.89095
▁olabileceği	-9.89124
▁sevdiğim	-9.89144
▁your	-9.8916
bra	-9.8917
lanır	-9.89207
▁gazete	-9.89247
nə	-9.89346
▁ünlü	-9.89376
▁here	-9.8938
▁Asya	-9.89387
▁balığı	-9.89459
layarak	-9.89515
▁değiliz	-9.89564
▁un	-9.8963
▁matematik	-9.89719
▁yenilik	-9.89729
ilir	-9.89755
lerdeki	-9.89779
▁plastik	-9.898
menin	-9.898
ladım	-9.89816
▁etiket	-9.89822
▁kamp	-9.89826
▁giderek	-9.89858
▁yapıldı	-9.89891
▁üstüne	-9.8992
inci	-9.89928
▁sesleri	-9.89936
▁kü	-9.89997
▁hə	-9.90027
▁Ah	-9.90038
lılar	-9.90089
▁eyalet	-9.90238
▁Laugh	-9.90238
▁Afganistan	-9.90239
▁bekliyor	-9.9024
▁evrenin	-9.90254
▁değerli	-9.90279
▁asker	-9.90344
▁were	-9.90346
▁V	-9.90438
▁başı	-9.90451
▁anlaşma	-9.90514
▁duru	-9.9053
▁aktivite	-9.90679
▁oyuncu	-9.90765
▁yolunu	-9.90778
▁komşu	-9.90793
▁maliyet	-9.90846
▁sağlar	-9.90862
düğünü	-9.90885
▁isə	-9.90928
▁fotoğrafı	-9.90948
mis	-9.90951
▁özgür	-9.90964
nizin	-9.90991
▁tüket	-9.91016
▁keşfetti	-9.91078
▁did	-9.91121
▁maymun	-9.91126
▁yolculuk	-9.91129
▁araştır	-9.91169
▁oluşturuyor	-9.91172
▁tutar	-9.91172
▁alanında	-9.91172
▁ödül	-9.91189
▁mak	-9.91211
▁batı	-9.91284
▁yapacağı	-9.91316
▁patlama	-9.91362
▁öğrendik	-9.91374
▁yapıyorum	-9.91438
▁yolda	-9.91547
▁sabit	-9.91567
▁olanı	-9.91611
▁gelişmiş	-9.91638
▁Har	-9.91667
▁yönetim	-9.91714
▁hatırla	-9.91716
▁kanun	-9.9185
▁sağlama	-9.91885
▁ameliyat	-9.92012
▁hassas	-9.92015
gün	-9.92016
▁ham	-9.92054
▁köşe	-9.92173
▁yerler	-9.92193
▁durma	-9.92243
altı	-9.92257
▁etmeyi	-9.92356
kop	-9.92358
tme	-9.92422
▁kahraman	-9.92461
▁mekanizma	-9.92463
▁delik	-9.92503
layacak	-9.92504
▁inanma	-9.92577
▁şeyden	-9.92597
▁yay	-9.92603
▁net	-9.92606
▁sığ	-9.92614
▁geldik	-9.92624
leşti	-9.92636
rin	-9.92665
▁istediği	-9.9267
▁dağıt	-9.92731
liydi	-9.92746
▁itibar	-9.92912
▁atom	-9.92946
▁yaptığını	-9.92956
▁paylaşmak	-9.92996
ime	-9.93018
▁yapay	-9.9303
▁kitle	-9.93046
▁thing	-9.93058
▁toplumun	-9.93184
uldu	-9.93192
▁açtı	-9.93313
▁nevi	-9.93319
▁Birincisi	-9.93335
▁koş	-9.9334
▁Gördüğünüz	-9.93363
▁önümüzde	-9.93372
▁toplantı	-9.93441
▁detay	-9.93454
▁edip	-9.93536
▁hissettiği	-9.9356
▁sarı	-9.9356
▁olabileceğini	-9.93648
▁yaşadığı	-9.93676
▁Anne	-9.93759
▁servis	-9.93822
▁bulundu	-9.93911
niversitesi	-9.93912
rı	-9.93929
▁kor	-9.93943
lıyım	-9.93988
▁oynay	-9.94162
▁br	-9.94182
▁uluslararası	-9.94275
▁kemik	-9.94277
▁salon	-9.943
maktan	-9.94308
▁Bize	-9.94383
istik	-9.94403
▁oluşturmak	-9.94404
▁yaşamak	-9.94411
▁gerçeklik	-9.94526
▁mantıklı	-9.94533
ırdı	-9.94538
▁oyunu	-9.94547
▁dinle	-9.94576
▁değişti	-9.94577
amazsınız	-9.94588
liğinde	-9.94603
▁olmuştu	-9.94603
▁fizik	-9.94657
▁etkilen	-9.94682
▁türü	-9.94712
ydim	-9.94728
▁müşteri	-9.94733
▁görünür	-9.94782
▁but	-9.94789
▁bulut	-9.94792
leniyor	-9.94805
ırız	-9.94941
bet	-9.95
▁fikirleri	-9.95044
▁koku	-9.95121
▁ayakkabı	-9.95194
▁Okul	-9.95249
▁geçer	-9.95265
rma	-9.95278
▁yarış	-9.95307
▁tık	-9.95333
ilebilir	-9.95343
▁izley	-9.95425
▁arkadaşları	-9.95461
▁filmi	-9.95498
▁yarım	-9.95533
▁radyo	-9.95575
▁işleri	-9.95582
▁şeydir	-9.95595
▁karış	-9.95618
▁hepiniz	-9.95627
▁sürecin	-9.95651
▁birinci	-9.95725
▁meme	-9.95737
▁adamın	-9.95752
▁deli	-9.95851
▁dedik	-9.95919
bilme	-9.95923
▁değeri	-9.95949
▁yetişkin	-9.95956
dıklarını	-9.96108
▁Hepsi	-9.96115
▁galaksi	-9.96122
▁belge	-9.96123
▁siyasi	-9.96124
▁Eski	-9.96128
▁web	-9.9614
▁how	-9.96142
▁karınca	-9.96142
▁adalet	-9.96154
▁içer	-9.96181
▁çoğunlukla	-9.96186
dınız	-9.96246
wi	-9.96255
ja	-9.96377
▁inanç	-9.96429
▁kaynakları	-9.96507
▁istiyorlar	-9.96509
▁içi	-9.96523
ciler	-9.96541
▁want	-9.96599
▁ediyordu	-9.96667
▁Kan	-9.96741
▁tap	-9.96781
▁kullandık	-9.96783
▁verecek	-9.96858
meyecek	-9.96868
sən	-9.96872
▁şirketi	-9.96884
▁yola	-9.96945
▁gözleri	-9.97047
▁böyük	-9.97059
▁arzu	-9.97083
▁bireyler	-9.97084
▁hatırlıyorum	-9.97086
▁pr	-9.97108
ulmuş	-9.97123
▁Önce	-9.97155
▁yönel	-9.97252
▁har	-9.9726
▁taşıma	-9.97328
▁geldiğinde	-9.97344
▁olanak	-9.97361
▁olabilecek	-9.97425
▁Bilirsiniz	-9.97531
▁edebilirsiniz	-9.97608
▁bax	-9.9765
▁bilinen	-9.97652
cik	-9.97653
tic	-9.97674
▁bağış	-9.97685
▁diyorum	-9.97735
▁araçları	-9.97812
ğını	-9.97947
▁gu	-9.97948
▁öldü	-9.97973
▁altyapı	-9.98005
▁epey	-9.98005
▁sizlere	-9.98037
isi	-9.98073
kça	-9.98097
▁anlattı	-9.98241
▁besin	-9.98254
▁nüfus	-9.98267
▁Göz	-9.9827
▁kalıyor	-9.98287
▁ettir	-9.98357
lıq	-9.98363
▁artış	-9.98411
ladığımız	-9.98443
▁şeker	-9.98483
umun	-9.98485
düm	-9.98497
eceğiniz	-9.98536
▁fazlasını	-9.98564
ince	-9.98593
▁olasılık	-9.98602
▁tu	-9.98679
▁kültürü	-9.98736
▁Man	-9.9875
▁ölme	-9.98781
▁yaptığınız	-9.98812
▁karşılaş	-9.98817
meli	-9.98831
▁dokuz	-9.98876
şık	-9.98888
one	-9.98912
▁Mil	-9.98945
▁dağıl	-9.98956
lıydı	-9.98957
▁Londra	-9.98959
▁gurur	-9.9896
▁üretil	-9.99089
▁alacak	-9.99122
▁evde	-9.99138
▁toplama	-9.99179
▁Onların	-9.99204
diklerini	-9.99218
▁Gö	-9.99226
▁yolla	-9.99239
▁değişiklik	-9.99248
▁Ek	-9.99315
▁d	-9.99386
▁Düşün	-9.99405
▁dizayn	-9.99441
▁düşündüğümüz	-9.99453
abildiği	-9.99461
leyecek	-9.99462
acağımız	-9.99473
▁neyin	-9.99485
▁dikkatli	-9.99498
▁keç	-9.99512
lıyorum	-9.99556
▁bol	-9.99639
meden	-9.99733
▁bilmek	-9.99786
▁Bak	-9.99809
▁Ö	-9.99833
▁açma	-9.99846
▁mimar	-9.99847
▁potansiyel	-9.99877
yseniz	-9.99919
▁İn	-9.99921
▁bozu	-9.99932
▁dost	-9.99937
▁kıyı	-9.99952
▁öykü	-9.99968
▁dili	-10.0001
▁make	-10.0006
▁yanıt	-10.0016
▁No	-10.0017
▁parlak	-10.0021
▁Aile	-10.0026
▁edilme	-10.0028
▁oto	-10.0037
liğine	-10.004
▁duyar	-10.0043
▁gelişmekte	-10.0043
▁uzakta	-10.0044
▁düşündüğüm	-10.0046
uğu	-10.0049
▁gittik	-10.0053
▁çekme	-10.0058
▁dediğimiz	-10.0061
▁açısı	-10.0071
▁Ti	-10.0074
▁dinley	-10.0075
amp	-10.0077
▁başladılar	-10.0083
▁unut	-10.0083
▁olabilirsiniz	-10.0086
▁şifre	-10.009
▁Güzel	-10.009
▁cümle	-10.009
▁tırman	-10.009
▁karıştır	-10.0094
▁öner	-10.0094
▁kapalı	-10.0104
▁bitkiler	-10.0113
▁veril	-10.0118
▁adamları	-10.0133
▁ötesinde	-10.0133
▁For	-10.0134
▁anladı	-10.0142
▁aktif	-10.0143
▁girişimci	-10.0143
▁depo	-10.0146
▁büyüt	-10.0157
▁300	-10.0162
▁kanal	-10.0162
duğunu	-10.0163
ımızın	-10.0171
▁ölçek	-10.0173
▁değişimi	-10.0173
dışı	-10.018
▁seçme	-10.018
▁ölçüde	-10.0182
▁insanlardan	-10.0182
gra	-10.0188
▁lütfen	-10.0188
▁tespit	-10.0188
▁müziği	-10.0188
▁yılı	-10.0188
▁doldur	-10.0191
▁güney	-10.0194
aj	-10.0197
onu	-10.0198
▁ters	-10.0203
▁aşk	-10.0203
▁yılın	-10.0207
▁korumak	-10.0211
gre	-10.0214
▁sistemleri	-10.0215
▁İngiliz	-10.0224
▁halka	-10.0235
▁zihni	-10.0237
▁kuzey	-10.0238
▁şiir	-10.0238
▁biçim	-10.0238
▁harcama	-10.0238
▁yeme	-10.0245
▁kok	-10.0246
ttiği	-10.025
▁deniyor	-10.0253
▁arkasında	-10.0256
larsa	-10.0258
▁gerekirse	-10.0259
ksiyon	-10.026
unuz	-10.0265
▁1.	-10.0273
▁ac	-10.0276
▁Gün	-10.0283
▁yüzyılda	-10.0297
▁geliş	-10.0301
imde	-10.0306
▁yaptılar	-10.0306
▁inceleme	-10.0319
▁ismi	-10.0321
▁seri	-10.0325
▁kullanımı	-10.0326
▁çılgın	-10.0327
▁yargı	-10.0337
▁cinsiyet	-10.0338
▁cinsel	-10.0339
▁taban	-10.0339
▁istey	-10.0339
ebilen	-10.034
lduğu	-10.0347
▁koydu	-10.0347
▁seni	-10.0348
▁hayatımı	-10.0352
▁Pro	-10.0355
able	-10.036
▁karşısında	-10.0363
olog	-10.0363
▁tarafında	-10.037
▁sır	-10.0377
rke	-10.0377
lke	-10.038
▁ediliyor	-10.0387
▁nükleer	-10.0387
▁Teknoloji	-10.0387
▁robotlar	-10.0388
▁Sağ	-10.0393
▁vaka	-10.0395
▁bölümü	-10.0395
miyoruz	-10.0396
▁artır	-10.0406
▁Bazıları	-10.041
V	-10.0412
ecektir	-10.0424
▁koyar	-10.043
low	-10.0432
▁çalıştığımız	-10.0437
▁ticaret	-10.0438
▁world	-10.0438
▁yaka	-10.0439
▁günün	-10.0441
asyonu	-10.0443
▁mutluluk	-10.0445
▁kullanıyoruz	-10.0454
▁sevme	-10.0454
▁koyu	-10.0454
▁ani	-10.0456
▁hayata	-10.0467
▁görevi	-10.0482
▁Der	-10.0486
▁toplu	-10.0487
▁nereden	-10.0487
▁kablo	-10.0487
▁Afrikalı	-10.0489
▁kulak	-10.049
▁bahsetmek	-10.0492
▁ən	-10.0494
▁alanları	-10.0495
▁Fa	-10.0503
▁bağlam	-10.0503
▁kaba	-10.0505
▁girişim	-10.0507
▁olmaktan	-10.0513
▁isterim	-10.0517
tə	-10.0522
▁şekillendir	-10.0527
▁Dan	-10.053
▁com	-10.0531
▁olabil	-10.0531
▁yürüt	-10.0533
layabilir	-10.0534
▁ülkelerin	-10.0539
▁çiçek	-10.054
▁Söyle	-10.054
▁taklit	-10.054
▁değişme	-10.0545
▁kurtarma	-10.0546
▁kriz	-10.0548
▁ulaşma	-10.055
▁düzey	-10.055
▁tıbbi	-10.0552
▁ihtiyacınız	-10.0555
▁gördüğü	-10.0558
▁Bakın	-10.0561
▁yaşamın	-10.0565
▁böl	-10.0565
▁bü	-10.0573
▁Top	-10.0575
▁çalıştır	-10.0577
▁doğrudan	-10.0579
▁Hayatı	-10.058
av	-10.0581
▁insana	-10.0583
▁araştırmacı	-10.0587
▁konferans	-10.0591
▁üstün	-10.0593
▁işletme	-10.0593
lenen	-10.0595
▁way	-10.0595
▁çıkarmak	-10.0596
▁suçlu	-10.0604
▁bulur	-10.0605
▁eğitimi	-10.0606
▁gruplar	-10.0615
▁şehirler	-10.0615
▁yen	-10.0623
▁birbirleri	-10.0626
▁istedik	-10.0633
▁ser	-10.0634
▁Hal	-10.0639
▁gelişim	-10.064
▁eşi	-10.064
▁kütle	-10.0643
▁tel	-10.0645
▁tüken	-10.0647
▁kaybetti	-10.0648
▁çalışmaları	-10.065
▁kullandı	-10.065
▁yapacağım	-10.0654
▁Hava	-10.0658
▁yaşıyoruz	-10.0663
▁diyoruz	-10.0667
▁daire	-10.0668
▁vermeye	-10.067
likten	-10.067
▁harf	-10.0671
▁sağlay	-10.0675
▁işim	-10.0676
abilen	-10.0681
▁yaratıyor	-10.0684
age	-10.07
▁komik	-10.0702
▁marka	-10.0703
▁Sanat	-10.0723
▁yansıt	-10.0725
▁konum	-10.0726
▁Yo	-10.0729
▁saye	-10.073
vo	-10.0735
▁Geri	-10.0738
▁toplan	-10.0739
▁oluşturdu	-10.0742
▁ez	-10.0748
▁sürece	-10.0751
▁kullandığımız	-10.0754
▁gelmiş	-10.0757
▁2000	-10.0761
▁arttır	-10.0763
abilirler	-10.0763
▁diğeri	-10.0766
▁bulabil	-10.0767
▁parçalar	-10.0777
mıyoruz	-10.0786
iyyət	-10.0788
▁istemiyor	-10.0791
malısınız	-10.0794
▁olayı	-10.0798
▁sembol	-10.0802
▁tra	-10.081
▁anlamıyla	-10.0815
▁ola	-10.0817
acağınız	-10.0826
▁şimdiye	-10.0826
gar	-10.0831
▁teknolojiyi	-10.0834
▁kendileri	-10.0837
▁hakları	-10.0839
▁dek	-10.0841
▁ulus	-10.0844
lmaz	-10.0849
▁sorunun	-10.085
▁çök	-10.0851
▁sandalye	-10.0851
▁could	-10.0851
nom	-10.0859
▁edebiliriz	-10.0862
▁sim	-10.0862
▁Irak	-10.0867
ğım	-10.0868
iyordum	-10.0878
▁eğilim	-10.0881
▁musun	-10.0882
▁Çocuklar	-10.0891
▁ihtimalle	-10.0901
▁dürüst	-10.0904
▁rapor	-10.0904
▁mağara	-10.0905
▁balina	-10.0905
▁yaxşı	-10.0909
▁yapabileceği	-10.0909
▁kişiye	-10.0909
▁yapılması	-10.0911
▁Sol	-10.0919
lenmesi	-10.0919
ecekler	-10.093
▁şeydi	-10.0947
▁düzenleme	-10.0953
▁önemi	-10.0956
▁sermaye	-10.0958
▁ağacı	-10.0958
▁gösterir	-10.0963
ris	-10.0967
kür	-10.0968
▁özellikleri	-10.0971
inə	-10.0977
▁gittikç	-10.0981
▁değişiklikler	-10.0981
▁karşılık	-10.0983
▁hastalıklar	-10.0983
▁misin	-10.0995
▁mini	-10.0998
▁koşu	-10.1003
▁sö	-10.1004
▁cerrah	-10.1011
▁tuvalet	-10.1011
▁Tekrar	-10.1011
▁ekibi	-10.1012
▁kıta	-10.1012
▁yarar	-10.1015
▁uça	-10.1016
▁düşünül	-10.1024
▁other	-10.1024
▁görüyorum	-10.1025
▁sorma	-10.1027
50	-10.1031
duğumuz	-10.1034
▁denen	-10.1039
▁savunma	-10.1054
▁dolarlık	-10.1056
▁ücret	-10.1061
▁vücudun	-10.1065
▁will	-10.1065
▁karışık	-10.1066
▁degil	-10.1069
▁yerden	-10.1071
going	-10.1071
for	-10.1083
▁özelliği	-10.1084
▁kıs	-10.1085
▁çalıştığı	-10.1087
cre	-10.1092
▁dışarıda	-10.1105
▁grubu	-10.1106
▁into	-10.111
▁Hu	-10.1118
▁atık	-10.1118
▁bulmaya	-10.112
▁yönetici	-10.1122
dunuz	-10.1123
lerse	-10.1123
gh	-10.1123
▁haklı	-10.1124
lərdə	-10.1124
▁katman	-10.1126
istan	-10.1129
və	-10.113
▁bayan	-10.1132
▁düşünüyoruz	-10.1136
gü	-10.1138
▁baktığı	-10.1145
▁hareketi	-10.1145
▁çağ	-10.1147
mamış	-10.1147
▁maliyeti	-10.116
▁ürünleri	-10.117
▁serbest	-10.1173
▁Bilgisayar	-10.1173
▁berbat	-10.1173
▁İsrail	-10.1173
▁yavru	-10.1173
▁ordu	-10.1174
▁yox	-10.1176
▁isterse	-10.1177
▁kazandı	-10.1179
▁kayıp	-10.1181
▁kullanan	-10.1186
▁başlangıç	-10.1188
▁ulaşmak	-10.1193
▁kurallar	-10.1198
larımızda	-10.121
ğında	-10.1213
▁tasarımı	-10.1219
▁bilgileri	-10.1219
▁olmaması	-10.1228
▁Facebook	-10.1228
▁pencere	-10.1228
log	-10.1228
▁şefkat	-10.1228
▁üretme	-10.1235
▁balon	-10.124
▁Hey	-10.1241
▁hissediyor	-10.1251
▁söylediğim	-10.1255
▁yönde	-10.1256
ally	-10.1257
▁kurmak	-10.126
▁kelimeler	-10.1261
▁lise	-10.1268
▁birey	-10.1279
▁kimya	-10.1281
▁hukuk	-10.1283
▁evrensel	-10.1293
▁necə	-10.1296
▁edersiniz	-10.1298
cent	-10.1312
ore	-10.1321
stro	-10.1327
çüncü	-10.1338
▁olaraq	-10.1339
▁roman	-10.134
▁kulağ	-10.1342
▁danış	-10.1345
abileceğiniz	-10.1345
▁yerlere	-10.1346
▁sert	-10.1347
▁farkı	-10.1352
▁olamaz	-10.1354
ədə	-10.1361
cılık	-10.1362
▁oluşturma	-10.1365
▁hikayesi	-10.1365
▁olacaktı	-10.1373
amayacak	-10.1374
▁koyma	-10.1379
▁ihtiyacım	-10.1381
▁çalışmalar	-10.1385
▁arkadaşı	-10.1393
▁İkincisi	-10.1393
▁AIDS	-10.1394
▁rekabet	-10.1394
▁kampanya	-10.1394
▁iskele	-10.1394
▁beklenti	-10.1394
▁etmək	-10.1394
▁ihtiyaçları	-10.1399
▁başlayan	-10.1403
▁çizim	-10.1403
▁görüşme	-10.1406
▁miydi	-10.1406
likte	-10.1409
▁tanış	-10.1415
▁oyna	-10.1417
▁am	-10.1418
▁yerini	-10.1419
▁Pat	-10.1431
lerindeki	-10.1434
yacağını	-10.1435
▁toplay	-10.1436
▁bekleme	-10.1438
▁kendinizi	-10.1438
▁düşman	-10.1444
▁ticari	-10.1449
▁başlangıcı	-10.1449
▁kedi	-10.145
▁sivil	-10.145
▁çağır	-10.1451
▁əl	-10.1452
▁cesaret	-10.1452
▁şaşır	-10.1452
▁bahsettiğim	-10.1452
▁Biliyorsunuz	-10.1453
▁görü	-10.1455
▁çalıştığını	-10.1461
▁gibiydi	-10.1472
▁göze	-10.1477
▁elinde	-10.148
▁engelli	-10.1482
han	-10.1484
▁fikrini	-10.1487
▁yeti	-10.1488
▁zorla	-10.1489
▁paylaşma	-10.149
▁izleme	-10.1493
▁tanımlama	-10.1493
▁kesi	-10.1504
▁gözüküyor	-10.1506
▁mercan	-10.1506
▁Yalnız	-10.1506
▁Yaklaşı	-10.1506
▁Kenya	-10.1507
meleri	-10.1507
▁baz	-10.1512
▁günümüzde	-10.1517
▁yetki	-10.1538
▁eser	-10.1538
▁tanıma	-10.1542
▁çalışması	-10.1548
öv	-10.1551
▁benden	-10.1557
irken	-10.156
▁zevk	-10.1562
▁tavsiye	-10.1562
▁görünüş	-10.1564
▁Now	-10.1567
▁istiyorsanız	-10.1571
▁ulusal	-10.1572
▁anlatıyor	-10.1585
▁kesim	-10.1587
vu	-10.1591
▁edebil	-10.1592
▁şanslı	-10.1599
ladığı	-10.1617
▁Araştırma	-10.1619
▁Brezilya	-10.1619
▁kredi	-10.1619
▁memnun	-10.1619
▁ah	-10.1619
▁gökyüzü	-10.1621
▁duyuyor	-10.1623
▁boşluk	-10.1625
▁nadir	-10.1626
▁dayalı	-10.1628
▁uyu	-10.1629
▁bildiği	-10.163
▁Sağlık	-10.1632
uşu	-10.1639
▁kimin	-10.164
▁karşıya	-10.1656
▁Ana	-10.1661
▁dünyasında	-10.1662
İ	-10.1665
▁yürüy	-10.1666
▁bırakma	-10.1671
▁tartış	-10.1671
▁gürültü	-10.1676
▁oksijen	-10.1676
▁yaptır	-10.1676
▁tanrı	-10.1676
▁sıvı	-10.1678
nuzu	-10.1683
▁Sorun	-10.1684
▁kullanım	-10.1692
lidir	-10.1695
▁kuralları	-10.1699
▁koruy	-10.1704
▁döner	-10.1706
▁dişi	-10.1708
memiş	-10.1708
ham	-10.1718
▁merkezinde	-10.1719
▁domuz	-10.1719
▁askeri	-10.172
▁edebiliyor	-10.1722
dr	-10.1723
▁krizi	-10.1724
müştü	-10.1731
▁eğit	-10.1732
▁Uzun	-10.1734
▁gönüllü	-10.1734
▁talep	-10.1734
▁tasarlama	-10.1738
yorsunuz	-10.1739
▁deneyimi	-10.1748
▁başladığı	-10.1751
▁Kimse	-10.1753
▁olmanız	-10.1762
▁Wa	-10.1768
▁heç	-10.1771
lendirme	-10.1781
▁ettiğini	-10.1791
▁ibaret	-10.1791
▁actual	-10.1792
▁alkış	-10.1792
gram	-10.1795
▁real	-10.1795
▁Sana	-10.1798
▁yapabiliyor	-10.1801
▁ilaçlar	-10.181
▁eminim	-10.1813
▁alabilir	-10.1816
▁aldığı	-10.1818
▁endişelen	-10.1818
▁başlat	-10.182
▁sahiptir	-10.1828
▁yapabil	-10.1828
▁edilebilir	-10.183
erson	-10.183
▁soy	-10.1841
▁edebilme	-10.1841
▁yöntemi	-10.1846
ysanız	-10.1846
▁yazık	-10.1847
▁kahve	-10.1849
▁bileşen	-10.1852
▁elektronik	-10.1853
▁görüşü	-10.1854
▁mekan	-10.186
eceksiniz	-10.186
▁açıklay	-10.186
▁yetiş	-10.1863
▁400	-10.1863
▁toplumsal	-10.1868
▁peki	-10.1869
▁kurumlar	-10.1878
▁bilgisayarlar	-10.1881
▁yoluyla	-10.1883
▁olduğunuzu	-10.1891
▁şehri	-10.1892
▁tutma	-10.1897
round	-10.1897
▁türden	-10.1898
▁uzaklaş	-10.19
▁Altı	-10.1903
lması	-10.1908
▁calis	-10.1908
▁bebeği	-10.1909
▁uygula	-10.1909
dığınızda	-10.1912
▁etmemiz	-10.1919
▁yazdı	-10.1922
▁bahsediyor	-10.1929
▁gelebilir	-10.1932
lemeye	-10.1935
▁yetenek	-10.1946
amayacağı	-10.1948
▁acil	-10.1954
▁oluşturan	-10.1957
▁Rus	-10.1965
▁tas	-10.1967
▁hafıza	-10.1967
▁kıyafet	-10.1967
▁müdahale	-10.1967
▁yumurta	-10.1967
▁bütçe	-10.1967
▁bal	-10.1967
▁fonksiyon	-10.1967
▁çöl	-10.1967
▁imza	-10.1967
▁yalan	-10.1971
▁çıkış	-10.1974
abileceğini	-10.1976
▁müze	-10.1977
▁koyuyor	-10.1977
▁dönüştü	-10.1978
▁Şunu	-10.1983
▁yapılma	-10.1988
▁edi	-10.1995
emeyiz	-10.2003
melisiniz	-10.2005
▁durumunda	-10.2007
▁Wh	-10.2013
▁fikrim	-10.2015
▁kadının	-10.2017
▁durumun	-10.2017
▁Arap	-10.2021
▁örnekler	-10.2023
▁materyal	-10.2026
▁mantar	-10.2029
▁hissettir	-10.203
▁çoğunluğu	-10.2033
▁edeceğim	-10.2033
diğinizde	-10.2038
▁Almanya	-10.2046
▁tarzı	-10.2051
▁Pek	-10.2059
▁zorluk	-10.2064
▁kurul	-10.2071
▁eg	-10.2071
lenebilir	-10.2073
▁sistemini	-10.2075
▁trilyon	-10.2085
▁sağlam	-10.2086
▁takdir	-10.2087
.5	-10.2088
▁oluşuyor	-10.2088
▁İran	-10.2094
▁bilinç	-10.2096
acaklar	-10.2096
▁gerekti	-10.2099
▁Japonya	-10.2103
leyebilir	-10.2103
▁atmosfer	-10.2114
▁Yaşam	-10.2128
▁oranda	-10.2129
▁Annem	-10.2137
▁istatistik	-10.2145
▁faktör	-10.2145
▁manzara	-10.2145
▁sıtma	-10.2146
0.000	-10.2147
▁öğretti	-10.2148
▁Sizi	-10.2152
▁edilmesi	-10.2159
▁Deniz	-10.216
▁şe	-10.2161
sıdır	-10.2172
jen	-10.2174
ood	-10.2175
▁tamamı	-10.2176
▁tesis	-10.2177
▁yapmıyor	-10.2178
▁kendisini	-10.219
ınızı	-10.2191
▁ulaştı	-10.2192
▁alarak	-10.2199
▁unutma	-10.2201
▁doğdu	-10.2204
yalım	-10.2205
▁work	-10.2206
▁paket	-10.2206
▁imkanı	-10.2207
▁özgü	-10.2209
▁anlatı	-10.2214
larımıza	-10.2214
▁ilacı	-10.2214
▁dönemde	-10.2217
▁metal	-10.2221
ümüzü	-10.2227
▁çıkı	-10.2235
▁dolara	-10.2237
▁anlayabil	-10.2251
▁değerlendir	-10.2257
▁yarattığı	-10.2258
▁uy	-10.226
▁başlattı	-10.2261
▁olaylar	-10.2261
▁Einstein	-10.2266
▁ekosistem	-10.2266
▁platform	-10.2266
▁right	-10.2267
▁deyişle	-10.2268
▁tren	-10.2271
▁Yer	-10.2276
miyordu	-10.2282
▁çocuklara	-10.2284
▁farkın	-10.229
▁ederken	-10.229
ough	-10.2299
▁insanlık	-10.2303
▁sistemler	-10.2306
▁evin	-10.2313
əcək	-10.2315
▁sonrası	-10.2316
▁Ol	-10.232
▁alternatif	-10.2327
▁teşhis	-10.2327
▁Dev	-10.2327
▁popüler	-10.2327
▁düzgün	-10.2328
▁tüketici	-10.2329
▁Is	-10.233
▁dünyası	-10.2332
▁üzeri	-10.2338
çu	-10.2342
▁yaşamı	-10.2343
▁etmesi	-10.2348
▁bilin	-10.235
▁zamanlı	-10.2351
▁nedeniyle	-10.2358
▁kalite	-10.2371
▁yansı	-10.2379
▁yapabilecek	-10.2382
▁finans	-10.2383
▁vakit	-10.2389
▁baktığınızda	-10.2391
tığım	-10.2395
▁Soru	-10.2407
▁köle	-10.2409
▁diz	-10.2412
▁isimli	-10.2416
uru	-10.2418
▁Tıp	-10.2418
▁mantık	-10.2418
▁yöne	-10.2419
▁Kadın	-10.2423
rseniz	-10.2426
▁katılma	-10.2435
▁At	-10.2437
▁Mısır	-10.245
▁Konuşma	-10.2451
▁Amma	-10.2452
lüyor	-10.2452
▁konuşmaya	-10.2453
▁getiren	-10.2456
▁rastla	-10.2457
▁Ulusa	-10.2458
▁alalım	-10.247
▁söylüyorum	-10.2473
▁ahlaki	-10.2475
▁çağrı	-10.2478
▁ihtimali	-10.248
▁tutmak	-10.2483
▁getirir	-10.2485
▁çözümler	-10.2485
▁resimler	-10.2493
▁geçirdi	-10.2496
▁Ber	-10.2497
▁anlatma	-10.2504
▁saçma	-10.2504
▁rastgele	-10.2512
▁zemin	-10.2513
first	-10.2517
▁oluşturur	-10.2517
▁sürdü	-10.2518
▁tümör	-10.2518
▁tav	-10.2519
▁etmiyor	-10.2529
lerimizde	-10.2529
▁yaşı	-10.2533
ebileceğiniz	-10.2536
▁yaptıklarını	-10.2541
com	-10.2544
▁anlamlı	-10.2544
▁sever	-10.256
sion	-10.256
▁kişiyi	-10.2563
yorlar	-10.2563
▁yörünge	-10.2575
▁profesyonel	-10.2575
▁çerçeve	-10.2575
▁beğen	-10.2575
▁Kanada	-10.2576
▁Özellikle	-10.2577
▁bizimle	-10.2579
▁What	-10.258
▁biçimi	-10.2583
▁yaşadığımız	-10.2586
▁bende	-10.2587
hur	-10.2594
▁fırsatı	-10.26
▁çalıştı	-10.26
▁baktı	-10.2602
▁kalın	-10.2614
▁hatırlat	-10.2625
ıldığı	-10.2627
▁radikal	-10.2638
▁heykel	-10.2638
▁Genç	-10.2638
▁devasa	-10.264
kâr	-10.2641
▁oturuyor	-10.2641
▁kitabın	-10.2646
▁hissediyorum	-10.2648
▁vergi	-10.2655
mıyordu	-10.2655
▁qal	-10.2655
▁aklın	-10.2657
▁Kaç	-10.2659
▁bölgede	-10.2659
▁olmama	-10.2665
▁Dedi	-10.2672
▁harca	-10.2672
▁karşılaştı	-10.2674
▁tho	-10.2681
▁Tu	-10.269
▁verdiler	-10.2692
mızdan	-10.2694
▁klinik	-10.2701
▁eksik	-10.2701
▁küme	-10.2702
Y	-10.2703
▁milyarlarca	-10.2705
▁finansal	-10.2707
▁çekmek	-10.2707
▁mezun	-10.2709
▁back	-10.2713
▁anladım	-10.2716
▁çevresinde	-10.2717
▁adamlar	-10.2718
▁yönelik	-10.2718
▁ebeveyn	-10.272
▁çözmek	-10.272
▁almış	-10.2722
▁yiy	-10.2723
▁ederiz	-10.2723
▁olası	-10.2735
▁içerik	-10.274
▁tuz	-10.2741
▁kalmış	-10.2745
▁bahsetti	-10.275
▁zorundaydı	-10.276
▁geliyordu	-10.2762
▁çap	-10.2762
▁Küresel	-10.2765
▁tabaka	-10.2765
▁əvvəl	-10.2765
▁tarif	-10.2765
▁Öncelikle	-10.2766
▁vaxt	-10.2767
▁güvenilir	-10.2767
▁bakan	-10.2768
▁Neyse	-10.2775
▁fikrin	-10.2779
▁seviyor	-10.2779
▁birbirlerin	-10.278
lerimize	-10.2781
▁Biri	-10.2786
▁Cha	-10.2789
▁every	-10.2789
mur	-10.2801
▁gönderme	-10.2806
▁varlığı	-10.2807
▁çekiyor	-10.2808
▁Öz	-10.2809
▁dönüyor	-10.281
▁terim	-10.2811
▁konuya	-10.2811
▁sonucunda	-10.2817
ılabilir	-10.2818
▁Doğa	-10.2819
20	-10.2824
▁karikatür	-10.2829
▁Değil	-10.2829
▁Yakın	-10.2837
▁uyku	-10.2838
ildiği	-10.2838
mir	-10.285
▁150	-10.285
ınıza	-10.2855
▁boyutu	-10.2858
mah	-10.2858
▁Bizler	-10.2861
▁çağı	-10.2873
▁grubun	-10.2873
▁bilmə	-10.2882
▁basın	-10.2886
▁sorar	-10.2893
▁Fransız	-10.2893
▁faaliyet	-10.2893
something	-10.2894
lıyordu	-10.2894
▁fosil	-10.2894
▁kurban	-10.2895
▁baktığımızda	-10.2895
▁diyelim	-10.2895
▁blog	-10.2895
▁dediğim	-10.29
ografi	-10.2901
▁kilit	-10.2902
▁bunlara	-10.2903
▁Genel	-10.2906
▁Ter	-10.2906
uantum	-10.2906
▁olmasa	-10.2907
▁takımı	-10.2912
▁maden	-10.2913
▁reall	-10.2914
▁şişe	-10.2914
▁içeren	-10.2915
▁45	-10.2917
▁biliyordu	-10.2918
old	-10.292
▁ağrı	-10.2927
▁heyecanlı	-10.2929
▁haberler	-10.293
▁yarattı	-10.293
▁Ön	-10.2932
▁Adı	-10.2935
ldukça	-10.295
ınızda	-10.2951
bilirsin	-10.2952
▁hâle	-10.2958
▁Allah	-10.2958
▁yenilikçi	-10.2962
▁sözü	-10.2963
▁now	-10.2966
▁Paul	-10.2967
▁parayı	-10.2969
▁yatak	-10.2971
▁uçur	-10.2971
▁sürede	-10.2975
▁Gra	-10.2976
form	-10.2977
landığı	-10.2983
▁alıcı	-10.2984
▁götürdü	-10.2986
maktır	-10.2986
▁çiftçi	-10.2988
don	-10.2988
ğiniz	-10.3005
▁yapama	-10.3005
▁kaydı	-10.3006
▁saha	-10.301
▁verdiğimiz	-10.301
▁yığın	-10.301
ebildiği	-10.3012
▁bildiğiniz	-10.3012
▁bilimi	-10.3013
▁diyorlar	-10.3019
▁Bay	-10.3021
▁psikoloji	-10.3024
▁öfke	-10.3024
▁vahşi	-10.3024
▁tatlı	-10.3024
ov	-10.3025
▁vakti	-10.3026
▁hastalığın	-10.303
leştirmek	-10.3034
▁ekip	-10.3034
▁bilmiyoruz	-10.3043
▁sebeple	-10.3047
jo	-10.3052
▁yönetme	-10.3053
▁savun	-10.3059
▁kavra	-10.3061
▁eğri	-10.3064
imizde	-10.3074
▁yo	-10.3076
▁odada	-10.3077
▁şart	-10.3078
▁Beş	-10.3079
▁görmüş	-10.308
▁yapması	-10.3081
▁Twitter	-10.3089
▁avantaj	-10.3089
▁göstər	-10.3089
▁seyirci	-10.309
▁teklif	-10.3091
▁hayran	-10.3091
val	-10.3093
▁kızı	-10.3095
▁rengi	-10.3095
▁birinde	-10.3105
▁sınırlı	-10.3108
melen	-10.3109
▁Kol	-10.3117
▁okulda	-10.312
▁zar	-10.3121
▁küre	-10.3128
▁üçte	-10.3133
ness	-10.3137
▁yıllarda	-10.3138
inizin	-10.314
▁satış	-10.3142
▁onay	-10.3147
▁çıkarma	-10.3148
▁kazandır	-10.3153
▁buradan	-10.3155
▁Kesinlikle	-10.3156
▁civarında	-10.3156
▁hükümeti	-10.3156
▁başqa	-10.3156
▁Hint	-10.3158
▁Yu	-10.3158
▁üretimi	-10.3161
▁tü	-10.3162
▁akım	-10.3162
rap	-10.3166
▁vuru	-10.317
▁35	-10.3171
▁internette	-10.3173
▁kültüre	-10.3174
▁giriyor	-10.3176
▁kurdu	-10.3177
▁yapılıyor	-10.3177
▁makinesi	-10.3185
▁yapabileceğimiz	-10.3189
▁olmuştur	-10.3192
▁çektiği	-10.3192
▁bulabilir	-10.3196
▁şehirde	-10.3196
▁bakteriler	-10.3204
▁durdu	-10.3207
liyi	-10.3209
▁hastalar	-10.3214
▁take	-10.3217
inizde	-10.3217
▁Oyun	-10.3218
▁Uzay	-10.3223
▁kişilik	-10.3225
▁Para	-10.3231
▁çalışırken	-10.3236
▁olgu	-10.3236
▁değiştirebilir	-10.3238
▁problemleri	-10.3241
▁anlıyor	-10.3244
▁çıkmış	-10.3245
ılacak	-10.3246
▁toz	-10.3252
▁koca	-10.3256
▁fon	-10.3259
▁çözümü	-10.3261
▁genom	-10.3263
ıldığında	-10.3264
▁çıkarıyor	-10.3268
▁indi	-10.3278
▁Babam	-10.3284
▁düzenli	-10.3285
▁çoğunuz	-10.3285
▁start	-10.3291
▁düşündüğünüz	-10.3291
▁özgürlük	-10.3291
▁bağır	-10.3292
ıydı	-10.3301
ray	-10.3309
▁teknolojileri	-10.3313
▁istedikleri	-10.3314
mezsiniz	-10.3318
▁olabilirdi	-10.3319
▁arttı	-10.3325
▁sistemimiz	-10.3329
▁söyleyen	-10.3332
▁sınırları	-10.3333
▁diğerleri	-10.3333
▁çatı	-10.3333
▁eleştir	-10.3335
▁come	-10.3335
▁elektro	-10.3336
▁dilin	-10.3336
▁yürüme	-10.3338
▁bölün	-10.3339
▁hay	-10.3339
▁ölçüm	-10.3342
▁organizma	-10.3346
▁alıyoruz	-10.335
▁gelmek	-10.3355
▁Meksika	-10.3357
▁mülteci	-10.3357
▁sıkıntı	-10.3357
▁Eğitim	-10.3357
▁call	-10.3359
▁kocaman	-10.336
▁Geliş	-10.336
▁yaşındayken	-10.3361
acağımızı	-10.3365
▁kapasite	-10.3366
▁gelince	-10.3373
▁basitçe	-10.3374
▁gazeteci	-10.3375
▁yüzyılın	-10.3383
▁başlamak	-10.3384
▁hastalıkları	-10.3385
üsü	-10.3385
lıyorlar	-10.3393
▁zordur	-10.34
▁gay	-10.3404
▁tasarla	-10.3405
▁havada	-10.3407
▁bilimin	-10.341
▁inceledi	-10.3414
▁birçoğu	-10.3425
▁Dünyada	-10.3426
▁Steve	-10.3426
▁Eş	-10.3426
▁koloni	-10.3426
▁etkileyici	-10.3428
▁mobil	-10.3433
▁anlatacağım	-10.3434
▁Appl	-10.3437
▁öngörü	-10.3437
▁Farklı	-10.3443
▁Ağ	-10.3444
▁seviyede	-10.3444
▁Biliyor	-10.3453
▁Lu	-10.3458
▁yolculuğu	-10.3458
▁teknolojisi	-10.346
▁than	-10.3461
▁ahlak	-10.3467
▁olmam	-10.3471
▁etraf	-10.3473
ause	-10.3475
▁Kara	-10.3476
▁hayvanların	-10.3476
▁kullanmaya	-10.3489
▁algoritma	-10.3494
▁cesur	-10.3494
▁tohum	-10.3495
▁düşüş	-10.3495
▁olmuyor	-10.3496
bur	-10.3501
▁Proje	-10.3503
▁arıyor	-10.351
▁Fo	-10.351
▁vereceğim	-10.3517
▁Konu	-10.3523
▁ederler	-10.3524
▁bazılarını	-10.3527
▁soyut	-10.3527
▁zinciri	-10.3529
▁yolunda	-10.353
▁geliştirmek	-10.3532
▁öğretme	-10.3541
▁alanın	-10.3543
▁ürünler	-10.3546
ebileceğini	-10.3548
▁çeken	-10.3549
mizden	-10.3555
▁kendiniz	-10.3559
▁İslam	-10.3563
▁Umarı	-10.3563
self	-10.3564
▁keşfetme	-10.3569
▁yapmanız	-10.3577
▁Hə	-10.3578
▁hayatlarını	-10.3581
▁buzul	-10.3582
▁Per	-10.3583
▁sıklıkla	-10.3587
▁kaldırı	-10.3593
▁sunum	-10.36
▁nesneler	-10.3609
▁duran	-10.3615
▁soruyor	-10.3617
▁çalışıyorlar	-10.3619
ğümüz	-10.3627
▁koşullar	-10.363
▁yapılar	-10.363
▁canlandır	-10.363
▁depresyon	-10.3632
▁felaket	-10.3632
▁merhamet	-10.3632
▁İsveç	-10.3632
▁ziyade	-10.3632
▁Erkek	-10.3632
▁sahte	-10.3632
▁başlayalım	-10.3633
▁Basit	-10.3634
▁21	-10.3635
▁kutsal	-10.3635
▁şok	-10.3635
▁sorumluluk	-10.3636
▁parçacıklar	-10.3636
leyerek	-10.3639
▁hu	-10.3642
▁istek	-10.3648
▁belirsiz	-10.365
▁biriydi	-10.3651
▁başlıyoruz	-10.3662
▁yapıyordu	-10.3683
▁dinleme	-10.369
▁noktalar	-10.3691
▁Müslüman	-10.3702
▁NASA	-10.3702
▁öğle	-10.3702
▁tahta	-10.3702
▁pas	-10.3702
▁esnek	-10.3702
▁Savaş	-10.3702
▁həyat	-10.3704
▁yazdım	-10.3709
abiliyoruz	-10.371
▁söyleyebilirim	-10.3711
sındaki	-10.3712
▁duydum	-10.3712
▁Titan	-10.3715
▁zamanında	-10.372
▁anlayış	-10.373
▁inancı	-10.3734
▁geçirme	-10.3735
▁ilgisi	-10.3741
▁ailem	-10.3751
▁kayded	-10.3761
▁hayatımız	-10.3763
sha	-10.3766
▁görüntüsü	-10.3768
▁Açık	-10.377
meyeceğim	-10.3771
▁demokratik	-10.3772
▁George	-10.3772
▁aracılığıyla	-10.3772
▁idare	-10.3773
▁Toplum	-10.3773
▁nehir	-10.3774
▁falan	-10.3774
▁örgüt	-10.3775
▁sahipler	-10.3776
▁oyuncak	-10.3777
▁Kore	-10.3783
▁Jam	-10.3786
layabiliriz	-10.3792
▁beslenme	-10.3798
▁zorlu	-10.3799
▁kut	-10.3802
▁zamanla	-10.3806
nizle	-10.3809
▁miktarı	-10.3814
▁attı	-10.3815
▁yaşar	-10.382
ebilirler	-10.3823
▁sürücü	-10.3828
▁oluşturu	-10.3828
▁düşme	-10.383
▁yuva	-10.3842
▁Savaşı	-10.3843
▁global	-10.3843
▁Muhte	-10.3843
▁iyimser	-10.3843
▁Kral	-10.3844
▁denilen	-10.3845
▁Oh	-10.3846
▁patent	-10.3847
▁ideal	-10.3847
▁dilim	-10.3847
▁duyduk	-10.3849
▁etmə	-10.3849
▁bahsedeceğim	-10.3853
▁Bill	-10.3854
▁ayında	-10.3863
▁neyi	-10.3863
▁kızlar	-10.3864
▁Mc	-10.3867
▁hasar	-10.3877
▁yoksul	-10.3885
▁hadi	-10.3885
,5	-10.3887
▁çözü	-10.3888
▁çözme	-10.389
▁üretmek	-10.389
▁kaynaklar	-10.3892
tıcı	-10.3895
eceğimiz	-10.39
▁konuştu	-10.3902
▁pozisyon	-10.3915
▁uyuşturucu	-10.3915
▁zirve	-10.3915
▁Şehir	-10.3915
▁kritik	-10.3915
▁stres	-10.3915
▁blok	-10.3915
▁otomatik	-10.3915
nder	-10.3917
muzu	-10.3919
▁organize	-10.3919
▁hareketleri	-10.392
▁değişken	-10.3925
▁hip	-10.3926
▁olmasıdır	-10.3927
▁Sev	-10.3927
▁öldürme	-10.3929
▁sıkıcı	-10.393
▁babası	-10.3933
▁başlayı	-10.3939
▁taşıyor	-10.3947
▁olacağız	-10.3952
▁etdi	-10.396
▁etrafta	-10.3961
▁Kendisi	-10.3968
▁ırk	-10.397
rey	-10.3984
▁biliyordum	-10.3986
▁Nijerya	-10.3987
▁İnanılmaz	-10.3987
▁Alqış	-10.3987
▁olumlu	-10.3987
düşünebilirsiniz	-10.3988
▁She	-10.3988
▁kaybetme	-10.3989
▁resme	-10.3989
▁sormak	-10.3994
▁içeriği	-10.4001
▁sakin	-10.4004
▁etmekte	-10.4014
biriyle	-10.4015
▁saatte	-10.4016
▁tersine	-10.4017
▁mənim	-10.4022
▁duygusu	-10.4024
ligi	-10.4026
ebildi	-10.4027
▁kıyasla	-10.4031
mizdeki	-10.4033
▁konuşmayı	-10.4037
▁yarışma	-10.4045
▁Sal	-10.4049
▁çıktığı	-10.4054
▁nihayet	-10.4059
▁simetri	-10.4059
▁meslek	-10.4059
▁çoğal	-10.4059
▁That	-10.4059
▁yapmam	-10.4063
▁öldürül	-10.4064
▁çeşitliliği	-10.4068
▁tək	-10.4069
▁Araba	-10.407
▁ısınma	-10.407
▁izliyor	-10.4075
▁göç	-10.4087
▁versiyonu	-10.409
cilik	-10.4093
▁ekmek	-10.4095
▁kontrolü	-10.4096
▁genişlet	-10.4098
▁75	-10.41
▁taşıy	-10.4102
▁damar	-10.4106
▁oğlum	-10.4107
lup	-10.411
▁hızı	-10.4112
▁geçmişte	-10.4112
▁eğ	-10.4118
▁konuştuğu	-10.4119
▁Eylül	-10.4132
▁avukat	-10.4132
▁istifadə	-10.4132
▁trafik	-10.4132
larımın	-10.4134
▁dini	-10.4134
▁Hala	-10.4135
▁aldığımız	-10.4136
▁hakim	-10.4137
▁uzat	-10.4148
▁kanat	-10.4159
▁20.	-10.4174
▁etkileri	-10.4177
▁izledi	-10.4177
▁söyleyebilir	-10.4178
ped	-10.4183
▁altındaki	-10.4185
▁koymak	-10.4185
▁isteği	-10.4189
▁Yol	-10.4193
▁edebileceği	-10.4196
▁döngü	-10.4196
▁görebiliyor	-10.42
▁dönüştürme	-10.4204
▁Kaliforniya	-10.4206
▁köprü	-10.4206
▁başvur	-10.4206
▁baktım	-10.4206
▁arayüz	-10.4208
▁nesli	-10.4213
▁bireysel	-10.4214
▁organik	-10.4218
lamaz	-10.4221
▁gri	-10.4226
▁sunuyor	-10.4226
▁süt	-10.4233
▁ağzı	-10.4237
▁binalar	-10.4248
emedi	-10.4248
▁0	-10.4258
▁işleme	-10.4266
war	-10.4268
▁zorluklar	-10.4269
each	-10.427
▁Los	-10.4271
▁liderlik	-10.4271
▁buluyor	-10.4273
aret	-10.4276
▁yerleri	-10.4278
▁işlev	-10.4279
▁Sosyal	-10.428
▁korkutucu	-10.428
▁iğne	-10.428
▁Yunan	-10.428
▁sıradışı	-10.4282
▁başladığımız	-10.4282
▁geçirdim	-10.4283
▁bugünkü	-10.4286
▁polen	-10.4288
▁İşin	-10.4288
▁ucu	-10.429
▁Bilgi	-10.4292
▁özet	-10.4298
▁aylık	-10.43
▁testi	-10.4302
▁hissettim	-10.4307
▁kitaplar	-10.4307
ledik	-10.4309
▁hat	-10.4309
▁where	-10.4312
▁sırt	-10.4316
▁geçiriyor	-10.4324
▁over	-10.4327
larımdan	-10.4333
▁edildiği	-10.4334
▁problemler	-10.4334
▁Ru	-10.4334
▁gerçekliği	-10.4336
▁niyet	-10.4337
▁varsayım	-10.434
▁görünmez	-10.4341
▁yaşın	-10.4346
▁gelmişti	-10.4349
▁Darwin	-10.4354
▁slayt	-10.4354
▁ettikleri	-10.4355
▁inanıyor	-10.4356
▁eğlence	-10.4357
▁any	-10.4359
▁cihazı	-10.4362
▁hayatım	-10.4365
▁istemiyorum	-10.4367
▁kullanabiliriz	-10.437
▁sanatı	-10.4372
▁dusun	-10.4373
▁görebil	-10.4375
U	-10.438
sıydı	-10.438
▁oradaki	-10.4381
▁yükselt	-10.4384
araya	-10.4387
▁ikisini	-10.4388
▁moda	-10.4407
▁soğu	-10.4407
luğ	-10.4407
▁makineler	-10.4408
▁car	-10.441
▁projesi	-10.4413
eceğin	-10.4419
▁söyledim	-10.442
▁renkli	-10.442
▁şirketlerin	-10.4423
▁Avustralya	-10.4429
▁Richard	-10.4429
▁hapishane	-10.4429
▁nano	-10.443
▁konser	-10.4431
▁hamile	-10.4433
▁Gelecek	-10.4435
▁Evren	-10.4437
▁bilinci	-10.444
▁artıyor	-10.444
yüz	-10.4442
▁oranında	-10.4446
▁soruları	-10.4447
▁kö	-10.4449
▁öne	-10.4449
▁planlama	-10.4458
▁faydalı	-10.4459
▁ardı	-10.4464
▁gök	-10.4467
▁yüzleş	-10.4472
▁geldim	-10.4483
▁hisseder	-10.4485
▁aldığım	-10.4485
▁kuram	-10.4491
▁Öl	-10.4495
▁azaltma	-10.4495
▁Alman	-10.4495
amayız	-10.4499
▁kullanıyorlar	-10.4499
▁kasaba	-10.4505
▁hayret	-10.4506
▁dosya	-10.4506
▁Times	-10.4507
▁oturup	-10.4508
▁ağaçlar	-10.4516
▁yasak	-10.4516
▁erkeklerin	-10.452
▁vazgeç	-10.4524
luğun	-10.4524
▁utan	-10.4528
▁hikayesini	-10.4528
▁Veri	-10.4533
etti	-10.4534
ling	-10.4549
▁Neredey	-10.455
lərini	-10.4553
ttığı	-10.4558
▁kullanılıyor	-10.4559
▁kariyer	-10.4562
mışlardı	-10.4563
▁getirdiği	-10.457
▁yasal	-10.4574
▁sesini	-10.4578
▁little	-10.4582
▁borç	-10.4582
▁peşinde	-10.4582
▁yürüyüş	-10.4583
yecek	-10.46
port	-10.4614
▁malzemeler	-10.4615
▁gelişimi	-10.4617
▁farkettim	-10.4626
▁kardeşim	-10.4626
▁çat	-10.4628
▁düşen	-10.4628
▁arabalar	-10.4629
▁çeker	-10.464
▁başkanı	-10.4652
▁ekley	-10.4655
məyə	-10.4658
▁Wal	-10.4658
▁düzeyde	-10.4658
▁Herhangi	-10.4658
▁Tasarım	-10.4658
▁kategori	-10.4658
▁umarım	-10.4658
▁sohbet	-10.4659
▁çevril	-10.4659
▁hediye	-10.4659
▁operasyon	-10.4659
▁görülen	-10.4662
▁ağırlığı	-10.4663
▁sağlayabilir	-10.4664
▁tutuyor	-10.4689
▁alıntı	-10.4691
▁hücresi	-10.4692
▁Yıl	-10.4694
▁hizmeti	-10.4695
kalı	-10.4695
▁geçtiği	-10.4701
▁sevdiği	-10.4706
▁değerlendirme	-10.4715
▁günlerde	-10.4715
xt	-10.4715
üstü	-10.4717
▁geçmek	-10.4721
▁düzelt	-10.4725
▁yolları	-10.4732
▁girer	-10.4735
▁dinamik	-10.4736
▁səbəb	-10.4736
▁İtalya	-10.4736
▁kainat	-10.4736
▁kabile	-10.4736
▁Hangi	-10.4736
▁mühendislik	-10.4737
▁ölüyor	-10.4743
▁değiştiriyor	-10.4743
▁hesab	-10.4743
▁halkın	-10.4747
▁kitapları	-10.4749
▁alanlarda	-10.4755
▁Tak	-10.4757
▁çalışıyordu	-10.4759
▁bağlantılı	-10.4759
▁hızlandır	-10.4774
▁dakikada	-10.4778
▁ulaşım	-10.4778
▁uygulay	-10.4778
▁gezegenin	-10.4779
▁haz	-10.4779
▁saklan	-10.478
miyorlar	-10.4782
▁ihtimal	-10.4782
ward	-10.4782
▁sahipti	-10.4792
▁şiş	-10.4794
▁həm	-10.4795
▁varsay	-10.4803
▁life	-10.4803
▁Bra	-10.4805
▁daim	-10.481
▁Gene	-10.4814
▁mektup	-10.4814
▁barındır	-10.4814
▁haqda	-10.4814
▁down	-10.4814
▁benzeyen	-10.4815
▁Hepiniz	-10.4815
▁lisans	-10.4815
▁şaka	-10.4815
▁ilerley	-10.4819
leştirilmiş	-10.4819
▁üstesinde	-10.482
▁göçmen	-10.4823
▁derdi	-10.4823
▁görebiliriz	-10.4824
▁got	-10.483
layın	-10.4831
▁erişim	-10.4832
▁Mer	-10.4833
▁many	-10.4833
▁ölçekte	-10.4839
lanabilir	-10.485
▁avcı	-10.4853
▁Merkezi	-10.4857
▁düşünüyordum	-10.4857
▁gelin	-10.4857
▁usta	-10.486
liyim	-10.486
▁ever	-10.4861
əyə	-10.4864
▁tersi	-10.4871
▁ayakta	-10.4877
▁kutup	-10.4884
▁yaradı	-10.4888
▁two	-10.4893
▁sezgi	-10.4893
▁Arkadaş	-10.4893
▁çay	-10.4893
▁market	-10.4893
▁sil	-10.4894
▁harcıyor	-10.4894
▁bulduğumuz	-10.4901
▁adapt	-10.4902
▁seçimler	-10.4903
▁müdür	-10.4904
▁fikirlerin	-10.4906
ğımız	-10.4907
▁çıx	-10.491
▁ediyorsunuz	-10.4916
ləş	-10.4918
▁miras	-10.492
▁tarama	-10.4921
▁süreçte	-10.4923
▁Sonuçta	-10.4928
▁22	-10.4932
▁balıkları	-10.4932
▁etdiyi	-10.4937
▁kalmak	-10.4945
▁eğlen	-10.4948
▁ayrıldı	-10.4951
▁ortamı	-10.4952
▁hiçbiri	-10.4955
▁görmez	-10.4956
▁siyahi	-10.4963
▁kind	-10.4969
▁favori	-10.4972
▁prensip	-10.4972
▁profesör	-10.4972
▁meşgul	-10.4972
▁gövde	-10.4972
▁otobüs	-10.4972
▁show	-10.4972
▁rüya	-10.4973
▁üreme	-10.4974
▁even	-10.4974
▁Sistem	-10.4974
▁söylediler	-10.4979
▁21.	-10.4985
▁sorgu	-10.4985
▁elle	-10.499
▁gidecek	-10.4995
▁tutun	-10.5005
▁kalem	-10.5009
▁ayağı	-10.5011
▁mesajı	-10.5016
▁Can	-10.5026
▁istemez	-10.5026
cisi	-10.5027
▁aydın	-10.5027
▁dö	-10.5029
shi	-10.5035
▁köken	-10.5038
▁kirli	-10.5042
▁topladı	-10.5043
▁demiş	-10.5045
▁Ekonomi	-10.5052
▁vizyon	-10.5052
▁Şirket	-10.5052
▁şeffaf	-10.5052
▁çanta	-10.5052
▁limit	-10.5053
▁kaybı	-10.5054
manyetik	-10.5055
▁düşüyor	-10.5057
▁Beyin	-10.5058
▁değiştiren	-10.5058
▁temelde	-10.506
emeyeceği	-10.5062
baba	-10.5062
▁kırsal	-10.5066
▁ilişkiler	-10.5079
▁çekildi	-10.5082
▁Baba	-10.5084
▁uyarı	-10.5084
▁Uç	-10.5086
▁ışığın	-10.5096
▁küçül	-10.5099
▁Az	-10.5101
▁gezi	-10.5104
▁sürüyor	-10.5105
▁etmeniz	-10.5109
▁ortamda	-10.5109
▁bırakıyor	-10.512
▁Washington	-10.5133
▁kamyon	-10.5133
▁happen	-10.5133
▁Fark	-10.5133
▁yuvarla	-10.5137
▁yaratan	-10.5137
▁kişilerin	-10.5138
▁aklınız	-10.5138
▁ucunda	-10.5139
raq	-10.5139
▁mekanik	-10.514
▁Yoks	-10.5141
▁yapalım	-10.5142
▁şeylerle	-10.5144
▁oluşur	-10.5145
▁denklem	-10.5153
mizle	-10.5159
▁kayna	-10.516
▁verebilir	-10.5165
fu	-10.517
ıyorlardı	-10.5172
▁kahkahalar	-10.5174
▁yakalama	-10.5175
▁çabuk	-10.5176
▁getiril	-10.5177
▁gelmesi	-10.5178
lərə	-10.5179
▁görevli	-10.5187
▁Apple	-10.52
▁oynat	-10.5203
▁öğrendiğim	-10.5211
▁güvenliği	-10.5211
▁dükkan	-10.5214
▁mucize	-10.5214
▁edelim	-10.5215
▁söyledikleri	-10.5216
▁TV	-10.5219
▁dolayısıyla	-10.5219
▁ip	-10.5219
▁Kişi	-10.5219
▁çıkmak	-10.5222
▁yaratıklar	-10.5222
▁şirketleri	-10.5226
▁bahsediyorum	-10.5226
▁çiftlik	-10.5227
▁yapısı	-10.523
eceğimizi	-10.5233
▁bölgesinde	-10.5234
▁aydınlat	-10.5242
leşir	-10.5244
dığımı	-10.5246
▁doktorlar	-10.525
▁şekilleri	-10.5257
▁İlki	-10.527
▁aday	-10.5274
▁teknolojik	-10.5276
umuzun	-10.529
▁özellik	-10.529
▁Internet	-10.5296
▁alışveriş	-10.5296
▁mahkum	-10.5296
▁dayanıklı	-10.5296
▁Günümüzde	-10.5296
▁masraf	-10.5296
▁meyve	-10.5296
▁bedava	-10.5296
▁tuttu	-10.5296
▁space	-10.5296
▁maaş	-10.5297
PS	-10.5298
▁gölge	-10.5298
other	-10.5304
▁tatil	-10.5305
▁27	-10.5309
▁özellikler	-10.5311
▁23	-10.5312
▁çalışarak	-10.5321
▁bildir	-10.5321
▁sinek	-10.5324
▁beyniniz	-10.5327
kinden	-10.5336
▁Dur	-10.5343
▁beynimiz	-10.5347
▁konuşacağım	-10.535
sızlık	-10.5354
▁tasarlanmış	-10.5359
▁bahset	-10.5364
ladığım	-10.5372
▁kullanabilir	-10.5373
▁Yüksek	-10.5379
▁pozitif	-10.5379
▁2008	-10.5384
▁ekoloji	-10.5385
▁olasılığı	-10.5386
▁yaraya	-10.5386
▁Var	-10.5387
▁kalır	-10.539
▁duyarlı	-10.5393
▁büyüklüğünde	-10.5397
▁1000	-10.5408
▁ettiğiniz	-10.5411
▁bacak	-10.5416
▁yakalay	-10.5418
▁şurada	-10.5421
▁yapımı	-10.5423
▁pil	-10.5425
▁Çocukları	-10.543
▁evrimleş	-10.5434
▁ağaçları	-10.5436
▁dün	-10.5436
▁döndüm	-10.5437
▁diyordu	-10.5438
ğına	-10.5438
▁bekley	-10.5447
of	-10.5449
▁savaşı	-10.545
▁aptal	-10.5452
▁deneyler	-10.5452
▁Kendimi	-10.5456
▁topluluğu	-10.5457
▁yaratır	-10.5458
▁anında	-10.5458
▁Park	-10.5458
▁Hikaye	-10.5462
▁prototip	-10.5462
▁restoran	-10.5462
▁mutlak	-10.5462
▁cadde	-10.5462
▁yapıştır	-10.5462
▁golf	-10.5462
▁donanım	-10.5463
▁direkt	-10.5464
▁oturma	-10.5464
▁edilir	-10.5464
▁değişiyor	-10.5466
▁kral	-10.5466
▁Bas	-10.5467
lerimden	-10.5468
▁konuşan	-10.547
lendiği	-10.5471
▁eşsiz	-10.5479
▁tipik	-10.548
▁biten	-10.5493
▁doktora	-10.5495
▁kolu	-10.5496
▁bırakmak	-10.5496
▁anlayışı	-10.5496
▁Bağ	-10.5506
▁Kadınlar	-10.5508
▁Yaşa	-10.551
▁yeteri	-10.5511
▁mean	-10.5516
▁özgürlüğü	-10.552
▁kısmında	-10.5521
▁yararlı	-10.5532
mıştık	-10.5536
▁faydalan	-10.5543
▁Angeles	-10.5546
▁Higg	-10.5546
▁emekli	-10.5546
▁Normal	-10.5546
▁kalanı	-10.5547
▁99	-10.5551
by	-10.5553
▁belirleme	-10.5561
▁gösterdiği	-10.5565
▁durumlarda	-10.5568
▁zorundasınız	-10.5569
▁bölgelerde	-10.557
▁kalıp	-10.5574
▁elimde	-10.5575
▁güzellik	-10.5576
▁sonuçta	-10.5576
▁tanıyor	-10.5579
▁Sonrasında	-10.5579
▁yaşamış	-10.5598
dığımda	-10.5598
▁tarihinde	-10.5602
emediği	-10.561
▁eseri	-10.561
▁biridir	-10.5615
bor	-10.5617
▁lif	-10.5617
▁Tom	-10.562
▁hatırlay	-10.5624
▁new	-10.5626
unuzu	-10.5626
▁görüntüler	-10.5628
▁hekayə	-10.5631
▁kütüphane	-10.5631
▁Fransa	-10.5631
▁kömür	-10.5631
▁sigara	-10.5631
▁puan	-10.5631
▁yetersiz	-10.5631
▁oynuyor	-10.5631
▁change	-10.5631
▁sahil	-10.5632
▁birbirimize	-10.5633
ırdım	-10.5636
▁yaban	-10.564
▁trans	-10.564
▁büyüyen	-10.5642
▁oyunları	-10.5645
▁kurduk	-10.5647
▁she	-10.5654
▁sanayi	-10.5662
▁ayna	-10.5668
▁yazdığı	-10.5674
▁tamir	-10.5676
▁bakacak	-10.5679
▁onur	-10.5684
için	-10.5684
▁çocuğ	-10.5684
▁foto	-10.5692
▁stu	-10.5695
▁oluyordu	-10.5695
▁çalışmayı	-10.5696
▁Roma	-10.5705
yorlardı	-10.5706
more	-10.5706
▁Bizi	-10.5709
▁olabiliriz	-10.571
▁kısaca	-10.5712
▁bulduğum	-10.5712
▁Amerikalılar	-10.5714
▁MIT	-10.5716
▁Seyirci	-10.5716
▁dehşet	-10.5716
▁düğme	-10.5716
▁Doktor	-10.5716
▁qarşı	-10.5717
▁macera	-10.5717
▁sensör	-10.5717
▁unsur	-10.5717
▁konuşur	-10.5717
▁izleyici	-10.5723
▁buyuk	-10.5726
▁anlattığı	-10.5727
▁kafe	-10.573
▁üretken	-10.573
▁planı	-10.5731
▁dua	-10.5745
görebiliyorsunuz	-10.5745
org	-10.5747
▁yakalan	-10.5748
▁nöro	-10.5751
▁bat	-10.5754
▁odaklanma	-10.576
▁satıl	-10.5762
▁There	-10.5768
ebiliyoruz	-10.5776
lemiş	-10.5784
zerinde	-10.5787
▁tanıy	-10.5791
▁fırtına	-10.5803
▁egzersiz	-10.5803
▁senaryo	-10.5803
▁İlginç	-10.5803
▁Tarih	-10.5803
▁evrende	-10.5805
▁algılama	-10.5805
▁uzaktan	-10.5806
▁oturdu	-10.5806
▁kilise	-10.5809
▁sağladığı	-10.5811
▁harcadı	-10.5824
▁üreten	-10.5843
▁hücrelerin	-10.5846
▁açar	-10.5851
▁hizmetleri	-10.5855
▁Gar	-10.5855
lərində	-10.5862
▁halkı	-10.5865
▁öğretmenler	-10.5866
▁nüfusun	-10.5869
giz	-10.5874
▁tüy	-10.5876
▁düşünen	-10.5879
▁enfeksiyon	-10.589
▁Değiş	-10.589
▁refah	-10.589
▁görülüyor	-10.589
bilirsek	-10.5891
▁pilot	-10.5891
▁tanıştım	-10.5891
▁görürüz	-10.5892
▁çeşitlilik	-10.5894
▁işini	-10.5895
▁iyisini	-10.5896
▁sorduk	-10.5897
▁yetiştirme	-10.5903
▁gec	-10.5908
▁şartlar	-10.591
▁Temel	-10.5911
▁aletler	-10.5914
▁Tanrım	-10.5916
▁evim	-10.5923
▁kazanma	-10.5925
▁ilgilenme	-10.593
▁içeriyor	-10.5931
▁İz	-10.5937
▁savaşın	-10.594
▁istiyordum	-10.5945
▁yaşındaydı	-10.5947
▁Hayal	-10.5949
▁şeklini	-10.5949
things	-10.5949
▁ruhu	-10.5951
▁oranları	-10.5953
▁Harvard	-10.5977
▁Merhaba	-10.5977
▁galax	-10.5977
▁İste	-10.5978
▁üretici	-10.5982
▁bant	-10.5985
▁başardı	-10.5986
▁ölen	-10.5989
▁tutan	-10.599
▁kalıcı	-10.5992
▁doğduğu	-10.5995
▁geleceğin	-10.5996
▁okulu	-10.5998
▁oyunun	-10.5998
▁topu	-10.6005
▁yapmaz	-10.6015
▁Av	-10.6025
bilimci	-10.6026
▁fırlat	-10.6031
▁riski	-10.6033
▁sera	-10.6034
▁Japon	-10.604
▁Web	-10.604
▁girdiği	-10.6041
▁yapın	-10.6041
▁öğreniyor	-10.6042
▁etkiledi	-10.6043
▁Kom	-10.6048
▁resimde	-10.6049
lanmıştı	-10.606
▁milli	-10.606
▁pratik	-10.6066
▁Obama	-10.6066
▁ayağa	-10.6066
▁tahri	-10.6067
▁Biliyoru	-10.6067
▁annesi	-10.607
▁millet	-10.6071
▁bilmiyordum	-10.6073
▁potansiyeli	-10.6074
▁geçirmek	-10.6077
▁yapmalıyız	-10.6079
▁Mal	-10.6079
ical	-10.6082
▁temas	-10.6085
▁gezin	-10.6088
▁Büyü	-10.6089
▁baktık	-10.6089
▁saniyede	-10.6091
▁yazıyor	-10.6095
▁Deney	-10.6097
▁yarıyor	-10.6099
▁kimlik	-10.61
▁katıldı	-10.6104
▁değerler	-10.6106
▁tarihin	-10.611
▁may	-10.6114
▁herkesi	-10.6115
▁fotoğraflar	-10.6116
J	-10.612
leştiği	-10.6128
abilecekleri	-10.6131
▁liderler	-10.6134
▁geçmişi	-10.6138
▁üstü	-10.6138
▁benimse	-10.6139
▁kavramı	-10.6139
▁çünk	-10.6146
▁gittiğini	-10.6148
▁şaşırt	-10.6149
▁değerleri	-10.6152
▁Öğren	-10.6152
▁Charles	-10.6155
▁Çevre	-10.6155
▁Hareket	-10.6155
▁Tahmin	-10.6155
▁terörist	-10.6156
▁gösterdiğim	-10.6157
▁Film	-10.616
▁yapabilmek	-10.6163
▁kova	-10.6166
▁matematiksel	-10.6166
▁Şey	-10.6167
▁ekledi	-10.6172
▁gideceği	-10.6183
▁oğlu	-10.6183
▁does	-10.619
▁öneri	-10.6191
▁veriyorlar	-10.6197
rayı	-10.6198
▁renkler	-10.6199
▁gitmeye	-10.62
▁inşaat	-10.6203
▁türün	-10.6215
▁yararlan	-10.6234
▁kaldım	-10.6234
▁kullanılabilir	-10.6237
▁bilinçli	-10.6238
▁etkiler	-10.624
▁çekim	-10.6242
▁akciğer	-10.6245
▁iPhone	-10.6245
▁teslim	-10.6245
▁ötürü	-10.6245
▁elbise	-10.6245
▁1960	-10.6247
▁büyüleyici	-10.6248
▁human	-10.6249
▁duyduğum	-10.6249
▁kaz	-10.625
▁Lak	-10.625
▁vermiş	-10.625
▁kozm	-10.625
▁kadınlara	-10.6255
▁organizmalar	-10.626
▁haritası	-10.626
acaba	-10.6266
▁Mary	-10.6268
▁sesler	-10.6268
▁amma	-10.627
leyip	-10.6277
▁olabiliyor	-10.6278
▁sıcaklık	-10.6279
▁Git	-10.6289
amam	-10.629
▁vücudunuz	-10.63
▁farketti	-10.6301
▁kalacak	-10.6301
▁tasarlan	-10.6303
▁hile	-10.6304
▁sorusu	-10.6307
▁Sha	-10.6307
▁demir	-10.6313
▁sav	-10.6314
▁Eve	-10.6329
▁teorisi	-10.6331
▁Yarı	-10.6332
▁titre	-10.6336
▁2010	-10.6336
▁Cevap	-10.6336
▁fərq	-10.6336
▁seçeneği	-10.6336
▁yunus	-10.6336
▁döndüğü	-10.6337
▁need	-10.6338
▁yoksulluk	-10.6339
▁öncelikle	-10.634
▁gördünüz	-10.6341
▁sual	-10.6341
▁etkileyen	-10.6342
▁olurlar	-10.6344
▁çarpıcı	-10.6345
▁boşluğu	-10.6354
▁açan	-10.6357
▁duyduğumuz	-10.6359
▁wh	-10.6359
▁katılım	-10.636
▁hapse	-10.6362
▁İndi	-10.6365
▁azalma	-10.6367
▁hiss	-10.6369
▁tamamıyl	-10.637
▁bö	-10.6373
▁devrimi	-10.6375
▁Art	-10.6376
▁bulmuş	-10.6382
▁anti	-10.6384
▁mənə	-10.6389
▁toprağı	-10.6392
emezsiniz	-10.6393
▁güçlendir	-10.6394
▁çiftçiler	-10.6397
▁aksin	-10.6401
▁yapısını	-10.6407
▁parçasını	-10.6408
▁hazırladı	-10.641
▁hastaların	-10.641
▁bakmaya	-10.6412
▁günümüz	-10.6413
▁çevirme	-10.6418
▁vücudu	-10.642
lediğimiz	-10.6421
mağa	-10.6424
▁olağan	-10.6428
▁mahkeme	-10.6428
▁1980	-10.6428
▁1990	-10.6428
▁empati	-10.6428
▁universe	-10.6428
▁dördüncü	-10.6428
▁gömül	-10.6428
▁anket	-10.6429
▁ajan	-10.6431
▁üretiyor	-10.6431
▁başlayacak	-10.6436
landırıl	-10.6439
▁üyesi	-10.645
▁yaparlar	-10.6455
▁ço	-10.6457
▁normalde	-10.6469
▁damla	-10.647
▁gizem	-10.6471
▁işlerini	-10.6473
▁oturan	-10.6473
▁şimdiki	-10.6475
matik	-10.6476
ılmıştı	-10.6489
▁katlan	-10.6492
▁görebilir	-10.6493
▁tarihte	-10.6497
▁kaldığı	-10.6502
▁solu	-10.6517
▁klasik	-10.652
▁siyaset	-10.652
▁Dört	-10.652
▁hidrojen	-10.6521
▁Sırada	-10.6521
▁tarla	-10.6523
▁gelenek	-10.6525
▁umudu	-10.6526
▁vs	-10.6526
▁yaprak	-10.6527
▁aklımız	-10.6529
▁inek	-10.653
▁yaşımda	-10.6531
▁korunma	-10.6533
▁hisse	-10.6543
▁düzeltme	-10.6547
▁olursunuz	-10.6556
ceği	-10.6558
▁karşılıklı	-10.6561
▁tanıdık	-10.6564
▁çarpı	-10.6565
▁ölümün	-10.6566
▁İnsanları	-10.6579
lduğunu	-10.658
▁sent	-10.6585
▁gücün	-10.6585
vol	-10.6586
▁ilkel	-10.6586
▁duyur	-10.659
▁iniş	-10.6591
▁bölgesi	-10.6596
▁once	-10.6599
▁Mac	-10.6599
▁korkuyor	-10.6607
▁bilmediği	-10.6608
▁Birisi	-10.6609
▁açığ	-10.6613
▁kaçınılmaz	-10.6614
▁kompleks	-10.6614
▁büyükanne	-10.6615
▁Amazon	-10.6615
▁neçə	-10.6615
▁Böylelikle	-10.6617
▁fizikçi	-10.6619
▁düşünelim	-10.6622
▁kurgu	-10.6622
ydü	-10.6624
▁MS	-10.6629
▁yetenekleri	-10.6633
▁adil	-10.6634
▁planet	-10.6638
▁elektron	-10.6638
▁gitmiş	-10.6643
emem	-10.6646
▁nerde	-10.665
deyken	-10.6653
▁kızın	-10.6653
▁çim	-10.6654
▁Rusya	-10.6655
▁istediğini	-10.666
▁bulunmakta	-10.6667
ncil	-10.6675
▁lot	-10.6676
▁okur	-10.6678
▁düşündüğü	-10.668
▁çocuklarını	-10.6684
▁Pan	-10.6692
▁hatırlama	-10.6692
▁My	-10.6699
▁pis	-10.6702
▁yapacağını	-10.6704
▁tavan	-10.6706
▁elə	-10.6707
▁devamlı	-10.6708
▁penguen	-10.6708
▁teleskop	-10.6708
▁sivrisinek	-10.6708
▁şahit	-10.6708
▁ötesin	-10.6709
▁600	-10.6709
▁inceley	-10.671
▁yapılacak	-10.6711
▁Açıkça	-10.6712
▁element	-10.6713
▁kimliği	-10.6714
▁ücretsiz	-10.6714
▁düşünürseniz	-10.6715
▁kızım	-10.6715
▁Ger	-10.6716
▁istiyorsunuz	-10.6717
▁otel	-10.6718
leşiyor	-10.672
▁geçici	-10.6722
▁bulunur	-10.6723
▁CO	-10.6726
▁oluşturduğu	-10.6732
▁gelişti	-10.6734
▁Sh	-10.6737
▁kası	-10.6739
▁edemez	-10.6741
▁düşüncesi	-10.6743
cy	-10.6744
▁tüp	-10.6744
▁başlamıştı	-10.6745
▁modeller	-10.6751
abileceğim	-10.6767
▁dokunma	-10.6774
▁görülme	-10.6779
▁pazarlama	-10.6796
sünüz	-10.6797
▁aldılar	-10.6799
▁fenomen	-10.6803
▁göğüs	-10.6803
▁tekerlek	-10.6803
▁mağaza	-10.6803
▁yirmi	-10.6804
▁Ardında	-10.6805
▁ekleme	-10.6807
▁entegr	-10.6809
▁kutusu	-10.6813
▁seferinde	-10.6813
▁danışman	-10.6817
▁görüntüleri	-10.682
▁onar	-10.6821
▁resimleri	-10.6821
▁doğrusu	-10.6823
▁mıydı	-10.6823
▁Senin	-10.6828
▁sure	-10.6831
▁gelişen	-10.6832
▁Che	-10.6833
▁olunca	-10.6839
▁dersiniz	-10.684
▁sorumluluğu	-10.6844
▁fotoğrafları	-10.6848
▁Nerede	-10.6852
▁yönetimi	-10.6855
▁alınan	-10.6866
cük	-10.6866
▁yapamaz	-10.6884
▁öğrencisi	-10.6885
▁öğrencilerin	-10.6886
▁zararlı	-10.689
▁Wo	-10.6893
ünüzü	-10.6896
▁Burda	-10.6898
▁gönderdi	-10.6899
▁Michael	-10.69
▁uşaq	-10.69
▁metafor	-10.69
▁tatmin	-10.69
▁terapi	-10.69
▁kiçik	-10.6902
▁2009	-10.6904
▁2007	-10.6905
ecekti	-10.6907
▁düşünüyorsunuz	-10.6909
▁BM	-10.6922
▁kuruyor	-10.6924
ything	-10.6925
emeyecek	-10.6932
▁deyə	-10.6938
▁konuştuk	-10.6938
▁toplumu	-10.6941
▁ayrılma	-10.6946
▁tekne	-10.6948
▁sonun	-10.6949
▁atmosferi	-10.695
▁Tə	-10.6953
▁özgün	-10.696
▁bacakları	-10.6968
▁koyun	-10.697
▁kardeş	-10.6977
▁istiyordu	-10.6978
▁kent	-10.6979
▁keşfetmek	-10.6989
▁sigorta	-10.6997
▁Kötü	-10.6997
▁imkân	-10.6997
▁tecavüz	-10.6997
▁Earth	-10.6997
▁nitelik	-10.6997
▁uzunluğunda	-10.6997
▁bulgu	-10.6998
▁sözcük	-10.6999
▁insanlığın	-10.7
▁Yıllar	-10.7004
laştırma	-10.7004
▁panel	-10.7005
▁politikacılar	-10.7006
▁istekli	-10.7008
▁Yapma	-10.7009
layacağız	-10.7012
▁kendisinin	-10.7012
▁birleşi	-10.7014
▁yürüdü	-10.7015
▁pul	-10.7017
▁giderken	-10.7018
▁izlemek	-10.7024
▁poli	-10.7046
▁65	-10.7056
▁yürüyor	-10.7056
▁harcan	-10.7064
▁küçü	-10.7067
▁evlen	-10.7074
▁çəki	-10.7079
▁kapasitesi	-10.7082
▁yazılmış	-10.7093
ollywood	-10.7095
▁garanti	-10.7095
▁kalabalık	-10.7095
▁Pakistan	-10.7095
▁keyif	-10.7095
▁lamba	-10.7095
▁ispat	-10.7095
▁uzağ	-10.7096
▁belirgin	-10.7098
▁uzmanı	-10.71
▁eksen	-10.7107
▁boru	-10.7112
▁modelleri	-10.7115
▁ürettiği	-10.7116
▁kelimesini	-10.7119
▁alıyorlar	-10.7119
▁yoğunlaş	-10.712
▁dokusu	-10.7122
▁Col	-10.7124
▁most	-10.7129
▁hey	-10.713
mişlerdi	-10.7136
▁best	-10.7137
lenir	-10.7141
▁gidebilir	-10.7142
▁çocukken	-10.7155
lebilir	-10.7161
▁yıldızlar	-10.7163
▁atar	-10.7164
▁Mont	-10.7164
ntro	-10.7165
▁doktoru	-10.7167
▁üretti	-10.7175
▁büyüklüğü	-10.7179
▁Arka	-10.7192
▁döneminde	-10.7193
▁kaynaklı	-10.7193
▁Francisco	-10.7194
▁Thomas	-10.7194
▁merdiven	-10.7194
▁muhafaza	-10.7194
▁akraba	-10.7194
▁medeniyet	-10.7194
▁Mutlu	-10.7194
▁matter	-10.7194
▁great	-10.7194
▁ayrıntı	-10.7195
▁put	-10.7198
▁balıkçı	-10.7201
▁person	-10.7201
▁sili	-10.7204
laşmış	-10.7207
▁söyleyecek	-10.7209
▁bot	-10.721
▁getirdik	-10.7217
▁etmez	-10.7217
dəki	-10.7223
ıvı	-10.7225
▁uydur	-10.7227
▁Dış	-10.7228
ilecek	-10.7229
rerek	-10.7232
▁ulaştır	-10.7232
▁Birinci	-10.7233
▁öğrenir	-10.7234
▁Far	-10.7245
▁bitirmek	-10.7256
▁İst	-10.726
hop	-10.7263
▁dolan	-10.7266
▁bahsetme	-10.7271
▁Min	-10.7276
▁açıyor	-10.7277
▁bildiğim	-10.7278
▁etkisini	-10.7278
▁direnç	-10.7294
▁futbol	-10.7294
▁hemşire	-10.7294
▁Herşey	-10.7295
▁Paris	-10.7303
▁görebileceğiniz	-10.7304
▁cha	-10.7311
▁taşıyan	-10.7319
▁ilgileniyor	-10.7325
▁yaşlanma	-10.7327
▁iyileştirme	-10.7329
▁sürme	-10.7332
▁programları	-10.7333
▁yerleştirdi	-10.7333
▁denk	-10.7335
▁denir	-10.7335
▁geçtiğimiz	-10.7342
zaman	-10.7344
bol	-10.735
sızın	-10.7351
▁olmalıdır	-10.7351
▁Nor	-10.7351
▁kılan	-10.7355
▁geldiğimiz	-10.7372
▁tanesini	-10.7373
▁çizme	-10.7385
▁öncü	-10.7387
▁dinlemek	-10.7393
▁Africa	-10.7395
▁Gezegen	-10.7395
▁stüdyo	-10.7395
▁Hayvan	-10.7395
▁keşfi	-10.7395
▁koltuk	-10.7395
▁travma	-10.7395
▁Martin	-10.7395
▁Beyaz	-10.7395
▁ilerliyor	-10.7395
fore	-10.7397
▁gerçekleşen	-10.7398
MA	-10.7403
▁liderleri	-10.7404
iken	-10.7404
▁tell	-10.7409
▁direk	-10.7417
▁okyanusun	-10.7423
▁tetik	-10.7425
▁Esas	-10.7432
▁tez	-10.7437
▁ağırlık	-10.7439
▁kazanmak	-10.7441
qui	-10.7444
▁yüzünü	-10.7445
▁üye	-10.7446
▁çıkacak	-10.7447
▁göründüğü	-10.7448
▁yoğunluğu	-10.7462
▁rolü	-10.7463
▁yaşadığım	-10.7464
▁hayvanları	-10.7476
▁eşim	-10.7479
ember	-10.7479
▁konuşu	-10.7482
▁niye	-10.7488
▁tesadüf	-10.7497
▁through	-10.7497
▁ölümcül	-10.7497
▁redded	-10.7497
▁nasil	-10.7497
▁felci	-10.7497
▁yurt	-10.7497
▁otorite	-10.7498
▁animasyon	-10.7499
▁yaxın	-10.7499
▁Latin	-10.7501
▁bırakır	-10.7502
▁ekonomisi	-10.7504
▁çocuklarımız	-10.7505
▁olmalıyız	-10.7519
▁Bayan	-10.7526
▁grip	-10.7527
abilmesi	-10.7532
▁tanımlay	-10.7536
ayet	-10.7545
▁pop	-10.7548
▁şekillerde	-10.7552
ful	-10.7553
▁sars	-10.7565
çü	-10.7572
▁çalışıyordum	-10.7578
▁hayatımda	-10.7581
▁düşünmemiz	-10.7586
▁keşfettik	-10.7588
▁koyduk	-10.7591
▁kul	-10.7595
▁protesto	-10.76
▁Dikkat	-10.76
▁story	-10.76
▁tavuk	-10.76
▁iyileşme	-10.7601
▁digər	-10.7602
▁Karşı	-10.7602
▁desteği	-10.7603
▁geçirdiği	-10.7603
▁vadede	-10.7608
▁ömrü	-10.761
▁Korku	-10.7611
▁Well	-10.7611
▁yapabilme	-10.7611
▁yarattık	-10.7614
▁duymak	-10.7618
▁oturur	-10.7618
▁Dağ	-10.762
lanacak	-10.7623
▁amacıyla	-10.7623
▁edilemez	-10.7627
▁tasarladı	-10.7628
▁temin	-10.7631
▁topluluğun	-10.7635
▁Devlet	-10.7641
▁Çalışma	-10.7647
▁bekler	-10.7651
▁ilerledi	-10.7653
▁ilişkileri	-10.7662
▁düşer	-10.7666
▁artışı	-10.7667
▁gelmiyor	-10.7667
məyi	-10.7668
▁ayırma	-10.7669
read	-10.7675
▁gelmez	-10.7676
▁detaylı	-10.7678
▁eleman	-10.7679
▁geleceğ	-10.769
▁duyguları	-10.7691
▁sayısını	-10.7694
▁olmalıydı	-10.7694
▁tanışma	-10.7699
▁oldugu	-10.7701
▁çamaşır	-10.7704
▁efsane	-10.7704
▁bayağı	-10.7704
▁huzur	-10.7704
▁dunya	-10.7704
▁yazıcı	-10.7705
▁yazarı	-10.7709
▁olacağım	-10.771
▁yil	-10.7715
▁diyecek	-10.773
laştı	-10.7732
▁izlediği	-10.7743
▁Tur	-10.7745
▁etmesini	-10.7746
▁noktasında	-10.7751
▁Devletleri	-10.7758
lərlə	-10.7764
▁Bə	-10.7767
▁yaratıcılık	-10.7772
▁part	-10.7772
▁duyuyoru	-10.7779
▁vücudumuz	-10.7782
▁şirketin	-10.7788
▁öngör	-10.779
▁aralarında	-10.7804
▁Enstitüsü	-10.7809
▁matematiğ	-10.7809
▁perspektif	-10.7809
▁Süper	-10.7809
▁karbondioksit	-10.7809
▁olumsuz	-10.7809
▁pompa	-10.7809
▁röportaj	-10.7809
▁koleksiyon	-10.7809
▁korteks	-10.7809
▁kırıklığı	-10.7809
▁Frank	-10.781
▁Kanser	-10.781
▁Robot	-10.7811
▁söylemeliyim	-10.7811
▁India	-10.7812
▁aradı	-10.7816
▁MR	-10.7816
batı	-10.7818
▁memur	-10.7819
▁öldüğü	-10.7826
▁Yaptığı	-10.7827
▁yapacağımız	-10.7833
▁Ölüm	-10.7834
▁olmazdı	-10.7846
▁edebileceğiniz	-10.7853
▁atmak	-10.7855
▁kitab	-10.7866
▁sınıfta	-10.7868
luğunu	-10.7875
▁onlarca	-10.7887
▁söyleyeceğim	-10.7888
layabilirsiniz	-10.7889
▁ağın	-10.7898
▁antik	-10.7899
▁kayda	-10.7909
▁öyrə	-10.7911
▁hazırlama	-10.7911
▁big	-10.7912
▁sistemlerin	-10.7914
▁değiştirir	-10.7914
▁tiyatro	-10.7916
▁Alzheimer	-10.7916
▁felsefe	-10.7916
▁müzisyen	-10.7916
▁roket	-10.7916
▁çelişki	-10.7916
▁Geçmiş	-10.7916
▁sıçra	-10.7916
▁otizm	-10.7916
▁evlilik	-10.7918
ılıp	-10.7918
▁söylemeye	-10.7921
▁dönelim	-10.7921
▁durdurma	-10.7922
▁derler	-10.7925
▁bah	-10.7928
▁kullanacağı	-10.793
▁yiyor	-10.7937
▁inanıyoruz	-10.7939
▁çip	-10.7952
▁unutu	-10.7957
▁terör	-10.7959
▁okudum	-10.7963
▁yaklaşımı	-10.7966
▁yönü	-10.7969
▁geliştiril	-10.797
▁elma	-10.7978
▁içme	-10.798
▁kurulu	-10.7981
▁kullanmayı	-10.7984
▁değiştirecek	-10.7991
▁mutluluğu	-10.7994
▁ışın	-10.7998
▁saldır	-10.7999
▁elini	-10.8002
▁şəkil	-10.8005
▁Kor	-10.8009
doğu	-10.801
liğimiz	-10.8012
ound	-10.8022
▁opera	-10.8023
▁1970	-10.8023
▁Fotoğraf	-10.8023
▁astronom	-10.8023
▁bağışıklık	-10.8023
▁Boston	-10.8023
▁filtre	-10.8023
▁açlık	-10.8023
▁parmağı	-10.8024
▁being	-10.8027
▁yönünde	-10.8028
▁gerçekleşiyor	-10.8029
▁mühendisliği	-10.8029
▁akışı	-10.8031
▁aktör	-10.8033
▁istiyorsak	-10.8033
▁düşünerek	-10.8042
laşıyor	-10.8043
▁Mavi	-10.8054
▁kodu	-10.8057
▁yaşlarında	-10.806
▁bakıyoruz	-10.8062
▁ellerinde	-10.8067
▁bahseder	-10.8067
▁seviyesinde	-10.8074
▁Görüyorsun	-10.8076
▁kaldık	-10.8077
▁harcay	-10.8082
▁bahsettiği	-10.8089
▁yükle	-10.8094
▁cins	-10.8111
▁Kuru	-10.8122
▁farketme	-10.8126
▁yapabileceğiniz	-10.8127
▁sokakta	-10.8129
meliyim	-10.8131
▁çirkin	-10.8132
▁canavar	-10.8132
▁felç	-10.8132
▁ümit	-10.8132
▁ancaq	-10.8132
▁stand	-10.8132
▁Dışarı	-10.8133
▁eyni	-10.8133
▁kaydetti	-10.8134
▁kucak	-10.8135
▁poster	-10.8136
▁reform	-10.8136
▁verdiğim	-10.8136
▁atış	-10.8138
▁konuşurken	-10.814
▁kafatası	-10.8143
▁Peter	-10.8145
▁Pazar	-10.8146
▁uyumlu	-10.8149
▁öden	-10.8152
▁bekleyen	-10.8152
▁tüketimi	-10.8153
▁10.000	-10.8156
▁kazı	-10.8157
otik	-10.816
▁kış	-10.8163
▁heyecanlandır	-10.8163
▁gerçekleşti	-10.8165
lemez	-10.8169
▁Tanı	-10.8185
▁yıldızı	-10.8185
▁anlatmaya	-10.8191
▁Gece	-10.82
▁Mark	-10.8202
amıyorlar	-10.8206
▁nüfusunu	-10.8211
▁kızların	-10.8212
▁davranışları	-10.8218
▁Cam	-10.8229
▁Görü	-10.8229
▁nüfusu	-10.8237
▁ölçme	-10.8241
▁Hükümet	-10.8242
▁YouTube	-10.8242
▁lezzet	-10.8242
▁school	-10.8242
▁önyargı	-10.8242
▁kavga	-10.8242
▁Çox	-10.8242
▁Thank	-10.8242
▁pembe	-10.8242
▁gücümüz	-10.8242
▁online	-10.8242
▁ima	-10.8246
▁sonuc	-10.8246
▁gelmeye	-10.8247
▁sevdi	-10.8247
▁talk	-10.8247
▁umuyorum	-10.8248
▁vereyim	-10.8252
▁yaparsınız	-10.8257
▁kazanan	-10.8271
▁uğraşma	-10.8284
▁ismini	-10.829
▁yararı	-10.8292
▁paylaştı	-10.8307
▁doğası	-10.8308
▁ettirme	-10.8311
▁sevin	-10.8316
▁görünme	-10.8324
▁yerleş	-10.8332
biliyorum	-10.8333
▁umur	-10.8334
▁görüntüleme	-10.8342
▁köpeği	-10.8353
▁picture	-10.8353
▁şikayet	-10.8353
▁Aşağı	-10.8353
▁görmüyor	-10.8353
▁psiko	-10.8353
▁anımsa	-10.8353
gər	-10.8353
▁Ödül	-10.8354
▁zorunlu	-10.8355
▁kablosuz	-10.8356
▁vurgu	-10.8356
▁göreceğiz	-10.8357
▁arayı	-10.8359
▁çekilmiş	-10.8363
▁etmişti	-10.8365
▁yaparız	-10.8366
▁benzin	-10.8371
▁Kafa	-10.8374
▁gücüne	-10.8376
▁bulunduğumuz	-10.8376
▁işlemi	-10.838
▁arkasındaki	-10.8385
▁söylemişti	-10.8386
▁32	-10.8386
▁göl	-10.8391
▁etrafındaki	-10.8401
▁gidiyoruz	-10.8407
lmasını	-10.8414
▁aramızda	-10.8417
▁oldugunu	-10.8429
berg	-10.8438
▁davranışı	-10.8438
▁yapılabil	-10.8441
▁öğrenmeye	-10.8448
▁kullanabileceği	-10.8448
ıldığını	-10.8449
▁şiddetli	-10.845
▁odadaki	-10.8453
▁başardık	-10.8453
▁kardeşi	-10.8457
▁şef	-10.8463
alesef	-10.8465
▁different	-10.8465
▁Pasifik	-10.8465
▁cazibe	-10.8465
▁kılavuz	-10.8465
▁sıkıştır	-10.8465
▁yumuşak	-10.8465
▁Önemli	-10.8465
▁gübre	-10.8465
▁erkeğ	-10.8465
▁deprem	-10.8465
▁şarap	-10.8466
▁bölümünü	-10.8471
▁2005	-10.8472
▁fotoğrafçı	-10.8481
▁okulun	-10.8482
▁çelik	-10.8484
▁bariz	-10.8488
▁duvarı	-10.8489
▁görünüyordu	-10.8497
▁döngüsü	-10.8498
▁yarısını	-10.8499
▁yollarını	-10.8501
▁çoğumuz	-10.8504
▁erişimi	-10.8505
▁orası	-10.8508
▁ülkedeki	-10.8509
▁evinde	-10.8511
▁kesme	-10.8513
▁değişen	-10.8515
▁kolaylaştır	-10.8517
▁görünüm	-10.8517
amadım	-10.8517
▁etik	-10.8518
▁yaratıcılığı	-10.8527
laştığı	-10.8529
▁gözlü	-10.854
▁anlamamız	-10.8541
▁tamamını	-10.8545
▁kurtulma	-10.8548
▁eğitme	-10.8549
▁birbirlerini	-10.8552
▁etkiliyor	-10.8558
▁bölgelerinde	-10.856
▁neşe	-10.8565
▁yaşta	-10.8575
▁Lütf	-10.8579
▁motivasyon	-10.8579
▁sürpriz	-10.8579
▁frekans	-10.8579
▁meslektaşları	-10.8579
▁Yeşil	-10.8579
▁diyebiliriz	-10.8579
▁fotograf	-10.8579
▁somut	-10.8579
▁Söz	-10.8579
▁Milletler	-10.8579
▁Fikir	-10.8579
▁edeceğiz	-10.8579
▁protez	-10.8579
▁əsas	-10.8579
▁gülüşmeler	-10.858
▁pasif	-10.858
▁biriktir	-10.8582
▁mülk	-10.8582
▁bilmir	-10.8583
▁gittiğimde	-10.8584
▁metod	-10.8584
▁ölmüş	-10.8586
▁olabildiğin	-10.859
▁dalış	-10.8593
▁görebiliyoruz	-10.8595
▁deyir	-10.8595
▁uçağı	-10.8602
▁yerleştirme	-10.8607
▁güzelliği	-10.8616
▁Mah	-10.8617
▁kullanabil	-10.8618
digim	-10.8631
▁geçirir	-10.8637
▁gizemli	-10.864
▁değiştirmeye	-10.8641
▁öncesinde	-10.8642
▁veriyorum	-10.8644
▁edebilecek	-10.8652
▁cebi	-10.8654
▁sınıfı	-10.8654
niversite	-10.8659
▁savaşta	-10.866
▁duyduğu	-10.8665
▁koştu	-10.8666
▁ödülü	-10.8669
▁geliştirdik	-10.8669
▁dışındaki	-10.867
hoo	-10.8672
▁alabil	-10.8676
▁parla	-10.8677
▁ödeye	-10.8684
▁tara	-10.8686
▁orkestra	-10.8694
▁Kongre	-10.8694
▁grafiğ	-10.8694
▁learn	-10.8694
▁gökada	-10.8694
▁istəyirəm	-10.8695
▁koruyucu	-10.8696
▁wom	-10.8697
▁hücrelerini	-10.8698
▁dönüştürül	-10.8705
▁Düz	-10.8705
▁ekipman	-10.8709
▁Tim	-10.8711
▁edersek	-10.8711
▁Yaptığımız	-10.8713
▁yatağı	-10.8715
▁gəlir	-10.8718
▁Bang	-10.8728
▁kalmıyor	-10.8728
▁dağıtım	-10.8731
▁üyeleri	-10.8742
▁zehir	-10.8759
▁ildə	-10.8759
▁ulaşabil	-10.8759
▁geleceğini	-10.8764
▁getirecek	-10.8769
▁akış	-10.8771
▁oluştu	-10.8786
▁varlığını	-10.8795
▁almayı	-10.8796
▁genelinde	-10.8797
labilirsiniz	-10.8802
teknoloji	-10.8802
keresinde	-10.8805
▁19.	-10.8807
▁dâhil	-10.881
▁elektriğ	-10.881
▁konsept	-10.881
▁question	-10.881
▁çıplak	-10.881
▁ömür	-10.881
▁hariç	-10.881
▁itiraf	-10.881
▁Kitap	-10.881
▁keskin	-10.8812
▁mısır	-10.8812
▁biyolog	-10.8812
▁sanmıyorum	-10.8812
▁good	-10.8813
▁Başarı	-10.8814
▁kəs	-10.8816
▁sınav	-10.8817
▁2004	-10.8817
▁250	-10.8817
▁utanç	-10.8818
▁verildi	-10.8819
▁Yazı	-10.8825
▁başım	-10.8828
▁düşünüyordu	-10.8828
▁sevdikleri	-10.8838
▁işliyor	-10.8844
▁istersiniz	-10.8844
▁mikroplar	-10.8853
▁başlamış	-10.8859
▁başlayabilir	-10.8863
hall	-10.8866
tığınızda	-10.8868
▁değişimin	-10.8871
▁alındı	-10.8876
▁gerçekçi	-10.8876
▁dönen	-10.8878
umuzu	-10.8884
▁kötüsü	-10.8891
▁Kısa	-10.892
meyeceğini	-10.892
▁hayatımızı	-10.8926
▁disiplin	-10.8928
▁Telefon	-10.8928
▁beklenmedik	-10.8928
▁orijinal	-10.8928
▁rehber	-10.8928
▁sebze	-10.8928
▁insanoğlu	-10.8928
▁İklim	-10.8928
▁tedarik	-10.8928
▁karşılaştığı	-10.8928
▁ətraf	-10.8928
▁kaybetmiş	-10.8928
▁rejim	-10.8928
▁resif	-10.8929
▁baylar	-10.8929
▁sekil	-10.893
▁mutasyon	-10.893
▁umutsuz	-10.8933
▁lazer	-10.8934
▁insansız	-10.8934
▁karşılaşma	-10.8935
▁DH	-10.8938
▁yapılabilir	-10.8938
fel	-10.8941
▁örtüsü	-10.8943
▁sihirli	-10.8944
▁izni	-10.8948
▁gösterilen	-10.8949
▁önemsiz	-10.8957
▁formu	-10.8957
▁şehirlerin	-10.8958
▁yazılı	-10.8959
lmüş	-10.8962
▁sadə	-10.8962
ildiğinde	-10.8962
▁sorduğum	-10.8967
▁Nə	-10.8971
▁İnan	-10.8976
lüğ	-10.8976
▁buradayım	-10.8977
▁soyu	-10.8981
▁güncel	-10.8986
▁bulundur	-10.8987
▁kuvvetli	-10.8996
▁büyüyor	-10.8998
▁Mor	-10.9002
dor	-10.9007
▁korkusu	-10.9009
▁evrimin	-10.9022
▁ulaştığı	-10.9022
▁kapsam	-10.9032
▁kaybettiği	-10.9034
▁Yara	-10.9037
▁yolculuğ	-10.9037
▁boyutta	-10.9047
▁alışkanlık	-10.9047
▁jenerasyon	-10.9047
▁mikroskop	-10.9047
▁radyasyon	-10.9047
▁Jeff	-10.9047
▁kullanışlı	-10.9047
▁kağıdı	-10.9047
▁word	-10.9047
▁gereği	-10.9048
▁eksikliği	-10.9048
▁yerlerinde	-10.9048
▁üretebil	-10.905
▁matematikçi	-10.9054
▁çalışmıyor	-10.9055
▁Kısaca	-10.9057
▁yetenekli	-10.9065
▁gösterecek	-10.9068
▁Birlikte	-10.9076
▁izleyen	-10.9094
▁yazan	-10.9095
yıllardır	-10.9096
▁genomu	-10.9097
▁alabilirsiniz	-10.9107
▁çıkarıp	-10.9114
▁görebilme	-10.9126
▁başlangıçta	-10.9135
▁soyle	-10.9137
▁istemedi	-10.9138
▁uzmanları	-10.9138
▁last	-10.9145
▁taşındı	-10.9146
▁kalitesi	-10.9146
▁korkma	-10.9148
▁özen	-10.9148
▁etkileme	-10.9153
▁giderse	-10.9153
▁Alan	-10.9163
▁kusur	-10.9166
▁America	-10.9167
▁cömert	-10.9167
▁istisna	-10.9167
▁Öğretmen	-10.9167
▁meşhur	-10.9167
▁kavuş	-10.9167
▁portre	-10.9167
▁nakli	-10.9167
▁Fizik	-10.9168
▁kemiği	-10.9168
▁başladığımda	-10.9173
went	-10.9175
zgünüm	-10.9176
▁aşkın	-10.9181
▁simge	-10.9181
▁aldığınız	-10.9187
▁kalmadı	-10.919
▁sıcaklığı	-10.9195
▁cun	-10.9198
▁çözmeye	-10.9201
▁Ph	-10.9213
▁olacağına	-10.9216
metre	-10.9221
▁verilme	-10.923
▁iyileştir	-10.9232
▁olmayabilir	-10.9233
▁yapıldığını	-10.9243
▁paylaşım	-10.9271
▁maliyetli	-10.9279
▁işimiz	-10.9279
▁çıkması	-10.9282
▁hatırlıyor	-10.9282
▁Filistin	-10.9289
▁bəzi	-10.9289
▁intihar	-10.9289
▁endüstriyel	-10.9289
▁qoy	-10.929
▁yapımcı	-10.929
▁aktivist	-10.929
▁Siyah	-10.9291
▁duyduğunuz	-10.9292
▁Öğrenciler	-10.9293
▁edirəm	-10.9293
▁yangın	-10.9293
▁1950	-10.9295
▁komut	-10.93
▁açtığı	-10.9307
▁İçinde	-10.9308
ləşdir	-10.9309
▁amaçlı	-10.931
▁hattı	-10.9313
▁Big	-10.9317
▁alırsınız	-10.9318
▁Jim	-10.9323
▁haberleri	-10.9327
▁zehirli	-10.9344
▁yapıldığı	-10.9351
▁büyüdüğü	-10.9359
asiya	-10.9389
▁düşünmüyoru	-10.9398
▁idea	-10.941
▁Californi	-10.9413
▁thought	-10.9413
▁yepyeni	-10.9413
▁tarayıcı	-10.9413
▁vesaire	-10.9413
▁Uganda	-10.9413
▁optik	-10.9414
▁bilinmeyen	-10.9415
▁konuştuğumuz	-10.942
▁samimi	-10.9421
▁kurumsal	-10.9423
ışını	-10.9424
▁değişir	-10.9424
▁dibin	-10.9426
▁durur	-10.9435
▁yapmıştı	-10.9436
▁çılgınca	-10.9438
AR	-10.9443
▁öğrendiğimiz	-10.9445
▁yapıyorsunuz	-10.9449
▁temizleme	-10.945
▁yetişkinler	-10.9462
▁etken	-10.9464
▁katil	-10.9471
▁babamın	-10.9474
▁yakaladı	-10.9476
▁başlık	-10.9478
▁Çalış	-10.948
▁bildikleri	-10.9487
landığını	-10.9489
▁karmaşıklığı	-10.9494
▁yayınladı	-10.9496
▁ebeveynleri	-10.95
▁Gerçekte	-10.95
▁bilimciler	-10.9507
ğunu	-10.9532
duğunuzda	-10.9536
▁topluyor	-10.9536
▁Uluslararas	-10.9538
▁kromozom	-10.9538
▁should	-10.9538
▁örümcek	-10.9538
▁alakası	-10.9538
▁Eminim	-10.9538
▁Modern	-10.9538
▁gerektirir	-10.9538
cross	-10.9538
▁kabuk	-10.9538
▁sevimli	-10.9538
▁Haiti	-10.9539
▁ulaşılabilir	-10.9541
▁oynar	-10.9541
▁içgüdü	-10.9541
▁seyred	-10.9543
▁dizilim	-10.9544
▁destekleyen	-10.9546
▁sorgulama	-10.9547
▁kalmayı	-10.9548
▁elinizde	-10.9548
▁etmeliyiz	-10.9548
▁büyüy	-10.9551
▁olmalısınız	-10.9556
▁düşünürken	-10.9557
▁28	-10.956
▁hidro	-10.9566
▁metin	-10.9567
▁çocukluk	-10.9571
▁Doğal	-10.9572
▁umuyor	-10.9575
▁kazanç	-10.9577
▁şehirlerde	-10.9581
▁kapatma	-10.9581
▁katılımcı	-10.9585
▁yanımda	-10.9588
▁kurduğu	-10.959
▁zincir	-10.9599
▁kullanıldı	-10.9603
▁yapmasını	-10.9619
▁özür	-10.9624
burg	-10.9629
meyeceği	-10.9636
▁bacağı	-10.9644
▁basar	-10.9645
▁şebeke	-10.9664
▁maddə	-10.9664
▁mutsuz	-10.9664
▁Robert	-10.9665
▁Önümüzde	-10.9665
▁gidin	-10.9665
▁Hedef	-10.9665
▁oradaydı	-10.9665
▁gerektiren	-10.9667
▁alkol	-10.9668
▁Vadisi	-10.9669
▁dikey	-10.9671
▁götürüyor	-10.9675
▁yapılır	-10.9682
▁maç	-10.9685
▁çalışacak	-10.9688
▁kısme	-10.9689
leştiriyor	-10.9699
few	-10.9699
ustu	-10.9702
▁dinledi	-10.9702
▁yaşıyordu	-10.971
▁Ocak	-10.9712
▁Derek	-10.9712
▁konularda	-10.9723
lüğünü	-10.9723
▁Bob	-10.9724
▁çağında	-10.9728
▁yaşanan	-10.973
▁sag	-10.9735
▁yatıyor	-10.9741
▁sıkışı	-10.9745
▁hatırlayın	-10.9752
▁koyduğu	-10.9753
▁bölümünde	-10.9765
▁yavaşlat	-10.9778
▁sonuçlarını	-10.9787
▁çeşidi	-10.9792
▁Geçtiğimiz	-10.9792
▁asteroid	-10.9792
▁Street	-10.9792
▁qadın	-10.9792
▁olacaq	-10.9793
▁figür	-10.9793
▁Suriye	-10.9793
▁mikrofon	-10.9793
▁kendiliğinden	-10.9793
▁nazik	-10.9793
▁torba	-10.9793
azı	-10.9793
luyoruz	-10.9793
▁yolcu	-10.9797
▁yapabildiği	-10.9797
▁kuyruklu	-10.9799
▁Tor	-10.98
▁live	-10.98
▁kartı	-10.98
▁apar	-10.98
▁şempanzeler	-10.9804
▁Günü	-10.9805
▁fiyatı	-10.9806
▁dayanıyor	-10.9809
▁besleme	-10.9814
▁mantığı	-10.983
▁getirebilir	-10.983
abildik	-10.9831
▁yayılan	-10.9855
▁yayıldı	-10.9856
▁Chi	-10.9859
▁düzenlen	-10.9869
▁kalmıştı	-10.9871
▁paylaştığı	-10.9874
▁Okyanus	-10.9878
▁taşır	-10.9883
▁uyuş	-10.9887
▁okuyor	-10.9898
eşke	-10.9903
ürekli	-10.9912
▁hüküm	-10.9919
▁2011	-10.9922
▁Muhteşem	-10.9922
▁maske	-10.9922
▁Güç	-10.9923
seksüel	-10.9923
▁kaygı	-10.9923
▁oğlan	-10.9923
▁şerit	-10.9924
▁çember	-10.9924
▁ölçeği	-10.9925
▁düşünmüştü	-10.9925
▁fact	-10.9926
▁rica	-10.9928
▁siber	-10.9931
layabileceği	-10.9932
▁Whit	-10.9937
▁hatırlar	-10.9937
▁long	-10.9938
▁tutukla	-10.9939
▁götürür	-10.9939
▁yayılması	-10.9943
▁10,000	-10.9945
▁şehr	-10.9947
▁duymuş	-10.995
mezdi	-10.9954
ərək	-10.9961
▁Okyanusu	-10.9967
▁ölür	-10.9982
▁yerleşim	-10.9983
▁başladığını	-10.999
rtesi	-10.9992
▁kenarında	-10.9996
▁İster	-11.0006
▁göremedi	-11.0012
iving	-11.0019
60	-11.002
▁gerekecek	-11.0026
▁bazılarınız	-11.003
▁paylaşıyor	-11.0035
ju	-11.0039
▁akademi	-11.0054
▁liberal	-11.0054
▁ısrar	-11.0054
▁Kültür	-11.0054
▁Manhattan	-11.0054
▁kırılgan	-11.0054
▁teşkil	-11.0054
▁ölkə	-11.0054
▁cennet	-11.0054
▁ekstra	-11.0054
▁Problem	-11.0054
▁həqiqətən	-11.0054
▁maddi	-11.0054
▁kabiliyeti	-11.0055
▁partner	-11.0055
▁Program	-11.0055
▁play	-11.0055
▁torunları	-11.0055
▁büyüklükte	-11.0055
▁tören	-11.0055
▁ödev	-11.0057
▁baktığımda	-11.0058
▁boğul	-11.0061
▁kentsel	-11.0061
▁gidiş	-11.0062
▁Biyo	-11.0065
▁kapsamlı	-11.0068
▁çalma	-11.007
▁altta	-11.0073
▁PM	-11.0075
▁gerektiğin	-11.0085
▁kullanıyorum	-11.009
▁malzemeleri	-11.0099
▁bittiği	-11.0099
▁Yə	-11.0115
▁programlama	-11.0129
▁gönderiyor	-11.0137
▁hâlin	-11.0152
▁korktu	-11.0172
out	-11.0175
▁enstrüman	-11.0187
▁otomobil	-11.0187
▁countr	-11.0187
▁Enerji	-11.0187
▁Kırmızı	-11.0187
▁ideoloji	-11.0187
▁dəfə	-11.0187
▁çarpışma	-11.0188
▁hoca	-11.0188
▁Devam	-11.0188
▁kusursuz	-11.0189
▁sentez	-11.0189
▁Kullan	-11.0189
▁doğmuş	-11.0189
▁mezar	-11.019
▁enstitü	-11.0191
▁təsir	-11.0192
▁düşünmüyor	-11.0203
▁kurucu	-11.0203
▁kısıt	-11.0209
▁kazanıyor	-11.0211
laşır	-11.0211
▁kalırsa	-11.0214
▁bastır	-11.0218
▁verebil	-11.0227
başı	-11.0237
deydim	-11.0241
▁dördü	-11.0249
üydü	-11.0263
▁benzediğini	-11.0274
▁çekimi	-11.0284
▁tasarlay	-11.0288
▁yayımla	-11.0288
▁çarpma	-11.0291
leştirdi	-11.0299
▁durumunu	-11.0302
▁düzenledi	-11.0311
▁haqqında	-11.0322
▁bilişsel	-11.0322
▁Nobel	-11.0322
▁Etrafı	-11.0322
▁Yahudi	-11.0322
▁diyebilirsiniz	-11.0322
▁hakikat	-11.0322
▁place	-11.0323
▁öldürdü	-11.0323
▁ulduz	-11.0323
▁tərəfində	-11.0323
▁örtü	-11.0326
▁Mimar	-11.0327
▁tekniği	-11.0327
▁ödüllendir	-11.0331
▁düşünürsek	-11.0331
▁tanıştır	-11.0332
▁yetecek	-11.0336
▁formül	-11.0337
▁sözlük	-11.0339
▁koşulları	-11.0341
▁Anlat	-11.0343
▁oluşmuş	-11.0347
▁geçecek	-11.035
▁karşılaştırma	-11.0351
▁amca	-11.0352
digini	-11.0359
▁çare	-11.036
▁Rio	-11.0368
▁hita	-11.037
fic	-11.0374
▁ödedi	-11.0378
▁ilişkilendir	-11.0383
▁fikr	-11.0399
▁kurar	-11.0401
▁yapıcı	-11.041
▁bittiğini	-11.0415
▁yut	-11.045
▁kuyruk	-11.0453
▁atalarımız	-11.0458
▁mürekkep	-11.0459
▁CEO	-11.0459
▁Laboratuvar	-11.0459
▁hipotez	-11.0459
▁kapitalizm	-11.0459
▁bozukluk	-11.0459
▁inovasyon	-11.0459
▁zıt	-11.046
▁Çift	-11.046
▁trend	-11.0461
▁patron	-11.0464
▁yapamayacağı	-11.0464
▁İçeri	-11.0465
▁rota	-11.0465
▁çıktığını	-11.0466
▁yerleştiril	-11.0468
▁aptalca	-11.0476
BI	-11.0482
▁yıldızların	-11.0491
▁anlıyorum	-11.0494
▁bilinir	-11.0497
▁kaydetme	-11.0499
▁beton	-11.0504
▁takılı	-11.051
▁alınma	-11.0511
▁bıraktığı	-11.0521
▁okudu	-11.0538
bilim	-11.0538
▁düşünmeniz	-11.0539
▁120	-11.0541
▁eviniz	-11.0545
▁yayma	-11.0547
▁isteyeceği	-11.055
▁gidiyordu	-11.0553
▁içlerinde	-11.0567
riyoruz	-11.0569
▁salgı	-11.0577
▁bio	-11.0578
▁istəyir	-11.0597
▁haklarını	-11.0598
▁Hollanda	-11.0598
▁antibiyotik	-11.0598
▁dinozor	-11.0598
▁geometri	-11.0598
▁məktəb	-11.0598
▁three	-11.0598
▁çubuk	-11.0598
▁piyano	-11.0598
▁uğultu	-11.0598
▁simülasyon	-11.0598
▁create	-11.0598
▁fiziği	-11.0598
▁sabır	-11.0598
▁vadeli	-11.0599
▁santral	-11.0599
▁Hâl	-11.0599
▁Dön	-11.06
▁şov	-11.06
▁bilge	-11.0603
▁kutlama	-11.0604
▁istədi	-11.0604
▁kullanılma	-11.0605
▁Orman	-11.0606
▁writ	-11.0606
▁Merak	-11.0608
▁dönüşüyor	-11.0608
▁yaramaz	-11.0608
▁adres	-11.0613
▁sorunumuz	-11.0617
▁kaos	-11.0618
▁Olay	-11.0619
▁kaldırma	-11.0619
▁Matt	-11.0624
▁Wall	-11.0626
▁kısıtlama	-11.0633
▁bank	-11.0636
▁istediklerini	-11.0641
▁bakıyorum	-11.0641
▁buzun	-11.0643
▁love	-11.0648
▁kesiş	-11.0648
▁üs	-11.0656
▁jeo	-11.0664
▁sinema	-11.0687
▁kardeşleri	-11.0697
▁Gand	-11.0707
▁gözlerini	-11.0712
▁kalktı	-11.0715
▁yapardı	-11.0716
▁kaybediyor	-11.0717
▁muydu	-11.0725
▁çukur	-11.0739
▁istasyonu	-11.0739
▁tümüyle	-11.0739
▁dizüstü	-11.074
▁qız	-11.074
▁transfer	-11.074
▁sezon	-11.0741
▁Saturn	-11.0741
▁vb	-11.0741
▁cisim	-11.0742
▁taşıyıcı	-11.0743
▁sopa	-11.0746
▁satır	-11.0748
▁sokağ	-11.0751
▁qar	-11.0752
▁satıcı	-11.0756
▁sırrı	-11.0756
▁100.000	-11.0761
▁şəkildə	-11.0763
▁bakıyorsunuz	-11.0763
▁davranma	-11.0772
▁bırakıp	-11.0774
▁edinme	-11.078
▁çıkarak	-11.0782
▁olmasaydı	-11.0784
▁Durum	-11.0795
▁yüzeyinde	-11.0799
▁oturduğu	-11.08
▁okyanusta	-11.0805
▁26	-11.0808
leştirir	-11.0815
▁başarısızlık	-11.0815
▁sorduğu	-11.0815
▁üretir	-11.0822
▁yapmadı	-11.0831
taşı	-11.0836
▁Öte	-11.0841
▁yarısında	-11.0844
▁tri	-11.0847
▁öğretmenleri	-11.0854
▁Güven	-11.0861
▁saklı	-11.0861
▁canlandırma	-11.0863
▁birikim	-11.0863
▁hissetti	-11.0874
▁GSY	-11.0882
▁Chicago	-11.0882
▁mutfak	-11.0882
▁hacker	-11.0882
▁Kutbu	-11.0882
▁ressam	-11.0882
▁esnasında	-11.0882
▁profil	-11.0883
▁might	-11.0885
▁yitir	-11.0887
▁million	-11.0888
▁dünyamızı	-11.0889
▁Elimizde	-11.09
▁şair	-11.0913
▁dollar	-11.0914
▁asit	-11.0929
layabiliyor	-11.0929
▁uçtu	-11.093
▁ekliyor	-11.0933
▁miktarını	-11.0968
▁gerekmiyor	-11.0988
engin	-11.1011
diyini	-11.1027
▁Hristiyan	-11.1027
▁Körfez	-11.1027
▁enteresan	-11.1027
▁referans	-11.1027
▁şablon	-11.1027
▁diyalog	-11.1027
▁istikrar	-11.1027
▁aygıt	-11.1027
▁emisyon	-11.1027
▁karmaşa	-11.1027
▁cidden	-11.1027
▁Kongo	-11.1027
▁Bakanlığı	-11.1027
▁ultra	-11.1027
▁Bankası	-11.1027
▁metro	-11.1027
▁bozukluğu	-11.1028
▁tünel	-11.1029
▁kumanda	-11.1029
▁değiştiğini	-11.1029
▁gergin	-11.103
▁eşitsizlik	-11.103
▁basamak	-11.1031
▁2006	-11.1035
▁düğüm	-11.1036
▁Yerel	-11.1036
▁2003	-11.1037
▁give	-11.1037
▁yaşayacak	-11.104
▁severim	-11.1046
▁duman	-11.1046
▁gerçeğ	-11.1048
▁Güvenlik	-11.1049
▁anlatır	-11.1063
▁dark	-11.1065
▁hic	-11.1071
▁uçurum	-11.1078
▁açılma	-11.1097
əgər	-11.1099
▁oynadı	-11.1111
▁grub	-11.1111
▁iplik	-11.1114
▁eğil	-11.1126
▁başlatma	-11.1129
▁vermiyor	-11.1135
əcəyi	-11.1137
▁vazgeçme	-11.1138
BG	-11.1151
▁dolduru	-11.1164
bilecek	-11.1165
▁bağlaya	-11.1166
ırıq	-11.1166
▁sanıyor	-11.1168
▁vermişti	-11.1169
▁pişir	-11.1172
▁gecekondu	-11.1174
▁hərəkət	-11.1174
▁koridor	-11.1174
▁pirinç	-11.1174
▁Stanford	-11.1174
▁motive	-11.1174
▁Aristo	-11.1174
▁görünmüyor	-11.1174
▁kalori	-11.1175
▁paralel	-11.1175
▁Evrim	-11.1175
▁terörizm	-11.1175
▁point	-11.1176
▁uğraşıyor	-11.1176
▁pişirme	-11.1177
▁aşina	-11.1178
▁kaderi	-11.1178
▁işgal	-11.1179
▁söyleyeyim	-11.1179
▁bakımından	-11.118
▁uçma	-11.1181
▁Str	-11.1183
▁Noel	-11.1185
▁anlayama	-11.1189
▁öyleyse	-11.1191
▁aranızda	-11.1192
▁isimlendir	-11.1197
▁Ortalama	-11.1198
▁çevirdi	-11.1207
artan	-11.1209
▁pound	-11.1216
▁bulamadı	-11.123
▁belirleye	-11.1232
▁yosun	-11.1242
▁karşılaştığımız	-11.1253
landığında	-11.1269
▁tanıştığım	-11.1271
▁çıktığında	-11.1285
▁çıxar	-11.129
▁düşünecek	-11.13
▁Geleneksel	-11.1323
▁William	-11.1323
▁hükumet	-11.1323
▁karaciğer	-11.1323
▁2012	-11.1323
▁negatif	-11.1323
▁reçete	-11.1323
▁Politik	-11.1323
▁Smith	-11.1323
▁çamur	-11.1323
▁Yardım	-11.1323
▁acımasız	-11.1323
▁Müzesi	-11.1324
▁İzleyici	-11.1324
▁yuzde	-11.1326
▁Eric	-11.133
▁buluyorum	-11.1338
▁becer	-11.1341
▁Port	-11.1353
▁dinliyor	-11.1355
halde	-11.1381
▁sundu	-11.1385
press	-11.1392
▁önlem	-11.1397
▁çalışacağım	-11.1404
▁bardak	-11.1407
▁açıldı	-11.1407
▁kısıtlı	-11.1413
▁bozulma	-11.1416
▁kül	-11.1417
əstə	-11.1417
▁köşesinde	-11.1422
▁vurma	-11.144
▁anlamsız	-11.144
leşen	-11.1443
▁haritasını	-11.1445
▁Dinle	-11.1451
▁Aslın	-11.1462
▁yükselme	-11.147
▁Scott	-11.1475
▁belediye	-11.1475
▁mevsim	-11.1475
▁Britanya	-11.1475
▁bıçak	-11.1475
▁cavab	-11.1475
▁kosmos	-11.1475
RNA	-11.1475
▁titreşim	-11.1475
▁şapka	-11.1475
▁Ebola	-11.1475
▁Mikro	-11.1475
▁after	-11.1475
▁gerektiriyor	-11.1476
▁dağınık	-11.1476
▁çöküş	-11.1477
▁okuduğum	-11.1477
▁Özel	-11.1478
▁göreceğiniz	-11.1478
▁image	-11.1481
▁etməyə	-11.1484
▁şahs	-11.1484
▁yoğunluk	-11.1484
▁degis	-11.1486
▁basınç	-11.1488
▁isterdi	-11.1492
▁davranışsal	-11.1494
▁inceliyor	-11.1499
▁verdiğiniz	-11.1503
▁umursama	-11.1509
▁saklama	-11.1515
BC	-11.1517
AT	-11.154
▁bildirim	-11.1547
▁halini	-11.1557
▁kullanılması	-11.1568
▁kurulmuş	-11.1574
▁adlandırıla	-11.1604
▁çocuklarımızı	-11.1612
▁hızını	-11.1614
▁kullanılır	-11.1615
▁tuttuğu	-11.1625
▁hayatınızı	-11.1626
▁Birçoğu	-11.1628
▁Beləliklə	-11.1629
▁Bölge	-11.1629
▁dramatik	-11.1629
▁helikopter	-11.1629
▁nöroloji	-11.1629
▁kurbağa	-11.1629
▁anatomi	-11.1629
▁çətin	-11.1629
▁emniyet	-11.1629
▁koltuğu	-11.1629
▁Sahip	-11.1629
▁Makine	-11.163
▁ergen	-11.163
▁bedeli	-11.1631
▁növ	-11.1631
▁esinlen	-11.1632
▁fırın	-11.1633
▁kaynaklanıyor	-11.1635
▁atlat	-11.1636
▁uçuyor	-11.1639
▁benzetme	-11.1639
▁kabin	-11.1639
▁Hepsini	-11.1641
▁şüphesiz	-11.1641
▁sanıyorum	-11.1642
▁Krallık	-11.1648
▁yakalanma	-11.1663
▁Vo	-11.1666
▁şansımız	-11.1679
▁artist	-11.171
İH	-11.1713
▁arkadaşlarınız	-11.1735
▁İnanıyoru	-11.1741
mısınız	-11.1744
▁burnu	-11.1745
▁kitapta	-11.1749
▁içimizde	-11.1773
▁alanlarında	-11.1778
▁sunduğu	-11.1778
▁Oxford	-11.1785
▁dinazor	-11.1785
▁güvercin	-11.1785
▁kahverengi	-11.1785
▁çikolata	-11.1785
▁İsviçre	-11.1785
▁Matematik	-11.1785
▁Biyoloji	-11.1785
▁reaksiyon	-11.1785
▁billion	-11.1785
▁akıntı	-11.1785
▁hakkinda	-11.1785
▁böceği	-11.1785
▁mizah	-11.1786
▁ödün	-11.1786
▁rekor	-11.1786
▁onemli	-11.1787
▁telif	-11.1787
▁solucan	-11.1787
▁maalesef	-11.1788
laşdır	-11.1788
▁seçtiği	-11.1793
▁yıkıcı	-11.1794
▁işlevsel	-11.1797
▁try	-11.1799
▁bitiş	-11.18
▁eğiliminde	-11.1803
▁Yemek	-11.1817
▁yığ	-11.182
▁edemeyeceği	-11.1821
▁kariyerim	-11.1826
▁galeri	-11.1855
leştirilmesi	-11.1858
▁akışını	-11.186
▁aşamasında	-11.1875
▁yiyeceği	-11.1879
▁seviyesini	-11.1901
▁ihtiyac	-11.1906
▁uzaklaştır	-11.1915
▁köyün	-11.1918
▁Bazılarınız	-11.1931
▁gerçekleştiği	-11.1934
malısın	-11.1942
▁Afgan	-11.1943
▁Charlie	-11.1944
▁hormon	-11.1944
▁qalaktika	-11.1944
▁system	-11.1944
▁tropik	-11.1944
▁paradigma	-11.1944
▁trajedi	-11.1944
▁şaşkın	-11.1944
▁vasitə	-11.1944
▁Silikon	-11.1944
▁Yavaş	-11.1944
▁batarya	-11.1944
▁Sabah	-11.1944
▁Gülme	-11.1944
▁retina	-11.1944
▁varoluş	-11.1944
▁ironi	-11.1945
▁parazit	-11.1947
▁ırkçı	-11.1948
▁derinliklerin	-11.1956
▁gözəl	-11.1956
▁sayılır	-11.1958
▁abartı	-11.1958
▁geçirmiş	-11.1962
▁ilave	-11.1962
▁geleceğimiz	-11.1964
▁görmüştü	-11.1978
▁bahar	-11.1978
▁karışımı	-11.1978
▁yıkıl	-11.2001
▁yapamıyor	-11.2016
▁fiber	-11.2018
ER	-11.2021
▁lens	-11.2039
▁hoşlanma	-11.2041
▁elinizi	-11.2047
▁başladığında	-11.2058
▁çaresiz	-11.2063
▁korkar	-11.2067
▁çekilme	-11.2077
▁Demokrasi	-11.2105
▁Vietnam	-11.2105
▁eşcinsel	-11.2105
▁important	-11.2105
▁rüşvet	-11.2105
▁Akademi	-11.2105
▁çevrimiçi	-11.2105
▁Hızlı	-11.2105
▁sentetik	-11.2105
▁ünite	-11.2105
▁aldatma	-11.2105
▁kumaş	-11.2105
▁çürü	-11.2106
▁Maldiv	-11.2107
▁Etki	-11.2108
▁Hazır	-11.211
▁kalkınma	-11.211
▁denizaltı	-11.2111
BA	-11.2113
▁doğma	-11.2113
▁ayrılmış	-11.2114
▁imaj	-11.2114
▁öncülü	-11.2116
▁kaçak	-11.2116
▁2001	-11.2116
▁geldiğimde	-11.2118
▁sağlayabil	-11.2153
▁Kapı	-11.2158
▁evlenme	-11.2161
▁yüzün	-11.2162
▁gideli	-11.2168
▁yeryüzünde	-11.2169
▁kaynaklarını	-11.2177
▁kalitesini	-11.218
▁kolunu	-11.2191
▁görülmemiş	-11.2193
▁anlaş	-11.2197
▁edemiyor	-11.2208
▁tadını	-11.2241
▁biliniyor	-11.2242
▁95	-11.2263
▁gelebil	-11.2266
▁kabiliyet	-11.2268
▁fiil	-11.2268
▁Antarktika	-11.2269
▁Atlantik	-11.2269
▁Petrol	-11.2269
▁dimension	-11.2269
▁mıknatıs	-11.2269
▁üzərində	-11.2269
▁əlaqə	-11.2269
▁öbür	-11.2269
▁üzücü	-11.2269
▁Gazete	-11.2269
▁sömür	-11.2269
▁əslin	-11.2269
▁Kontrol	-11.2269
▁nəticə	-11.2269
▁hiçbirşey	-11.2269
▁again	-11.2269
▁ogren	-11.2269
▁Yaşlı	-11.227
▁klip	-11.227
▁Genellikle	-11.2271
▁ölecek	-11.2271
▁mekaniği	-11.2272
▁telefonunuz	-11.2272
▁durak	-11.2273
▁found	-11.2274
▁korsan	-11.2276
▁sunucu	-11.2276
▁sürət	-11.2276
▁oxu	-11.2277
bod	-11.2278
▁kemer	-11.2279
▁kuşak	-11.228
▁maşın	-11.2282
▁arttırma	-11.2284
▁azalıyor	-11.2296
▁baska	-11.2299
▁eğitil	-11.2302
▁ölçüsü	-11.2376
▁evcil	-11.24
▁yağış	-11.2427
▁Cambridge	-11.2435
▁Dijital	-11.2435
▁Wikipedia	-11.2435
▁aykırı	-11.2435
▁enfekte	-11.2435
▁feminist	-11.2435
▁kombinasyon	-11.2435
▁prensibi	-11.2435
▁sipariş	-11.2435
▁Örnek	-11.2435
▁çekirdek	-11.2435
▁estetik	-11.2435
▁Yukarı	-11.2435
▁alıkoy	-11.2436
▁meclis	-11.2436
▁banyo	-11.2436
▁karşılığında	-11.2436
▁imalat	-11.2437
▁zarif	-11.2437
▁darbe	-11.2437
▁Asker	-11.2438
▁uzaklıkta	-11.2439
▁nehrin	-11.244
▁hansı	-11.244
leştiril	-11.2448
▁Düşündü	-11.2449
▁kirliliği	-11.2471
▁Bekle	-11.2484
abilmemiz	-11.2489
▁kaçınma	-11.2495
▁kopar	-11.2503
RB	-11.251
▁dalgalanma	-11.2511
▁istemediği	-11.2534
▁alabiliyor	-11.2577
EC	-11.258
digimiz	-11.259
▁Arjantin	-11.2605
▁Sovyet	-11.2605
▁bulaşıcı	-11.2605
▁sandviç	-11.2605
▁Mükemmel	-11.2605
▁acayip	-11.2605
▁cinayet	-11.2605
▁nəzər	-11.2605
▁Nelson	-11.2605
▁enjekt	-11.2605
▁rezerv	-11.2605
▁Green	-11.2605
▁husus	-11.2606
▁almıştı	-11.2606
▁high	-11.2607
▁imge	-11.2608
▁help	-11.2608
▁bencil	-11.2614
▁lüks	-11.262
▁kirlet	-11.2623
▁Model	-11.2627
▁zıpla	-11.2633
▁isyan	-11.265
▁alem	-11.2654
▁yayılmış	-11.2658
attle	-11.2672
▁versiyon	-11.2704
▁səs	-11.2751
▁hesabı	-11.2766
▁verilmiş	-11.2775
▁görüldüğü	-11.2777
▁Florida	-11.2777
▁Yanlış	-11.2777
▁interaktif	-11.2777
▁paraşüt	-11.2777
▁təhsil	-11.2777
▁Virgin	-11.2777
▁popülasyon	-11.2777
▁kızgın	-11.2778
▁başlıca	-11.2778
▁irade	-11.2778
▁psikolog	-11.2778
▁small	-11.2778
▁eşitsizliğ	-11.2779
▁ertesi	-11.2779
▁netice	-11.278
▁Bilmiyorum	-11.2783
▁hələ	-11.2787
▁Lider	-11.2791
▁döndürü	-11.2807
▁destekliyor	-11.2813
▁Çağ	-11.2814
▁jet	-11.2848
▁oluşması	-11.2891
▁tərəf	-11.2952
ville	-11.2952
▁minnettar	-11.2953
▁İspanya	-11.2953
▁Haziran	-11.2953
▁Taliban	-11.2953
▁peynir	-11.2953
▁mağdur	-11.2953
▁ihlal	-11.2953
▁haricinde	-11.2953
▁Delhi	-11.2953
▁cihad	-11.2953
▁Bebek	-11.2953
▁halihazırda	-11.2953
▁evvel	-11.2954
▁masum	-11.2954
▁düşünürsünüz	-11.2954
▁saldırgan	-11.2954
phone	-11.2955
▁gereksinim	-11.2955
əlkə	-11.2956
▁duymuşsunuz	-11.2956
▁niteliği	-11.2957
▁Resim	-11.2958
▁goster	-11.296
▁Polis	-11.2965
▁Nano	-11.2968
▁Tony	-11.2968
leştiren	-11.2968
▁çözülme	-11.2969
▁belirlen	-11.2975
▁Hatırla	-11.2981
▁keyfi	-11.2989
binlerce	-11.3006
Ş	-11.3006
▁olamayacağı	-11.3007
▁kullanmıyor	-11.3044
▁gözükme	-11.3064
▁hatırlatıyor	-11.3076
▁artırma	-11.311
▁bütünüy	-11.3111
▁kurabil	-11.3114
▁LED	-11.3131
▁coğrafi	-11.3131
▁muayene	-11.3131
▁second	-11.3131
▁İspanyol	-11.3131
▁öldürücü	-11.3131
▁Şehri	-11.3131
▁course	-11.3131
▁süpür	-11.3131
▁dogru	-11.3131
▁fırça	-11.3131
▁patates	-11.3131
▁ampul	-11.3132
▁Brown	-11.3132
▁göğsü	-11.3132
▁water	-11.3132
▁Gates	-11.3132
▁çiğ	-11.3132
▁ödüyor	-11.3133
▁görülebilir	-11.3133
▁orbit	-11.3133
▁günəş	-11.3133
▁yükselişi	-11.3134
▁aktiv	-11.3136
▁dürtü	-11.3139
▁aslin	-11.3201
▁kullanımını	-11.3207
▁çabu	-11.3217
▁Henr	-11.3236
▁basladi	-11.3281
dönük	-11.3281
▁bahsetmiyoru	-11.3299
▁örgü	-11.3305
▁physic	-11.3313
▁Microsoft	-11.3313
▁coğrafya	-11.3313
▁hemfikir	-11.3313
▁istihdam	-11.3313
▁kristal	-11.3313
▁məlumat	-11.3313
▁qaranlıq	-11.3313
▁spektrum	-11.3313
▁Binlerce	-11.3313
▁Vakfı	-11.3313
▁vasıtası	-11.3313
▁arşiv	-11.3313
▁çağdaş	-11.3313
▁işkence	-11.3313
▁sistematik	-11.3314
▁Seçim	-11.3314
▁olub	-11.3314
▁rock	-11.3314
▁beyne	-11.3314
▁Simdi	-11.3314
▁yüce	-11.3315
▁biləcəyi	-11.3315
▁şahane	-11.3316
▁gülüş	-11.3316
▁evlat	-11.3316
termal	-11.3319
▁bilgilendir	-11.3339
layabilecek	-11.3384
ivil	-11.3436
▁tıbb	-11.3453
▁şempanze	-11.3481
▁Özgür	-11.3498
▁Hücre	-11.3498
▁bambaşka	-11.3498
▁dəqiq	-11.3498
▁eşdeğer	-11.3498
▁istihbarat	-11.3498
▁National	-11.3498
▁musiqi	-11.3498
▁mövzu	-11.3498
▁timsah	-11.3498
▁yolsuzluk	-11.3498
▁yozlaşma	-11.3498
▁mineral	-11.3498
▁Şarkı	-11.3498
▁cocuk	-11.3499
▁zafer	-11.3499
▁Sahra	-11.3499
▁Ruanda	-11.3499
▁Bitki	-11.3499
▁rakip	-11.3499
▁zira	-11.35
▁ipek	-11.3501
▁denetim	-11.3502
▁patern	-11.3502
▁penis	-11.351
▁ikon	-11.3532
▁harcadığı	-11.354
▁katılıyor	-11.3547
▁kaydedil	-11.355
▁yoksulluğu	-11.3574
▁idam	-11.3631
▁tamamiyl	-11.3634
▁vücud	-11.3638
▁homo	-11.3641
xşı	-11.3673
▁ışığ	-11.3677
▁child	-11.3687
▁şükür	-11.3687
▁English	-11.3687
▁Nihayet	-11.3687
▁illüzyon	-11.3687
▁istismar	-11.3687
▁müddət	-11.3687
▁yırtıcı	-11.3687
▁əhəmiyyət	-11.3687
▁interest	-11.3687
▁müəllim	-11.3687
▁teacher	-11.3687
▁tahıl	-11.3687
▁become	-11.3687
▁Yaratıcı	-11.3688
▁işıq	-11.3688
▁feet	-11.3688
▁Koruma	-11.3688
City	-11.3688
▁find	-11.3689
▁Cassi	-11.3691
▁own	-11.3696
stars	-11.37
▁rahatlat	-11.3702
▁oluştuğunu	-11.3703
▁buralarda	-11.3745
▁oynadığı	-11.3763
▁yaşayabil	-11.3771
▁belirtileri	-11.3785
▁Görev	-11.3795
▁still	-11.3802
▁statü	-11.3804
▁kültürümüz	-11.3808
▁yeryüzü	-11.3812
▁çözünürlük	-11.3853
OK	-11.3869
▁başarama	-11.3877
▁World	-11.3879
▁klavye	-11.3879
▁püskür	-11.3879
▁tweet	-11.3879
▁kuyruğu	-11.3879
▁şarj	-11.3879
▁numune	-11.3879
▁volkan	-11.3879
▁doğuştan	-11.3879
▁Yıldız	-11.3879
▁görülür	-11.3879
▁Sokak	-11.3879
▁Görünüş	-11.388
▁talebi	-11.388
▁Pekâl	-11.388
▁tasvir	-11.388
▁fatura	-11.388
▁gündüz	-11.388
▁izole	-11.388
▁particle	-11.388
▁xüsusi	-11.388
▁Medya	-11.388
▁Berlin	-11.388
▁kömək	-11.3882
▁çene	-11.3884
▁Aklım	-11.3885
mişsinizdir	-11.3886
▁beklenen	-11.3887
▁sahə	-11.3888
▁hekim	-11.3903
▁göründüğünü	-11.3912
▁hissettikleri	-11.3918
▁modül	-11.3931
▁Oray	-11.3954
▁Merkez	-11.3969
▁bett	-11.3975
▁değiştirebil	-11.3987
lendiriyor	-11.403
▁çoğunluk	-11.4049
abilsin	-11.4069
▁filozof	-11.4075
▁ritüel	-11.4075
▁Norveç	-11.4075
▁beyefendi	-11.4075
▁efekt	-11.4075
▁iPod	-11.4075
▁laboratuar	-11.4075
▁mövcud	-11.4075
▁origami	-11.4075
▁semptom	-11.4075
▁zekâ	-11.4075
▁Duygu	-11.4075
▁GSM	-11.4075
▁Kitabı	-11.4075
▁primat	-11.4075
▁room	-11.4075
▁design	-11.4075
▁Anlaşıl	-11.4075
▁dəyişi	-11.4075
▁çırp	-11.4076
▁dəyişdi	-11.4076
▁reason	-11.4076
▁avuç	-11.4076
▁otoyol	-11.4076
▁süzül	-11.4076
NSA	-11.4076
▁küçümse	-11.4076
▁kapsaya	-11.4076
▁ivme	-11.4077
▁yatkın	-11.4077
▁solunum	-11.4077
▁kurşun	-11.4078
▁açılış	-11.4078
▁Duvar	-11.4079
▁Kelime	-11.4081
▁ilerlet	-11.4082
▁bandı	-11.4091
▁hand	-11.4102
▁music	-11.4105
▁çocukluğum	-11.4108
▁enzim	-11.4112
hazırda	-11.4121
▁görebildiği	-11.4125
▁görebileceği	-11.4178
▁kapağı	-11.4181
▁şekl	-11.4187
▁uyuyor	-11.4234
▁oluştuğu	-11.4261
▁Kütüphane	-11.4275
▁Etiyopya	-11.4275
▁federal	-11.4275
▁gülümseme	-11.4275
▁məsələ	-11.4275
▁spesifik	-11.4275
▁sponsor	-11.4275
▁ufacık	-11.4275
▁understand	-11.4275
▁Bronx	-11.4275
▁Demokrat	-11.4275
▁Michel	-11.4275
▁Parkinson	-11.4275
▁mecbur	-11.4275
▁meslektaşım	-11.4275
▁misafir	-11.4275
▁muhabir	-11.4275
▁number	-11.4275
▁oksitosin	-11.4275
▁omurga	-11.4275
▁talimat	-11.4275
▁doğaçlama	-11.4275
▁kliniğ	-11.4275
▁power	-11.4275
▁manşet	-11.4276
▁pamuk	-11.4276
▁Silah	-11.4276
▁taciz	-11.4277
▁Nehri	-11.4278
▁keşfe	-11.4279
▁gütmeye	-11.4281
▁arayışı	-11.4282
▁evliliği	-11.4284
▁yatay	-11.4291
▁bilgeliğ	-11.4305
▁eklem	-11.4307
▁kıyas	-11.4353
▁olanağı	-11.4429
▁konsantr	-11.448
▁tsunami	-11.448
▁Çocuğu	-11.448
▁halüsinasyon	-11.448
▁hayırsever	-11.448
▁inkişaf	-11.448
▁levha	-11.448
▁nötr	-11.448
▁obezite	-11.448
▁pantolon	-11.448
▁Örgütü	-11.448
▁garaj	-11.448
▁çorba	-11.448
▁kabuğu	-11.448
▁düşünüp	-11.448
▁servet	-11.448
▁etnik	-11.4481
▁İsmi	-11.4481
▁Köy	-11.4481
▁görüldü	-11.4482
▁ipucu	-11.4482
▁Cuma	-11.4482
▁oğlunu	-11.4486
▁geleneği	-11.4497
▁Jenn	-11.451
▁destekledi	-11.4519
▁sürüklen	-11.453
▁keşfedilme	-11.4645
▁Alex	-11.4686
▁Apollo	-11.4688
▁Dördüncü	-11.4688
▁Elektrik	-11.4688
▁Grön	-11.4688
▁Profesör	-11.4688
▁Singapur	-11.4688
▁Ticaret	-11.4688
▁astronot	-11.4688
▁ehtiyac	-11.4688
▁festival	-11.4688
▁imparator	-11.4688
▁nöqtə	-11.4688
▁zanned	-11.4688
▁örüntü	-11.4688
▁Android	-11.4688
▁argüman	-11.4688
▁example	-11.4688
▁kulübe	-11.4688
▁Sekoya	-11.4688
▁bayrak	-11.4688
▁uyguluyor	-11.4688
▁İlgi	-11.4688
▁meyilli	-11.4688
▁tercüme	-11.4688
▁sızıntı	-11.4688
▁mühim	-11.4688
▁borsa	-11.4688
▁Brian	-11.4689
▁Sekiz	-11.4689
▁razı	-11.4689
▁feel	-11.4689
▁Şili	-11.469
▁cikar	-11.469
▁Gördüğüm	-11.4691
▁Julia	-11.4698
çoğumuzun	-11.4701
▁tanımladığı	-11.472
▁saklay	-11.4727
▁düşünebil	-11.4768
▁toprağ	-11.4771
ograf	-11.4824
▁eşleş	-11.4841
▁Hill	-11.4878
▁Bangladeş	-11.4901
▁Detroit	-11.4901
▁Olimpiyat	-11.4901
▁hiyerarşi	-11.4901
▁süpermarket	-11.4901
▁xəbər	-11.4901
▁maraqlı	-11.4901
▁çizelge	-11.4901
▁Watson	-11.4901
▁klişe	-11.4901
▁tələb	-11.4901
▁Soğuk	-11.4901
▁baloncuk	-11.4901
▁sansür	-11.4901
▁qaz	-11.4901
▁vacib	-11.4901
▁azınlık	-11.4901
▁gayret	-11.4902
▁ritmi	-11.4903
▁Mayıs	-11.4903
▁zihniyet	-11.4905
▁yapılacağın	-11.4915
▁dayanara	-11.498
▁yaklaştığı	-11.5019
abilit	-11.5067
▁sihir	-11.5089
▁Enceladus	-11.5118
▁Muhammed	-11.5118
▁Mühendis	-11.5118
▁implant	-11.5118
▁mütevaz	-11.5118
▁röntgen	-11.5118
▁science	-11.5118
▁tişört	-11.5118
▁İrlanda	-11.5118
▁şampiyon	-11.5118
▁gravit	-11.5118
▁çiçeğ	-11.5118
▁uyğun	-11.5118
▁bükül	-11.5118
▁imagine	-11.5118
▁Bilinç	-11.5118
▁öğüt	-11.5118
▁Karanlık	-11.5118
▁Somali	-11.5119
▁Albert	-11.512
▁pano	-11.5121
▁energ	-11.5123
▁final	-11.5182
▁sosyo	-11.5226
▁dörd	-11.5248
Kaide	-11.5271
▁getireceği	-11.532
▁cesaretlendir	-11.533
eographic	-11.534
▁Leonardo	-11.534
▁Türkiye	-11.534
▁fevkalade	-11.534
▁müslüman	-11.534
▁qəbul	-11.534
▁soykırım	-11.534
▁tansiyon	-11.534
▁çekirdeği	-11.534
▁ürkütücü	-11.534
▁İskoç	-11.534
▁fakülte	-11.534
▁ipuçları	-11.534
▁omurilik	-11.534
▁qərar	-11.534
▁təşkil	-11.534
▁Bahçe	-11.534
▁coşku	-11.534
▁Kulağa	-11.534
▁Mandela	-11.5341
▁mucit	-11.5341
▁talih	-11.5341
▁home	-11.5342
▁Kök	-11.5347
▁enkaz	-11.5356
▁proses	-11.5361
lendirilme	-11.5374
▁Şurada	-11.5374
▁atlayı	-11.5408
hücre	-11.5442
▁Endüstri	-11.5568
▁Hawaii	-11.5568
▁Köpek	-11.5568
▁entropi	-11.5568
▁hoparlör	-11.5568
▁kəşf	-11.5568
▁mektubu	-11.5568
▁santimetre	-11.5568
▁çeyrek	-11.5568
▁qeyri	-11.5568
▁kraliçe	-11.5568
▁Endişe	-11.5568
▁asansör	-11.5568
▁yüzgeç	-11.5568
▁website	-11.5568
▁sıçan	-11.5568
▁Hukuk	-11.5568
▁İlaç	-11.5568
▁şirin	-11.5568
Ç	-11.5675
Ö	-12.0782
!	-12.8864
♫	-12.8865
—	-12.8866
:	-12.8867
)	-12.8868
?	-12.8869
