<unk>	0
<s>	0
</s>	0
▁	-3.33313
▁.	-3.36528
▁,	-3.66351
i	-4.06472
▁"	-4.16498
a	-4.16673
ə	-4.23621
n	-4.35366
m	-4.46263
▁bir	-4.4968
r	-4.63977
▁və	-4.70686
y	-4.73625
z	-4.80203
s	-4.88337
k	-4.88421
▁bu	-4.88629
t	-4.90177
da	-4.99857
ş	-5.01397
in	-5.02208
də	-5.02715
u	-5.04411
lər	-5.09608
q	-5.10496
ü	-5.12822
ı	-5.14497
an	-5.18794
▁-	-5.20329
b	-5.23274
o	-5.2553
l	-5.25861
lar	-5.2938
la	-5.31705
ma	-5.32107
e	-5.34383
lə	-5.34623
li	-5.37959
▁Bu	-5.39609
d	-5.41664
▁də	-5.4195
h	-5.44426
▁ki	-5.50409
di	-5.51224
dir	-5.52913
ar	-5.53149
ən	-5.55108
▁çox	-5.59149
▁da	-5.60054
ir	-5.64813
dən	-5.67026
cə	-5.67087
f	-5.6804
ın	-5.69572
▁q	-5.70215
▁üçün	-5.73608
dır	-5.74806
ər	-5.75629
c	-5.76415
▁?	-5.77511
ləri	-5.7842
ra	-5.80428
▁s	-5.81111
si	-5.83233
▁b	-5.84219
al	-5.86326
il	-5.89319
▁nə	-5.92322
na	-5.93239
ları	-5.93296
ya	-5.94011
dan	-5.94144
▁)	-5.94517
(	-5.94724
▁o	-5.96133
əm	-5.96314
x	-5.97865
maq	-5.99229
ət	-6.00615
p	-6.01473
▁var	-6.01804
v	-6.02984
▁mən	-6.05702
▁A	-6.0651
▁t	-6.06983
▁ya	-6.07965
sa	-6.09548
▁idi	-6.09818
er	-6.10092
ur	-6.11099
▁Və	-6.11319
lı	-6.13307
yə	-6.13657
ik	-6.13893
g	-6.14122
ç	-6.15653
ır	-6.16822
▁B	-6.17733
im	-6.17998
▁S	-6.19677
at	-6.20036
▁kimi	-6.21749
▁M	-6.22934
un	-6.22968
▁edir	-6.23357
ö	-6.23594
sə	-6.24175
dı	-6.24408
▁daha	-6.25135
on	-6.25255
▁şey	-6.27084
ey	-6.29501
lik	-6.29698
▁biz	-6.30843
▁:	-6.31175
mək	-6.31314
▁iş	-6.33462
▁g	-6.34854
▁bilər	-6.35111
or	-6.35171
▁olan	-6.35173
ün	-6.36191
ların	-6.37714
ni	-6.37897
▁deyil	-6.3922
st	-6.39414
mə	-6.3966
▁hər	-6.4024
▁al	-6.42236
siniz	-6.43032
sı	-6.43057
lərin	-6.43088
▁O	-6.43419
▁K	-6.43562
lan	-6.43617
▁p	-6.44378
▁olma	-6.45515
▁il	-6.46016
am	-6.4635
▁T	-6.49619
tə	-6.50564
du	-6.52054
ri	-6.52056
ək	-6.53624
ğ	-6.55931
dim	-6.56159
mi	-6.56298
ti	-6.56963
▁k	-6.57058
▁öz	-6.57536
▁yer	-6.57862
▁görə	-6.60262
▁İ	-6.6057
əs	-6.6069
▁qədər	-6.6109
▁ilə	-6.61411
▁edə	-6.6259
ində	-6.62877
nın	-6.63549
et	-6.63939
▁belə	-6.63943
▁Mən	-6.64838
▁baş	-6.65484
▁ver	-6.66397
imiz	-6.68334
ib	-6.69123
▁sonra	-6.69585
▁isə	-6.7058
ki	-6.7083
▁bütün	-6.71718
▁H	-6.73164
miş	-6.73874
ca	-6.74776
▁a	-6.75687
▁Ə	-6.76206
inə	-6.77177
▁böyük	-6.77262
▁de	-6.77427
nə	-6.77486
aq	-6.77594
▁bax	-6.77623
▁D	-6.77901
lıq	-6.78408
ini	-6.7842
▁m	-6.79947
en	-6.80766
ür	-6.80928
▁ş	-6.83798
▁bil	-6.84425
▁zaman	-6.8497
le	-6.87205
▁yaxşı	-6.88605
▁Q	-6.88626
əl	-6.88674
dur	-6.88954
ıl	-6.90085
0	-6.90291
▁et	-6.90599
it	-6.90909
▁az	-6.91037
ta	-6.91498
▁x	-6.91557
ol	-6.91908
▁necə	-6.92361
▁Y	-6.92619
▁Gülüş	-6.9291
▁ən	-6.93118
▁olaraq	-6.93549
▁mü	-6.94141
▁etmək	-6.94193
▁C	-6.94357
dik	-6.94531
▁gün	-6.9584
nı	-6.96064
▁çək	-6.96285
▁olduğu	-6.96311
▁Biz	-6.96511
niz	-6.96522
▁heç	-6.97489
iz	-6.97953
▁i	-6.9848
əcək	-6.9967
inin	-6.99729
▁oldu	-6.99822
ış	-6.99985
▁etdi	-7.01082
ek	-7.02733
ımız	-7.02864
▁Am	-7.02936
▁f	-7.03389
▁olduğunu	-7.04596
ım	-7.04935
▁hə	-7.05294
▁1	-7.0602
ul	-7.06417
▁dünya	-7.06952
ah	-7.07165
ro	-7.07265
▁əvvəl	-7.0773
▁vaxt	-7.0773
▁qal	-7.07833
▁yara	-7.08576
▁Bir	-7.09305
mış	-7.0945
▁G	-7.097
və	-7.10385
dım	-7.10704
va	-7.10947
▁göstər	-7.10977
larını	-7.11129
el	-7.11453
um	-7.1166
▁başqa	-7.11674
yi	-7.11897
▁istə	-7.12196
▁onlar	-7.12298
ndan	-7.1254
▁bilmə	-7.12613
lu	-7.1263
▁bunu	-7.13399
▁ay	-7.13672
▁danış	-7.13673
▁gəl	-7.13862
ğı	-7.14098
dakı	-7.14512
▁yeni	-7.14567
▁h	-7.1503
kin	-7.15172
▁dəyiş	-7.15711
as	-7.15967
nız	-7.16296
▁insanlar	-7.16821
▁həyat	-7.17111
▁insan	-7.17575
▁tək	-7.17658
▁bizim	-7.18334
▁edil	-7.18609
mağa	-7.19283
▁mənim	-7.20582
▁istifadə	-7.20673
ut	-7.21079
lü	-7.22154
id	-7.22264
dü	-7.22883
ıb	-7.22899
▁ci	-7.23046
ını	-7.23122
▁həm	-7.24
lərini	-7.24075
cı	-7.24236
nin	-7.24283
▁E	-7.24876
▁yox	-7.25793
▁olun	-7.26495
mı	-7.2672
sən	-7.27159
eç	-7.27227
▁səbəb	-7.27442
▁haqda	-7.28271
▁çıx	-7.28572
▁etmə	-7.28794
unu	-7.28962
▁mə	-7.29114
▁olur	-7.30801
▁ağ	-7.3166
te	-7.31677
ası	-7.31694
çı	-7.32379
▁R	-7.32419
5	-7.32594
dıq	-7.32687
çi	-7.32841
ıq	-7.33302
vi	-7.3367
'	-7.3387
▁hiss	-7.34478
▁düşün	-7.34949
sini	-7.35293
▁gör	-7.35515
▁dil	-7.35682
dığı	-7.36094
▁ilk	-7.36156
▁hekayə	-7.36391
▁qarşı	-7.36393
▁siz	-7.36684
iya	-7.37403
ünü	-7.37518
siz	-7.37916
▁Onlar	-7.38539
məyə	-7.39303
▁ad	-7.39533
siya	-7.39579
▁P	-7.39962
▁keç	-7.40346
ması	-7.40358
▁deyə	-7.41229
ğa	-7.41736
▁yalnı	-7.41846
▁bilir	-7.42346
▁amma	-7.43506
▁əl	-7.43748
▁ha	-7.43868
aş	-7.43885
sində	-7.44493
kən	-7.44553
anda	-7.44697
▁ko	-7.4503
▁elə	-7.45974
araq	-7.46094
▁neçə	-7.46221
▁iki	-7.46321
▁çünk	-7.47168
dür	-7.4745
lay	-7.47682
▁çalış	-7.48118
▁ye	-7.48386
▁kiçik	-7.49085
es	-7.49916
dəki	-7.50063
▁İndi	-7.50065
me	-7.50204
▁yol	-7.50971
ında	-7.51308
▁mənə	-7.51355
▁yaşa	-7.52151
məyi	-7.52225
lərə	-7.52881
▁lazım	-7.53019
lərdə	-7.53755
sını	-7.53828
iyyət	-7.53946
▁tap	-7.54064
▁sual	-7.54249
məsi	-7.54605
ük	-7.55139
liyi	-7.55326
▁son	-7.55991
▁digər	-7.56095
▁sən	-7.56802
▁edən	-7.57088
▁problem	-7.57122
▁La	-7.57133
▁Bunu	-7.57153
diyi	-7.57406
▁burada	-7.57539
▁şəkil	-7.57733
▁gətir	-7.58178
▁ara	-7.58523
gər	-7.58749
indən	-7.58796
▁at	-7.59183
▁in	-7.59356
▁ol	-7.59581
us	-7.59732
lara	-7.59776
▁2	-7.60106
▁hazır	-7.60317
mız	-7.60864
▁düş	-7.6096
▁e	-7.6125
▁Çox	-7.61402
▁onun	-7.61415
▁eyni	-7.61429
▁Nə	-7.6147
▁ancaq	-7.61557
ına	-7.62508
▁dedi	-7.62573
ırdı	-7.62653
▁üz	-7.62825
ed	-7.63924
tı	-7.64133
▁söz	-7.64319
▁gəlir	-7.64435
▁F	-7.64881
▁əsas	-7.6491
ğu	-7.65839
▁deyir	-7.65927
▁bilmir	-7.65954
malı	-7.66238
00	-7.66244
▁anla	-7.66871
lərlə	-7.66942
6	-7.6702
▁istəyirəm	-7.6725
▁hal	-7.67336
miz	-7.67601
acaq	-7.68087
mişdi	-7.68419
tik	-7.68623
▁ola	-7.68748
▁etdiyi	-7.68832
▁kəs	-7.68851
▁do	-7.69117
əb	-7.69255
▁sev	-7.69376
▁sadə	-7.69552
ncaq	-7.70407
—	-7.7055
▁orta	-7.70576
▁Ya	-7.70998
kı	-7.71438
▁Afrika	-7.71755
▁qoy	-7.71862
diyini	-7.72408
▁Ç	-7.72493
▁bəzi	-7.72976
▁güc	-7.72989
ləşdir	-7.73004
sınız	-7.732
sında	-7.73953
▁fikir	-7.74208
man	-7.74277
ler	-7.74742
məli	-7.75246
▁biri	-7.75476
▁maddə	-7.76727
diyim	-7.76994
ylə	-7.77199
▁ildə	-7.77387
▁qadın	-7.78009
lərdən	-7.78036
▁olacaq	-7.78071
lərində	-7.78148
▁ön	-7.78284
▁Hə	-7.78453
▁sizə	-7.79023
▁ölçü	-7.79082
▁bunlar	-7.79165
acağı	-7.79275
diyimiz	-7.79318
▁parça	-7.79321
▁onu	-7.79502
lığı	-7.79623
▁başladı	-7.79727
bil	-7.79837
▁yaz	-7.80478
▁davam	-7.80636
▁həqiqətən	-7.80638
▁ölkə	-7.8066
▁ev	-7.8086
kar	-7.80955
imi	-7.81086
▁demək	-7.81152
rik	-7.81479
▁indi	-7.8159
▁təsir	-7.81961
▁dəfə	-7.82013
muş	-7.82078
▁ça	-7.8232
▁Alqışlar	-7.82393
▁sal	-7.8243
de	-7.82763
▁haqqında	-7.83306
▁sistem	-7.83306
▁düz	-7.83362
▁Ş	-7.83475
▁cü	-7.83563
▁elm	-7.83756
ğın	-7.83829
əcəyi	-7.84171
▁kö	-7.84188
▁yazı	-7.84325
8	-7.84676
▁içində	-7.8468
▁olar	-7.84858
▁istəyir	-7.85805
larla	-7.85867
▁məktəb	-7.86065
▁kim	-7.86276
▁tərəfində	-7.8656
▁Siz	-7.86648
▁enerji	-7.87473
▁geri	-7.87501
▁olmaq	-7.87512
▁qız	-7.87518
dilər	-7.88668
op	-7.88953
▁əla	-7.89165
▁yaxın	-7.89452
▁tanı	-7.90113
j	-7.90351
▁qey	-7.90698
▁şəkildə	-7.90965
dığım	-7.91102
sına	-7.91176
N	-7.91409
▁4	-7.91679
▁çat	-7.91787
▁hərəkət	-7.91824
▁onları	-7.91912
▁Yə	-7.92081
▁şeylər	-7.92608
▁çıxar	-7.92667
▁ifa	-7.93349
▁V	-7.94101
öv	-7.94291
ici	-7.9431
lardan	-7.946
▁X	-7.94861
▁10	-7.95247
irəm	-7.95418
▁öl	-7.95563
▁öyrə	-7.9588
▁bunun	-7.9626
9	-7.96281
▁kosmos	-7.96368
7	-7.96368
▁doğru	-7.96368
▁cavab	-7.96368
▁çətin	-7.96368
▁Beləliklə	-7.96371
▁Belə	-7.96386
▁növ	-7.96415
▁etməyə	-7.96594
əgər	-7.96688
▁olsa	-7.9679
▁Alqış	-7.97419
▁insanların	-7.97556
▁Hindistan	-7.9793
▁milyard	-7.9793
▁milyon	-7.9793
luq	-7.97942
ırlar	-7.98061
▁say	-7.98552
likdə	-7.99416
▁qalaktika	-7.99518
▁vasitə	-7.99518
▁L	-7.99586
▁gözəl	-7.99602
▁uşaq	-8.00771
▁3	-8.00855
▁dövr	-8.01131
▁təbi	-8.01139
▁oxu	-8.01227
tta	-8.01293
▁sürət	-8.01335
asiya	-8.01595
▁görün	-8.01633
dığını	-8.02163
▁meydan	-8.02774
▁nəticə	-8.02774
▁əslin	-8.02788
▁əlaqə	-8.02789
▁maşın	-8.02798
▁19	-8.02862
▁sağ	-8.02916
ent	-8.03345
ırıq	-8.04005
▁hansı	-8.04444
▁nəzər	-8.04459
▁fərqli	-8.04833
▁Mənim	-8.05061
▁onların	-8.05407
▁tərəf	-8.0553
▁sizin	-8.05855
▁gördü	-8.06219
▁üzərində	-8.06312
▁təhsil	-8.07856
▁artıq	-8.07903
layır	-8.08053
mağı	-8.08055
dığımız	-8.08199
▁hələ	-8.09264
▁verdi	-8.09408
▁Əsl	-8.09638
əlkə	-8.09649
2	-8.09698
▁adam	-8.10167
gen	-8.1019
▁De	-8.10319
▁su	-8.10565
eşi	-8.1064
▁məh	-8.10701
▁səs	-8.10965
▁re	-8.11107
▁tam	-8.11153
▁xüsus	-8.11396
▁dəqiq	-8.11397
▁kitab	-8.11404
▁günəş	-8.11427
▁özüm	-8.11504
▁par	-8.11963
▁məlumat	-8.13214
▁qaranlıq	-8.13214
▁mümkün	-8.13214
▁bənzə	-8.13219
▁olub	-8.13225
▁görür	-8.1346
▁Hər	-8.14121
I	-8.15066
▁musiqi	-8.15066
▁mövzu	-8.15067
▁uzaq	-8.15067
▁sahib	-8.15067
▁fikri	-8.15071
ge	-8.1536
▁yarı	-8.15522
w	-8.16953
▁müəllim	-8.16953
▁əhəmiyyət	-8.16953
▁müddət	-8.16953
▁geniş	-8.16953
▁apar	-8.16959
▁yoxdur	-8.17215
▁işıq	-8.17392
▁Burada	-8.17774
ıram	-8.18163
axşı	-8.18861
▁Dünya	-8.18878
▁sahə	-8.18905
▁kömək	-8.19143
▁verir	-8.19366
▁ana	-8.20021
▁gələn	-8.20072
▁kainat	-8.20235
▁bilərik	-8.20319
ütün	-8.20556
▁olardı	-8.20788
▁götür	-8.20836
▁mövcud	-8.20836
▁Amerika	-8.20836
▁Ne	-8.21045
▁görmə	-8.219
▁fərq	-8.22369
▁üç	-8.2282
▁hesab	-8.22836
▁uzun	-8.22838
▁məsələ	-8.2284
▁fikirləş	-8.22842
▁yaşı	-8.2323
laşdır	-8.23624
mışdı	-8.24071
▁min	-8.24294
▁göz	-8.2467
▁inkişaf	-8.24877
▁arasında	-8.24973
▁pul	-8.25479
▁keçir	-8.26263
liyin	-8.26617
▁ehtiyac	-8.2696
▁nöqtə	-8.2696
▁planet	-8.26962
▁gözlə	-8.27073
ümüz	-8.27666
düyü	-8.28259
W	-8.29088
▁vacib	-8.29088
▁maraqlı	-8.29089
▁xəbər	-8.29089
▁tələb	-8.2909
▁uç	-8.29274
▁yolu	-8.29342
▁uyğun	-8.31262
▁soruş	-8.31262
▁gəldi	-8.31439
1	-8.32078
▁sür	-8.32621
▁təşkil	-8.33484
▁qəbul	-8.33485
▁imkan	-8.33486
▁qərar	-8.33511
▁hava	-8.33712
▁dünyanın	-8.33984
▁kişi	-8.3475
luğu	-8.35348
▁20	-8.35625
▁ətraf	-8.35636
▁kəşf	-8.35757
▁dön	-8.35759
▁gəlmə	-8.37871
▁kütlə	-8.38083
▁fizik	-8.38084
▁qayda	-8.38084
▁film	-8.38116
▁getmə	-8.38255
▁uşaqlar	-8.38606
▁kainatın	-8.38802
▁gökada	-8.40464
▁texnologiya	-8.40464
▁üstün	-8.40464
▁rəng	-8.40465
▁xatırla	-8.4047
▁həmişə	-8.40473
▁hamısı	-8.40482
iyyə	-8.41034
▁hissəsi	-8.4112
▁proqram	-8.42903
▁müəyyən	-8.42903
▁bacar	-8.42904
▁edəcək	-8.4293
▁olmayan	-8.42972
iyyat	-8.43022
▁ətrafında	-8.43033
▁görünür	-8.43086
▁sözü	-8.43842
S	-8.44359
▁həll	-8.45348
▁məşğul	-8.45403
▁rəqəm	-8.45403
▁qüvvə	-8.45403
▁axtar	-8.45403
▁açıq	-8.45407
▁bağlı	-8.45606
metr	-8.45785
▁Dah	-8.45911
▁ulduzlar	-8.46258
umuz	-8.47484
▁art	-8.47826
▁yaradıcı	-8.47967
▁Gör	-8.47974
▁şəkli	-8.47983
▁dollar	-8.48053
▁50	-8.49398
▁oyun	-8.50225
▁din	-8.50391
▁Təşəkkür	-8.50598
▁ehtimal	-8.50598
▁təxmin	-8.50598
▁Titan	-8.50614
▁edib	-8.50619
▁otur	-8.50623
▁toz	-8.50654
▁forma	-8.50655
▁itir	-8.50776
▁etdiyimiz	-8.5093
▁tamam	-8.50953
▁düşünür	-8.50981
▁dost	-8.50989
adlı	-8.51773
ləyir	-8.51912
▁bağ	-8.53175
▁ingilis	-8.53301
▁təsəvvür	-8.53301
▁dərəcə	-8.53302
▁qazan	-8.53302
▁şəxs	-8.53303
▁isti	-8.53452
▁Ni	-8.53605
▁öyrənmə	-8.53747
oyunca	-8.53836
▁200	-8.53853
▁yüksə	-8.56079
▁görünüş	-8.56087
▁xaric	-8.56101
kinci	-8.56188
▁ailə	-8.56259
▁əsr	-8.56449
D	-8.58327
ünk	-8.58893
▁dörd	-8.58936
▁Allah	-8.58936
▁məqsəd	-8.58937
▁daxil	-8.58954
▁təmin	-8.58974
▁yəni	-8.59034
▁barə	-8.59037
▁gəz	-8.59054
▁əsər	-8.59057
▁özümüz	-8.59138
▁orada	-8.59747
▁burda	-8.60136
▁kənd	-8.60383
▁ulduz	-8.60878
▁böyü	-8.61111
A	-8.61301
▁təcrübə	-8.61877
▁idarə	-8.61879
▁bitki	-8.61883
▁izah	-8.61901
▁AB	-8.61903
▁oyna	-8.61918
▁tez	-8.62034
▁gedə	-8.6212
ğımız	-8.62796
▁Bunlar	-8.63011
▁Özü	-8.64907
▁müxtəlif	-8.64907
▁aşağı	-8.64908
ördüyünüz	-8.6491
▁yüz	-8.64916
▁qısa	-8.64938
▁Bəz	-8.6505
▁dayan	-8.65111
▁inanır	-8.65411
▁əks	-8.66169
Ş	-8.6764
P	-8.67648
▁istiqamət	-8.68032
▁Bibliya	-8.68032
▁qlobal	-8.68032
▁çevril	-8.68032
▁qəribə	-8.68032
▁ruh	-8.68038
▁yaratmaq	-8.68042
▁səth	-8.68056
▁görürsünüz	-8.68056
▁ölüm	-8.6807
▁edin	-8.68136
▁quru	-8.68477
▁başlaya	-8.68972
▁dərs	-8.70273
▁məhsul	-8.7126
▁hadisə	-8.71262
▁vəziyyət	-8.71283
L	-8.74411
▁təhlükə	-8.74591
▁həşərat	-8.74592
▁irəli	-8.746
▁Sonra	-8.746
▁niyə	-8.74693
▁axı	-8.75068
▁incəsənət	-8.7804
▁telefon	-8.7804
▁zəng	-8.78041
▁adlandır	-8.78042
▁qolf	-8.78048
▁dəyər	-8.78218
▁əməl	-8.78233
▁öyrəndi	-8.78578
▁Hamı	-8.7861
▁istərdi	-8.78682
▁yaxınlaş	-8.80268
▁üzərin	-8.81324
▁fəaliyyət	-8.81611
▁iynəcə	-8.81611
▁kifayət	-8.81611
▁müşahidə	-8.81611
▁nümunə	-8.81611
▁xəritə	-8.81611
▁orbit	-8.81612
▁quruluş	-8.81612
▁okean	-8.81612
▁anlayış	-8.81614
▁oğlan	-8.81617
▁razı	-8.81621
▁xoş	-8.81637
▁qutu	-8.81754
▁boy	-8.8177
▁qanun	-8.81798
▁həqiq	-8.85314
▁Məsələn	-8.85315
▁bölgə	-8.85315
▁cənub	-8.85315
▁dizayn	-8.85315
▁fotoşəkil	-8.85315
▁riyaziyyat	-8.85315
▁elektro	-8.85315
▁gülüş	-8.85315
▁yağış	-8.85326
▁gedir	-8.85384
▁paylaş	-8.89161
▁təyyarə	-8.89161
▁məsafə	-8.89161
▁tarix	-8.89162
▁həftə	-8.89165
▁uçuş	-8.89169
▁aydın	-8.89185
▁topla	-8.89334
▁qoru	-8.89383
4	-8.8954
xud	-8.89948
sünüz	-8.9316
▁robot	-8.93161
▁Birinci	-8.93161
▁içəri	-8.93161
▁olduğumuz	-8.93162
▁səhv	-8.93162
▁kasıb	-8.93167
▁peyk	-8.93245
▁edəcəy	-8.93267
▁müsahibə	-8.97328
▁sərhəd	-8.97328
▁təsvir	-8.97328
▁İngilis	-8.97328
▁İnsanlar	-8.97328
▁nəzəriyyəsi	-8.9733
▁altında	-8.97345
▁otaq	-8.97362
3	-8.98052
▁diqqət	-9.01676
▁inanılmaz	-9.01676
▁təşəkkür	-9.01676
▁şirkət	-9.01676
▁Günəş	-9.01676
▁video	-9.01676
▁ədalət	-9.01676
▁saniyə	-9.01677
▁uğur	-9.01677
▁dəyişiklik	-9.01678
▁rəsm	-9.01691
▁Həyat	-9.01709
▁toxu	-9.0172
▁yaradıl	-9.01734
▁işığı	-9.01794
▁arzu	-9.04659
▁Nigeriya	-9.06221
▁məşhur	-9.06221
▁çiçək	-9.06221
▁Başqa	-9.06221
▁model	-9.06221
▁zəif	-9.06221
▁şəhər	-9.06221
▁cihaz	-9.06221
▁qrup	-9.06221
▁rəqs	-9.06222
▁qorxu	-9.06222
▁olsun	-9.06228
▁normal	-9.0628
▁söyl	-9.0704
▁başlanğıc	-9.10983
▁dövlət	-9.10983
▁hörmət	-9.10983
▁narahat	-9.10983
▁səyahət	-9.10983
▁əyləncə	-9.10983
▁mütləq	-9.10983
▁balaca	-9.10983
▁cəmiyyət	-9.10984
▁fakt	-9.10988
▁ideya	-9.1099
▁musson	-9.11506
İ	-9.12367
▁mübarizə	-9.15983
▁Əvvəl	-9.15983
▁səliqə	-9.15983
▁səviyyə	-9.15983
▁kamera	-9.15983
▁ibarət	-9.15983
T	-9.17628
E	-9.17741
M	-9.23198
V	-9.29062
Ç	-9.29067
C	-9.29068
H	-9.74258
O	-10.0787
R	-10.2215
K	-10.388
B	-10.8359
F	-10.8382
G	-11.672
Q	-11.6721
!	-12.6731
J	-12.6732
;	-12.6733
U	-12.6734
Ö	-12.6735
:	-12.6736
)	-12.6737
?	-12.6738
-	-12.6739
"	-12.674
X	-12.6741
,	-12.6741
Ə	-12.6742
.	-12.6742
Y	-12.6742
