<unk>	0
<s>	0
</s>	0
▁.	-3.19789
▁,	-3.49611
▁	-3.60382
▁"	-3.99759
i	-4.25653
▁bir	-4.34824
ə	-4.42488
n	-4.42496
a	-4.43524
▁və	-4.54099
m	-4.65643
▁bu	-4.74137
r	-4.93555
▁-	-5.03589
də	-5.11405
da	-5.12941
k	-5.13031
in	-5.15442
lər	-5.17779
y	-5.19261
▁Bu	-5.22675
lar	-5.31378
z	-5.31711
▁ki	-5.34083
▁də	-5.34619
t	-5.3616
ma	-5.3824
ı	-5.38787
▁çox	-5.42409
b	-5.46055
u	-5.46451
q	-5.48624
lə	-5.48658
dir	-5.49708
la	-5.5183
▁da	-5.52299
li	-5.53027
ş	-5.54012
▁üçün	-5.56862
▁?	-5.60772
o	-5.64689
dən	-5.6567
l	-5.66683
s	-5.6679
e	-5.75497
ü	-5.76608
▁)	-5.77778
di	-5.77921
(	-5.77984
dır	-5.78488
an	-5.79095
d	-5.79672
ın	-5.80773
dan	-5.83105
na	-5.86343
▁var	-5.87456
ləri	-5.88118
ir	-5.91731
cə	-5.9411
▁Və	-5.94448
ları	-5.9475
ya	-5.96569
▁o	-5.96619
ən	-5.97601
▁idi	-6.00915
▁nə	-6.02941
▁s	-6.04217
▁kimi	-6.04765
yə	-6.05138
maq	-6.05554
əm	-6.06974
▁A	-6.07966
▁daha	-6.0843
f	-6.13501
▁:	-6.14436
▁ya	-6.15321
▁edir	-6.16968
▁olan	-6.18252
▁mən	-6.20392
▁b	-6.20525
ra	-6.2259
al	-6.23189
il	-6.23209
si	-6.24009
er	-6.25909
lı	-6.26763
▁bilər	-6.27071
ni	-6.27405
▁biz	-6.27832
ar	-6.27866
ər	-6.27871
lik	-6.28186
h	-6.28553
▁şey	-6.31808
ik	-6.3191
▁hər	-6.32939
▁il	-6.34141
siniz	-6.34258
▁M	-6.34674
p	-6.35525
sə	-6.35826
dı	-6.36222
g	-6.37518
▁O	-6.38002
▁S	-6.39103
▁görə	-6.40237
im	-6.41124
▁t	-6.44035
▁qədər	-6.44351
▁ilə	-6.44471
lan	-6.44627
un	-6.46288
▁deyil	-6.46518
lərin	-6.46817
▁belə	-6.47198
▁Mən	-6.47831
▁B	-6.49646
x	-6.49972
▁sonra	-6.52795
sa	-6.53646
▁isə	-6.53873
▁bütün	-6.54956
ların	-6.55497
▁iş	-6.56578
ç	-6.58318
▁q	-6.60177
ır	-6.6098
ində	-6.62442
▁böyük	-6.64311
v	-6.67321
▁al	-6.67373
nın	-6.67482
ur	-6.67668
c	-6.67769
dim	-6.69898
mək	-6.70127
am	-6.70353
▁H	-6.70813
ət	-6.71339
sı	-6.7154
ri	-6.71771
▁yaxşı	-6.71861
▁T	-6.73674
ib	-6.74171
at	-6.7443
▁yer	-6.75061
lıq	-6.75272
on	-6.75485
▁necə	-6.75646
▁Gülüş	-6.7617
▁ən	-6.76289
dur	-6.7651
▁olaraq	-6.76766
mi	-6.7692
▁etmək	-6.76994
▁edə	-6.77149
ey	-6.78991
ini	-6.7953
ün	-6.79956
▁az	-6.80585
▁heç	-6.80713
ki	-6.8282
▁K	-6.84009
mə	-6.84239
or	-6.85219
▁Am	-6.85348
▁D	-6.85959
nə	-6.86861
▁olduğunu	-6.8787
du	-6.88184
▁gün	-6.8828
ti	-6.88521
▁k	-6.88829
ğ	-6.89093
▁vaxt	-6.9099
▁Bir	-6.92065
imiz	-6.9254
▁başqa	-6.94908
▁de	-6.94933
▁p	-6.94974
ca	-6.95289
▁onlar	-6.95586
kin	-6.96042
▁bunu	-6.96533
▁Biz	-6.97567
▁Q	-6.97621
ö	-6.98435
inə	-6.98631
st	-6.98941
▁zaman	-6.99344
▁Y	-6.99364
nı	-6.99521
▁öz	-7.01556
▁bizim	-7.01652
ür	-7.01756
dakı	-7.03593
▁mənim	-7.03741
▁əvvəl	-7.03787
▁istifadə	-7.03933
▁Ə	-7.04461
▁insan	-7.04622
niz	-7.05966
▁həm	-7.06412
dik	-7.06505
iz	-7.06512
inin	-7.0676
0	-7.08492
en	-7.08659
nin	-7.08793
▁yox	-7.09041
▁olduğu	-7.09201
▁baş	-7.09641
▁G	-7.10706
um	-7.11457
▁haqda	-7.11494
dım	-7.11638
▁oldu	-7.1199
et	-7.12457
▁insanlar	-7.12745
miş	-7.13137
sən	-7.13172
ta	-7.14771
mağa	-7.16076
lərini	-7.16198
▁etdi	-7.16202
▁İ	-7.16756
▁i	-7.16918
'	-7.1713
▁a	-7.17633
mış	-7.18324
▁siz	-7.18816
▁ilk	-7.19017
▁qal	-7.19482
▁C	-7.20871
▁yeni	-7.21064
▁Onlar	-7.21766
larını	-7.22913
▁danış	-7.23322
▁olma	-7.23628
ıb	-7.24
▁bax	-7.24503
▁yalnı	-7.25049
lu	-7.25148
▁amma	-7.26732
ıl	-7.27346
▁yara	-7.27589
ğı	-7.27996
le	-7.28418
▁olur	-7.28528
əs	-7.28556
nız	-7.28646
▁həyat	-7.288
▁elə	-7.28838
▁hə	-7.28959
dıq	-7.29017
▁hiss	-7.29102
▁iki	-7.29346
▁neçə	-7.29482
▁çünk	-7.30442
▁bil	-7.31098
cı	-7.3164
▁kiçik	-7.32343
▁mənə	-7.32584
▁çək	-7.32922
▁İndi	-7.33315
dü	-7.33547
▁ci	-7.33726
ını	-7.33918
▁dünya	-7.34091
siz	-7.34964
▁olun	-7.35637
▁yol	-7.36687
ndan	-7.37015
▁P	-7.37144
ması	-7.37447
dəki	-7.37458
tə	-7.3781
ım	-7.38014
▁deyə	-7.38054
▁m	-7.38864
▁son	-7.39261
▁digər	-7.39348
me	-7.39675
▁h	-7.40125
əcək	-7.40147
▁edən	-7.40228
aq	-7.40562
▁burada	-7.40633
▁gətir	-7.41436
▁sən	-7.4211
▁tap	-7.42575
▁qarşı	-7.4355
▁La	-7.43733
▁ş	-7.4417
kən	-7.44605
▁Çox	-7.44662
▁eyni	-7.44673
▁onun	-7.4468
▁ancaq	-7.44771
çi	-7.45019
▁ver	-7.45233
ul	-7.45478
eç	-7.46031
▁keç	-7.46208
el	-7.46863
kı	-7.46943
▁gəlir	-7.47223
yi	-7.47259
iya	-7.47642
it	-7.48031
▁dedi	-7.48043
▁əsas	-7.48067
ylə	-7.4837
miz	-7.48653
unu	-7.49011
ol	-7.49037
▁tək	-7.49291
va	-7.4966
▁deyir	-7.49666
▁istəyirəm	-7.50438
ah	-7.50758
▁biri	-7.51262
▁kəs	-7.51927
▁f	-7.52141
▁mü	-7.52287
ut	-7.52375
▁ye	-7.52575
▁sadə	-7.52698
ro	-7.52719
mız	-7.52981
çı	-7.53313
te	-7.53515
▁ola	-7.53557
—	-7.53811
▁orta	-7.5382
sini	-7.53831
id	-7.54044
ıq	-7.54061
ncaq	-7.54207
dür	-7.54785
lərə	-7.54798
▁Afrika	-7.55015
ış	-7.55384
▁Ç	-7.55579
▁bəzi	-7.56237
▁fikir	-7.56674
araq	-7.57101
ına	-7.57866
▁hal	-7.57969
dığı	-7.5883
ük	-7.58955
lara	-7.5988
▁anla	-7.59926
▁ildə	-7.60128
ndə	-7.60186
ek	-7.60302
▁ağ	-7.6056
▁yaz	-7.60775
və	-7.60954
▁E	-7.6111
▁olacaq	-7.61321
sində	-7.61534
lay	-7.61568
▁sizə	-7.61874
▁onu	-7.62706
▁başladı	-7.6271
▁gəl	-7.63103
▁ev	-7.63138
gər	-7.63512
▁hekayə	-7.63745
▁davam	-7.63889
▁həqiqətən	-7.63893
▁demək	-7.64132
▁in	-7.64213
▁indi	-7.64422
▁təsir	-7.65218
▁dəfə	-7.65242
▁Nə	-7.65262
▁Alqışlar	-7.65644
▁bilmə	-7.66038
▁səbəb	-7.66228
▁olar	-7.66504
ğa	-7.66573
▁haqqında	-7.66581
▁Ya	-7.66843
imi	-7.67037
▁göstər	-7.67152
əl	-7.67404
acağı	-7.67747
▁F	-7.68073
vi	-7.68379
mı	-7.68494
▁olmaq	-7.68768
▁tərəfində	-7.69183
▁Yə	-7.69253
▁məktəb	-7.69325
▁Siz	-7.69676
ler	-7.69859
00	-7.69904
məyə	-7.70077
▁içində	-7.70112
▁etmə	-7.70192
▁əla	-7.70211
▁dəyiş	-7.70323
▁çıx	-7.70338
man	-7.70518
▁geri	-7.70739
▁qız	-7.70743
ında	-7.71475
larla	-7.72179
ımız	-7.7224
▁yaxın	-7.72726
▁tanı	-7.72864
▁2	-7.73072
▁şəkildə	-7.73215
▁şeylər	-7.73375
▁g	-7.73461
▁onları	-7.74807
ırdı	-7.74813
▁çat	-7.74983
▁hərəkət	-7.75082
▁çıxar	-7.75637
lərdə	-7.75655
lərdən	-7.75946
▁mə	-7.7603
▁problem	-7.76579
lərlə	-7.77024
▁əl	-7.77308
sınız	-7.77402
▁etməyə	-7.77832
▁edil	-7.7825
lığı	-7.78435
▁etdiyi	-7.78529
liyi	-7.787
acaq	-7.78867
əgər	-7.79383
▁doğru	-7.79628
▁cavab	-7.79628
▁çətin	-7.79629
▁kosmos	-7.79631
▁Beləliklə	-7.79631
▁Belə	-7.79633
▁bunun	-7.79726
▁uşaq	-7.79745
▁ay	-7.80028
▁sual	-7.80535
▁Alqış	-7.8069
▁çalış	-7.8086
tta	-7.80911
▁milyard	-7.81191
▁milyon	-7.81191
▁insanların	-7.81489
▁maddə	-7.81558
▁1	-7.81618
▁qalaktika	-7.82778
▁gözəl	-7.82817
ək	-7.82939
de	-7.83309
N	-7.84013
▁bilmir	-7.85235
indən	-7.85258
nda	-7.85274
likdə	-7.85531
▁kim	-7.85657
▁lazım	-7.85717
▁meydan	-7.86031
▁sal	-7.8695
▁verdi	-7.875
▁hansı	-7.87701
▁nəzər	-7.87702
▁at	-7.87706
▁fərqli	-7.88037
üz	-7.88092
▁Mənim	-7.88118
aş	-7.88292
▁Bunu	-7.88452
iyyət	-7.88468
▁onların	-7.88567
malı	-7.88588
ünü	-7.88671
▁sizin	-7.8892
▁hazır	-7.88973
luq	-7.89073
▁tərəf	-7.89566
▁qadın	-7.89696
lardan	-7.89881
▁üzərində	-7.89922
▁yazı	-7.90266
siya	-7.90297
anda	-7.9063
▁Ş	-7.90871
lərində	-7.91075
▁təhsil	-7.91116
▁artıq	-7.91176
sına	-7.91367
▁qoy	-7.91865
▁hələ	-7.91917
▁şəkil	-7.92284
▁səs	-7.92545
▁Əsl	-7.92879
su	-7.92896
▁adam	-7.93035
diyi	-7.93215
▁qə	-7.936
yu	-7.93806
ka	-7.93934
▁istəyir	-7.94219
▁oxu	-7.94306
▁gör	-7.94378
ğu	-7.94554
▁günəş	-7.9467
larda	-7.95114
▁dil	-7.95157
▁məni	-7.95308
▁R	-7.95886
ırlar	-7.96456
▁məlumat	-7.96474
▁olub	-7.96478
▁qaranlıq	-7.96506
sını	-7.96649
ırıq	-7.96825
▁əslin	-7.9685
▁görür	-7.96953
məsi	-7.96976
dığım	-7.9713
san	-7.97152
▁özüm	-7.97381
▁enerji	-7.97803
▁bunlar	-7.97814
▁ko	-7.97819
dilər	-7.97881
kar	-7.97961
▁düş	-7.9809
▁yaşa	-7.98097
▁Hə	-7.98307
▁musiqi	-7.98326
▁sahib	-7.98327
▁fikri	-7.98328
▁do	-7.98346
▁sağ	-7.98402
▁Hər	-7.98669
əb	-7.99175
▁L	-7.99564
es	-7.99662
▁öyrə	-7.99757
▁ana	-7.99976
w	-8.00213
▁müddət	-8.00213
▁apar	-8.00232
▁işıq	-8.00447
▁yoxdur	-8.00506
mişdi	-8.0053
▁Burada	-8.00722
▁verir	-8.01028
▁üz	-8.01798
▁et	-8.01871
▁söz	-8.0209
axşı	-8.02125
▁sahə	-8.02149
▁kömək	-8.02243
ğın	-8.02331
▁cü	-8.02477
bil	-8.02493
▁gələn	-8.02561
tik	-8.0268
▁bilərik	-8.03241
▁kainat	-8.03499
ütün	-8.03888
▁Amerika	-8.04097
▁götür	-8.04097
▁kitab	-8.04102
▁olardı	-8.04498
mü	-8.04906
▁10	-8.05244
▁e	-8.05262
▁ol	-8.05324
▁fərq	-8.05691
▁görün	-8.057
▁X	-8.06011
▁üç	-8.06021
▁məsələ	-8.06098
▁sev	-8.06246
▁qey	-8.06463
yan	-8.06874
op	-8.07149
▁göz	-8.07296
▁yolu	-8.07323
▁başa	-8.07343
za	-8.07734
▁mövcud	-8.08137
▁inkişaf	-8.08138
▁əlaqə	-8.08146
▁növ	-8.08154
▁olsa	-8.083
▁pul	-8.08352
▁arasında	-8.08495
▁5	-8.08609
▁tam	-8.08819
larında	-8.08833
zi	-8.08958
▁keçir	-8.0907
▁ça	-8.09186
us	-8.09392
sinə	-8.09878
lü	-8.09959
▁öl	-8.10136
▁nöqtə	-8.10221
▁planet	-8.10262
dığımız	-8.10397
▁4	-8.10798
▁gəldi	-8.11046
ist	-8.11421
▁gözlə	-8.11573
diyimiz	-8.12133
▁istə	-8.12258
▁vacib	-8.12349
▁xəbər	-8.12349
▁maraqlı	-8.12413
▁3	-8.12508
▁la	-8.12601
rik	-8.12623
ından	-8.12739
lərindən	-8.13145
▁dövr	-8.13159
▁düşün	-8.13572
▁şeyi	-8.1403
▁ç	-8.14123
▁sür	-8.15167
mışdı	-8.15978
▁ara	-8.16089
mu	-8.16493
▁qəbul	-8.16745
▁imkan	-8.16746
▁qərar	-8.16766
▁hava	-8.16787
▁Ba	-8.17176
▁kö	-8.17792
▁dünyanın	-8.17898
irəm	-8.17909
▁20	-8.18195
tı	-8.18356
▁ətraf	-8.18685
ilə	-8.18982
▁kəşf	-8.19017
▁dön	-8.19018
▁uzun	-8.19021
▁gəlmə	-8.19401
as	-8.19536
sin	-8.20104
▁daş	-8.20389
se	-8.21063
▁fizik	-8.21344
▁film	-8.21354
cu	-8.21455
tar	-8.21576
diyim	-8.21675
▁hissəsi	-8.21995
▁sözü	-8.22029
▁kainatın	-8.22058
uq	-8.2207
sında	-8.22112
iniz	-8.22284
gen	-8.22936
diyini	-8.23125
ünk	-8.23262
5	-8.23289
məyi	-8.23297
sız	-8.23567
▁texnologiya	-8.23724
▁rəng	-8.23724
▁həmişə	-8.23727
▁nəticə	-8.23757
▁üstün	-8.23798
ərək	-8.24023
məli	-8.2427
▁yaşı	-8.24841
▁su	-8.25344
▁etdik	-8.25621
ınız	-8.25823
j	-8.26163
▁mövzu	-8.26163
▁müəyyən	-8.26163
larının	-8.26212
▁edəcək	-8.26252
▁olmayan	-8.26268
▁görünür	-8.26276
asiya	-8.2644
mağı	-8.2646
▁ətrafında	-8.26523
ram	-8.26731
▁V	-8.26857
▁hamısı	-8.27017
▁xüsusi	-8.27306
▁6	-8.27465
arı	-8.2772
suz	-8.27834
▁həll	-8.28051
▁sürət	-8.2845
S	-8.28466
▁uşaqlar	-8.28473
▁uyğun	-8.28662
▁qüvvə	-8.28663
▁məşğul	-8.28663
▁rəqəm	-8.28663
▁sistem	-8.28826
▁bağlı	-8.28843
▁Dah	-8.29004
▁elmi	-8.29137
▁açıq	-8.29189
ası	-8.29331
sinin	-8.29333
▁maşın	-8.29422
öv	-8.29587
▁par	-8.29589
▁art	-8.29744
▁olması	-8.29769
▁ulduzlar	-8.30002
tor	-8.30163
▁hesab	-8.31084
▁yaradıcı	-8.31227
▁şəkli	-8.31228
▁dollar	-8.31267
laşdır	-8.31479
▁din	-8.31548
ent	-8.31578
▁lazımdır	-8.31722
▁veril	-8.31805
▁deyildi	-8.31915
▁fa	-8.32931
8	-8.33714
▁təxmin	-8.33859
▁Təşəkkür	-8.33859
▁edib	-8.33864
▁Titan	-8.33865
▁otur	-8.33866
▁toz	-8.33871
▁itir	-8.33918
▁min	-8.33958
▁W	-8.33974
▁dost	-8.33995
▁De	-8.34006
▁əhəmiyyətli	-8.34017
▁tamam	-8.3405
▁etdiyimiz	-8.34108
▁düşünür	-8.34215
larımız	-8.3433
▁ehtimal	-8.34341
adlı	-8.34342
ıram	-8.34809
▁göstərir	-8.34943
▁bilir	-8.34948
▁I	-8.35037
▁Hindistan	-8.35138
ha	-8.35164
▁şəkillər	-8.35485
ici	-8.3564
▁Bunun	-8.36236
▁bağ	-8.36405
▁mümkün	-8.36506
▁təşkil	-8.36541
▁proqram	-8.36561
▁ingilis	-8.36561
▁qazan	-8.36562
▁şəxs	-8.36562
▁dərəcə	-8.36562
▁təsəvvür	-8.36597
▁getmə	-8.36651
▁Ni	-8.36749
▁öyrənmə	-8.36829
▁isti	-8.37059
▁uzaq	-8.37735
▁x	-8.37748
▁200	-8.37803
▁etmiş	-8.37965
▁Dünya	-8.38725
düyü	-8.38852
▁edirlər	-8.39026
▁ad	-8.39288
▁19	-8.39336
▁yüksə	-8.3934
ının	-8.39353
əsi	-8.39463
▁ailə	-8.3953
▁dili	-8.39549
oyunca	-8.39776
▁re	-8.39834
muş	-8.39884
▁ölkə	-8.39892
▁ifadə	-8.39932
ran	-8.39997
ok	-8.40003
▁Kim	-8.40198
caq	-8.41276
uy	-8.41301
▁Ən	-8.41308
est	-8.41418
▁yarı	-8.41499
▁sözlər	-8.41531
▁idim	-8.41819
▁dörd	-8.42196
▁daxil	-8.42203
▁gəz	-8.42211
▁təmin	-8.42213
məz	-8.42218
▁əsər	-8.42224
▁yəni	-8.42262
▁burda	-8.42323
▁özümüz	-8.42328
sal	-8.42461
▁gedə	-8.42535
▁barə	-8.42854
▁görmək	-8.42891
anı	-8.43014
▁kənd	-8.43155
▁na	-8.43291
▁ulduz	-8.43581
ap	-8.43619
▁yerdə	-8.44361
▁elm	-8.44708
ye	-8.44754
▁Sən	-8.44853
▁50	-8.44888
▁sistemi	-8.44945
▁təbi	-8.45004
uz	-8.45072
▁bacar	-8.45081
▁təcrübə	-8.45138
▁idarə	-8.45138
▁izah	-8.45146
▁AB	-8.45163
▁tez	-8.4519
▁özünü	-8.45193
▁bitki	-8.45296
▁bilirik	-8.45353
A	-8.45408
▁fikirləş	-8.45562
ton	-8.46069
▁ölçülər	-8.46107
▁Bunlar	-8.46189
ımızı	-8.46407
▁İş	-8.46592
▁get	-8.46962
ch	-8.47249
▁orada	-8.47724
▁7	-8.47755
ed	-8.48026
əlkə	-8.48031
▁uç	-8.4811
▁Özü	-8.48168
▁aşağı	-8.48168
▁qısa	-8.48173
▁müxtəlif	-8.48183
▁yüz	-8.48197
▁inanır	-8.48408
▁məh	-8.48592
umuz	-8.48634
▁əks	-8.4867
▁dayan	-8.48914
liyin	-8.49017
▁bizi	-8.49073
tan	-8.49701
▁başlaya	-8.49736
rdi	-8.49829
lük	-8.49954
ləşdir	-8.50354
▁nəyi	-8.50468
sının	-8.51114
▁tələb	-8.51203
▁Bibliya	-8.51293
▁istiqamət	-8.51293
▁çevril	-8.51293
▁qəribə	-8.51293
▁ruh	-8.51294
▁yaratmaq	-8.51297
▁səth	-8.513
▁ölüm	-8.51312
▁görürsünüz	-8.5132
▁edin	-8.51321
▁qlobal	-8.51338
▁quru	-8.51373
▁əsr	-8.51395
▁adi	-8.51428
▁vasitə	-8.51487
▁güc	-8.5149
▁etməyi	-8.51519
▁qala	-8.5154
▁öncə	-8.51554
7	-8.5172
Ş	-8.51738
P	-8.51749
▁səbəbdən	-8.52144
ğımız	-8.52407
▁bilməz	-8.52546
▁dərs	-8.52565
▁ifa	-8.53858
▁etməli	-8.54153
▁an	-8.5416
▁vasitəsi	-8.54319
▁hadisə	-8.54519
▁məhsul	-8.5452
▁vəziyyət	-8.54529
▁ön	-8.54544
▁güclü	-8.54552
▁dünyanı	-8.54655
▁Ne	-8.54671
▁biləcək	-8.54735
luğu	-8.5525
▁zamanda	-8.56023
eh	-8.5612
▁ha	-8.56384
▁görü	-8.568
▁dəyişdi	-8.56946
▁əldə	-8.57221
▁məncə	-8.57364
▁həşərat	-8.57852
▁düz	-8.57881
▁niyə	-8.57926
▁axı	-8.57991
▁Sonra	-8.57997
metr	-8.58071
▁asan	-8.58298
layır	-8.58318
▁kütlə	-8.5837
9	-8.58435
L	-8.58516
▁kişi	-8.58654
▁forma	-8.58992
▁san	-8.59344
uza	-8.59377
▁özü	-8.59624
əcəyi	-8.59897
▁nədir	-8.59929
▁olmağı	-8.60014
▁dəqiq	-8.60067
▁hekayələr	-8.60273
inizi	-8.60372
▁olduğum	-8.60827
▁parça	-8.61207
▁problemlər	-8.61291
▁geniş	-8.61292
▁incəsənət	-8.613
▁telefon	-8.613
▁zəng	-8.613
▁qolf	-8.61301
▁əməl	-8.61374
rək	-8.61397
▁dəyər	-8.61399
▁istərdi	-8.61489
▁Hamı	-8.61605
qin	-8.6178
▁anda	-8.61821
▁adlandır	-8.61962
▁Bizi	-8.62218
▁dilində	-8.62329
▁görmə	-8.62844
▁100	-8.63095
▁yaxınlaş	-8.63491
▁üzərin	-8.63785
▁özün	-8.64033
▁say	-8.64253
▁ölçü	-8.64319
▁Bəl	-8.64628
▁əsl	-8.64679
▁fəaliyyət	-8.64872
▁müşahidə	-8.64872
▁xəritə	-8.64872
▁nümunə	-8.64872
▁orbit	-8.64872
▁quruluş	-8.64872
▁kifayət	-8.64872
▁okean	-8.64872
▁anlayış	-8.64873
▁xoş	-8.64874
▁oğlan	-8.64875
▁12	-8.64913
▁qanun	-8.64916
▁adı	-8.65003
▁edərək	-8.65035
▁təbiət	-8.65042
▁gələcək	-8.65042
▁boy	-8.65061
▁müəllim	-8.65136
ce	-8.65747
2	-8.65757
▁vermək	-8.65808
mələr	-8.65987
▁dərin	-8.65995
lərimiz	-8.662
▁İl	-8.66638
mır	-8.66865
cək	-8.67031
▁özləri	-8.67243
qca	-8.6743
▁bilərəm	-8.67575
yəm	-8.67978
▁xatırla	-8.68514
▁həqiq	-8.68575
▁Məsələn	-8.68575
▁bölgə	-8.68575
▁cənub	-8.68575
▁dizayn	-8.68575
▁fotoşəkil	-8.68575
▁riyaziyyat	-8.68575
▁gülüş	-8.68576
▁yağış	-8.6858
▁vur	-8.68605
▁baxma	-8.68645
▁deyilmi	-8.68705
cü	-8.68721
əhs	-8.68816
▁göstərmək	-8.68923
▁deyi	-8.69307
▁verən	-8.69513
sək	-8.69536
▁bənzər	-8.69873
▁dəqiqə	-8.6992
ümüz	-8.69941
▁mil	-8.69967
▁qat	-8.70045
▁gedir	-8.70063
▁Ro	-8.7024
▁Al	-8.70318
ge	-8.7052
▁bilmirdi	-8.7056
▁Hindistanda	-8.7057
▁bilmək	-8.70788
▁is	-8.71126
iyyat	-8.72152
▁məsafə	-8.72421
▁təyyarə	-8.72421
▁tarix	-8.72422
▁həftə	-8.72422
▁uçuş	-8.72424
▁aydın	-8.72429
▁qoru	-8.72471
▁topla	-8.72521
▁xey	-8.72616
məyin	-8.728
eşi	-8.73166
▁baxsa	-8.73204
▁düşündü	-8.7334
▁çəkir	-8.73455
▁bas	-8.73469
▁danışmaq	-8.73497
den	-8.73533
4	-8.73636
▁alət	-8.73668
▁böyü	-8.74625
▁qoyu	-8.74806
ımın	-8.74854
▁dünyada	-8.75004
▁hamı	-8.75233
▁bunları	-8.75384
▁edildi	-8.7544
▁çalışır	-8.75519
tiv	-8.75762
▁müəllimlər	-8.76126
tır	-8.76261
▁axtar	-8.76366
sünüz	-8.76391
son	-8.76414
▁robot	-8.76421
▁Birinci	-8.76422
▁səhv	-8.76422
▁kasıb	-8.76423
▁peyk	-8.7645
▁olduğumuz	-8.76451
▁pis	-8.76453
▁kənar	-8.76483
▁edəcəy	-8.76507
kü	-8.76658
▁əmin	-8.76711
ləyir	-8.77075
▁gir	-8.77377
nun	-8.77402
▁en	-8.78281
▁almaq	-8.78481
məyən	-8.7879
▁gökada	-8.79284
▁kon	-8.79313
raf	-8.79484
ck	-8.79623
▁üzün	-8.79919
▁oyna	-8.80585
▁müsahibə	-8.80588
▁sərhəd	-8.80588
▁təsvir	-8.80588
▁İngilis	-8.80588
▁İnsanlar	-8.80588
▁nəzəriyyəsi	-8.80591
▁otaq	-8.80599
▁tərk	-8.80604
▁burax	-8.80607
▁tədqiqat	-8.80627
▁saat	-8.80649
▁ərz	-8.80774
▁Bəlkə	-8.8081
▁altında	-8.80884
▁başlayır	-8.81224
▁atam	-8.8128
▁arzu	-8.81524
▁plan	-8.81687
▁vermə	-8.81709
3	-8.8215
▁çıxır	-8.8431
▁qaydalar	-8.84466
sidir	-8.84704
▁onda	-8.84846
▁səbəbi	-8.84858
▁Günəş	-8.84936
▁inanılmaz	-8.84936
▁təşəkkür	-8.84936
▁diqqət	-8.84936
▁video	-8.84936
▁şirkət	-8.84936
▁ədalət	-8.84936
▁uğur	-8.84936
▁dəyişiklik	-8.84937
▁rəsm	-8.84939
▁saniyə	-8.84941
▁Həyat	-8.84948
▁toxu	-8.84948
▁gördüyünüz	-8.84957
▁yanaş	-8.84964
▁xarici	-8.84978
▁işığı	-8.84984
▁yaradıl	-8.84985
▁15	-8.85013
▁ayaq	-8.85135
▁bilirsiniz	-8.85237
dığını	-8.85247
təşə	-8.85434
▁olunur	-8.85543
diyiniz	-8.85663
▁oldum	-8.86038
▁keçən	-8.86076
▁insanları	-8.86375
▁edər	-8.86519
▁yenidən	-8.86838
▁dəyişmə	-8.87003
yimiz	-8.87059
▁illərdə	-8.87155
▁işlər	-8.87252
iyyə	-8.87563
xud	-8.88143
səydi	-8.88234
▁araşdırma	-8.89118
pe	-8.89378
▁Nigeriya	-8.89481
▁zəif	-8.89481
▁məşhur	-8.89481
▁çiçək	-8.89481
▁şəhər	-8.89481
▁Başqa	-8.89482
▁model	-8.89482
▁qorxu	-8.89482
▁qrup	-8.89482
▁rəqs	-8.89482
▁cihaz	-8.89482
▁razı	-8.89484
▁olsun	-8.89484
▁irəli	-8.89485
▁cümlə	-8.89491
▁zamanı	-8.89492
▁təkrar	-8.89493
▁normal	-8.8951
▁Bəz	-8.89576
▁söyl	-8.89629
▁məqsədi	-8.89814
▁gey	-8.89934
▁sürətlə	-8.90189
▁bit	-8.90331
▁etdiyim	-8.90528
▁için	-8.92004
▁mənası	-8.92072
ruq	-8.92434
▁ölkələr	-8.92776
▁maşını	-8.92807
▁oyun	-8.92969
duğu	-8.93076
▁qura	-8.93101
▁yerin	-8.93111
▁9	-8.93262
məmiş	-8.9395
and	-8.94142
▁üst	-8.94159
▁yaratdığı	-8.94168
▁başlanğıc	-8.94243
▁dövlət	-8.94243
▁hörmət	-8.94243
▁mütləq	-8.94243
▁narahat	-8.94243
▁səyahət	-8.94243
▁əyləncə	-8.94243
▁balaca	-8.94243
▁cəmiyyət	-8.94244
▁dəstək	-8.94245
▁ideya	-8.94246
▁kosm	-8.94251
▁qaç	-8.94271
kinci	-8.94279
▁fakt	-8.94323
▁parçası	-8.94381
▁8	-8.94465
▁musson	-8.94482
▁cins	-8.94687
▁həyatın	-8.94776
▁ayır	-8.94834
▁siyas	-8.95009
▁öyrəndi	-8.95291
rət	-8.9571
▁Elə	-8.95887
▁birləşdir	-8.96284
▁40	-8.96306
▁gördü	-8.96346
İ	-8.96476
D	-8.96478
ardı	-8.96757
▁suallar	-8.9682
▁qara	-8.96889
▁Gör	-8.96927
▁görünüş	-8.97012
▁olmasa	-8.97084
▁sayı	-8.97486
▁as	-8.98339
▁şeyin	-8.98493
▁nəyə	-8.99026
▁səviyyə	-8.99243
▁elektro	-8.99243
▁ibarət	-8.99243
▁kamera	-8.99243
▁mübarizə	-8.99243
▁səliqə	-8.99243
▁Əvvəl	-8.99243
▁müasir	-8.99244
▁yığ	-8.99249
▁atom	-8.99255
▁asılı	-8.9926
▁Sağ	-8.9926
▁qapı	-8.99294
▁Həmi	-8.99338
▁Sadə	-8.99343
▁təqdim	-8.9936
▁Cas	-8.99441
▁dolu	-8.99466
▁gül	-8.99468
▁düşür	-8.99502
▁Necə	-8.99668
▁qeyd	-8.99677
▁Tək	-8.99764
▁qayda	-8.99789
▁gördük	-8.99872
▁olduqları	-8.99879
ölçülü	-9.00634
▁Yer	-9.00745
▁Son	-9.00779
▁işlədi	-9.01098
▁getdi	-9.01469
6	-9.01648
ləşmiş	-9.01733
T	-9.01743
dığınız	-9.01861
▁gö	-9.02198
▁ölç	-9.02508
ert	-9.03028
▁alan	-9.0335
▁çıxan	-9.0352
▁qadınlar	-9.03555
lərimizi	-9.0367
▁sol	-9.03897
▁gücü	-9.04128
▁yerləş	-9.04237
▁qar	-9.04263
▁nəticəsi	-9.04439
sonunda	-9.04465
▁bərabər	-9.04506
▁proses	-9.04506
▁yuxarı	-9.04506
▁mühit	-9.04507
▁bazar	-9.04508
▁arxa	-9.04514
▁misal	-9.04517
▁bəzə	-9.04527
▁boş	-9.04532
▁sinif	-9.0454
▁etmir	-9.04541
▁yoldaşım	-9.04547
▁sıx	-9.04564
▁hamımız	-9.04583
iyor	-9.04589
▁Böyü	-9.04592
▁maraqlan	-9.04649
▁addım	-9.04673
▁gedib	-9.04765
▁biləcəyini	-9.04804
▁ölkədə	-9.05245
mışam	-9.05318
▁Allah	-9.05493
▁əvvəlki	-9.05599
▁edilir	-9.05613
▁olmadığını	-9.05843
▁real	-9.05909
▁yarım	-9.06372
▁adaları	-9.06481
▁günü	-9.0678
▁Demə	-9.06794
▁Görə	-9.07012
▁bildiyi	-9.071
M	-9.07301
▁ora	-9.0737
mayıb	-9.07582
▁Əla	-9.07658
üyü	-9.08231
▁işin	-9.08862
▁reallaş	-9.09011
▁biləcəyi	-9.09803
malıyı	-9.10043
▁çəkili	-9.10058
▁Avropa	-9.10062
▁Maldiv	-9.10062
▁mərhəmət	-9.10062
▁mərkəzi	-9.10062
▁uşağ	-9.10062
▁ağıllı	-9.10063
▁canlı	-9.10063
▁cəlb	-9.10063
▁möh	-9.10063
▁düymə	-9.10066
▁düşdü	-9.10067
▁təq	-9.10078
▁quş	-9.10084
▁beyni	-9.10094
▁sevgi	-9.1011
▁biləcəyimiz	-9.10122
▁xəstəlik	-9.10158
▁mümkündür	-9.10177
▁bar	-9.10185
▁şüa	-9.10226
▁edilməsi	-9.10245
▁ehtiyac	-9.10516
▁ümumi	-9.10764
▁düşüncə	-9.10765
▁oyunun	-9.11043
▁ne	-9.11066
▁Onun	-9.11318
asında	-9.11713
▁gökadalar	-9.1184
▁qət	-9.13124
V	-9.13147
Ç	-9.13172
C	-9.13177
▁düşünmə	-9.13397
▁uzaqlaş	-9.1342
▁Va	-9.13795
acam	-9.13919
▁istədi	-9.14673
th	-9.15146
▁Ev	-9.1542
▁sevir	-9.15497
masını	-9.15568
▁əvəzin	-9.15621
▁Musiqi	-9.15944
▁Məktəb	-9.15944
▁StoriKorps	-9.15944
▁həbsxana	-9.15944
▁iqtisadiyyat	-9.15944
▁kompüter	-9.15944
▁müharibə	-9.15944
▁müzakirə	-9.15944
▁nisbət	-9.15944
▁Təbii	-9.15944
▁kağız	-9.15945
▁Saturn	-9.15945
▁düzgün	-9.15945
▁nüvə	-9.15945
▁qulaq	-9.15945
▁Nəticə	-9.15946
▁Tamam	-9.15947
▁təklif	-9.15949
▁olmur	-9.15949
▁Digər	-9.15951
▁genişlən	-9.15956
▁gecə	-9.1596
▁gördüyümüz	-9.15975
▁11	-9.15982
▁çöl	-9.15992
edici	-9.15998
▁Gəli	-9.16175
▁yaşayır	-9.16234
▁rol	-9.16395
▁yaratdı	-9.16595
▁dalğ	-9.16617
rhal	-9.16672
▁olurdu	-9.16697
▁istədiyim	-9.16954
▁baxım	-9.17031
▁alın	-9.17195
▁enerjisi	-9.17659
▁bilən	-9.17803
▁olmağ	-9.18463
▁bilirdi	-9.18708
▁soruşdu	-9.18805
▁iynəcələr	-9.19331
I	-9.19401
▁edərdi	-9.19439
məliyik	-9.19922
müşdü	-9.19963
▁arası	-9.20549
▁yen	-9.2057
▁parçacıqları	-9.20861
▁Allahı	-9.21031
▁yaşaya	-9.21403
▁olmadığı	-9.22015
▁baxa	-9.22092
▁ehtiyacı	-9.22112
▁qutu	-9.22163
oloji	-9.22194
▁atmosfer	-9.22194
▁kompleks	-9.22194
▁mühəndis	-9.22194
▁mərhələ	-9.22194
▁qabiliyyət	-9.22194
▁miqdar	-9.22194
▁icazə	-9.22195
▁şahid	-9.22195
▁Appl	-9.22196
▁oxşa	-9.22196
▁xilas	-9.22197
▁şərq	-9.222
▁xətt	-9.22206
▁qarış	-9.22207
▁detal	-9.22225
▁növbə	-9.22227
xalq	-9.22244
▁16	-9.22246
▁təhlükəsiz	-9.22254
▁olsaydı	-9.22263
▁mavi	-9.22269
▁Dav	-9.22277
▁beş	-9.22297
▁maraq	-9.22304
▁şimal	-9.22307
▁öt	-9.22332
▁Xey	-9.22572
▁deyərdi	-9.22598
▁Rus	-9.2261
▁co	-9.22747
ayəsində	-9.2276
▁olduğundan	-9.22778
▁istəyirik	-9.22897
▁Dünyanı	-9.23618
oğlu	-9.2362
ncel	-9.23945
▁aldı	-9.24233
dınız	-9.2448
▁çalışan	-9.25026
▁görünüşü	-9.25078
▁fikirləşir	-9.25479
▁xüsus	-9.25738
▁30	-9.25885
1	-9.25993
▁dövrü	-9.26306
▁bənzə	-9.26531
▁sala	-9.26682
▁maddəni	-9.27274
▁Uşaqlar	-9.28153
▁əhəmiyyət	-9.28452
uditoriya	-9.28861
▁layihə	-9.28861
▁material	-9.28861
▁mövsüm	-9.28861
▁mükafat	-9.28861
▁söhbət	-9.28861
▁tərcümə	-9.28861
▁universitet	-9.28861
▁ünsiyyət	-9.28861
▁obyekt	-9.28861
▁Öl	-9.28861
▁Kainat	-9.28861
▁vəzifə	-9.28862
▁mədəniyyət	-9.28862
▁ümid	-9.28862
▁önəmli	-9.28863
▁ictimai	-9.28866
▁yavaş	-9.28868
▁otağı	-9.2887
▁nəfər	-9.28873
həng	-9.2888
▁qərb	-9.28887
▁harada	-9.28895
▁işarə	-9.28907
▁tele	-9.28937
▁axtarış	-9.28956
▁gələcəyi	-9.28961
▁xatırlayır	-9.28974
▁İkinci	-9.28974
▁soruşur	-9.29019
▁qarşısında	-9.29048
▁tələbələr	-9.29058
▁çəkilişi	-9.29182
▁şans	-9.29219
▁hərfi	-9.29586
▁kişilər	-9.29992
▁başlama	-9.30221
▁etsə	-9.30558
▁olmuşdu	-9.30712
▁soruş	-9.32452
▁ayrıl	-9.33207
▁həyatımı	-9.33265
yorlar	-9.34926
▁Onu	-9.35142
▁açı	-9.35362
▁ehti	-9.35419
▁ehtiyacımı	-9.35513
▁təhlükə	-9.35936
duğunu	-9.35997
▁hökümət	-9.36004
▁internet	-9.36004
▁korrupsiya	-9.36004
▁möcüzə	-9.36004
▁məsuliyyət	-9.36004
▁qayıd	-9.36004
ologiya	-9.36004
▁NASA	-9.36004
▁TED	-9.36004
▁fleyta	-9.36004
▁istehsal	-9.36004
▁ixtira	-9.36004
▁nəzarət	-9.36004
▁tətbiq	-9.36004
▁xoşbəxt	-9.36004
▁Andro	-9.36004
▁zərər	-9.36005
▁etiket	-9.36005
▁Charl	-9.36005
▁divar	-9.36006
▁gizli	-9.36006
▁gənc	-9.36007
▁etibar	-9.36009
▁olmalıdır	-9.3601
▁çarp	-9.3601
▁bolt	-9.36011
▁ədəd	-9.36011
▁ciddi	-9.36011
▁Bang	-9.36021
▁istənil	-9.36034
▁kürə	-9.36034
▁içərisində	-9.36047
▁Big	-9.36049
▁göndəri	-9.36064
▁qaya	-9.36065
▁198	-9.36069
▁bəri	-9.36113
▁bədən	-9.36118
▁bank	-9.36127
▁90	-9.36142
▁sualtı	-9.36153
▁yazıçı	-9.36256
mısınız	-9.36263
▁malik	-9.36318
▁uçur	-9.36326
▁olmalıy	-9.3634
ləşmə	-9.36463
▁altı	-9.36464
▁baxış	-9.36466
▁göstərəcəy	-9.3656
▁araşdır	-9.3659
▁ənənə	-9.36762
▁satı	-9.36779
▁ağır	-9.36837
▁hazırlama	-9.36945
▁çəkmək	-9.36984
▁çıxdı	-9.37759
▁yaşadığı	-9.37936
yoru	-9.38197
▁gəlmiş	-9.38614
▁olmuş	-9.4169
▁kütləsi	-9.42485
▁məqsəd	-9.43127
▁paylaş	-9.43177
ləşdirmə	-9.43298
▁xaric	-9.4362
əqiqətən	-9.4363
▁gördüyüm	-9.43659
▁bölüş	-9.43696
▁Eynşteyn	-9.43696
▁John	-9.43696
▁asteroid	-9.43696
▁cazibə	-9.43696
▁gerçək	-9.43696
▁heyvan	-9.43696
▁hissəciklər	-9.43696
▁mühüm	-9.43696
▁qiymət	-9.43696
▁xidmət	-9.43696
▁İsveç	-9.43696
▁şagird	-9.43696
▁hökumət	-9.43696
▁polis	-9.43696
▁səhnə	-9.43696
▁hədiyyə	-9.43697
▁qayna	-9.43697
▁səfər	-9.43697
▁ört	-9.43697
▁mövzusunda	-9.43698
▁orqan	-9.43698
▁birinci	-9.43698
▁hərəkat	-9.43698
▁üsul	-9.43698
üəllif	-9.43699
▁ölçüsü	-9.43699
▁bənzəyir	-9.437
▁siyahı	-9.437
▁Eyni	-9.43704
▁törə	-9.43706
ebilir	-9.43717
▁yaşlı	-9.43718
▁yayıl	-9.43719
▁tərz	-9.43728
▁Mart	-9.43765
▁düzəld	-9.43779
▁25	-9.4385
▁sıra	-9.43866
▁azad	-9.43941
▁minlərlə	-9.43946
▁işləyir	-9.43983
▁itki	-9.44106
▁paylaşma	-9.44218
▁gəmi	-9.44226
dərili	-9.44322
▁edilmiş	-9.44337
▁orda	-9.45711
▁ayrı	-9.46828
▁hekayəni	-9.4693
▁düşünü	-9.47425
▁dediyi	-9.48915
▁öyrəndiyim	-9.5141
▁istədiyi	-9.51687
aranlıq	-9.51897
▁Əlbət	-9.52029
munikasiya	-9.5203
▁Einstein	-9.5203
▁Kitab	-9.5203
▁Qəhqəhə	-9.5203
▁qoşul	-9.5203
▁teleskop	-9.5203
▁valideyn	-9.5203
▁cəhət	-9.5203
▁səhər	-9.5203
▁davran	-9.52032
▁olmayacaq	-9.52032
▁əlbət	-9.52033
▁parlaq	-9.52036
▁York	-9.52041
▁not	-9.52046
▁eniş	-9.52048
sunuz	-9.5205
▁əlaqədar	-9.52051
rtıq	-9.52088
▁21	-9.5209
▁qutusu	-9.52091
▁qarışıq	-9.52107
▁kimliyim	-9.52113
▁köməyi	-9.52136
▁Anam	-9.52174
▁Əsas	-9.52208
▁başlamış	-9.52304
▁istədiyimiz	-9.52378
▁verdiyi	-9.52489
▁göndərdi	-9.52613
▁nəsil	-9.5264
▁hazırladı	-9.53064
▁hissələri	-9.53151
▁xəstəliy	-9.53412
▁istəmə	-9.53435
▁bilmədiyimi	-9.53602
▁etdirə	-9.53808
▁gəldiyin	-9.54324
otel	-9.54326
ayət	-9.55066
çini	-9.55736
▁iynəcə	-9.56023
acağ	-9.56102
▁gedi	-9.57271
H	-9.58358
▁görünə	-9.58674
▁gönd	-9.60789
▁ve	-9.60858
▁içəri	-9.61066
▁fantastik	-9.6112
▁həyəcan	-9.6112
▁müqayisə	-9.6112
▁statistika	-9.6112
▁struktur	-9.6112
▁təbəqə	-9.6112
▁ədəbiyyat	-9.6112
əssüf	-9.61121
▁Risen	-9.61121
▁hüquqları	-9.61121
▁informasiya	-9.61121
▁iştirak	-9.61121
▁jurnal	-9.61121
▁mükəmməl	-9.61121
▁məcburiyyətində	-9.61121
▁riyazi	-9.61121
▁texnik	-9.61121
▁İynəcələr	-9.61121
▁şifrələ	-9.61121
▁Universitet	-9.61121
▁amerika	-9.61121
▁təkamül	-9.61121
▁mahnı	-9.61122
▁Mario	-9.61122
▁neft	-9.61122
▁yapış	-9.61124
▁Bilmir	-9.61125
▁sahil	-9.61125
▁dəyişikliyi	-9.61127
▁aşkar	-9.61129
▁adlanır	-9.61134
▁biznes	-9.61148
▁dəvət	-9.61151
▁ərəb	-9.61153
üzgü	-9.61159
▁196	-9.61163
▁üzrə	-9.61167
▁şərt	-9.61173
▁istəyən	-9.61174
▁eqo	-9.61176
▁ağrı	-9.61179
▁utan	-9.61236
▁dəlil	-9.61281
▁mənbə	-9.61285
▁yaşımda	-9.61314
▁təməl	-9.61331
▁Bəziləri	-9.61338
▁hesablama	-9.61645
▁cəmi	-9.62224
▁parçacıq	-9.63123
▁varlığ	-9.63603
dərk	-9.63716
saydı	-9.6741
öyü	-9.67707
lobal	-9.70971
ördüyünüz	-9.71071
▁Aristotel	-9.7112
▁Google	-9.7112
▁Hekayə	-9.7112
▁Kollec	-9.7112
▁Kosmos	-9.7112
▁döyüş	-9.7112
▁effekt	-9.7112
▁genetik	-9.7112
▁investisiya	-9.7112
▁kilometr	-9.7112
▁mesaj	-9.7112
▁müvəffəqiyyət	-9.7112
▁mərasim	-9.7112
▁məsləhət	-9.7112
▁rəssam	-9.7112
▁toqquş	-9.7112
▁təəccüb	-9.7112
▁yönəl	-9.7112
▁İncəsənət	-9.7112
▁cəsarət	-9.71121
▁miqyas	-9.71121
▁qırmızı	-9.71121
▁heyran	-9.71121
▁zövq	-9.71121
▁göster	-9.71121
▁külək	-9.71121
▁saxlaya	-9.71121
▁muzey	-9.71121
▁nektar	-9.71121
▁məhdud	-9.71122
▁xərc	-9.71122
▁tutul	-9.71122
▁təyin	-9.71123
▁tutur	-9.71123
▁risk	-9.71125
▁Qızlar	-9.71126
▁əşya	-9.71127
▁foto	-9.71128
itrəmə	-9.7113
▁Kişi	-9.71132
▁etdirmək	-9.71136
▁tənlik	-9.71137
▁qarşılaş	-9.71138
▁qurmaq	-9.71138
▁miras	-9.71164
▁qitə	-9.71166
▁ürək	-9.71167
▁inşa	-9.71173
▁maye	-9.71176
▁versiyası	-9.71196
▁oynayır	-9.71204
▁Kral	-9.71266
▁Keçə	-9.71341
▁yanında	-9.71465
▁halqa	-9.71483
dırılmış	-9.7154
▁Mars	-9.71581
▁ayağ	-9.71753
▁Kənd	-9.72145
▁dəyişdirmə	-9.72171
▁Uşaq	-9.7221
loq	-9.72822
▁işləmə	-9.72832
▁aşı	-9.73881
▁bildiri	-9.77148
▁qaldırı	-9.80622
rofessional	-9.82232
▁London	-9.82232
▁Təxmin	-9.82232
▁iqtisadi	-9.82232
▁mikroskop	-9.82232
▁Cavab	-9.82232
▁Düşün	-9.82232
▁Prezident	-9.82232
▁Yalınayak	-9.82232
▁afrikalı	-9.82232
▁kompyuter	-9.82232
▁qayıt	-9.82232
▁temperatur	-9.82232
▁ticarət	-9.82232
▁təzyiq	-9.82232
▁xahiş	-9.82232
▁yəhudi	-9.82232
▁çiçəy	-9.82232
▁hökm	-9.82232
▁iclas	-9.82232
▁sosial	-9.82232
▁əhatə	-9.82232
▁Chris	-9.82232
▁ifşa	-9.82232
▁hidro	-9.82232
▁ucuz	-9.82232
▁rahat	-9.82232
▁Ştatlar	-9.82232
▁köhnə	-9.82233
▁içimizdə	-9.82233
▁təpə	-9.82233
▁Qadın	-9.82235
▁Maraqlı	-9.82235
▁soba	-9.82235
▁psix	-9.82238
▁Qısa	-9.82245
▁inandır	-9.82245
▁Hava	-9.82248
ecek	-9.8225
▁seçim	-9.82261
▁yaranır	-9.82265
▁Rəq	-9.82266
leşti	-9.82274
lənmişdi	-9.82282
▁poz	-9.82319
▁qurdu	-9.82357
▁suyun	-9.8236
▁İstə	-9.82366
▁tutar	-9.82436
ötəri	-9.825
▁həbs	-9.82642
▁harda	-9.82832
▁böyümüş	-9.86036
▁danışmağ	-9.88363
qurma	-9.88802
▁formalaş	-9.90501
O	-9.91973
▁xəstə	-9.92433
▁başlayı	-9.93365
əsəvvür	-9.94557
▁haqqı	-9.94591
▁elementlər	-9.94732
▁mübahisə	-9.94732
▁müştəri	-9.94732
▁simvol	-9.94732
▁səhifə	-9.94732
▁vizual	-9.94732
▁çevirə	-9.94732
▁şübhə	-9.94732
▁şəbəkə	-9.94732
▁Əfqanıstan	-9.94732
▁Məhkəmə	-9.94732
▁astronom	-9.94732
▁avtomobil	-9.94732
▁dəhşətli	-9.94732
▁elektrik	-9.94732
▁etkileş	-9.94732
▁həssas	-9.94732
▁irəliləyiş	-9.94732
▁klassik	-9.94732
▁kvadrat	-9.94732
▁meteorit	-9.94732
▁mikrofon	-9.94732
▁müraciət	-9.94732
▁potensial	-9.94732
▁sübut	-9.94732
▁ultrabənövşəyi	-9.94732
▁əxlaq	-9.94732
▁Cənub	-9.94732
▁heyrət	-9.94732
▁simulyasiya	-9.94732
▁xəstəxana	-9.94732
▁düzəltdi	-9.94732
▁naxış	-9.94732
▁qışqır	-9.94732
▁sektor	-9.94732
▁qrafik	-9.94732
▁böyüklüyü	-9.94733
▁keyfiyyətl	-9.94733
▁qurğu	-9.94733
▁Polis	-9.94733
▁həddin	-9.94734
▁Qolf	-9.94734
▁super	-9.94734
▁tamaşa	-9.94735
▁saxlayı	-9.94736
▁layiq	-9.94736
▁eşitmi	-9.94737
▁xanım	-9.94738
▁istədikləri	-9.94738
▁seçil	-9.94738
▁baba	-9.94738
▁öyrənmiş	-9.94739
▁komanda	-9.94739
▁silah	-9.9474
▁cəhd	-9.94741
▁hakim	-9.94742
▁metal	-9.94742
▁hazırlaş	-9.94746
▁The	-9.94747
▁həvəs	-9.94754
▁şahin	-9.94773
▁buludu	-9.94805
▁təşkilatı	-9.94829
▁müstə	-9.94847
▁doldu	-9.95117
ülmüş	-9.95197
▁əvəz	-9.95447
ənəvi	-9.98133
verici	-9.98644
R	-10.0624
▁tədqiq	-10.0888
▁Müəllim	-10.0902
▁Problem	-10.0902
▁Qalaktika	-10.0902
▁Warren	-10.0902
▁bölgüsü	-10.0902
▁cədvəl	-10.0902
▁dalğalanmalar	-10.0902
▁demokrati	-10.0902
▁elektromaqneti	-10.0902
▁mətbuat	-10.0902
▁nigeriyalı	-10.0902
▁proyekt	-10.0902
▁yeniyetmə	-10.0902
▁üfüq	-10.0902
▁İnanılmaz	-10.0902
ktyabr	-10.0902
▁Fleyta	-10.0902
▁ayaqqabı	-10.0902
▁diplom	-10.0902
▁fövqəl	-10.0902
▁imtahan	-10.0902
▁kollec	-10.0902
▁standart	-10.0902
▁xərçəng	-10.0902
▁ərazilər	-10.0902
▁kabel	-10.0902
▁xəyal	-10.0902
▁şərəf	-10.0902
▁etiraz	-10.0902
▁eşidil	-10.0902
▁sabit	-10.0902
▁cavan	-10.0902
K	-10.2292
E	-10.4292
B	-10.6769
F	-10.6792
W	-11.5127
G	-11.5129
Q	-11.5129
!	-12.5135
J	-12.5136
;	-12.5137
U	-12.5138
Ö	-12.5139
:	-12.514
)	-12.5141
?	-12.5142
-	-12.5143
"	-12.5144
X	-12.5144
,	-12.5145
Y	-12.5146
.	-12.5146
Ə	-12.5146
