<unk>	0
<s>	0
</s>	0
▁	-2.87942
▁.	-3.57652
ə	-3.84089
i	-3.84722
▁,	-3.87474
a	-3.89994
n	-4.12386
m	-4.24238
y	-4.30443
z	-4.33455
▁"	-4.37622
r	-4.40055
s	-4.53349
t	-4.54632
ş	-4.57857
u	-4.60021
▁bir	-4.67119
ı	-4.67426
k	-4.69423
q	-4.71809
e	-4.72566
in	-4.78447
ü	-4.79683
b	-4.84815
da	-4.85493
▁və	-4.88846
də	-4.89173
lər	-4.90309
la	-4.95721
an	-4.97258
lar	-5.00242
h	-5.03876
o	-5.04233
▁bu	-5.08093
lə	-5.08332
ar	-5.13601
d	-5.1659
di	-5.17713
l	-5.18374
ən	-5.19741
ma	-5.25186
li	-5.33461
▁o	-5.34137
ir	-5.34375
▁q	-5.34609
ın	-5.3817
ç	-5.40841
c	-5.41415
▁-	-5.41452
ö	-5.4295
v	-5.43745
f	-5.44238
▁s	-5.46415
▁ki	-5.51459
▁Bu	-5.51686
ər	-5.51844
dən	-5.58443
▁də	-5.59025
si	-5.60792
x	-5.62997
cə	-5.65552
p	-5.66359
mə	-5.68067
▁b	-5.69574
al	-5.71229
lı	-5.7176
dir	-5.71857
ra	-5.73454
▁t	-5.7442
il	-5.75308
dan	-5.76889
yə	-5.77107
sa	-5.77496
ət	-5.77777
▁da	-5.79377
əm	-5.79426
▁çox	-5.80273
ik	-5.81302
dır	-5.83203
ır	-5.8743
ya	-5.89744
un	-5.89966
g	-5.90053
er	-5.90327
na	-5.90777
▁üçün	-5.94716
dı	-5.9488
▁ya	-5.95349
əs	-5.95899
at	-5.95913
ğ	-5.96389
ur	-5.97809
▁?	-5.98635
əl	-5.98776
ləri	-6.00317
▁g	-6.01266
am	-6.01694
▁A	-6.04297
st	-6.0491
on	-6.05048
▁k	-6.05163
sə	-6.05552
▁mən	-6.0762
mək	-6.10719
▁nə	-6.13122
▁B	-6.13346
▁S	-6.13807
maq	-6.14027
im	-6.14226
▁p	-6.14634
ey	-6.15366
▁)	-6.15641
(	-6.15847
ün	-6.1592
ları	-6.16831
mi	-6.16911
or	-6.17305
ür	-6.17757
▁il	-6.19255
lərin	-6.2004
▁var	-6.23003
ğı	-6.23825
▁M	-6.24322
lan	-6.26068
et	-6.26182
▁i	-6.27807
▁a	-6.29143
dü	-6.29264
▁m	-6.29295
ni	-6.30637
▁şey	-6.30721
lik	-6.30929
▁Və	-6.32204
ol	-6.32341
▁idi	-6.32705
▁olma	-6.32899
▁hə	-6.34206
ki	-6.34924
▁iş	-6.3519
ta	-6.35208
ək	-6.36613
ib	-6.3819
▁mü	-6.38752
▁de	-6.39417
ların	-6.39623
▁mə	-6.40712
▁gəl	-6.41299
▁bilər	-6.41647
▁edə	-6.42236
▁kimi	-6.42552
ində	-6.43495
▁edir	-6.44425
dim	-6.4555
▁daha	-6.46276
en	-6.46589
ri	-6.48482
▁öz	-6.48716
ti	-6.48975
▁ver	-6.49704
miş	-6.50686
▁biz	-6.51822
tə	-6.52471
ah	-6.52657
▁T	-6.52918
▁Y	-6.53204
▁gör	-6.53488
it	-6.53542
▁x	-6.54194
lu	-6.54851
▁f	-6.55576
▁olan	-6.55832
sı	-6.5652
ca	-6.57941
ıq	-6.59144
▁deyil	-6.60346
▁K	-6.61415
▁D	-6.61616
▁hər	-6.62363
▁Mən	-6.64165
siniz	-6.64525
▁O	-6.64636
▁baş	-6.66461
0	-6.67131
▁al	-6.68036
nın	-6.6861
▁İ	-6.68772
▁1	-6.68928
le	-6.71578
el	-6.72108
diyi	-6.72625
▁ha	-6.73024
▁onlar	-6.73966
ası	-6.74846
du	-6.75134
▁ş	-6.75368
ul	-6.75827
imiz	-6.77273
inə	-6.78984
▁siz	-6.79021
▁yer	-6.79135
▁H	-6.79461
▁qədər	-6.82214
▁yara	-6.82893
ro	-6.83374
dığı	-6.84201
▁Ə	-6.85062
▁belə	-6.85089
▁görə	-6.85219
▁ilə	-6.86202
dur	-6.86278
iyyət	-6.87162
▁bil	-6.88507
▁gün	-6.89973
niz	-6.90022
▁sonra	-6.90758
id	-6.91059
ımız	-6.92255
▁isə	-6.9226
▁G	-6.92366
▁bütün	-6.92771
ini	-6.92903
ıl	-6.93064
ım	-6.94613
▁ad	-6.95354
dik	-6.977
um	-6.98068
▁böyük	-6.98265
▁bax	-6.98766
▁bunu	-6.98812
sən	-6.98963
siya	-6.99807
lü	-7.01218
ek	-7.02286
▁et	-7.02668
mış	-7.02931
▁dünya	-7.03086
inin	-7.03228
▁Q	-7.03624
lıq	-7.03659
▁olduğu	-7.04121
▁insanlar	-7.04801
▁zaman	-7.06095
▁etmə	-7.06292
ünü	-7.0662
əcək	-7.06851
▁çıx	-7.07117
ed	-7.08637
▁yaxşı	-7.0974
ış	-7.10917
▁yox	-7.12939
▁necə	-7.13487
▁Gülüş	-7.14033
va	-7.14271
▁olaraq	-7.14599
sını	-7.15125
▁az	-7.15473
▁C	-7.15675
dakı	-7.15739
▁istə	-7.15815
▁etmək	-7.15875
▁Bir	-7.16014
▁çək	-7.1747
▁Biz	-7.17473
▁hiss	-7.17967
araq	-7.18122
▁heç	-7.18543
▁2	-7.19207
N	-7.20628
▁oldu	-7.20827
▁etdi	-7.21179
iya	-7.21335
▁dəyiş	-7.22062
▁yol	-7.22275
kin	-7.22821
▁göz	-7.23283
cı	-7.2363
nız	-7.24065
ını	-7.24241
▁şəkil	-7.24479
▁Am	-7.25551
▁keç	-7.25724
▁olduğunu	-7.25732
dım	-7.26111
5	-7.26329
ut	-7.27502
▁istəyir	-7.27591
gər	-7.28162
▁düşün	-7.28558
▁əvvəl	-7.28853
▁vaxt	-7.28853
▁ay	-7.28885
▁E	-7.28899
▁do	-7.29629
vi	-7.29825
larını	-7.299
P	-7.30139
▁qal	-7.31366
▁ci	-7.32055
▁göstər	-7.321
▁başqa	-7.32864
▁insan	-7.33151
▁bilmə	-7.33838
▁ko	-7.34431
▁Hə	-7.34488
▁danış	-7.3481
unu	-7.35157
▁yeni	-7.35626
00	-7.35667
liyi	-7.36375
mağa	-7.37918
▁həyat	-7.38251
▁bizim	-7.39533
▁tək	-7.39562
▁edil	-7.39696
▁Alqış	-7.41072
▁istifadə	-7.41796
sini	-7.42498
▁mənim	-7.42581
▁ara	-7.42832
▁ça	-7.44774
▁həm	-7.46513
▁tərəf	-7.47022
▁öyrə	-7.47023
▁fikir	-7.47026
sında	-7.47109
▁olun	-7.47197
ğu	-7.47374
▁görün	-7.47533
R	-7.47791
▁söz	-7.47841
▁səbəb	-7.48566
▁haqda	-7.4996
9	-7.50928
kən	-7.51136
▁olur	-7.51808
əcəyi	-7.52803
▁ağ	-7.54835
'	-7.54994
sində	-7.55546
▁iki	-7.55736
▁hekayə	-7.57515
▁qarşı	-7.58912
▁dil	-7.59206
▁üz	-7.59551
▁Onlar	-7.59561
diyimiz	-7.59793
▁anla	-7.59903
▁son	-7.60418
▁bilir	-7.61165
▁yalnı	-7.62953
▁deyə	-7.64217
▁fərq	-7.64579
▁amma	-7.64774
▁neçə	-7.67344
▁elə	-7.67502
məyi	-7.67537
ırdı	-7.68208
Ş	-7.68287
▁çünk	-7.68298
▁uşaq	-7.6924
▁çalış	-7.69245
▁kiçik	-7.70215
▁İndi	-7.712
▁yaşa	-7.73491
Ç	-7.74143
▁lazım	-7.74144
▁sual	-7.75203
▁tap	-7.75289
▁La	-7.75408
▁yaxın	-7.76187
▁digər	-7.77257
▁problem	-7.78246
▁Bunu	-7.78815
▁öl	-7.79139
▁gətir	-7.7931
▁ye	-7.79645
▁burada	-7.80091
4	-7.80362
▁kainat	-7.80363
F	-7.81438
▁hazır	-7.81449
▁düş	-7.82201
▁Çox	-7.82525
▁eyni	-7.82595
▁ancaq	-7.828
▁Nə	-7.82982
▁ölçü	-7.83632
L	-7.84455
▁etdiyi	-7.85114
acaq	-7.86608
ümüz	-7.87001
▁bilmir	-7.87022
▁deyir	-7.87025
▁əsas	-7.87397
6	-7.88144
ncaq	-7.89092
3	-7.89307
j	-7.90483
▁ətraf	-7.90484
▁sev	-7.90548
iyyat	-7.90621
▁sadə	-7.91038
—	-7.91674
▁nəzər	-7.91714
▁orta	-7.91773
V	-7.92748
▁Afrika	-7.92878
▁yazı	-7.92935
▁qoy	-7.93153
▁bəzi	-7.94104
▁güc	-7.94137
ləşdir	-7.94162
▁maddə	-7.97871
▁qadın	-7.99135
▁olacaq	-7.99145
▁bunlar	-7.99265
acağı	-7.99712
▁parça	-8.00433
▁bağ	-8.00537
▁başladı	-8.01208
▁həqiqətən	-8.01745
▁davam	-8.01771
▁ölkə	-8.01903
▁təsir	-8.03103
▁dəfə	-8.03203
▁haqqında	-8.0443
▁sistem	-8.0443
▁ulduz	-8.0443
8	-8.05799
▁içində	-8.05807
▁məktəb	-8.07189
▁enerji	-8.08597
▁geri	-8.08664
▁qız	-8.08808
▁hərəkət	-8.12949
▁tanı	-8.13286
X	-8.14438
7	-8.17491
▁kosmos	-8.17491
▁cavab	-8.17492
▁doğru	-8.17492
▁çətin	-8.17494
▁Beləliklə	-8.17494
▁növ	-8.17497
▁Belə	-8.17552
A	-8.18388
▁milyard	-8.19054
▁Hindistan	-8.19054
▁milyon	-8.19054
▁qalaktika	-8.20641
▁vasitə	-8.20641
▁dövr	-8.22254
▁təbi	-8.22265
▁sürət	-8.22269
▁əlaqə	-8.23895
▁üzərində	-8.23895
▁nəticə	-8.23899
▁meydan	-8.23904
▁maşın	-8.2393
▁əslin	-8.23964
▁hansı	-8.25574
dığımız	-8.26437
2	-8.28716
▁təhsil	-8.28979
▁artıq	-8.28981
▁Əsl	-8.30778
S	-8.32497
I	-8.36189
w	-8.38076
W	-8.50212
1	-8.51179
B	-8.66072
D	-8.77378
İ	-9.31456
T	-9.36711
E	-9.36738
M	-9.42278
C	-9.48178
H	-9.93324
O	-10.2697
K	-10.5793
Q	-11.8633
G	-11.8633
!	-12.8657
J	-12.8658
;	-12.8659
U	-12.866
Ö	-12.8661
:	-12.8662
)	-12.8663
?	-12.8664
-	-12.8665
"	-12.8666
,	-12.8667
Ə	-12.8667
.	-12.8668
Y	-12.8668
