<unk>	0
<s>	0
</s>	0
▁.	-2.93363
▁,	-3.23185
▁"	-3.73333
▁	-4.03485
▁bir	-4.13699
▁və	-4.28315
n	-4.38485
▁bu	-4.53687
a	-4.63373
ə	-4.70048
▁-	-4.77162
i	-4.87077
m	-5.00578
▁Bu	-5.02579
▁ki	-5.09031
▁də	-5.18398
▁çox	-5.29453
▁üçün	-5.30445
▁?	-5.34344
▁da	-5.42081
də	-5.47267
▁)	-5.5135
(	-5.51536
dən	-5.59844
dir	-5.60517
lər	-5.60575
da	-5.66858
▁Və	-5.68066
dan	-5.71426
in	-5.7238
k	-5.74299
▁idi	-5.74997
▁kimi	-5.79423
▁var	-5.79554
▁daha	-5.82004
lar	-5.86751
▁:	-5.88007
q	-5.89473
r	-5.9723
▁nə	-6.00588
▁o	-6.00955
z	-6.04804
b	-6.05191
ı	-6.05328
▁mən	-6.05467
▁biz	-6.07771
▁olan	-6.08183
▁hər	-6.11567
▁edir	-6.11637
dır	-6.11827
▁şey	-6.14657
▁görə	-6.15579
▁ilə	-6.17222
▁qədər	-6.18597
▁bilər	-6.1944
cə	-6.20061
▁belə	-6.22887
əm	-6.25631
▁isə	-6.27341
▁sonra	-6.28641
▁bütün	-6.29771
▁deyil	-6.30828
ın	-6.33938
ya	-6.35893
▁Mən	-6.36819
yə	-6.39193
▁böyük	-6.39625
▁il	-6.42663
ən	-6.43823
siniz	-6.43832
▁B	-6.47451
▁ən	-6.48961
▁necə	-6.49206
▁yaxşı	-6.49469
▁Gülüş	-6.49752
▁A	-6.49972
la	-6.50363
▁olaraq	-6.50367
lə	-6.50815
▁O	-6.51264
▁edə	-6.52532
▁ya	-6.55204
▁heç	-6.56485
li	-6.5822
▁etmək	-6.60838
ma	-6.61537
ik	-6.62094
ni	-6.63177
▁olduğunu	-6.68609
▁b	-6.69773
▁bunu	-6.69788
na	-6.70762
▁az	-6.73109
▁onlar	-6.73252
ki	-6.74099
nın	-6.76195
▁mənim	-6.76249
▁Biz	-6.76923
▁bizim	-6.7832
▁Bir	-6.78336
▁gün	-6.84637
▁başqa	-6.84859
▁haqda	-6.8533
▁Am	-6.86331
▁zaman	-6.86789
▁öz	-6.86892
an	-6.87738
sə	-6.89244
▁istifadə	-6.899
▁əvvəl	-6.90319
'	-6.90683
▁ilk	-6.91706
nin	-6.93732
lik	-6.9403
dakı	-6.96283
▁insanlar	-6.96643
▁vaxt	-6.96736
am	-6.96834
▁s	-6.98213
ları	-6.98723
▁amma	-7.00344
dur	-7.00734
s	-7.01452
▁yalnı	-7.01572
▁oldu	-7.02387
▁etdi	-7.02444
▁həm	-7.02836
▁çünk	-7.04064
▁yox	-7.06438
▁kiçik	-7.06674
▁yeni	-7.06935
▁elə	-7.07422
ində	-7.07544
▁olduğu	-7.08226
▁M	-7.08469
▁neçə	-7.08592
▁olur	-7.08758
▁iki	-7.10799
▁İndi	-7.11624
u	-7.11731
▁mənə	-7.13877
▁iş	-7.15994
▁burada	-7.16157
▁Onlar	-7.16793
▁ancaq	-7.18272
▁onun	-7.18919
▁baş	-7.18996
▁insan	-7.1988
▁yer	-7.21247
ıq	-7.21876
▁biri	-7.22182
di	-7.23417
▁eyni	-7.23452
▁Çox	-7.23819
▁istəyirəm	-7.23887
aq	-7.23947
dim	-7.23985
▁siz	-7.24983
ir	-7.26807
▁Y	-7.27181
—	-7.27363
▁ola	-7.27616
▁Ə	-7.27653
y	-7.27737
▁H	-7.28424
▁dedi	-7.28509
nı	-7.28742
▁tək	-7.29418
▁ildə	-7.30007
▁digər	-7.30475
▁edən	-7.30478
kin	-7.31289
kən	-7.32397
▁deyə	-7.32517
kı	-7.33077
▁sizə	-7.34594
sa	-7.36208
▁onu	-7.36215
▁ci	-7.36647
ləri	-7.36967
▁S	-7.36969
lı	-7.37483
▁həqiqətən	-7.37503
▁Alqışlar	-7.38988
▁olar	-7.3909
ndə	-7.39346
▁sadə	-7.39607
niz	-7.40444
▁haqqında	-7.40518
▁olacaq	-7.41085
▁dəfə	-7.41636
nə	-7.42027
nız	-7.42857
▁indi	-7.42917
▁başladı	-7.44896
▁olmaq	-7.45673
▁şəkildə	-7.45747
▁əsas	-7.45753
un	-7.4632
▁tərəfində	-7.4677
e	-7.46772
gər	-7.47739
▁onları	-7.47965
▁T	-7.48191
▁geri	-7.5069
▁əla	-7.51073
▁hə	-7.5128
l	-7.5149
▁hiss	-7.51511
dı	-7.52296
0	-7.52719
▁dünya	-7.52836
▁kəs	-7.52853
▁Beləliklə	-7.53225
maq	-7.53847
▁səbəb	-7.53987
▁demək	-7.54019
▁Belə	-7.54119
əgər	-7.54184
▁insanların	-7.54439
▁Alqış	-7.54532
▁orta	-7.54988
▁içində	-7.55174
ların	-7.55195
si	-7.56264
sı	-7.56452
▁bunun	-7.56482
tta	-7.56534
sən	-7.56578
▁2	-7.57161
▁deyir	-7.5917
▁bəzi	-7.59496
▁şeylər	-7.59506
▁davam	-7.59566
▁meydan	-7.59615
▁Bunu	-7.60047
mağa	-7.60294
▁gözəl	-7.60754
▁Mənim	-7.61163
▁Siz	-7.61248
▁hansı	-7.61269
▁həyat	-7.61684
▁onların	-7.6176
▁son	-7.61855
▁sizin	-7.62327
▁üzərində	-7.62365
▁qarşı	-7.62377
▁fərqli	-7.6355
▁fikir	-7.64664
▁artıq	-7.64787
▁məni	-7.648
▁Ç	-7.65001
lərin	-7.65252
▁hələ	-7.65562
▁i	-7.65839
inə	-7.66069
▁kosmos	-7.66205
▁G	-7.6661
ndan	-7.6694
▁etməyə	-7.67487
larını	-7.67942
ca	-7.67968
▁La	-7.68104
▁milyard	-7.68467
inin	-7.68922
▁verdi	-7.69034
lıq	-7.69217
araq	-7.69691
▁qaranlıq	-7.70055
▁olub	-7.70175
▁gəlir	-7.71247
mək	-7.73464
▁yoxdur	-7.73957
▁cavab	-7.74234
▁lazım	-7.74414
və	-7.74462
▁doğru	-7.75075
▁L	-7.75443
▁olun	-7.75639
▁;	-7.75688
▁hekayə	-7.75742
▁bilərik	-7.76153
▁D	-7.76313
▁yol	-7.76504
▁Hər	-7.76572
▁10	-7.77301
im	-7.77361
lərlə	-7.77382
ütün	-7.77513
▁maddə	-7.77874
ri	-7.78294
00	-7.78378
▁yaxın	-7.78553
▁bunlar	-7.78959
▁kömək	-7.79081
▁Q	-7.79102
▁Burada	-7.79144
▁üç	-7.79612
▁K	-7.79671
▁tam	-7.80206
▁sahib	-7.8029
▁cü	-7.80844
▁əslin	-7.81281
▁hərəkət	-7.82156
siz	-7.82256
▁gələn	-7.82313
▁şeyi	-7.82624
▁Yə	-7.82648
▁olsa	-7.82774
▁başa	-7.83276
ncaq	-7.84304
t	-7.84563
▁Nə	-7.85011
▁olardı	-7.85125
▁Afrika	-7.85695
d	-7.85826
▁təhsil	-7.86358
▁hal	-7.86765
▁enerji	-7.88662
▁günəş	-7.89306
▁verir	-7.89625
▁!	-7.90297
▁mövcud	-7.90305
▁müddət	-7.90306
▁qəbul	-7.90311
likdə	-7.90366
▁milyon	-7.90751
ib	-7.90966
▁özüm	-7.9104
▁dünyanın	-7.91193
mma	-7.91586
▁çətin	-7.92095
ını	-7.92368
▁sağ	-7.92502
▁t	-7.93129
▁5	-7.93136
▁şəkil	-7.93489
ylə	-7.93726
▁etdiyi	-7.9384
irəm	-7.9403
mi	-7.94209
▁20	-7.94533
▁k	-7.94542
▁inkişaf	-7.94818
▁bax	-7.95165
▁qadın	-7.95179
akin	-7.95451
▁kainatın	-7.95507
dəki	-7.95711
▁ay	-7.95884
▁3	-7.96367
▁musiqi	-7.97133
sınız	-7.97695
▁bilmir	-7.97796
san	-7.97966
sini	-7.98993
▁hava	-7.99215
▁vacib	-7.99272
▁qərar	-7.99404
▁uzun	-7.99463
▁kim	-7.99634
▁olmayan	-7.99841
▁elmi	-7.99871
▁edəcək	-8.00093
▁söz	-8.01465
▁xüsusi	-8.01492
▁ətrafında	-8.02102
▁bağlı	-8.02445
ək	-8.02504
▁pul	-8.0301
▁işıq	-8.03139
▁Dah	-8.03502
dür	-8.04191
▁sual	-8.0441
▁maraqlı	-8.04661
▁deyildi	-8.04905
▁uşaq	-8.04927
▁lazımdır	-8.05025
▁dollar	-8.05503
▁olma	-8.05707
dım	-8.06073
▁la	-8.06122
▁arasında	-8.06467
▁gəldi	-8.06655
▁həmişə	-8.0713
▁təxmin	-8.07423
▁Təşəkkür	-8.07424
▁əhəmiyyətli	-8.07477
▁d	-8.07548
▁edib	-8.07902
▁E	-8.08076
o	-8.08181
ini	-8.08228
▁uyğun	-8.08334
ımız	-8.08399
▁hazır	-8.08693
▁edirlər	-8.09122
▁göstərir	-8.09214
▁kəşf	-8.09352
▁4	-8.09367
▁idim	-8.09709
axşı	-8.1112
rəm	-8.11192
▁qey	-8.1134
ilə	-8.11377
▁ölçülər	-8.12052
▁müəyyən	-8.12284
▁yerdə	-8.12392
▁məktəb	-8.12454
indən	-8.12577
▁İ	-8.12688
▁görünür	-8.12979
▁200	-8.13576
▁m	-8.14083
▁görür	-8.14086
ır	-8.14197
▁on	-8.15048
▁məşğul	-8.15663
▁bizi	-8.15791
▁yəni	-8.15891
▁problem	-8.16259
▁etdiyimiz	-8.16594
▁görmək	-8.16694
▁de	-8.16925
▁Ən	-8.17671
▁bil	-8.18053
▁dərəcə	-8.18255
▁Dünya	-8.18324
▁izah	-8.18697
▁AB	-8.18712
▁bilirik	-8.18794
adlı	-8.18927
▁Hə	-8.1906
oyunca	-8.19428
miz	-8.19508
▁təbi	-8.19626
lərini	-8.20097
▁yolu	-8.20132
▁orada	-8.20265
▁hamısı	-8.20595
▁həll	-8.20676
▁1	-8.20812
lərdən	-8.20904
▁təsəvvür	-8.21084
▁qısa	-8.22089
▁Anc	-8.22123
▁Ya	-8.22393
əlkə	-8.22413
▁adi	-8.22836
▁ifadə	-8.22972
▁Əsl	-8.2435
ur	-8.24642
▁qəribə	-8.24845
▁görürsünüz	-8.24854
▁qlobal	-8.2486
▁təmin	-8.24889
▁öncə	-8.24894
▁sözü	-8.24939
▁yaratmaq	-8.25016
ç	-8.2519
Ş	-8.25291
▁səbəbdən	-8.25459
▁Bunun	-8.25502
S	-8.25782
▁təsir	-8.25876
▁olması	-8.26222
ün	-8.26708
▁burda	-8.26963
tə	-8.2697
ünk	-8.27022
▁min	-8.27054
▁edin	-8.27068
▁etdik	-8.27089
▁qalaktika	-8.27192
▁zamanda	-8.27317
larla	-8.2732
▁adam	-8.27912
▁güclü	-8.28081
ar	-8.28096
▁yüz	-8.28156
▁tamam	-8.28295
▁bilir	-8.28574
▁su	-8.28761
▁əldə	-8.2895
▁C	-8.28973
əcək	-8.29168
▁məncə	-8.2945
ndən	-8.29575
▁dünyanı	-8.2958
▁nəzər	-8.3012
▁q	-8.30661
▁mövzu	-8.30907
▁niyə	-8.31509
▁anda	-8.3168
▁Sonra	-8.31846
ti	-8.31958
L	-8.32141
▁Titan	-8.3256
ərək	-8.33311
▁aşağı	-8.34051
▁kainat	-8.34425
▁Bizi	-8.34807
▁əsl	-8.34837
dik	-8.34969
▁yüksə	-8.34988
▁nədir	-8.35051
▁rəqəm	-8.35433
▁bilmirdi	-8.35806
▁dilində	-8.36361
▁təşkil	-8.37009
ına	-8.37592
ğı	-8.37933
▁kütlə	-8.37987
er	-8.38125
▁ingilis	-8.38256
f	-8.38404
▁tez	-8.3845
▁edərək	-8.38697
▁100	-8.39284
əni	-8.39356
▁bilərəm	-8.39446
▁asan	-8.39786
▁a	-8.40072
▁istərdi	-8.40115
▁hesab	-8.40223
▁etməli	-8.40412
v	-8.40468
▁50	-8.40615
▁müxtəlif	-8.40621
▁deyi	-8.4076
▁in	-8.40967
▁Bunlar	-8.40989
▁üzərin	-8.41037
▁dili	-8.41492
▁mümkün	-8.42093
▁cənub	-8.42129
▁Məsələn	-8.42174
▁göstərmək	-8.42179
▁vasitəsi	-8.42317
▁vermək	-8.42318
iz	-8.42347
▁özü	-8.42412
▁bilmək	-8.42465
▁incəsənət	-8.42665
eç	-8.42762
▁Amerika	-8.4317
▁bilməz	-8.43639
▁Bibliya	-8.43985
▁etmə	-8.44392
miş	-8.44443
▁kişi	-8.44568
▁Hindistanda	-8.44874
ş	-8.4501
▁deyilmi	-8.4511
lardan	-8.45126
▁daxil	-8.45163
▁nəticə	-8.45546
ər	-8.45792
▁şəkillər	-8.45814
▁kifayət	-8.45971
▁fərq	-8.45986
▁etmiş	-8.46144
▁danışmaq	-8.46562
▁biləcək	-8.46907
▁12	-8.47205
▁gülüş	-8.47371
▁açıq	-8.47499
acaq	-8.47715
▁Ni	-8.48125
▁baxsa	-8.48165
▁dəqiq	-8.48493
▁olduğun	-8.48578
▁məsələ	-8.48968
▁yazı	-8.49179
▁7	-8.49331
ından	-8.49371
▁idarə	-8.49554
▁aydın	-8.49882
ırıq	-8.49961
qin	-8.5019
▁növ	-8.50262
▁almaq	-8.50637
▁P	-8.51075
▁məlumat	-8.51138
▁əmin	-8.51177
ğa	-8.51188
▁olduğumuz	-8.51484
yəm	-8.51927
▁xəbər	-8.52145
▁dünyada	-8.52241
lərindən	-8.52247
▁qala	-8.52253
rsiniz	-8.52576
sız	-8.52874
▁çıxır	-8.52883
imi	-8.52915
▁uzaq	-8.5307
▁geniş	-8.53191
▁V	-8.53349
▁Əsli	-8.53573
▁əlaqə	-8.53611
▁dəqiqə	-8.5366
▁olduğum	-8.53734
▁özünü	-8.53831
imiz	-8.53921
larında	-8.54122
▁g	-8.5413
▁qolf	-8.54144
▁tərk	-8.54292
▁özün	-8.54317
▁Bəlkə	-8.54348
▁bənzər	-8.54496
▁Hindistan	-8.54858
▁sözlər	-8.54911
larda	-8.55319
▁gökada	-8.5549
▁ərz	-8.55548
▁sa	-8.55561
nda	-8.55947
el	-8.564
▁İş	-8.56403
mə	-8.56479
▁ev	-8.56605
c	-8.56649
əs	-8.57085
▁insanları	-8.5715
ıb	-8.57294
mu	-8.57615
▁elm	-8.57919
▁tələb	-8.58057
mız	-8.582
▁sistemi	-8.58223
▁al	-8.58484
▁inanılmaz	-8.58489
▁təşəkkür	-8.5849
▁bura	-8.58495
▁gördüyünüz	-8.58531
▁pis	-8.58909
▁Günəş	-8.58995
▁bilirsiniz	-8.59077
▁dəyişdi	-8.59257
▁təsvir	-8.59275
sal	-8.5933
g	-8.5938
sını	-8.59438
8	-8.59633
▁yenidən	-8.59841
▁altında	-8.5988
▁başlayır	-8.60265
▁fikri	-8.60386
▁qız	-8.60414
▁səbəbi	-8.60557
▁sən	-8.607
▁hadisə	-8.60806
▁illərdə	-8.611
ü	-8.61104
▁bun	-8.61223
məyə	-8.61419
▁əsr	-8.6143
il	-8.61651
▁İnsanlar	-8.62364
▁N	-8.62379
qca	-8.62596
▁bilmə	-8.62752
▁yerin	-8.62806
▁özümüz	-8.62907
▁səhv	-8.62932
▁olsun	-8.63058
▁texnologiya	-8.63254
uq	-8.63361
▁video	-8.63416
▁edirdi	-8.63525
▁ulduzlar	-8.63538
▁verən	-8.63657
▁məşhur	-8.63659
▁bunları	-8.64142
▁keçən	-8.64297
▁saat	-8.6434
▁sizi	-8.64709
▁ulduz	-8.64909
▁saniyə	-8.65697
▁ol	-8.65905
ona	-8.66148
▁uçuş	-8.66198
▁kasıb	-8.66264
▁keçir	-8.66846
▁edildi	-8.66864
mış	-8.6696
▁şeyin	-8.67027
▁15	-8.67106
▁İl	-8.6729
▁Bura	-8.67331
ük	-8.674
▁Onları	-8.67519
▁yaradıcı	-8.67619
▁şəkli	-8.67649
▁mütləq	-8.67796
▁narahat	-8.67802
▁məh	-8.6805
▁gedir	-8.68153
▁kosm	-8.68413
▁nöqtə	-8.68769
▁oldum	-8.68877
▁yen	-8.68889
▁Elə	-8.68905
▁çalışır	-8.68929
▁zəif	-8.68932
yi	-8.68997
dığı	-8.6916
▁gör	-8.69162
▁inanır	-8.6924
▁birini	-8.69547
▁planet	-8.69694
▁maşın	-8.69714
▁barə	-8.69912
▁isti	-8.70043
▁çoxu	-8.7005
▁müsahibə	-8.70139
yla	-8.70263
▁baxma	-8.7036
▁R	-8.70509
▁təkrar	-8.70562
D	-8.70656
İ	-8.70756
▁kitab	-8.70866
▁zamanı	-8.70905
▁Birinci	-8.70971
▁40	-8.71014
ında	-8.71082
▁na	-8.7117
▁hekayələr	-8.71296
▁alan	-8.7154
5	-8.71679
▁hissəsi	-8.71859
▁ver	-8.72437
▁ibarət	-8.72796
▁müasir	-8.72806
▁Sağ	-8.72812
▁təqdim	-8.72837
▁Necə	-8.7286
▁üz	-8.72876
▁mübarizə	-8.72917
▁ətraf	-8.73044
▁etdiyim	-8.73082
▁nəyə	-8.73155
▁Cas	-8.73342
▁imkan	-8.73362
▁ölkədə	-8.73466
▁olmasa	-8.73622
▁özləri	-8.7373
▁ana	-8.73827
▁yaz	-8.7398
▁əməl	-8.74014
▁yə	-8.74268
▁F	-8.74311
▁6	-8.74353
▁illər	-8.74582
▁asılı	-8.74702
▁hörmət	-8.74889
lərə	-8.75054
▁dolu	-8.75252
▁normal	-8.75381
▁hamı	-8.75385
▁Demə	-8.75643
▁dövlət	-8.75683
▁əl	-8.75732
▁vardı	-8.7576
▁bilə	-8.76083
▁He	-8.76361
ması	-8.76426
▁həmi	-8.76449
▁ölkə	-8.76458
▁On	-8.7672
▁yarı	-8.76909
▁arasın	-8.77267
dığımız	-8.77439
▁ifa	-8.7751
▁ölçü	-8.77593
al	-8.7765
▁İngilis	-8.77872
▁qadınlar	-8.77946
▁at	-8.77995
▁gedib	-8.78176
▁əvvəlki	-8.78257
kinci	-8.78305
▁adı	-8.78361
▁düşünü	-8.78434
▁ə	-8.78925
▁Kim	-8.79117
▁olmadığını	-8.79139
▁hamımız	-8.79304
▁insanı	-8.79528
id	-8.79531
▁maşını	-8.79649
▁çəkir	-8.79652
▁varsa	-8.79696
▁film	-8.79746
▁ala	-8.79978
▁oğlan	-8.80156
▁Mənə	-8.80262
▁təcrübə	-8.80355
nun	-8.80524
▁balaca	-8.80865
▁atam	-8.80936
▁c	-8.81067
▁səs	-8.81397
▁əks	-8.81478
▁fizik	-8.81489
▁edər	-8.81491
▁uşaqlar	-8.81726
▁et	-8.81997
sonunda	-8.82064
▁nəzəriyyəsi	-8.82194
mələr	-8.82194
ey	-8.82424
▁dörd	-8.82878
▁işin	-8.83049
▁təyyarə	-8.83132
rdim	-8.83194
▁Başqa	-8.83446
▁orbit	-8.83477
▁Allah	-8.83509
▁Maldiv	-8.83614
▁cəlb	-8.83617
▁qaydalar	-8.83624
▁ümumi	-8.83634
ram	-8.83662
▁mümkündür	-8.83722
▁ağıllı	-8.83734
lara	-8.83784
▁çoxlu	-8.83893
▁şeyləri	-8.83976
▁oyunun	-8.84132
▁biləcəyimiz	-8.84138
▁Bəl	-8.84276
▁xarici	-8.84347
▁Əla	-8.84377
▁müəllimlər	-8.84441
▁yoldaşım	-8.8502
▁rəqs	-8.85027
sinə	-8.85109
▁ye	-8.85801
▁ilin	-8.85802
▁əvəzin	-8.85888
▁Sən	-8.86041
lərdə	-8.86098
▁gələcək	-8.86107
əhs	-8.86325
sında	-8.86531
▁ç	-8.86661
▁qalaktikalar	-8.86671
Ç	-8.8671
▁birimiz	-8.86771
▁məqsədi	-8.8682
▁qeyd	-8.86968
▁olduq	-8.87243
▁bilərdi	-8.87277
▁l	-8.87433
▁Görə	-8.87503
▁yeri	-8.87517
▁Ş	-8.87972
▁üstün	-8.8809
▁Onun	-8.88381
▁X	-8.88434
sində	-8.88502
▁Bun	-8.88609
▁düşür	-8.88663
▁baxı	-8.89008
▁kənar	-8.8901
idir	-8.89271
▁həqiq	-8.89338
▁için	-8.8945
xud	-8.89491
▁StoriKorps	-8.89497
▁həbsxana	-8.89497
▁Nəticə	-8.89497
▁Saturn	-8.89498
▁təklif	-8.89502
▁düzgün	-8.89505
▁qulaq	-8.89515
▁Təbii	-8.89521
▁bərabər	-8.8954
▁Allahı	-8.89619
▁Tamam	-8.89646
dilər	-8.89706
▁gördüyümüz	-8.89765
sin	-8.90031
▁olmur	-8.90377
▁sürətlə	-8.90591
cı	-8.90629
▁dair	-8.90679
▁Son	-8.90695
▁dövr	-8.9079
▁həftə	-8.90806
▁olurdu	-8.91
▁11	-8.91214
st	-8.91223
▁təsiri	-8.91307
▁e	-8.91354
▁iynəcələr	-8.91377
▁Musiqi	-8.9174
▁Dünyanı	-8.91754
▁işlər	-8.91771
▁aldı	-8.91827
▁Sadə	-8.91828
zi	-8.91889
▁bi	-8.91995
▁mənası	-8.9201
ıram	-8.92087
▁misal	-8.92202
▁edilən	-8.92426
sına	-8.92605
▁parçası	-8.9265
▁olunur	-8.93012
▁qrup	-8.93071
▁nəyi	-8.93271
▁müşahidə	-8.93439
2	-8.93528
lan	-8.93837
x	-8.945
diyimiz	-8.94591
▁bitki	-8.94642
▁istədiyim	-8.94822
▁onda	-8.95081
▁De	-8.95119
▁ehtimal	-8.95132
▁işdə	-8.9531
▁qal	-8.95469
▁gördü	-8.95596
▁mavi	-8.95764
▁olsaydı	-8.95771
▁icazə	-8.95774
▁istəyirik	-8.95868
▁ehtiyac	-8.95936
▁baxım	-8.95964
▁beş	-8.96033
p	-8.96053
▁düşünür	-8.96079
▁ağ	-8.9616
▁yarım	-8.96445
▁I	-8.96488
▁olduğundan	-8.96576
▁səliqə	-8.9666
vi	-8.96796
▁bilən	-8.96832
▁an	-8.96941
▁ed	-8.97158
▁Xey	-8.9717
▁olanda	-8.97173
▁kompleks	-8.97266
▁maddəni	-8.97403
▁suallar	-8.9764
▁tərəf	-8.97643
▁getmə	-8.97672
▁Yal	-8.97799
▁gücü	-8.97917
▁yuxarı	-8.98239
caq	-8.98297
▁günü	-8.98315
iniz	-8.98482
əli	-8.98711
▁Yer	-8.98752
on	-8.98854
▁model	-8.98864
ra	-8.99253
sək	-8.993
▁etməsi	-8.99525
▁müəllim	-8.99547
▁Appl	-8.99648
▁problemlər	-8.99714
▁təhlükəsiz	-8.99872
▁Hi	-9.0003
h	-9.00038
anda	-9.0014
4	-9.00142
▁xəstəlik	-9.00262
▁sal	-9.0029
mışdı	-9.00362
▁növbə	-9.00506
▁diqqət	-9.00524
▁nəticəsi	-9.00548
ının	-9.00568
▁Tək	-9.00646
▁mərhəmət	-9.00713
▁8	-9.00963
▁istəyir	-9.01231
▁yağış	-9.01578
▁ölüm	-9.01675
▁maraq	-9.01681
eyri	-9.01887
▁addım	-9.02088
▁bilirdi	-9.02105
▁birlik	-9.02248
▁ş	-9.02263
▁xilas	-9.02353
▁tərcümə	-9.0242
▁sıx	-9.02431
▁möh	-9.02437
▁İkinci	-9.02464
▁problemi	-9.02561
▁sürətli	-9.02562
▁nəfər	-9.02587
▁soruşdu	-9.02609
▁tapmaq	-9.02706
▁elektron	-9.02734
▁gəlirdi	-9.0283
rik	-9.03032
▁dərin	-9.03295
▁gökadalar	-9.03302
▁deyərdi	-9.03337
təşə	-9.03369
▁göstər	-9.03479
▁ölçülü	-9.03492
▁dərs	-9.03527
▁nələr	-9.03664
▁Afrikada	-9.03954
▁istiqamətdə	-9.03996
▁sevgi	-9.04034
mizi	-9.0411
▁soruşur	-9.04276
▁gətirən	-9.04345
▁nəyin	-9.04591
▁olmuşdu	-9.04617
▁hərfi	-9.04635
▁düz	-9.04758
▁dən	-9.04767
lərində	-9.04871
▁edilməsi	-9.0498
▁çalış	-9.05217
▁Həm	-9.05399
▁daim	-9.05491
▁harada	-9.055
▁qət	-9.05508
▁təbiətin	-9.05539
▁üstündə	-9.05614
or	-9.0567
ası	-9.05695
▁sayı	-9.05951
▁fakt	-9.0614
mışam	-9.06421
▁olmağ	-9.06737
▁Gəli	-9.06819
▁gəl	-9.06838
▁tərəfdə	-9.071
▁görün	-9.07101
V	-9.07227
▁qarşısında	-9.07299
▁baxa	-9.07587
▁proqram	-9.07656
▁otaq	-9.07764
▁həyatın	-9.07815
▁çıxan	-9.07835
▁başlaya	-9.07995
▁güc	-9.08004
su	-9.08027
nu	-9.08051
▁etməyi	-9.08172
illik	-9.08358
rək	-9.08435
▁düşündü	-9.0846
dirlər	-9.08474
rət	-9.08697
▁Onu	-9.09022
ürük	-9.09047
▁NASA	-9.09556
▁tətbiq	-9.09556
▁xoşbəxt	-9.09557
▁içərisində	-9.09564
▁ciddi	-9.09566
▁sualtı	-9.09568
▁möcüzə	-9.09568
▁Bang	-9.0959
▁irəli	-9.09601
▁90	-9.09607
luq	-9.09613
▁Andro	-9.09613
▁san	-9.09637
▁çəkmək	-9.09687
▁olmalıdır	-9.09711
▁çıxar	-9.09722
▁cı	-9.09826
▁düşün	-9.10038
▁həyatda	-9.10049
▁olmalıy	-9.10085
▁problemləri	-9.10261
▁istənil	-9.10272
▁Big	-9.10283
raq	-9.10612
du	-9.10618
▁bəri	-9.10669
▁9	-9.10714
▁gəlmə	-9.10821
▁davamlı	-9.10844
▁dil	-9.10905
▁səth	-9.11014
▁198	-9.11134
▁19	-9.11206
▁fikrin	-9.11218
▁Digər	-9.11235
▁Yeni	-9.11269
▁ora	-9.11326
▁çəkilişi	-9.11495
irlər	-9.11525
▁rol	-9.11534
▁çıxdı	-9.11583
▁ulduzların	-9.11618
▁30	-9.11794
▁nümunə	-9.11821
▁önəmli	-9.11882
liyi	-9.12432
▁imkanlar	-9.12601
▁kütləsi	-9.12664
▁edilə	-9.12865
▁sala	-9.12872
▁mil	-9.12944
▁alır	-9.1327
dıq	-9.1343
▁sevir	-9.13789
▁qayda	-9.13944
▁çək	-9.14091
▁gənc	-9.1435
▁plan	-9.14685
larının	-9.14853
▁olmuş	-9.14912
lub	-9.14989
▁arxa	-9.15005
▁f	-9.15466
ım	-9.15548
▁edilir	-9.15641
▁y	-9.15644
mı	-9.15766
ayəsində	-9.15834
P	-9.15931
▁gözlə	-9.16067
▁fikrim	-9.16079
▁qoyma	-9.16283
udur	-9.16399
▁bəzə	-9.16466
▁ehtimalla	-9.16506
tik	-9.16534
▁gündə	-9.1686
▁gördük	-9.16946
▁xey	-9.17064
▁Əvvəl	-9.17098
▁asteroid	-9.17249
▁hədiyyə	-9.17249
▁John	-9.17249
▁ölçüsü	-9.17252
▁Eyni	-9.17256
▁test	-9.17262
▁mühüm	-9.17275
▁qan	-9.17277
▁işi	-9.173
▁aid	-9.17379
▁minlərlə	-9.17383
▁səhnə	-9.17388
▁ünsiyyət	-9.17411
▁qüvvət	-9.17439
həng	-9.17509
▁salmaq	-9.17534
ruq	-9.17645
▁say	-9.17759
▁ayaq	-9.17829
▁öyrənmək	-9.17832
▁olmağı	-9.17848
▁İki	-9.17876
▁hissəciklər	-9.17887
▁anlamaq	-9.17964
▁keç	-9.17993
▁səni	-9.18041
▁üst	-9.18059
▁paylaşma	-9.18139
▁istəyirdim	-9.18206
iya	-9.18226
▁üzünü	-9.1836
▁ko	-9.18361
▁özümüzü	-9.18388
▁ədalət	-9.18399
▁istədi	-9.18454
▁insanlarla	-9.18699
ırlar	-9.18718
▁ruh	-9.18735
▁birinci	-9.18786
▁etməklə	-9.188
▁gizli	-9.18926
▁xoş	-9.1893
▁şimal	-9.19009
▁hekayəni	-9.19055
▁zəngin	-9.19144
▁edirsiniz	-9.19199
▁oyun	-9.19372
▁məsafə	-9.19392
izin	-9.19439
▁sənin	-9.19491
▁desə	-9.19559
▁okean	-9.19588
▁TED	-9.1962
▁gətirdi	-9.19658
▁telefon	-9.19854
▁şəxsi	-9.20132
▁rəng	-9.20154
lu	-9.20162
▁ehtiyacımı	-9.20327
▁dey	-9.20361
▁işim	-9.20412
▁edi	-9.20435
▁sistem	-9.2055
sinin	-9.20735
▁korrupsiya	-9.20822
▁canlı	-9.20908
gan	-9.21355
▁Kainat	-9.21541
▁çalışan	-9.2155
▁cu	-9.2161
▁səviyyə	-9.21656
▁məsələn	-9.21749
▁qaya	-9.21917
▁deyirdi	-9.22108
▁qərb	-9.22676
▁atom	-9.22743
▁düşünə	-9.22983
▁mövzusunda	-9.23353
▁nüvə	-9.23562
▁sürət	-9.23568
▁parçacıqları	-9.23752
▁kağız	-9.23843
▁kənd	-9.239
irləşmiş	-9.23925
▁tarixi	-9.23968
ız	-9.24038
▁etsə	-9.2409
▁kişilər	-9.24242
▁olduqları	-9.24246
çini	-9.24403
en	-9.24491
▁sim	-9.24495
▁Məktəb	-9.24514
▁ədəd	-9.24531
▁görünüşü	-9.24563
ımızı	-9.24602
▁tədqiqat	-9.2469
▁düşdü	-9.24712
▁universitet	-9.24811
▁anam	-9.24827
▁razı	-9.24966
▁dizayn	-9.24991
▁fizika	-9.25501
▁Einstein	-9.25582
▁Qəhqəhə	-9.25582
▁Əlbət	-9.25583
▁əlbət	-9.25585
▁ictimai	-9.25586
uditoriya	-9.256
▁əlaqədar	-9.25603
▁olmayacaq	-9.25608
▁parlaq	-9.25614
▁səhər	-9.25667
▁deməli	-9.25694
▁görünə	-9.25698
▁eniş	-9.25726
▁yaradıcılıq	-9.25757
▁Bəz	-9.25815
▁vəziyyətdə	-9.25847
▁16	-9.25856
▁işarə	-9.2588
▁hissi	-9.25939
▁istədiyimiz	-9.25983
▁göstərəcəy	-9.26217
▁Anam	-9.26452
▁etdiyiniz	-9.26454
▁vaxtlar	-9.26574
▁köməyi	-9.26594
▁qorxu	-9.26701
▁bilmədi	-9.26714
▁Həmi	-9.26769
▁həyatımı	-9.26999
▁sahə	-9.27012
▁sıra	-9.27167
▁Əsas	-9.27379
▁həşərat	-9.27427
▁istəyirdi	-9.27431
▁yolla	-9.27452
sın	-9.27463
▁riyaziyyat	-9.27551
▁qoy	-9.27619
▁orda	-9.27631
▁çətindir	-9.27643
▁qarışıq	-9.27782
arədə	-9.27801
▁işığı	-9.2782
oloji	-9.27873
▁en	-9.27947
▁növü	-9.28005
▁yaratdığı	-9.28028
▁v	-9.28109
ed	-9.28272
▁quruluş	-9.28287
▁səyahət	-9.28637
▁ayrı	-9.28716
▁qoyu	-9.29054
▁xatırlayır	-9.29116
▁vasitə	-9.2928
▁gətirir	-9.29374
▁olmaz	-9.29483
asiya	-9.29493
▁düşüncə	-9.29593
▁h	-9.29664
▁uşaqları	-9.29748
▁çoxunu	-9.29813
kcə	-9.29978
▁yaşlı	-9.30023
▁Avropa	-9.30028
▁evdə	-9.30054
▁dünyay	-9.30109
▁metr	-9.30189
▁bölgə	-9.30242
▁21	-9.30326
den	-9.3033
▁kompüter	-9.30495
▁əyləncə	-9.30926
▁əhəmiyyət	-9.31059
ür	-9.31287
▁boyu	-9.31408
9	-9.31432
▁danış	-9.31669
▁deyilən	-9.31749
▁iynəcə	-9.31802
▁500	-9.31902
▁qüvvə	-9.32039
▁vaxtı	-9.32178
▁yaşı	-9.32245
N	-9.32428
▁mə	-9.32451
▁yay	-9.32516
gg	-9.32525
▁San	-9.32704
▁getdi	-9.32878
▁nəzərdə	-9.32891
▁malik	-9.33072
dəcə	-9.33121
▁ümid	-9.33237
acağı	-9.33287
▁qat	-9.33381
▁götür	-9.3341
kü	-9.3345
▁əsər	-9.33469
mizə	-9.33481
▁bazar	-9.33512
mızı	-9.33536
▁din	-9.33806
ırdı	-9.34015
▁fikirləşir	-9.3404
▁araşdırma	-9.34125
ondan	-9.34163
▁dəyər	-9.34165
at	-9.34183
se	-9.34196
öyük	-9.34291
çün	-9.34327
çi	-9.34331
▁bəs	-9.34362
▁qalan	-9.34473
▁mükəmməl	-9.34673
▁müqayisə	-9.34673
▁İynəcələr	-9.34673
▁məcburiyyətində	-9.34673
▁Risen	-9.34673
▁aşkar	-9.34674
▁neft	-9.34676
▁informasiya	-9.34677
▁ərəb	-9.34711
▁iştirak	-9.34718
▁çəkisi	-9.34727
▁dəvət	-9.34746
▁riyazi	-9.34781
▁enerjisi	-9.34781
▁Ad	-9.34846
▁biləcəyini	-9.34848
▁üzrə	-9.34889
▁rəsm	-9.34913
▁məlumatı	-9.34993
▁gedə	-9.35049
▁xidmət	-9.35145
▁25	-9.35159
▁robot	-9.35192
▁yerlərdə	-9.3521
▁adlanır	-9.35543
▁ad	-9.35582
▁bitkilər	-9.35599
▁istə	-9.35648
▁daş	-9.35662
▁gördüyüm	-9.35708
▁zəng	-9.36312
▁demişdi	-9.36589
us	-9.36823
▁mür	-9.37131
▁danışmağ	-9.37158
▁Bəziləri	-9.37291
▁Nəyə	-9.37303
ıqlı	-9.3731
▁bəziləri	-9.37539
▁gətiri	-9.37679
▁yaşımda	-9.37737
▁olduğunuz	-9.37745
▁özümü	-9.37815
▁mı	-9.37906
▁cəmiyyət	-9.37996
ilmiş	-9.38124
▁gəldiyin	-9.38178
ton	-9.38209
▁nənə	-9.38234
▁olmağın	-9.38459
▁xaricində	-9.38574
▁Charl	-9.38649
▁məktəbdə	-9.38653
▁bas	-9.38708
▁müharibə	-9.38878
▁cəmi	-9.38969
yam	-9.39048
▁günəşi	-9.39069
▁şahid	-9.39111
▁qara	-9.39205
▁danışa	-9.39246
▁60	-9.39269
▁gələcəyi	-9.39469
▁üzə	-9.39583
▁gecə	-9.39642
▁fərqi	-9.39702
▁düşünmə	-9.39817
▁Ev	-9.39879
malıdır	-9.39998
▁etmir	-9.40001
▁etmişdi	-9.40002
▁dəniz	-9.40056
▁parça	-9.40072
H	-9.40259
▁sol	-9.40267
▁hekayələri	-9.40464
▁mi	-9.40602
▁şərq	-9.40704
▁nəzarət	-9.40793
diyi	-9.40816
▁ideya	-9.40959
▁tərəfi	-9.40984
▁göz	-9.40998
▁sahəsi	-9.41116
▁tələbələr	-9.41184
▁sərhəd	-9.41318
▁gələ	-9.41339
▁başlanğıc	-9.41393
▁zərər	-9.41398
▁arası	-9.41443
▁başlayan	-9.41493
▁şir	-9.41547
▁anlayış	-9.41639
7	-9.41649
▁keçmiş	-9.41774
▁adaları	-9.4193
▁dənə	-9.42191
▁adət	-9.42211
▁düş	-9.42306
6	-9.42331
▁uşaqların	-9.42346
▁dəyişiklik	-9.42352
əqiqətən	-9.42459
▁yaşayır	-9.4248
▁toz	-9.42592
▁gəli	-9.4262
▁Bəzi	-9.42671
▁alt	-9.42726
▁xətt	-9.42734
▁sonda	-9.42813
▁bənzəyir	-9.43308
▁baxmaq	-9.43357
▁adamlar	-9.43426
gə	-9.43429
▁sinif	-9.43846
ərf	-9.43857
▁çoxluğu	-9.44132
▁təkamül	-9.44248
▁çıxıb	-9.44416
nızda	-9.44431
▁yoxdu	-9.44456
ınız	-9.4446
▁axı	-9.44664
▁W	-9.44669
▁Google	-9.44673
▁investisiya	-9.44673
▁nektar	-9.44673
▁qırmızı	-9.44674
▁külək	-9.44677
▁maye	-9.4468
▁risk	-9.44689
▁çəkilmiş	-9.44698
▁bilsəydi	-9.44698
▁uç	-9.44698
▁İncəsənət	-9.44717
mü	-9.44718
▁yaradılış	-9.44736
▁Bilirsiniz	-9.4474
um	-9.4477
▁etdirmək	-9.44792
▁qurmaq	-9.44805
▁təyin	-9.44818
▁sev	-9.44828
▁azad	-9.44848
▁cinsi	-9.44997
▁deməkdi	-9.4502
▁ürək	-9.45108
▁kilometr	-9.45149
▁görünüş	-9.45233
up	-9.45257
əb	-9.45303
▁işləyir	-9.45324
▁təsirləri	-9.45324
rtıq	-9.45357
▁dünyadakı	-9.45425
▁Afrikaya	-9.45453
▁Sa	-9.45596
▁yaşında	-9.45599
▁hissəsin	-9.45615
▁olacağı	-9.45625
itrəmə	-9.45699
▁string	-9.45757
arı	-9.458
yorlar	-9.45941
▁gerçək	-9.45944
ğımız	-9.4598
▁yanında	-9.46027
▁qızlar	-9.46045
lobal	-9.46049
▁obyekt	-9.46066
sunuz	-9.46115
▁öyrəndi	-9.46193
▁Məni	-9.46353
▁yaradan	-9.46527
▁altı	-9.4656
▁sənə	-9.4662
cü	-9.46621
▁qoya	-9.46667
▁tarix	-9.46671
▁kamera	-9.4668
dü	-9.46744
▁Yen	-9.47124
▁tə	-9.47271
le	-9.47426
▁Geri	-9.47439
▁inşa	-9.47586
▁Bilmir	-9.47612
▁zövq	-9.47613
▁yazın	-9.47616
T	-9.47657
ol	-9.47679
▁tanış	-9.47833
gah	-9.47886
▁götürü	-9.47944
sidir	-9.4802
▁p	-9.48021
▁gəldiyi	-9.48395
▁çəkili	-9.4842
mişdi	-9.48502
▁kainatda	-9.48524
▁mühit	-9.48545
una	-9.48553
▁di	-9.48854
▁öyrənmə	-9.49071
▁is	-9.49074
▁uça	-9.49259
▁əsəri	-9.49457
izə	-9.49514
▁qarşıl	-9.49631
▁məlumatlar	-9.49669
▁bilmədiyimi	-9.4968
lərimizi	-9.49698
▁işlərin	-9.49831
▁Hələ	-9.50154
▁işığın	-9.50185
▁tərəfin	-9.50263
aranlıq	-9.50287
ətən	-9.50633
▁göstərə	-9.50639
dus	-9.50655
ncel	-9.50704
▁hökumət	-9.508
▁miqdar	-9.51018
▁nöqtələr	-9.51123
▁biləcəyi	-9.51243
▁məqsəd	-9.51273
yik	-9.51294
nların	-9.51328
▁siyas	-9.51399
▁dəyişə	-9.51467
ie	-9.51521
▁bank	-9.51675
▁n	-9.51701
ördüyünüz	-9.51998
ada	-9.52105
▁Al	-9.52219
▁səma	-9.52254
▁edərdi	-9.5234
▁qaç	-9.52637
▁tap	-9.52701
▁Keçə	-9.52717
son	-9.52763
▁yerində	-9.52828
I	-9.52928
▁görüş	-9.53049
aram	-9.53056
gen	-9.5311
larımız	-9.53216
suz	-9.53294
anın	-9.53298
▁quş	-9.53305
▁olanlar	-9.53392
▁fikirləş	-9.53463
▁dövrü	-9.5347
▁Səni	-9.53507
▁yavaş	-9.53519
ler	-9.53537
▁mussonu	-9.53616
▁dəyişən	-9.53655
▁sözün	-9.53712
▁Çin	-9.53896
▁real	-9.53964
▁yaradır	-9.54034
ənəvi	-9.54122
▁gedən	-9.54148
▁mərkəzi	-9.54166
asında	-9.54253
▁gəlmiş	-9.54414
▁get	-9.54442
▁sonu	-9.54545
▁ehtiyacı	-9.54545
▁yerlər	-9.54589
▁parçacıq	-9.54597
umuz	-9.54669
▁nəsil	-9.54747
▁nəzəriyyə	-9.54768
▁özlərini	-9.5481
▁Öz	-9.54855
▁kimliyim	-9.5488
▁internet	-9.54949
▁etməyin	-9.54958
▁hazırladı	-9.55042
▁cəhət	-9.55047
▁mühəndis	-9.55149
▁olmalı	-9.55171
xşı	-9.5537
tiv	-9.55385
▁tələbə	-9.55402
▁həyatı	-9.55411
▁Uşaqlar	-9.55468
ka	-9.55545
▁şəkillərin	-9.55636
▁əvvəllər	-9.5573
▁olduğumu	-9.55743
diyini	-9.55743
▁cazibə	-9.55776
▁Cavab	-9.55784
▁Prezident	-9.55784
▁Təxmin	-9.55784
▁köhnə	-9.55784
▁mikroskop	-9.55784
▁Chris	-9.55784
▁xahiş	-9.55785
▁əhatə	-9.55785
▁Yalınayak	-9.55786
▁ucuz	-9.55786
▁iqtisadi	-9.55788
▁sosial	-9.55789
▁Nyu	-9.55791
▁içimizdə	-9.55802
▁yaranır	-9.55817
▁görünməz	-9.55831
▁Kosmos	-9.55868
▁etdirə	-9.559
▁milyonlarla	-9.55914
▁əyləncəli	-9.55921
▁bildiyimiz	-9.55937
▁Kimsə	-9.55949
▁13	-9.55978
▁gətirmək	-9.56088
▁45	-9.56093
▁araya	-9.56098
▁başla	-9.56118
▁işlə	-9.56124
ötəri	-9.56171
▁hald	-9.5621
▁imkanı	-9.56238
▁milli	-9.56284
▁ara	-9.56376
▁it	-9.56421
▁çıxarmaq	-9.56445
cəm	-9.56693
▁Baş	-9.56909
▁U	-9.56929
te	-9.57135
▁vəzifə	-9.57188
it	-9.57361
▁çiçəy	-9.57453
▁bər	-9.57486
▁danışan	-9.57492
▁biləcəyiniz	-9.57549
aş	-9.57602
▁peyk	-9.57626
yın	-9.57704
▁cihaz	-9.58056
▁bacara	-9.58058
▁Ştatlar	-9.58098
▁ölkələrdə	-9.58155
▁hekayəsi	-9.58284
▁tapa	-9.58321
▁cümlə	-9.58453
▁suyun	-9.58593
▁yaş	-9.58618
▁olmadığı	-9.58628
▁söhbət	-9.58628
▁kənddə	-9.58634
▁etdir	-9.58664
yn	-9.58677
iylə	-9.58706
▁rəssam	-9.58709
▁Ru	-9.58807
▁birində	-9.58881
▁göstərən	-9.59156
▁görü	-9.59178
dar	-9.59265
inizi	-9.59317
▁çiçək	-9.59328
▁hökm	-9.59441
▁çıxarır	-9.59446
▁edilmiş	-9.59549
▁yaşıl	-9.5959
▁dan	-9.59724
▁əsası	-9.59774
▁Eynşteyn	-9.59859
▁böyümüş	-9.5988
▁gələcəkdə	-9.60087
▁mövsüm	-9.60096
▁yarısı	-9.60129
▁sürəti	-9.6018
əl	-9.60276
▁edil	-9.60356
dərili	-9.60424
bu	-9.60426
▁Maraqlı	-9.60487
▁ortasında	-9.60662
▁sizlər	-9.60664
▁çıxara	-9.60724
asına	-9.60752
A	-9.60876
▁şəxs	-9.6101
əmsal	-9.61104
▁statistika	-9.6126
▁olanları	-9.61479
▁planetlərin	-9.61551
malı	-9.61587
▁istəyən	-9.61671
va	-9.61769
▁x	-9.61791
▁qura	-9.61884
▁70	-9.61927
▁öyrən	-9.61942
▁Ha	-9.61973
▁İsa	-9.61977
▁harda	-9.62005
▁gey	-9.62194
▁dediyi	-9.62411
▁veri	-9.62457
icad	-9.62471
əkk	-9.62538
ımın	-9.62634
tmaq	-9.62736
▁dost	-9.62954
▁qaz	-9.62961
▁ata	-9.63326
▁polis	-9.63354
uz	-9.63391
▁genetik	-9.63402
mısınız	-9.63448
▁qutusu	-9.63481
▁layihə	-9.63661
▁yalan	-9.63667
yin	-9.63684
▁anlama	-9.63693
▁Yax	-9.63798
lim	-9.63846
malıyı	-9.63869
▁bar	-9.63882
▁bildiyi	-9.63897
▁təbiət	-9.63921
rhal	-9.64073
▁gəldik	-9.64081
▁alın	-9.64164
▁dəyişmə	-9.64225
▁tanı	-9.64275
məliyik	-9.64362
sizlik	-9.64438
▁edəndə	-9.64622
▁çöl	-9.64633
▁adamı	-9.64702
▁hazırla	-9.64742
▁sahələri	-9.64757
▁ön	-9.6478
▁qanun	-9.64817
▁anlamağ	-9.64881
xalq	-9.64984
▁məkan	-9.65047
▁həşəratlar	-9.65068
▁qalma	-9.65196
▁öyrəndiyim	-9.6534
▁saxlaya	-9.65342
▁şirkət	-9.65469
▁iqtisadiyyat	-9.65511
▁tənlik	-9.65607
▁olmaması	-9.65617
▁yazıçı	-9.65623
▁etdiyini	-9.65832
diyiniz	-9.65989
▁gətirə	-9.66016
▁varlıq	-9.66149
gi	-9.66178
▁səthi	-9.66317
▁kəsi	-9.66354
▁dini	-9.66401
▁başqası	-9.66447
▁istifadəçi	-9.66458
3	-9.66496
▁çevril	-9.66628
▁oluna	-9.669
▁sözləri	-9.66945
▁atmosfer	-9.66996
▁Mario	-9.67013
▁gəlin	-9.67126
▁radio	-9.67196
▁danışar	-9.67339
▁təməl	-9.67388
▁18	-9.67392
▁etibar	-9.67459
▁ölkələr	-9.67506
▁gözləyir	-9.67605
▁quruluşu	-9.67623
za	-9.67695
dığım	-9.67738
▁olundu	-9.67809
▁yaratdı	-9.67907
▁ailə	-9.67927
▁bilərsən	-9.67936
nızı	-9.67959
▁sahəsin	-9.67983
▁həqiqət	-9.68015
▁onla	-9.68059
▁Rəq	-9.68061
▁qutu	-9.68139
▁Hava	-9.68139
▁meteorit	-9.68284
▁müraciət	-9.68284
▁Əfqanıstan	-9.68284
▁əxlaq	-9.68284
▁simulyasiya	-9.68285
▁simvol	-9.68285
▁Qolf	-9.68286
▁Cənub	-9.68286
▁elektrik	-9.68288
▁həssas	-9.68293
▁super	-9.68303
▁onsuz	-9.68335
▁olmayıb	-9.68459
▁Böyü	-9.68479
▁istəyirsiniz	-9.68503
▁nəticəsində	-9.68508
▁öyrənmiş	-9.68534
işə	-9.68542
liyin	-9.68555
▁metal	-9.68617
şı	-9.68655
▁əs	-9.68657
▁öldü	-9.68668
▁ziya	-9.68668
▁götürə	-9.6867
▁mesaj	-9.68703
▁quşlar	-9.68706
▁Dav	-9.68751
▁yaşamaq	-9.68751
▁verib	-9.68813
▁avtomobil	-9.68831
▁alıb	-9.68903
▁Hindistanın	-9.68939
▁rəngli	-9.68944
▁yaratdıq	-9.68966
▁vəziyyət	-9.69015
▁hissəsidir	-9.69034
dığınız	-9.6905
▁düşünürdü	-9.69052
▁maraqlıdır	-9.69195
▁dəyişmək	-9.69203
rlar	-9.69389
▁hakim	-9.69442
▁axır	-9.69446
məsi	-9.69451
▁yolda	-9.69453
▁ayrıl	-9.69465
▁The	-9.69473
▁yaradı	-9.69522
imizi	-9.69636
▁yerli	-9.69774
nizi	-9.69784
▁Polis	-9.69796
▁istəyirsən	-9.69818
▁qadını	-9.69847
▁proqramlaşdırma	-9.69881
▁Hal	-9.69933
▁özünüz	-9.69942
irik	-9.70003
▁içəri	-9.70063
yimiz	-9.70131
▁yığ	-9.70172
▁işləri	-9.7022
▁məhdud	-9.70261
▁bizlər	-9.70263
▁valideyn	-9.70318
▁oynaya	-9.70395
C	-9.70575
▁həkim	-9.70749
▁qalın	-9.70763
▁Nigeriyada	-9.70799
▁Qa	-9.70817
ursuz	-9.70895
▁mübahisə	-9.70931
▁kat	-9.70938
▁ağır	-9.70987
raya	-9.71082
▁hara	-9.71138
▁Ay	-9.71354
▁iyi	-9.71624
▁gəlirsə	-9.71646
müşdü	-9.71681
ta	-9.71688
lü	-9.71694
▁danışır	-9.71701
▁çevrildi	-9.7171
duğunu	-9.71714
▁sahədə	-9.71725
unu	-9.71852
rdi	-9.71871
lığı	-9.72029
▁Sizin	-9.72081
▁çalışmaq	-9.72122
▁si	-9.72132
▁birləş	-9.72137
▁dəyərlər	-9.72149
▁27	-9.72223
▁forma	-9.72354
nif	-9.72359
▁veril	-9.72403
▁ağrı	-9.7241
▁xəritə	-9.72436
▁zamanlar	-9.72505
▁nisbət	-9.72527
▁qalır	-9.72547
▁açı	-9.72548
aret	-9.72561
▁aldıq	-9.72607
diyim	-9.72665
▁ticarət	-9.72686
ğ	-9.72695
ərhal	-9.72703
▁vaxtda	-9.72741
içik	-9.72794
▁dahi	-9.72827
▁etməyim	-9.72838
▁varlıqlar	-9.72841
saydı	-9.72957
▁etiketi	-9.7299
▁un	-9.73
tan	-9.7323
alı	-9.73414
▁tut	-9.73569
▁mükafatı	-9.73858
▁birimizi	-9.73909
▁ilah	-9.7391
▁otaqda	-9.73956
▁musson	-9.7405
▁soruş	-9.74104
▁görməyə	-9.74146
▁yarada	-9.74152
▁həddin	-9.74234
min	-9.74246
▁gedi	-9.74371
▁yaşaya	-9.74457
▁Əks	-9.74593
▁Kənd	-9.74704
▁aldığım	-9.74839
▁tozlar	-9.75126
▁fikirlər	-9.75142
▁danışdı	-9.75226
▁An	-9.75281
▁müvəffəqiyyət	-9.75298
▁proqramı	-9.75299
▁qalmış	-9.75379
▁qar	-9.75449
▁qarşısın	-9.75483
▁düşən	-9.75553
▁Bə	-9.75623
▁çat	-9.75767
▁sistemini	-9.75797
▁Bil	-9.75817
▁məsuliyyət	-9.7591
▁lazımlı	-9.75933
▁düzəltdi	-9.76139
lərimiz	-9.76153
▁öl	-9.76191
yan	-9.76326
▁hey	-9.76394
▁bilet	-9.76672
▁çatan	-9.76789
ut	-9.76916
tor	-9.76945
▁komanda	-9.77003
▁can	-9.77039
▁ultrabənövşəyi	-9.77057
▁varlı	-9.77127
▁baxır	-9.772
rlər	-9.77325
▁problemin	-9.77505
▁vizual	-9.77752
▁muzey	-9.77796
sının	-9.77869
mızın	-9.77908
▁Amerikada	-9.77922
▁Sənə	-9.7796
ırsınız	-9.7812
▁qalaktikanı	-9.7813
▁tutu	-9.78155
▁Hey	-9.78482
ne	-9.7859
əsəvvür	-9.7859
zə	-9.78621
▁yaşım	-9.78745
▁Afrikanı	-9.78761
▁ənənə	-9.78835
▁dostum	-9.78865
▁dilini	-9.78877
▁məna	-9.78979
▁iti	-9.79256
▁teleskop	-9.7937
war	-9.79439
▁getdik	-9.79465
▁sinifdə	-9.7954
uş	-9.79561
▁soba	-9.79576
▁Se	-9.79622
rum	-9.79667
rey	-9.79721
▁şagird	-9.79811
▁texnologiyanı	-9.79904
▁Ap	-9.79952
cək	-9.79952
▁edənlər	-9.79968
▁anası	-9.79986
▁hüquqları	-9.80129
▁müzakirə	-9.80134
de	-9.80137
ek	-9.80144
▁yaxınlar	-9.80228
▁demiş	-9.80404
▁məhsulu	-9.80423
▁dayan	-9.80475
▁cavabı	-9.80488
▁yolun	-9.80633
▁dəyişir	-9.80659
▁istehsal	-9.80718
▁cəsarət	-9.80739
▁Kral	-9.8074
▁hökümət	-9.80772
▁sualı	-9.80837
▁ın	-9.81033
çin	-9.81135
▁baxış	-9.81138
▁filmi	-9.81152
▁ölç	-9.81249
▁yanaşma	-9.81298
▁klassik	-9.81395
▁Özüm	-9.81478
qlarını	-9.81528
▁yəhudi	-9.81576
▁oynayır	-9.81606
▁alma	-9.81825
▁şəkilləri	-9.81895
izim	-9.81945
▁olmadığın	-9.8205
▁otağın	-9.82073
atın	-9.82172
▁qitə	-9.82211
▁axtar	-9.82224
▁müəllimləri	-9.8225
▁texnik	-9.82266
▁rast	-9.82368
▁tədqiq	-9.82374
▁Problem	-9.8257
▁Warren	-9.8257
▁demokrati	-9.8257
▁hidro	-9.8257
▁İnanılmaz	-9.8257
▁cədvəl	-9.8257
▁fövqəl	-9.8257
▁kabel	-9.82572
▁məhkəmə	-9.82572
▁genişliyində	-9.82575
▁mətbuat	-9.82579
▁Çətin	-9.82579
▁New	-9.8258
▁bölüşmək	-9.82581
▁axmaq	-9.82585
▁Şimal	-9.82587
▁maliyyə	-9.82588
▁idman	-9.82591
▁turizm	-9.82593
▁düşünürsünüz	-9.82593
▁çap	-9.82595
▁sabit	-9.82597
▁üfüq	-9.82604
▁bilərsi	-9.82608
▁eşidəndə	-9.8261
▁planetimizi	-9.82617
▁tutur	-9.82629
▁190	-9.82641
▁Mary	-9.82641
▁toqquşma	-9.82645
▁qızıl	-9.82654
▁aparmaq	-9.82665
▁verə	-9.82676
▁şeytan	-9.82835
IP	-9.82857
▁elektromaqneti	-9.82858
▁Əvvəlcə	-9.82859
▁sınaq	-9.82882
▁eqo	-9.82949
▁verilən	-9.82957
▁yazmaq	-9.82985
▁zəka	-9.83031
▁cavan	-9.83038
▁Hamımız	-9.83067
▁qızdırma	-9.83088
▁bildiri	-9.83119
▁qalaktikaları	-9.83155
▁sarı	-9.8322
▁keçib	-9.83223
▁Di	-9.83289
▁yaşadığı	-9.83289
▁yaşda	-9.83352
▁erkə	-9.83367
ok	-9.83431
▁bildiyim	-9.83474
▁çıxmaq	-9.83589
▁təq	-9.8367
et	-9.83738
▁halında	-9.83799
fi	-9.83842
▁okeanı	-9.83845
▁ehtiyacım	-9.83851
be	-9.83904
▁ədalətsiz	-9.83937
▁içindəki	-9.84005
M	-9.84029
dırılmış	-9.84039
▁fotoşəkil	-9.84045
▁həyatımda	-9.84049
▁yaşadı	-9.84084
▁çoxluq	-9.84105
▁qü	-9.84125
▁əlaqədə	-9.84247
▁gücünü	-9.8427
▁keçi	-9.8429
ing	-9.84531
▁istədik	-9.84545
▁adalarında	-9.84581
man	-9.8461
▁çalışdı	-9.84659
▁acı	-9.84672
▁doğrudan	-9.84678
izi	-9.84713
▁gəlmişdi	-9.84747
▁qoru	-9.8475
▁məsafəni	-9.84833
▁vasitələri	-9.8484
əndə	-9.84845
▁ölkəsində	-9.8492
acam	-9.84981
▁dur	-9.85013
▁gü	-9.85016
▁aya	-9.85025
▁etsin	-9.85082
▁cümləni	-9.85122
▁səsi	-9.8541
▁təzə	-9.85474
▁Atam	-9.85482
▁dəyişikliklər	-9.8556
diniz	-9.856
▁tapdı	-9.8565
▁insanlıq	-9.85677
▁dəhşətli	-9.8572
▁danışırdı	-9.85725
▁verməli	-9.85797
▁biznes	-9.85804
▁Lo	-9.85826
▁Hamı	-9.85853
▁ağcaqanadlar	-9.85976
▁nəticələri	-9.85979
▁dəyiş	-9.86046
▁maraqlan	-9.8611
▁faizi	-9.86153
qları	-9.86183
▁duya	-9.8624
məli	-9.86301
▁olunmuşdu	-9.86301
▁İsveç	-9.86382
▁mahnı	-9.86426
▁düşündük	-9.86449
▁qoyur	-9.86457
▁halın	-9.86465
▁peyklər	-9.86548
▁Ne	-9.8658
▁dolan	-9.86584
▁çəkdiyi	-9.86604
▁inanırdı	-9.86801
▁divar	-9.86805
▁olanı	-9.86961
▁ixtira	-9.87007
▁Nigeriya	-9.87009
sünüz	-9.87125
▁cihazlar	-9.87171
▁fantastik	-9.87172
▁başqalarını	-9.87323
ağa	-9.87337
▁çevirə	-9.8736
▁qaldırı	-9.87412
ardı	-9.87445
▁ehtimalı	-9.87455
▁dərman	-9.87484
▁vasitələrin	-9.87486
▁proses	-9.87514
əvi	-9.87532
▁xəstəxana	-9.87639
▁almış	-9.87671
▁maşınlar	-9.87799
▁orqan	-9.87911
▁dalğalanmalar	-9.87919
▁yazma	-9.87961
▁gedəndə	-9.87984
▁alış	-9.87987
▁yağ	-9.88046
▁dilin	-9.8808
▁hamısını	-9.88093
▁itki	-9.8811
▁ta	-9.88119
▁tanıyır	-9.8812
▁saldı	-9.88156
▁dayanır	-9.88261
bo	-9.88268
▁potensial	-9.88476
nc	-9.8848
▁keçdik	-9.88485
▁üzün	-9.88615
▁qızların	-9.8863
▁açar	-9.8871
▁gəlmək	-9.88733
▁bacar	-9.88801
lıdır	-9.88977
lanır	-9.88982
▁Rus	-9.89041
▁deyəndə	-9.8911
▁tanıma	-9.89149
▁öyrəndik	-9.89169
▁enerjini	-9.89186
▁nəs	-9.89216
▁verirdi	-9.89268
▁kainatı	-9.89269
▁robotlar	-9.89396
▁anla	-9.89401
▁yaşayan	-9.89599
▁heyrət	-9.89649
▁dünyamız	-9.89683
▁vermişdi	-9.89775
umuzu	-9.89812
rdım	-9.89843
▁yerləri	-9.89876
▁etmirdi	-9.89907
▁nöqtədə	-9.89925
▁həftədə	-9.89998
▁dildə	-9.90029
▁mikrofon	-9.901
madı	-9.9014
▁ni	-9.90312
▁anlayışını	-9.9032
▁Burda	-9.90324
▁fikirləşi	-9.90423
dum	-9.90427
▁dilə	-9.90482
▁Asiya	-9.9058
50	-9.90588
▁verdiyi	-9.90666
▁Ba	-9.90711
▁düşünmək	-9.90792
▁danışdığı	-9.90794
▁yanaşı	-9.90916
▁şübhə	-9.91012
▁hərəkəti	-9.9102
▁çəki	-9.91088
▁peyki	-9.91094
▁Sual	-9.91116
▁siyasət	-9.9116
landı	-9.91193
▁sənət	-9.91195
▁danışma	-9.91301
▁ge	-9.91326
▁nümunələri	-9.91399
▁mərhələ	-9.91467
▁əlimiz	-9.91591
▁dəyişikliyi	-9.91628
▁səfər	-9.91645
▁itir	-9.91752
▁burax	-9.91774
▁prosesi	-9.91785
▁görmə	-9.91812
▁baxırdı	-9.91844
▁u	-9.91898
▁yara	-9.91935
▁gəmi	-9.91952
▁rəngi	-9.91995
çılıq	-9.91998
▁olunurdu	-9.92106
▁600	-9.92153
▁həyatını	-9.92158
▁Mars	-9.92171
səydi	-9.9222
▁gül	-9.92285
▁qoşul	-9.92304
ıdır	-9.92328
▁fəaliyyətin	-9.92338
▁qəf	-9.92355
▁etdikləri	-9.92365
▁döyüş	-9.92457
▁yazdı	-9.92512
▁ədəbiyyat	-9.92556
▁danışı	-9.92698
▁şüası	-9.92746
▁kon	-9.92756
▁istədiyi	-9.92887
▁etməz	-9.92907
▁araşdır	-9.92986
▁Yorkda	-9.9302
▁Li	-9.93073
▁fəaliyyətdə	-9.93179
▁etiket	-9.9324
▁olmasını	-9.9329
▁düşə	-9.93318
▁məktəblər	-9.93381
▁oxuya	-9.93427
▁uğur	-9.93501
me	-9.93533
ilib	-9.93577
▁miras	-9.9361
əcəyi	-9.93637
▁ölür	-9.93659
rsınız	-9.93784
▁riyaziyyatı	-9.93805
▁məktəbi	-9.93894
ye	-9.94125
es	-9.94146
▁hissələri	-9.94181
▁edəcəy	-9.94208
▁adlandırır	-9.94216
▁kürə	-9.94238
▁otur	-9.94286
▁keçə	-9.94387
▁hərəkat	-9.94493
▁əvəz	-9.94731
▁məndə	-9.9481
▁material	-9.94868
▁tutdu	-9.94974
▁çal	-9.95071
▁Qızlar	-9.95079
dığını	-9.95169
▁işimiz	-9.95215
▁qum	-9.95227
▁anlaya	-9.95363
▁orbitin	-9.95368
tar	-9.95394
▁çalışırdı	-9.95436
▁baxan	-9.95477
▁rənglər	-9.95511
▁hərbi	-9.95613
▁Bo	-9.9564
▁analiz	-9.95828
▁təhlükə	-9.959
afi	-9.96083
▁yarana	-9.96085
▁196	-9.96116
▁kitabın	-9.96151
▁yayıl	-9.96175
▁dövrə	-9.96205
ay	-9.96225
▁dostlarım	-9.96246
▁ayır	-9.96256
▁uğurl	-9.96276
məyin	-9.96289
unun	-9.96298
▁verəcək	-9.9635
▁yaxınlaş	-9.96356
▁dön	-9.96531
▁əsərləri	-9.96767
▁dəstək	-9.96853
sel	-9.9687
▁CA	-9.9694
▁sə	-9.96947
▁planetlər	-9.96979
başa	-9.96992
▁layiq	-9.96993
nunla	-9.97035
▁Mill	-9.97117
▁yemək	-9.97178
▁aldığı	-9.97196
▁bəzilərini	-9.97205
▁bağ	-9.97353
▁quru	-9.97422
▁bilməyə	-9.97468
▁qapı	-9.97476
ndəki	-9.97503
▁mədəniyyət	-9.97585
mizdə	-9.97609
▁səslər	-9.97643
▁davran	-9.97726
ul	-9.97746
inməyən	-9.97751
▁madd	-9.97864
▁milyonda	-9.97898
anı	-9.9799
aya	-9.97998
▁mənəvi	-9.98
nki	-9.98036
▁boş	-9.98183
▁afrikalı	-9.98278
▁varmı	-9.98281
▁başın	-9.98333
▁Titanik	-9.98383
▁götürür	-9.98389
▁bilmiri	-9.98425
irdilər	-9.98605
▁sonsuz	-9.98634
dərk	-9.98682
▁qayıdan	-9.98724
▁incə	-9.98776
▁gəz	-9.98789
▁dövrdə	-9.98898
▁utan	-9.99069
▁qazana	-9.9915
üxtəlif	-9.99178
▁yaşadığım	-9.99181
ad	-9.99196
▁məcbur	-9.99236
▁eğrileri	-9.99236
▁gözəgörünməz	-9.99236
▁intervyu	-9.99236
▁televizor	-9.99236
▁məxsus	-9.99236
▁sorğu	-9.99236
▁səkkiz	-9.99236
▁Səliqə	-9.99237
▁təmsil	-9.99237
▁maksim	-9.99237
▁məqalə	-9.99237
▁yuxu	-9.99237
▁gəzinti	-9.99237
▁səhləb	-9.99238
▁Şərq	-9.99238
▁kommunikasiya	-9.99239
▁müstə	-9.99241
▁Təəssüf	-9.99247
▁Newton	-9.99248
▁kaluza	-9.99266
▁meyvə	-9.9927
▁Coş	-9.9927
▁amerikalı	-9.99271
▁opti	-9.99281
▁cinsli	-9.99288
▁ilham	-9.99289
▁məğ	-9.99289
▁She	-9.99307
▁dövranı	-9.99314
▁Male	-9.99323
▁bilmərik	-9.99327
▁maneə	-9.99341
▁ətrafımızda	-9.99359
▁müşahidəçi	-9.99368
▁xəbərdar	-9.99387
▁çəkə	-9.99442
▁etməliyik	-9.99446
▁tutmaq	-9.99455
▁şok	-9.99473
▁uzunluğunda	-9.99482
▁məzun	-9.99505
▁kitablar	-9.9956
iş	-9.99569
▁baxdığımız	-9.99594
▁çevrilib	-9.99594
ud	-9.99608
▁gəlirlər	-9.99636
▁Növbə	-9.997
▁media	-9.99708
▁oxşayır	-9.99716
qlu	-9.99736
▁dəyişiklikləri	-9.99829
▁üzündə	-9.99844
asının	-9.99854
▁qardaşım	-9.99886
dadır	-9.99889
▁hüququ	-9.99892
▁And	-9.99931
▁ayıran	-9.99942
▁təc	-9.99955
munikasiya	-9.99969
▁işləyən	-10
▁radi	-10.0003
▁bugün	-10.0003
▁Orada	-10.0008
▁oxumaq	-10.0009
ci	-10.0011
▁qoruma	-10.0013
▁Quran	-10.0018
▁Has	-10.0018
▁şe	-10.002
▁birləşdirmək	-10.0024
▁dövrün	-10.0032
▁dəli	-10.0032
▁bənzədiyin	-10.0034
▁etibarlı	-10.0038
▁işlədir	-10.0045
▁Bi	-10.0053
▁İran	-10.0062
▁yenilik	-10.0064
▁Mərkəzi	-10.0065
▁hadisələr	-10.007
▁professional	-10.0076
mid	-10.0078
▁satı	-10.0085
▁siq	-10.009
▁quran	-10.0092
məyi	-10.0094
▁buyuru	-10.0096
O	-10.0097
▁olunu	-10.0098
▁xüsusiyyəti	-10.0098
▁Dəri	-10.0103
▁Universitetində	-10.0105
▁Kişi	-10.0119
bro	-10.0121
▁qəd	-10.0121
▁Qər	-10.0121
▁bilm	-10.0127
▁yetkin	-10.0135
▁foto	-10.0136
▁axşam	-10.0141
▁fizikaçı	-10.0146
▁quruluşunu	-10.015
▁xoşum	-10.0154
▁boy	-10.0154
▁ört	-10.0156
▁Mə	-10.0159
▁Bilir	-10.016
▁Uşaqların	-10.0162
▁Özümü	-10.0166
▁hazırlama	-10.0178
▁uca	-10.0183
▁adlan	-10.0194
▁miqdarı	-10.0198
▁oxuyur	-10.0198
▁Jay	-10.0215
▁görürdü	-10.0216
▁üstə	-10.0228
ard	-10.0253
▁nömrələr	-10.0257
▁hini	-10.0259
▁çıxa	-10.0259
▁qiymət	-10.026
▁zidd	-10.0267
▁forması	-10.0269
th	-10.0274
uli	-10.0276
itboks	-10.0277
▁Tam	-10.0279
▁Məhkəmə	-10.0282
▁xətti	-10.0285
▁Biri	-10.0286
▁fleyta	-10.0288
▁çalışdıq	-10.0292
▁tanınır	-10.03
▁səyahəti	-10.0301
▁mədəni	-10.0305
▁həllər	-10.0313
▁çıx	-10.0327
kləri	-10.0328
▁fürsəti	-10.033
▁Rea	-10.0334
yle	-10.0341
▁gəlmir	-10.0342
▁mühitin	-10.0344
▁olacağın	-10.035
▁göstəri	-10.0354
iyyat	-10.0357
ko	-10.0362
▁bilmədiyi	-10.0365
▁həbs	-10.0365
▁çatmış	-10.0368
▁naziri	-10.0371
▁parçasını	-10.0381
▁hissə	-10.0393
▁Ali	-10.0393
▁istiqamət	-10.0404
▁bizdə	-10.0409
▁edilirdi	-10.0409
▁əyri	-10.0414
▁xəstəliyin	-10.0419
▁qanunları	-10.042
▁buludu	-10.0421
eh	-10.0423
▁ingiliscə	-10.043
▁çiçəklərin	-10.0451
▁tuta	-10.0463
▁Ke	-10.0467
▁əlaqəni	-10.0467
▁Po	-10.047
▁olanların	-10.0472
▁başlama	-10.0478
iyə	-10.0489
▁boyutlar	-10.0507
▁gülü	-10.0509
▁Uz	-10.0509
lük	-10.052
▁as	-10.0524
▁gir	-10.0525
yini	-10.0545
▁uyğunlaşma	-10.0545
lənmişdi	-10.055
mağı	-10.0551
▁ölümü	-10.0558
▁dəlil	-10.0565
▁vermədi	-10.0568
▁bəz	-10.057
▁şəklində	-10.058
▁uşaqlıqda	-10.0581
▁ikisi	-10.0583
▁Ro	-10.0583
▁York	-10.0586
▁nigeriyalı	-10.0591
▁beynə	-10.06
▁qrammatika	-10.0601
▁anlayışı	-10.0603
▁mərasimdə	-10.0607
▁etiraz	-10.0608
▁mövsümü	-10.0609
▁Gör	-10.0616
▁öyrənməy	-10.0629
▁aşı	-10.0632
▁başını	-10.0644
▁oxuyan	-10.0644
şi	-10.0651
▁cəhd	-10.0655
▁gəzi	-10.0656
▁şərqi	-10.0658
put	-10.066
▁Aristotel	-10.0672
▁po	-10.068
▁alətləri	-10.0685
▁sözünü	-10.0685
▁Əl	-10.0687
▁gəlməsini	-10.0689
▁adım	-10.0693
▁istədiyini	-10.0704
iyyət	-10.0706
▁evliliyi	-10.0707
▁ruhu	-10.0713
▁ba	-10.0736
ğu	-10.0743
iyyə	-10.0749
▁sistemimizdə	-10.0752
▁məlumatları	-10.0753
▁şəhərdə	-10.076
▁versiyası	-10.0761
çilər	-10.0765
qdan	-10.0771
▁heyran	-10.0787
çı	-10.0816
▁anlaşıl	-10.0816
▁edəcə	-10.0817
▁ha	-10.0825
he	-10.083
▁eşitdiyi	-10.0832
ləyir	-10.0834
▁şəhər	-10.0837
əyə	-10.0838
▁sualını	-10.0846
▁qızı	-10.0853
▁xəyal	-10.0869
▁enerjisini	-10.087
▁rəsmi	-10.0871
bi	-10.0875
▁qonşu	-10.088
yaranan	-10.0893
eyr	-10.0897
▁qapıl	-10.0897
▁aləti	-10.0899
▁apara	-10.0914
▁Həyatın	-10.0916
ğın	-10.0932
ranlıq	-10.0936
▁sevdiyim	-10.0941
▁Özü	-10.0942
▁səthin	-10.0951
▁kəsə	-10.0957
▁alət	-10.0964
▁strukturları	-10.0965
▁xanım	-10.0969
▁ayı	-10.0973
▁şahidi	-10.0974
▁tədqiqatlar	-10.0977
anlar	-10.0987
▁fotoşəkili	-10.0997
▁hazırlaya	-10.0997
▁197	-10.0998
▁olduqların	-10.1009
▁bolt	-10.1015
▁gö	-10.1017
▁telek	-10.1032
▁mədəniyyəti	-10.1038
▁tanınma	-10.1041
ck	-10.1049
▁keçdi	-10.1052
irdim	-10.1081
mayacaq	-10.1086
▁deşi	-10.1087
▁ağlını	-10.1102
▁vermiş	-10.1103
▁yaradıl	-10.1105
saq	-10.1116
▁Ka	-10.1123
▁dağını	-10.1137
şaq	-10.1144
▁va	-10.1151
▁sənayesi	-10.1154
hi	-10.1155
▁çata	-10.1161
alırlar	-10.1162
ub	-10.1171
ster	-10.1188
▁yaşama	-10.1189
▁tapmağ	-10.1195
▁Meri	-10.1199
lerini	-10.1205
▁miqyasl	-10.1205
as	-10.1211
ənc	-10.1217
▁əlində	-10.1222
▁inanc	-10.1229
▁art	-10.1231
▁qol	-10.1243
çinizdə	-10.1245
abl	-10.1256
▁neylə	-10.1266
üəllif	-10.1274
▁Az	-10.1277
▁yeməyi	-10.1279
▁qayıda	-10.1282
▁rahat	-10.1287
▁apardı	-10.1301
▁Londonda	-10.1301
rand	-10.1303
▁alçal	-10.1315
▁edirsə	-10.132
▁maddələr	-10.132
▁rəngləri	-10.1325
liklə	-10.1329
▁alətlər	-10.1333
▁iclas	-10.1335
▁dönür	-10.1338
▁tutar	-10.1342
▁dər	-10.1342
oj	-10.1343
▁yerləşdir	-10.1344
lamaq	-10.1352
▁kvadrat	-10.1356
▁təbəqə	-10.1357
▁alim	-10.1365
▁qurdu	-10.1369
yı	-10.1371
op	-10.1372
iliklə	-10.1378
▁cib	-10.1381
unda	-10.1382
▁uşağ	-10.1382
▁80	-10.1389
▁sübut	-10.1393
▁artır	-10.1393
▁biləcəyim	-10.1393
nt	-10.1396
▁şəklin	-10.1403
▁insanlığ	-10.1414
lerle	-10.1415
▁not	-10.1415
▁olunmuş	-10.1417
əsi	-10.1423
▁kap	-10.1435
▁otağ	-10.1436
▁Yox	-10.1438
▁elementlər	-10.1445
▁hazırlan	-10.1457
▁açdı	-10.146
▁baxar	-10.1464
▁alimlər	-10.1465
▁suyu	-10.1471
▁fotoşəkillər	-10.1474
▁İstə	-10.1476
▁yerləş	-10.1481
▁təs	-10.1495
▁verili	-10.1503
▁sür	-10.1541
▁Bugün	-10.1544
maqla	-10.1545
▁saç	-10.1545
▁insana	-10.1546
▁Sab	-10.1552
asını	-10.1552
▁uşağın	-10.1559
▁ve	-10.156
▁yeniyetmə	-10.1564
▁yağışı	-10.158
▁Kitab	-10.1584
▁do	-10.1591
▁Hekayə	-10.1596
▁olmay	-10.1602
▁Hamısı	-10.1613
K	-10.1619
▁re	-10.1619
ölçülü	-10.1626
E	-10.1628
▁altın	-10.163
▁çıxarı	-10.1633
▁obyektlər	-10.1637
▁keçər	-10.164
▁görmür	-10.1643
▁milyardda	-10.1657
▁bilməyi	-10.1659
▁müddətdə	-10.166
▁düzəldə	-10.1662
▁yazar	-10.167
▁divarlar	-10.1672
▁Sev	-10.1676
▁girmə	-10.1688
▁diqqətini	-10.169
▁xərclə	-10.1701
▁dördün	-10.1701
▁fəaliyyət	-10.1703
w	-10.1704
▁artım	-10.1714
▁yaxınlaşdı	-10.1718
▁ifşa	-10.172
ig	-10.1728
▁nəzəriyyəsini	-10.1732
▁nədən	-10.1736
▁diş	-10.1741
▁ayın	-10.1748
▁döndü	-10.1749
▁yanı	-10.176
▁arada	-10.1761
▁den	-10.1762
▁xalq	-10.1765
▁dediyim	-10.1774
▁boltu	-10.1786
▁Düz	-10.1787
▁qə	-10.179
▁öyrətmə	-10.1791
▁Tə	-10.18
▁Deyə	-10.181
▁istədikləri	-10.1812
əqib	-10.182
siylə	-10.1833
▁ulduzları	-10.1835
qu	-10.1837
▁ayaqları	-10.1842
▁bunda	-10.1842
▁anlam	-10.1848
▁Davi	-10.1849
▁axtarır	-10.1861
▁irəliləyiş	-10.1865
▁sonrası	-10.187
▁uçur	-10.1875
▁Emi	-10.1878
ist	-10.1884
▁qazan	-10.1887
▁kürəsin	-10.1889
▁xəbəri	-10.1891
▁Ata	-10.19
ron	-10.1906
▁əylən	-10.1908
▁Qısa	-10.1919
▁nümayiş	-10.1924
▁püskür	-10.1924
▁İnkişaf	-10.1924
qnostik	-10.1924
▁Apophis	-10.1924
▁Hökumət	-10.1924
▁Meksika	-10.1924
▁Telefon	-10.1924
▁karbon	-10.1924
▁könüllü	-10.1924
▁müalicə	-10.1924
▁prezident	-10.1924
▁yüngül	-10.1924
▁zinakar	-10.1924
▁əlverişli	-10.1924
▁Həşərat	-10.1924
▁Müsahibə	-10.1924
▁fundamental	-10.1924
▁futbol	-10.1924
▁vahid	-10.1924
▁çərçivə	-10.1924
▁İngiltərə	-10.1924
▁Richard	-10.1924
▁avtomat	-10.1924
▁filosof	-10.1924
▁narko	-10.1924
▁qənaət	-10.1924
▁Qəribə	-10.1924
▁diametr	-10.1924
▁Qırmızı	-10.1924
▁Mandela	-10.1924
▁qarışqa	-10.1924
▁Okean	-10.1924
▁mühərrik	-10.1924
▁Aydın	-10.1924
▁artist	-10.1924
▁mühazirə	-10.1924
▁oğurluq	-10.1924
▁qolfçu	-10.1924
▁Keçmiş	-10.1924
▁Fide	-10.1924
▁master	-10.1924
▁görünmür	-10.1924
▁valehedici	-10.1925
▁ehtiras	-10.1925
▁üstünlük	-10.1925
▁ekran	-10.1925
▁danışacam	-10.1925
pesifik	-10.1926
▁tip	-10.1926
▁Space	-10.1926
ken	-10.1926
▁əqli	-10.1927
▁qida	-10.1928
▁cənab	-10.1928
▁reallaşdırmaq	-10.1928
▁müxbir	-10.1929
zavr	-10.193
▁Kenya	-10.193
▁görünürdü	-10.193
▁skan	-10.193
▁çatdırmaq	-10.193
▁dəyişəcək	-10.1931
▁yaşamış	-10.1931
▁Ədalət	-10.1931
▁Britaniya	-10.1931
▁sərt	-10.1932
▁oktyabr	-10.1932
▁reallıq	-10.1933
▁yazır	-10.1935
▁aclıq	-10.1935
▁həsr	-10.1936
▁oxşar	-10.1936
▁vura	-10.1936
erson	-10.1936
▁kənarında	-10.1937
▁düşməyə	-10.1941
▁mağara	-10.1942
▁Qət	-10.1944
▁əksinə	-10.1945
▁Rusiya	-10.1947
▁Tom	-10.1948
▁topla	-10.1949
irsən	-10.1951
▁ayrılmış	-10.1951
▁qabağında	-10.1954
▁sözlə	-10.1955
▁meyl	-10.1955
▁xeyir	-10.1961
▁soyuq	-10.1961
▁palçıq	-10.1963
▁teatr	-10.1966
▁bacarığı	-10.1968
▁bacardıq	-10.1971
▁Dr	-10.1972
rədd	-10.1973
▁ediləcək	-10.1973
▁istəsə	-10.1974
▁otağı	-10.1975
▁Jo	-10.1976
▁qəsd	-10.1979
▁dəyişdirmək	-10.198
▁Bax	-10.1981
ger	-10.1982
▁bilməyəcək	-10.1983
▁başlamış	-10.1984
▁yersiz	-10.1987
▁iP	-10.1987
▁genişləmə	-10.1988
▁kurs	-10.1993
▁daxilində	-10.1996
▁doğrudur	-10.1998
▁əşyaları	-10.1999
▁Fələstin	-10.2
mek	-10.2006
▁beynimiz	-10.2007
şə	-10.2007
▁göndərdiyi	-10.2009
verici	-10.201
▁detal	-10.2011
▁sına	-10.2012
▁çəkirdi	-10.2014
▁doğur	-10.2016
▁maraqlanır	-10.2016
▁qarlı	-10.2018
▁siçan	-10.2019
▁disk	-10.202
▁müzakirələr	-10.2028
▁adlandırdı	-10.2029
▁yaratdığım	-10.2032
▁göy	-10.2033
▁getməyə	-10.2036
▁halqa	-10.2036
▁nəfəs	-10.2038
▁seç	-10.2045
▁qatar	-10.2046
▁zamanın	-10.2046
orta	-10.205
▁amerika	-10.205
▁çəkdik	-10.2058
▁kainatımız	-10.2062
▁deyirsiniz	-10.207
▁səhra	-10.2071
▁başı	-10.2073
▁atası	-10.2074
▁şans	-10.2088
▁saxlayır	-10.2088
plar	-10.2091
▁atmaq	-10.2096
uy	-10.2102
▁atmosferi	-10.2108
▁uşaqlarımızı	-10.2113
▁yanın	-10.213
▁əlaqəli	-10.2131
▁öyrənməli	-10.2134
oral	-10.2136
▁Qadınlar	-10.2138
▁qoruya	-10.2139
▁gözləyə	-10.2145
▁pro	-10.2147
▁uzaqda	-10.2167
cu	-10.2171
▁istehsalı	-10.2196
▁Wall	-10.2199
▁apar	-10.2205
meliy	-10.2209
▁yamsılay	-10.221
▁yeməklər	-10.2212
ng	-10.2214
▁funksiyası	-10.2217
▁bilməli	-10.2231
qil	-10.2237
▁yed	-10.2244
▁alırdı	-10.2246
landiya	-10.2254
▁şahin	-10.2254
ha	-10.2255
▁ortalama	-10.2255
▁edici	-10.2261
▁Hekayələr	-10.2262
▁məhsulunu	-10.2276
▁sistemində	-10.2279
▁ged	-10.228
▁Martin	-10.2281
▁gözü	-10.2283
▁açıqlama	-10.2285
▁arzu	-10.2292
mirəm	-10.2293
loq	-10.2294
▁dünyasını	-10.2296
irdi	-10.2297
▁ulduzlarda	-10.2299
▁oxumağ	-10.2302
▁ağaclar	-10.2311
▁ke	-10.2311
▁üsul	-10.2314
▁bildiklərini	-10.233
▁yaza	-10.2333
diklərini	-10.2336
▁olunması	-10.2337
▁Meta	-10.2341
ili	-10.2342
▁Mar	-10.2343
▁xatırlamır	-10.2344
▁əvvəlcə	-10.2348
▁verdik	-10.235
▁olduqda	-10.2352
▁yaşa	-10.2353
ent	-10.2357
mp	-10.2361
▁qazanır	-10.2363
▁Tarixi	-10.2365
▁fleytanı	-10.2367
▁haqqı	-10.2373
▁qayna	-10.2381
mayıb	-10.2384
▁Je	-10.2385
▁qanunların	-10.2392
▁çevirdi	-10.2399
bil	-10.2403
▁diplom	-10.2404
▁Özünüz	-10.2404
▁əliniz	-10.2409
▁hədəf	-10.2416
▁gətirmə	-10.2425
▁istilik	-10.2429
▁qapını	-10.2431
arın	-10.2434
▁sayt	-10.2437
▁Məh	-10.2439
nik	-10.2442
▁uşağı	-10.2444
▁atdı	-10.2445
▁Səh	-10.2445
▁verənlər	-10.2447
▁kompyuter	-10.2451
▁başlayın	-10.2451
▁yazırdı	-10.2455
▁Dan	-10.2458
▁ideyası	-10.2458
▁məsləhət	-10.249
hu	-10.2491
▁etik	-10.2491
▁düşdük	-10.2494
▁işləmə	-10.2497
▁digərləri	-10.2503
▁atamı	-10.2506
▁para	-10.2515
ecek	-10.2516
▁düyməsini	-10.2519
siya	-10.2521
▁mərkəzində	-10.2527
üz	-10.2533
▁kimya	-10.2537
▁şərt	-10.2539
▁edildiyin	-10.2541
▁yanaş	-10.2544
imizdə	-10.2546
▁İndiki	-10.2546
▁nüvəsi	-10.2552
▁çarpma	-10.2562
▁olursa	-10.2565
ınızı	-10.2567
▁geyin	-10.2569
▁or	-10.2574
▁prim	-10.2574
▁bizimlə	-10.2577
▁fərqin	-10.2581
▁formada	-10.2581
▁salsa	-10.2591
ləşmiş	-10.2592
ənətkar	-10.2594
▁tutum	-10.2596
▁ne	-10.2597
▁Va	-10.2603
▁müəlli	-10.2604
▁kitabı	-10.261
ore	-10.2611
ens	-10.2617
ət	-10.262
▁okeanda	-10.2621
yiniz	-10.2631
məyən	-10.2646
▁ailəsin	-10.2649
▁Du	-10.2651
▁təşkilatın	-10.2653
▁Ti	-10.2653
lmayıb	-10.2662
▁atı	-10.2662
▁əlimdə	-10.267
▁dönən	-10.2685
▁paylaş	-10.2686
▁gəlməsi	-10.2687
yara	-10.2696
▁digərin	-10.2698
▁Su	-10.2701
▁mərkəzdə	-10.2704
▁cəs	-10.2706
ısınız	-10.2716
▁gözlərin	-10.2721
▁Həyat	-10.2722
▁düyü	-10.2723
ləşdirmək	-10.2725
▁toxunu	-10.2726
▁suda	-10.273
▁xaric	-10.2732
▁gətir	-10.2734
▁böyü	-10.274
▁sənədl	-10.2743
▁göndər	-10.2743
▁Me	-10.2745
▁qarşımızda	-10.2757
▁sağlamlı	-10.2758
mən	-10.2759
▁hamını	-10.2761
rə	-10.2765
▁analar	-10.2765
▁özlərin	-10.2767
▁Ondan	-10.2776
əcə	-10.278
▁axtarış	-10.2787
▁ərazilər	-10.2795
▁qüvvəsi	-10.2803
ıza	-10.2816
▁xüsus	-10.2818
▁heyvanlar	-10.2819
▁sağlam	-10.2827
▁proqnoz	-10.2844
▁düşü	-10.2845
▁sirr	-10.285
▁sənayesin	-10.285
ah	-10.285
▁təpədə	-10.2854
▁İllər	-10.2855
yirəm	-10.2859
▁detalları	-10.2865
▁vətəndaş	-10.2876
▁olmasın	-10.2881
▁şəkilini	-10.2886
▁deş	-10.2898
▁krater	-10.2899
▁anlayır	-10.2907
▁qorx	-10.2907
ock	-10.291
▁sü	-10.2911
lak	-10.2913
▁Pa	-10.2919
▁çəkin	-10.2932
▁yaşayırdı	-10.2943
uyru	-10.2945
▁bölgələrdə	-10.2959
▁proton	-10.2965
muş	-10.2968
▁cisim	-10.2968
▁140	-10.2973
▁hissəsində	-10.2974
▁təsirini	-10.2992
▁günlərdə	-10.2994
▁kişilərin	-10.3003
▁düymə	-10.3015
▁həşəratı	-10.3017
kar	-10.3017
▁Ko	-10.3018
▁ulduzun	-10.3021
▁vəziyyəti	-10.3026
ayət	-10.3032
▁Müəllim	-10.3034
▁vermir	-10.3034
▁qarşılaş	-10.3038
▁getməli	-10.3043
▁lider	-10.3053
▁başımız	-10.306
▁müəllimi	-10.3061
▁Ö	-10.3062
▁aş	-10.3063
▁aç	-10.3065
▁səfəri	-10.3066
▁yolunda	-10.3068
▁adlandır	-10.3075
▁hesablama	-10.3099
▁kosmosu	-10.3102
▁sahil	-10.3138
nüz	-10.316
▁Amerikanı	-10.3163
▁yaratmalı	-10.3166
▁şəklini	-10.3168
▁bölgüsü	-10.3169
▁sualları	-10.3174
▁kimlik	-10.3194
▁Ge	-10.3198
▁hökümətin	-10.3199
▁yolunu	-10.3202
▁Mer	-10.3203
ran	-10.3203
likləri	-10.3206
▁fəaliyyəti	-10.3209
▁getdiyini	-10.3217
▁qabiliyyəti	-10.3225
▁dərsi	-10.3228
▁tanın	-10.3238
▁deməyi	-10.3243
▁14	-10.326
▁maşının	-10.3269
rin	-10.3286
▁müəyyənləşdir	-10.3287
▁silah	-10.329
▁Da	-10.3302
▁əsrin	-10.3317
▁yönəld	-10.3318
▁pop	-10.3322
▁çoxalma	-10.3329
▁əsərini	-10.3329
▁nizam	-10.3333
vatar	-10.3337
▁Pe	-10.3342
▁Aristoteli	-10.3354
ew	-10.3355
iki	-10.3365
▁çəkil	-10.3375
▁mü	-10.3376
düm	-10.3376
▁ili	-10.3377
▁iç	-10.3377
▁ça	-10.3381
▁çalışar	-10.3393
▁ehti	-10.3401
▁ölümün	-10.3402
kanın	-10.3403
▁mail	-10.3404
▁w	-10.3415
▁xəbərləri	-10.3452
▁nəzəri	-10.3456
irincisi	-10.3465
bl	-10.3474
▁gen	-10.3475
▁işlədi	-10.3476
▁Adam	-10.3485
dirsə	-10.3487
▁gözləmə	-10.3489
▁dibin	-10.3492
▁heyvan	-10.3499
▁Eynşteyni	-10.3503
▁ifaçılar	-10.3507
laşdırma	-10.3509
▁şəxslər	-10.3511
▁itirdi	-10.3528
▁konflikt	-10.3534
yıb	-10.3535
▁vasitələr	-10.3536
▁müəllimə	-10.3544
▁söyləmə	-10.3544
▁qəti	-10.3547
▁çalışı	-10.3548
▁xəstə	-10.3548
▁yax	-10.3556
▁be	-10.3557
▁naxışlar	-10.3559
▁ton	-10.3559
▁Getdi	-10.3561
▁Mart	-10.3577
əhv	-10.3585
▁göstərəcə	-10.3585
uncu	-10.3586
▁Kollec	-10.3596
▁ortada	-10.36
tən	-10.3601
▁Cəmiyyət	-10.3605
▁qrafik	-10.3609
▁sahibi	-10.3613
yım	-10.3615
▁güvən	-10.3617
▁işçilər	-10.3619
▁Ki	-10.3621
▁yaratmağın	-10.3622
▁fantastika	-10.3625
▁materiallar	-10.363
▁həvəs	-10.3631
▁həşəratları	-10.3634
▁həddə	-10.3636
▁detallar	-10.3637
məyəcək	-10.364
▁Amerikalı	-10.3643
▁geyim	-10.3646
▁qazandı	-10.3648
▁çəkər	-10.3657
▁pulu	-10.3667
acağ	-10.3669
▁üsulu	-10.3671
qo	-10.3673
▁vermə	-10.3676
▁paltar	-10.3677
▁vardır	-10.3693
▁olardım	-10.3694
▁bilərs	-10.3699
▁yumurtalar	-10.3712
▁tan	-10.3724
▁ölü	-10.3726
▁mahnılar	-10.3748
▁hissələrin	-10.3749
▁filmlər	-10.3757
▁Bankı	-10.3768
▁300	-10.3768
▁rəqsi	-10.3772
▁yük	-10.3773
▁qaydaları	-10.3782
▁telefonu	-10.3784
▁temperaturu	-10.3791
pa	-10.38
▁söyləyə	-10.3807
bit	-10.3808
▁kimin	-10.3809
▁dövrünü	-10.382
▁faiz	-10.382
▁giri	-10.3822
▁oturan	-10.3827
▁mərasim	-10.3836
▁qaldı	-10.3839
▁par	-10.3839
▁mövzusu	-10.3861
▁oyunlar	-10.3863
ung	-10.3865
▁iqtisadiyyatın	-10.3866
▁oturdu	-10.388
▁Uşaq	-10.3883
▁fizikası	-10.3888
▁jurnalist	-10.39
▁dizayner	-10.3905
▁yenilən	-10.3915
rıq	-10.3919
▁əlləri	-10.3928
▁gözlənil	-10.3936
▁te	-10.3939
▁tərs	-10.3944
▁olanın	-10.3955
▁işini	-10.3963
▁həyəcan	-10.3974
▁ölkələrin	-10.3979
▁rastlaş	-10.398
▁oturu	-10.3993
▁Ana	-10.4003
▁Ma	-10.4006
▁məhsul	-10.4007
▁müd	-10.4007
▁partlad	-10.4017
▁İnan	-10.4021
ınca	-10.4022
km	-10.4035
▁birin	-10.4049
▁Is	-10.4049
▁Kepl	-10.4056
B	-10.4056
▁yardım	-10.4063
▁etmi	-10.4072
▁oğlanlar	-10.4091
F	-10.4091
▁xoşlayır	-10.4095
▁oxuyu	-10.4097
▁haqq	-10.4108
yyətlə	-10.4112
string	-10.4137
▁azaldı	-10.4142
▁səhifə	-10.4142
▁pey	-10.4143
▁romanı	-10.4144
▁boşluq	-10.4145
metri	-10.4145
andırıcı	-10.4151
▁öyrənir	-10.4154
▁izləyir	-10.4155
▁dairə	-10.4162
▁verməyə	-10.4184
nvol	-10.4187
▁bilsə	-10.4189
▁nəy	-10.4211
▁gördükləri	-10.4219
▁filmin	-10.4223
▁gücləri	-10.423
▁ka	-10.4231
▁memar	-10.4233
▁şəxsə	-10.4233
▁toxu	-10.4235
▁yanaşır	-10.4236
▁kimliyi	-10.424
əhdid	-10.4242
▁Bibliyada	-10.4243
▁görmüş	-10.4247
▁ailədə	-10.4249
▁Qadın	-10.425
▁nümunələr	-10.4262
▁fi	-10.4285
▁seçim	-10.4287
▁böyüklüyü	-10.4291
▁heyvanları	-10.4296
▁65	-10.4304
nən	-10.4304
ley	-10.4305
ətli	-10.4309
ene	-10.431
▁Hind	-10.4315
yır	-10.4318
üzgü	-10.4321
▁edəcəyini	-10.4325
▁hissələr	-10.4332
▁yarandı	-10.4334
▁sistemimiz	-10.4337
▁dedikləri	-10.4342
▁toxun	-10.4343
▁ağla	-10.4347
▁qütb	-10.4359
▁yatır	-10.4366
ologiya	-10.4367
▁kino	-10.4375
▁dönər	-10.4381
▁itirir	-10.4383
▁büdcə	-10.4384
▁yaratmağ	-10.4385
▁tapdığım	-10.4387
▁bitirmə	-10.4387
eləliklə	-10.4388
▁poz	-10.4396
▁çiçəklə	-10.4399
▁şirkəti	-10.44
▁usta	-10.4403
▁Alman	-10.4403
▁Düşün	-10.4404
▁mərkəzin	-10.4413
▁standart	-10.4415
▁bayır	-10.4418
üasir	-10.4419
▁evlilik	-10.4419
▁tamaşa	-10.4422
▁Avstraliya	-10.4424
▁Başlanğıc	-10.4424
▁Dövlət	-10.4424
▁Kompüter	-10.4424
▁Konqres	-10.4424
▁Məhəmməd	-10.4424
▁Street	-10.4424
▁alışqanlıq	-10.4424
▁gənişləmə	-10.4424
▁ləzzət	-10.4424
▁meditasiya	-10.4424
▁müsbət	-10.4424
▁məhşur	-10.4424
▁peyğəmbər	-10.4424
▁pilot	-10.4424
▁çuxur	-10.4424
▁əsrarəngiz	-10.4424
▁Təyyarə	-10.4424
▁Vyetnam	-10.4424
▁hobbi	-10.4424
▁lüğət	-10.4424
▁oksigen	-10.4424
▁qürur	-10.4424
əssüm	-10.4424
▁Şəxs	-10.4424
▁mayalanma	-10.4424
▁tikinti	-10.4424
▁çaşdırıcı	-10.4424
▁Kosm	-10.4424
▁Məhsul	-10.4424
▁mümkünlüyün	-10.4424
▁Palme	-10.4424
▁Xüsus	-10.4424
▁redakt	-10.4424
▁süpür	-10.4424
▁vurğula	-10.4424
▁yapışqan	-10.4424
▁Sakit	-10.4424
▁nəqliyyat	-10.4424
▁əziyyət	-10.4424
▁namizəd	-10.4424
▁Kendal	-10.4424
▁Sufi	-10.4424
▁bələdçi	-10.4424
▁reaksiya	-10.4424
▁Darvin	-10.4424
▁istedad	-10.4424
▁Steve	-10.4424
▁məşq	-10.4424
▁cəbr	-10.4424
▁döndərə	-10.4424
▁təşəbbüs	-10.4424
▁heyranedici	-10.4424
▁antropologiya	-10.4424
▁Haring	-10.4424
▁Paris	-10.4424
▁rəğ	-10.4424
▁eşq	-10.4424
▁tayf	-10.4424
▁cəld	-10.4424
▁qaytar	-10.4424
▁Mi	-10.4424
▁doğulmuş	-10.4424
▁qidalanır	-10.4424
▁dördüncü	-10.4424
▁heykəl	-10.4424
▁romantik	-10.4424
▁öyrənilməsi	-10.4424
▁maqnit	-10.4425
▁Peter	-10.4425
▁Hollivud	-10.4425
▁Təhsil	-10.4425
▁səmimi	-10.4425
▁spir	-10.4425
▁şüşə	-10.4425
▁öhdəsind	-10.4425
▁sərbəst	-10.4425
▁Venera	-10.4425
▁qaradərili	-10.4425
▁tibb	-10.4425
▁çatlaqlar	-10.4425
▁mümkünsüz	-10.4425
▁sentyabr	-10.4425
▁cazibədar	-10.4426
▁yaşayış	-10.4426
▁tutmuş	-10.4426
ebo	-10.4426
▁üzü	-10.4426
▁yararlı	-10.4426
▁tabe	-10.4426
▁əlamət	-10.4426
▁oxuduğum	-10.4426
▁sabah	-10.4427
▁qələm	-10.4427
▁yayılmış	-10.4427
▁Görünü	-10.4427
▁günahkar	-10.4427
▁sevinc	-10.4427
▁adlandırdığımız	-10.4428
▁Təbiət	-10.4428
▁quldur	-10.4429
▁fəsil	-10.4429
dək	-10.4429
▁keçməli	-10.4429
▁Əvəzi	-10.4429
▁aramızda	-10.4429
▁balina	-10.4429
▁vurmaq	-10.443
▁hündürlükdə	-10.443
▁Qısaca	-10.4431
▁səmərəli	-10.4431
▁tənb	-10.4432
▁baxdığınız	-10.4432
▁keçirə	-10.4432
▁torpaq	-10.4433
▁haqlı	-10.4433
▁Oldu	-10.4433
▁1960	-10.4434
▁sürücü	-10.4434
▁gətirəcək	-10.4434
▁Gün	-10.4435
▁Əllərini	-10.4435
▁ərazidə	-10.4435
▁qabaq	-10.4435
▁zənc	-10.4435
▁Sto	-10.4435
▁Salam	-10.4437
▁yazılıb	-10.4437
▁ağırlıq	-10.4438
▁rəhmli	-10.4438
▁başlamışam	-10.4438
▁Təsadüfi	-10.4439
▁yağır	-10.444
▁çıxardı	-10.4444
▁şair	-10.4444
▁Leon	-10.4445
cazə	-10.4447
▁aralarında	-10.4448
▁sahələr	-10.4449
▁dəyişəcəyi	-10.445
▁Gecə	-10.4451
▁məsləhətim	-10.4452
▁günah	-10.4454
▁Özümüzü	-10.4454
▁Erik	-10.4455
exnologiya	-10.4455
▁reallığı	-10.4456
▁çaylar	-10.4457
▁Dostlar	-10.4457
▁oğlum	-10.4457
▁itirdiyimiz	-10.4458
▁yaradıcısı	-10.4458
▁notları	-10.4459
▁axırın	-10.4462
▁Nigeriyalı	-10.4462
▁deyəcək	-10.4463
mobil	-10.4463
▁uçmaq	-10.4464
▁bü	-10.4466
▁Cüm	-10.4467
▁seçmək	-10.4469
▁inanmır	-10.4469
▁Elektron	-10.4469
▁kök	-10.447
▁Axır	-10.4473
▁hesablamaq	-10.4473
▁tapdıq	-10.4473
▁Yadım	-10.4473
▁səviyyəsi	-10.4474
▁boru	-10.4475
▁şəkl	-10.4476
▁çiz	-10.4476
karlar	-10.4476
▁park	-10.4477
▁aktiv	-10.4479
▁Cey	-10.4479
▁beyninizdə	-10.4481
▁sifət	-10.4484
ash	-10.4484
▁qaldırmaq	-10.4484
▁elçi	-10.4485
▁keçirmək	-10.4486
▁metan	-10.4487
▁ölçək	-10.4492
▁edilmişdir	-10.4494
▁Had	-10.4494
▁ideal	-10.4495
▁tamamladı	-10.4497
▁çoxalırlar	-10.4498
▁faydalı	-10.4499
▁pian	-10.4499
▁Gülmə	-10.4503
▁anladıq	-10.4504
▁salırdı	-10.4505
off	-10.4505
▁əyləşən	-10.4506
▁robotları	-10.4507
▁uşaqlarını	-10.451
▁mənfi	-10.4511
urizm	-10.4514
▁səslənir	-10.4515
▁Oba	-10.4518
▁Ant	-10.4519
▁arxasında	-10.4521
▁təhlükəli	-10.4521
əhray	-10.4523
ğımızı	-10.4524
lilik	-10.4527
▁sis	-10.4529
▁görünüşünü	-10.4529
▁çevir	-10.4532
▁dağıntıları	-10.4534
▁artırmaq	-10.4536
▁şlyapanı	-10.4536
▁baba	-10.4541
▁Laqosda	-10.4549
▁götürdü	-10.4551
▁görüb	-10.4559
▁mexanizm	-10.4561
▁böyüklüyündə	-10.4565
▁məşğuldur	-10.4567
▁edildikdə	-10.4572
ğına	-10.4574
▁nitqim	-10.4575
▁bilinir	-10.4578
▁fikirlə	-10.458
ünüz	-10.4582
▁qu	-10.4583
▁göndəril	-10.4584
▁öyrəndiyimi	-10.4584
▁suallardan	-10.4588
▁com	-10.4591
▁istəyi	-10.4591
uza	-10.4594
▁Xəbərlər	-10.4594
▁önəm	-10.4596
▁məhbus	-10.4598
▁dərinliklərin	-10.4599
▁sər	-10.46
▁məlum	-10.4602
nan	-10.4605
▁yaratma	-10.4606
▁gözünüz	-10.4608
▁fə	-10.461
▁getdiyimiz	-10.4611
▁qatil	-10.4611
est	-10.4613
▁sənəd	-10.4616
düyüm	-10.4619
▁Ronal	-10.4622
▁axtarmaq	-10.4624
▁məqsədim	-10.4632
▁You	-10.4634
▁olunmasın	-10.4636
▁fərqində	-10.4637
rsız	-10.4641
▁sistemin	-10.4644
▁mükafat	-10.4645
▁gözləri	-10.4645
▁filmdə	-10.4646
▁azında	-10.4648
atır	-10.465
▁texnologiyaları	-10.4651
▁çəkiliş	-10.4653
▁filterlər	-10.4656
nətə	-10.4656
▁stabil	-10.4657
▁bazarın	-10.466
▁Sierra	-10.4662
aluza	-10.4669
▁uğra	-10.4675
▁qadına	-10.468
▁sualım	-10.4685
▁istiqamətl	-10.4686
▁etdirdik	-10.4686
▁du	-10.4693
▁birləşdir	-10.4701
MT	-10.4701
▁çətinliklər	-10.4704
▁ətrafda	-10.4704
▁bilsin	-10.4704
▁toplayır	-10.4706
▁təhsili	-10.4706
▁Qara	-10.4709
▁indiyə	-10.4712
▁uydurma	-10.4712
▁boşluqlar	-10.4712
▁aparırdı	-10.4717
▁gələcəyə	-10.4718
▁xəritələşdir	-10.4718
bilirsiniz	-10.4723
mlə	-10.4724
▁dəf	-10.473
▁Olan	-10.4731
▁uzaqlıq	-10.4748
▁nəslin	-10.4749
başın	-10.4752
bad	-10.4755
▁keçməsi	-10.4757
▁Həyatımı	-10.4761
lanmış	-10.4762
▁həmişəki	-10.4775
▁qorunma	-10.4778
▁daki	-10.478
lıqlar	-10.4782
▁mövzunu	-10.4786
▁taleyi	-10.4797
▁sonların	-10.4798
ilməsi	-10.4798
▁xəbərlər	-10.4801
▁im	-10.4806
▁pa	-10.4809
▁kəndlərin	-10.4812
▁xüsusiyyətlər	-10.4815
▁pi	-10.4821
▁dolandır	-10.4823
▁yerimə	-10.4823
▁akse	-10.4824
ığa	-10.4827
▁şüur	-10.483
təbi	-10.4831
▁qəhramanları	-10.4832
▁birliyi	-10.4834
▁dərslər	-10.4838
▁açılı	-10.4839
▁Bunları	-10.4846
▁toplama	-10.4847
▁and	-10.485
▁ağlım	-10.4851
ro	-10.4854
undan	-10.4856
▁Qo	-10.486
▁nömrəsi	-10.4861
▁qib	-10.487
▁Gəl	-10.4872
▁başlanğıcında	-10.4873
▁tapıla	-10.4874
▁yaratmış	-10.4879
▁Sir	-10.4883
▁Ara	-10.4886
▁astronom	-10.4888
▁İq	-10.489
▁qorxusu	-10.4894
luğun	-10.4894
klər	-10.4899
▁görməmişdi	-10.4905
▁çıxaca	-10.4908
▁ölümləri	-10.4909
▁yollar	-10.491
isiniz	-10.4911
AR	-10.4911
▁çəkdiyimi	-10.4918
▁itkisi	-10.4925
aman	-10.4931
▁formasında	-10.4932
▁bilməyəcəyi	-10.4933
▁vacibdi	-10.4937
ola	-10.494
▁etdiklərini	-10.495
▁Si	-10.495
▁kolleclər	-10.4955
mir	-10.4959
paz	-10.4964
ap	-10.4965
▁cəmiyyətin	-10.4974
▁hayat	-10.4985
▁oteldə	-10.4986
dınız	-10.4991
▁daxili	-10.4991
▁Məktəbdə	-10.4992
▁pulun	-10.4997
▁170	-10.4999
▁günün	-10.5001
▁əsli	-10.5006
▁artımı	-10.5008
▁Fleyta	-10.5014
tal	-10.5017
aradan	-10.5024
▁oyna	-10.5028
▁qanunu	-10.5028
▁edilmir	-10.5031
▁molekullar	-10.5031
əri	-10.5035
▁gəzir	-10.5044
mədən	-10.5046
▁teleskoplar	-10.5048
▁Red	-10.5052
▁hissini	-10.5056
▁öt	-10.5057
▁buludların	-10.5058
▁kva	-10.5059
▁Ol	-10.5059
▁tozları	-10.5064
▁ölçə	-10.5066
▁ixtiraçı	-10.5067
▁olmağını	-10.5067
▁yoldaşı	-10.5073
▁ailəm	-10.5073
▁şəhərində	-10.5075
▁həyatında	-10.5078
▁Öyrəndi	-10.508
▁dillərdə	-10.5084
▁Con	-10.5092
▁məktəbin	-10.5093
▁siyahı	-10.5094
▁yataq	-10.5096
▁araşdırmaların	-10.5098
▁Etdiyim	-10.51
1	-10.5103
inki	-10.5105
asmaq	-10.5108
▁gətirdiyi	-10.5109
▁inan	-10.5115
nd	-10.513
▁bucaq	-10.5134
▁şeylə	-10.5138
▁Dil	-10.5139
▁dillərində	-10.5143
məz	-10.5152
Ar	-10.5155
▁işlədiyin	-10.5156
▁telefonları	-10.5157
▁təsirlərini	-10.5158
▁öldür	-10.5158
▁istəmir	-10.5158
▁Do	-10.5162
▁elmlə	-10.5162
▁aləm	-10.5166
▁başlanğıcı	-10.517
▁səsimi	-10.5177
▁Soyu	-10.518
▁yaxınlaşdır	-10.5183
▁maddələri	-10.5197
▁çıxışım	-10.5201
thin	-10.5206
ysa	-10.521
▁olmamaq	-10.5217
▁yarışı	-10.5222
▁Həyatda	-10.5229
▁vaq	-10.5233
indəki	-10.5235
isi	-10.5238
▁aşağıda	-10.5242
aliyyə	-10.5243
gens	-10.5249
▁ic	-10.5251
▁fikirlərimiz	-10.5254
▁biraz	-10.5256
▁tapşırığı	-10.5258
▁təşkilatlar	-10.5259
▁məktub	-10.526
▁Per	-10.5261
▁tərz	-10.527
▁dərinlik	-10.5273
▁yüks	-10.5275
▁gəlsə	-10.5276
▁qərarı	-10.5276
▁müxtəliflik	-10.5278
▁evi	-10.5284
topu	-10.5287
qın	-10.5289
▁Et	-10.5297
▁adında	-10.53
▁xərçəng	-10.5301
▁qaldığını	-10.5302
ləndirir	-10.5305
▁yarat	-10.5305
▁göndərdi	-10.5309
▁Amerikalılar	-10.5309
▁London	-10.531
▁vur	-10.5313
▁kəndin	-10.5314
▁aylar	-10.5321
▁ölkəni	-10.5323
▁xəstələr	-10.5341
▁hekayəsini	-10.5342
▁etdiyin	-10.5345
▁görmü	-10.5351
▁hüquqlarını	-10.5352
▁bilmirsə	-10.5372
ydi	-10.5376
▁dəyişməyi	-10.5376
▁eşidil	-10.5381
▁keçirmə	-10.5381
▁etmələri	-10.5385
▁dəyişdiyini	-10.5395
▁şərtlər	-10.5398
▁əllərində	-10.5406
ks	-10.5409
eyin	-10.541
▁planeti	-10.5412
▁ələ	-10.5413
proqramlaşdırıla	-10.5413
rk	-10.5414
▁qarışdır	-10.5415
▁Şəkli	-10.5415
▁qüvvələrin	-10.542
▁qızın	-10.543
▁bayram	-10.5431
lıqla	-10.5439
iyor	-10.544
if	-10.5442
▁daşınma	-10.5443
nümüzdə	-10.5451
▁evlərin	-10.5455
od	-10.5457
▁xatırla	-10.5457
▁övlad	-10.5458
▁qazandır	-10.5459
▁fotoşəkildə	-10.546
▁bölgəsi	-10.5463
▁öyrənən	-10.5463
▁bilməzdi	-10.5467
▁verər	-10.5468
▁soy	-10.5474
▁oğurluğu	-10.5478
▁mərhələdə	-10.5487
▁hüceyrələr	-10.5496
▁ip	-10.5499
▁mənbə	-10.5512
▁mu	-10.552
dey	-10.5523
▁havanı	-10.5523
▁əhəmiyyəti	-10.5524
▁zamanla	-10.5524
▁bölgələr	-10.5524
larımızı	-10.5526
▁bahal	-10.5527
▁varlığını	-10.5532
▁şəhərlər	-10.5539
▁sayıla	-10.5546
▁izlə	-10.5546
▁olmağım	-10.5548
▁Səs	-10.5553
▁etməyən	-10.556
ver	-10.5562
lerimiz	-10.5563
▁eşitmə	-10.5563
ısı	-10.5566
▁rəq	-10.5573
▁Sizi	-10.5574
idi	-10.5575
▁izləmə	-10.5576
ge	-10.5579
▁əsaslana	-10.5587
rüf	-10.559
▁üzləş	-10.5595
▁reallaşdıra	-10.5596
▁Məlumat	-10.5598
sənmi	-10.5601
çılar	-10.5603
▁böyüklük	-10.5604
▁tərif	-10.5612
▁hesabla	-10.5615
enler	-10.5624
▁qaldıq	-10.5625
▁kom	-10.5637
▁alman	-10.5638
▁layihəsi	-10.564
▁istək	-10.5641
▁qurtar	-10.5655
▁vurdu	-10.5658
▁fotoşəkilləri	-10.566
▁reallaş	-10.5661
▁nizaml	-10.5662
▁baxdı	-10.5663
▁yoxs	-10.5664
▁mühitdə	-10.5666
▁seçil	-10.5669
▁verərdi	-10.5672
urdu	-10.5676
ləşdirir	-10.5683
▁Ch	-10.5696
▁qisimi	-10.5702
▁canlandırma	-10.5703
▁basmağ	-10.5705
▁olmu	-10.5709
▁düşmən	-10.571
▁kitabxanalar	-10.5719
▁genişlənməsi	-10.5724
▁adını	-10.5725
minin	-10.5732
▁paltarlar	-10.5733
▁dinlə	-10.5735
▁yaşan	-10.5739
ke	-10.574
ardım	-10.5741
yoru	-10.5744
▁yaxınlaşan	-10.5745
asın	-10.5748
▁hərəkatlar	-10.5751
▁dizaynı	-10.5752
▁axtarı	-10.5754
▁əsasını	-10.576
andığınız	-10.5762
kəsin	-10.5763
▁enən	-10.5774
▁nin	-10.579
▁istər	-10.58
▁dəyişməsin	-10.5808
basın	-10.581
▁cihazların	-10.5813
▁irəliləy	-10.5815
▁birləşdirə	-10.5824
▁genişlən	-10.5824
▁məsələlər	-10.5827
ns	-10.5829
▁internetdə	-10.5832
▁jurnal	-10.5838
▁dəyərin	-10.5847
▁195	-10.5847
▁qa	-10.5848
▁qoyul	-10.5854
▁görüntü	-10.5855
▁yaxında	-10.5858
▁təkmilləşdir	-10.5859
▁anladı	-10.5868
▁filmləri	-10.5878
▁Fa	-10.5881
▁top	-10.5885
▁baxdıq	-10.5888
▁personajlar	-10.5899
▁robotu	-10.5909
▁başım	-10.5909
rdıq	-10.5916
▁buraxma	-10.5931
▁razılaşma	-10.5931
▁ixtiralar	-10.5945
▁demə	-10.5947
▁biznesi	-10.595
fat	-10.5954
▁liderlər	-10.5958
▁fil	-10.5963
▁problemlərin	-10.5965
uzun	-10.5968
▁tapşırıq	-10.5969
▁dəstəklə	-10.5973
▁bilmədiyim	-10.5983
▁nisbəti	-10.5987
and	-10.5997
lk	-10.5999
▁kü	-10.6011
▁Gökada	-10.6019
▁yetirmə	-10.6019
▁öküz	-10.6022
▁oyan	-10.6031
▁oğul	-10.6032
▁görəcə	-10.6033
▁Ju	-10.6037
lmaq	-10.6038
▁vaxtında	-10.6043
▁səviyyəsin	-10.6048
▁aparır	-10.605
▁so	-10.6055
əsih	-10.6055
▁məhsullarında	-10.6056
▁öyrədil	-10.6058
▁işçiləri	-10.6064
▁deyildir	-10.6067
▁söyləy	-10.6069
▁çəkdi	-10.6071
▁çıxmağ	-10.6077
▁başlay	-10.6084
▁düşünsə	-10.6092
▁sakit	-10.6096
▁qalmalı	-10.6097
▁həyatınızda	-10.6104
▁şagirdləri	-10.611
lması	-10.6112
▁Nigeriyanı	-10.6117
ıl	-10.6119
ji	-10.6123
▁strukturlar	-10.6133
rdı	-10.6138
ation	-10.6141
▁Arzu	-10.6142
▁gökadalarda	-10.6143
lib	-10.6145
▁künc	-10.6153
▁tədqiqatı	-10.6165
məyiniz	-10.6165
muz	-10.6175
▁qarşılaşdı	-10.6176
çıları	-10.6182
▁Tez	-10.619
az	-10.6191
▁əyil	-10.6196
▁eşitmi	-10.62
ondu	-10.6202
▁istəmi	-10.6205
▁çıxanda	-10.6209
▁Bur	-10.6226
▁tapı	-10.6227
▁dostların	-10.6239
ba	-10.6247
▁yeyir	-10.6255
▁ölkələri	-10.6257
▁istifadəçilər	-10.6266
▁xət	-10.6274
▁debat	-10.6282
onlarla	-10.6284
▁edərdin	-10.6285
▁bitkini	-10.6299
lis	-10.63
▁sürə	-10.6301
ativ	-10.6305
▁qış	-10.6309
is	-10.6318
▁Kollecin	-10.632
▁çəkməy	-10.6326
ina	-10.6328
▁fər	-10.6332
▁olacaqdı	-10.6337
lluq	-10.6339
▁yıx	-10.6342
▁hazırlayır	-10.6343
▁faktlar	-10.6351
ilir	-10.6352
▁yuxarıda	-10.6352
şları	-10.6354
▁qadınları	-10.6357
▁Na	-10.636
maz	-10.6363
▁keyfiyyətləri	-10.6366
▁partlama	-10.6378
▁ət	-10.638
▁Ga	-10.6385
▁verdikdə	-10.6387
▁İsveçrə	-10.6389
▁məhsulların	-10.639
▁musiqiçi	-10.6391
▁güzgü	-10.6391
▁yerimiz	-10.6395
▁ayaqqabı	-10.6397
▁yarad	-10.64
sey	-10.6407
asa	-10.6411
▁olmağımız	-10.6417
▁işıqlandır	-10.6422
▁yerləşdirir	-10.6427
▁yal	-10.6429
mağımız	-10.6431
▁sehr	-10.6432
ığın	-10.6435
▁Marsa	-10.6439
▁En	-10.6441
han	-10.6447
etik	-10.6452
▁başladığı	-10.6452
▁soyu	-10.6457
ara	-10.6466
▁Maşın	-10.6467
salar	-10.6471
▁satıl	-10.6471
▁kosmosda	-10.6486
▁bomba	-10.6498
▁səsini	-10.6498
▁buraxdı	-10.6503
lie	-10.6504
▁sarsı	-10.651
▁uşaqlıq	-10.6512
▁xəritəsi	-10.6517
övq	-10.6521
▁qaynaq	-10.6525
▁Söz	-10.6526
▁dalğaların	-10.6528
▁başqaları	-10.6532
▁danışmağı	-10.6534
ıcı	-10.6535
▁anlamır	-10.6536
▁tik	-10.654
nder	-10.6543
▁qeydlər	-10.6544
▁Fransisko	-10.6544
▁Nəyi	-10.6548
▁deyilmiş	-10.6548
fet	-10.6552
▁danışacağı	-10.6558
▁vəziyyətini	-10.6561
▁oxu	-10.6561
▁saya	-10.6561
▁el	-10.6575
▁növlərin	-10.6578
metr	-10.658
▁kaf	-10.6584
▁düzəltmə	-10.6584
▁göründüyü	-10.6584
sen	-10.6588
▁Fizik	-10.6618
▁rəqəmlər	-10.6619
▁Min	-10.6626
▁dəyişikliyin	-10.6626
onun	-10.6627
ayın	-10.6628
▁gələcəyin	-10.6649
▁dəyişdirmə	-10.665
▁bitdi	-10.6659
▁Avropanı	-10.6675
▁bənzə	-10.6676
ızla	-10.6678
▁yollarda	-10.6697
▁öyrənməyi	-10.6704
acağım	-10.6706
liyə	-10.6713
▁təşkilatı	-10.6715
ilməz	-10.6724
▁texnologiyalar	-10.6724
ızdır	-10.6726
▁qüvvələri	-10.6731
ifadəsi	-10.6739
to	-10.6741
▁qoyun	-10.6745
mda	-10.6748
mamaq	-10.6749
ici	-10.675
R	-10.675
malarını	-10.675
▁eşidilmə	-10.6753
pat	-10.6778
rəsində	-10.6778
▁Kitablar	-10.6779
▁alına	-10.6779
▁Art	-10.6786
▁çatdı	-10.6804
▁oğlu	-10.6806
▁kitabları	-10.6806
▁göster	-10.6808
▁mətn	-10.681
▁bədənin	-10.6813
▁tozların	-10.682
▁verilməsi	-10.6825
mamız	-10.6825
▁təcrübəm	-10.6828
lərim	-10.683
ındakı	-10.6838
▁islahat	-10.6839
rəb	-10.6846
ürsünüz	-10.6849
▁maddəsi	-10.6858
▁keçirmiş	-10.6859
▁çıxarıl	-10.6864
▁olunma	-10.6865
▁çağı	-10.6867
oya	-10.687
▁bitir	-10.6872
ımı	-10.6878
▁müşahidələr	-10.6882
▁yanım	-10.6883
▁çıxaran	-10.6885
▁görmədiyi	-10.6892
tiş	-10.6899
▁ingiliscədə	-10.6902
eri	-10.6903
▁şansım	-10.6905
▁nöqtəsi	-10.6908
▁həbsdə	-10.6909
çısı	-10.6909
▁quyru	-10.6917
▁cəmiyyəti	-10.6917
▁maşınların	-10.692
ıldığı	-10.6926
▁Digəri	-10.6926
sek	-10.6934
▁yönəl	-10.6936
ləş	-10.695
▁virus	-10.6952
▁Avropada	-10.6956
▁yüksəl	-10.6959
lay	-10.696
qda	-10.6961
▁hazırlaş	-10.6962
şün	-10.6963
j	-10.6974
▁dağıdı	-10.6977
▁id	-10.6977
iyim	-10.6985
▁köç	-10.6987
▁otel	-10.6992
▁fra	-10.6997
▁gördüyü	-10.6998
▁bədən	-10.7
▁şəbəkə	-10.7005
▁qadir	-10.7021
▁ötürü	-10.7024
12	-10.7027
▁əşya	-10.7034
▁hüquq	-10.7042
▁etməlidir	-10.7043
yəndə	-10.706
▁modeli	-10.7061
▁kollec	-10.707
lanan	-10.707
mamışdı	-10.7073
▁üzüm	-10.7078
▁çağırır	-10.7085
▁Mil	-10.7085
▁ruha	-10.7088
əyir	-10.7091
▁etməmi	-10.7092
▁xəstəliyi	-10.7095
▁çatma	-10.7098
▁təbiəti	-10.7103
▁çəkmiş	-10.7107
▁yoldaş	-10.7112
▁Beyn	-10.7113
▁yanımız	-10.7113
▁sürdü	-10.7114
▁atomların	-10.7118
▁zirvə	-10.7122
əsində	-10.7126
▁yetir	-10.713
ce	-10.7131
lməsi	-10.7132
▁yazıları	-10.714
▁dəyişməli	-10.7143
▁alça	-10.7151
mır	-10.7154
▁Tu	-10.7157
▁Mah	-10.7157
▁cəm	-10.716
▁sevin	-10.7177
mes	-10.7189
▁inkişafı	-10.7206
▁ünvan	-10.7207
▁temperatur	-10.721
▁özəl	-10.7214
aqlı	-10.7221
▁Şəkil	-10.7223
▁Glob	-10.724
▁kağızı	-10.724
▁riyaziyyatın	-10.7244
▁içəridə	-10.725
▁unutma	-10.7255
▁tül	-10.7256
▁tərəfdar	-10.7256
▁sualın	-10.7259
▁dönü	-10.7263
▁qəz	-10.7264
▁Orta	-10.7264
the	-10.7265
andır	-10.7268
mamış	-10.7269
▁Ailə	-10.7272
▁lideri	-10.7273
rek	-10.7282
▁inana	-10.7285
şəm	-10.7293
▁düyməsi	-10.7293
▁təsirlən	-10.7297
▁sənaye	-10.7302
▁işlədiyi	-10.7305
▁Wal	-10.7309
▁öyrətdi	-10.7311
▁yazdığım	-10.7313
▁Angel	-10.7319
▁neçəsi	-10.7319
özün	-10.7323
üb	-10.7326
▁Məqsəd	-10.7331
▁alətin	-10.7335
ua	-10.7338
▁bilməyəcəyim	-10.734
▁sizlə	-10.734
▁öldürül	-10.7342
▁oxuma	-10.7343
edici	-10.7345
nağı	-10.7347
▁insanlı	-10.7349
▁etdiyimizdə	-10.7352
▁daşı	-10.7356
▁uzaqlaşdı	-10.7359
ren	-10.736
▁lin	-10.7363
▁yolları	-10.7365
▁sistemləri	-10.7369
lacaq	-10.7369
▁ifaçı	-10.7379
ont	-10.7379
▁iplik	-10.7381
▁işində	-10.7383
▁İşim	-10.739
▁çıxdığım	-10.739
cəyiniz	-10.7399
qərar	-10.7404
▁Ban	-10.7412
▁siyahısın	-10.7413
▁yad	-10.7419
▁vasitəsini	-10.743
imə	-10.7432
▁İqtisadi	-10.7433
lərimi	-10.7435
▁verdiyim	-10.7435
▁kur	-10.7443
lerin	-10.7449
lanmaq	-10.745
alaca	-10.7456
▁Hamını	-10.7456
▁sürfə	-10.7459
▁sülh	-10.7461
▁tezliklə	-10.7463
▁səsim	-10.7466
▁dura	-10.7471
▁olmadı	-10.7473
▁bağlar	-10.7476
▁Onda	-10.7477
ab	-10.7477
▁dənizdə	-10.7487
məlum	-10.749
▁Görü	-10.7496
▁əsrlər	-10.7507
port	-10.7516
▁Yu	-10.7525
▁ruhun	-10.7526
▁düşərgə	-10.7535
▁mənəm	-10.7548
▁nitq	-10.7551
▁təyyarələr	-10.7554
▁dəyərli	-10.7555
▁demir	-10.756
▁bəd	-10.7561
▁qoydu	-10.7564
▁dənəsi	-10.7566
ho	-10.757
▁xeyr	-10.7572
▁önəmi	-10.7573
▁edəcəyi	-10.7578
▁qalı	-10.7579
mist	-10.7579
qal	-10.7582
arılar	-10.7589
yirsən	-10.7591
▁dövrlərin	-10.7592
▁həyatımız	-10.7598
lardı	-10.7601
arası	-10.7603
lıyı	-10.7611
▁edəcəyim	-10.7619
▁proyekt	-10.7629
▁izlər	-10.763
imle	-10.7631
ünü	-10.7632
▁yum	-10.7634
▁co	-10.7641
ndır	-10.7652
ith	-10.7662
zlə	-10.7662
usu	-10.7669
▁gedirdi	-10.7671
▁maşınla	-10.7681
▁elektromaqn	-10.7687
▁yetiş	-10.769
ibi	-10.7691
dırıcı	-10.7696
▁düşünm	-10.77
▁sektor	-10.7703
mürdü	-10.7704
ebilir	-10.7706
▁cins	-10.7707
müddətli	-10.7709
ney	-10.7714
▁qaçı	-10.7717
▁təlim	-10.7723
▁Kle	-10.7726
▁çevrili	-10.7727
hone	-10.7729
▁şərəf	-10.7731
ps	-10.7731
▁düşmüş	-10.7736
▁gördüyünü	-10.7737
▁toqquş	-10.7738
▁Öl	-10.774
▁musiqini	-10.774
▁Mövcud	-10.7741
▁çöldə	-10.7741
▁qap	-10.7743
▁Hara	-10.7744
lti	-10.7744
▁bal	-10.7744
taq	-10.7744
düyünü	-10.7745
▁başqaların	-10.7748
▁pillə	-10.7749
▁quyu	-10.775
öcüzə	-10.7751
▁mikro	-10.7753
umullar	-10.7753
▁Planet	-10.7757
bənövşəyi	-10.7757
▁ultra	-10.7757
▁Dizayn	-10.7757
▁Virgin	-10.7757
▁Çikaqo	-10.7757
imbabve	-10.7757
pərəstişkarı	-10.7757
▁Bronx	-10.7757
▁Challenge	-10.7757
▁Flober	-10.7757
▁Gözəgörünməz	-10.7757
▁Mumbai	-10.7757
▁Mükafat	-10.7757
▁Mərasim	-10.7757
▁Sürfə	-10.7757
▁antropoloq	-10.7757
▁avadanlığı	-10.7757
▁ağlasığmaz	-10.7757
▁brauzer	-10.7757
▁danaayağı	-10.7757
▁dekabr	-10.7757
▁doğuşdan	-10.7757
▁eject	-10.7757
▁ekspedisiyalar	-10.7757
▁elastik	-10.7757
▁fəlsəfə	-10.7757
▁interfeys	-10.7757
▁ixtisas	-10.7757
▁kampaniya	-10.7757
▁kariyeram	-10.7757
▁kommunist	-10.7757
▁kontaminasiya	-10.7757
▁körpə	-10.7757
▁meksikalı	-10.7757
▁minnətdar	-10.7757
▁münaqişə	-10.7757
▁məfhum	-10.7757
▁praktik	-10.7757
▁rasional	-10.7757
▁saptayıcı	-10.7757
▁sayborq	-10.7757
▁stansiyası	-10.7757
▁süratlerini	-10.7757
▁sıcaklıklar	-10.7757
▁sıçra	-10.7757
▁tolerantlı	-10.7757
▁təsadüfi	-10.7757
▁təəssüratı	-10.7757
▁əcnəbi	-10.7757
▁Cazibə	-10.7757
▁Kaliforniya	-10.7757
▁Köhnə	-10.7757
▁Oxuma	-10.7757
▁Siyahı	-10.7757
▁Statisti	-10.7757
▁Xoşbəxt	-10.7757
▁homoseksuall	-10.7757
▁kolibri	-10.7757
▁mercekleme	-10.7757
▁sünnət	-10.7757
▁xatirə	-10.7757
▁zəlzələ	-10.7757
▁İsrailli	-10.7757
▁Xristian	-10.7757
▁bütöv	-10.7757
▁kozmolo	-10.7757
▁perspektiv	-10.7757
▁yekunlaşdır	-10.7757
▁çarpıştırı	-10.7757
▁ardıcıl	-10.7757
▁karyera	-10.7757
▁Kunst	-10.7757
▁bıçaq	-10.7757
▁etkileşmiyor	-10.7757
▁kolleksiyası	-10.7757
▁masaüstü	-10.7757
▁məyus	-10.7757
▁profili	-10.7757
▁quraqlıq	-10.7757
▁santimetr	-10.7757
▁sarmal	-10.7757
▁İstifadə	-10.7757
▁şou	-10.7757
▁istintaq	-10.7757
▁məhkum	-10.7757
▁xətkeş	-10.7757
▁yanlış	-10.7757
▁Brizban	-10.7757
▁klavesin	-10.7757
▁Robert	-10.7757
▁nötrino	-10.7757
▁səbirsizl	-10.7757
▁ekzot	-10.7757
▁çirkin	-10.7757
▁instinkt	-10.7757
▁əlçat	-10.7757
▁Konqo	-10.7757
▁Scalia	-10.7757
▁Yağış	-10.7757
▁peşmançılıq	-10.7757
▁şərəfləndir	-10.7757
▁Koreya	-10.7757
▁hesaplayabil	-10.7757
▁Ciddi	-10.7757
▁region	-10.7757
▁WMAP	-10.7757
▁görülməmiş	-10.7757
uşdurucu	-10.7757
▁Martinez	-10.7757
▁şalvar	-10.7757
recht	-10.7757
▁Lesli	-10.7757
▁Partlama	-10.7757
▁rəqabət	-10.7757
▁tapıntı	-10.7757
▁Rəsm	-10.7757
▁istiqamətləndir	-10.7757
▁uçurttu	-10.7757
▁mövqe	-10.7757
▁rəğbət	-10.7757
missiyasını	-10.7757
▁hirsl	-10.7757
▁Jack	-10.7757
▁cinayət	-10.7757
▁artmaqda	-10.7757
▁pəncərə	-10.7757
▁tökül	-10.7757
▁ictimaiyyət	-10.7757
▁məc	-10.7757
ebilirler	-10.7758
▁lisey	-10.7758
▁dinamik	-10.7758
▁helium	-10.7758
▁süper	-10.7758
▁bügün	-10.7758
▁düzəltmişdi	-10.7758
▁davranışlar	-10.7758
▁Şəhər	-10.7758
▁orqanizm	-10.7758
▁Meteorit	-10.7758
▁mənzərə	-10.7758
▁vərdiş	-10.7758
▁İslam	-10.7758
▁uğursuzluq	-10.7758
▁irəliləmə	-10.7758
▁qadağa	-10.7758
▁trans	-10.7758
▁uğursuz	-10.7758
▁əməkdaşlı	-10.7758
▁Hadisə	-10.7758
▁feil	-10.7758
▁Dörd	-10.7758
▁mübadilə	-10.7758
▁galaksi	-10.7758
▁atlet	-10.7758
▁ağılsız	-10.7758
▁müsəlman	-10.7758
▁tövsiyə	-10.7758
▁çıxartdı	-10.7758
▁gözümüzü	-10.7758
▁qabığı	-10.7758
▁istiqamətlənir	-10.7758
▁daşqın	-10.7758
▁1990	-10.7758
▁körfəz	-10.7758
▁həzz	-10.7759
▁məhsuldar	-10.7759
▁sürətləndirici	-10.7759
▁Kris	-10.7759
▁Qarşı	-10.7759
pote	-10.7759
▁qarşısı	-10.7759
▁kölgə	-10.7759
▁Divar	-10.7759
▁sərmayə	-10.7759
▁həcm	-10.7759
▁işgəncə	-10.7759
▁telepat	-10.7759
▁quracağı	-10.7759
▁piyada	-10.7759
▁millətlər	-10.776
▁müdirin	-10.776
▁quraşdırılm	-10.776
▁deməmişdi	-10.776
▁faciə	-10.776
▁nəvələrim	-10.776
▁azadlığı	-10.776
▁Yüz	-10.776
▁məramı	-10.776
▁Peak	-10.7761
▁rəhmət	-10.7761
▁idrak	-10.7761
▁sevimli	-10.7761
▁bağışlayar	-10.7761
▁beyniniz	-10.7762
▁müqəddəs	-10.7762
▁yayındır	-10.7762
▁Kino	-10.7762
▁Uzaq	-10.7762
▁dönüş	-10.7762
▁elit	-10.7762
▁Nitqimi	-10.7762
▁Tamaşaçılar	-10.7762
▁bölüşdürülməsi	-10.7763
▁Sudanda	-10.7763
zərində	-10.7763
▁konsert	-10.7763
▁milyarderlər	-10.7763
▁Nəsil	-10.7763
▁artması	-10.7764
▁Ruanda	-10.7764
▁doğulur	-10.7764
▁mütəxəssisləri	-10.7764
▁sığınaca	-10.7764
▁çəkildiyi	-10.7764
▁ətrafımda	-10.7764
▁etsəydi	-10.7764
▁yağıntı	-10.7764
▁kameranızı	-10.7764
sper	-10.7765
▁Avtomobil	-10.7766
▁Test	-10.7766
▁yadda	-10.7766
talyan	-10.7766
▁pivə	-10.7767
▁evliliklərin	-10.7767
ribən	-10.7767
▁ordu	-10.7767
▁bağlamaq	-10.7767
▁faktor	-10.7767
▁Ardın	-10.7767
▁cild	-10.7767
▁çatacaq	-10.7767
▁Müəllif	-10.7768
▁önümüzd	-10.7768
▁çevrilmiş	-10.7768
▁tapmalı	-10.7768
▁limanı	-10.7768
▁Hansı	-10.7768
▁sonuncu	-10.7769
▁qasırğası	-10.7769
▁standartların	-10.7769
▁köynək	-10.7769
ahiyyəti	-10.7769
▁xro	-10.777
▁xatırlayırsınız	-10.777
▁sərhədsiz	-10.7771
▁ehtiyat	-10.7771
▁investorlar	-10.7772
▁danışırsınız	-10.7772
▁köçürülməsi	-10.7772
▁hamilə	-10.7772
▁qazanmış	-10.7772
▁oturmuşdu	-10.7772
▁kəlmə	-10.7773
ış	-10.7773
▁Səbəb	-10.7774
▁oxumuş	-10.7775
ovsun	-10.7775
▁çəp	-10.7776
▁texnologiyamız	-10.7776
▁fikirləşdiyiniz	-10.7776
▁həyəcanlı	-10.7776
▁Mag	-10.7777
▁Sibir	-10.7777
▁yaxınlığın	-10.7778
ropik	-10.7778
▁reklamlarda	-10.7779
▁hərarət	-10.7779
▁1600	-10.778
▁Oğlum	-10.778
▁ianə	-10.778
▁inanırsınız	-10.7781
▁almışdı	-10.7781
▁izləyən	-10.7781
▁duyduğunu	-10.7781
▁barmağı	-10.7782
▁qızdır	-10.7782
▁başlayacaq	-10.7782
▁partlayış	-10.7782
▁Fakt	-10.7783
▁atıldı	-10.7784
▁gedəcək	-10.7784
▁dostunuz	-10.7785
▁uzadı	-10.7785
▁düşmüşdü	-10.7787
▁sürüşmə	-10.7787
etten	-10.7788
▁Gill	-10.7789
cımız	-10.7789
▁bənzərsiz	-10.779
▁Almaniya	-10.779
eti	-10.7792
▁zola	-10.7792
▁kasıblığı	-10.7792
▁İraq	-10.7793
▁No	-10.7793
▁düşdüyü	-10.7793
▁sevmək	-10.7793
▁DV	-10.7793
malay	-10.7794
gis	-10.7794
şəng	-10.7795
▁gəminin	-10.7795
pp	-10.7795
lir	-10.7795
▁auditoriya	-10.7796
ılmış	-10.7797
▁Pis	-10.7798
▁zərur	-10.7799
▁aldınız	-10.7799
▁1900	-10.7801
▁olmamız	-10.7802
eyh	-10.7802
▁adlandırıb	-10.7804
▁Mich	-10.7804
now	-10.7804
▁uçurlar	-10.7804
▁anlayışımızı	-10.7807
▁Klee	-10.7807
▁düzdür	-10.7808
▁təbəqəsində	-10.7808
▁Sch	-10.781
hədsiz	-10.7811
▁kar	-10.7812
▁gəzər	-10.7812
▁ölçümləri	-10.7812
edi	-10.7812
▁Otur	-10.7813
▁keçirilə	-10.7813
▁itirdik	-10.7813
▁Doğu	-10.7813
▁astronavtları	-10.7814
▁nəh	-10.7814
▁ətraflarında	-10.7815
▁mülk	-10.7815
tiqam	-10.7815
▁bilgi	-10.7817
▁düşüncəli	-10.7818
▁Film	-10.782
▁Bağışla	-10.7821
▁çatışmazlı	-10.7822
▁Tanzaniyada	-10.7823
▁Jer	-10.7824
▁istəmədiyi	-10.7825
▁isim	-10.7825
▁daşıyan	-10.7826
▁açıqca	-10.7827
▁Sabah	-10.783
▁gözünü	-10.7831
▁ayaqlarımı	-10.7831
▁mərhələlər	-10.7832
▁kaş	-10.7832
▁qayıtdıq	-10.7833
▁sintez	-10.7834
▁silik	-10.7837
▁Uşaqlıq	-10.7837
▁götürürdü	-10.7839
▁topladı	-10.7839
▁təlimat	-10.784
▁Part	-10.784
▁gərək	-10.7841
ənə	-10.7841
▁qurulması	-10.7842
▁uğrun	-10.7842
ləşmə	-10.7842
uca	-10.7842
▁nənəyə	-10.7843
▁Kimliyimiz	-10.7844
▁qul	-10.7845
▁içki	-10.7846
▁tanımırdı	-10.7847
▁arzum	-10.7848
▁aldığını	-10.7849
▁naxış	-10.785
▁dava	-10.785
əfil	-10.7853
▁Von	-10.7853
▁Beş	-10.7853
▁axtarışında	-10.7854
▁çevirir	-10.7859
▁günümüz	-10.786
▁sürər	-10.7861
▁göstərmiş	-10.7863
▁miqrasiya	-10.7863
▁yadplanetliləri	-10.7863
deki	-10.7866
▁yararlan	-10.7867
▁salan	-10.7867
▁xəstəliy	-10.7867
▁səhvləri	-10.7867
▁ideyaların	-10.787
▁illərin	-10.7871
▁veb	-10.7872
▁sahillərində	-10.7873
▁ağsaqqallar	-10.7876
şaf	-10.7876
▁eşitdikləri	-10.7877
▁qutular	-10.7877
▁təcrübənin	-10.7877
▁göndərdik	-10.7881
▁Mac	-10.7882
▁yerlərində	-10.7882
▁qurub	-10.7885
▁məsuliyyətimiz	-10.7885
▁qurğusu	-10.7887
▁ağlamaq	-10.7891
▁yarandığı	-10.7891
arahat	-10.7893
▁vaxtıdır	-10.7896
▁nəzərə	-10.7904
▁göndərmək	-10.7904
▁Hindistandakı	-10.7904
▁söndür	-10.7906
▁immiqra	-10.7906
▁çıxacağı	-10.7907
▁yaşın	-10.7912
zin	-10.7913
pmalar	-10.7916
▁bəyəndi	-10.7919
▁Hamınız	-10.7919
▁uzanı	-10.792
▁axtarışda	-10.7922
nuz	-10.7924
▁izləmək	-10.7924
▁soruşu	-10.7924
▁zehni	-10.7928
▁yumru	-10.7929
▁kabin	-10.793
▁qarşılaya	-10.7932
nasında	-10.7933
▁səbəblə	-10.7934
▁paylaşdığı	-10.7934
▁Kişilər	-10.7938
▁Xal	-10.7941
▁dəy	-10.7942
▁artığın	-10.7942
land	-10.7947
▁fond	-10.795
▁Əliniz	-10.7952
▁dəmir	-10.7958
ark	-10.796
▁ürəyi	-10.7961
▁böyüyən	-10.7961
▁sarayın	-10.7964
eler	-10.7965
▁çe	-10.7966
▁mərkəzlərində	-10.7966
ışdır	-10.7969
▁afrikalılar	-10.7969
▁stress	-10.7969
▁çoxunuz	-10.7972
▁yolumuz	-10.7972
ğım	-10.7976
▁raketlər	-10.7976
▁istədiklərim	-10.7977
▁anlarında	-10.7978
▁yana	-10.7978
▁dediklərini	-10.7978
▁qulum	-10.7979
▁mussonunda	-10.7979
▁cərəyanın	-10.7982
▁boşal	-10.7989
▁yatağ	-10.799
▁Ja	-10.7991
▁təsəvvürüm	-10.7993
▁köməy	-10.7993
▁tapdığımız	-10.7996
▁Ayk	-10.7997
▁etdiril	-10.7998
▁Çoxu	-10.8001
▁düzəldir	-10.8003
▁tələsi	-10.801
▁oynamaq	-10.8011
lidir	-10.8012
▁göstərilir	-10.8016
▁Roma	-10.8017
re	-10.8021
▁effekt	-10.8022
ğunu	-10.8022
narın	-10.8029
▁burdakı	-10.8029
otel	-10.8029
▁dəstəkləyə	-10.8037
▁daral	-10.8039
▁təhsilli	-10.804
▁razılaşa	-10.8042
ülü	-10.8046
▁ölümünü	-10.8048
luğu	-10.8049
▁silindr	-10.8053
▁peykin	-10.8055
▁qoca	-10.8055
▁iylən	-10.8059
▁yadım	-10.8061
▁qər	-10.8063
▁fikirləşmir	-10.8064
▁İşığı	-10.8064
▁edəcəyiniz	-10.8064
▁dörddə	-10.8067
▁yazan	-10.8068
lərdir	-10.8069
▁keçməyin	-10.807
▁Yaş	-10.807
▁qurğuların	-10.807
▁sürdüyü	-10.8074
▁Char	-10.8074
▁şifrələy	-10.8074
rini	-10.8074
▁aça	-10.8076
▁mənbələrin	-10.8078
▁başlamışdı	-10.8091
▁üfür	-10.8091
▁yadınızda	-10.8093
▁Ancel	-10.8094
▁təcrübələrim	-10.8097
▁istiləşmə	-10.8097
▁çalışsa	-10.8099
▁böhranı	-10.81
▁seçkilər	-10.8101
▁Kamera	-10.8102
▁fikirləşə	-10.8105
▁axını	-10.8107
dədir	-10.8107
low	-10.8113
mdən	-10.8113
▁təzyiqlər	-10.8115
▁edəcəyimiz	-10.8116
▁qucaqlama	-10.812
▁şəra	-10.8121
▁Təşkilatı	-10.8124
▁vad	-10.8127
▁İyun	-10.8128
ləğ	-10.8128
▁ap	-10.8131
ber	-10.8132
▁seçimim	-10.8137
▁şansı	-10.8138
▁motivi	-10.8142
▁Marionu	-10.8145
▁gözləməli	-10.8147
▁Monte	-10.8155
▁iplikləri	-10.8158
▁tezliklər	-10.816
▁getməyi	-10.8163
indeki	-10.8163
liyim	-10.8164
▁Qayğı	-10.8165
▁istəmirdi	-10.8166
durub	-10.8168
irli	-10.817
▁görmüşdü	-10.817
▁val	-10.817
▁doğulan	-10.8174
▁şəhərin	-10.8177
▁çağır	-10.8179
hon	-10.818
▁ənənəsini	-10.8184
▁Ər	-10.8184
▁bağları	-10.819
▁dolduru	-10.8194
▁əlaqəsi	-10.8195
▁getmişdi	-10.8196
▁müzakirələri	-10.8198
▁dəyişdirdi	-10.82
▁Tanrını	-10.8201
ker	-10.8205
▁qalxan	-10.8209
▁Yazı	-10.8212
▁ətrafı	-10.8215
▁Car	-10.8216
▁bacarsa	-10.822
▁solda	-10.8221
▁yaxınlaşı	-10.8224
▁etməmişdi	-10.8228
▁tutardı	-10.8229
▁Başqaların	-10.8234
▁səbət	-10.8234
▁özünüzü	-10.8235
▁düşünmür	-10.8238
▁dalğası	-10.824
▁termin	-10.8244
▁sözlərin	-10.8244
▁cəsarəti	-10.8245
▁Kam	-10.8248
▁hissədə	-10.8248
▁qığılcım	-10.825
▁başlayı	-10.8252
▁edirdilər	-10.8252
▁gətirməy	-10.8256
▁oynayırdı	-10.8256
▁qalmadı	-10.8258
▁zi	-10.8258
▁sevdiyi	-10.8259
mayacağı	-10.8259
▁təsdiq	-10.8259
məmiş	-10.8264
▁xeyri	-10.8269
▁vətən	-10.8269
▁açma	-10.8271
▁verim	-10.8275
▁yoxsullar	-10.8285
▁dayandığı	-10.829
▁parçacıqlarını	-10.8291
iyaziyyat	-10.8291
▁evlən	-10.8293
▁öyrətdik	-10.8294
▁etməmiş	-10.8295
▁yaşadığımız	-10.8295
▁peşə	-10.8296
▁İngiliscədə	-10.8297
usk	-10.8301
leksi	-10.8302
▁yarayır	-10.8305
▁tük	-10.831
▁önündə	-10.8313
▁yığdı	-10.8316
ec	-10.8319
▁başlayacağı	-10.8321
▁boyda	-10.8324
▁istiliyi	-10.8326
▁məsafədə	-10.8327
▁musiqidən	-10.8329
əki	-10.833
▁zal	-10.8331
▁itiri	-10.8339
▁yerləşdiri	-10.8341
▁ten	-10.8347
▁onillikdə	-10.8347
bir	-10.8349
▁düşündüyümü	-10.8354
▁məhbusu	-10.8357
▁genişləndir	-10.8359
▁oğlun	-10.8361
▁tamaşaçıları	-10.8362
avam	-10.8362
▁spek	-10.8365
▁uy	-10.8365
▁səthini	-10.8372
▁öyrənəcə	-10.8373
▁imti	-10.8377
▁etdiyimi	-10.8378
▁sistemlərin	-10.8378
▁bişir	-10.838
▁sayə	-10.8387
▁dillərin	-10.8388
▁qoyduq	-10.8388
▁imzala	-10.8389
▁görülə	-10.8392
▁göndərirdi	-10.8403
▁Hamısını	-10.8405
▁effektlər	-10.8416
▁məsələsin	-10.8426
▁çatdırı	-10.8432
▁deyilsə	-10.8433
▁əziz	-10.8434
▁zirvəsi	-10.8435
▁ardın	-10.8435
▁Del	-10.8435
▁əksəriyyəti	-10.8438
masını	-10.8441
▁ağlayır	-10.8444
▁Dey	-10.845
▁ü	-10.8453
imli	-10.8454
▁sərhəddin	-10.8459
▁fəlakətlər	-10.8461
▁fa	-10.8464
üdür	-10.8465
▁Win	-10.8467
atdı	-10.8476
▁həyəcanlan	-10.8478
▁şəf	-10.8485
▁yerləşir	-10.8486
▁dəst	-10.8486
▁malikdir	-10.849
▁ritualları	-10.8493
▁tullan	-10.8495
▁təhsilin	-10.8495
ges	-10.8497
▁deyər	-10.8503
▁inkişafın	-10.8504
▁Cin	-10.8507
süz	-10.8508
▁gülün	-10.8508
qla	-10.8512
▁durur	-10.8528
▁daşıdığı	-10.8529
▁qoyulu	-10.8537
▁tele	-10.8537
▁Yuxarıda	-10.8543
▁limitləri	-10.8545
rada	-10.8547
▁ölən	-10.8552
▁önün	-10.8553
▁dedikdə	-10.8556
▁şəbəkələr	-10.8562
▁dilimiz	-10.8567
▁işçi	-10.8576
▁şahinlər	-10.8576
▁əsəbləş	-10.8579
▁danışdığım	-10.8582
▁şirkətlərin	-10.8585
rcan	-10.8585
▁əhvalatın	-10.8587
öycəqarğa	-10.8588
▁təzyiq	-10.8588
▁Araşdırma	-10.8593
▁səpələ	-10.8594
▁uşağım	-10.8596
▁həyatımızı	-10.8596
▁bilməm	-10.8597
▁fon	-10.8599
▁gəlməyə	-10.8599
▁gətirmir	-10.8601
məklə	-10.8613
dəcək	-10.8618
▁canlılar	-10.862
▁inanı	-10.8627
▁kimy	-10.8631
▁ö	-10.8632
eme	-10.8634
▁qurumların	-10.8637
▁inam	-10.8638
▁aparılı	-10.864
▁konu	-10.8649
▁qayıtma	-10.865
▁ştatı	-10.866
go	-10.8667
▁hekayəm	-10.8681
qi	-10.8692
▁kullan	-10.8693
▁Naziri	-10.8696
▁getm	-10.8697
▁öyrədir	-10.8701
▁bənzəyirdi	-10.8701
▁qalxı	-10.8703
▁şifrələmə	-10.871
▁notu	-10.8713
rafi	-10.8713
▁genlərin	-10.8714
paq	-10.8715
zacağımı	-10.8717
▁məlumatın	-10.872
▁birləşdirmə	-10.8722
▁çıxmalı	-10.8727
gs	-10.8727
▁Bitkilər	-10.8733
ərcümə	-10.8735
▁dizaynerlər	-10.8738
▁gəlmədi	-10.8738
▁tələbələrin	-10.8743
▁çatdır	-10.8744
▁kitabım	-10.8745
adına	-10.8747
▁mənasın	-10.8749
▁Alam	-10.8749
üs	-10.8754
▁Wa	-10.8761
▁istəyə	-10.8761
layır	-10.8763
▁alimlərin	-10.8765
▁qıza	-10.8766
üclü	-10.8768
anız	-10.8769
▁sıxlaş	-10.8774
▁nöqtələri	-10.8775
▁bütünlük	-10.8777
ital	-10.8778
▁yanğınlar	-10.8779
▁sübutu	-10.8779
▁götürməy	-10.878
tonlu	-10.8783
▁dayanı	-10.8783
sun	-10.8785
▁debatları	-10.8785
▁aktyorlu	-10.8788
▁xatırlatm	-10.8788
▁gözündə	-10.879
▁mərhəmətl	-10.8791
▁okeanları	-10.8791
▁eynidir	-10.8794
▁Ber	-10.8803
▁ailəsini	-10.8806
▁xa	-10.8807
▁yazılmışdı	-10.8821
▁prosesdi	-10.8826
▁olmasında	-10.8833
▁Əmi	-10.8833
▁ayağını	-10.8841
▁bilin	-10.8842
gün	-10.8843
▁təzyiqi	-10.8848
▁baka	-10.8849
▁anti	-10.8855
▁sistemdə	-10.8856
▁məktəblərində	-10.8856
dığımı	-10.8857
arici	-10.886
▁keçərdi	-10.8862
▁xortumu	-10.8868
▁yaşandı	-10.8874
▁araşdırdı	-10.8883
▁gəzə	-10.8886
▁otağım	-10.8889
▁Diqqəti	-10.8892
▁yaradılı	-10.8894
▁məzmunu	-10.8902
▁qurula	-10.8902
▁izləyi	-10.8905
atında	-10.8906
▁dişi	-10.8912
▁ümidsiz	-10.8915
▁mətni	-10.8921
▁elementi	-10.8923
ça	-10.8925
▁qutuda	-10.8928
ino	-10.8929
▁tutul	-10.893
▁insalar	-10.8935
▁nisbətini	-10.8939
nməyən	-10.8941
▁yazıl	-10.8943
▁ləkələr	-10.8953
ildə	-10.8954
▁fikirləşmə	-10.8956
▁səslənə	-10.8959
▁verməsi	-10.8965
▁se	-10.897
▁nömrəl	-10.8972
▁qəza	-10.8993
çe	-10.8993
▁qurduq	-10.8995
▁Həbsxana	-10.9001
nes	-10.9008
▁siyahısı	-10.902
▁əf	-10.9022
▁siyahını	-10.9024
ich	-10.9026
▁baha	-10.9026
▁dalğa	-10.9031
tu	-10.9032
▁fikrimi	-10.9036
▁genom	-10.9037
▁təhlükələr	-10.9041
▁Fizika	-10.9042
▁utanma	-10.9043
▁dağıl	-10.9044
tmək	-10.9045
▁çəksə	-10.9049
lendi	-10.905
▁dəstəyin	-10.9052
yat	-10.9054
▁Elm	-10.9061
▁şüa	-10.9062
adım	-10.9063
▁dəyişdir	-10.9064
▁işləyirdi	-10.9085
▁Ora	-10.9085
▁dizaynları	-10.9088
▁Fleytalar	-10.9089
▁kürəsi	-10.9094
men	-10.9096
▁institutlar	-10.9099
çt	-10.9102
▁girdi	-10.9108
▁esin	-10.9128
yən	-10.9139
▁Qalaktikalar	-10.9145
▁alimi	-10.9147
▁metod	-10.9148
▁Fərqli	-10.9153
▁yağışın	-10.9154
▁əməliyyat	-10.9158
▁birləşdirən	-10.916
▁xalqın	-10.9163
▁ömrüm	-10.9166
▁bükül	-10.9169
▁böyüdü	-10.9169
▁olaca	-10.917
98	-10.9173
iblər	-10.9173
▁qaydasın	-10.9176
▁təkərlərin	-10.9177
▁arxivi	-10.918
▁çıxması	-10.9182
▁danışacağ	-10.919
▁Qız	-10.919
▁görünər	-10.9193
▁qovuş	-10.9195
▁edilmə	-10.9195
tdi	-10.9196
▁qur	-10.9196
tura	-10.9197
▁Pr	-10.9203
▁dayandır	-10.9207
ollo	-10.9211
▁imtahanları	-10.9212
▁inandır	-10.9215
▁uçdu	-10.9218
▁hesablay	-10.922
▁Bill	-10.9232
məsini	-10.9232
▁dəyişmiş	-10.9236
▁canlıları	-10.924
▁otura	-10.925
▁əmr	-10.9259
mirdi	-10.9259
▁salmağ	-10.9271
əsən	-10.9277
nü	-10.9279
▁olmamış	-10.9288
▁kapital	-10.9291
▁sı	-10.9292
▁nümunəsi	-10.9298
▁kanallar	-10.9299
▁qaynaqlar	-10.93
amın	-10.9304
▁işıqlandırma	-10.9305
▁istəyər	-10.9309
▁yerləşdirdi	-10.931
▁görünüşün	-10.9311
▁səhifəsin	-10.9314
qiqətən	-10.9318
bat	-10.9318
▁versiyasın	-10.9321
▁Muzeyi	-10.9322
▁payla	-10.9327
▁Özün	-10.9328
▁sevgim	-10.9348
▁hüz	-10.9351
illi	-10.9353
▁Ve	-10.9353
cısı	-10.9358
laşdırmaq	-10.9366
▁hallarda	-10.937
▁neçəsin	-10.9377
məzdi	-10.9378
▁ali	-10.9387
▁olu	-10.939
ayda	-10.9394
▁Kü	-10.9396
▁arzusu	-10.9396
▁səbəblər	-10.941
▁şüasını	-10.9411
▁musiqiçilər	-10.9414
▁Atası	-10.9414
bət	-10.9415
laşdıra	-10.9417
▁mar	-10.9419
▁söhbətlər	-10.9419
▁dördü	-10.9421
▁sahilin	-10.9421
▁velosiped	-10.9432
▁qon	-10.9438
▁iqtisadiyyatı	-10.9445
▁ismarıc	-10.9446
▁davranır	-10.945
▁bəşəri	-10.945
▁baxışı	-10.9457
▁kameralar	-10.9458
▁Rol	-10.946
ıp	-10.9461
▁fikirləri	-10.9463
▁çatışm	-10.9471
▁St	-10.9475
fə	-10.9476
ispan	-10.9478
▁gə	-10.9481
inci	-10.9485
▁tanınması	-10.9491
▁haq	-10.9496
▁xarakter	-10.95
▁şərti	-10.9502
dırmaq	-10.9505
▁müştərilər	-10.9512
▁uzaqlaşa	-10.9514
tmış	-10.9514
▁iztirab	-10.9517
▁yapış	-10.9518
▁toxunma	-10.9525
ümüzü	-10.9527
▁seçə	-10.9527
▁Qızları	-10.954
▁həftələr	-10.9556
▁növlər	-10.9559
plikasiya	-10.9559
▁r	-10.9571
ızın	-10.9575
▁Deyi	-10.9576
▁verilməli	-10.9579
▁mər	-10.958
▁dəqiqlikl	-10.9581
ço	-10.9587
laşmış	-10.9589
yim	-10.9592
▁qaldırır	-10.9592
▁atmosferdə	-10.9594
▁məsuliyyətini	-10.9607
▁iflic	-10.9608
arlıq	-10.9615
pan	-10.9618
▁səy	-10.9626
▁gücün	-10.9634
▁öyrəni	-10.9642
lində	-10.9644
▁Uçu	-10.9645
use	-10.9648
▁Plan	-10.9652
▁xaricdə	-10.9654
▁kompüteri	-10.9658
dirdilər	-10.966
fin	-10.9664
▁görünüşləri	-10.9669
▁anlayışın	-10.9675
▁anlay	-10.9676
ac	-10.9677
▁çəkdiyim	-10.9679
▁yaxınların	-10.9683
▁beyni	-10.9686
nci	-10.9694
▁uz	-10.9697
▁Göz	-10.9697
▁nəzarətin	-10.9697
▁düymələri	-10.9699
▁göndəri	-10.9706
▁səh	-10.9711
▁Sara	-10.9714
▁düzləşdir	-10.9721
▁miqyası	-10.9723
▁saxlayı	-10.9726
▁smartfonlar	-10.9727
▁rəqəmin	-10.9727
sü	-10.9729
▁xanımı	-10.9729
▁keçirdi	-10.9735
nla	-10.9746
ildir	-10.9751
▁işlətdi	-10.9751
▁qarşıya	-10.9757
▁Amerikan	-10.9762
cin	-10.9766
▁qarış	-10.9775
▁getdiyi	-10.9783
▁xəritəni	-10.9785
tt	-10.9786
▁texnikalar	-10.9789
▁xərçəngi	-10.98
▁astronomlar	-10.9809
▁mövcudluğu	-10.9812
▁planları	-10.9812
▁olmağımızı	-10.9817
mişə	-10.9821
▁tər	-10.9822
▁başladığını	-10.9823
▁gəlməsin	-10.9835
▁şəklim	-10.9838
▁ustad	-10.9838
▁Kainatı	-10.9839
izm	-10.9841
▁çoxal	-10.9846
üt	-10.9851
▁cümlədə	-10.9853
əmişə	-10.9864
▁güd	-10.9865
▁İnsan	-10.9865
ert	-10.9866
▁bölgüsün	-10.9869
ic	-10.9871
▁fizi	-10.9873
▁qalıqları	-10.9875
▁azalma	-10.9885
əsiri	-10.9889
▁dəlilikdi	-10.9893
rc	-10.9894
▁dəqiqədə	-10.9894
ch	-10.9897
▁vasitəs	-10.9898
onu	-10.9906
▁itkin	-10.9923
▁üstünlüyü	-10.9924
▁ayaqqabıları	-10.9931
▁ölçülə	-10.994
▁Ye	-10.9942
▁üstü	-10.9943
▁şəxsləri	-10.9947
▁Go	-10.9958
ləşdirmə	-10.9961
▁elədi	-10.9969
▁proqramın	-10.997
öv	-10.9977
ick	-10.9977
▁Co	-10.9988
▁görər	-10.9988
▁kanal	-10.9993
▁eləmi	-10.9996
▁mon	-11
▁Məndə	-11
zu	-11.0001
rs	-11.0001
▁pal	-11.0002
ərin	-11.0002
of	-11.0005
▁hərəkətləri	-11.0009
iyəm	-11.0013
ov	-11.0018
ham	-11.0025
▁düzü	-11.0026
iyimiz	-11.0027
▁vəzifəsi	-11.0031
▁balacalar	-11.0032
▁pan	-11.0035
▁gecəni	-11.004
▁varlığ	-11.0043
▁Nəy	-11.0044
▁təpə	-11.0045
▁çarp	-11.0047
▁qurma	-11.0049
▁funksiyalar	-11.0051
▁sehrl	-11.0063
▁şam	-11.0064
yanın	-11.0065
səm	-11.0065
▁Orda	-11.0076
olu	-11.0078
almaq	-11.0079
▁sevi	-11.0086
▁seçki	-11.0091
rdakı	-11.0093
Tu	-11.0096
məyimizi	-11.0098
▁Ste	-11.0107
▁yığır	-11.0111
▁ləyaqəti	-11.0121
▁parçam	-11.0131
▁çölü	-11.016
▁Dağ	-11.0163
▁Kas	-11.0171
▁çalışmış	-11.0176
▁keçid	-11.018
ax	-11.0181
▁DN	-11.0183
▁ər	-11.0183
▁ışı	-11.0185
ığı	-11.0193
▁J	-11.0196
▁etməkdən	-11.0196
▁har	-11.0199
▁tərzimi	-11.02
▁atomları	-11.0201
▁oxuyar	-11.0206
▁Or	-11.0214
▁götürən	-11.0216
layan	-11.0238
▁texnologiyası	-11.0239
▁hərəkətlərini	-11.0245
▁qalmı	-11.0268
▁araşdırması	-11.0268
▁Deyil	-11.0272
▁yazıçıları	-11.0289
lg	-11.0297
▁saxla	-11.0309
▁məktəblərdə	-11.0317
▁bazarı	-11.0319
▁32	-11.0322
ft	-11.0323
▁görsən	-11.0324
rami	-11.0325
▁sürü	-11.0326
isal	-11.0328
▁anlamı	-11.033
mmer	-11.0332
▁işlərdə	-11.0336
▁Agentliyini	-11.0338
▁hökümətlə	-11.0338
▁babaları	-11.0349
▁əlaqələr	-11.035
▁gələnlər	-11.0351
ando	-11.0353
kdən	-11.0357
▁deməsi	-11.036
ezo	-11.0377
landa	-11.0378
mın	-11.0378
▁əsir	-11.038
▁bitkiləri	-11.0384
▁müşahidəsi	-11.0386
▁yet	-11.0387
▁görüşü	-11.0387
▁evliliy	-11.0388
nsə	-11.0392
▁Buf	-11.0397
▁ağlın	-11.0403
▁qrupun	-11.0404
imin	-11.0412
▁yapışı	-11.0414
▁Il	-11.0424
▁korlama	-11.0427
wi	-11.0432
ğini	-11.0439
▁Ruslar	-11.0443
ləşdir	-11.0444
▁dağı	-11.045
▁gəliş	-11.0455
▁seçdiyim	-11.0456
▁uçuşu	-11.0459
əcəklər	-11.0461
ekt	-11.0466
kanı	-11.047
▁qalx	-11.0479
▁söyl	-11.0486
▁hərflər	-11.0488
▁təriflə	-11.0488
▁bəşər	-11.049
rük	-11.0493
▁girir	-11.0506
▁maşınları	-11.0509
▁çatdırıl	-11.0511
▁Fərqi	-11.0512
▁təva	-11.0512
duğu	-11.0523
bəli	-11.0526
▁kökü	-11.0528
miyib	-11.053
▁reallaşdır	-11.0536
▁dayanar	-11.0538
▁ailəsi	-11.0542
▁öyrəndikləri	-11.0543
▁hissləri	-11.0544
▁genişlənməsin	-11.0547
▁Qalaktika	-11.0553
▁araşdırmanı	-11.0555
▁yazmağ	-11.0557
▁quruluşun	-11.0558
▁əyildi	-11.0562
▁formalaşması	-11.0563
llik	-11.0567
▁bəxşiş	-11.0567
▁bilməmiş	-11.0569
▁pay	-11.0569
▁kimlər	-11.0572
▁müştəriləri	-11.0575
▁müharibəsi	-11.0575
om	-11.0575
▁ağrısı	-11.0576
▁qabiliyyətlər	-11.0581
▁müdrikliyi	-11.0583
▁xəritələn	-11.0586
ono	-11.0587
▁yazılan	-11.0588
▁görəcəyi	-11.0595
madığını	-11.0596
▁əsaslan	-11.0601
▁ma	-11.0611
▁kompyuteri	-11.0629
▁qabiliyyətiniz	-11.0632
▁Agentliyin	-11.0638
▁şagirdlər	-11.0639
▁deyillər	-11.0641
▁nöqtəsin	-11.0647
dd	-11.0653
▁əraziləri	-11.0657
▁telefonlar	-11.066
▁Şi	-11.0666
▁kədər	-11.0671
hal	-11.0675
rdan	-11.0685
▁At	-11.0685
▁hüceyrələri	-11.0686
▁göstəriciləri	-11.0687
AP	-11.0689
▁oxumağı	-11.0704
▁əm	-11.0705
öh	-11.0706
▁qucaqlaya	-11.0708
▁orqanlar	-11.071
insə	-11.0711
▁sürfələr	-11.0725
▁qayıt	-11.0726
ord	-11.0726
▁tapır	-11.0729
▁təməli	-11.0737
msə	-11.0744
mas	-11.0748
▁riyaziyyatçı	-11.0749
▁zərəri	-11.0749
memiz	-11.0751
▁kö	-11.0757
▁bel	-11.0761
▁dam	-11.0762
▁qalanın	-11.0763
▁keçmişi	-11.0763
nmış	-11.0767
▁kayd	-11.0767
▁görsə	-11.0767
ləsi	-11.0769
▁sərhəddi	-11.0772
▁partla	-11.0775
iv	-11.0778
mışlar	-11.0779
▁ömrü	-11.0796
▁təkərləri	-11.0796
▁miraslar	-11.0799
▁zənglər	-11.0806
▁təsirl	-11.0817
▁endi	-11.0824
▁metodu	-11.0827
yal	-11.0829
var	-11.0833
▁kor	-11.0838
▁Lon	-11.0852
ışda	-11.0852
▁biləcəkləri	-11.0866
▁arxiv	-11.0866
▁istəy	-11.0873
▁alını	-11.0884
▁dəlili	-11.0887
tion	-11.0892
ğını	-11.0899
▁tax	-11.0899
▁söhbəti	-11.0903
▁Qu	-11.0903
▁parçaların	-11.0916
▁dalğaları	-11.0932
▁parçamı	-11.0937
che	-11.0944
əcəyimiz	-11.0948
▁buraxı	-11.095
▁göl	-11.0954
▁Kolleci	-11.0957
▁bacardı	-11.0974
▁dəstəyi	-11.0974
▁müvəffəqiyyətl	-11.0975
▁kitabda	-11.0977
▁yayılı	-11.0981
▁xəritələr	-11.0983
▁qutuları	-11.0984
eydi	-11.0985
▁izlədi	-11.0996
▁rəsmlər	-11.1
▁Həbsxanada	-11.1004
▁orbiti	-11.1011
▁Mus	-11.1016
▁gəlməz	-11.1023
▁fikirlərini	-11.1026
ams	-11.1041
▁Oğl	-11.1057
▁gözləy	-11.1058
▁yo	-11.1064
▁razılaşmadı	-11.1064
dunuz	-11.1064
idge	-11.1064
▁səbəbləri	-11.1067
ev	-11.1067
▁Cha	-11.1068
▁Şo	-11.1071
▁qaça	-11.1077
▁qanadl	-11.1078
▁sad	-11.108
lıqda	-11.1085
dak	-11.1091
▁qoym	-11.1092
▁elmləri	-11.1104
▁yoxlayır	-11.1109
iyib	-11.1115
▁evin	-11.1115
▁Yerdə	-11.112
▁Ok	-11.112
▁topl	-11.1122
▁düşüncələri	-11.1127
▁çevrilmə	-11.1128
nde	-11.113
▁Ta	-11.1133
▁etmədik	-11.1139
ku	-11.1143
▁edili	-11.1144
▁adamlarını	-11.1145
▁Gözə	-11.1148
▁istəməz	-11.1159
▁təcrübəsi	-11.116
▁şüaları	-11.1169
▁qalmışdı	-11.1188
▁çatması	-11.1197
▁mənimiz	-11.1203
▁çəkmir	-11.1207
▁səsin	-11.1218
▁ciblər	-11.122
nalı	-11.1227
▁rejissor	-11.1236
▁Cə	-11.1237
▁yazılmış	-11.1242
▁məsafələr	-11.1244
▁arzular	-11.1246
▁kitabların	-11.1246
▁halı	-11.1247
▁banklar	-11.1248
üş	-11.1251
▁çay	-11.1251
▁səslərin	-11.1259
▁sənətçi	-11.1259
müş	-11.1262
▁iq	-11.1267
▁aktyor	-11.1272
özündə	-11.128
▁yanğın	-11.1282
▁Yara	-11.1286
rid	-11.1296
▁tarixin	-11.1298
laşdır	-11.1299
ımızda	-11.1304
raf	-11.1316
▁iz	-11.132
▁axınlar	-11.1322
ry	-11.1326
▁tr	-11.1338
ila	-11.134
▁bəslə	-11.134
▁Bitki	-11.1341
▁dəyişdiyi	-11.1342
▁Bilm	-11.1346
rimin	-11.1349
▁təəccüblən	-11.1357
ion	-11.1365
uark	-11.1366
ürücü	-11.137
▁nazir	-11.137
▁işləyə	-11.137
▁kəşfləri	-11.1374
ild	-11.1375
ova	-11.1383
nca	-11.1385
▁Nazir	-11.1388
ilmək	-11.1391
▁Bru	-11.1404
▁görmədi	-11.1405
▁tapm	-11.1407
▁Lu	-11.1411
cs	-11.1414
kim	-11.1416
may	-11.142
anında	-11.1425
▁yaratdığımız	-11.1427
▁fürsət	-11.143
▁şə	-11.1435
▁parçaları	-11.1436
▁ağcaqanad	-11.1439
▁göstəricilər	-11.1441
▁mühəndislər	-11.1443
▁sektorun	-11.1453
▁uzaqlaş	-11.1454
▁tərəfləri	-11.146
▁qaydalarını	-11.1469
▁diplomu	-11.1473
▁açıql	-11.1475
iydi	-11.1478
▁məzmun	-11.1483
▁alqışla	-11.1486
▁almağ	-11.1495
▁doğum	-11.1496
▁May	-11.1496
▁hesabı	-11.1496
▁düşündüyü	-11.1499
▁danışm	-11.1506
▁xərc	-11.1507
▁dinləyi	-11.1507
▁fotoşəkilin	-11.1509
qib	-11.1513
▁vəziyyətin	-11.1516
əssüf	-11.152
▁üsullar	-11.1522
▁modellər	-11.1536
▁enər	-11.1536
▁dilləri	-11.1541
▁qaranlığı	-11.1546
▁yazılı	-11.1551
lılar	-11.1554
▁lə	-11.1554
▁keçdiyim	-11.1558
squ	-11.1566
▁oy	-11.1573
▁Ştat	-11.1574
▁Məhkəmədə	-11.1577
▁tanıdığım	-11.1583
▁Yuxarı	-11.159
▁şimalı	-11.1596
▁değiştirebil	-11.16
▁yağa	-11.16
▁formasın	-11.1607
▁gəlməklə	-11.1608
sam	-11.1617
ridi	-11.1623
▁mağaza	-11.1624
▁bildik	-11.1624
▁işlədə	-11.1628
laşması	-11.1634
▁Universitet	-11.1634
ığır	-11.1638
▁aparac	-11.1648
▁səliq	-11.1656
cağı	-11.1656
▁gəlmi	-11.166
▁verilməsin	-11.1662
▁hallar	-11.1665
▁söylədi	-11.1668
ama	-11.167
əmələ	-11.1671
▁xəritəsin	-11.1672
▁şah	-11.1676
▁qiymətlər	-11.1677
▁rituallar	-11.1677
zdə	-11.1684
miyoru	-11.1684
▁psix	-11.1685
xa	-11.1689
▁şən	-11.1691
▁işçilərin	-11.1691
anlıq	-11.1691
▁göstərdiyim	-11.1692
▁hekayələrin	-11.1693
▁bəh	-11.1694
▁asa	-11.1696
▁fəlakət	-11.1702
▁platforma	-11.1703
ters	-11.1704
klarını	-11.1706
▁Ölkələr	-11.171
▁Gra	-11.1715
▁performans	-11.1716
MC	-11.1717
▁ədəbiyyatı	-11.172
▁fəaliyyətim	-11.172
▁Sp	-11.1727
▁kəndi	-11.1733
▁za	-11.1746
eçə	-11.1748
ehrli	-11.1754
▁proqramlar	-11.1755
▁qaydaların	-11.1755
▁ek	-11.1758
igh	-11.1759
▁utandı	-11.1759
▁dalğalar	-11.176
▁görməmiş	-11.1762
ırsan	-11.1764
▁çıxarmağ	-11.1765
▁biliyi	-11.1767
▁adlandırı	-11.1767
sün	-11.177
▁formalar	-11.1776
▁dünyası	-11.178
ntı	-11.1786
ega	-11.1789
▁adamların	-11.1789
▁maraqlanm	-11.1802
▁kə	-11.1802
mos	-11.1803
▁yağışlar	-11.1804
▁detall	-11.1804
xmay	-11.1806
▁saxlam	-11.1806
▁imza	-11.1807
▁divarda	-11.1811
▁yaşları	-11.1815
▁Doğru	-11.1819
▁araşdırmağ	-11.182
▁Universiteti	-11.1822
▁Mis	-11.1848
aron	-11.1848
▁yaxınlaşma	-11.1851
▁duman	-11.1856
nson	-11.1861
▁şüalar	-11.1862
▁çalışanlar	-11.1871
▁təmizlə	-11.1879
ilərin	-11.1885
▁şad	-11.1885
andan	-11.1887
ışıq	-11.1892
▁insanlarda	-11.19
▁rolu	-11.1903
rol	-11.1904
▁lab	-11.1916
▁ağac	-11.192
▁kayb	-11.1922
▁Vo	-11.1924
əsin	-11.1926
dükcə	-11.1926
▁qurtara	-11.1928
▁əhali	-11.1931
▁dağ	-11.1934
▁dəyişikliy	-11.1934
▁görməyi	-11.1935
▁qrupu	-11.194
tir	-11.1945
▁kart	-11.1947
▁parla	-11.1954
▁şirkətləri	-11.1956
ansız	-11.1971
zm	-11.1974
▁işlətmə	-11.1978
yü	-11.1981
elli	-11.199
▁durma	-11.1991
▁versiya	-11.2001
silə	-11.2009
▁genləri	-11.201
▁birləri	-11.2013
iyyətini	-11.2018
▁hərəkətlərin	-11.2021
att	-11.2027
▁kukla	-11.2027
▁bük	-11.203
▁göstərdiyi	-11.2031
▁Re	-11.2035
▁miqyas	-11.2036
məyib	-11.2042
▁bükü	-11.2042
▁çalışdığı	-11.2047
▁yarış	-11.2047
61	-11.2048
uldu	-11.2049
hum	-11.2055
▁ar	-11.2055
▁incəsənətdə	-11.2056
lərimizdə	-11.2059
lmış	-11.206
▁təşkilatlan	-11.2064
▁qəzəb	-11.2065
▁örtülm	-11.2067
▁problemim	-11.207
▁çiçəkləri	-11.2073
▁dostlar	-11.2076
▁Tanrı	-11.208
▁roman	-11.2085
▁ötü	-11.2086
▁qurumlar	-11.2087
▁dillər	-11.2098
▁yaradaca	-11.21
▁eti	-11.21
▁Yeri	-11.2112
xas	-11.2112
▁istifadəsi	-11.2115
▁Ed	-11.2118
▁gerçəkləşdi	-11.2127
▁adları	-11.2128
▁struktur	-11.2135
ımdır	-11.2138
▁nəzərin	-11.2139
▁İngiliscə	-11.214
▁növləri	-11.2142
iyoru	-11.215
şey	-11.2152
▁motiv	-11.2159
▁arzulama	-11.216
▁böyüyü	-11.2165
▁olmaqda	-11.2168
▁Öyrə	-11.217
▁olmamalı	-11.2171
▁gecələr	-11.2177
▁çalışdığım	-11.2181
▁Təşkilat	-11.2185
▁həyatınız	-11.219
▁pisdi	-11.2191
palm	-11.2195
▁gediləcə	-11.2195
madığımız	-11.2197
lığını	-11.2199
laşmaq	-11.22
▁qəlb	-11.2204
▁edərsə	-11.2204
▁qutusun	-11.2211
▁yayımla	-11.2213
▁hökumətlər	-11.2218
▁doldur	-11.2222
▁rica	-11.2222
▁Kamer	-11.2223
▁Normal	-11.2227
baş	-11.2229
vaxt	-11.223
▁keçdiyi	-11.2234
▁mis	-11.2239
▁Özünü	-11.2248
▁uzaqlaşı	-11.225
▁aparmağ	-11.2251
▁z	-11.2253
atlar	-11.2256
▁daşıyıcı	-11.2258
▁tərzini	-11.2261
sunu	-11.2263
▁hissəcik	-11.2269
quşu	-11.2276
els	-11.2278
▁fleytay	-11.2285
qurma	-11.2285
▁qızları	-11.23
▁oğlanı	-11.2311
▁istəmə	-11.2311
▁professor	-11.2317
▁avtobus	-11.2321
▁Qiymət	-11.2322
▁gəlirləri	-11.2328
▁qoşuldu	-11.2328
▁şəxsiyyəti	-11.2335
▁planetləri	-11.2336
▁çıxanlar	-11.2337
▁təyyarələri	-11.2337
▁bağça	-11.2338
gələn	-11.2341
▁So	-11.2344
▁isveç	-11.2349
▁çıxarma	-11.2351
▁bit	-11.2356
▁içir	-11.2358
▁işıqda	-11.2359
mum	-11.2365
▁yaxınlaşa	-11.237
▁ulduzu	-11.2373
po	-11.2375
ak	-11.2376
Q	-11.2378
imatlar	-11.2379
hiş	-11.2384
zaları	-11.2386
▁120	-11.2388
▁effekti	-11.2395
onlar	-11.2395
▁uşaqlarımız	-11.24
▁misiya	-11.2405
W	-11.2408
▁raket	-11.2409
▁bili	-11.2413
▁İçin	-11.2417
sk	-11.242
▁səfərin	-11.242
iyan	-11.2422
▁göndərir	-11.2423
▁xatırlatma	-11.2429
▁atomlar	-11.2432
eşi	-11.2434
▁Brit	-11.2435
biləcək	-11.2437
ndı	-11.2438
▁surə	-11.2438
▁etm	-11.2442
▁xidmətin	-11.2443
yerdə	-11.2456
oğlu	-11.2458
leştiri	-11.2461
sor	-11.2464
▁yazdığı	-11.2467
uld	-11.2468
tı	-11.247
▁Cən	-11.2476
▁çıxma	-11.2476
▁salın	-11.2486
lent	-11.2491
əvaz	-11.2492
ünd	-11.2493
mıyor	-11.2494
lider	-11.2499
yer	-11.2503
əcəyiniz	-11.2505
▁şlyapa	-11.2506
▁ünvanla	-11.2507
eter	-11.2509
19	-11.2513
lır	-11.2514
▁işıqları	-11.2514
anırlar	-11.2524
boy	-11.2528
liydi	-11.2531
▁Uşaqları	-11.2533
▁şək	-11.2538
avaş	-11.2539
▁hu	-11.254
▁Ter	-11.2541
▁deməyə	-11.2546
▁ağzı	-11.2546
▁psixo	-11.2546
▁gizlə	-11.2549
hər	-11.2557
nizlə	-11.2565
alo	-11.2567
▁Valideyinlər	-11.2581
▁ailələr	-11.2581
▁dəfələr	-11.2585
▁gec	-11.2586
▁faydalan	-11.2587
▁axtarma	-11.2591
▁öldürü	-11.2596
▁təmizləy	-11.2604
▁fizikasın	-11.2608
▁eşit	-11.261
▁slayd	-11.2612
▁mədəniyyətləri	-11.2615
▁çağ	-11.2618
▁əlimi	-11.2618
▁üzvü	-11.2618
▁çətinlik	-11.2618
acak	-11.2621
ğunluq	-11.2621
▁Ölçü	-11.2621
▁seçimi	-11.2624
hramanlarım	-11.2625
▁milyonlar	-11.2625
▁ünsiyyətin	-11.2627
ləyici	-11.2627
umuzda	-11.263
▁marağı	-11.2632
üklü	-11.2633
ebilirdi	-11.2635
yəcək	-11.2638
60	-11.2638
ot	-11.2639
arda	-11.2642
▁ədəb	-11.2643
len	-11.2644
likdir	-11.2646
▁planda	-11.265
▁bədənimi	-11.2658
qar	-11.2659
tli	-11.2661
▁növün	-11.2664
ve	-11.2672
stre	-11.2672
▁uzunluğu	-11.2674
▁qardaş	-11.2674
gele	-11.2676
llər	-11.2677
sənsə	-11.2678
▁halqalar	-11.2683
▁riyaz	-11.2685
▁bacarma	-11.2687
▁telesko	-11.2689
▁Dost	-11.269
▁mümkündü	-11.2692
▁qayğı	-11.2693
▁Arx	-11.2694
llo	-11.2694
mağımızı	-11.2696
▁bəxş	-11.27
yordu	-11.2706
ilyon	-11.2706
▁gördüyümü	-11.2707
ms	-11.2708
eden	-11.2708
▁Pi	-11.2708
its	-11.2709
ndrom	-11.2712
▁tozu	-11.2714
▁qoruy	-11.2716
ədbəxtlik	-11.2717
▁deyən	-11.2718
▁Televiz	-11.2718
▁Qə	-11.2718
▁edəcəyimi	-11.2721
▁Far	-11.2721
▁götürmüş	-11.2722
▁düzdü	-11.2722
▁zorakılı	-11.2725
olland	-11.2725
▁döy	-11.2728
▁dəhşət	-11.2729
ktyabr	-11.2731
▁mey	-11.2734
▁həmkar	-11.2735
olunma	-11.2736
əciyi	-11.2736
▁qasırğa	-11.2738
ördü	-11.2738
▁mədən	-11.274
eceğimi	-11.274
16	-11.2741
▁güclə	-11.2741
cil	-11.2742
nizin	-11.2743
cıl	-11.2746
▁fokus	-11.2748
▁Dəyiş	-11.2749
yaqlarımı	-11.275
▁değiştir	-11.275
istem	-11.2751
▁müx	-11.2751
üzakirə	-11.2751
▁formalaş	-11.2752
ermostat	-11.2752
▁yön	-11.2753
ideo	-11.2753
htimalla	-11.2753
lüyü	-11.2753
▁münasib	-11.2754
alehedici	-11.2754
▁inandığım	-11.2754
rinsip	-11.2756
▁Meteor	-11.2756
itab	-11.2757
etropoli	-11.2757
▁değiş	-11.2757
▁sivil	-11.2757
▁ödüllendir	-11.2757
▁Arizona	-11.2757
▁Enerji	-11.2757
▁Yavaşlay	-11.2757
▁afalla	-11.2757
▁animasiyası	-11.2757
▁avropa	-11.2757
▁dəhliz	-11.2757
▁heyecanl	-11.2757
▁hündürdaban	-11.2757
▁ixrac	-11.2757
▁körpü	-11.2757
▁magistra	-11.2757
▁metafor	-11.2757
▁paradoks	-11.2757
▁sızıntı	-11.2757
▁tragediya	-11.2757
ikipediya	-11.2757
teknoloji	-11.2757
tereotiplər	-11.2757
▁Adenike	-11.2757
▁Antarkti	-11.2757
▁Assosiasiyası	-11.2757
▁Beatris	-11.2757
▁Concord	-11.2757
▁Fevral	-11.2757
▁Jacqu	-11.2757
▁Kembric	-11.2757
▁Klaviatura	-11.2757
▁Kompleks	-11.2757
▁Lüğət	-11.2757
▁Mapmaker	-11.2757
▁Mesaj	-11.2757
▁Müharibə	-11.2757
▁Müvəffəqiyyət	-11.2757
▁Norveç	-11.2757
▁Peyğəmbər	-11.2757
▁Pikasso	-11.2757
▁Proqramı	-11.2757
▁Qrupun	-11.2757
▁Razılaşdı	-11.2757
▁Sayborq	-11.2757
▁Sərdabələri	-11.2757
▁Teleskobu	-11.2757
▁Teleskop	-11.2757
▁Valideynlərimi	-11.2757
▁Velosipedi	-11.2757
▁Yunanıstan	-11.2757
▁alqoritm	-11.2757
▁arvadı	-11.2757
▁basitleşti	-11.2757
▁drift	-11.2757
▁dözülməz	-11.2757
▁ekosisteml	-11.2757
▁epidemi	-11.2757
▁etkilen	-11.2757
▁geliştir	-11.2757
▁görelilik	-11.2757
▁impotent	-11.2757
▁infilyasiya	-11.2757
▁irtifa	-11.2757
▁karmaşıkl	-11.2757
▁klaviatura	-11.2757
▁konsept	-11.2757
▁leksikoqraf	-11.2757
▁missiyalar	-11.2757
▁mühakimə	-11.2757
▁məntəqələri	-11.2757
▁naşirim	-11.2757
▁nükleusları	-11.2757
▁nümayəndələri	-11.2757
▁nüsxə	-11.2757
▁operator	-11.2757
▁patlama	-11.2757
▁prestij	-11.2757
▁prioritet	-11.2757
▁pıçılday	-11.2757
▁qarşısıalınmaz	-11.2757
▁qohumların	-11.2757
▁rütubət	-11.2757
▁santigra	-11.2757
▁skripka	-11.2757
▁statitika	-11.2757
▁sıfır	-11.2757
▁səlahiyyət	-11.2757
▁səsyazma	-11.2757
▁tədbirlər	-11.2757
▁təxribat	-11.2757
▁valideyinləri	-11.2757
▁violonçel	-11.2757
▁çarmıx	-11.2757
▁öğretmenler	-11.2757
▁Doug	-11.2757
▁rəqqas	-11.2757
əbiristanlı	-11.2757
▁Cihaz	-11.2757
▁Dəhşət	-11.2757
▁Kolumbiya	-11.2757
▁Nömrə	-11.2757
▁Qəbul	-11.2757
▁Stanford	-11.2757
▁Thatcher	-11.2757
▁Yeməkxana	-11.2757
▁Yumurta	-11.2757
▁bölünmə	-11.2757
▁döyüntü	-11.2757
▁eksperiment	-11.2757
▁hidrotermal	-11.2757
▁hündürlüyü	-11.2757
▁inqilab	-11.2757
▁mikrodalğa	-11.2757
▁müstəmləkə	-11.2757
▁nəsihətlər	-11.2757
▁partikülleri	-11.2757
▁prosses	-11.2757
▁qorilla	-11.2757
▁qravitasiya	-11.2757
▁rifah	-11.2757
▁studiya	-11.2757
▁tempraturu	-11.2757
▁tendensiya	-11.2757
▁turşu	-11.2757
▁təbliğ	-11.2757
▁təmkinli	-11.2757
▁Ömrünü	-11.2757
▁öngörü	-11.2757
nstruksiya	-11.2757
▁Aerona	-11.2757
▁Kahka	-11.2757
▁printeriniz	-11.2757
▁qəhrəman	-11.2757
▁ödəniş	-11.2757
▁ördək	-11.2757
parta	-11.2757
▁Atomlar	-11.2757
▁Direktor	-11.2757
▁dırnaqlarım	-11.2757
▁ekvator	-11.2757
▁müğən	-11.2757
▁narazı	-11.2757
▁təntənə	-11.2757
▁yoğunluk	-11.2757
▁şiddət	-11.2757
▁kredit	-11.2757
▁İdarəsi	-11.2757
▁Mağaza	-11.2757
▁Təhlükə	-11.2757
▁William	-11.2757
▁cəzalandır	-11.2757
▁dırmaş	-11.2757
▁keşfetmemiz	-11.2757
▁sivilizasiya	-11.2757
▁çoban	-11.2757
atareya	-11.2757
oriyası	-11.2757
▁Nebula	-11.2757
▁Saqqal	-11.2757
▁izlete	-11.2757
▁müqavi	-11.2757
▁ticar	-11.2757
▁ölçerse	-11.2757
▁ömür	-11.2757
▁Federasiyasın	-11.2757
▁Nepal	-11.2757
▁havzalar	-11.2757
▁tunel	-11.2757
▁variant	-11.2757
ülasyon	-11.2757
▁Black	-11.2757
▁fiqur	-11.2757
▁mimarlar	-11.2757
▁tərəfadarı	-11.2757
▁veteran	-11.2757
▁Albert	-11.2757
▁odaklan	-11.2757
▁bürüyür	-11.2757
▁vəhşi	-11.2757
▁Tibetd	-11.2757
▁apartayd	-11.2757
llah	-11.2757
▁Demokrat	-11.2757
▁Qardaş	-11.2757
▁büyüklü	-11.2757
▁təşvi	-11.2757
▁yarımdairə	-11.2757
▁həvəsləndir	-11.2757
▁interval	-11.2757
▁işğal	-11.2757
▁neyronlar	-11.2757
▁doğuldu	-11.2757
▁törədilənlər	-11.2757
▁Yaratdığ	-11.2757
▁Teatr	-11.2757
▁Ərazi	-11.2757
▁Cohen	-11.2757
▁fırlatma	-11.2757
enişliyi	-11.2757
▁mənşəyi	-11.2757
▁yeməkxana	-11.2757
▁Kerala	-11.2757
▁Kitabxana	-11.2757
▁Əşya	-11.2757
▁Yaradılış	-11.2757
▁Russell	-11.2757
▁White	-11.2757
▁macəra	-11.2757
▁önümd	-11.2757
▁kəpənəklər	-11.2757
diğimiz	-11.2757
▁Unut	-11.2757
▁patentlə	-11.2757
▁gluon	-11.2757
▁mesajlaşm	-11.2757
▁Jeff	-11.2757
▁köpük	-11.2757
▁partlatma	-11.2757
▁tozlandırıcılar	-11.2757
▁serial	-11.2757
▁Vaxt	-11.2757
▁değil	-11.2757
▁Dehli	-11.2757
▁sevdiklərim	-11.2757
değer	-11.2757
▁Düşmən	-11.2757
▁terap	-11.2757
▁İmkan	-11.2757
▁peyğımbər	-11.2757
▁zəmanət	-11.2757
▁məskunlaşm	-11.2757
▁verilməməsi	-11.2757
▁döyüşçü	-11.2757
▁Cinayət	-11.2757
▁Sahara	-11.2757
▁benze	-11.2757
▁hünülər	-11.2757
▁bəhanə	-11.2757
▁serpiştir	-11.2757
▁zəhmət	-11.2757
▁qamışlarda	-11.2757
▁irqçi	-11.2757
▁tortu	-11.2757
▁Komputeri	-11.2758
▁bacım	-11.2758
▁gözlemle	-11.2758
▁Yapon	-11.2758
atçısın	-11.2758
rect	-11.2758
▁Taksini	-11.2758
▁Ətrafınız	-11.2758
▁pyes	-11.2758
▁meyilli	-11.2758
▁Çalış	-11.2758
▁əngəllə	-11.2758
▁tasar	-11.2758
▁Risk	-11.2758
▁prosessor	-11.2758
üzyon	-11.2758
▁sehir	-11.2758
▁eqoizm	-11.2758
▁motor	-11.2758
▁zərbə	-11.2758
▁pendir	-11.2758
▁paketi	-11.2758
▁taksi	-11.2758
isenziya	-11.2758
▁dördbuca	-11.2758
▁fayllar	-11.2758
▁gösteriyor	-11.2758
▁arzuladığım	-11.2758
▁Terminalında	-11.2758
▁avadanlıqları	-11.2758
▁hesabatlarını	-11.2758
▁humanist	-11.2758
▁gerçek	-11.2758
ffaf	-11.2758
▁parıl	-11.2758
▁lütf	-11.2758
▁impl	-11.2758
▁koloni	-11.2758
▁tənqid	-11.2758
▁təqaüd	-11.2758
▁ovucu	-11.2758
▁Texnik	-11.2758
▁taxta	-11.2758
▁müdrük	-11.2758
▁qələbə	-11.2758
▁doldurmalı	-11.2758
▁qırx	-11.2758
▁türk	-11.2758
▁yardımçı	-11.2758
▁Ceff	-11.2758
▁yorucu	-11.2758
▁ağırlaş	-11.2758
▁menus	-11.2759
▁oyunçu	-11.2759
▁bezdir	-11.2759
▁Aqua	-11.2759
▁sürtü	-11.2759
▁Masailər	-11.2759
ndaşla	-11.2759
▁idarəetmə	-11.2759
▁çarx	-11.2759
▁Fikir	-11.2759
▁Tort	-11.2759
▁boşluğu	-11.2759
▁mətbəx	-11.2759
▁Romanımda	-11.2759
▁döyür	-11.2759
▁konstitusiya	-11.2759
▁göyərtə	-11.2759
▁Sufizm	-11.2759
▁Samanyolu	-11.2759
▁arzula	-11.2759
▁Conson	-11.2759
▁qurbanları	-11.2759
▁endirdik	-11.2759
olej	-11.2759
▁Şirkəti	-11.2759
▁blok	-11.2759
▁evrim	-11.276
▁mehriban	-11.276
▁arzumuz	-11.276
pace	-11.276
▁komputer	-11.276
▁West	-11.276
▁seçici	-11.276
rokuror	-11.276
▁fırlad	-11.276
▁köçür	-11.276
ediyor	-11.276
▁Təkrar	-11.276
▁materialist	-11.276
▁gücləndirmək	-11.276
▁uyduları	-11.276
▁razılaşdı	-11.276
▁izlənmə	-11.276
▁Qaydalar	-11.2761
▁Live	-11.2761
▁yaratsın	-11.2761
▁yüzyıl	-11.2761
▁Kusto	-11.2761
▁hip	-11.2761
▁fars	-11.2761
ebilme	-11.2761
▁çalışqan	-11.2761
▁doğulduğu	-11.2761
▁görkəm	-11.2761
▁dağıtma	-11.2761
mişlerdi	-11.2761
▁çıxardırıq	-11.2761
▁Kəndimizdə	-11.2761
▁istehsalçı	-11.2761
▁dərslə	-11.2761
▁qaraj	-11.2761
▁getməyimizi	-11.2761
▁öldüyü	-11.2761
tual	-11.2761
▁telefonumuzu	-11.2761
▁Tikal	-11.2762
▁termostat	-11.2762
▁cont	-11.2762
▁cinsiyyət	-11.2762
▁mənbəyi	-11.2762
▁itirdiyiniz	-11.2762
▁məntiq	-11.2762
▁Harv	-11.2762
▁üfürmək	-11.2762
quqları	-11.2762
▁nişa	-11.2763
▁verildiyini	-11.2763
▁Anceles	-11.2763
▁depres	-11.2763
▁ilanq	-11.2763
▁Buddalar	-11.2763
▁ağlayardı	-11.2763
beklen	-11.2763
▁göstərsəydi	-11.2763
▁Səth	-11.2763
▁emosiya	-11.2764
▁mənzili	-11.2764
▁qorxmay	-11.2764
▁yanınızda	-11.2764
▁tapacağı	-11.2764
▁hazırlamağımız	-11.2764
▁cəmiyyətimizdə	-11.2764
▁hör	-11.2764
▁çabala	-11.2764
▁çıxmışdı	-11.2764
▁xalaları	-11.2764
▁aparıcı	-11.2764
▁sığış	-11.2764
▁vəsait	-11.2764
▁İspaniya	-11.2764
etmedi	-11.2764
▁firma	-11.2765
tirebil	-11.2765
▁eğitti	-11.2765
▁buferləri	-11.2765
▁ayağındakı	-11.2765
▁mələk	-11.2765
▁Əyləncə	-11.2765
▁99	-11.2765
lacaqdı	-11.2765
lamaktı	-11.2765
▁Kumullar	-11.2765
▁güldü	-11.2765
▁təəccüblənmiş	-11.2765
▁yönlendirilm	-11.2765
▁Boş	-11.2766
▁yansım	-11.2766
▁böyütmək	-11.2766
▁buraxacaq	-11.2766
▁kifayətlənmə	-11.2766
▁qoşulacaq	-11.2766
▁Sheph	-11.2766
▁bacarığımız	-11.2766
▁Smo	-11.2767
▁bənzətmə	-11.2767
▁blogçu	-11.2767
▁pozul	-11.2767
▁seçəcək	-11.2767
ruslar	-11.2767
▁istiləndi	-11.2767
▁fut	-11.2767
▁Tayl	-11.2767
▁mülkiyyət	-11.2767
▁adlandırdığı	-11.2768
▁Stand	-11.2768
▁psixologiyası	-11.2768
▁cəmlə	-11.2768
▁Slo	-11.2768
▁ulaş	-11.2768
alanmalar	-11.2768
▁tarazlığın	-11.2768
▁fark	-11.2768
▁Ovçul	-11.2768
▁sonlandırm	-11.2768
▁oditoryum	-11.2768
▁şəbəkəmiz	-11.2769
▁Matter	-11.2769
▁predmetdir	-11.2769
▁Dəyişikliyi	-11.2769
▁bölmə	-11.2769
▁arzusunda	-11.2769
▁toplaşı	-11.2769
▁pilləkən	-11.277
▁getməmiş	-11.277
▁tarazlıq	-11.277
▁ofis	-11.277
▁ömrünü	-11.277
▁bitəndə	-11.2771
▁asanlaşdır	-11.2771
▁roke	-11.2771
▁dillə	-11.2771
▁qanunvericilik	-11.2771
▁füs	-11.2771
▁şax	-11.2771
▁qurmalı	-11.2771
▁kraliça	-11.2771
▁baxmağımız	-11.2772
▁dükan	-11.2773
▁heçkəs	-11.2773
▁öp	-11.2773
▁quyusu	-11.2773
▁nəfs	-11.2773
▁katib	-11.2774
▁Yunan	-11.2774
▁Sənətkar	-11.2774
▁torna	-11.2774
▁qabiliyyətimiz	-11.2774
▁ərazisində	-11.2774
oyabr	-11.2775
▁Yazıçılıq	-11.2775
▁kapitalist	-11.2775
▁pişikd	-11.2775
amamıştı	-11.2775
▁olmasaydı	-11.2775
▁birləşdirib	-11.2775
▁Aralarında	-11.2776
▁Kent	-11.2776
▁tarla	-11.2776
▁getdiyimdə	-11.2777
▁Henr	-11.2777
▁geriləmə	-11.2777
▁çəkildi	-11.2777
▁bəxti	-11.2777
üzyıl	-11.2778
▁vurur	-11.2778
▁müştərisi	-11.2778
tumun	-11.2779
AS	-11.2779
▁qovlu	-11.2779
▁eqonuz	-11.2779
▁toxunduğu	-11.2779
▁azalıb	-11.278
▁Planetarisini	-11.278
▁düşündürü	-11.278
▁CN	-11.2781
▁Açıq	-11.2781
▁vacibliyin	-11.2782
▁alıcı	-11.2782
▁Pul	-11.2782
▁sürmək	-11.2782
▁aralıd	-11.2783
▁uçtu	-11.2783
▁yoluxm	-11.2783
çəsi	-11.2783
▁fokuslanmaq	-11.2784
▁sərhədlərini	-11.2784
▁Səhv	-11.2784
▁Doğrudur	-11.2785
▁siyasətçi	-11.2785
▁uzaqlaşdırmaq	-11.2785
▁doyu	-11.2786
tter	-11.2786
əc	-11.2786
▁leş	-11.2786
▁uzaklık	-11.2786
▁Bip	-11.2787
▁qırıqlığın	-11.2787
▁ekv	-11.2788
mbiya	-11.2788
▁sövdə	-11.2788
▁qaçmış	-11.2789
▁Metropolit	-11.2789
▁xatırlamaq	-11.2789
▁yaranmasını	-11.2789
▁deney	-11.2789
▁zorakılığı	-11.2789
▁dözə	-11.2789
▁edəbiləcək	-11.2789
▁zillə	-11.2789
▁heli	-11.2789
▁yığımlar	-11.2789
▁komik	-11.2789
▁Həbs	-11.279
▁həmkarlarımı	-11.279
▁dilimində	-11.279
iymiş	-11.279
▁müzakirəmiz	-11.279
▁müəllimlə	-11.279
▁Afrikalılar	-11.279
▁sens	-11.2791
▁23	-11.2791
çası	-11.2791
▁salır	-11.2791
▁Şükr	-11.2792
▁umursama	-11.2792
▁gözəlliyi	-11.2792
▁Audi	-11.2793
▁Qre	-11.2793
▁populyar	-11.2793
▁böyümək	-11.2793
▁məhdudlaş	-11.2793
▁yelpik	-11.2793
▁öldürməyə	-11.2794
▁DC	-11.2794
▁Braun	-11.2795
▁Şika	-11.2795
▁faza	-11.2796
▁Televizor	-11.2796
▁Dig	-11.2796
▁çıxmaz	-11.2796
▁Dərk	-11.2797
▁42	-11.2798
▁We	-11.2799
▁soruşmuş	-11.2799
intili	-11.2799
▁Indi	-11.2799
▁sağol	-11.2799
▁cümlələr	-11.28
▁cibimdə	-11.28
▁həmkarımız	-11.28
kümele	-11.28
▁söylədik	-11.28
etimiz	-11.28
▁qoymur	-11.2801
▁götürmüşdü	-11.2801
yariya	-11.2803
▁xeyirli	-11.2805
▁axtarışı	-11.2805
▁oğlumuz	-11.2805
▁cəza	-11.2805
loni	-11.2805
rop	-11.2805
▁öyrədə	-11.2806
ütf	-11.2806
iyyətli	-11.2807
▁Göt	-11.2807
▁illüm	-11.2807
▁kaset	-11.2807
▁həndəsə	-11.2807
▁başlatdığı	-11.2807
▁yoxlanı	-11.2808
▁Azadlığı	-11.2808
▁düşməsini	-11.2808
▁Uzaqlaş	-11.2809
▁səfehlik	-11.2809
▁Manh	-11.2809
yalın	-11.2809
▁davası	-11.2809
▁məhsulun	-11.281
▁anlatama	-11.2811
entlər	-11.2812
▁soruşduğu	-11.2812
miydi	-11.2813
▁Çoxunuz	-11.2814
gulam	-11.2814
▁döş	-11.2814
▁asırdı	-11.2814
ilasediciləri	-11.2814
▁şekillendiril	-11.2815
▁İrq	-11.2815
▁dayaz	-11.2815
▁mexanik	-11.2815
▁fayda	-11.2815
▁yetər	-11.2816
▁yaxşılaşdır	-11.2816
stat	-11.2816
▁əksər	-11.2816
▁Be	-11.2817
▁yönləndir	-11.2817
▁ifşaçı	-11.2818
▁oyad	-11.2818
eyle	-11.2818
▁küləyin	-11.2818
fımız	-11.2819
▁Nuh	-11.2819
▁səndə	-11.282
strat	-11.282
ucunu	-11.282
▁oynadı	-11.2821
▁gor	-11.2821
▁alqışlay	-11.2822
▁barmaqlarımı	-11.2822
▁makina	-11.2823
▁açmaq	-11.2824
üzü	-11.2824
▁rota	-11.2825
▁pozğunlu	-11.2825
▁yapışdırma	-11.2825
▁xəstəliklə	-11.2825
▁etməyəcək	-11.2826
▁CS	-11.2826
▁ödəyə	-11.2826
▁ahəng	-11.2827
▁yaşayıram	-11.2827
▁insanla	-11.2828
▁neu	-11.2828
▁şərh	-11.283
andel	-11.283
▁Sterlin	-11.2831
xem	-11.2831
egel	-11.2831
lerimizde	-11.2832
ecekti	-11.2832
▁xao	-11.2832
▁kiber	-11.2832
▁Qra	-11.2833
▁kədərlənm	-11.2833
▁ağard	-11.2833
▁izləyəcək	-11.2833
tinq	-11.2833
▁Masa	-11.2834
▁olunmur	-11.2835
▁endiyi	-11.2835
▁əzmi	-11.2835
▁qoymuşdu	-11.2835
▁səyləri	-11.2836
▁qayğısın	-11.2837
▁Tel	-11.2837
▁dostluq	-11.2837
əngində	-11.2839
▁xoşlam	-11.284
▁qisimini	-11.284
▁qonaq	-11.2841
▁Univ	-11.2843
▁sel	-11.2843
▁balıq	-11.2844
▁sağald	-11.2844
▁küçələrin	-11.2845
▁Tür	-11.2845
▁qazanırlar	-11.2845
▁çeki	-11.2846
▁Adını	-11.2847
▁öğret	-11.2847
▁Eg	-11.2848
ratoriya	-11.2849
▁zər	-11.2849
▁Cümlə	-11.2849
▁masa	-11.2849
▁uzanan	-11.2849
▁Qorxu	-11.285
▁caz	-11.285
▁əsəbi	-11.2851
▁təhl	-11.2851
çiliyin	-11.2851
▁sevildiyi	-11.2851
▁Bar	-11.2851
▁büdcəsi	-11.2852
▁örtülü	-11.2853
▁qırıq	-11.2853
▁qis	-11.2854
▁AC	-11.2854
▁dolayı	-11.2854
▁Kimliyi	-11.2854
▁OM	-11.2855
işti	-11.2856
▁Turn	-11.2857
▁törəyi	-11.2857
▁Qut	-11.2858
ire	-11.2859
ğim	-11.2861
▁başlamağın	-11.2862
menti	-11.2863
rateri	-11.2864
▁Ortada	-11.2865
▁axtardığı	-11.2865
▁karşılaştırı	-11.2868
▁məftun	-11.2868
▁Ölümlərin	-11.2869
▁gölü	-11.287
▁oturacağı	-11.2871
giya	-11.2874
▁keçsə	-11.2874
kop	-11.2875
▁köşkü	-11.2875
▁oxşam	-11.2876
▁hazırlaşırdı	-11.2882
ugw	-11.2882
▁izləyiciləri	-11.2883
▁əsgər	-11.2883
▁böcəklər	-11.2883
▁təmir	-11.2885
▁Inanı	-11.2886
▁fotoqraf	-11.2887
▁problemlə	-11.2887
dlarımızı	-11.2887
siyyət	-11.2889
▁istədiyin	-11.2889
▁çıl	-11.2889
▁yoxsullu	-11.2891
▁kum	-11.2891
▁rəsmin	-11.2892
phone	-11.2892
▁materik	-11.2894
açırmamalıyı	-11.2895
▁döyülmü	-11.2895
▁lövhə	-11.2895
▁Ölçüsün	-11.2895
rda	-11.2897
▁ekstr	-11.2898
atma	-11.2899
▁qapısını	-11.2899
▁barbar	-11.2901
▁dönmək	-11.2905
▁alıcılar	-11.2905
▁qütbün	-11.2905
▁çətinləşdirir	-11.2906
▁duyğuları	-11.2906
lly	-11.2907
▁yetişməy	-11.2907
ahren	-11.2907
ğe	-11.2908
▁görünsə	-11.2909
▁masamı	-11.2909
▁slaydlar	-11.2909
▁idarəçiliyi	-11.291
ravi	-11.2911
▁addımla	-11.2913
▁durum	-11.2914
▁kes	-11.2915
▁aparıl	-11.2916
azı	-11.2916
▁gəmiləri	-11.2918
▁ikisini	-11.292
▁Harold	-11.292
▁qoysan	-11.2921
▁üzvünü	-11.2925
dendr	-11.2925
▁tamamlama	-11.2928
▁görüntüsün	-11.2929
▁tərzin	-11.2929
▁yavaşlay	-11.2931
laraq	-11.2932
ördüklərimiz	-11.2934
▁Valideyinlərim	-11.2936
▁avia	-11.2938
▁qalaca	-11.294
▁çıxıblar	-11.2941
▁adamla	-11.2941
▁yandır	-11.2945
▁zədələr	-11.2945
▁keçirir	-11.2947
▁qatlayı	-11.2947
▁Key	-11.2948
▁çillər	-11.2948
▁addımları	-11.2948
▁şər	-11.2949
lənir	-11.2951
tlərin	-11.2953
▁satmaq	-11.2953
▁dərslərdən	-11.2954
▁yolumu	-11.2956
▁iyun	-11.2958
▁Lanka	-11.2959
▁çarpmayaca	-11.2959
▁tutulur	-11.2961
▁qalxın	-11.2963
▁bədənlər	-11.2963
▁Əsgərl	-11.2964
▁oxuyurdu	-11.2964
▁Hərşey	-11.2966
▁şanslı	-11.2967
▁log	-11.2969
▁sonun	-11.2969
▁Xoşum	-11.297
ddi	-11.2972
▁çalışa	-11.2972
ktoru	-11.2973
▁Avia	-11.2975
▁aclığ	-11.2977
▁Kənar	-11.2978
▁sualların	-11.2979
iyalı	-11.2981
arçacıq	-11.2981
▁fikirləşmiş	-11.2982
fik	-11.2984
▁Lok	-11.2984
pe	-11.2986
▁tapma	-11.2986
▁mühəndisliyi	-11.2989
serve	-11.2989
▁parçacığını	-11.2992
▁olmayacağını	-11.2992
evin	-11.2992
acılarım	-11.2993
▁Alb	-11.2996
çülü	-11.2998
▁törəmələr	-11.2998
▁varlığından	-11.2999
▁olunduqda	-11.3002
layabilir	-11.3004
▁tozluq	-11.301
▁tutmasını	-11.3011
▁cızma	-11.3011
▁uzaqlaşdığımız	-11.3014
▁he	-11.3015
▁cəhətlərimiz	-11.3016
ldığı	-11.3018
▁ikisinin	-11.3018
iqtisadiyyatımız	-11.3019
▁karto	-11.3023
▁Ciy	-11.3026
▁yaradacağı	-11.3026
mazdı	-11.3027
oğ	-11.3027
▁qazandığım	-11.3028
məkhaq	-11.3028
▁Carl	-11.3028
▁konuşma	-11.3029
▁Qızıl	-11.3031
▁Roman	-11.3033
▁haqqım	-11.3034
▁məsk	-11.3035
▁hamısına	-11.3037
örürsünüz	-11.3038
▁Mak	-11.304
ceğim	-11.3041
▁eşitdi	-11.3041
▁bildirir	-11.3041
▁cavabım	-11.3042
▁mağazalar	-11.3043
çıq	-11.3044
▁gətirmişdi	-11.3045
▁göstereme	-11.3046
rofessional	-11.3048
▁bilmirsiniz	-11.3048
▁birləşdiyi	-11.3049
üsünüz	-11.3051
uck	-11.3052
ketin	-11.3052
▁zəh	-11.3053
▁inandığımız	-11.3054
▁etkileşme	-11.3057
▁tətil	-11.3057
▁ağzım	-11.3062
▁birleştir	-11.3065
▁yörüngemiz	-11.3071
▁Emini	-11.3071
▁asdıq	-11.3071
inja	-11.3073
▁mütə	-11.3076
▁kara	-11.3078
▁gözlərimi	-11.3078
rdilər	-11.308
▁inf	-11.308
▁etməyəcəyini	-11.308
ersiya	-11.3081
▁milyonu	-11.3082
▁tiki	-11.3084
▁araştırma	-11.3085
əyiniz	-11.3086
96	-11.3086
▁qışqırı	-11.3088
▁valideynlərimiz	-11.309
layırsınız	-11.3092
▁kimliyimizi	-11.3092
yo	-11.3095
masında	-11.3097
inasiyalar	-11.3098
▁ailəniz	-11.3098
▁anadan	-11.3098
▁uçurum	-11.3099
lock	-11.31
▁Pl	-11.3102
▁mükafatın	-11.3103
▁Qalaktikaları	-11.3104
gilə	-11.3111
▁bilik	-11.3114
▁girdiyin	-11.3114
▁Yaradıcı	-11.3116
▁Afrikan	-11.3117
▁qazandırmaq	-11.312
tın	-11.3121
▁məktəbləri	-11.3122
▁Dem	-11.3128
▁devi	-11.313
▁düşərgələrin	-11.313
▁eşidər	-11.313
rial	-11.3131
▁durduğu	-11.3132
▁El	-11.3135
▁üzr	-11.3137
▁ətrafla	-11.3137
▁Nic	-11.3138
▁təxəyyülü	-11.3138
▁faydalandı	-11.3139
▁şəkilin	-11.314
▁kinonu	-11.3141
▁istəyənlər	-11.3142
▁Sav	-11.3145
▁donu	-11.3145
▁gözləmək	-11.3147
▁seçmə	-11.3147
▁Cent	-11.3147
▁eşitmiş	-11.3147
▁mülahizəsi	-11.3149
▁Fo	-11.315
▁qarışığı	-11.3152
▁maşında	-11.3153
▁prinsipini	-11.3154
▁münasibətin	-11.3155
əif	-11.3156
▁bədənimiz	-11.3157
bra	-11.3158
ny	-11.3158
vət	-11.316
▁gərgin	-11.3162
▁xəbərlə	-11.3162
tze	-11.3162
▁tozunu	-11.3163
atur	-11.3167
abil	-11.317
▁qona	-11.3172
▁Nənəsi	-11.3172
ana	-11.3175
klərini	-11.3175
▁misiyasın	-11.3175
▁yadımda	-11.3176
umu	-11.3179
▁fəaliyyətlərin	-11.3179
▁qalxması	-11.318
leyebilir	-11.318
▁Kai	-11.318
ölməçə	-11.318
zdı	-11.3185
inqin	-11.3186
▁yəhudilər	-11.3187
▁surət	-11.3187
▁terror	-11.3187
icero	-11.3188
▁Xahi	-11.3189
▁qurmağı	-11.3191
ğınızı	-11.3192
tünd	-11.3192
▁Həyatınızı	-11.3195
▁buraxılan	-11.3195
▁çık	-11.3196
▁itirməyi	-11.3197
▁dəyərlidir	-11.3197
apını	-11.3202
qat	-11.3203
▁marağım	-11.3203
▁memarlar	-11.3205
▁bərabərliyi	-11.3206
əyi	-11.3207
▁buludunu	-11.3208
irdik	-11.3208
▁məhsullarımız	-11.3208
▁izlərini	-11.3209
▁kompüteriniz	-11.321
▁avtobusu	-11.3212
▁sok	-11.3213
▁dinləməy	-11.3213
▁unut	-11.3213
üzə	-11.3215
▁professoru	-11.3216
▁Xatırlayı	-11.3217
▁ədalətsizli	-11.3217
▁Bədən	-11.3218
müzü	-11.3221
▁əlil	-11.3223
▁komm	-11.3224
erlərdə	-11.3226
qlarım	-11.3226
▁qorxum	-11.3226
try	-11.3228
▁sav	-11.3229
▁damarları	-11.323
▁nəsillərin	-11.3233
▁özəlləşdir	-11.3235
imimiz	-11.3238
▁Coz	-11.3238
axışı	-11.3238
▁düşmə	-11.3239
tır	-11.324
▁adlandırılmış	-11.3241
▁daşıyı	-11.3245
▁çö	-11.325
▁bağçasın	-11.3251
▁boltun	-11.3255
▁Tri	-11.3257
▁sülhü	-11.3263
▁hay	-11.3263
▁oturmu	-11.3263
▁yavaşlat	-11.3264
▁şişi	-11.3264
▁önə	-11.3264
▁Qit	-11.3265
axıl	-11.3268
▁halqalarını	-11.3271
▁Hern	-11.3276
▁dərisin	-11.3276
▁çağırış	-11.3277
▁oxunu	-11.328
▁sənayesini	-11.3281
edim	-11.3282
▁Tok	-11.3284
entləri	-11.3285
▁təpələr	-11.329
lığımızda	-11.3292
▁geylər	-11.3293
üc	-11.3297
▁azaltma	-11.3297
oğr	-11.3298
yonlar	-11.3298
▁ex	-11.3298
▁rənglən	-11.3299
▁uşaqlarım	-11.3301
ediya	-11.3302
▁uçu	-11.3305
▁problemlərimiz	-11.3307
▁ehtiyacları	-11.3307
▁sil	-11.3311
▁ifşaçını	-11.3312
70	-11.3313
▁yaramır	-11.3314
▁fərqlər	-11.3314
yu	-11.3315
▁j	-11.3316
▁geo	-11.3318
▁kəşfin	-11.3319
▁qaldır	-11.3321
ememe	-11.3323
▁saxlamağı	-11.3323
▁tozlandırı	-11.3324
▁otellər	-11.3326
əsvermə	-11.3328
▁olmazsa	-11.3328
▁tənliy	-11.3329
▁döndük	-11.3329
▁ricam	-11.333
▁küncün	-11.333
▁Mü	-11.3335
▁bəy	-11.334
ata	-11.3341
etində	-11.3344
▁hadisəsində	-11.3344
▁eşid	-11.3351
▁ümüzü	-11.3353
▁fərqlənir	-11.3353
▁Gələcəkdə	-11.3354
ogh	-11.3354
▁Titaniki	-11.3355
ğalar	-11.3358
▁ağlama	-11.336
pələn	-11.3364
otoşəkillər	-11.3365
▁yaşamağımız	-11.3371
zun	-11.3373
▁yazıçılar	-11.3374
pl	-11.3375
▁anlamanız	-11.3377
▁dırnağı	-11.3379
▁çəkmə	-11.3379
▁Mir	-11.3382
▁çıxdığın	-11.3383
ilişlərində	-11.3384
eologiyanı	-11.3385
▁təqdir	-11.3391
▁böyüyür	-11.3391
▁radionu	-11.3391
uper	-11.3391
▁yazdıqların	-11.3393
▁tikili	-11.3393
▁bişirməy	-11.3394
▁inanmaq	-11.3397
▁dəyişdiril	-11.3399
▁Ağıll	-11.3401
kür	-11.3409
▁edirsiz	-11.3409
▁Səmada	-11.341
▁razılaşır	-11.3412
▁səbəbim	-11.3413
şarc	-11.3418
ağıl	-11.3418
yl	-11.3418
▁minə	-11.3419
abilitasiya	-11.3421
yon	-11.3421
▁ətrafın	-11.3423
rf	-11.3435
▁getmədiyi	-11.3435
▁vaxtları	-11.3439
▁vir	-11.344
▁törət	-11.3443
liyində	-11.3443
▁qışqırmağ	-11.3449
▁təbiətdə	-11.3452
▁eşitm	-11.3452
latın	-11.3455
▁qığılcımı	-11.3455
▁velosipedim	-11.3457
▁hissəciy	-11.3457
rafik	-11.3458
▁fikirləşməmişdi	-11.3459
▁yükləy	-11.3459
▁yamsılan	-11.3462
nlarla	-11.3464
▁şanslar	-11.3465
▁qiymətlərin	-11.3467
▁qiyamın	-11.3467
▁gedəcə	-11.3468
▁oynadıq	-11.347
▁ayırmır	-11.3473
eyim	-11.3473
▁Qazı	-11.3476
▁Ri	-11.3477
▁öyrədəcə	-11.3477
ahi	-11.348
▁çıxışı	-11.3482
yar	-11.3484
▁onillik	-11.3486
finiz	-11.3486
▁yey	-11.3488
luk	-11.349
▁qrafikini	-11.349
▁naqilin	-11.3491
tten	-11.3493
▁öyrəş	-11.3495
▁dinləy	-11.3496
▁sayırdı	-11.3497
▁işlədik	-11.3501
▁idarəsi	-11.3504
▁protestan	-11.3508
▁qumlu	-11.351
atacağı	-11.3512
▁sevilir	-11.3514
dığında	-11.3514
▁cəhdlərini	-11.3515
qli	-11.3523
▁özəllik	-11.3524
dit	-11.3524
▁kartlar	-11.3525
▁Har	-11.3526
aşdırılmış	-11.353
mo	-11.3531
ech	-11.3534
ləmək	-11.3536
▁keyfiyyətl	-11.3537
adan	-11.3537
▁küçəsi	-11.3539
dün	-11.3539
eyvənd	-11.354
▁müxtəlifliyi	-11.3542
▁dəyişim	-11.3543
▁Krallı	-11.3551
▁kuklalar	-11.3552
▁laz	-11.3553
▁İnternetdə	-11.3554
aritala	-11.3556
▁resursları	-11.3558
▁açıqla	-11.3559
▁kişil	-11.3561
▁daşıyıcıları	-11.3565
▁müv	-11.3566
▁həyatım	-11.3569
▁danışıqların	-11.357
▁ərin	-11.3572
▁xoşlayırdı	-11.3575
▁ədədlər	-11.3575
▁birləşməsi	-11.3575
əcəkləri	-11.3575
▁Küveytdə	-11.3575
qtisadiyyat	-11.3577
▁blog	-11.3579
▁gözün	-11.3579
▁Ağlın	-11.3582
əkamül	-11.3582
ayında	-11.3583
iyyətlə	-11.3584
▁ağıllar	-11.3585
▁polislər	-11.3588
lanma	-11.3589
▁incəlik	-11.3591
wei	-11.3596
▁layiqli	-11.3598
▁Dar	-11.3608
▁yetişdi	-11.3609
illətlər	-11.361
▁Angelin	-11.3611
▁qurur	-11.3611
etdə	-11.3612
▁gecələri	-11.3614
▁sez	-11.3617
▁Yay	-11.3617
arlar	-11.362
▁İstəyir	-11.362
▁Yaxın	-11.3623
▁Düşündü	-11.3624
ces	-11.3625
▁razılığ	-11.3625
▁Hol	-11.3627
▁bakteriyalar	-11.3629
fş	-11.3629
▁təminatını	-11.3635
▁silahları	-11.3635
udu	-11.3635
▁Termina	-11.3635
ebileceğini	-11.3636
minist	-11.3638
iliği	-11.364
▁Gündə	-11.3641
▁mövzusunu	-11.3642
▁Keplər	-11.3648
▁dina	-11.3649
sus	-11.365
▁yaddaşımızı	-11.3658
▁geçir	-11.3658
hat	-11.3659
yanmış	-11.3661
▁əhalisi	-11.3661
▁rəhbərli	-11.3663
erim	-11.3663
▁kompyuterləri	-11.3663
▁tutulmuş	-11.3664
alları	-11.3665
dekileri	-11.3665
▁saxlanıl	-11.367
▁188	-11.3671
▁kaybol	-11.3672
▁Ira	-11.3674
▁sayılır	-11.3677
▁qırılı	-11.3679
ende	-11.3681
▁daşın	-11.3682
▁Nəyin	-11.3683
▁qaldırmağ	-11.3685
▁budu	-11.3688
▁dəyişmir	-11.3689
▁Şəkillər	-11.3693
▁düzəld	-11.3698
oyd	-11.37
▁dəriniz	-11.37
▁oğlunu	-11.37
▁endir	-11.3702
nərək	-11.3706
▁etməyimiz	-11.3707
uşu	-11.3714
▁sənətimi	-11.3718
xara	-11.3719
▁təəccübləndi	-11.372
▁mağazası	-11.372
▁eynisi	-11.3721
▁imtahan	-11.3721
▁şirkətim	-11.3725
▁görsənir	-11.3726
masam	-11.3728
nim	-11.3738
▁qatmaq	-11.3739
▁rəqəmi	-11.3742
ləcəkdi	-11.3743
▁Kara	-11.3744
▁yardımlar	-11.3751
▁tədqiqatçıları	-11.3756
▁dəstəsi	-11.3761
iliyor	-11.3761
▁tərəfdarı	-11.3762
▁qaldırdı	-11.3762
agirdləri	-11.3763
▁yerleş	-11.3763
▁Ar	-11.3768
▁eks	-11.3772
▁paylaşmağ	-11.3783
ağı	-11.3785
rasında	-11.3786
▁görünüşlərdə	-11.38
ris	-11.3801
▁dağları	-11.3801
zil	-11.3802
▁bildikləri	-11.3804
▁etkileşi	-11.3809
▁səyahətimiz	-11.381
▁inanmay	-11.3814
▁qışqır	-11.3815
▁əşyanı	-11.3816
▁seçməyi	-11.3818
▁ert	-11.3821
▁Əs	-11.3825
▁məsələy	-11.3829
▁göstərmir	-11.3834
▁bağlana	-11.3836
▁ailədən	-11.3836
▁gizlən	-11.3838
▁cən	-11.3839
▁buraxıl	-11.384
▁ekle	-11.3841
▁yaddaşımızda	-11.3848
ətbuat	-11.3855
▁stu	-11.3858
eziyada	-11.3858
▁anl	-11.3859
▁qurul	-11.386
ndakı	-11.386
rsən	-11.3862
▁qırıl	-11.3866
▁köşkdə	-11.3867
▁azaldır	-11.3871
▁olmad	-11.3872
ione	-11.3876
▁nəşr	-11.388
▁itirən	-11.3881
rasiya	-11.3884
▁bölüşdür	-11.3884
▁açıqlaya	-11.3885
ündə	-11.3889
▁şifrəsi	-11.3889
suzluğ	-11.3892
▁alaca	-11.3894
▁nəticələrin	-11.39
yor	-11.3902
▁satış	-11.3903
▁dumanl	-11.3905
ird	-11.3909
kli	-11.3911
əsə	-11.3912
ağım	-11.3913
oncu	-11.3914
açlarımı	-11.3918
▁hisslərini	-11.392
▁çarpı	-11.3921
▁kollek	-11.3922
▁verəcəkləri	-11.3923
▁nötr	-11.3931
▁başçı	-11.3934
▁Qanad	-11.3947
ığını	-11.3948
▁xatırladır	-11.3952
lən	-11.3956
eyi	-11.3956
▁Miras	-11.396
ğımda	-11.396
▁planla	-11.3961
▁edilmədiyi	-11.3962
▁çəkmişdi	-11.3965
▁hesablamalar	-11.3966
▁bağlan	-11.3967
▁bədbəxtlik	-11.3971
▁yapm	-11.3971
ahzadə	-11.3972
▁gerçəy	-11.3975
▁qayığ	-11.3975
▁dəstəklədi	-11.3977
▁parçacıqların	-11.3977
ümüz	-11.3978
▁görünmək	-11.3984
anmış	-11.3992
▁Van	-11.3993
▁ölçmə	-11.3994
▁Gəlmə	-11.3996
▁dağıdıl	-11.3997
▁gəzdi	-11.3997
▁heçnə	-11.4001
▁ünvanlan	-11.4006
▁inanıl	-11.4006
▁baxışların	-11.4013
▁enerjiy	-11.4016
▁dəyişdik	-11.4026
▁seçdiyi	-11.403
▁maraqlandır	-11.4032
ildiyiniz	-11.4033
amaz	-11.4033
▁hazırlanmışdı	-11.4033
▁biləcəklərin	-11.4036
▁Insanlar	-11.4039
▁nəsli	-11.4039
▁rəsədxanalar	-11.4041
▁çevrilməsi	-11.4042
▁performansl	-11.4044
▁Kimliyimi	-11.4045
laq	-11.4052
▁mövcudluğun	-11.4052
▁şəxsiyyət	-11.4053
▁seçi	-11.4053
▁irqin	-11.4055
▁getməsi	-11.4056
▁digəri	-11.4056
▁kana	-11.4057
▁jurnalistlər	-11.406
▁həlli	-11.4061
▁dəyişik	-11.4061
▁Tab	-11.4064
▁cihazı	-11.4066
▁yamsılama	-11.407
ülmüş	-11.4071
▁xal	-11.4074
▁Hindistandır	-11.4075
uğu	-11.4075
▁hərşey	-11.408
▁işığ	-11.4089
▁ifası	-11.4091
▁qrafikası	-11.4092
▁qayıd	-11.4094
▁içindədir	-11.4094
SM	-11.4097
▁Ulduzlar	-11.4104
▁münasibətim	-11.411
▁kam	-11.4111
▁seqmenti	-11.4112
▁verməyəc	-11.4124
▁döngülerini	-11.4129
▁sərnişinləri	-11.4133
▁gezegenleri	-11.4133
▁buraxdıq	-11.4133
iler	-11.4134
▁genlərimizi	-11.4134
▁fe	-11.4134
▁partnyorlar	-11.4146
ünün	-11.4147
▁görürsü	-11.4149
madığım	-11.415
iyatl	-11.4151
təl	-11.4156
zın	-11.4165
ışlar	-11.417
▁bacarıqlar	-11.4175
▁iliş	-11.4176
əsarət	-11.4179
▁mənbələr	-11.4181
uf	-11.4186
▁romanım	-11.4194
▁psixolo	-11.4196
▁sevər	-11.4197
▁çağırırdı	-11.42
işləri	-11.4201
▁nələrə	-11.4209
diyimi	-11.421
▁bənzəy	-11.421
itmiş	-11.421
▁Tal	-11.4214
maqneti	-11.4215
ahət	-11.4217
▁dəstəklən	-11.4221
landır	-11.4221
▁edilməsin	-11.4225
AT	-11.4226
▁düşündüyün	-11.4227
▁mühafizə	-11.4231
▁sobaları	-11.4231
▁böyüdük	-11.4235
ləcək	-11.4239
CO	-11.4244
ladık	-11.4248
▁sürdük	-11.4251
▁yaradıcılığ	-11.4254
▁Bili	-11.4256
▁doğumun	-11.4258
▁içirdi	-11.4264
▁təşkilatlanma	-11.4265
▁kanalı	-11.4281
▁İb	-11.4283
terik	-11.4286
▁Bacılarımı	-11.4287
▁Normalda	-11.4289
▁yorul	-11.4294
tikan	-11.4297
▁tapd	-11.4305
▁yorulmu	-11.4306
▁quyruğu	-11.431
▁hərəkətli	-11.431
▁202	-11.4316
▁müəllimlərim	-11.4317
▁dar	-11.4317
▁molla	-11.4318
▁unutmamalı	-11.4322
ineral	-11.4322
▁adaların	-11.4324
▁inandırmalı	-11.4328
▁tənliklə	-11.4334
▁yaratdığımızda	-11.4337
şləri	-11.4346
qalın	-11.4348
▁məqsədimiz	-11.4349
oma	-11.4354
▁fikirləşirsə	-11.4354
iva	-11.4355
▁müddəti	-11.4355
▁yoxla	-11.4357
ibliya	-11.4362
▁qurulmuş	-11.4366
▁Robo	-11.4369
▁dərinliy	-11.4369
▁ədəbiyyatın	-11.437
▁İs	-11.4371
▁Fikirləşir	-11.4371
osu	-11.4374
▁sət	-11.4382
▁təb	-11.4386
▁rafi	-11.4398
işik	-11.4403
▁tanınmışdı	-11.4404
▁uzaqlığın	-11.4413
liklər	-11.4418
▁qəb	-11.442
rmada	-11.4423
▁ayda	-11.4425
▁Ənni	-11.4426
▁qaranlığın	-11.4426
iten	-11.4428
▁mal	-11.443
▁təhlükəsi	-11.4431
▁uzaqlaşdır	-11.4432
▁basma	-11.4434
▁bucağı	-11.4436
gin	-11.4441
▁ailələrini	-11.4441
▁tarixini	-11.4451
iklə	-11.4454
▁islahatlar	-11.446
eqo	-11.4463
▁bağlayı	-11.4473
▁göstərməyi	-11.4477
riyaziyyatçıları	-11.4483
rel	-11.4497
▁polislik	-11.4499
▁açılma	-11.4499
ef	-11.4506
mədiyimiz	-11.4509
▁Aya	-11.4511
▁göstəricilərin	-11.4511
atlarını	-11.4512
▁Ölkələrdə	-11.4516
▁nöqtələrində	-11.4517
▁vəzifələr	-11.452
▁tanıdı	-11.452
▁muzeyləri	-11.4521
▁oturanlar	-11.4524
ment	-11.4527
▁azdır	-11.4527
▁sektorunda	-11.4529
anki	-11.4531
▁öyrə	-11.4537
▁zorlama	-11.4537
▁proyektini	-11.454
▁mərhələsin	-11.454
▁Bizlər	-11.455
▁Amerikanları	-11.455
▁tələbələri	-11.4557
▁Tər	-11.4558
rsə	-11.4562
▁İnsanları	-11.4566
▁uğurum	-11.4568
▁olmadıq	-11.4569
əvv	-11.4573
şin	-11.4579
▁cavablandır	-11.4584
▁sm	-11.4585
▁gülür	-11.4587
ıydı	-11.4589
▁məktəbdən	-11.459
▁dostumu	-11.459
ışını	-11.46
rı	-11.4601
abrik	-11.461
▁rejimi	-11.4616
▁dizaynlar	-11.4621
▁çevrə	-11.4622
▁bəyənm	-11.4623
▁idarəçili	-11.4631
▁fikirləşsə	-11.4632
maqdan	-11.4632
▁yumurta	-11.4636
aşları	-11.4642
▁fikirləşdi	-11.4643
şmək	-11.4644
oyuq	-11.4649
▁yeniliyi	-11.465
ərəkət	-11.465
▁dönə	-11.4652
▁qışqırır	-11.4655
▁çalıcı	-11.4656
ilim	-11.4657
tic	-11.4664
▁Bankını	-11.4665
▁sağlamlığı	-11.4669
▁hissin	-11.4672
ursunuz	-11.4678
▁bə	-11.4678
▁qarışı	-11.4681
cəyə	-11.4683
▁Qurduğu	-11.4687
▁misallarda	-11.4695
ənab	-11.4695
▁Adəm	-11.4696
▁Oh	-11.47
▁gəliri	-11.4702
▁yönəldir	-11.4703
nizdə	-11.4706
▁səliqəsizli	-11.4709
▁Uqanda	-11.471
▁əsərlərini	-11.4712
▁bina	-11.4712
▁gələcəklərin	-11.4712
▁çalı	-11.4715
▁mün	-11.4715
▁partlay	-11.4719
ld	-11.4722
əyəcanla	-11.4724
▁gəzdirmə	-11.4725
ğında	-11.4733
▁yoxluğu	-11.4738
▁qazanı	-11.4745
▁yapıl	-11.4746
▁formalaşdırı	-11.4752
mağım	-11.476
▁işləməsi	-11.476
yabileceğimiz	-11.4765
▁siniflər	-11.4767
▁təhk	-11.4768
▁gösterim	-11.477
▁görmürü	-11.478
▁oxş	-11.478
uru	-11.4783
▁gəlmələrin	-11.4784
▁kitabımda	-11.4785
▁qoyaca	-11.4786
▁hekayələrini	-11.4788
▁çoxluqları	-11.4798
▁durdurur	-11.4799
▁binalar	-11.4807
▁şirkətlər	-11.4812
▁bildirdi	-11.4815
▁fır	-11.4828
▁işləni	-11.483
gar	-11.4836
▁köməkçi	-11.4837
▁vaxtımı	-11.484
ənəviyyat	-11.4846
▁işığını	-11.4857
▁analizi	-11.486
▁Sam	-11.4865
▁oynadığı	-11.4865
ilerle	-11.487
▁güvənin	-11.4875
düyü	-11.4877
▁şifrələni	-11.4878
muzda	-11.4879
▁kənarını	-11.488
▁hesaba	-11.488
▁ham	-11.4894
▁Ola	-11.4899
▁qalm	-11.4899
▁yanımızda	-11.49
▁Cəmiyyətin	-11.4903
▁effektin	-11.4903
▁silahla	-11.4909
▁dalğ	-11.4916
▁dərəcəli	-11.4919
▁apardıq	-11.4919
▁elementlərin	-11.4929
▁universitetləri	-11.4931
trakt	-11.4934
▁həşaratlar	-11.494
illiyin	-11.4941
▁gözlən	-11.4942
zla	-11.4957
▁ərə	-11.4958
▁bilməzsi	-11.4967
rlik	-11.4973
▁axtarışlar	-11.4974
▁rahatlı	-11.4977
imlə	-11.4987
▁qıra	-11.4987
▁vak	-11.499
tıcı	-11.4993
acısı	-11.5001
▁yerləşdirə	-11.5009
▁riyaziyyatçılar	-11.5017
▁kameraları	-11.5017
▁dayanmış	-11.5018
çular	-11.5033
▁Ra	-11.5037
aşqınl	-11.5041
lur	-11.505
▁toplas	-11.5051
jo	-11.5052
▁agentliklərin	-11.5054
▁ruhlandır	-11.5055
▁neyl	-11.5056
zü	-11.5057
ləşmişdi	-11.5059
▁riflərin	-11.506
dırmadı	-11.5061
▁aparaca	-11.5063
izuallaşdırma	-11.5071
▁İsland	-11.5078
lədik	-11.5083
▁Kan	-11.5087
eye	-11.5087
masın	-11.509
cılar	-11.5092
▁işl	-11.5101
▁gözləntiləri	-11.5104
▁gönd	-11.5105
▁dilinizdi	-11.5105
iklerimiz	-11.5107
▁araşdıra	-11.5119
phe	-11.5119
▁Bilirsi	-11.512
▁konfliktlər	-11.5122
erə	-11.5126
əmin	-11.5126
▁geç	-11.5128
▁öyrənə	-11.5128
▁Sonda	-11.515
▁layihəni	-11.5156
▁Bü	-11.5157
▁fokuslandı	-11.5166
▁mö	-11.5175
▁görünüşdə	-11.519
▁təyyarələrini	-11.519
▁Sh	-11.5192
▁inandığı	-11.5199
ids	-11.5204
larımı	-11.5206
cha	-11.5208
aşınlarımız	-11.5209
▁kağızın	-11.5215
▁bombası	-11.5218
▁almaları	-11.5219
▁öyə	-11.522
duğunuz	-11.5221
çurum	-11.5221
▁göstəril	-11.5222
▁Yaz	-11.5222
▁bəzilərin	-11.5222
▁çıxış	-11.5226
biri	-11.5229
▁uza	-11.5234
kl	-11.5238
▁telefonun	-11.5238
▁keyfiyyəti	-11.5242
yut	-11.5243
▁sözlərim	-11.5247
▁bölüşdü	-11.5249
▁dövrlər	-11.5251
▁məkanlar	-11.5252
▁Manc	-11.5255
▁Gedi	-11.5258
▁dəyişi	-11.5269
▁yaxşılaşma	-11.527
▁normaların	-11.5275
▁hisslər	-11.5276
▁düzəltməy	-11.5279
pr	-11.5281
etmək	-11.5287
▁gözl	-11.5291
▁çayı	-11.5302
nis	-11.5303
üd	-11.5305
izdə	-11.5312
bəxt	-11.5318
▁salmalı	-11.532
ılır	-11.5323
▁gəzdir	-11.5323
rəy	-11.5328
▁planlaşdırı	-11.5331
▁etdirilə	-11.5332
▁qərbin	-11.5334
▁bölgəsində	-11.5335
▁bəsləyə	-11.5343
laşdı	-11.5343
ofe	-11.5346
▁dəyəri	-11.5353
▁təchizat	-11.5358
▁uğuru	-11.5361
▁Müəllimləri	-11.5362
▁Fran	-11.5363
abet	-11.5365
▁oxuy	-11.5382
▁özüdü	-11.5389
sidi	-11.539
▁çəkilişlərin	-11.5391
əəssüf	-11.5392
tin	-11.5393
ikay	-11.5395
▁Th	-11.5401
▁uşaqlığını	-11.5405
ətlə	-11.5418
▁kəşflərin	-11.542
▁rejim	-11.5421
▁inanan	-11.5424
▁statistikasın	-11.5426
▁oynama	-11.543
ine	-11.5435
rməkdən	-11.5441
▁inək	-11.5442
▁küncdə	-11.5443
▁versiyasında	-11.5444
▁kamerası	-11.5454
lanması	-11.5461
▁əməliyyatın	-11.5461
landığı	-11.5463
▁dinləyər	-11.5469
let	-11.5469
▁əlaqələndir	-11.547
▁kafe	-11.5476
▁atdıq	-11.5483
▁bildi	-11.5483
▁güzgüsü	-11.5484
▁Yaradıcılığ	-11.5488
▁rejimin	-11.5488
▁temperaturda	-11.5491
▁digərlərin	-11.5493
▁İsveçrədə	-11.5499
Kenn	-11.55
▁Adamı	-11.5505
▁Alt	-11.5506
▁fikrimiz	-11.5507
▁qabiliyyətinizi	-11.5508
kəndə	-11.5513
▁öldürür	-11.5518
ünə	-11.5519
▁genetika	-11.5521
▁sondası	-11.5525
▁Xəstəl	-11.553
oloqları	-11.5531
ssas	-11.5538
düyümüz	-11.554
▁müdrikliyin	-11.5542
▁dərsin	-11.5543
ləlik	-11.5545
▁nömrə	-11.5546
▁qucaqlay	-11.5547
▁Fərq	-11.555
apa	-11.5553
▁cibinli	-11.556
▁qəlbini	-11.5577
▁törə	-11.5582
▁dibində	-11.5583
▁ağlayar	-11.5587
▁formalaşmasın	-11.5592
▁astronomi	-11.5594
▁digərini	-11.5594
▁proqramlarda	-11.5595
ikli	-11.5597
▁dem	-11.5598
▁göstəricilərini	-11.5599
▁çatdığı	-11.5601
anali	-11.5602
ləşdirdi	-11.5606
▁parçada	-11.561
▁döyüşü	-11.5619
▁möhkəml	-11.5623
▁görmüsü	-11.5626
▁göstərəcəyi	-11.5627
▁tanım	-11.563
▁irəliləyişlər	-11.563
▁müsahibələrin	-11.5634
▁görm	-11.5636
▁Yaşadığım	-11.5637
üzdür	-11.5641
les	-11.5653
▁keçirən	-11.5662
▁xətlər	-11.5674
tur	-11.5675
▁yazılanlar	-11.5679
nəm	-11.5696
abba	-11.57
ləyicilər	-11.5702
▁bak	-11.5709
▁hin	-11.5709
▁başara	-11.571
▁akt	-11.5715
▁Həd	-11.5718
mor	-11.5734
▁düzəldil	-11.5739
▁əyləşi	-11.574
ans	-11.5745
danın	-11.575
acağını	-11.5765
lənməmiş	-11.5765
▁qabiliyyətləri	-11.5767
▁etsən	-11.5773
▁diqqətl	-11.5774
▁İç	-11.5781
▁we	-11.5787
▁ney	-11.579
▁qurulaca	-11.5794
▁eşitmisi	-11.5796
▁maili	-11.58
▁Gö	-11.5813
▁aşılay	-11.5822
elen	-11.5824
▁yayımlanma	-11.5824
▁dözümlü	-11.5827
▁toplamış	-11.5828
uto	-11.5832
arla	-11.5838
▁əkinçili	-11.5839
▁örtür	-11.5844
▁yalanın	-11.5845
▁sapdır	-11.5846
▁birləşdi	-11.5848
▁funksiya	-11.5848
▁dəyişdirə	-11.5852
▁Kitabları	-11.5868
öka	-11.5871
▁boltla	-11.5874
▁saçı	-11.5874
▁alqış	-11.5874
usson	-11.5875
▁xatırlan	-11.5877
▁gəzdiri	-11.5886
▁müharibələri	-11.5888
▁dəstəkləmi	-11.5898
▁anlat	-11.5901
ləşdirməy	-11.5908
▁onlarda	-11.5913
ədd	-11.5915
▁istiqaməti	-11.5917
▁genlər	-11.5927
dıqda	-11.5931
▁sürfələri	-11.5941
▁təbəqəsin	-11.5956
ander	-11.596
▁yaxşılar	-11.5961
▁verdiyini	-11.5964
▁oturur	-11.5965
▁babaların	-11.5966
▁Şa	-11.597
▁yaşamağ	-11.5978
▁əməliyyatlar	-11.5991
timiz	-11.5999
şək	-11.5999
▁st	-11.6006
▁başlanğıcını	-11.6011
▁seçm	-11.6018
▁aləmin	-11.6019
arını	-11.6021
▁işarələri	-11.6021
eros	-11.6027
izdir	-11.6031
▁texn	-11.6031
▁piy	-11.6035
itt	-11.6036
▁azlığı	-11.6037
▁verilməsini	-11.6043
▁elmlərin	-11.6045
imdən	-11.6054
▁hərəkatlarda	-11.6057
▁düşmü	-11.606
▁anları	-11.6061
▁oxumağım	-11.6066
əyən	-11.6072
▁öldürülmüş	-11.6078
▁təkrarla	-11.6081
▁oğurla	-11.6086
▁ifaçıları	-11.6095
azım	-11.6096
▁hərəkatları	-11.61
nməz	-11.6108
▁dövləti	-11.6117
▁alçald	-11.6119
▁Maaş	-11.6121
▁təhsilini	-11.6123
▁əli	-11.6127
int	-11.6138
▁büroları	-11.6139
▁Qey	-11.6145
▁təəccüblənm	-11.6147
məyəcəy	-11.6151
▁imkanımız	-11.6152
▁maraqlandığı	-11.6154
▁ruhlandırır	-11.6157
▁ayırır	-11.6168
övcudluğunu	-11.6173
▁gəmisi	-11.6179
pu	-11.618
▁hiyləgərli	-11.6184
▁qaçar	-11.6192
mizde	-11.6192
▁yayım	-11.6195
lmiş	-11.6201
▁daşla	-11.6202
əksini	-11.6207
yəsində	-11.6208
▁hərəkətlərimi	-11.6209
▁aparılar	-11.6218
▁Etmə	-11.6218
▁dəstəkləy	-11.6222
▁sürətləndirmə	-11.6223
cdə	-11.6223
▁Te	-11.6229
▁qutusunda	-11.6238
▁cümlələri	-11.624
▁dağın	-11.6242
▁göndərərə	-11.6256
▁sin	-11.6259
erfor	-11.6267
▁ayağı	-11.627
üzgün	-11.6273
▁Ərin	-11.6276
▁Le	-11.6276
▁bilmi	-11.6278
▁mükafatl	-11.6279
ünüzü	-11.6281
▁toxunul	-11.6286
▁gizləd	-11.6288
▁gəlirlərin	-11.6299
▁Göy	-11.6307
▁ləyaqət	-11.6307
▁uçaca	-11.6319
▁qitəd	-11.632
dıqların	-11.6325
▁prinsip	-11.6326
▁saxlan	-11.6328
▁Hədd	-11.633
▁alacaqlar	-11.6343
ece	-11.6346
yur	-11.635
▁parçalar	-11.6352
▁yaradılmış	-11.6354
▁edilməsində	-11.6356
▁çalışmır	-11.6358
▁tanıyar	-11.6361
▁şübhəl	-11.6368
▁danışmama	-11.6369
rma	-11.6372
▁etmədiyimi	-11.6377
▁tərzi	-11.6391
▁xatırlatdı	-11.6396
▁başlanğıcın	-11.6398
əmmət	-11.6399
tro	-11.6402
olar	-11.6411
kaplan	-11.6412
▁nəticələr	-11.6414
▁fərd	-11.6414
▁oğullar	-11.6415
lası	-11.6419
▁imtahanı	-11.6424
▁saatda	-11.6425
▁öküzlər	-11.6429
▁gördüklərim	-11.6431
▁Gökadalar	-11.6437
zdi	-11.644
▁seçildi	-11.6442
uard	-11.645
▁kozmoz	-11.6454
ətir	-11.6457
rive	-11.6459
▁eşidi	-11.6462
▁alınma	-11.6462
▁həyatday	-11.648
▁növdə	-11.6483
▁Bey	-11.6486
eyni	-11.6489
▁aks	-11.6496
▁dəyişdirməy	-11.6503
mişdir	-11.6503
ləyəcəklər	-11.6509
CA	-11.653
tların	-11.653
▁sana	-11.6541
tülü	-11.6544
sna	-11.6546
▁siyasətin	-11.6548
▁valideynlərim	-11.6554
▁sınama	-11.656
vanda	-11.6561
▁reallaşdığın	-11.6561
▁Evlili	-11.6568
▁prinsipl	-11.657
nmasını	-11.658
▁olacağ	-11.6585
muşdu	-11.6594
▁qalması	-11.6595
▁Saç	-11.6595
▁yaxınlaşırı	-11.6599
ıya	-11.6599
▁dayanaca	-11.6601
kdir	-11.6605
▁ayağ	-11.6605
▁tapşırıqlar	-11.6605
▁göndərə	-11.6606
▁saniyələr	-11.662
ül	-11.6628
▁xərcləy	-11.6629
▁İr	-11.6635
▁çevirmə	-11.6641
▁xəyalın	-11.6642
▁qatı	-11.6644
nlar	-11.6654
▁inamlar	-11.6666
▁yaşayaca	-11.6668
▁mühəndislərin	-11.6668
▁çölün	-11.6672
art	-11.6672
▁beli	-11.6674
▁girə	-11.6676
avi	-11.6676
▁üstünlüy	-11.6677
▁yaşlılar	-11.6681
siyanı	-11.6681
oko	-11.6682
yız	-11.6688
ıyor	-11.6688
▁dəbdə	-11.6692
tdiyimiz	-11.6695
ankı	-11.6697
▁dia	-11.6702
əsidir	-11.671
TA	-11.6711
mpa	-11.6712
▁oxşa	-11.6715
▁toplana	-11.6722
▁sın	-11.673
▁ətrafl	-11.674
▁verməy	-11.6742
ıc	-11.6743
▁evləri	-11.6756
▁İn	-11.6769
ıldı	-11.6771
▁daşındı	-11.6773
▁personaj	-11.6776
▁ərim	-11.6782
dənəm	-11.6784
▁kozmozu	-11.6789
ydı	-11.6799
▁həv	-11.6801
▁anı	-11.6806
▁istəməzs	-11.6809
▁gücümüz	-11.681
▁hökumətin	-11.6814
çimizdə	-11.6816
▁şa	-11.6817
əti	-11.6827
▁ayrılı	-11.6846
em	-11.6849
kulumu	-11.6852
▁fr	-11.6857
şa	-11.6858
ntiy	-11.6858
tməliyik	-11.6861
əzakətl	-11.6861
▁tapşır	-11.6872
aşan	-11.6883
▁yerlərin	-11.6884
▁xəritələri	-11.6889
▁mikrofonda	-11.6895
şü	-11.6896
olarında	-11.6898
▁anlaşılma	-11.6902
əyin	-11.6902
tdı	-11.6912
▁dolaşı	-11.6915
rsan	-11.693
yıram	-11.6935
▁çıxışla	-11.6946
▁jurnallar	-11.6946
▁av	-11.6949
▁ald	-11.695
eral	-11.6951
▁şüaların	-11.6953
dirdi	-11.6953
liyini	-11.6958
aşının	-11.6962
▁ehtiyacını	-11.6968
▁mədəniyyətlər	-11.6972
▁izlədiyi	-11.6973
▁orbitdə	-11.6981
▁azalmasın	-11.6987
mətin	-11.6988
ros	-11.6988
laması	-11.6989
çəridə	-11.6993
▁həyatların	-11.6999
▁materialı	-11.7
amiz	-11.7007
▁işarələr	-11.7007
▁irəliləyi	-11.701
▁Bel	-11.7012
orlar	-11.7017
şu	-11.7018
▁Vi	-11.7018
▁nənəm	-11.7019
▁azı	-11.7024
▁dayandırdı	-11.703
▁evlənməd	-11.7038
ford	-11.704
▁ded	-11.7043
▁dəyişər	-11.7045
▁bildir	-11.705
▁ediri	-11.7058
▁nöqt	-11.7059
▁dal	-11.7061
▁bölgələrin	-11.7063
▁təcrübələr	-11.7064
▁smartfonları	-11.7066
▁kvadratı	-11.7067
buk	-11.707
ərd	-11.7076
▁hiyləgər	-11.7077
▁Mək	-11.708
fəs	-11.7084
▁sevinə	-11.7098
▁etməkdə	-11.7099
alətin	-11.7115
▁Gel	-11.7118
▁büroların	-11.7124
ilmek	-11.7127
▁protonlar	-11.7132
▁klav	-11.714
▁insanlığı	-11.7146
tirmək	-11.7147
▁heyrətlən	-11.7156
▁yu	-11.7157
▁sap	-11.716
ağız	-11.7161
ışı	-11.7167
▁biləcəyin	-11.717
yağa	-11.7171
▁oğurl	-11.7179
▁planlaşdırma	-11.7183
▁qitələr	-11.7187
▁daşıdığım	-11.7194
▁sevindir	-11.7195
▁növlərini	-11.7196
azası	-11.72
▁Duy	-11.7204
▁korrupsiyası	-11.7206
▁görüşün	-11.7217
▁bilirsi	-11.7218
▁Charle	-11.7219
oley	-11.7221
▁fonda	-11.7225
▁baxışda	-11.7231
ob	-11.724
▁xatırlay	-11.7241
lığın	-11.7252
▁etdirmə	-11.7252
▁Çində	-11.7255
▁texnikaları	-11.7255
▁texnolo	-11.7256
tr	-11.7258
▁bey	-11.7261
▁nisbətdə	-11.7262
ter	-11.7263
▁yan	-11.7267
▁aparmalı	-11.7283
▁genişləndirdi	-11.7288
▁azalması	-11.729
▁Sey	-11.7295
▁təcrübəmi	-11.7302
▁Planlar	-11.7303
▁riay	-11.7305
▁sürətini	-11.7308
▁məqsədl	-11.7314
▁iflici	-11.7322
▁qanunlarını	-11.7324
▁görən	-11.7329
amaq	-11.7332
▁cisimlər	-11.7335
koti	-11.7337
▁sevindi	-11.7339
▁Evli	-11.7344
▁tuturu	-11.7349
▁görüntülə	-11.7362
▁evində	-11.7363
lli	-11.7363
▁yaran	-11.7366
▁İnsanl	-11.7367
ruz	-11.7368
▁qonşuları	-11.7368
▁Bibliyalar	-11.7368
kla	-11.7378
rəsi	-11.7389
▁canlandırm	-11.7398
▁krateri	-11.7399
▁şü	-11.7402
▁seçilir	-11.7417
manı	-11.7418
▁tərəflərin	-11.7424
oqram	-11.7433
▁sevinir	-11.744
▁səsləri	-11.7446
▁günündə	-11.7447
▁öyrədilmə	-11.7448
▁qalıqların	-11.7448
▁dik	-11.7455
▁reallaşdığı	-11.7461
▁yoldu	-11.7474
ulyasiya	-11.7476
▁tu	-11.7481
▁qayanı	-11.7483
rindən	-11.7485
▁cəh	-11.7488
▁əkinçi	-11.7492
▁kökün	-11.7494
▁sözlərində	-11.7495
▁azalı	-11.75
▁iztirabl	-11.7505
kad	-11.7511
▁alsa	-11.7511
▁filmim	-11.7515
özümlülük	-11.7517
▁bəl	-11.7519
▁zorlam	-11.7523
tle	-11.7526
▁sürür	-11.7537
▁xarakteri	-11.7543
▁bişiril	-11.7543
▁ak	-11.7546
▁olunduğun	-11.7548
▁yolların	-11.7558
▁hörmətin	-11.7559
▁des	-11.756
etini	-11.7566
▁uçar	-11.7569
▁dəlilik	-11.757
▁ataları	-11.7572
arət	-11.7573
mesin	-11.7574
▁cavabın	-11.7577
▁eşidir	-11.7578
▁bah	-11.7594
.	-11.7603
▁alması	-11.7606
▁yeniyetməli	-11.7611
▁pu	-11.7616
▁lo	-11.7617
▁sürətləndiri	-11.762
▁istifadəçiləri	-11.7623
▁toplan	-11.7624
▁proqnozla	-11.7625
ləşir	-11.7626
manın	-11.7627
▁maç	-11.7628
əşf	-11.7633
▁görməni	-11.7634
▁sənədi	-11.764
▁sirrini	-11.7646
məsəydi	-11.765
▁ismarıclar	-11.7661
▁sistemlər	-11.7664
▁məhr	-11.7672
▁Iç	-11.7681
▁oyunca	-11.7681
▁yavaşlama	-11.7685
yirlər	-11.7696
layı	-11.7701
laz	-11.7705
▁sistemimizi	-11.7707
▁üzləşdiyi	-11.7712
▁seçkili	-11.7717
▁möhkəm	-11.7722
▁itirmi	-11.7723
▁yığı	-11.7725
▁Məlumatı	-11.7729
atçıları	-11.7731
▁baxmır	-11.7734
▁çıxardıq	-11.7736
▁nətə	-11.7739
▁ayırd	-11.7743
▁çöllər	-11.7743
anan	-11.7753
dam	-11.7767
▁hazırlamağ	-11.7769
dığın	-11.778
▁layihələri	-11.7802
▁Jun	-11.7808
rilmiş	-11.7817
▁yaşlarında	-11.7828
tat	-11.7832
▁bioloq	-11.7834
▁Xəstəli	-11.7838
▁cou	-11.784
adə	-11.7856
▁dolaş	-11.7866
▁yeməyin	-11.7866
alım	-11.7866
▁proyektim	-11.7868
▁potensialı	-11.7874
▁oyunları	-11.7892
▁yerim	-11.7895
can	-11.7895
hala	-11.7899
siy	-11.7905
▁solun	-11.7921
▁yeməyimi	-11.7927
▁qorxudu	-11.7933
şdır	-11.7938
▁Muzey	-11.794
qanq	-11.7941
fe	-11.7944
▁Yaradıcılığı	-11.7947
▁danışmır	-11.7953
▁qisimin	-11.7963
lükdə	-11.7964
▁etirazlar	-11.7968
▁başlam	-11.7982
ənlər	-11.7983
erin	-11.7996
▁limit	-11.7998
▁qrammatik	-11.801
▁biti	-11.8014
lırlar	-11.8015
oxusun	-11.803
▁irəliləyişi	-11.8031
▁çalışara	-11.8031
şmələr	-11.8039
ləndirmək	-11.8045
▁təchizatı	-11.8053
▁nigeriyalılar	-11.8058
▁iclasları	-11.8062
incan	-11.8064
▁əladı	-11.8065
ahib	-11.8071
ayaq	-11.8073
arıxm	-11.8084
ətbəx	-11.8086
▁bölüş	-11.8089
bbi	-11.8089
▁otaqları	-11.8095
▁oğurluğun	-11.8095
▁müharibəsin	-11.8095
yəq	-11.8107
etta	-11.8113
▁seçdi	-11.8115
▁uyğunlaşdır	-11.8116
erlər	-11.8118
ala	-11.8128
▁Səsi	-11.8132
▁yerləşdirmə	-11.8137
▁genişlənmə	-11.8148
▁gücləndi	-11.8154
▁Qur	-11.8155
oq	-11.816
▁iy	-11.8165
▁ust	-11.8169
▁övladı	-11.817
mızda	-11.8176
▁gəlməy	-11.8177
rmi	-11.8204
▁keçirməy	-11.8204
▁mirası	-11.8209
▁tü	-11.8211
▁xəbərlərin	-11.8214
▁baxacağı	-11.8214
▁Frans	-11.8229
▁beynini	-11.8231
▁ik	-11.824
yok	-11.8243
▁dalğalanma	-11.8245
▁qarşımız	-11.8255
uyur	-11.8284
▁bayramı	-11.8299
aydı	-11.8322
vaz	-11.8328
ımda	-11.8335
ernat	-11.8337
▁zərərl	-11.8338
▁yerlərini	-11.8338
ephe	-11.8348
ülür	-11.835
▁böyüdür	-11.8361
məməyim	-11.8368
klar	-11.8369
▁ölmə	-11.8381
▁alacaq	-11.8382
kik	-11.8386
əciklər	-11.8389
▁itiril	-11.8398
▁Neda	-11.8411
▁ticarətin	-11.8415
▁çoxluqlar	-11.8419
▁Şəkl	-11.8428
▁etmədiyim	-11.8429
▁xəstəxanalar	-11.8431
mdı	-11.8437
▁Fərqlili	-11.8447
▁azlığın	-11.8448
▁rifləri	-11.8452
frans	-11.8452
▁üzəri	-11.8458
▁agentlikləri	-11.846
olunda	-11.8461
▁fleytalar	-11.8468
▁yayı	-11.8469
▁institut	-11.8474
▁bankı	-11.848
▁reallaşma	-11.8484
▁oranı	-11.8485
nad	-11.8486
elin	-11.8489
▁am	-11.8494
pozi	-11.8506
▁söhbətin	-11.8545
məyimin	-11.8547
▁cəmiyyətdə	-11.8553
▁dərmanlar	-11.8556
▁gözlədiyi	-11.8558
▁almadığın	-11.8566
pressi	-11.8575
▁keyfiyyətlər	-11.8579
▁yağışları	-11.858
halle	-11.8583
▁kəsilmə	-11.8585
▁bəzilərində	-11.8588
▁səslən	-11.8597
▁Qul	-11.8598
▁çaş	-11.8598
▁qoyulma	-11.8603
▁məx	-11.8605
bə	-11.8607
▁anlayaca	-11.8611
▁dolana	-11.8613
▁dəstəkləyi	-11.8613
isə	-11.8617
uşdu	-11.8618
▁həşarat	-11.8618
▁genomu	-11.8631
▁əllərin	-11.8632
af	-11.8633
ələk	-11.8637
▁əvvəlin	-11.8637
▁gördüklərimi	-11.8638
lend	-11.8663
▁bağışlayı	-11.867
▁təh	-11.8673
▁bö	-11.8675
▁xə	-11.8679
ret	-11.8681
yib	-11.8687
▁işimizi	-11.8687
▁önəmlidi	-11.8687
▁məsafəsin	-11.8693
alan	-11.8695
arında	-11.8696
uyu	-11.8696
▁uyğunlaş	-11.8696
one	-11.8702
▁etmədi	-11.8705
▁hissələrini	-11.8711
▁rəhm	-11.8713
yrı	-11.8719
▁olmamışd	-11.8725
▁kitabxanaları	-11.873
▁gözləntilər	-11.873
▁soruşm	-11.8731
▁qəlbin	-11.8739
▁yaddaşımız	-11.8744
▁dəqiqlik	-11.8747
lif	-11.8748
▁görül	-11.8749
▁həvəsi	-11.8751
▁TEDdə	-11.8756
sch	-11.8756
▁kütləni	-11.8759
tman	-11.8762
▁şirkətdə	-11.877
▁əlim	-11.8791
ttı	-11.8792
▁ey	-11.8794
▁versə	-11.8797
yisə	-11.88
▁verəcəyin	-11.8805
▁sevirdi	-11.8806
▁boyut	-11.8811
▁Qar	-11.8813
rdə	-11.882
▁kimliklərim	-11.882
▁itirə	-11.882
▁şüurl	-11.8828
tanın	-11.8831
▁xəritədə	-11.8833
▁kuy	-11.8837
lənmiş	-11.8854
liğin	-11.8856
▁görünmə	-11.8857
unan	-11.8861
▁Her	-11.8861
▁yaxınları	-11.8864
▁Ərini	-11.8864
▁söylə	-11.8868
▁kvadratlar	-11.887
▁məktubu	-11.8877
azdıq	-11.8878
dw	-11.8886
▁Həyatı	-11.8905
▁bəzəyi	-11.8906
▁şiş	-11.8907
▁belir	-11.8907
▁burday	-11.8913
tməmiş	-11.8919
▁inc	-11.8923
▁dah	-11.8924
dəlik	-11.8927
▁formalaşdır	-11.8929
▁durdur	-11.8936
▁fondu	-11.8936
chest	-11.8942
▁pas	-11.8947
▁Uqandada	-11.8954
▁iclasların	-11.8955
▁olm	-11.8959
▁Əri	-11.8965
▁çalışmaqdı	-11.897
▁danışdığımı	-11.8971
▁bo	-11.8971
▁almalar	-11.8973
are	-11.8977
▁idarəçi	-11.8985
▁örtü	-11.9
▁müdrik	-11.9001
çu	-11.9006
▁hazırlanı	-11.9013
▁itirmə	-11.9019
▁qoşula	-11.903
▁deyəcəyim	-11.9051
işlə	-11.9051
pertlər	-11.906
ten	-11.9061
▁komp	-11.9063
▁xortum	-11.9065
ibra	-11.9066
▁Eve	-11.9072
▁səhifəsi	-11.9081
▁qiymətləri	-11.9085
▁keçidi	-11.9087
cke	-11.9092
▁tini	-11.9096
▁əyril	-11.9099
▁ayırdı	-11.9099
ilik	-11.91
qıran	-11.9115
▁vermirdi	-11.9115
▁199	-11.9118
▁vəzifəsin	-11.9121
▁arxada	-11.9132
20	-11.9136
▁zalda	-11.9154
▁məsləhəti	-11.9155
▁keçidin	-11.9159
▁yığıl	-11.9173
olun	-11.9181
▁çoxala	-11.9182
əf	-11.919
▁bağlay	-11.919
▁etdiri	-11.9191
▁alg	-11.9192
dikləri	-11.9193
▁sadəsi	-11.92
tanda	-11.9215
▁sərhədin	-11.9236
iti	-11.9236
▁Varlı	-11.924
▁rəqəmləri	-11.9241
▁saxlama	-11.9256
▁oyn	-11.9264
▁Aç	-11.9269
▁oxus	-11.9271
▁yazılar	-11.9272
▁fərqlili	-11.9281
▁kameranı	-11.9283
▁zamank	-11.9298
nge	-11.9299
siyada	-11.93
acağımı	-11.9303
▁yeməy	-11.9306
▁qoxu	-11.9307
▁rəssamdı	-11.9316
▁tapmaya	-11.9317
▁yaşını	-11.9318
▁sıxlaşdı	-11.9321
▁İsveçi	-11.9326
▁Sahi	-11.9329
▁Sah	-11.9341
▁Birlik	-11.9341
ecu	-11.9342
▁modifi	-11.9346
ışın	-11.9351
stə	-11.9354
▁aşıla	-11.9357
kal	-11.9357
▁saxlayar	-11.9363
arə	-11.9367
cel	-11.9377
▁ağıl	-11.9379
▁varlığın	-11.938
əkləri	-11.9382
▁yazış	-11.9386
▁azal	-11.9397
▁dostları	-11.9411
▁hərəkətin	-11.9412
▁səliqəsiz	-11.9423
ost	-11.9423
▁dərəsi	-11.9428
▁oturma	-11.9436
▁əksəriyyət	-11.9453
▁yaşayanlar	-11.9456
▁Mo	-11.9464
lmuş	-11.9466
▁qovuşma	-11.9473
▁Fikirləş	-11.9481
▁bacarı	-11.9486
▁göstərməy	-11.9493
▁xüsusiyyət	-11.9498
obotu	-11.9499
▁ca	-11.9508
▁tapşırığını	-11.9524
inan	-11.9531
muzu	-11.9546
▁tanınmış	-11.955
▁geyini	-11.9562
▁qab	-11.9566
▁kullanı	-11.9574
▁Günün	-11.9575
▁ehtimallar	-11.9577
▁Mit	-11.9582
nün	-11.9587
api	-11.9592
▁lik	-11.9598
▁çatır	-11.9613
▁olacaqsa	-11.9615
sur	-11.962
▁Er	-11.9623
▁ağı	-11.9629
tra	-11.9634
▁Amerik	-11.9636
▁yaxınlaşır	-11.964
▁Evlərin	-11.9641
ılması	-11.9641
iber	-11.9642
▁ştat	-11.9644
▁araşdırmalar	-11.9646
▁Bacılarım	-11.965
lvarı	-11.9651
▁çalışanda	-11.9651
duğumuz	-11.9652
▁ani	-11.9652
▁çıxdıq	-11.9655
▁qalanı	-11.9658
▁bilməməyi	-11.9659
ollarlar	-11.966
▁tutumu	-11.9662
tıl	-11.9662
▁Məsəl	-11.9663
dinan	-11.9672
▁elan	-11.9673
▁çalm	-11.9676
ula	-11.9682
▁universitetdə	-11.9687
▁Foto	-11.9689
▁Ca	-11.969
▁res	-11.9691
▁yayımlan	-11.9691
▁duy	-11.9692
▁eşi	-11.9695
çox	-11.9695
▁özlərində	-11.9703
▁zalı	-11.9705
ühafizəçi	-11.9712
▁Agentliyi	-11.9725
alıcı	-11.9733
▁rəsmdə	-11.9733
▁əsəb	-11.9737
pardığı	-11.9749
yimizi	-11.975
▁zalın	-11.9753
▁Ailəm	-11.9755
▁bulud	-11.9763
▁qapıları	-11.9766
tabilir	-11.9769
ranın	-11.9772
▁qazlar	-11.9772
▁molekul	-11.9777
▁elmdə	-11.9781
▁cüml	-11.9782
▁Qan	-11.9789
▁qiyməti	-11.9813
amı	-11.9817
▁zorl	-11.9821
rıya	-11.9822
▁Dər	-11.9825
▁kimlikləri	-11.983
▁dövrləri	-11.9831
▁tərəfd	-11.9834
▁yaşamı	-11.9841
▁üzür	-11.9845
▁səpəl	-11.9848
üyorlar	-11.9849
▁Düşünür	-11.9855
▁partnyor	-11.9857
▁mak	-11.9859
▁çəkilmə	-11.9861
▁Qələ	-11.9861
▁etkileş	-11.9864
▁birləşmə	-11.9866
ləşdirən	-11.9866
uya	-11.9869
məliydi	-11.9872
şını	-11.9873
dərək	-11.9876
▁sərnişinlər	-11.9879
rq	-11.9883
▁döngülerin	-11.9885
▁gezegenler	-11.9886
▁hədəfi	-11.9887
toqraf	-11.9894
▁günə	-11.99
▁genlərimiz	-11.9901
▁dəhşətlidi	-11.9905
▁Atasın	-11.991
▁seqment	-11.9914
▁izi	-11.9919
▁mübahis	-11.9923
▁gerilə	-11.9925
▁Ulduz	-11.9928
▁Tarix	-11.9936
▁inanma	-11.9949
▁Hamın	-11.9955
▁yığm	-11.9963
▁maraqlandı	-11.9965
arakan	-11.9967
eddi	-11.9971
▁Sevi	-11.9972
ğunuz	-11.9976
▁17	-11.9978
▁oğlanların	-11.9981
▁bayırda	-11.9984
sinlər	-11.9984
▁Yoru	-11.9994
▁bala	-12
▁formaların	-12.0001
▁ortaların	-12.0014
ional	-12.002
▁sərhəddə	-12.0022
▁pulları	-12.0028
▁əh	-12.0033
▁rəsədxana	-12.0038
▁tapıl	-12.0052
nsa	-12.0052
dıysa	-12.0055
ave	-12.0055
▁Insan	-12.0066
▁Dünyada	-12.0068
rdik	-12.0069
ston	-12.0072
▁bur	-12.0074
▁söyləm	-12.0074
▁Kimliyim	-12.0081
▁hazırlanmış	-12.0092
▁interneti	-12.0094
▁mərhələsi	-12.0097
▁köşk	-12.0114
ındı	-12.0128
▁ailələrin	-12.0128
▁bazarlar	-12.0137
tlarını	-12.0138
▁verməlidi	-12.014
rfo	-12.0142
eyilmi	-12.0143
▁tanımağı	-12.0155
▁gizlili	-12.0155
▁halları	-12.0156
▁Mal	-12.0163
rlə	-12.017
▁mo	-12.0176
▁təsvirləri	-12.0178
▁təbəqəsi	-12.018
▁formaları	-12.0184
ılmışdı	-12.0185
▁bədəni	-12.0185
anada	-12.0186
alıb	-12.02
▁rahatl	-12.0213
▁ac	-12.0214
▁məlumatların	-12.0214
indedi	-12.0215
▁gülə	-12.0219
▁topa	-12.0226
▁çəkilişləri	-12.0229
▁toxum	-12.0235
▁bədbəxtliklə	-12.0257
▁qurğu	-12.0264
mumd	-12.0265
zim	-12.0288
▁Mənliyi	-12.0298
abe	-12.0303
▁düny	-12.031
▁çəkilə	-12.0313
▁dəyişməsi	-12.0318
enin	-12.032
sünü	-12.0323
▁təəccüb	-12.0328
▁İnsa	-12.0332
▁nəşri	-12.0334
laşsaydı	-12.0338
▁baxm	-12.0344
▁parçalan	-12.0348
▁qüvvədə	-12.0351
▁dərsli	-12.0354
▁şifrələn	-12.0359
▁gi	-12.036
▁səthdə	-12.0363
llanmasın	-12.0366
▁tanışlar	-12.0368
▁uzaqlığı	-12.0372
▁Güc	-12.038
ədək	-12.0387
lama	-12.0399
ow	-12.04
isti	-12.0401
▁paltarları	-12.0402
▁wa	-12.0407
▁evim	-12.0426
▁nümunədə	-12.0427
▁Həqiq	-12.043
▁işləməy	-12.0434
▁düşüncələr	-12.0444
hzadə	-12.0452
leşti	-12.0457
▁buludları	-12.0462
▁yoru	-12.0464
▁inancın	-12.0464
zot	-12.0471
▁fikr	-12.048
▁gətirdik	-12.0494
▁dərəcəsin	-12.0501
amızı	-12.0502
ışdı	-12.0505
▁qalası	-12.0511
ett	-12.0523
▁sahəsini	-12.0523
▁yoxsul	-12.0524
lin	-12.0525
▁Kişil	-12.0527
erik	-12.0528
▁xatırlayar	-12.053
▁odu	-12.0546
lməklə	-12.0554
▁Gördüyüm	-12.0557
▁Xa	-12.0569
▁tamaşaçılar	-12.0569
▁tədqiqatçılar	-12.0576
məsin	-12.0582
ekte	-12.0587
ite	-12.0588
ube	-12.0591
▁qabağ	-12.0596
▁biləcəyimi	-12.0597
▁prosesin	-12.0603
▁səyahətin	-12.0603
işlər	-12.0608
▁həşəratdı	-12.062
▁düzəldi	-12.0627
▁çatdırır	-12.0635
tıların	-12.0642
▁Bina	-12.0642
▁əhvalatı	-12.0643
tronlar	-12.0644
▁ild	-12.0649
inlərlə	-12.0654
evril	-12.066
▁dünyasın	-12.0661
spekt	-12.0664
15	-12.0671
▁əvəzlə	-12.0676
arımkürəsi	-12.068
▁Br	-12.068
▁enə	-12.0683
Sh	-12.0687
axın	-12.0694
▁təcrübəl	-12.0694
ürsən	-12.0696
ssis	-12.0705
atmağ	-12.0706
▁dağlar	-12.0708
bilir	-12.0735
▁rəhbər	-12.0739
övrə	-12.0745
▁tozla	-12.0747
ığımızı	-12.0753
rakə	-12.0754
▁bilməsə	-12.0755
zda	-12.0755
▁təyyarələrin	-12.0759
▁kitabxana	-12.076
ebileceği	-12.0779
övr	-12.0782
▁hərəkətlər	-12.0783
daha	-12.0787
▁əməliyyatı	-12.0796
ari	-12.0797
▁istəd	-12.0799
tani	-12.0804
▁bakteriya	-12.0806
▁dəstə	-12.0807
▁təminatı	-12.0811
▁oturduğu	-12.0811
▁peş	-12.0818
▁davamı	-12.0823
▁tale	-12.0825
▁Öyrən	-12.0826
▁yaratmağı	-12.0831
▁İtir	-12.0834
ışıy	-12.0838
tılıyor	-12.0841
▁Mot	-12.0844
▁ayaqqabılar	-12.0845
▁qarışdırı	-12.0853
oy	-12.0871
▁ümidsizli	-12.0873
ədir	-12.0881
▁təsdiqlə	-12.0884
▁şifrələm	-12.0895
▁Ağlı	-12.0899
vand	-12.0902
ranı	-12.091
▁müharibələr	-12.0911
▁Küveyt	-12.0912
emək	-12.0913
▁olunduğu	-12.092
▁öldük	-12.0926
▁dəyişikliyini	-12.0926
▁razılaşm	-12.0933
▁Mənanı	-12.0935
▁evlənmə	-12.0939
▁araşdırdığı	-12.094
çım	-12.0944
▁buranı	-12.0955
ayım	-12.0956
▁İnternet	-12.0958
▁varlığı	-12.0989
ö	-12.0993
▁tərzim	-12.0993
lini	-12.0997
▁fotolar	-12.0999
qraf	-12.0999
▁başl	-12.1003
▁bitirm	-12.101
arlarda	-12.1012
şan	-12.1013
ışdıq	-12.1016
led	-12.1017
▁toplam	-12.1024
▁Anla	-12.1044
▁bilməsi	-12.1051
rotestantl	-12.1051
▁irqi	-12.1056
ep	-12.1065
▁bitkidə	-12.1066
▁anlaşma	-12.1072
vid	-12.1078
▁düymələr	-12.1091
▁yarışın	-12.1093
▁naqil	-12.1106
▁görməyin	-12.1107
▁çatı	-12.1118
▁yazmış	-12.1124
enleri	-12.1129
▁qırı	-12.113
▁salmağı	-12.1135
sızdır	-12.114
▁qovuşdu	-12.1142
▁qiyam	-12.1145
▁zamanında	-12.1147
▁yerdi	-12.1154
▁Kö	-12.1154
qədər	-12.1155
▁qəhramanlar	-12.1156
iyorsun	-12.1159
▁göstərilmə	-12.116
▁satılm	-12.1162
udunuz	-12.1164
yyatı	-12.1165
▁mövcudluğ	-12.1166
▁fikirləşməmiş	-12.1167
▁düze	-12.117
ilməyin	-12.1182
ətlər	-12.1189
▁açdığı	-12.1192
▁getmiş	-12.1193
rmaq	-12.1206
▁toxunm	-12.1212
iyi	-12.1215
▁zəiflə	-12.1221
▁yazmalı	-12.1224
ğından	-12.1228
▁dəri	-12.1234
per	-12.1235
▁dağıla	-12.1243
tirmiş	-12.1254
▁dir	-12.1257
ürək	-12.1258
▁əsərlər	-12.1261
▁uydur	-12.1267
▁alabil	-12.127
▁məsələdi	-12.1272
▁yazını	-12.1274
düyünüz	-12.1288
üşü	-12.1289
lənəcək	-12.129
▁xatırladı	-12.1297
▁iclasa	-12.13
▁axtarırsı	-12.13
▁qoymay	-12.1304
yırdı	-12.1306
▁Riyazi	-12.1307
lacak	-12.1308
▁keçməs	-12.1314
▁dö	-12.1319
iyada	-12.1321
▁səbə	-12.1326
▁yüklə	-12.1334
▁Rut	-12.1335
▁resurslar	-12.1337
▁qabiliyyət	-12.1341
zib	-12.1342
▁qaynay	-12.1343
▁yaxşıdı	-12.1343
▁atan	-12.1355
cur	-12.1358
▁göndərmə	-12.1358
mak	-12.1361
bilər	-12.1364
▁yat	-12.1365
▁paylaşmağı	-12.1367
iri	-12.1375
bel	-12.1376
▁statistik	-12.1381
face	-12.1388
▁yazıların	-12.1393
▁Səma	-12.1394
▁İyu	-12.1395
▁almalı	-12.1402
▁Başqaları	-12.1402
kmilləşdirilməsi	-12.141
▁Həyatım	-12.1415
ayırdı	-12.1416
▁Gələcək	-12.1429
▁buyur	-12.143
yət	-12.1436
▁arx	-12.1442
▁sezi	-12.1447
oyunu	-12.1451
▁etmis	-12.1454
▁ax	-12.1457
▁böhran	-12.1459
▁küç	-12.146
▁qurumları	-12.146
▁professionall	-12.1462
▁tikm	-12.1463
▁Sierr	-12.1475
▁anladığı	-12.1479
▁Dedi	-12.1483
ləşməyə	-12.1486
▁dayandığım	-12.1488
▁azaltm	-12.1492
▁əsrləri	-12.1503
▁gedər	-12.1506
lərsə	-12.152
▁filter	-12.1529
▁qoyar	-12.1535
▁ant	-12.1538
▁qıs	-12.1541
▁görmədiyim	-12.1546
▁çeviri	-12.1549
▁Mərkəz	-12.1552
ail	-12.1553
▁verdiyimi	-12.1556
▁yadınız	-12.1567
▁oturm	-12.1567
▁sənətlə	-12.1577
▁biridi	-12.1582
▁bildiyini	-12.1602
ilindrlər	-12.1603
▁buralar	-12.1607
▁anladığım	-12.1616
keş	-12.1618
▁dünyaları	-12.162
iklər	-12.1624
▁bəzilər	-12.1628
▁verdiyin	-12.1628
üzləri	-12.1629
▁qocal	-12.1635
▁xətlə	-12.1642
▁solu	-12.1644
▁Məktəbi	-12.1647
▁başlıq	-12.1654
ahat	-12.1656
▁rənglə	-12.1657
▁Günüm	-12.1661
▁halların	-12.1663
▁vaxtın	-12.1666
▁Xatırla	-12.1667
ürəm	-12.1682
▁uçuşları	-12.1683
▁digərində	-12.1686
▁fərqlən	-12.1691
onald	-12.1693
▁Ölkə	-12.1694
▁adası	-12.1702
▁qalmağ	-12.1702
görüşündə	-12.1702
işdir	-12.1712
əzetin	-12.1713
▁mat	-12.1719
▁almı	-12.1728
▁terrori	-12.173
▁aparma	-12.1731
▁funksiyasın	-12.1739
miqrasiya	-12.1747
azon	-12.1748
▁zəngləri	-12.1757
▁modelləri	-12.1767
▁oluş	-12.1772
▁məzmu	-12.1773
▁mater	-12.1774
▁məhsullar	-12.1776
rulmuş	-12.178
▁aparı	-12.178
ncə	-12.1782
aban	-12.1787
os	-12.1797
▁elektro	-12.1801
casına	-12.1801
▁Mat	-12.1806
▁əhvalat	-12.1807
ümə	-12.1812
▁mülahizə	-12.1815
▁Xəbər	-12.1817
▁kompüterlər	-12.1819
▁Döyü	-12.182
▁irq	-12.1823
prov	-12.1823
▁ədaləti	-12.1824
out	-12.1826
rukl	-12.1826
▁adl	-12.1826
▁vuru	-12.1827
ff	-12.1829
rələrin	-12.1829
ht	-12.1831
▁olunmad	-12.1835
▁Qaz	-12.1837
▁təxəyyül	-12.1841
▁bənzəyə	-12.1844
rl	-12.1849
erle	-12.1853
▁adamları	-12.1855
▁tapılm	-12.1861
özüm	-12.1861
kiyə	-12.1863
▁ortasın	-12.1866
▁cərəyan	-12.1867
▁inamımı	-12.1867
üds	-12.1868
▁çəkəcə	-12.1883
▁Ho	-12.1885
▁boya	-12.1892
tisadiyyat	-12.1893
mədiyini	-12.1894
mdır	-12.1895
ifi	-12.1901
▁Den	-12.1902
▁qals	-12.1904
▁göstərmə	-12.1905
▁bacarıqla	-12.1906
zaman	-12.1907
cümə	-12.1908
▁Mon	-12.1909
▁fikirlərin	-12.191
▁quruldu	-12.191
▁inandı	-12.1913
şmaq	-12.1913
mez	-12.1929
▁uşaqlarda	-12.193
iznes	-12.193
▁stres	-12.193
▁sarayı	-12.1943
axı	-12.1945
▁hazırlaşma	-12.196
kları	-12.1965
▁kapa	-12.1965
▁çıxard	-12.1965
▁müsahibələri	-12.1966
ərkə	-12.1969
▁qazanma	-12.197
▁araştır	-12.197
▁yaradar	-12.1971
▁zama	-12.1974
onunda	-12.1978
işdik	-12.1981
▁deyilsən	-12.1983
▁Eşi	-12.1987
bol	-12.1989
iləsi	-12.1989
▁müddətini	-12.1991
▁yörünge	-12.1995
exanizmi	-12.1995
düyün	-12.2005
rü	-12.2005
ommersi	-12.2005
▁vuranla	-12.2008
▁törədi	-12.2017
▁artı	-12.2021
▁edilməyə	-12.2028
▁adalar	-12.2031
ındayk	-12.2035
üy	-12.2043
▁Profess	-12.2045
adar	-12.2046
▁keçəndə	-12.2048
▁İstər	-12.2051
▁çıxdığımı	-12.2052
▁Laqos	-12.2055
▁küçə	-12.2058
▁uğurla	-12.206
▁əksi	-12.2061
▁vuruş	-12.2061
▁zehn	-12.2072
rici	-12.2073
▁siçanla	-12.2077
▁nik	-12.2081
üle	-12.2084
ıqca	-12.2086
▁dəyə	-12.2088
əth	-12.2092
▁Cen	-12.2092
▁genişləndi	-12.2098
▁parti	-12.2102
▁dostu	-12.2104
lmaz	-12.2105
ral	-12.2106
ped	-12.211
▁fanta	-12.2111
▁atalar	-12.2117
▁hərflə	-12.2119
▁həqiqəti	-12.2122
ğımızda	-12.2123
▁xatırlad	-12.2127
▁yaranma	-12.2133
leyebil	-12.2134
cud	-12.2134
adığımız	-12.2134
▁ayağın	-12.2137
nlü	-12.2139
▁Ətraf	-12.2139
▁dağıntılar	-12.2141
▁yar	-12.2146
▁qrupla	-12.2154
▁oyunu	-12.2154
maya	-12.2156
▁gətirmiş	-12.2156
yuq	-12.2164
çü	-12.2179
fikir	-12.2179
▁parçacığı	-12.2181
▁ənənəsi	-12.2181
▁yayın	-12.2183
▁Xan	-12.2187
oru	-12.2188
▁inamım	-12.2189
onda	-12.219
▁törəmə	-12.219
,	-12.2192
sevər	-12.2194
▁ür	-12.2197
▁olmayacağı	-12.2198
▁Görürsü	-12.2199
▁rollar	-12.22
▁olduğ	-12.2203
ələstinli	-12.2204
▁Parça	-12.2205
▁müştəri	-12.2206
▁üsulla	-12.2208
oxlu	-12.2211
▁tapar	-12.2212
Y	-12.2213
▁baxışımı	-12.2213
▁pla	-12.2214
▁saxlay	-12.2217
▁olunmam	-12.2217
yası	-12.2218
Ə	-12.222
arter	-12.2225
▁uc	-12.2226
▁qaranlığ	-12.2229
▁ifalar	-12.223
yollarında	-12.2234
▁məqsədlə	-12.2238
yanacağı	-12.2242
▁keyfiyyətlə	-12.2242
▁Nigeriy	-12.2244
▁yükü	-12.2246
▁elementləri	-12.2246
arının	-12.2246
ərini	-12.2251
▁tozlu	-12.2253
iji	-12.2261
aha	-12.2261
atını	-12.2263
▁müə	-12.2264
mədiyi	-12.2266
▁ate	-12.2267
▁axış	-12.227
nmamış	-12.2271
nməyə	-12.2276
zı	-12.2277
▁ağsaqqal	-12.2278
G	-12.2278
▁elmlər	-12.2278
▁gözlənti	-12.2282
▁etməyəcə	-12.2285
meye	-12.2292
▁rəsmlə	-12.2295
▁ruhumu	-12.2296
▁termina	-12.2297
▁danışdıq	-12.2303
▁oz	-12.2305
▁altda	-12.2314
▁şimalda	-12.2315
aştırma	-12.2316
ansları	-12.2318
▁yadplanetli	-12.2327
▁resurs	-12.2327
▁karşı	-12.233
▁sön	-12.2331
▁etməyəcəyi	-12.2332
▁biləcəklər	-12.2332
▁çi	-12.2333
▁xərcl	-12.2336
tutması	-12.2336
▁konuş	-12.2338
▁uşaqlığım	-12.2339
▁siyasəti	-12.2339
simp	-12.234
toriya	-12.2341
▁Bankın	-12.2343
▁zədəl	-12.2344
lam	-12.2345
olduğumuz	-12.2346
▁halqaları	-12.2351
▁oğlanları	-12.2353
gəlmə	-12.2354
▁Növ	-12.2354
altında	-12.2354
▁dokt	-12.236
36	-12.236
▁danışmadı	-12.2361
▁ide	-12.2364
▁bişe	-12.2368
▁edilmədi	-12.237
▁varlığında	-12.2372
söndür	-12.2374
ravan	-12.2375
▁Günd	-12.2377
heyran	-12.2378
idarə	-12.2379
çisi	-12.2381
▁şəx	-12.2386
▁duyğu	-12.2387
▁prinsipi	-12.2387
trand	-12.2391
▁qalxa	-12.2392
əlik	-12.2393
▁maraql	-12.2394
yləşənlər	-12.2398
▁tapılmı	-12.24
▁doğ	-12.24
▁Poli	-12.2402
normal	-12.2406
uldoz	-12.2406
▁Başla	-12.2407
▁qardaşı	-12.2407
kamera	-12.2407
ons	-12.2408
xırda	-12.2408
öyrənmək	-12.2408
ləşdiyin	-12.2416
▁iqti	-12.2416
ənsub	-12.2417
sifət	-12.2419
etmə	-12.2419
▁məşğuldu	-12.2419
▁tət	-12.2422
yarısı	-12.2427
aşağı	-12.2431
▁kimidi	-12.2432
▁fotoqrafl	-12.2433
imleri	-12.2438
enhei	-12.244
▁böcək	-12.2443
arların	-12.2443
▁met	-12.2444
▁parlam	-12.2444
teatr	-12.2445
alacaqlar	-12.2447
olma	-12.2448
▁izləyici	-12.2448
▁uzaqlaşdığı	-12.2449
▁etməkdi	-12.245
sağlam	-12.245
▁sektoru	-12.245
X	-12.2452
▁Mug	-12.2452
mur	-12.2454
astro	-12.2455
təhlükəsiz	-12.2455
▁həyəcanla	-12.2457
▁nisbətlə	-12.2459
▁güm	-12.246
pian	-12.2463
real	-12.2463
ult	-12.2463
iriləri	-12.2465
▁özəlləş	-12.2466
▁gerçəkləş	-12.2467
▁performansla	-12.2467
▁sevə	-12.2472
io	-12.2472
▁nisb	-12.2473
▁palçı	-12.2474
ilme	-12.2476
film	-12.2477
müsən	-12.2477
göz	-12.2478
▁zil	-12.2478
▁Tanzaniya	-12.2485
▁məft	-12.2485
45	-12.2487
▁diqqəti	-12.2487
çəkmə	-12.2488
balaca	-12.2489
hesabı	-12.249
irlənmişdi	-12.2491
çus	-12.2493
bilmə	-12.2494
▁Bağış	-12.2496
▁mərkəzləri	-12.2498
ankın	-12.2498
boyu	-12.2501
▁qəhraman	-12.2501
▁ailəmi	-12.2502
▁Axı	-12.2502
terey	-12.2503
işləyən	-12.2506
▁dis	-12.2507
▁Də	-12.251
▁ayaqlar	-12.2516
▁Ölüm	-12.2517
▁yaşamağı	-12.2518
▁astronavt	-12.2523
osfer	-12.2524
uçuşların	-12.2524
▁qurulma	-12.2525
▁qor	-12.2526
▁öğre	-12.253
amil	-12.253
30	-12.2531
xal	-12.2531
▁ebat	-12.2535
los	-12.2535
ücü	-12.2539
tərəf	-12.2542
basma	-12.2543
13	-12.2543
anır	-12.2545
üstü	-12.2546
qeyd	-12.2547
əpənəyi	-12.2549
▁karşılaştır	-12.255
lövhə	-12.255
uludlu	-12.255
▁İnti	-12.2551
dikdə	-12.2552
▁Doğ	-12.2552
▁hazırlaşır	-12.2552
öl	-12.2553
bahı	-12.2556
▁şekillendir	-12.2556
▁Qorx	-12.2562
▁məsuliyyəti	-12.2563
▁hekayələrdə	-12.2567
gülü	-12.2568
▁cihazla	-12.2571
▁pho	-12.2571
▁bölgü	-12.2573
lit	-12.2575
ju	-12.2579
▁düşünməli	-12.2585
nimc	-12.2586
stronom	-12.2588
güdü	-12.2589
ota	-12.259
▁barmaqları	-12.2594
açlarım	-12.2595
ərurət	-12.26
▁güllə	-12.2601
▁vəziyyətlə	-12.2603
▁yönləndi	-12.2606
ükülü	-12.2607
antlar	-12.2609
▁tutması	-12.261
qurdu	-12.261
▁mexan	-12.2611
▁qüvvəsin	-12.2612
aktiv	-12.2613
əlli	-12.2615
▁sevm	-12.2615
ıştı	-12.2616
lövh	-12.2617
▁Tur	-12.2618
alırsınız	-12.2618
şid	-12.2621
▁İnd	-12.2622
▁gəlmələr	-12.2623
▁səfeh	-12.2625
▁Elektr	-12.2631
tılı	-12.2631
Me	-12.2631
gəmi	-12.2632
hwe	-12.2634
nallar	-12.2635
istər	-12.2637
ütü	-12.2638
öyləyən	-12.2638
təşəkk	-12.2641
▁Nənə	-12.2643
▁Azad	-12.2645
▁Kosmosda	-12.2646
▁Əlini	-12.2647
▁if	-12.2648
▁bankda	-12.265
ifliyi	-12.2651
▁uzak	-12.2652
axma	-12.2652
▁spe	-12.2654
▁Yaxınl	-12.2655
oruşduq	-12.2657
▁şifrələ	-12.2657
▁sevdi	-12.2658
▁qüvvələr	-12.2658
tiği	-12.2659
▁tələ	-12.2662
ığ	-12.2663
terləri	-12.2664
▁yelpi	-12.2664
itirdiyimizdə	-12.2666
rd	-12.2666
▁yumur	-12.2667
▁reklam	-12.2667
▁Təsadüf	-12.2668
▁umursa	-12.2669
▁milyar	-12.2669
quat	-12.267
▁törədil	-12.2673
yişdirə	-12.2674
lunda	-12.2675
▁yetirməy	-12.2676
aydın	-12.2676
▁həmkarım	-12.2677
▁Metropol	-12.2677
azanaca	-12.2678
arsa	-12.2678
arth	-12.2678
rub	-12.2678
ştirakçılar	-12.2679
iqtisadiyyat	-12.2679
şüur	-12.2679
rast	-12.2681
ust	-12.2682
ədəniyyətlərin	-12.2682
uşun	-12.2685
laştırıyor	-12.2685
yebil	-12.2686
▁vi	-12.2688
▁İncəsən	-12.269
ektorlar	-12.2691
ileme	-12.2693
▁mane	-12.2694
mayacak	-12.2694
▁vasitəm	-12.2694
▁yaşam	-12.2694
▁köçürül	-12.2696
örə	-12.2696
▁qı	-12.2696
vestorları	-12.2696
▁qərbi	-12.2696
▁ideyaları	-12.2697
aharı	-12.2697
▁bayra	-12.2698
axlamış	-12.2698
jet	-12.2698
▁küləyi	-12.2698
lülük	-12.2699
▁baxdığımı	-12.27
şağı	-12.2701
aların	-12.2702
▁çiçəklər	-12.2702
▁mühü	-12.2703
▁Planetari	-12.2704
aştıra	-12.2704
▁ritual	-12.2704
▁astrono	-12.2705
▁Wi	-12.2705
▁torpa	-12.2706
89	-12.2706
▁Məlum	-12.2707
ntili	-12.2708
▁köynə	-12.2708
trino	-12.2709
▁təsəvvü	-12.2709
çasını	-12.2709
▁hüceyrə	-12.2712
iləcəyi	-12.2713
▁səmərə	-12.2714
▁Görm	-12.2715
▁Dözüm	-12.2716
▁fikirləşdiyi	-12.2716
GS	-12.2718
trina	-12.2718
▁materialla	-12.2718
▁hündürlük	-12.2718
atımız	-12.2718
dükdə	-12.272
aşmaya	-12.2721
örün	-12.2722
alandı	-12.2722
armış	-12.2722
▁Norma	-12.2723
▁qanunvericili	-12.2724
ph	-12.2725
▁predmet	-12.2726
▁ötürül	-12.2727
ditoryum	-12.2728
üyor	-12.2728
▁mütəxəssis	-12.2728
▁imkanımı	-12.2729
▁Yazıçı	-12.2729
abileceğimiz	-12.273
▁fak	-12.2731
▁psixologiya	-12.2731
▁konser	-12.2732
malıdı	-12.2732
▁Rom	-12.2734
ənzətmə	-12.2734
▁məsələləri	-12.2735
▁asma	-12.2735
öhranı	-12.2735
▁yönlendir	-12.2736
▁qayğ	-12.2736
▁Nitq	-12.2736
▁Gül	-12.2736
xilində	-12.2737
▁üf	-12.2737
yeceğini	-12.2737
▁Tamaşa	-12.2737
iləcəyimiz	-12.2738
▁eğit	-12.2738
ərabər	-12.2738
tarırdı	-12.2738
flicin	-12.274
tarlarını	-12.274
rücüsü	-12.274
▁emosi	-12.274
▁bədbəxt	-12.2742
▁proqr	-12.2743
ritaniya	-12.2743
laydlar	-12.2744
▁müqəddə	-12.2744
▁kapita	-12.2745
komp	-12.2745
▁istəmədi	-12.2745
ılmadığı	-12.2746
ressi	-12.2746
xuduğum	-12.2746
▁Dəyişikli	-12.2746
▁İspan	-12.2746
nternet	-12.2746
entyabr	-12.2746
ətbə	-12.2747
ctimai	-12.2747
▁gezegen	-12.2747
aqnit	-12.2747
eyfiyyəti	-12.2748
▁kifayə	-12.2748
▁qrammat	-12.2748
üm	-12.2748
ərbəst	-12.2748
▁resur	-12.2748
ərhəd	-12.2748
öyüş	-12.2749
stehsal	-12.275
ehriban	-12.275
tmosferi	-12.275
ktyorlu	-12.275
ollivud	-12.2751
üqəddəs	-12.2751
uklalar	-12.2751
alğalanmalar	-12.2751
ikrofon	-12.2751
öqtə	-12.2751
omputer	-12.2751
▁uzatma	-12.2751
üşmüşdü	-12.2751
örüntüsün	-12.2752
übarizə	-12.2752
üvvələri	-12.2752
amanyolu	-12.2752
onstitusiya	-12.2752
ühazirə	-12.2752
nstitut	-12.2752
övsiyə	-12.2752
üşahidə	-12.2752
üsəlman	-12.2752
bildi	-12.2752
osmos	-12.2752
östereme	-12.2753
ümkün	-12.2753
▁Oxudu	-12.2753
vladları	-12.2753
▁Mic	-12.2753
oymur	-12.2753
formasiya	-12.2753
ins	-12.2753
übadilə	-12.2754
htiyac	-12.2754
örmət	-12.2754
üəyyən	-12.2754
▁informas	-12.2754
östərici	-12.2754
əşhur	-12.2754
əəccübl	-12.2755
əhmət	-12.2755
ədqiqatlar	-12.2755
orunma	-12.2755
ərhəmət	-12.2755
▁humani	-12.2755
əsləhət	-12.2755
▁müxtəli	-12.2755
▁duydu	-12.2755
adplanetli	-12.2755
tropologiya	-12.2755
östərdiyim	-12.2755
ğaclar	-12.2755
asitəsi	-12.2755
əşəbbüs	-12.2755
qqəti	-12.2755
sulun	-12.2756
sixo	-12.2756
əktubu	-12.2756
▁Təsəv	-12.2756
bileceğin	-12.2756
eyğımbər	-12.2756
ühərrik	-12.2756
tirilme	-12.2756
strukturla	-12.2756
ərmayə	-12.2756
▁Şirk	-12.2756
▁hesapla	-12.2756
önümü	-12.2757
▁Yaradıl	-12.2757
funksi	-12.2757
onşulu	-12.2757
rukturl	-12.2757
▁Dalğa	-12.2757
▁kaçır	-12.2757
▁invest	-12.2757
əritələr	-12.2757
▁keşfet	-12.2757
aşlama	-12.2757
edebili	-12.2757
türür	-12.2757
okrat	-12.2757
aliforni	-12.2757
lendirilmi	-12.2757
diyyatımı	-12.2757
ulaştı	-12.2757
rrrrr	-12.2757
99999	-12.2757
idməti	-12.2757
lediği	-12.2757
▁homos	-12.2757
▁Avstr	-12.2757
▁univers	-12.2757
tronavtlar	-12.2757
roskop	-12.2757
ahibələrin	-12.2757
qnozu	-12.2757
▁islah	-12.2757
peratur	-12.2757
yyatçı	-12.2757
▁termo	-12.2757
▁Prez	-12.2757
▁smart	-12.2758
fekti	-12.2758
▁bələd	-12.2758
əftələr	-12.2758
aqqında	-12.2758
▁yoğun	-12.2758
leşme	-12.2758
eğimiz	-12.2758
▁Federa	-12.2758
polo	-12.2758
▁Univers	-12.2758
▁print	-12.2758
əmanət	-12.2758
endirme	-12.2758
▁Çiç	-12.2758
▁məsul	-12.2758
layışın	-12.2758
nduqda	-12.2759
spektiv	-12.2759
üyümü	-12.2759
ravitas	-12.2759
espe	-12.2759
▁peşman	-12.2759
vadanlıq	-12.2759
roqnoz	-12.2759
ğumuz	-12.276
ondon	-12.276
ülh	-12.276
▁şekil	-12.276
ıxac	-12.276
çəklər	-12.276
əqaüd	-12.276
▁mütəx	-12.276
osumu	-12.276
ılaşa	-12.2761
▁999	-12.2761
alaksi	-12.2761
lerinde	-12.2761
▁persona	-12.2761
▁bürü	-12.2761
▁Kar	-12.2761
▁kilome	-12.2761
lenme	-12.2761
▁serpi	-12.2761
yalaşm	-12.2761
örfəz	-12.2762
rbiti	-12.2762
acarsa	-12.2762
▁isteh	-12.2762
▁Təşək	-12.2762
▁təmiz	-12.2762
irebilece	-12.2762
etmemiz	-12.2762
uyurdu	-12.2762
chard	-12.2762
ələbələrin	-12.2762
ebile	-12.2763
lüyündə	-12.2763
abiliyoru	-12.2763
eriyanı	-12.2763
alınayak	-12.2763
ılınc	-12.2764
rote	-12.2764
ətlənirlər	-12.2764
inatım	-12.2764
▁bərab	-12.2764
onallıq	-12.2764
əkiliş	-12.2764
lənməsi	-12.2765
▁audi	-12.2765
övrü	-12.2765
evrə	-12.2765
apar	-12.2765
II	-12.2766
uşumu	-12.2766
stündə	-12.2767
axtı	-12.2768
▁ettir	-12.2768
▁öhdə	-12.2768
odel	-12.2768
araj	-12.2768
▁toxundu	-12.2768
gelin	-12.2768
xtar	-12.2768
▁stere	-12.2768
cənabl	-12.2769
razil	-12.2769
ilgilen	-12.2769
eşədə	-12.2769
yacaklar	-12.2769
laşan	-12.277
üşəsi	-12.277
ənqid	-12.277
oğru	-12.277
navtları	-12.277
rafiklər	-12.277
lmadığını	-12.277
saqqal	-12.2771
əpədə	-12.2771
riyera	-12.2771
▁Tex	-12.2772
▁hüc	-12.2772
▁Dö	-12.2772
▁kolleksi	-12.2772
enmem	-12.2773
üymələr	-12.2773
ünahkar	-12.2774
övzu	-12.2774
übh	-12.2774
▁qurba	-12.2774
osial	-12.2776
şgəncə	-12.2776
hudilər	-12.2776
imetre	-12.2776
▁büyü	-12.2777
▁Bibl	-12.2777
içəklərin	-12.2778
▁sığ	-12.2779
▁Whi	-12.2779
nılmaz	-12.2779
▁Hindis	-12.2779
raliçası	-12.2779
▁yaşamağım	-12.2779
▁fəal	-12.278
tiplər	-12.278
▁doldu	-12.278
abilirse	-12.2781
▁böyüd	-12.2782
leksiy	-12.2782
▁sağlaya	-12.2784
lassi	-12.2784
▁duyduğu	-12.2784
qiqat	-12.2784
ilyonlarla	-12.2784
isimi	-12.2784
▁getməyimi	-12.2785
lleye	-12.2785
▁sonlandı	-12.2785
epre	-12.2785
▁taraz	-12.2787
ılmır	-12.2787
▁sürüş	-12.2788
taday	-12.2788
sintez	-12.2788
97	-12.2788
▁həndəs	-12.2788
▁göyər	-12.2789
▁Nəh	-12.2789
▁filo	-12.2789
tarmalıyı	-12.2789
eff	-12.2791
▁inter	-12.2791
▁göründü	-12.2792
▁düymələrin	-12.2794
squa	-12.2794
▁Briz	-12.2794
ental	-12.2795
azarın	-12.2795
▁qır	-12.2795
mm	-12.2796
yesind	-12.2796
▁verməkdə	-12.2797
məkdaşlı	-12.2797
ipk	-12.2797
öldə	-12.2799
sso	-12.2799
əncərə	-12.2799
▁Əylən	-12.2799
exp	-12.28
eslərin	-12.2801
əhudi	-12.2801
▁bəx	-12.2802
▁Prote	-12.2803
▁iynə	-12.2803
ıxışım	-12.2803
▁uzaqlaşdığım	-12.2803
cekle	-12.2803
▁Not	-12.2804
arəng	-12.2804
▁qurt	-12.2806
cıqlar	-12.2807
▁fay	-12.2807
penh	-12.2807
rasiyası	-12.2808
ntine	-12.2808
bağın	-12.2809
trinolar	-12.281
laştır	-12.281
atmayacağ	-12.2811
əşər	-12.2812
öyüdə	-12.2813
çəyi	-12.2813
eceğimiz	-12.2813
▁şekillendiri	-12.2813
stəlik	-12.2814
▁əlini	-12.2816
oxsul	-12.2816
▁böyüdül	-12.2817
▁xari	-12.2818
▁Qəh	-12.2818
xor	-12.2818
zlığın	-12.2819
▁səp	-12.282
▁küləy	-12.282
▁göstərdi	-12.282
arre	-12.2822
open	-12.2822
pedisiya	-12.2825
ünsü	-12.2826
çardı	-12.2826
resl	-12.2826
turlu	-12.2828
▁parçacıqlar	-12.2828
enom	-12.283
bərlə	-12.283
şme	-12.2831
adası	-12.2831
unluq	-12.2832
qatar	-12.2833
▁piş	-12.2833
▁Təh	-12.2833
deal	-12.2836
zğun	-12.2836
▁təx	-12.2836
leksik	-12.2836
olmama	-12.2837
▁für	-12.2837
anışma	-12.2838
ahill	-12.2838
▁yaranm	-12.2839
▁dayandı	-12.284
uff	-12.284
▁Tele	-12.2841
▁Lis	-12.2841
▁böh	-12.2842
dlərimi	-12.2842
▁yaxını	-12.2842
▁bilirdin	-12.2843
▁İsti	-12.2843
unudu	-12.2843
▁kəndim	-12.2845
▁kağ	-12.2847
▁Yemək	-12.2848
▁Şü	-12.2848
gle	-12.2848
aranlığ	-12.2849
xəs	-12.285
▁alətlə	-12.285
atdığım	-12.285
acaklar	-12.285
▁çoxdu	-12.2852
▁nəql	-12.2853
enös	-12.2854
▁qorxun	-12.2855
ükle	-12.2856
▁telefonla	-12.2856
uston	-12.2857
oqqu	-12.2858
▁gələcəyim	-12.2858
övz	-12.2859
iyalılar	-12.286
vada	-12.286
rix	-12.2861
▁Yarım	-12.2861
bedici	-12.2862
▁Wil	-12.2862
▁yaddaş	-12.2864
▁elem	-12.2864
tımı	-12.2865
ltra	-12.2865
vac	-12.2866
eleme	-12.2868
▁şərəflə	-12.2868
izasiya	-12.2869
asit	-12.2869
▁hazırlamağı	-12.287
tmişdi	-12.2871
▁böyüt	-12.2871
▁göt	-12.2872
alıqları	-12.2874
▁Qızlarımı	-12.2875
▁İng	-12.2875
akarlı	-12.2876
maniya	-12.2876
▁Pol	-12.2876
▁oxudu	-12.2876
klaştı	-12.2877
▁dərslərdə	-12.2877
yayım	-12.2878
▁Ph	-12.2878
▁polislə	-12.2879
▁yams	-12.2881
▁düzəlt	-12.2882
ja	-12.2883
ğasını	-12.2884
iyyətində	-12.2884
▁Özümüz	-12.2886
işaf	-12.2887
▁verildi	-12.2887
yonları	-12.2887
şkə	-12.2889
▁kağı	-12.2892
hran	-12.2896
▁ərazisin	-12.2897
məyək	-12.29
acib	-12.2901
▁pre	-12.2901
lml	-12.2903
req	-12.2906
odda	-12.2906
▁teleskopla	-12.2908
üllü	-12.2909
▁düşünürsün	-12.2911
tök	-12.2911
arx	-12.2915
mıştı	-12.2918
▁quca	-12.2918
▁fiki	-12.2919
stanın	-12.2919
rling	-12.2919
ierr	-12.292
plus	-12.2921
yen	-12.2921
tməyə	-12.2922
almağımı	-12.2922
yarım	-12.2922
lison	-12.2922
nika	-12.2926
▁qarşımı	-12.2927
eriyalı	-12.2927
▁qıl	-12.2927
aşılması	-12.2927
▁Təs	-12.2927
▁şirkətlə	-12.2928
əzləri	-12.2931
aldıla	-12.2932
▁160	-12.2934
avayolların	-12.2934
üst	-12.2935
noz	-12.2936
türdü	-12.2937
▁Düş	-12.2937
məlidi	-12.2939
anmaqda	-12.2941
əviyyat	-12.2942
istika	-12.2942
şdığınız	-12.2942
ose	-12.2942
onallığ	-12.2944
ling	-12.2944
yanlı	-12.2948
▁dövrlə	-12.2952
olf	-12.2954
amanında	-12.2954
özəlliyi	-12.2954
klikler	-12.2955
ehlik	-12.2956
allarım	-12.2957
ibsə	-12.2957
şti	-12.2958
anrını	-12.2959
▁ruhla	-12.2959
▁rastla	-12.296
veni	-12.296
▁Iş	-12.2962
top	-12.2963
▁mussonla	-12.2964
ləşdirə	-12.2964
▁orqani	-12.2965
drak	-12.2966
▁kəpənə	-12.2968
▁sırada	-12.2968
lord	-12.297
▁getdiyim	-12.2971
osof	-12.2971
▁Gil	-12.2974
qment	-12.2974
▁səylə	-12.2977
▁düşünebil	-12.2978
ötü	-12.2982
delim	-12.2982
lsam	-12.2983
bas	-12.2983
eaksiya	-12.2986
rını	-12.2986
▁hiylə	-12.2987
lerdi	-12.2988
isch	-12.299
siyyə	-12.2991
osferi	-12.2996
▁Uni	-12.2997
▁kas	-12.2997
tikada	-12.2997
ğunda	-12.2997
▁ayıra	-12.2998
▁Xü	-12.3
asıb	-12.3001
gene	-12.3002
▁xoşla	-12.3002
ırmanı	-12.3002
▁elektroma	-12.3003
▁xatırlama	-12.3004
▁İsve	-12.3004
abiliy	-12.3006
lektromaqneti	-12.3007
rinliyi	-12.3008
▁qaynaqla	-12.3009
pera	-12.3017
aşmalı	-12.3017
anav	-12.3019
əssüflə	-12.3019
▁kuk	-12.3019
əqiq	-12.3021
▁buludl	-12.3022
▁tex	-12.3023
▁paylaşı	-12.3024
ilsə	-12.3025
▁məsələsi	-12.3026
asailərd	-12.3027
tığımız	-12.3033
iyyəsi	-12.3034
rsl	-12.3034
slin	-12.3036
fişa	-12.3037
lükəsiz	-12.3038
blo	-12.3041
opu	-12.3042
ladıq	-12.3043
▁Yarı	-12.3044
xana	-12.3044
▁İnc	-12.3046
▁qazanmı	-12.3047
▁Bağ	-12.3049
avra	-12.305
▁bası	-12.305
▁görünüşlə	-12.305
▁yaşadığımı	-12.3051
atmı	-12.3052
▁sistemimi	-12.3053
minator	-12.3054
ssion	-12.3054
▁Caz	-12.3057
▁mövzular	-12.3057
▁alar	-12.3058
tula	-12.3058
▁təşəkk	-12.3059
▁şəxslə	-12.3062
ladığını	-12.3062
▁beynim	-12.3067
ktu	-12.3067
irə	-12.3069
por	-12.307
▁Ky	-12.3071
əqabət	-12.3071
▁astro	-12.3072
▁çağla	-12.3073
tdu	-12.3074
▁Bilirs	-12.3075
▁cəz	-12.3077
▁ədəbi	-12.3078
▁Val	-12.3079
▁NA	-12.308
əldi	-12.3085
▁yaratdığımı	-12.3086
▁ruhum	-12.3087
əliş	-12.3088
manlı	-12.309
ebatları	-12.309
▁arxi	-12.309
tərir	-12.3091
kaf	-12.3096
oid	-12.3097
▁Var	-12.3101
ole	-12.3102
▁sent	-12.3103
ğul	-12.3106
əsdiq	-12.3107
acıq	-12.3107
iyyəti	-12.3108
▁müvə	-12.3109
siqi	-12.3111
yətində	-12.3114
▁eğ	-12.3115
▁iqtisa	-12.3116
vark	-12.3116
▁sərhədi	-12.3119
tme	-12.312
ldoz	-12.3121
▁məsələni	-12.3121
yard	-12.3124
emik	-12.3124
islərin	-12.3124
▁vəziy	-12.3125
kalı	-12.3126
kənar	-12.3128
aşlayacaqs	-12.3129
oyunlar	-12.313
vet	-12.3134
arşımızdak	-12.3134
old	-12.3134
▁dallan	-12.3135
▁getməliy	-12.3136
▁uçurt	-12.3136
matik	-12.3136
▁fikirlərim	-12.3137
etiniz	-12.3138
say	-12.314
▁xər	-12.314
▁fun	-12.3144
▁nazi	-12.3145
mədik	-12.3149
tasında	-12.3153
eqon	-12.3153
urası	-12.3155
ets	-12.3157
şeydi	-12.3157
şında	-12.3161
sonu	-12.3162
üklər	-12.3163
▁zənginli	-12.3173
diklərim	-12.3175
▁bilməy	-12.3176
▁seçili	-12.3176
▁yatırı	-12.3177
▁İt	-12.3179
▁ötürmə	-12.3188
raqlı	-12.3188
lımız	-12.3191
▁olmaları	-12.3192
rxiv	-12.3193
▁kre	-12.3194
▁çağırı	-12.3198
▁Görürs	-12.32
endir	-12.32
▁təsirlənmi	-12.3202
entin	-12.3203
▁Gə	-12.3206
▁koy	-12.3207
raştırma	-12.3207
▁lazımdı	-12.3207
▁İşığ	-12.3213
dıcı	-12.3216
▁yığım	-12.3218
bin	-12.3219
▁ayrılm	-12.322
nmağı	-12.3224
iano	-12.3224
▁Təy	-12.3224
rünü	-12.3226
ibəti	-12.3227
tanik	-12.3229
timal	-12.3229
▁arala	-12.3229
▁Öy	-12.3233
▁əllərimi	-12.3234
öyü	-12.3235
rəyim	-12.3238
ravit	-12.3239
etiş	-12.324
▁part	-12.3242
rog	-12.3245
xan	-12.3245
asmağı	-12.3247
▁ideyalar	-12.3248
ekab	-12.325
▁evli	-12.3251
ahidə	-12.3254
ürtü	-12.3254
iqətən	-12.3256
ılan	-12.3258
etkin	-12.3261
ətdə	-12.3262
orp	-12.3268
səsi	-12.327
ququ	-12.3273
erini	-12.3278
eşid	-12.328
ilen	-12.3282
rlama	-12.3282
zif	-12.3284
nstein	-12.3291
▁Xe	-12.3292
▁şəkillə	-12.3295
▁Nar	-12.3297
adır	-12.3297
kirləri	-12.3297
əbəs	-12.3298
▁rit	-12.3298
▁post	-12.33
▁Rob	-12.3303
▁vaxtım	-12.3304
▁oğlanla	-12.331
▁uçuşla	-12.3312
tırdı	-12.3313
▁cəhətlər	-12.3314
▁Çəki	-12.3314
▁Qır	-12.3316
pher	-12.3316
▁oturmuş	-12.332
ətt	-12.3322
ardda	-12.3326
▁hi	-12.3327
avanlar	-12.333
uluq	-12.3331
lətli	-12.3332
▁şeydi	-12.3335
▁göstərici	-12.3338
▁Sonu	-12.3338
netli	-12.334
mdeki	-12.3341
liyoru	-12.3344
▁müda	-12.3346
▁sız	-12.3347
irmiy	-12.3348
reti	-12.335
▁imtahanlar	-12.335
nö	-12.3351
▁bacarm	-12.3352
▁Hans	-12.3353
▁ötmü	-12.3356
▁qanad	-12.336
liklərini	-12.3364
dayan	-12.3364
der	-12.3366
əqi	-12.3368
▁işləy	-12.3371
rsünüz	-12.3372
nat	-12.3387
ayəd	-12.3387
▁üstünü	-12.339
oydu	-12.3393
▁qorun	-12.3397
▁iba	-12.3398
▁mode	-12.34
▁hek	-12.3403
trafımızda	-12.3405
ucu	-12.3408
risini	-12.3408
bəsində	-12.3411
▁Ind	-12.3414
▁tari	-12.3414
erd	-12.3414
anınmış	-12.3416
▁qarşılaşa	-12.3419
▁çətindi	-12.342
yüklü	-12.3422
açmışdı	-12.3428
əruz	-12.3429
▁qalmam	-12.3429
▁psi	-12.343
ament	-12.3431
▁sürətləndir	-12.3434
▁qızla	-12.3437
eranın	-12.3438
▁fantas	-12.3442
ketlər	-12.3442
▁Ger	-12.3446
cləri	-12.3446
▁İşçi	-12.3447
▁sif	-12.3449
ıçı	-12.345
▁təkamülü	-12.3451
tl	-12.3454
▁pl	-12.3466
rüş	-12.347
▁büd	-12.3472
gisi	-12.3475
▁Maraq	-12.3478
▁far	-12.348
oxları	-12.348
irəsi	-12.3481
▁hədd	-12.3483
oksi	-12.3485
▁Kor	-12.3487
▁Hindi	-12.3491
▁qarda	-12.3491
▁cisi	-12.3491
▁Stan	-12.3494
▁müq	-12.3494
urduqları	-12.3495
çıların	-12.3495
tonu	-12.3497
üksə	-12.3503
ekle	-12.3504
▁qanunl	-12.3513
▁hekayəmi	-12.3517
▁Say	-12.352
cc	-12.3522
▁Həyatınız	-12.3522
▁dənizi	-12.3523
▁Nu	-12.3527
▁izle	-12.3529
▁materi	-12.353
▁yağı	-12.3531
ple	-12.3531
ışımdır	-12.3534
bio	-12.355
▁təsirdə	-12.3559
tika	-12.356
itəsini	-12.3561
▁Ey	-12.3562
▁paylaşmaya	-12.3579
zah	-12.358
▁nəzarəti	-12.3582
ülək	-12.3582
ldu	-12.3587
dırsa	-12.3593
opi	-12.3595
▁yağın	-12.3595
▁təd	-12.3596
▁Britan	-12.3597
yğun	-12.3597
med	-12.3601
▁yerlə	-12.3603
ble	-12.3604
▁dəyişdirilə	-12.3605
▁qo	-12.3609
▁vel	-12.3612
▁əllə	-12.3613
clıq	-12.3613
sısa	-12.3615
▁Şim	-12.3625
alınmadı	-12.3628
asiyalar	-12.3629
şidəndə	-12.3629
▁kəslər	-12.3634
mısın	-12.365
93	-12.3653
axla	-12.3654
vana	-12.3654
iyik	-12.3657
▁yatma	-12.3663
▁ingi	-12.3663
▁Xoşu	-12.3664
▁gök	-12.3665
zum	-12.3665
məni	-12.3668
har	-12.3676
ikdə	-12.3682
▁oturt	-12.3683
▁zəngi	-12.3686
▁simül	-12.3691
▁sinte	-12.3692
laya	-12.3692
limatlar	-12.3692
ətdən	-12.3696
əklərində	-12.37
aşlayın	-12.3702
▁hü	-12.3709
olunmaya	-12.3711
özümüz	-12.3712
aslan	-12.3715
eğini	-12.3716
alların	-12.3716
▁mühəndisli	-12.3718
▁İşi	-12.3721
cəsində	-12.3731
▁gördüyün	-12.3737
▁kul	-12.3741
uruşu	-12.3747
lav	-12.3751
klərində	-12.3751
qədə	-12.3754
▁həqiqətə	-12.3755
ansın	-12.3758
nməklə	-12.3758
sell	-12.3759
▁işıqla	-12.3769
əhbus	-12.3775
▁qurğular	-12.3778
irlərində	-12.3782
tmə	-12.3783
▁Təq	-12.3785
öyüşü	-12.3786
kain	-12.379
stri	-12.379
▁kəşflər	-12.3792
▁evləndi	-12.3793
nlanmış	-12.3801
tində	-12.3802
tərdik	-12.3803
▁yeniləri	-12.381
nmem	-12.3814
nden	-12.3822
torn	-12.3824
erçek	-12.3827
nanan	-12.3832
hun	-12.3849
▁Ağa	-12.3853
şdir	-12.3854
laqəni	-12.3864
fimi	-12.3865
ims	-12.3871
▁isveçl	-12.3871
▁çatla	-12.3874
ucular	-12.3879
meli	-12.388
▁tozlandır	-12.3885
val	-12.3886
▁gəzmə	-12.3894
pmaq	-12.3894
▁yek	-12.3895
ləsində	-12.3895
▁ast	-12.3898
▁təşkilat	-12.3898
▁düyməsin	-12.3902
▁halla	-12.3904
cazi	-12.3908
▁yaşayı	-12.3915
▁kont	-12.3916
▁muzeylər	-12.3917
nımlar	-12.3923
▁əksəriyyətin	-12.3924
▁Kör	-12.393
minim	-12.3933
uğunu	-12.3941
idlik	-12.3945
urğusu	-12.3948
erdey	-12.3951
▁Qiymətl	-12.3951
nx	-12.3952
qor	-12.3956
oke	-12.3969
dıqları	-12.3973
kadı	-12.3978
▁həya	-12.3979
sman	-12.398
hdid	-12.398
▁gösteriy	-12.3982
▁ölkəsin	-12.3984
urulması	-12.3985
öndər	-12.3992
▁xəritələ	-12.3998
rtz	-12.4002
ionu	-12.4004
▁kainatla	-12.4005
klərimiz	-12.4008
▁telep	-12.4012
▁ov	-12.4015
▁içə	-12.4016
eşəm	-12.4028
▁Hindistanı	-12.4036
emin	-12.4037
▁giz	-12.4039
ığında	-12.404
▁det	-12.4045
las	-12.4045
asda	-12.4056
▁Vik	-12.4062
▁okeand	-12.4065
rmişdi	-12.4067
cığını	-12.4068
eo	-12.407
nsız	-12.4073
▁Hök	-12.4076
▁sürətləndi	-12.4079
öndüyü	-12.408
▁işləyi	-12.408
bığı	-12.4082
ct	-12.4083
▁bildiyimi	-12.4084
▁kəl	-12.4085
▁isla	-12.409
tuk	-12.4091
zları	-12.4092
▁Mö	-12.4095
▁inanmadı	-12.4097
ira	-12.4098
▁klassiklə	-12.41
▁ju	-12.41
dayk	-12.4107
▁sahillər	-12.4109
yun	-12.4122
ize	-12.4127
lo	-12.4132
yətlər	-12.4133
biləcəyimiz	-12.414
▁xəta	-12.4142
ilyonlar	-12.4144
▁görünü	-12.4146
▁aydınla	-12.4156
xar	-12.4158
▁mali	-12.416
iləcək	-12.416
esin	-12.4161
▁ağrıy	-12.4164
lanırs	-12.4165
ancın	-12.4166
▁bağlama	-12.418
mad	-12.4193
▁tro	-12.4195
▁mənf	-12.4196
suda	-12.4202
dırıb	-12.4202
▁bilməmi	-12.4203
kalar	-12.4204
atmalı	-12.4218
▁fəaliyyətlər	-12.4219
vas	-12.4228
▁Mu	-12.4234
▁Fe	-12.4234
▁verəcə	-12.4241
izli	-12.4243
▁ispa	-12.4244
▁sizləri	-12.4247
▁ideyasın	-12.425
ınmış	-12.4253
məyəcəyi	-12.4253
yada	-12.4254
bəz	-12.4255
armışdı	-12.4255
▁oturaca	-12.4257
▁ken	-12.4264
azlığı	-12.427
cik	-12.4276
▁tanıy	-12.4278
toma	-12.4286
▁Gü	-12.4291
diy	-12.4296
tes	-12.43
ift	-12.4301
▁qadında	-12.4311
▁Düşünürs	-12.4311
▁başlayaca	-12.4313
▁bağlanma	-12.4314
oda	-12.4316
▁planlaşdır	-12.4317
amları	-12.4321
yinə	-12.4323
veriş	-12.4323
▁telefonların	-12.4332
ümüzdə	-12.4332
▁oxumu	-12.4336
▁salınma	-12.4338
yəcəksə	-12.4343
ayacaq	-12.4346
▁bol	-12.435
zərin	-12.4368
onavtlar	-12.437
▁tapın	-12.4378
Shi	-12.4389
üzünü	-12.4392
enetik	-12.4394
▁fac	-12.4399
dında	-12.4407
▁Kom	-12.4415
▁yerl	-12.4417
tamay	-12.4426
▁gözə	-12.4427
ksel	-12.4429
▁yem	-12.4433
ğda	-12.4436
▁mate	-12.4439
▁üs	-12.4441
vol	-12.4442
mli	-12.4449
▁In	-12.4451
▁kimliyimi	-12.4455
məmişdi	-12.4456
▁hik	-12.4462
▁bucaqlar	-12.447
SC	-12.4477
▁ətrafım	-12.4478
▁sat	-12.4479
▁qəh	-12.4483
ekun	-12.4485
▁sand	-12.4491
yrən	-12.4498
rımızda	-12.45
▁Tan	-12.4501
▁müza	-12.4504
esab	-12.4509
mələri	-12.4511
vçu	-12.4513
▁Yazıl	-12.4513
▁yoldaşımı	-12.4521
▁mərk	-12.4529
erne	-12.4536
▁əz	-12.454
emem	-12.4541
lmalı	-12.4543
ığım	-12.4544
MAP	-12.4546
büd	-12.4546
til	-12.4546
▁sirl	-12.4561
▁qüvvətl	-12.4566
▁Kon	-12.4567
strin	-12.4572
▁Kla	-12.4584
smi	-12.4593
▁bağla	-12.4594
▁ehtimalın	-12.4594
arak	-12.4595
▁çəkilişin	-12.4598
almaması	-12.4605
▁dinlədi	-12.4617
amanın	-12.4618
▁Ku	-12.4624
kala	-12.4625
tarlar	-12.4633
ımında	-12.4634
rəfi	-12.4634
əng	-12.4635
▁olmaya	-12.4637
esiy	-12.4641
▁Matt	-12.4645
lem	-12.4648
▁Gələcə	-12.4662
ekto	-12.4664
ılı	-12.4671
uşdur	-12.4676
▁işıqlar	-12.4683
▁Uşaql	-12.4695
icidir	-12.4695
fiq	-12.4706
bud	-12.4707
ülər	-12.4715
rah	-12.4718
hen	-12.4718
krimin	-12.4723
fan	-12.4726
parçala	-12.4726
▁zən	-12.4736
şmazlı	-12.4739
▁Adə	-12.474
kadan	-12.4741
deya	-12.4743
abın	-12.4746
▁əsərin	-12.4755
▁qəzəbl	-12.4764
sədim	-12.4765
▁getdin	-12.4766
▁bacarıql	-12.4773
rtalama	-12.4774
▁dedik	-12.4781
▁kain	-12.4785
npər	-12.4786
ezdi	-12.4799
▁olunmas	-12.4802
tirilmiş	-12.4813
çik	-12.4817
▁ehtiy	-12.4817
pit	-12.4823
mından	-12.4828
ürməklə	-12.4828
▁nəsillər	-12.4831
▁böyüyə	-12.4834
nayı	-12.4838
▁Uy	-12.4842
▁düşünərə	-12.4856
▁Sat	-12.4871
laşır	-12.4871
▁keçirmi	-12.4874
ötürməyi	-12.4893
▁yayma	-12.4895
numuz	-12.49
mis	-12.4905
▁duru	-12.4913
ıyam	-12.4919
layırdı	-12.4925
▁cin	-12.4925
▁baxmal	-12.4926
▁dib	-12.4943
▁zamanları	-12.4947
mət	-12.4948
▁gətirəcə	-12.496
ötürən	-12.4963
▁dostunu	-12.4965
▁ərazi	-12.4968
▁qayıtdı	-12.4969
Ha	-12.4971
əblər	-12.4973
anla	-12.4978
▁saxlamağ	-12.4983
yatı	-12.4993
▁etməyəcəy	-12.4994
larınız	-12.4999
▁həyatla	-12.5029
anımda	-12.5033
▁hisslə	-12.5048
şadıq	-12.505
▁bildiklərin	-12.5058
▁ağıll	-12.5061
▁kəslə	-12.5071
▁oynayı	-12.5087
▁Avr	-12.5089
ise	-12.5099
bilirdi	-12.5115
▁diq	-12.5117
ərlərini	-12.5119
amak	-12.5121
rli	-12.5138
şdi	-12.5149
tdir	-12.5175
▁başlan	-12.5181
ənməyə	-12.519
hall	-12.5195
▁düşünən	-12.5204
təzə	-12.5211
ışır	-12.5219
nəcək	-12.5223
▁inandırı	-12.5228
▁qovu	-12.5235
eylə	-12.5236
zam	-12.5238
▁düşünmü	-12.5241
▁başlı	-12.5253
atılıyor	-12.526
▁Ham	-12.526
▁qayıdı	-12.5283
ampan	-12.5292
▁diliniz	-12.5296
▁tərə	-12.5299
rımkürəsi	-12.5306
▁Bab	-12.5314
▁qurum	-12.5345
üklərim	-12.5347
nırlar	-12.5355
▁bilərdin	-12.536
yıcı	-12.5366
atan	-12.5379
▁Sk	-12.5383
▁yazacağı	-12.5389
kanla	-12.5422
ənlərini	-12.5423
▁Ci	-12.5423
layanlar	-12.543
daxil	-12.5434
fda	-12.5436
ərəm	-12.5445
arib	-12.5448
▁ölkəm	-12.5448
əmişdi	-12.5462
ersi	-12.5467
müşü	-12.5474
ellər	-12.5476
zsa	-12.5478
tlara	-12.5497
▁Doğrud	-12.5505
▁öte	-12.5516
▁ser	-12.5524
▁belədi	-12.5531
başım	-12.5533
ayız	-12.5538
aşmaq	-12.5551
terin	-12.5551
kdə	-12.5551
ınızda	-12.5558
▁istədiyimi	-12.5562
ayıra	-12.5563
▁ölçüm	-12.5591
ərdə	-12.5592
▁proyektin	-12.5595
▁anke	-12.5602
ntam	-12.5605
▁korla	-12.5615
leri	-12.5616
umun	-12.5616
▁təsəvvürü	-12.562
uly	-12.5636
▁olduğunda	-12.5639
▁evr	-12.5641
▁oxşay	-12.5655
liklərin	-12.5656
qlar	-12.5659
dada	-12.5669
idəcək	-12.5672
inq	-12.5674
aşların	-12.5675
lma	-12.5689
▁nəf	-12.5691
▁debatlar	-12.5691
eydan	-12.5692
ərb	-12.5692
tlerini	-12.5695
▁təəccübl	-12.57
kimin	-12.5704
dud	-12.5717
▁şüuru	-12.5717
▁kimə	-12.5718
▁nəticəsid	-12.5718
▁seçir	-12.5723
▁teles	-12.5726
pik	-12.5727
▁edilm	-12.5734
ariya	-12.5742
but	-12.5743
▁vətəndaşlı	-12.5745
▁lay	-12.575
▁düzəltmi	-12.577
nq	-12.5777
▁arzuları	-12.5779
▁sek	-12.578
▁etməs	-12.5784
ga	-12.5792
▁düşünürsü	-12.5793
ağın	-12.58
ez	-12.5808
▁sağla	-12.5811
▁qabağın	-12.5818
eriyada	-12.5826
▁kimlə	-12.5827
▁məz	-12.583
amilə	-12.5831
amma	-12.5843
▁əsri	-12.5857
ikmə	-12.5859
dəbi	-12.5865
▁Səbə	-12.5865
humu	-12.5878
▁rahatla	-12.5889
zlik	-12.5905
av	-12.5912
▁gəlirl	-12.5913
▁keçməyi	-12.5916
▁hərf	-12.5922
▁Müəllimi	-12.5926
▁limitl	-12.5962
▁pr	-12.5965
axdığı	-12.5977
▁platformad	-12.6011
lanmışdı	-12.6024
tdə	-12.6031
ray	-12.6039
▁görem	-12.6044
▁beyn	-12.6049
akı	-12.6053
▁To	-12.6061
▁konf	-12.6074
tica	-12.6083
ızı	-12.6085
▁çəkirs	-12.6091
məniz	-12.6097
ive	-12.6099
▁başqasın	-12.6102
urduğum	-12.6103
▁təmizləyi	-12.6108
▁qədəri	-12.611
əssis	-12.6123
▁normalar	-12.6128
andı	-12.613
▁nəsi	-12.6146
ırı	-12.615
lon	-12.6159
▁dün	-12.6166
▁Yat	-12.6172
agen	-12.6181
düz	-12.6185
ənəsi	-12.6185
rt	-12.6188
artdı	-12.6201
əqsədimiz	-12.6207
▁Diz	-12.6208
dakıları	-12.6212
ələr	-12.623
sələri	-12.6231
▁nələri	-12.624
▁bağlaya	-12.6244
nut	-12.6245
anmı	-12.6263
▁doğrulu	-12.6264
irler	-12.6274
▁Kana	-12.6277
mal	-12.6277
key	-12.6281
aller	-12.6289
aşlılar	-12.6319
acıları	-12.6322
ilər	-12.6333
ursları	-12.6335
▁Ven	-12.6339
ıxdıq	-12.6353
günlərdə	-12.6367
eyninizdə	-12.6372
▁əmək	-12.6377
▁barı	-12.6383
durma	-12.6391
▁Sca	-12.6394
smaq	-12.6395
lüklə	-12.6397
▁mod	-12.6414
lmüş	-12.6418
▁Kəş	-12.6418
özlər	-12.642
laşacağı	-12.643
▁değiştirebili	-12.6431
▁bölüşdürül	-12.6442
orucu	-12.645
kan	-12.6451
▁Fl	-12.6462
iyası	-12.6472
luqlar	-12.6483
blar	-12.6493
▁Kı	-12.6503
olunu	-12.6506
▁bilməd	-12.6507
inc	-12.6519
lık	-12.6523
▁otaqların	-12.6531
ışam	-12.6536
▁mərkəz	-12.6545
▁dünyalar	-12.6546
▁Mər	-12.6558
edik	-12.6565
▁Par	-12.6566
▁yaxşıları	-12.6566
▁proqramlaşdırı	-12.6582
56	-12.6606
adığını	-12.6608
▁kənarın	-12.6631
kam	-12.6638
ze	-12.664
▁yaşlar	-12.6641
▁tır	-12.6657
▁dəyişməy	-12.6661
▁məq	-12.6663
▁stabilli	-12.6665
ej	-12.6672
hətə	-12.67
▁tanımır	-12.67
unuzu	-12.6716
▁köçə	-12.6718
▁işlədirsi	-12.6733
▁Məsələ	-12.6748
obil	-12.6754
edir	-12.6757
isimlərində	-12.6772
brik	-12.6775
əşmir	-12.6778
▁öyrənmi	-12.6803
mağınız	-12.6807
ilmişdir	-12.6826
uslar	-12.6842
▁tra	-12.6847
▁gedirs	-12.6849
▁dad	-12.6857
▁qədərdi	-12.6861
▁aparılma	-12.6862
▁deyilə	-12.6883
oxluğun	-12.6899
ahiyyət	-12.69
hram	-12.69
ləriniz	-12.6904
atması	-12.6909
▁tara	-12.691
▁olmamasın	-12.6918
▁işdi	-12.6932
ğınız	-12.6944
▁sta	-12.6956
ələbə	-12.6958
▁etməsə	-12.697
oxusu	-12.6975
▁Evləri	-12.6999
ləşdiri	-12.7004
lkədə	-12.7014
inen	-12.703
▁bulu	-12.7037
▁əmi	-12.7047
itse	-12.7059
▁gəlməd	-12.7065
▁araşdırmam	-12.7069
ərli	-12.707
bəti	-12.7074
▁tay	-12.7084
ləyə	-12.7095
ylədik	-12.7096
tdən	-12.7099
ıkları	-12.7101
▁artırma	-12.7107
▁əvvəlkin	-12.7113
▁içini	-12.7113
▁İstəy	-12.7118
▁etdirm	-12.7144
▁virusl	-12.7147
cısıy	-12.7153
kil	-12.7154
ange	-12.7171
yayla	-12.721
▁uzunlu	-12.7212
▁istəm	-12.7216
çuşun	-12.7228
alvar	-12.7234
hini	-12.7241
▁dövri	-12.7245
yir	-12.7261
anlarda	-12.7264
▁görüşmə	-12.7278
ədim	-12.7281
▁dostlarımı	-12.7283
ürdü	-12.7286
▁sənəti	-12.7298
ziniz	-12.7302
limlər	-12.7303
qarğa	-12.7329
▁əyləş	-12.734
siyasını	-12.7356
esə	-12.7372
yr	-12.7386
erimiz	-12.7388
▁danışıl	-12.74
siyası	-12.7419
iyini	-12.7419
iyində	-12.7422
kanlar	-12.7424
sənətçilər	-12.7428
▁sevməyə	-12.7444
▁xərçəngin	-12.7481
▁kiçiklə	-12.7485
▁ruhlandırı	-12.7493
ilməyəcək	-12.7502
▁kəndində	-12.7507
▁Universitetin	-12.7512
▁düşm	-12.7573
plan	-12.7579
▁alı	-12.7607
amıyor	-12.7609
▁yaranı	-12.7615
rginlik	-12.7617
anal	-12.7619
məl	-12.7628
evinə	-12.7633
umi	-12.7633
▁ah	-12.7633
▁çatmı	-12.7641
ifikasiya	-12.7641
ssi	-12.7651
▁videoy	-12.7669
▁deməkd	-12.7691
▁çatdırdı	-12.7706
dəf	-12.7739
zlərini	-12.7744
atr	-12.7745
▁gördün	-12.7754
ice	-12.7758
məkdə	-12.7759
lm	-12.7792
▁yazaca	-12.78
mla	-12.7806
hə	-12.781
▁Şə	-12.7817
ğır	-12.7822
▁qatın	-12.7849
▁qaba	-12.7862
▁elementl	-12.7868
▁bişirmə	-12.7888
▁sant	-12.7892
ünas	-12.7906
▁for	-12.7916
▁qorxul	-12.7921
dəy	-12.7952
▁rejissorl	-12.7952
ekr	-12.7992
▁siyahıda	-12.8051
çə	-12.8061
əstə	-12.8069
▁geril	-12.8095
əcəyim	-12.8095
▁keyfiyyət	-12.8102
orm	-12.8112
axınları	-12.8114
alət	-12.8118
geni	-12.8146
səvvür	-12.8149
▁nəvə	-12.8155
aklar	-12.8178
▁ehtira	-12.8184
▁Yum	-12.8193
cılarımı	-12.822
▁dür	-12.8222
▁kil	-12.8251
tetik	-12.8256
▁rəs	-12.826
▁miqdarın	-12.8264
▁Təb	-12.8264
▁təsə	-12.8287
zədə	-12.8315
▁ək	-12.832
üzlərin	-12.833
▁Keç	-12.8342
vq	-12.8358
rıc	-12.8361
▁müdrikli	-12.8363
zər	-12.8379
▁statistikalar	-12.8383
öhr	-12.8386
▁başqalar	-12.8401
▁deməkdə	-12.8406
radi	-12.8411
▁eksper	-12.8412
lıb	-12.8436
▁Aud	-12.8441
fo	-12.8454
astronomi	-12.8454
kəsi	-12.8468
mimi	-12.8493
▁ayaqların	-12.8498
ner	-12.8498
▁dağıt	-12.8509
▁mövsümün	-12.8509
rdır	-12.8535
▁qoymal	-12.8547
▁işimi	-12.8584
tche	-12.8602
▁gəlmisi	-12.8628
lahi	-12.8662
▁tanınm	-12.8665
▁fikirl	-12.867
axa	-12.8692
qəm	-12.8692
▁kompl	-12.8704
▁Fak	-12.871
▁seçməy	-12.8715
▁baxmaqd	-12.8747
mey	-12.8771
▁atıl	-12.8774
▁sevməy	-12.8782
▁olanla	-12.8787
▁tapmay	-12.8788
▁parad	-12.8797
qü	-12.88
▁barb	-12.8814
▁rə	-12.8822
aları	-12.8828
ıyı	-12.8844
▁qaçırma	-12.885
▁görmüs	-12.8866
▁gözləyər	-12.8871
ial	-12.8871
dsi	-12.8892
▁seçmi	-12.8895
▁tur	-12.8906
əh	-12.8915
obl	-12.892
arlığın	-12.8926
▁rəhml	-12.8931
əyəcəksə	-12.8943
ndi	-12.8952
▁dol	-12.8963
ltı	-12.8979
ifrə	-12.8983
tari	-12.9004
▁misallar	-12.9005
erg	-12.9015
ildiyi	-12.902
▁tanını	-12.9027
aşda	-12.9032
ladığı	-12.9036
▁naxışl	-12.9039
təş	-12.9077
nları	-12.9089
ladı	-12.9093
▁ötür	-12.9102
▁Gördü	-12.9103
▁beynin	-12.9113
▁Dur	-12.9121
inator	-12.9155
aslandı	-12.9167
▁bağışlay	-12.9173
▁saatın	-12.9185
▁istifadədə	-12.9204
▁böl	-12.9242
nəvi	-12.9259
etli	-12.9277
▁gözəllik	-12.9277
ırtı	-12.928
co	-12.9289
ıblar	-12.9301
amız	-12.9324
tıq	-12.9328
▁biznesin	-12.9332
▁parçasın	-12.9334
▁bağı	-12.9348
▁gözləyi	-12.935
▁Lar	-12.9352
▁kiçi	-12.9368
▁mərkəzlər	-12.9373
larınızda	-12.9392
cam	-12.9394
epressi	-12.9423
rəni	-12.9428
tma	-12.9433
eyk	-12.9449
özünüz	-12.9462
dge	-12.9502
▁axtarışın	-12.9506
ərlər	-12.9517
lərimdə	-12.9517
olog	-12.9524
▁yenilər	-12.9533
ğlan	-12.9538
▁hazırlam	-12.9539
bla	-12.9548
dük	-12.9557
əhər	-12.956
ədiyim	-12.9562
ski	-12.9589
urmu	-12.9593
məyim	-12.9602
yyət	-12.961
bilən	-12.9667
ika	-12.9672
▁təl	-12.9697
karı	-12.9699
ayıcı	-12.9709
▁sır	-12.9716
damı	-12.9717
aratmaq	-12.9717
▁yaradıla	-12.972
▁kasıblı	-12.9723
▁ədəbiyyatında	-12.9727
▁söyle	-12.9731
span	-12.9753
adi	-12.9762
▁bam	-12.9774
əfəs	-12.9788
mizlə	-12.9806
otoqraf	-12.9818
əzinə	-12.9829
▁xəstəlikl	-12.9843
cları	-12.9866
ndadır	-12.9869
əfələr	-12.987
▁qorxur	-12.989
▁hekayət	-12.9904
▁doğu	-12.9934
▁deməyəcə	-12.9934
yyən	-12.9937
ğin	-12.9939
▁yoldaşını	-12.9946
estor	-12.9951
cəklər	-12.9953
rkə	-12.9954
▁Fransiskoda	-12.9955
ərk	-12.9962
dünüz	-13.0002
kro	-13.0009
idən	-13.0022
▁düzəltm	-13.0033
▁qurulu	-13.004
laş	-13.0048
▁asıl	-13.0052
▁tem	-13.0061
eridi	-13.0065
rmək	-13.0077
▁bilinm	-13.0103
alar	-13.011
▁Ot	-13.014
▁Qua	-13.0147
ciklər	-13.0148
siyə	-13.0163
▁içind	-13.0169
▁söv	-13.0171
ayacağı	-13.0172
dib	-13.0189
bs	-13.0195
slər	-13.0208
əməyə	-13.0217
xluq	-13.0236
▁uzaklı	-13.0245
▁mövzusun	-13.0253
şlə	-13.0259
▁sarsıl	-13.0265
▁diz	-13.0313
qır	-13.0335
kart	-13.0337
lədi	-13.0381
▁Deyir	-13.0386
siyasın	-13.0401
▁üsull	-13.043
▁nəticəsin	-13.0491
əsli	-13.0523
istə	-13.0537
▁geyimi	-13.0537
fal	-13.0571
▁etməsin	-13.058
əş	-13.0586
aşlamışdı	-13.0599
▁ayırı	-13.0617
yaq	-13.0644
▁kədərl	-13.0656
edera	-13.0656
lərdi	-13.0664
dad	-13.0664
akar	-13.0667
yük	-13.07
▁sah	-13.0702
irs	-13.071
▁gücləndir	-13.0713
▁ink	-13.0717
▁qurmağ	-13.0718
ayısı	-13.0726
eft	-13.0733
▁tutulu	-13.0763
gl	-13.0775
emizde	-13.078
▁anlar	-13.0781
ərsə	-13.0797
▁yönəldi	-13.0812
▁dayanm	-13.0821
ədə	-13.0836
əlcə	-13.084
aşımı	-13.0845
▁başlıql	-13.086
▁aldad	-13.0873
gal	-13.0894
irlərin	-13.092
▁qiymətlə	-13.0922
əyini	-13.0927
▁düşünürs	-13.093
anmasın	-13.0935
▁ot	-13.0949
▁zorlamı	-13.0954
▁anal	-13.1029
▁dedil	-13.106
▁arı	-13.1065
▁müsahibədə	-13.1088
▁əyləşə	-13.1096
azark	-13.1098
▁don	-13.1117
üf	-13.1119
▁dediyin	-13.1135
rç	-13.1137
▁bənzəmə	-13.1156
xmaya	-13.1167
▁hazırlay	-13.1179
▁şəkili	-13.118
▁nisbətin	-13.1193
▁tanıya	-13.1198
iy	-13.1198
▁Es	-13.1212
uba	-13.1237
▁cəhə	-13.1261
əllik	-13.1266
▁Yarad	-13.1267
lmayan	-13.1284
▁çoxları	-13.1291
▁illəri	-13.13
ətin	-13.1301
ultrabənövşəyini	-13.1314
▁cibin	-13.1314
zdıq	-13.1357
adam	-13.1363
uları	-13.137
onuncu	-13.1371
▁çıxdığı	-13.1395
▁gəncləri	-13.1405
bilm	-13.1438
▁işlərimi	-13.1447
▁komandanı	-13.146
▁aram	-13.146
▁Yaşa	-13.1465
evi	-13.1467
▁ölçül	-13.1498
dekiler	-13.1501
amlı	-13.151
eks	-13.1525
▁vəzifəl	-13.156
nənələri	-13.1572
▁imiz	-13.1578
▁proqramlaşdır	-13.1597
enləri	-13.1603
▁çatm	-13.1606
"	-13.1624
▁hissim	-13.1711
▁yoldaşın	-13.1721
[...]
