<unk>	0
<s>	0
</s>	0
▁.	-2.9623
▁,	-3.26052
▁"	-3.76199
▁	-4.04602
▁bir	-4.1555
n	-4.21778
▁və	-4.31122
▁bu	-4.54451
i	-4.63544
ə	-4.64958
a	-4.67701
▁-	-4.8003
m	-4.8394
▁Bu	-5.03455
▁ki	-5.1115
▁də	-5.18392
də	-5.31617
▁çox	-5.32627
▁üçün	-5.33295
▁?	-5.37212
da	-5.39282
▁da	-5.41908
lər	-5.42883
dir	-5.46345
k	-5.5102
▁)	-5.54218
(	-5.54425
dən	-5.55001
lar	-5.62741
in	-5.63723
dan	-5.65142
q	-5.67635
▁Və	-5.70816
r	-5.73277
▁idi	-5.77214
z	-5.79
▁kimi	-5.80737
▁var	-5.81893
▁daha	-5.84832
▁:	-5.90876
ı	-5.91878
▁o	-5.93037
na	-5.96321
▁nə	-5.98465
əm	-5.98714
dır	-6.04112
▁edir	-6.0706
b	-6.07363
▁biz	-6.09168
▁olan	-6.10679
▁mən	-6.10788
cə	-6.11108
▁bilər	-6.12371
▁görə	-6.14205
▁hər	-6.14632
la	-6.1513
▁şey	-6.16426
ma	-6.1873
▁ilə	-6.19698
▁qədər	-6.20791
lə	-6.21677
ya	-6.21875
li	-6.22625
▁belə	-6.23645
yə	-6.24638
siniz	-6.27287
▁isə	-6.30109
▁deyil	-6.3016
▁sonra	-6.31302
▁bütün	-6.32712
▁il	-6.35106
ni	-6.35182
▁Mən	-6.36395
ın	-6.3862
▁O	-6.39807
▁böyük	-6.42656
ik	-6.43232
▁A	-6.47274
▁ən	-6.48058
▁ya	-6.49299
▁yaxşı	-6.50416
▁necə	-6.52066
▁Gülüş	-6.52611
▁olaraq	-6.53182
▁edə	-6.56728
▁heç	-6.5828
nın	-6.58649
ları	-6.59709
▁Am	-6.59987
lik	-6.60418
▁etmək	-6.60538
▁B	-6.67347
sə	-6.68602
ən	-6.70487
ində	-6.71993
▁olduğunu	-6.72388
▁onlar	-6.72634
▁bunu	-6.72676
▁az	-6.73408
s	-6.74295
di	-6.75952
u	-6.76597
▁Bir	-6.76902
▁mənim	-6.78142
am	-6.8055
▁bizim	-6.81165
y	-6.83559
▁b	-6.84783
▁Biz	-6.85222
▁gün	-6.86928
▁başqa	-6.8704
▁zaman	-6.87393
kin	-6.87599
▁həm	-6.876
▁olduğu	-6.87683
▁haqda	-6.8802
dur	-6.8916
▁öz	-6.89571
▁istifadə	-6.90227
▁əvvəl	-6.91108
'	-6.93571
an	-6.93631
▁s	-6.94493
▁M	-6.94579
▁ilk	-6.94997
ki	-6.95546
nin	-6.95875
▁vaxt	-6.97281
▁insanlar	-6.97466
ləri	-6.98887
lı	-7.00347
dı	-7.01295
▁yalnı	-7.0136
▁oldu	-7.0166
▁amma	-7.03149
▁yox	-7.04259
▁etdi	-7.05828
▁iş	-7.05852
dakı	-7.06052
t	-7.06448
▁çünk	-7.0689
▁H	-7.07373
▁elə	-7.07734
▁yeni	-7.08231
▁kiçik	-7.08783
▁neçə	-7.0932
▁olur	-7.09388
dim	-7.11602
kı	-7.12972
▁yer	-7.13794
▁İndi	-7.14286
▁iki	-7.14303
l	-7.1437
nı	-7.14615
si	-7.14671
sa	-7.15462
e	-7.15913
ıq	-7.1606
▁mənə	-7.16528
▁burada	-7.18196
▁baş	-7.19838
▁biri	-7.19913
▁Onlar	-7.20729
▁eyni	-7.21103
▁ancaq	-7.21134
▁onun	-7.21374
▁digər	-7.21918
inə	-7.22328
▁La	-7.24252
ir	-7.24582
▁insan	-7.24583
▁Ə	-7.25804
▁siz	-7.26433
▁dedi	-7.26474
▁S	-7.26607
▁Çox	-7.26609
▁istəyirəm	-7.26767
▁T	-7.28715
▁sadə	-7.29132
nə	-7.29356
▁ola	-7.3013
kən	-7.30215
—	-7.30251
ncaq	-7.30355
ri	-7.30781
▁tək	-7.31473
▁deyə	-7.31594
sən	-7.32966
▁edən	-7.33167
▁ildə	-7.34099
sı	-7.34749
▁dünya	-7.35175
0	-7.36439
niz	-7.37499
▁sizə	-7.37522
▁ci	-7.37792
un	-7.37828
▁olacaq	-7.37896
ndan	-7.38713
▁onu	-7.39059
o	-7.40261
▁həqiqətən	-7.40343
▁Y	-7.41613
▁dəfə	-7.41702
▁Alqışlar	-7.41966
▁olar	-7.41981
▁haqqında	-7.43015
▁Yə	-7.43197
larını	-7.4356
nız	-7.43627
▁olmaq	-7.44671
▁hiss	-7.45324
▁indi	-7.45615
maq	-7.45747
▁əsas	-7.45765
▁tərəfində	-7.4632
▁başladı	-7.46403
d	-7.47007
ş	-7.47041
▁demək	-7.47137
▁deyir	-7.49063
▁şəkildə	-7.49091
▁kəs	-7.50041
▁geri	-7.50057
ların	-7.50355
▁əla	-7.50518
gər	-7.50588
▁onları	-7.50657
lərin	-7.51222
▁hə	-7.52535
▁hal	-7.53391
▁səbəb	-7.53763
▁Q	-7.5392
▁G	-7.54087
lıq	-7.54413
▁orta	-7.54667
▁içində	-7.55196
ib	-7.55233
əgər	-7.55542
▁Belə	-7.56059
▁Beləliklə	-7.5608
▁bunun	-7.56702
tta	-7.57168
▁Alqış	-7.57268
▁insanların	-7.57515
▁qarşı	-7.58343
▁bəzi	-7.58562
▁həyat	-7.60428
▁davam	-7.60775
ca	-7.60813
dəki	-7.61737
araq	-7.61847
ıb	-7.62305
▁gözəl	-7.62454
▁meydan	-7.62483
▁Siz	-7.63078
▁şeylər	-7.63464
▁2	-7.63702
▁hansı	-7.64138
▁Mənim	-7.64174
▁fərqli	-7.64285
▁Bunu	-7.6454
siz	-7.64679
▁Ç	-7.64839
▁onların	-7.64863
▁fikir	-7.65197
▁sizin	-7.65242
▁son	-7.65338
▁etməyə	-7.6549
inin	-7.65738
▁gəlir	-7.65738
▁üzərində	-7.65986
▁artıq	-7.67572
▁hələ	-7.67791
▁məni	-7.6799
lərlə	-7.68422
▁la	-7.69022
mağa	-7.69252
▁Əsl	-7.69312
likdə	-7.69559
▁kosmos	-7.69811
▁verdi	-7.70292
▁milyard	-7.71078
▁bilmir	-7.71156
ü	-7.71336
er	-7.71394
▁yol	-7.7166
▁K	-7.71755
▁yaxın	-7.72505
mi	-7.72883
▁qaranlıq	-7.7292
▁olub	-7.72987
▁əslin	-7.74409
▁hekayə	-7.75102
▁cavab	-7.75175
▁lazım	-7.75898
▁doğru	-7.76152
ar	-7.76471
▁hərəkət	-7.76905
▁yoxdur	-7.76924
və	-7.77731
axşı	-7.78569
▁;	-7.78577
▁gələn	-7.79242
▁bilərik	-7.79455
▁Hər	-7.79554
▁cü	-7.79787
▁bunlar	-7.79922
▁Burada	-7.80158
ütün	-7.80428
▁maddə	-7.80446
▁olun	-7.80489
▁10	-7.81151
▁kömək	-7.81839
▁təhsil	-7.82012
▁Nə	-7.82454
▁üç	-7.82517
▁sahib	-7.82604
▁i	-7.83194
ını	-7.83221
▁Afrika	-7.83599
▁başa	-7.83804
ır	-7.84427
▁tam	-7.84696
▁olsa	-7.84706
▁qey	-7.85754
00	-7.85814
▁şeyi	-7.86101
mək	-7.86245
▁müddət	-7.86703
▁şəkil	-7.86829
dım	-7.87227
sınız	-7.87393
▁enerji	-7.87469
▁olardı	-7.87941
▁çətin	-7.88007
▁milyon	-7.88058
▁görür	-7.88787
▁k	-7.89898
▁işıq	-7.89991
ünk	-7.90372
v	-7.90539
▁verir	-7.90955
▁sağ	-7.90969
dür	-7.91096
ylə	-7.92266
▁D	-7.92268
sini	-7.92496
▁musiqi	-7.92681
▁İ	-7.92747
▁günəş	-7.93083
▁vacib	-7.93168
▁mövcud	-7.93176
▁!	-7.93185
▁qəbul	-7.93186
▁hava	-7.93189
▁qərar	-7.93302
▁özüm	-7.93891
▁5	-7.93994
f	-7.94087
▁dünyanın	-7.94438
▁ay	-7.95063
▁Bizi	-7.95078
▁etdiyi	-7.95446
lərini	-7.95972
▁arasında	-7.97053
ımız	-7.97078
▁qadın	-7.9718
▁inkişaf	-7.97391
x	-7.97629
miz	-7.97657
▁t	-7.98298
▁kainatın	-7.98408
ur	-7.98878
▁3	-7.99082
miş	-7.99778
▁olma	-7.99941
san	-8.00247
▁uzun	-8.00287
im	-8.01037
▁20	-8.01473
▁E	-8.01487
▁bilir	-8.01952
ər	-8.02503
▁olmayan	-8.02646
▁elmi	-8.02647
▁edəcək	-8.0272
▁ətrafında	-8.02753
▁pul	-8.02903
▁xüsusi	-8.03049
eç	-8.03173
▁kim	-8.03274
▁söz	-8.03839
▁hazır	-8.04362
▁kəşf	-8.04796
ğa	-8.04948
▁Dah	-8.05174
▁bağlı	-8.05191
▁C	-8.05363
tə	-8.05969
▁uşaq	-8.06953
▁sual	-8.07112
▁maraqlı	-8.07451
▁dollar	-8.07669
▁məktəb	-8.07771
▁lazımdır	-8.08
larla	-8.08685
▁deyildi	-8.08827
▁həmişə	-8.09637
▁uyğun	-8.09815
▁gəldi	-8.09873
ük	-8.10247
▁Təşəkkür	-8.10299
▁təxmin	-8.10299
▁edib	-8.10334
▁əhəmiyyətli	-8.10354
▁göstərir	-8.10602
lərdən	-8.10813
ğı	-8.12105
▁ölçülər	-8.12699
▁problem	-8.12934
▁dərəcə	-8.13002
▁Bunun	-8.13056
▁4	-8.13249
▁edirlər	-8.13765
ti	-8.14093
▁müəyyən	-8.14322
▁200	-8.14426
▁təsir	-8.1463
mə	-8.14944
▁idim	-8.15141
c	-8.15512
▁məşğul	-8.15664
dik	-8.15711
▁görünür	-8.15766
adlı	-8.15767
▁yerdə	-8.15897
▁Dünya	-8.16022
mış	-8.16142
▁Ən	-8.16598
▁olması	-8.16745
▁rəqəm	-8.16892
▁hamısı	-8.17801
▁həll	-8.18589
▁görmək	-8.18735
▁yəni	-8.1879
▁barə	-8.18967
▁etdiyimiz	-8.19021
el	-8.19174
əs	-8.19573
S	-8.19745
▁yolu	-8.19969
al	-8.1997
ması	-8.20209
▁bizi	-8.21446
ına	-8.2157
▁izah	-8.21579
▁təsəvvür	-8.2159
▁AB	-8.21595
▁bilirik	-8.21784
▁təbi	-8.21816
▁ifadə	-8.22605
oyunca	-8.22682
▁bax	-8.22814
▁orada	-8.22838
▁adam	-8.23446
id	-8.23763
ndə	-8.24319
əlkə	-8.2448
▁qısa	-8.24609
▁burda	-8.24708
▁hesab	-8.24902
▁adi	-8.2509
▁de	-8.25573
▁yüksə	-8.2571
g	-8.2575
sını	-8.25878
▁min	-8.25969
il	-8.2689
ilə	-8.27186
▁1	-8.27571
▁qəribə	-8.27733
▁təmin	-8.27735
▁qlobal	-8.2774
▁görürsünüz	-8.27751
▁yaratmaq	-8.27796
▁su	-8.27801
▁öncə	-8.27804
▁tamam	-8.27906
▁edin	-8.27978
▁sözü	-8.28014
▁bilməz	-8.28015
▁səbəbdən	-8.28581
▁m	-8.2878
Ş	-8.29157
▁etdik	-8.29477
indən	-8.29742
▁ev	-8.30217
▁qalaktika	-8.30501
▁mövzu	-8.3062
▁anda	-8.30788
▁yüz	-8.3096
▁güclü	-8.30965
▁zamanda	-8.31266
▁məsələ	-8.31542
larında	-8.31711
▁əldə	-8.31767
ərək	-8.32605
▁dünyanı	-8.32912
du	-8.32924
▁məncə	-8.33032
ini	-8.33459
▁Ya	-8.33566
▁uzaq	-8.33719
▁etmə	-8.33793
▁Titan	-8.34015
▁Sonra	-8.3431
▁niyə	-8.34362
▁fərq	-8.34605
lərə	-8.34975
▁nəzər	-8.35798
L	-8.35984
▁aşağı	-8.36229
▁kainat	-8.363
▁kütlə	-8.36392
əcək	-8.36422
lərindən	-8.37145
▁Amerika	-8.37375
sız	-8.37572
▁təşkil	-8.37728
▁Ni	-8.37732
▁incəsənət	-8.37741
▁bunları	-8.37949
▁kişi	-8.38317
dığı	-8.38363
▁Bunlar	-8.38418
mu	-8.38441
▁dilində	-8.38619
▁P	-8.38642
▁Bəl	-8.38929
▁istərdi	-8.39268
▁əsl	-8.39328
▁vasitəsi	-8.39428
▁nədir	-8.39459
▁bilmirdi	-8.39478
▁in	-8.39606
▁bilmə	-8.39706
qin	-8.39854
▁Hə	-8.40214
▁100	-8.40312
▁üzərin	-8.41
▁ingilis	-8.41076
▁Bibliya	-8.41082
▁əlaqə	-8.41311
▁tez	-8.4135
▁özün	-8.41403
▁vermək	-8.41421
▁asan	-8.41429
▁edərək	-8.41433
imiz	-8.42012
imi	-8.42098
▁etməli	-8.42506
▁50	-8.42802
ında	-8.42879
▁özü	-8.4329
▁nəticə	-8.43335
sində	-8.4339
▁etmiş	-8.43438
▁dili	-8.43542
▁müxtəlif	-8.43858
▁bilərəm	-8.43944
h	-8.44292
▁R	-8.44379
p	-8.44409
lardan	-8.44852
▁mümkün	-8.44955
▁gülüş	-8.45016
▁cənub	-8.45016
▁Məsələn	-8.45025
▁göstərmək	-8.45036
▁Hindistan	-8.45065
▁biləcək	-8.45448
▁yazı	-8.45488
▁bilmək	-8.45488
ey	-8.45611
▁dəqiqə	-8.45978
▁al	-8.46056
yəm	-8.46684
qca	-8.47001
▁dəqiq	-8.47229
▁daxil	-8.47651
▁yaz	-8.47821
▁idarə	-8.48005
▁İş	-8.48315
▁Hindistanda	-8.48414
▁məlumat	-8.48592
▁kifayət	-8.48857
▁aydın	-8.48865
▁məh	-8.48867
▁danışmaq	-8.4904
▁deyilmi	-8.49271
▁12	-8.49335
dıq	-8.4954
▁şəkillər	-8.4967
▁səbəbi	-8.49786
▁açıq	-8.49947
ç	-8.49995
▁baxsa	-8.5
▁növ	-8.5005
▁sözlər	-8.50171
acaq	-8.50922
lara	-8.51301
▁qala	-8.51327
▁xəbər	-8.51681
▁planet	-8.52092
st	-8.52163
sına	-8.52319
▁7	-8.52497
▁elm	-8.52766
▁Birinci	-8.52875
▁əmin	-8.52959
▁at	-8.52981
▁olduğumuz	-8.53023
▁çıxır	-8.53072
▁almaq	-8.5315
▁sən	-8.53342
sında	-8.53774
▁deyi	-8.54111
larda	-8.54201
ün	-8.54278
▁san	-8.54613
uq	-8.54714
ra	-8.55665
▁Ş	-8.56101
▁dünyada	-8.5615
▁V	-8.5641
▁geniş	-8.56572
▁onda	-8.56868
▁özünü	-8.56917
▁təsvir	-8.57029
▁tərk	-8.57029
▁qolf	-8.57037
▁saat	-8.57048
▁ərz	-8.57125
▁əsr	-8.57142
▁Bəlkə	-8.57215
▁bənzər	-8.57242
▁İnsanlar	-8.57572
▁sistemi	-8.57615
▁kitab	-8.57737
▁gedir	-8.5777
▁uçuş	-8.57823
▁ana	-8.57977
▁başlayır	-8.58117
▁yə	-8.58395
▁an	-8.58647
▁gökada	-8.58669
▁şəkli	-8.58761
▁Onları	-8.58872
▁altında	-8.59012
▁İl	-8.5933
▁üz	-8.5934
5	-8.59455
yi	-8.59788
▁bura	-8.59806
▁oğlan	-8.5989
sal	-8.60026
▁inanır	-8.60337
▁insanları	-8.60362
le	-8.60728
or	-8.60993
▁qız	-8.61073
▁g	-8.61172
▁dəyişdi	-8.61261
▁təşəkkür	-8.61377
▁inanılmaz	-8.61377
▁Günəş	-8.61377
▁video	-8.61377
▁saniyə	-8.61379
▁15	-8.61403
▁gördüyünüz	-8.6142
▁maşın	-8.61427
▁pis	-8.61472
▁bilirsiniz	-8.61937
▁olduğum	-8.61963
cı	-8.62007
yla	-8.62282
▁keçən	-8.62302
▁F	-8.62303
▁baxma	-8.62483
▁Demə	-8.62735
▁tələb	-8.62851
▁insanı	-8.63004
▁hadisə	-8.63109
▁yenidən	-8.63273
8	-8.63508
▁na	-8.636
▁müsahibə	-8.6392
at	-8.64066
▁verən	-8.64726
▁illərdə	-8.64804
▁yen	-8.64901
▁nöqtə	-8.65138
▁texnologiya	-8.65388
▁ulduzlar	-8.65581
▁səhv	-8.65725
▁kasıb	-8.65907
▁zəif	-8.65922
▁məşhur	-8.65923
▁olsun	-8.65924
▁əməl	-8.65939
▁özümüz	-8.65944
▁fikri	-8.65966
rək	-8.65979
▁ulduz	-8.66738
▁çəkir	-8.66991
▁ölkə	-8.67275
▁adı	-8.67611
▁getmə	-8.68022
▁orbit	-8.68367
▁edirdi	-8.68467
▁sizi	-8.68496
▁birini	-8.68558
lu	-8.68576
mız	-8.68965
▁çalış	-8.69001
▁isti	-8.69024
▁hekayələr	-8.69043
çini	-8.69115
▁X	-8.69292
▁ətraf	-8.69487
dilər	-8.69652
ından	-8.69678
▁on	-8.6968
▁qal	-8.69717
▁çalışır	-8.69963
▁keçir	-8.70218
▁edər	-8.70263
xud	-8.70352
▁yaradıcı	-8.70522
▁edildi	-8.70581
▁təcrübə	-8.70593
▁kosm	-8.70681
▁dövlət	-8.70684
▁mütləq	-8.70684
▁hörmət	-8.70684
▁narahat	-8.70687
▁balaca	-8.70712
▁bil	-8.70885
dü	-8.709
▁Elə	-8.71093
sinə	-8.71149
▁şeyin	-8.71299
▁40	-8.71547
▁baxa	-8.71671
▁a	-8.71755
iya	-8.72132
▁düşünür	-8.72157
kinci	-8.725
▁oldum	-8.73042
▁zamanı	-8.73067
▁alan	-8.73703
▁çoxu	-8.73773
ndən	-8.73809
mışdı	-8.73872
İ	-8.73891
▁nəyə	-8.73901
D	-8.73913
cək	-8.73998
▁yerin	-8.74022
▁hissəsi	-8.74085
vi	-8.74286
▁təkrar	-8.74613
nun	-8.74875
▁illər	-8.75005
▁məna	-8.75016
▁ibarət	-8.75684
▁mübarizə	-8.75685
luq	-8.75687
▁Sağ	-8.75688
▁müasir	-8.75691
▁normal	-8.75724
▁asılı	-8.75732
▁təqdim	-8.75753
▁Necə	-8.75754
▁dolu	-8.75761
▁Cas	-8.75783
▁Sadə	-8.75813
▁düşür	-8.75826
▁N	-8.75906
▁olmasa	-8.75993
▁Yer	-8.76126
▁qoyma	-8.76237
▁etdiyim	-8.76289
▁özləri	-8.7644
▁Son	-8.7644
▁ölçü	-8.76951
▁imkan	-8.77026
▁əl	-8.77108
lərində	-8.77113
mələr	-8.77347
▁ifa	-8.77367
▁ölkədə	-8.77534
▁yarı	-8.77775
▁mənası	-8.78072
məyə	-8.78161
▁əvvəlki	-8.78166
aq	-8.78179
lərdə	-8.78231
▁əks	-8.78303
▁maşını	-8.78568
▁sala	-8.78763
▁film	-8.7889
▁Bura	-8.79318
▁ala	-8.79398
▁yağış	-8.79706
▁uşaqlar	-8.79803
ler	-8.80064
▁diqqət	-8.80145
▁vardı	-8.80269
acağı	-8.80294
▁İngilis	-8.80658
▁Kim	-8.80666
▁Başqa	-8.80839
▁yuxarı	-8.80947
▁Böyü	-8.80979
əhs	-8.80985
▁gedib	-8.81048
▁Görə	-8.8128
▁d	-8.81384
▁Mənə	-8.81525
▁q	-8.81605
▁səs	-8.81757
▁olmadığını	-8.81802
▁6	-8.81908
▁hamımız	-8.82016
▁hamı	-8.82085
▁qadınlar	-8.82118
ırıq	-8.82193
▁üstün	-8.82332
liyi	-8.82419
▁I	-8.82434
▁varsa	-8.82576
▁ç	-8.82798
sonunda	-8.82803
▁De	-8.82883
▁sevir	-8.83039
▁yoldaşım	-8.83166
▁dövr	-8.83249
▁nəzəriyyəsi	-8.83393
▁L	-8.83486
▁atam	-8.83643
▁işlər	-8.84006
▁qaydalar	-8.84072
▁çıxar	-8.84213
▁gökadalar	-8.84341
▁təyyarə	-8.84761
lan	-8.84873
▁Allahı	-8.84963
▁fizik	-8.85267
▁dərs	-8.85386
▁səliqə	-8.85521
▁için	-8.85702
▁dörd	-8.85833
▁kənar	-8.85955
▁xarici	-8.86052
▁Maldiv	-8.86503
▁ümumi	-8.86503
▁cəlb	-8.86503
▁mərhəmət	-8.86504
▁ağıllı	-8.86512
▁mümkündür	-8.86589
▁nəyi	-8.86614
▁gələcək	-8.86761
▁biləcəyimiz	-8.86768
▁oyunun	-8.86784
tik	-8.86907
▁məqsədi	-8.87291
▁bilərdi	-8.87322
▁şeyləri	-8.87427
▁ağ	-8.87658
▁Onun	-8.87887
▁Əla	-8.87954
▁müəllimlər	-8.87994
iz	-8.88247
▁bitki	-8.88347
▁kənd	-8.88765
ğ	-8.88893
raq	-8.89235
▁c	-8.89255
dığımız	-8.89324
diyi	-8.89364
▁ilin	-8.89431
▁Sən	-8.89467
ona	-8.89757
▁sistem	-8.8988
nda	-8.90137
▁əvəzin	-8.90293
▁çoxlu	-8.90405
Ç	-8.90606
▁aldı	-8.90646
▁problemi	-8.90685
▁rəqs	-8.90969
ırdı	-8.91204
▁parçası	-8.91309
▁qorxu	-8.91333
▁misal	-8.91518
va	-8.91708
▁ehtimal	-8.91765
▁bəzə	-8.92027
se	-8.9213
▁birimiz	-8.92198
▁həftə	-8.92226
▁bərabər	-8.92331
▁həqiq	-8.92361
▁Musiqi	-8.92385
▁StoriKorps	-8.92385
▁Təbii	-8.92385
▁həbsxana	-8.92385
▁Nəticə	-8.92385
▁təklif	-8.92386
▁Saturn	-8.92386
▁Məktəb	-8.92387
▁düzgün	-8.92388
▁qulaq	-8.92388
▁11	-8.92391
rhal	-8.92405
▁Gəli	-8.92407
▁Tamam	-8.92425
təşə	-8.92426
▁olmur	-8.92463
▁gördüyümüz	-8.92469
▁qalaktikalar	-8.9278
▁olunur	-8.9284
▁istədiyim	-8.92885
▁görünə	-8.9293
▁nəticəsi	-8.93039
▁işin	-8.93083
▁bilən	-8.93294
▁baxım	-8.93413
▁olurdu	-8.93826
▁başlaya	-8.93847
▁dair	-8.93937
▁Allah	-8.94059
▁gördü	-8.94066
▁otaq	-8.94185
▁dərin	-8.9419
▁din	-8.94216
▁edilən	-8.94319
▁qrup	-8.94448
ım	-8.94456
▁düşünmə	-8.94702
▁f	-8.9475
▁qeyd	-8.94805
▁W	-8.94813
▁iynəcələr	-8.9482
▁çıxan	-8.94963
▁bilirdi	-8.95029
lığı	-8.95033
▁daim	-8.95357
▁en	-8.95457
▁təsiri	-8.95643
ımızı	-8.95715
▁maraq	-8.95749
2	-8.95789
mışam	-8.96147
▁müşahidə	-8.963
▁ora	-8.96335
▁dil	-8.96341
▁sürətlə	-8.96426
▁səth	-8.96655
▁8	-8.96805
4	-8.96819
▁düşünü	-8.96859
▁model	-8.97346
mizi	-8.97386
▁düz	-8.97548
▁Hi	-8.97629
me	-8.97823
▁Dünyanı	-8.98083
▁olmağ	-8.98092
▁məsafə	-8.98153
▁etməsi	-8.98189
sin	-8.98239
▁baxı	-8.98255
▁itir	-8.98343
▁xəstəlik	-8.98418
▁gəlmə	-8.98546
▁təq	-8.98573
▁kompleks	-8.98635
▁mavi	-8.9864
▁olsaydı	-8.98646
▁icazə	-8.98648
▁beş	-8.98669
▁Dav	-8.98694
rət	-8.98708
▁növbə	-8.98713
▁istəyirik	-8.98802
▁Tək	-8.98804
▁edilməsi	-8.98964
▁düşünə	-8.99024
▁olduğundan	-8.99204
▁suallar	-8.99616
▁maddəni	-8.99622
▁yarım	-8.99713
▁gücü	-8.99791
▁işdə	-8.99816
izin	-9.00013
▁təhlükəsiz	-9.00035
▁alır	-9.00048
▁Yal	-9.00447
▁Xey	-9.00507
▁tərəfdə	-9.00635
arı	-9.0064
əl	-9.00668
su	-9.00697
▁fikrim	-9.00835
te	-9.0103
▁günü	-9.01073
▁deyərdi	-9.01257
▁qət	-9.01334
larının	-9.01424
malı	-9.01617
▁istəyir	-9.01752
▁edərdi	-9.01768
▁yeri	-9.02025
▁problemlər	-9.02465
▁ehtiyac	-9.02488
▁həyatda	-9.02599
▁sevgi	-9.02765
en	-9.03107
▁yaşı	-9.03113
ayəsində	-9.03453
▁gəlirdi	-9.03592
▁olanda	-9.03639
▁keç	-9.0385
▁gözlə	-9.03927
tor	-9.04085
▁ye	-9.04223
▁ölüm	-9.04571
zi	-9.0465
▁et	-9.04843
▁addım	-9.04867
▁sol	-9.0487
▁sıx	-9.05046
▁xilas	-9.05177
▁Appl	-9.05193
▁arxa	-9.05278
▁çıxdı	-9.053
▁ünsiyyət	-9.05302
▁nəfər	-9.05302
▁tərcümə	-9.05308
▁möh	-9.05315
▁önəmli	-9.05342
▁qərb	-9.05344
▁İkinci	-9.05354
▁sev	-9.05394
▁hərfi	-9.05416
▁elektron	-9.05463
▁sürətli	-9.05486
▁soruşdu	-9.05532
▁9	-9.05557
▁tapmaq	-9.05572
▁düşündü	-9.05608
▁sayı	-9.05824
▁soruşur	-9.05877
▁ölçülü	-9.059
▁ol	-9.06119
▁nümunə	-9.0613
gg	-9.06307
▁ehtiyacımı	-9.06395
ka	-9.06458
▁dayan	-9.06461
▁plan	-9.06536
▁tərəf	-9.06575
▁gətirən	-9.0662
lub	-9.06733
▁rol	-9.06735
▁etsə	-9.06861
▁istiqamətdə	-9.07258
▁sim	-9.07283
ol	-9.07397
it	-9.07443
dirlər	-9.0752
▁Afrikada	-9.07954
▁nəyin	-9.07958
ür	-9.07965
▁ruh	-9.08031
ğımız	-9.08135
▁qarşısında	-9.08217
ıram	-9.08432
ent	-9.08512
▁təbiətin	-9.08609
▁olmuşdu	-9.08713
▁tap	-9.08746
▁fikrin	-9.08773
▁toz	-9.08812
▁harada	-9.08995
▁sal	-9.09083
mü	-9.09238
▁desə	-9.09599
▁fakt	-9.09915
▁gedə	-9.09962
▁ş	-9.10013
liyin	-9.10113
▁çəkilişi	-9.10165
▁19	-9.10218
▁müəllim	-9.10248
▁etməyi	-9.1026
ed	-9.10297
larımız	-9.10317
9	-9.10442
▁qaç	-9.10479
▁araşdırma	-9.10533
V	-9.10615
▁dəniz	-9.10737
▁gündə	-9.10795
▁güc	-9.10933
inizi	-9.10998
▁Onu	-9.11299
▁ədalət	-9.11311
▁üstündə	-9.11446
▁qan	-9.11473
▁proqram	-9.11593
▁qat	-9.11657
▁di	-9.11677
▁edil	-9.11709
asiya	-9.11796
▁ayaq	-9.11812
yın	-9.1184
▁bilmədiyimi	-9.12025
mı	-9.12082
▁fikirləşir	-9.12083
▁xoş	-9.12151
tan	-9.12168
▁irəli	-9.12318
▁parçacıqları	-9.12415
▁qayda	-9.12423
▁NASA	-9.12445
▁TED	-9.12445
▁korrupsiya	-9.12445
▁tətbiq	-9.12445
▁gizli	-9.12445
▁ədəd	-9.12445
▁ciddi	-9.12445
▁xoşbəxt	-9.12445
▁Charl	-9.12447
▁qaya	-9.12449
▁istənil	-9.12449
▁zərər	-9.1245
▁Bang	-9.12451
▁möcüzə	-9.12452
▁gənc	-9.12455
▁içərisində	-9.12457
oloji	-9.12463
▁198	-9.12468
▁sualtı	-9.12469
▁çəkmək	-9.1247
▁Andro	-9.12487
▁90	-9.12516
▁qüvvət	-9.12553
▁bas	-9.12599
▁olmalıdır	-9.12624
▁Digər	-9.12639
▁Big	-9.12646
▁Ev	-9.12806
▁davamlı	-9.1287
▁olmalıy	-9.13019
▁problemləri	-9.13025
▁bəri	-9.13089
▁zəngin	-9.13189
mişdi	-9.13235
sın	-9.13327
▁mil	-9.13352
sünüz	-9.13389
▁çalışan	-9.13398
▁istədi	-9.1342
et	-9.13508
▁arasın	-9.1354
▁edilə	-9.14108
▁qüvvə	-9.14139
▁alın	-9.14249
▁ulduzların	-9.14259
▁telefon	-9.14438
▁orda	-9.1449
▁e	-9.1449
▁göstər	-9.14559
▁mə	-9.14585
▁Yeni	-9.14638
▁cı	-9.14638
▁şimal	-9.14646
▁uşaqları	-9.14673
▁həyatın	-9.14694
den	-9.14697
▁göstərəcəy	-9.1472
ının	-9.1475
ərf	-9.14764
▁30	-9.1499
▁vasitə	-9.15102
P	-9.15158
▁kütləsi	-9.15352
nu	-9.15389
on	-9.15453
▁olduqları	-9.15484
▁ko	-9.15519
diyimiz	-9.15624
▁imkanlar	-9.15727
▁rəng	-9.15929
▁işim	-9.16114
▁paylaşma	-9.16154
▁olmuş	-9.16344
▁sürət	-9.1681
▁hekayəni	-9.16856
▁olduq	-9.16931
▁ehtimalla	-9.17068
ie	-9.17188
▁olmağı	-9.17427
tar	-9.17485
▁x	-9.17494
▁göz	-9.17564
▁rəsm	-9.17622
▁okean	-9.17635
▁parça	-9.17747
▁universitet	-9.17761
7	-9.18272
sək	-9.18311
▁sahə	-9.18372
▁ara	-9.18373
▁edilir	-9.18536
▁xey	-9.18574
▁qalma	-9.18791
▁görün	-9.19058
▁işarə	-9.19339
ək	-9.1937
▁tədqiqat	-9.1944
çi	-9.19546
▁çat	-9.19745
▁üst	-9.19787
▁işi	-9.19872
▁gördük	-9.19879
▁Əvvəl	-9.19897
▁şəxsi	-9.20028
həng	-9.20096
əqiqətən	-9.20133
▁asteroid	-9.20137
▁hədiyyə	-9.20137
▁John	-9.20137
▁Eyni	-9.20138
▁ölçüsü	-9.20144
▁səhnə	-9.20162
▁test	-9.20163
▁mühüm	-9.20174
▁salmaq	-9.2021
▁yaşlı	-9.20211
▁Həmi	-9.20214
▁aid	-9.20228
▁25	-9.20229
▁mövzusunda	-9.20252
▁minlərlə	-9.20386
▁anlamaq	-9.20433
▁görünüş	-9.20454
▁birinci	-9.20487
▁öyrənmək	-9.20537
▁üzünü	-9.2054
▁sıra	-9.20563
▁İki	-9.2059
ram	-9.2062
▁özümüzü	-9.20625
▁deyirdi	-9.20631
▁bitkilər	-9.20648
▁hissəciklər	-9.2067
▁nələr	-9.20727
▁16	-9.20735
▁səni	-9.20746
▁keçmiş	-9.20985
gan	-9.21013
ta	-9.21107
▁məsələn	-9.21259
▁istəyirdim	-9.21316
▁çöl	-9.21562
▁yaradıl	-9.21715
ton	-9.2176
▁bilmədi	-9.21904
yimiz	-9.21982
son	-9.22439
▁insanlarla	-9.22457
▁dəyər	-9.22468
▁sənin	-9.2251
▁vaxtı	-9.22515
▁etməklə	-9.22547
es	-9.22762
rəm	-9.22794
▁canlı	-9.22795
sinin	-9.22799
▁kamera	-9.23043
▁nənə	-9.23053
▁Ba	-9.23189
▁səviyyə	-9.23284
▁ideya	-9.23289
▁yay	-9.23307
▁mı	-9.23334
▁düşüncə	-9.23385
▁kağız	-9.23569
▁Ad	-9.23742
▁bazar	-9.23895
▁olduğunuz	-9.24
▁cəmiyyət	-9.24111
gə	-9.24292
▁görünüşü	-9.24404
▁edirsiniz	-9.24739
▁atom	-9.24818
▁kompüter	-9.24986
▁işığı	-9.25013
▁nüvə	-9.25166
ilmiş	-9.25178
ası	-9.25258
▁həşərat	-9.25327
▁anam	-9.25563
▁cu	-9.25788
▁razı	-9.25816
▁tarix	-9.25938
▁çoxunu	-9.26086
▁fizika	-9.26099
umuz	-9.26215
gi	-9.26258
▁etmir	-9.2628
A	-9.26291
lü	-9.26413
▁bəziləri	-9.26565
▁yolla	-9.26573
mağı	-9.26606
▁gətirdi	-9.26898
▁yaratdığı	-9.2697
▁səyahət	-9.27063
▁Kainat	-9.27109
əb	-9.27257
▁tələbələr	-9.27335
▁quruluş	-9.2747
▁Bəz	-9.27501
▁vaxtlar	-9.27567
▁ın	-9.27816
▁adaları	-9.28024
▁zəng	-9.28036
▁boyu	-9.28259
▁əyləncə	-9.28351
▁sərhəd	-9.28383
uditoriya	-9.28431
▁xatırlayır	-9.28436
▁Einstein	-9.2847
▁Qəhqəhə	-9.2847
▁parlaq	-9.28471
▁eniş	-9.28471
▁Əlbət	-9.28471
▁ictimai	-9.28473
▁əlbət	-9.28473
▁səhər	-9.28479
▁əlaqədar	-9.28487
▁olmayacaq	-9.28488
▁qarışıq	-9.28523
▁Əsas	-9.28538
▁deməli	-9.28557
▁yaradıcılıq	-9.2858
▁istədiyimiz	-9.28617
▁həyatımı	-9.28689
▁hazırladı	-9.28751
▁cümlə	-9.28908
▁vəziyyətdə	-9.28913
▁Anam	-9.28947
▁cihaz	-9.28996
ırlar	-9.28997
ət	-9.29097
▁oyun	-9.29181
us	-9.29199
▁köməyi	-9.29239
▁gətirir	-9.29239
▁ayrı	-9.29245
▁etdiyiniz	-9.29306
yam	-9.29315
sunuz	-9.29422
▁Bilir	-9.29441
▁bank	-9.29557
▁istəyirdi	-9.29734
▁əsər	-9.29744
▁olmaz	-9.29843
▁dizayn	-9.29855
▁San	-9.2993
▁gələcəyi	-9.30031
▁ayır	-9.30273
raya	-9.30486
▁düşdü	-9.30543
cəm	-9.30622
▁bölgə	-9.30627
▁sonu	-9.3071
cü	-9.30724
mizə	-9.30797
▁hekayələri	-9.30846
6	-9.30937
hi	-9.3101
▁say	-9.31029
dığım	-9.31087
▁çətindir	-9.31188
▁get	-9.31195
▁növü	-9.31366
▁müharibə	-9.314
aram	-9.31445
▁deyilən	-9.31478
▁as	-9.31583
▁getdi	-9.31665
▁xidmət	-9.31766
aranlıq	-9.31868
▁yara	-9.319
▁tarixi	-9.32223
▁Həm	-9.32235
▁metr	-9.32283
▁üzə	-9.32408
▁Avropa	-9.32435
▁hissi	-9.32489
▁21	-9.32535
▁Va	-9.32579
▁kişilər	-9.32648
▁riyaziyyat	-9.32732
▁məqsəd	-9.32987
▁ad	-9.32996
tı	-9.33117
▁gətiri	-9.33194
de	-9.33436
▁maraqlan	-9.33444
▁bəs	-9.33445
yan	-9.3354
diyim	-9.33579
▁danış	-9.33754
▁iynəcə	-9.33853
▁altı	-9.34044
mızı	-9.34184
▁500	-9.34193
lanır	-9.3428
▁qalan	-9.3431
▁biləcəyi	-9.34394
▁nəzarət	-9.3479
malıyı	-9.34794
▁alt	-9.34823
▁öyrəndi	-9.34878
▁enerjisi	-9.35009
▁başlama	-9.35228
▁dost	-9.35409
▁məktəbdə	-9.35531
▁daş	-9.35546
▁başlayan	-9.35574
ruq	-9.35588
N	-9.3567
3	-9.35688
I	-9.35742
H	-9.3576
▁etdirə	-9.35811
▁un	-9.35872
kü	-9.35935
▁nəzərdə	-9.35964
▁axı	-9.36104
▁malik	-9.3616
▁ümid	-9.3625
▁uç	-9.36303
▁otur	-9.36488
▁məlumatı	-9.3654
yorlar	-9.36594
▁nisbət	-9.36645
▁p	-9.36758
▁gəldiyin	-9.36774
gen	-9.37143
▁həyatı	-9.37261
çün	-9.37413
▁müqayisə	-9.37561
▁Risen	-9.37561
▁mükəmməl	-9.37561
▁məcburiyyətində	-9.37561
▁İynəcələr	-9.37561
▁neft	-9.37562
▁informasiya	-9.37564
▁aşkar	-9.37566
▁üzrə	-9.37568
▁təkamül	-9.37572
▁ərəb	-9.37577
▁iştirak	-9.3759
▁çəkisi	-9.37599
▁biləcəyini	-9.37627
▁dəvət	-9.37648
▁şir	-9.37683
▁riyazi	-9.37708
▁tanış	-9.37842
▁gördüyüm	-9.37901
▁Bilmir	-9.37996
▁günəşi	-9.38013
▁yerlərdə	-9.38164
▁is	-9.38194
up	-9.38206
▁gələ	-9.38225
▁adlanır	-9.3826
▁yığ	-9.38293
ncel	-9.38379
sel	-9.38388
ah	-9.38404
▁baxmaq	-9.38522
▁mür	-9.38549
▁söhbət	-9.38579
▁Nəyə	-9.38699
▁şərq	-9.3875
nızı	-9.38781
ine	-9.38913
▁yaxınlaş	-9.38956
▁özümü	-9.3901
dus	-9.39653
▁çəkili	-9.39715
▁şahid	-9.3975
▁robot	-9.40028
lərimizi	-9.40184
▁Bəziləri	-9.40217
rum	-9.40301
▁danışmağ	-9.40448
▁yaşımda	-9.40492
mısınız	-9.40505
▁əhəmiyyət	-9.40555
▁xaricində	-9.40584
▁şirkət	-9.40732
▁qara	-9.40851
▁göstərə	-9.40857
▁bar	-9.41064
▁adət	-9.41147
▁iyi	-9.41161
məyən	-9.41172
▁əsəri	-9.41225
▁sahəsin	-9.41332
▁gecə	-9.4146
um	-9.41513
▁cəmi	-9.41603
▁arası	-9.41769
▁sözləri	-9.41809
rtıq	-9.41869
▁internet	-9.42173
▁işığın	-9.42186
▁fərqi	-9.42276
dərk	-9.42476
ğın	-9.42567
▁yaşayır	-9.42633
▁evdə	-9.42694
▁60	-9.42725
▁çoxluq	-9.42761
▁Baş	-9.42881
▁tərəfi	-9.42889
▁vəziyyət	-9.42952
▁olmağın	-9.42996
▁uça	-9.4327
▁mühəndis	-9.43356
afi	-9.43389
▁təbiət	-9.4351
▁anlayış	-9.43674
▁divar	-9.43827
▁oluna	-9.43935
▁gəli	-9.43939
▁ön	-9.43942
ing	-9.43958
▁kainatda	-9.4398
▁bağ	-9.44339
▁danışa	-9.44354
▁işləyir	-9.44373
▁demişdi	-9.44427
▁adamlar	-9.44611
ğu	-9.44678
ist	-9.44682
▁sinif	-9.44696
as	-9.44719
▁qar	-9.44792
▁dənə	-9.44875
▁veril	-9.44895
landı	-9.44928
▁imkanı	-9.44934
ut	-9.44993
▁dəyişiklik	-9.45131
ydi	-9.45259
▁proses	-9.4534
▁hissəsin	-9.45387
irlər	-9.45469
▁başlanğıc	-9.45564
▁xəritə	-9.45586
▁ver	-9.45876
▁Bəzi	-9.45918
▁yazın	-9.45937
məsi	-9.45996
▁Çin	-9.46018
▁bənzəyir	-9.462
▁tanı	-9.46283
ıl	-9.46368
▁parçacıq	-9.46387
▁obyekt	-9.46451
▁ayrıl	-9.46553
▁baxır	-9.46568
▁xətt	-9.46658
▁mussonu	-9.46785
▁olacağı	-9.46958
▁görüş	-9.46994
▁cəhət	-9.47002
ye	-9.47058
▁çıxıb	-9.47096
malıdır	-9.47147
əsi	-9.4722
▁kimliyim	-9.47356
▁qaz	-9.47443
üəllif	-9.47446
▁həqiqət	-9.47452
▁yoxdu	-9.4752
ördüyünüz	-9.47547
▁azad	-9.47549
▁Google	-9.47561
▁investisiya	-9.47561
▁qırmızı	-9.47561
▁kilometr	-9.47561
▁müvəffəqiyyət	-9.47561
▁nektar	-9.47561
▁rəssam	-9.47561
▁saxlaya	-9.47561
itrəmə	-9.47562
▁İncəsənət	-9.47562
▁risk	-9.47562
▁təyin	-9.47562
▁genetik	-9.47563
▁inşa	-9.47563
▁zövq	-9.47563
▁ürək	-9.47563
▁Kosmos	-9.47564
▁külək	-9.47564
▁maye	-9.47565
▁miras	-9.47566
▁yaradılış	-9.47568
▁tənlik	-9.47569
▁çəkilmiş	-9.4757
▁nəsil	-9.47575
▁Keçə	-9.47579
▁bilsəydi	-9.47581
▁Geri	-9.47599
iyyət	-9.47607
▁yaşında	-9.47623
▁gerçək	-9.47624
▁etdirmək	-9.47652
yn	-9.47655
▁qurmaq	-9.47662
▁səma	-9.47687
▁siyas	-9.47687
▁öyrənmə	-9.47754
▁Bilirsiniz	-9.47798
▁cinsi	-9.47843
▁çiçək	-9.4791
gah	-9.47933
▁Yen	-9.48047
▁sonda	-9.48101
T	-9.48109
▁Hələ	-9.48202
▁forma	-9.48212
▁string	-9.48256
▁quş	-9.48426
▁yaradır	-9.48479
▁dünyadakı	-9.48545
▁Afrikaya	-9.48654
rdim	-9.48736
▁gör	-9.48746
▁çoxluğu	-9.48818
▁ata	-9.48829
uza	-9.48866
lobal	-9.48888
nızda	-9.49009
▁yanında	-9.4913
unu	-9.49162
ch	-9.49197
▁uşaqların	-9.49273
▁olmadığı	-9.49367
nizi	-9.49416
▁tapa	-9.49446
▁dəyişmə	-9.49458
▁bildiyi	-9.4951
▁sənə	-9.49572
▁ailə	-9.49603
▁edəcəy	-9.49619
▁h	-9.4996
▁sa	-9.49988
▁qızlar	-9.50031
▁hökümət	-9.50112
▁layihə	-9.50204
çı	-9.50241
lərimiz	-9.50339
▁ehtiyacı	-9.5039
▁çal	-9.50624
liklə	-9.50667
▁gəldiyi	-9.5085
yin	-9.50961
sidir	-9.50995
▁mühit	-9.51052
ləşmiş	-9.51151
ımın	-9.51212
▁kəsi	-9.51337
▁polis	-9.51389
be	-9.51418
▁danışan	-9.51444
▁statistika	-9.51518
rik	-9.51572
▁yaradan	-9.51583
▁xatırla	-9.51615
▁etdir	-9.51734
▁dəyişən	-9.5176
bil	-9.51874
▁şəxs	-9.52127
▁etmişdi	-9.522
▁veri	-9.52211
▁tutur	-9.52237
C	-9.52267
▁qoyu	-9.52314
kar	-9.52356
lim	-9.52394
▁Səni	-9.52398
▁təsirləri	-9.52539
▁tələbə	-9.52587
▁bacara	-9.52616
tiv	-9.52839
▁Ru	-9.52984
muş	-9.53278
▁tanıma	-9.53292
anda	-9.53314
▁qarşıl	-9.53365
▁vəzifə	-9.53411
▁qoya	-9.53448
▁işlərin	-9.53949
▁soruş	-9.53953
cu	-9.53968
▁qazan	-9.53981
▁yerində	-9.53988
▁anlama	-9.54046
▁yarada	-9.54239
▁qutusu	-9.54265
▁danışma	-9.54358
▁verə	-9.54457
▁qanun	-9.54589
▁fleyta	-9.54732
yı	-9.54795
ıqlı	-9.5486
ənəvi	-9.54899
aş	-9.55058
▁qoru	-9.5534
▁dən	-9.55383
▁mükafatı	-9.55456
▁çəkə	-9.55491
ınız	-9.55532
suz	-9.5574
▁götürə	-9.55851
▁l	-9.55892
▁yerlər	-9.56125
▁cavabı	-9.56131
▁yaş	-9.56145
▁hazırlama	-9.56184
▁dediyi	-9.56342
▁məlumatlar	-9.56405
▁özlərini	-9.5642
▁Öz	-9.56491
ətən	-9.56506
man	-9.56535
bo	-9.56558
▁real	-9.566
▁mərkəzi	-9.56611
dığınız	-9.56631
▁yavaş	-9.56719
▁işləmə	-9.56838
▁sözün	-9.56942
▁olundu	-9.57
irəm	-9.5707
▁qura	-9.57117
▁nəzəriyyə	-9.57181
▁çıxarır	-9.57183
▁gəlmiş	-9.57184
▁hökumət	-9.57201
▁sualı	-9.57209
yik	-9.57212
▁istəyən	-9.57248
▁arzu	-9.57519
▁gedən	-9.57637
▁bi	-9.57647
▁miqdar	-9.5774
▁birləş	-9.57763
▁alma	-9.57973
iyyə	-9.58
▁olmalı	-9.58118
▁bər	-9.58265
▁edilmiş	-9.58265
▁gey	-9.58322
▁nöqtələr	-9.58419
▁dəyişə	-9.5846
əkk	-9.58546
saydı	-9.58664
▁cazibə	-9.58665
▁iqtisadi	-9.58671
▁şəkillərin	-9.58671
▁Cavab	-9.58672
▁hökm	-9.58672
▁Prezident	-9.58672
▁Təxmin	-9.58672
▁köhnə	-9.58672
▁mikroskop	-9.58672
▁ucuz	-9.58672
▁xahiş	-9.58672
▁çiçəy	-9.58672
▁Chris	-9.58672
▁əhatə	-9.58672
▁yəhudi	-9.58673
▁iclas	-9.58673
▁yaranır	-9.58673
▁ticarət	-9.58674
▁Yalınayak	-9.58676
▁sosial	-9.58679
▁Maraqlı	-9.5868
▁görünməz	-9.58683
▁Nyu	-9.58684
▁içimizdə	-9.58689
▁harda	-9.58702
ötəri	-9.58714
▁45	-9.58757
▁bildiyimiz	-9.58758
▁Məni	-9.58777
▁məhsulu	-9.58787
▁çıxarmaq	-9.58799
▁çalışmaq	-9.58821
▁yaşıl	-9.58823
▁olmaması	-9.58824
▁13	-9.5883
▁hekayəsi	-9.58852
▁milyonlarla	-9.58856
▁ortasında	-9.58861
▁gətirmək	-9.58899
▁Uşaqlar	-9.58949
▁əyləncəli	-9.58957
▁Kimsə	-9.58965
▁milli	-9.59013
▁olduğumu	-9.59059
▁ilah	-9.5912
▁gəl	-9.59124
▁gözləyir	-9.59141
▁araya	-9.59149
dərili	-9.59153
▁İsa	-9.59193
▁dahi	-9.594
▁ingiliscə	-9.59441
▁qü	-9.59452
▁başqası	-9.59499
▁mövsüm	-9.59586
▁sənət	-9.59587
▁götürü	-9.59599
▁etməyin	-9.59634
ul	-9.59879
▁ağrı	-9.59912
▁sizlər	-9.5998
▁müəllimləri	-9.60031
▁biləcəyiniz	-9.60077
▁yazıçı	-9.60228
▁atmosfer	-9.60327
▁kon	-9.60367
rey	-9.60382
▁Ştatlar	-9.60396
▁baxış	-9.60473
▁ədalətsiz	-9.60498
▁sahəsi	-9.60552
▁gəldik	-9.60625
▁suyun	-9.60716
məz	-9.60741
▁böyümüş	-9.60777
▁araşdır	-9.60914
▁baxan	-9.60921
ok	-9.61207
▁əvvəllər	-9.61294
▁dövrü	-9.613
əcəyi	-9.613
▁göstərən	-9.61349
▁olanları	-9.61361
▁mü	-9.61394
▁birində	-9.61475
▁gəlin	-9.6153
▁qitə	-9.61594
▁çəkdiyi	-9.61618
▁Al	-9.61628
▁gəz	-9.61752
▁olanlar	-9.61869
▁peyk	-9.62433
▁70	-9.62462
▁aya	-9.62493
▁quru	-9.62697
▁ölkələrdə	-9.62759
▁ənənə	-9.62804
▁çıxara	-9.62982
▁adamı	-9.63244
tmaq	-9.63252
nif	-9.63272
▁yarana	-9.63272
▁planetlərin	-9.63383
▁it	-9.63673
sizlik	-9.63712
j	-9.63752
məli	-9.63809
ran	-9.63873
▁yarısı	-9.6404
th	-9.64189
▁hara	-9.64432
▁sına	-9.64436
▁danışır	-9.64489
▁tərz	-9.64566
ilib	-9.64849
▁proqramı	-9.65112
diyini	-9.65188
ardı	-9.65288
▁mi	-9.65519
▁əs	-9.65702
▁kənddə	-9.65845
▁gələcəkdə	-9.65932
▁əsası	-9.65948
▁iqtisadiyyat	-9.66083
▁dini	-9.66296
izə	-9.66325
▁məkan	-9.66381
▁təməl	-9.6649
▁Eynşteyn	-9.66491
▁par	-9.66853
▁düş	-9.66888
▁qalır	-9.66974
▁istədiyi	-9.67002
▁sürəti	-9.67055
▁qadını	-9.67093
▁anlamağ	-9.67105
▁gətirə	-9.6731
madı	-9.67346
▁teleskop	-9.67395
▁etdiyini	-9.67653
▁edəndə	-9.677
▁ta	-9.67816
▁Se	-9.67868
imə	-9.67906
asında	-9.68049
dığını	-9.68058
▁yeməyi	-9.68118
lanmış	-9.68188
▁yalan	-9.68399
▁Ha	-9.68798
▁həşəratlar	-9.68878
▁varlıq	-9.68945
xalq	-9.69218
▁gedi	-9.69387
▁gül	-9.69616
icad	-9.69662
uz	-9.69671
rand	-9.69691
▁istifadəçi	-9.69853
lük	-9.69942
▁musson	-9.70045
▁məsuliyyət	-9.70179
▁Mario	-9.70238
▁muzey	-9.70363
▁dön	-9.70363
▁danışar	-9.70375
▁gəmi	-9.70428
▁radio	-9.70459
if	-9.70573
▁valideyn	-9.7059
▁yaxınlar	-9.70599
▁dolan	-9.70644
▁açı	-9.70657
▁yük	-9.70748
▁etibar	-9.70774
▁topla	-9.7078
▁ört	-9.70897
diniz	-9.70978
▁yaratdı	-9.7101
▁Rəq	-9.7104
əsəvvür	-9.71136
▁rast	-9.71164
▁mesaj	-9.71166
▁məhdud	-9.71169
▁Cənub	-9.71172
▁Məhkəmə	-9.71172
▁avtomobil	-9.71172
▁düzəltdi	-9.71172
▁elektrik	-9.71172
▁klassik	-9.71172
▁meteorit	-9.71172
▁müraciət	-9.71172
▁potensial	-9.71172
▁xəstəxana	-9.71172
▁şübhə	-9.71172
▁Əfqanıstan	-9.71172
▁əxlaq	-9.71172
▁Qolf	-9.71172
▁metal	-9.71172
▁simvol	-9.71173
▁ultrabənövşəyi	-9.71173
▁hakim	-9.71173
▁həddin	-9.71173
▁simulyasiya	-9.71175
▁mikrofon	-9.71175
▁dərman	-9.71176
▁komanda	-9.71176
▁öyrənmiş	-9.71177
▁İsveç	-9.71178
▁analiz	-9.71179
▁Polis	-9.71183
▁həssas	-9.71184
▁Hava	-9.71186
▁super	-9.71194
▁istiqamət	-9.71194
bu	-9.71195
▁ağır	-9.71195
▁onsuz	-9.71201
içik	-9.71215
▁bilet	-9.71215
▁dəhşətli	-9.71215
▁The	-9.71219
▁həkim	-9.7122
▁18	-9.71229
ursuz	-9.71252
▁mübahisə	-9.71252
▁27	-9.7126
▁döyüş	-9.71291
▁verməli	-9.71305
▁nəticəsində	-9.71337
▁alıb	-9.71348
▁oynaya	-9.71368
▁olmayıb	-9.71372
▁ziya	-9.714
▁diş	-9.71487
▁yaşamaq	-9.71526
▁verib	-9.71537
▁rəngli	-9.7154
▁yaratdıq	-9.71546
▁istəyirsiniz	-9.71576
▁acı	-9.71599
▁Əks	-9.71612
▁qutu	-9.71652
▁Hal	-9.71665
lay	-9.71695
▁qiymət	-9.71699
▁düşünürdü	-9.71749
▁kat	-9.7179
▁çək	-9.71828
▁Hindistanın	-9.71833
▁axır	-9.71912
▁vad	-9.71921
▁saç	-9.71922
▁Po	-9.71928
▁dəyişmək	-9.71945
▁proqramlaşdırma	-9.71974
▁Ap	-9.7199
▁quşlar	-9.71992
▁dəyişir	-9.71998
▁qalın	-9.72042
▁filmi	-9.72163
yım	-9.7227
▁Titanik	-9.72279
▁işlədir	-9.72286
▁Kənd	-9.72338
▁birimizi	-9.72368
▁can	-9.72382
▁hissəsidir	-9.72383
▁içəri	-9.72423
▁özünüz	-9.72491
▁maraqlıdır	-9.72498
▁yaşayan	-9.72576
▁işləri	-9.72584
caq	-9.726
▁Bo	-9.72669
▁yolda	-9.72686
▁Hamı	-9.72736
mek	-9.72786
▁getdik	-9.72822
▁Ro	-9.72842
▁du	-9.72865
▁düşün	-9.72945
▁ölkələr	-9.72978
məliyik	-9.73004
op	-9.73061
▁vizual	-9.73238
atın	-9.73345
▁istəyirsən	-9.73371
ğunu	-9.73394
umuzu	-9.73468
▁götür	-9.735
aret	-9.73508
▁Hey	-9.73535
▁Sənə	-9.73637
ert	-9.73705
▁qoşul	-9.73774
▁sistemini	-9.73802
▁qalaktikaları	-9.73804
ha	-9.73884
▁Nigeriyada	-9.73887
▁düşən	-9.73898
▁Düz	-9.73923
▁bildiyim	-9.73927
▁yerli	-9.73966
▁bacar	-9.73987
▁aldıq	-9.74026
diyiniz	-9.74058
▁etməyim	-9.74169
▁zamanlar	-9.74267
▁burax	-9.74311
ro	-9.74352
▁qalmış	-9.74389
▁anası	-9.74485
▁götürür	-9.74493
▁lazımlı	-9.7484
▁yed	-9.74895
▁quruluşu	-9.74951
▁tərəfin	-9.74963
irləşmiş	-9.75011
ard	-9.75092
▁onla	-9.75159
▁görməyə	-9.7518
▁Sizin	-9.75204
▁iti	-9.75269
müşdü	-9.75331
▁etiketi	-9.75495
▁demiş	-9.75499
▁səthi	-9.75562
war	-9.75605
▁dəyərlər	-9.75608
▁axtar	-9.75764
▁verdiyi	-9.75793
▁orqan	-9.75901
▁gəlirsə	-9.75915
▁əvəz	-9.7593
məyi	-9.76079
▁tozlar	-9.76197
dadır	-9.7636
▁çevirə	-9.76421
▁Burda	-9.76431
▁çevrildi	-9.7655
▁işimiz	-9.76644
▁v	-9.76676
iylə	-9.76743
▁dilini	-9.76892
▁varlıqlar	-9.76932
▁fikirlər	-9.77164
▁yazma	-9.77201
▁fikirləş	-9.77291
abl	-9.77452
mır	-9.77525
▁mərhələ	-9.77525
w	-9.77579
▁tanın	-9.77658
▁məktəblər	-9.77695
▁siyasət	-9.77948
▁ehtimalı	-9.77966
▁forması	-9.78157
unda	-9.78383
▁sahədə	-9.78415
imizi	-9.78539
uli	-9.78705
▁axtarır	-9.79046
▁hazırlan	-9.79066
▁yağ	-9.79231
▁Amerikada	-9.79327
▁bizlər	-9.79438
▁qapı	-9.79613
▁qoyur	-9.79803
▁çatan	-9.79894
▁keçə	-9.79998
▁arada	-9.80006
▁Həyat	-9.80151
▁paylaş	-9.8055
pe	-9.80617
ıza	-9.80718
▁öyrəndiyim	-9.80863
M	-9.80877
▁tutdu	-9.80896
▁uğurl	-9.80907
ləyir	-9.80909
▁bolt	-9.8094
▁u	-9.81076
▁otaqda	-9.81176
▁hüquqları	-9.81353
▁material	-9.81427
▁bilərsən	-9.81536
▁vaxtda	-9.81599
▁ruhu	-9.81674
dınız	-9.81714
▁varlı	-9.81731
dum	-9.81751
▁olanı	-9.81873
▁problemin	-9.81979
▁yaşda	-9.81987
▁okeanı	-9.82055
▁bildiri	-9.82288
▁planetlər	-9.82424
▁dostum	-9.82627
▁Li	-9.82649
çilər	-9.82688
▁qum	-9.82709
▁şagird	-9.82808
▁yaşaya	-9.82819
əmsal	-9.82883
ici	-9.82886
anlar	-9.82965
▁yayıl	-9.83011
▁biznes	-9.83028
▁müzakirə	-9.83121
▁oynayır	-9.83274
▁soba	-9.83298
▁Əl	-9.83298
▁detal	-9.83353
ci	-9.83362
▁olmay	-9.83408
▁qalaktikanı	-9.8363
▁aldığım	-9.83696
▁Di	-9.8381
▁yaşadığı	-9.83823
▁hey	-9.83832
▁Lo	-9.83913
▁Kişi	-9.84001
▁dəyişikliyi	-9.84028
ene	-9.84151
▁ər	-9.84199
▁şans	-9.84213
▁üsul	-9.84284
▁apar	-9.843
▁aş	-9.84454
▁fotoşəkil	-9.84492
▁üzün	-9.84501
▁öldü	-9.84548
ap	-9.84559
▁yanaşma	-9.84666
▁boy	-9.84691
▁səslər	-9.84869
▁qoyul	-9.85058
▁texnik	-9.85101
▁istehsal	-9.85151
▁qaldırı	-9.85188
▁Afrikanı	-9.85225
▁texnologiyanı	-9.85343
▁mahnı	-9.85347
▁tədqiq	-9.8539
▁başın	-9.85411
▁İstə	-9.85444
▁hidro	-9.85458
▁Problem	-9.85458
▁Warren	-9.85458
▁demokrati	-9.85458
▁etiraz	-9.85458
▁fövqəl	-9.85458
▁nigeriyalı	-9.85458
▁üfüq	-9.85458
▁İnanılmaz	-9.85458
▁axmaq	-9.85458
▁cədvəl	-9.85458
▁foto	-9.85458
▁yeniyetmə	-9.85458
▁əyri	-9.85458
▁kabel	-9.85458
▁Çətin	-9.85458
▁cavan	-9.85458
▁məhkəmə	-9.85458
▁idman	-9.85459
▁Şimal	-9.85459
▁eşidəndə	-9.85459
▁qonşu	-9.85459
▁təzə	-9.8546
▁professional	-9.8546
▁New	-9.8546
▁genişliyində	-9.85462
▁sabit	-9.85463
▁bölüşmək	-9.85468
▁mətbuat	-9.85468
▁zəka	-9.85471
▁turizm	-9.85479
▁alış	-9.8548
▁tanıyır	-9.85481
▁Sual	-9.85481
▁maliyyə	-9.85483
▁çap	-9.85492
▁etsin	-9.85494
▁düşünürsünüz	-9.85494
▁planetimizi	-9.85501
▁açdı	-9.85502
▁həyatımda	-9.85516
▁Dəri	-9.85518
▁aparmaq	-9.85523
▁190	-9.85528
▁Mary	-9.85543
▁toqquşma	-9.85546
▁qızdırma	-9.85547
▁ölkəsində	-9.8555
kcə	-9.85551
▁qızıl	-9.85556
▁neylə	-9.85565
▁yaşadı	-9.85568
▁alçal	-9.85588
lerle	-9.85588
▁səyahəti	-9.85634
▁inanc	-9.85641
▁ölür	-9.85659
▁təc	-9.85677
▁çıxmaq	-9.85678
▁elektromaqneti	-9.85683
▁verilən	-9.85686
▁Özüm	-9.85692
▁heyrət	-9.85716
▁tuta	-9.85744
▁səfər	-9.85762
▁w	-9.85765
▁Gün	-9.85849
▁sarı	-9.85875
▁hərbi	-9.85884
▁Əvvəlcə	-9.8592
▁duya	-9.85939
▁keçib	-9.85939
▁Hamımız	-9.85962
▁şeytan	-9.85967
▁sinifdə	-9.85976
IP	-9.8599
▁kap	-9.86003
▁gözləyə	-9.86005
▁sınaq	-9.86106
▁yazmaq	-9.86114
▁erkə	-9.86118
▁art	-9.86149
▁eqo	-9.8615
▁gücünü	-9.8617
▁istədik	-9.86261
▁anlayışı	-9.8639
ğımızı	-9.86407
▁olacağın	-9.86425
▁düşündük	-9.86425
▁halında	-9.86426
▁dostlarım	-9.86429
▁danışdı	-9.8647
za	-9.86472
▁çalışdı	-9.86555
▁düşünmək	-9.86583
▁dur	-9.86668
▁adalarında	-9.86689
▁miqdarı	-9.86689
▁içindəki	-9.86698
▁yaşım	-9.867
▁bilə	-9.86704
▁Özümü	-9.86755
▁şəkilləri	-9.86779
▁yerləri	-9.86786
▁sahələri	-9.86805
lənmişdi	-9.86901
acam	-9.86914
▁rəngi	-9.8692
dırılmış	-9.86972
▁etməz	-9.86987
▁y	-9.87007
▁qanunları	-9.8703
▁gözü	-9.87072
▁yaşadığım	-9.8708
ənc	-9.87141
▁keçdik	-9.87144
səydi	-9.87168
▁nəticələri	-9.87207
▁başqalarını	-9.87208
▁hərəkəti	-9.87213
▁öyrənir	-9.87229
▁faizi	-9.87241
▁verirdi	-9.87246
şaq	-9.87282
dar	-9.87289
▁gəlmişdi	-9.87523
▁oxuya	-9.87612
▁əlaqədə	-9.87682
hu	-9.87696
▁əlimiz	-9.87938
▁olunma	-9.88037
▁bilməyə	-9.88039
▁ağcaqanadlar	-9.88049
▁məsafəni	-9.88163
▁çıxaca	-9.8819
▁Kral	-9.88201
▁şe	-9.88236
▁dövrə	-9.88352
▁vasitələrin	-9.88356
əmişə	-9.88476
▁edənlər	-9.88527
▁danışırdı	-9.88538
▁deyəndə	-9.88574
▁Atam	-9.88632
▁doğrudan	-9.88647
nt	-9.88689
od	-9.88724
▁prosesi	-9.8879
▁gəlmək	-9.88793
▁insanlıq	-9.88859
▁yaşama	-9.88894
▁dalğalanmalar	-9.89051
▁peyklər	-9.89083
▁qayıdan	-9.89085
▁cümləni	-9.89351
▁adlandırır	-9.8939
zə	-9.89444
▁utan	-9.89593
▁vasitələri	-9.89673
eme	-9.89686
▁riyaziyyatı	-9.8969
▁qarşılaş	-9.89694
ilməsi	-9.89739
▁mədəniyyət	-9.89889
ndəki	-9.89919
ck	-9.89927
una	-9.90006
▁Nigeriya	-9.90033
▁dayanır	-9.90046
▁açar	-9.90183
▁boltu	-9.9019
▁dünyamız	-9.90221
▁satı	-9.90246
▁ixtira	-9.90304
▁dəstək	-9.90333
▁etmirdi	-9.90365
çılıq	-9.9037
▁saldı	-9.90425
▁almış	-9.90425
▁inanırdı	-9.90506
▁cihazlar	-9.9063
▁Asiya	-9.90634
▁ni	-9.90721
▁gedəndə	-9.90814
▁kimlik	-9.90832
▁həyatını	-9.90874
▁dilə	-9.9089
▁alət	-9.90947
▁anlayışını	-9.90968
▁öyrəndik	-9.91105
▁itki	-9.91174
yır	-9.91482
▁tapdı	-9.91629
anı	-9.91653
▁otağın	-9.91664
▁hamısını	-9.91683
▁danışdığı	-9.91889
▁olunmuşdu	-9.91902
▁vermiş	-9.91925
dey	-9.91988
məyin	-9.92036
▁dəyişikliklər	-9.92137
▁fəaliyyətin	-9.92184
▁Rus	-9.92201
▁qızların	-9.92252
▁çevril	-9.92278
▁Ne	-9.92315
▁çoxalma	-9.9236
▁oxu	-9.92406
▁kainatı	-9.92452
ken	-9.9254
bəli	-9.92697
▁Ko	-9.92821
basın	-9.92939
yu	-9.92966
▁cəsarət	-9.92994
▁tutu	-9.93128
▁baxırdı	-9.93177
▁hissələri	-9.93209
▁dildə	-9.93237
▁aşı	-9.93348
▁orbitin	-9.93375
▁Yorkda	-9.93463
▁enerjini	-9.93472
▁həftədə	-9.93593
▁irəliləyiş	-9.9365
▁olmasını	-9.93781
▁600	-9.93787
ınızı	-9.93827
▁fizikası	-9.93891
▁hissə	-9.93982
▁ton	-9.94143
▁ayı	-9.94173
saq	-9.94407
ləşdirmək	-9.94414
sının	-9.94415
mayacaq	-9.94478
▁şüası	-9.94502
▁düşə	-9.94514
maqla	-9.94553
eh	-9.94652
mızın	-9.94665
▁dövrün	-9.94795
lərim	-9.94823
▁anla	-9.94872
▁nöqtədə	-9.94973
ge	-9.95085
▁kvadrat	-9.95125
▁hadisələr	-9.95229
▁səsi	-9.95436
▁Bil	-9.95446
▁fəaliyyətdə	-9.95468
▁peyki	-9.9548
▁kitabın	-9.95528
▁bəzilərini	-9.95685
▁fa	-9.95749
▁Qa	-9.95954
▁robotlar	-9.96189
▁başla	-9.96207
▁qəf	-9.96238
▁maşınlar	-9.96289
▁etiket	-9.96534
▁məktəbi	-9.96549
deki	-9.96646
▁verili	-9.96651
▁təbəqə	-9.96721
▁Ka	-9.96748
▁Qızlar	-9.96818
sənmi	-9.96854
nc	-9.9686
uy	-9.96949
▁kürə	-9.96972
▁öt	-9.96981
▁əlləri	-9.9702
and	-9.97224
▁davran	-9.97457
▁den	-9.97548
▁şəhər	-9.97642
ış	-9.97661
▁çalışırdı	-9.97726
▁Orada	-9.97854
▁etdikləri	-9.97908
▁ka	-9.9799
▁əsərləri	-9.98054
▁qoy	-9.98105
▁He	-9.98141
iniz	-9.98198
▁rənglər	-9.98203
est	-9.98461
▁yaşa	-9.98475
ünü	-9.98512
▁hərəkat	-9.98514
siya	-9.98532
▁nümunələri	-9.98777
▁dəyişiklikləri	-9.98832
lamaq	-9.99087
ırsınız	-9.99096
O	-9.99157
▁yemək	-9.99246
zil	-9.99487
▁silah	-9.99514
▁verəcək	-9.99652
▁yanaşı	-9.99659
▁yazdı	-9.99761
▁ədəbiyyat	-9.99848
▁elementlər	-9.99878
lanan	-9.99914
▁layiq	-9.9993
▁dəyiş	-10.0002
▁öl	-10.002
ız	-10.0038
▁CA	-10.004
▁Mars	-10.0046
eyr	-10.0057
başa	-10.0064
irik	-10.0065
▁mövsümü	-10.0073
ce	-10.0086
mp	-10.0088
▁afrikalı	-10.009
▁fantastik	-10.0103
▁ehtiyacım	-10.0105
▁Mill	-10.011
▁madd	-10.0113
▁incə	-10.0117
▁Həyatın	-10.0122
üz	-10.0135
▁sonsuz	-10.0141
▁yolun	-10.0142
▁qayna	-10.0145
▁artır	-10.0148
▁varmı	-10.0153
▁xərclə	-10.0154
▁seçil	-10.0159
▁buludu	-10.0164
ub	-10.0172
ecek	-10.0172
▁səfəri	-10.0177
▁uçur	-10.0182
▁Ali	-10.0192
▁Rea	-10.0199
▁olunurdu	-10.0204
▁radi	-10.0205
▁boş	-10.0206
▁Yox	-10.0207
▁məsləhət	-10.0208
üxtəlif	-10.0208
iyyat	-10.0209
▁Uz	-10.0209
▁ehti	-10.0211
munikasiya	-10.0212
▁Düşün	-10.0212
▁Səliqə	-10.0212
▁Növbə	-10.0212
▁axşam	-10.0212
▁eğrileri	-10.0212
▁gözəgörünməz	-10.0212
▁intervyu	-10.0212
▁televizor	-10.0212
itboks	-10.0212
▁məcbur	-10.0212
▁məqalə	-10.0212
▁sorğu	-10.0212
▁səkkiz	-10.0212
▁təmsil	-10.0212
▁yuxu	-10.0212
▁səhləb	-10.0212
▁media	-10.0212
▁siçan	-10.0212
▁məxsus	-10.0212
▁Şərq	-10.0213
▁bayır	-10.0213
▁maksim	-10.0213
▁gəzinti	-10.0213
▁müstə	-10.0213
▁vətəndaş	-10.0213
▁beynə	-10.0213
▁proqnoz	-10.0213
▁kommunikasiya	-10.0213
▁hədəf	-10.0213
▁oxşayır	-10.0213
▁Quran	-10.0213
▁Male	-10.0213
▁qrammatika	-10.0213
▁sirr	-10.0213
▁proton	-10.0213
▁meyvə	-10.0214
▁Newton	-10.0214
▁Coş	-10.0214
▁olunu	-10.0215
▁dövranı	-10.0215
▁197	-10.0215
▁kaluza	-10.0216
▁Təəssüf	-10.0216
▁gözlənil	-10.0216
▁xəbərdar	-10.0216
▁məğ	-10.0216
▁məzun	-10.0217
▁cisim	-10.0217
▁bilmərik	-10.0217
▁anlayır	-10.0217
▁həvəs	-10.0217
▁tutmaq	-10.0218
▁yetkin	-10.0218
▁Jay	-10.0218
▁boyutlar	-10.0218
▁etməliyik	-10.0218
▁buyuru	-10.0219
▁She	-10.0219
▁zidd	-10.0219
▁opti	-10.022
▁amerikalı	-10.022
▁eşitmi	-10.0221
▁ətrafımızda	-10.0221
▁İran	-10.0221
▁dibin	-10.0222
▁cinsli	-10.0222
▁baxdığımız	-10.0223
▁ilham	-10.0223
▁razılaşma	-10.0223
▁maneə	-10.0223
məyəcək	-10.0224
▁yardım	-10.0224
▁şok	-10.0226
▁Səh	-10.0227
▁fə	-10.0228
▁qardaşım	-10.0229
▁And	-10.0229
▁anlaya	-10.023
▁şüur	-10.0232
▁dağını	-10.0235
▁göndəril	-10.0236
▁uzunluğunda	-10.0236
▁krater	-10.0236
▁mədəni	-10.0237
▁təs	-10.024
▁müşahidəçi	-10.0241
çinizdə	-10.0242
▁çevrilib	-10.0244
▁həllər	-10.0247
▁dövrdə	-10.0252
▁bənzədiyin	-10.0252
▁Has	-10.0254
▁hüququ	-10.0256
▁siq	-10.0257
▁Qər	-10.0259
▁qoruma	-10.0259
▁Hind	-10.0262
▁Ke	-10.0262
▁mühitin	-10.0266
▁etibarlı	-10.0267
▁cəhd	-10.0268
▁xoşum	-10.0271
▁mənəvi	-10.0275
▁göy	-10.0275
▁xüsusiyyəti	-10.0277
▁oxumaq	-10.0279
▁bugün	-10.0283
▁Deyə	-10.0284
ətli	-10.0285
məklə	-10.0287
▁Universitetində	-10.0292
▁ayıran	-10.0292
▁işləyən	-10.0305
▁geyin	-10.0307
▁görmür	-10.0307
▁yanı	-10.0308
▁Sev	-10.0309
▁girmə	-10.0312
▁hazırlaya	-10.032
▁gəlmir	-10.0326
▁oxuyur	-10.0329
▁funksiyası	-10.0332
▁nömrələr	-10.0333
▁fürsəti	-10.0342
▁aldığı	-10.0344
▁quruluşunu	-10.0347
kanın	-10.035
qlu	-10.035
ens	-10.0358
▁reallaş	-10.0358
▁aləm	-10.037
▁düymə	-10.0373
▁uca	-10.0376
▁keçirə	-10.0377
bro	-10.0379
aman	-10.0385
▁Uşaqların	-10.0386
▁sözünü	-10.039
put	-10.0392
▁fəaliyyət	-10.0394
▁xətti	-10.04
▁eşitdiyi	-10.0402
▁qapıl	-10.0403
▁kitablar	-10.0409
▁Mərkəzi	-10.0412
▁çalışdıq	-10.0416
▁birləşdirmək	-10.0419
▁fizikaçı	-10.042
ysa	-10.0427
▁heyran	-10.0437
▁məlumatları	-10.044
qil	-10.044
▁ayın	-10.0446
▁hərəkətləri	-10.045
mid	-10.0451
▁görürdü	-10.0452
▁kurs	-10.0452
▁üstə	-10.0456
▁qə	-10.0457
▁Du	-10.046
▁quran	-10.0464
▁gö	-10.0472
▁qazana	-10.0477
▁versiyası	-10.0484
▁halın	-10.0485
▁çəkdiyimi	-10.0489
▁bilin	-10.049
onu	-10.0492
▁dönür	-10.0493
len	-10.0495
oj	-10.0496
▁yenilik	-10.0497
yini	-10.0501
▁bilməyi	-10.0508
▁sualları	-10.0511
▁naziri	-10.0511
▁qol	-10.0514
▁biləcəyim	-10.0523
▁dördün	-10.0525
▁oxuyan	-10.0526
▁telefonu	-10.0528
▁vermədi	-10.0534
▁qızı	-10.0534
▁keçi	-10.0543
▁istəmə	-10.0545
▁telek	-10.0545
▁yaratdığım	-10.0553
▁Nəyi	-10.0555
▁ha	-10.0558
unun	-10.0563
▁mədəniyyəti	-10.0563
▁təhlükə	-10.0574
▁xeyr	-10.058
▁te	-10.058
ləşdir	-10.058
▁çəkiliş	-10.059
▁tanınır	-10.06
▁edilirdi	-10.0606
▁müəllimi	-10.0613
əc	-10.0614
▁ayaqları	-10.0615
duğunu	-10.0632
▁apara	-10.064
▁toxun	-10.065
▁nizam	-10.0655
▁əlində	-10.0656
▁aparıl	-10.0659
▁tutum	-10.0659
▁çiçəklərin	-10.0668
▁evliliyi	-10.0677
▁hazırlaş	-10.0685
üb	-10.0688
▁parçasını	-10.0691
▁Tam	-10.0693
▁milyonda	-10.0696
▁Bunları	-10.0699
fi	-10.0705
▁digərləri	-10.0706
▁hini	-10.0706
▁olmadığın	-10.0725
▁yaratmağ	-10.0726
▁istədiyini	-10.0726
▁adlan	-10.0727
▁mükafat	-10.073
▁uğur	-10.0732
▁uyğunlaşma	-10.0738
▁re	-10.0742
▁strukturları	-10.0745
▁xəstəliyin	-10.0746
ö	-10.0746
▁atası	-10.0747
▁üzündə	-10.0755
▁çatmış	-10.0772
qlarını	-10.0778
▁ikisi	-10.0786
▁196	-10.079
▁yerimə	-10.079
▁adım	-10.08
▁alətləri	-10.08
▁əlaqəni	-10.0811
▁həbs	-10.0813
▁Et	-10.0821
əvi	-10.0863
isi	-10.0865
▁gəlməsini	-10.0867
mayıb	-10.0878
▁mərasimdə	-10.0878
▁ve	-10.0882
▁sualını	-10.0889
▁bitirmə	-10.089
▁rəsmi	-10.0902
▁uşaqlıqda	-10.0917
qu	-10.0934
▁enerjisini	-10.0942
▁halqa	-10.0987
▁görmə	-10.0988
▁qaydaları	-10.1
▁öyrənməy	-10.1011
öv	-10.1014
▁öyrətmə	-10.1018
▁xəyal	-10.1018
▁bilsə	-10.1021
▁astronom	-10.1027
dunuz	-10.104
▁şəklində	-10.1055
▁açıqlama	-10.1075
▁miqyasl	-10.1087
rdi	-10.1087
lıdır	-10.1103
yle	-10.1116
▁gəlirlər	-10.1123
▁edilmə	-10.1136
lerini	-10.1148
▁hamını	-10.1148
▁deşi	-10.1153
▁York	-10.1161
yara	-10.1164
▁sahil	-10.1166
▁sənayesin	-10.1173
▁para	-10.1174
▁rahat	-10.1177
rsınız	-10.1193
lilik	-10.1206
▁böyü	-10.1212
▁Müəllim	-10.1221
▁fotoşəkili	-10.1225
siylə	-10.1237
mizdə	-10.124
▁xanım	-10.1245
▁öyrəndiyimi	-10.1257
▁Londonda	-10.1265
▁məndə	-10.1269
▁Do	-10.1276
▁tanınma	-10.1281
▁xəbərləri	-10.13
ion	-10.1302
▁Biri	-10.1311
▁zamanın	-10.1322
▁verdik	-10.1326
▁xət	-10.1326
▁Özü	-10.1327
▁cib	-10.1336
▁başını	-10.1343
▁kürəsin	-10.1345
ıldığı	-10.1352
▁vermişdi	-10.1359
▁olunmuş	-10.1359
▁olanların	-10.1363
▁Dr	-10.1369
▁ideyası	-10.1369
▁Meri	-10.1378
▁danışı	-10.1384
▁fikirləşi	-10.1389
▁insana	-10.1396
▁şəhərdə	-10.1402
▁Ana	-10.1423
▁zal	-10.1425
layan	-10.1429
▁əməliyyat	-10.1431
▁rəngləri	-10.1436
▁bilmədiyi	-10.1437
şi	-10.1442
▁Az	-10.1446
▁tədqiqatlar	-10.1448
iliklə	-10.1452
▁yağışı	-10.1462
cəyiniz	-10.1466
▁otağı	-10.1504
likləri	-10.1513
▁qarşısın	-10.152
▁kəsə	-10.1524
loq	-10.1527
▁nəzəriyyəsini	-10.1534
▁80	-10.1535
▁qəd	-10.1549
▁aləti	-10.1555
▁iç	-10.156
▁po	-10.1561
mədən	-10.1562
▁apardı	-10.1568
▁ça	-10.1568
▁tutar	-10.157
▁göstəri	-10.1584
layır	-10.1585
▁günün	-10.1592
▁sistemimizdə	-10.1598
▁ailədə	-10.1599
▁toxu	-10.1605
▁ölümü	-10.161
ster	-10.1614
▁gözlərin	-10.1619
▁şahin	-10.1622
▁qüvvəsi	-10.1627
▁olunması	-10.1627
▁Bankı	-10.1635
▁yazır	-10.1635
▁Bugün	-10.1662
alırlar	-10.1667
lərimi	-10.1667
▁başı	-10.1669
▁yaradı	-10.1678
▁Emi	-10.1691
▁Ay	-10.1698
liyə	-10.1706
▁hissələrin	-10.1708
▁sevdiyim	-10.171
▁şahidi	-10.1722
uşu	-10.1726
▁şəkl	-10.1737
▁uşağ	-10.1738
he	-10.1745
▁yoldaşı	-10.1765
eyin	-10.1767
▁istə	-10.1777
▁verilməsi	-10.1779
▁işlə	-10.178
▁tapmağ	-10.1782
▁kosmosu	-10.1793
▁do	-10.1795
▁yanaş	-10.1797
▁məhsul	-10.1802
▁otağ	-10.1802
▁alimlər	-10.1806
▁fotoşəkillər	-10.1825
▁suyu	-10.1843
▁qurdu	-10.1846
▁çata	-10.186
▁Hekayə	-10.1864
masını	-10.1866
▁Hamısı	-10.1866
▁qayıda	-10.187
▁Mar	-10.1877
▁hesablama	-10.1877
▁özlərin	-10.1879
▁artım	-10.1881
▁dəlil	-10.1886
ley	-10.189
▁şəklin	-10.1913
▁toplama	-10.1922
▁Kitab	-10.1928
▁vur	-10.1929
▁maraqlanır	-10.1932
ho	-10.1936
ləşmə	-10.1939
▁şərqi	-10.1941
▁alətlər	-10.1958
▁Fa	-10.1963
▁anlaşıl	-10.1971
▁olduqda	-10.1981
▁Uşaq	-10.1983
▁səhifə	-10.1991
▁lider	-10.2001
▁xalq	-10.2002
▁Ge	-10.2005
▁Ata	-10.201
▁başlamış	-10.2011
▁bü	-10.2027
ölçülü	-10.203
▁Aristotel	-10.2032
E	-10.2034
K	-10.2035
▁çalışar	-10.2037
▁ələ	-10.2053
▁çəkirdi	-10.2054
mamış	-10.2057
ülmüş	-10.2063
▁dərsi	-10.2079
▁not	-10.2084
▁həyəcan	-10.2089
▁keçdi	-10.2089
▁ifşa	-10.2089
the	-10.2089
yoru	-10.2094
▁yerləş	-10.2103
▁tik	-10.2105
▁yetiş	-10.2106
alaca	-10.2124
▁qorx	-10.2128
ung	-10.2129
▁etmi	-10.213
▁görü	-10.213
▁istədikləri	-10.2133
lis	-10.2144
şları	-10.2146
▁proyekt	-10.2148
rs	-10.2149
▁dilin	-10.2156
▁görmü	-10.2159
▁ulduzları	-10.2159
▁sü	-10.217
▁döndü	-10.2171
▁Je	-10.2173
▁açma	-10.2175
▁gözləmə	-10.2177
▁müddətdə	-10.2181
▁həşəratı	-10.2185
▁əylən	-10.219
▁qisimi	-10.219
▁diplom	-10.2198
▁amerika	-10.2203
▁dəli	-10.2206
▁Qısa	-10.2207
▁Məh	-10.2208
öh	-10.2209
▁xeyir	-10.2211
▁uşağın	-10.2211
▁jurnal	-10.2212
▁Jo	-10.2212
▁Ju	-10.2212
qnostik	-10.2212
▁Apophis	-10.2212
▁Meksika	-10.2212
▁Müsahibə	-10.2212
▁Richard	-10.2212
▁Telefon	-10.2212
▁Uçu	-10.2212
▁futbol	-10.2212
▁könüllü	-10.2212
▁müalicə	-10.2212
▁mərkəzdə	-10.2212
▁nümayiş	-10.2212
▁oğurluq	-10.2212
▁oğurluğu	-10.2212
▁prezident	-10.2212
▁vahid	-10.2212
▁yüngül	-10.2212
▁zinakar	-10.2212
▁çərçivə	-10.2212
▁İngiltərə	-10.2212
▁İnkişaf	-10.2212
▁əlverişli	-10.2212
pesifik	-10.2212
▁Hökumət	-10.2212
▁Keçmiş	-10.2212
▁Qırmızı	-10.2212
▁aclıq	-10.2212
▁avtomat	-10.2212
▁diametr	-10.2212
▁ehtiras	-10.2212
▁fundamental	-10.2212
▁karbon	-10.2212
▁püskür	-10.2212
▁qolfçu	-10.2212
▁qənaət	-10.2212
▁təkmilləşdir	-10.2212
▁Ədalət	-10.2212
▁partlad	-10.2212
▁Həşərat	-10.2212
▁Mandela	-10.2212
▁filosof	-10.2213
▁görünmür	-10.2213
▁stabil	-10.2213
▁Qəribə	-10.2213
zavr	-10.2213
▁narko	-10.2213
▁övlad	-10.2213
▁Okean	-10.2213
▁Aydın	-10.2213
▁qarışqa	-10.2213
leksi	-10.2213
▁öyrədil	-10.2213
▁Fide	-10.2213
▁yamsılay	-10.2213
▁valehedici	-10.2213
▁əqli	-10.2213
▁Kenya	-10.2213
▁Məlumat	-10.2213
▁master	-10.2213
▁mühazirə	-10.2213
▁mühərrik	-10.2213
▁tip	-10.2213
▁qabağında	-10.2213
▁ekran	-10.2214
▁qovuş	-10.2214
▁Tom	-10.2214
▁təkərləri	-10.2214
▁artist	-10.2214
▁doğur	-10.2214
▁danışacam	-10.2214
▁rastlaş	-10.2214
uark	-10.2214
▁Britaniya	-10.2214
▁göndərdiyi	-10.2214
▁genişləmə	-10.2214
▁skan	-10.2214
▁müxbir	-10.2214
▁qida	-10.2215
▁Space	-10.2215
▁üstünlük	-10.2215
əhdid	-10.2215
▁prim	-10.2216
▁cənab	-10.2216
▁sistemində	-10.2216
▁disk	-10.2216
▁reallaşdırmaq	-10.2216
▁tərs	-10.2217
▁istəyər	-10.2217
▁Rusiya	-10.2217
▁sərt	-10.2217
▁çatdırmaq	-10.2217
▁palçıq	-10.2217
▁üzləş	-10.2218
nvol	-10.2218
▁meyl	-10.2219
▁qarşımızda	-10.2219
▁Getdi	-10.2219
▁dəyişəcək	-10.2219
▁inana	-10.2219
▁65	-10.2221
▁kənarında	-10.2222
▁oktyabr	-10.2222
▁söyləmə	-10.2222
▁tapşırığı	-10.2224
▁reallıq	-10.2224
▁əlimdə	-10.2225
▁ediləcək	-10.2226
▁yaşamış	-10.2226
▁yatır	-10.2226
▁görünürdü	-10.2227
▁nəfəs	-10.2227
oral	-10.2227
▁həddə	-10.2228
▁düşməyə	-10.2228
▁istəsə	-10.2229
▁müd	-10.2229
▁Qət	-10.2229
▁yenilən	-10.2231
▁iP	-10.2231
▁bacardıq	-10.2231
▁qatar	-10.2231
▁bacarığı	-10.2232
▁ayrılmış	-10.2232
▁oxşar	-10.2234
▁qarlı	-10.2234
▁bayram	-10.2235
▁mağara	-10.2235
▁xatırlamır	-10.2236
▁mon	-10.2236
▁teatr	-10.2237
▁geyim	-10.224
erson	-10.2242
▁dəyişdirmək	-10.2242
▁yadda	-10.2243
▁istəmir	-10.2244
▁ortalama	-10.2245
▁saxlayır	-10.2246
▁soyuq	-10.2247
▁əksinə	-10.2248
▁görüntü	-10.2249
▁irəliləy	-10.225
▁beynimiz	-10.225
landiya	-10.2251
▁çəkdik	-10.2253
▁cəs	-10.2253
▁milyardda	-10.2253
▁atmaq	-10.2255
▁əsir	-10.2256
▁istehsalı	-10.2256
▁istək	-10.2261
▁həsr	-10.2261
oğr	-10.2263
▁inam	-10.2263
▁öyrənməli	-10.2265
▁yönəld	-10.227
▁əşyaları	-10.2272
▁dediyim	-10.2275
▁müzakirələr	-10.2277
ore	-10.2278
▁qəsd	-10.2279
ash	-10.2283
▁dönən	-10.2286
▁səhra	-10.2288
▁Fələstin	-10.2293
uca	-10.2293
meliy	-10.2294
▁xəbəri	-10.2294
uncu	-10.2297
▁atamı	-10.2299
▁daxilində	-10.2299
▁düzəldə	-10.2299
verici	-10.23
▁ölç	-10.2305
▁başlayın	-10.2306
▁Meta	-10.2309
▁pop	-10.231
▁məktub	-10.2311
▁adlandırdı	-10.2318
▁eşitmə	-10.232
▁Na	-10.232
rəb	-10.2323
▁düyü	-10.2324
▁vəziyyəti	-10.2325
▁məhsulunu	-10.2327
▁izləyir	-10.2327
▁yersiz	-10.2328
▁kainatımız	-10.2337
▁uşaqlarımızı	-10.2342
▁doğrudur	-10.2345
▁əlaqəli	-10.2346
▁deməkdi	-10.2347
▁fantastika	-10.2348
▁getməyə	-10.2348
öyü	-10.2349
▁bildiklərini	-10.235
▁bilməyəcək	-10.2351
▁bilməli	-10.2353
▁sahələr	-10.2354
laşdırma	-10.2368
▁edici	-10.2369
▁sözlə	-10.237
▁Ailə	-10.2378
urdu	-10.2384
▁usta	-10.2387
▁bizdə	-10.2389
▁çevirdi	-10.2391
▁tozları	-10.2391
▁Aristoteli	-10.2396
▁fil	-10.2409
▁baxar	-10.2409
▁uşağı	-10.241
eti	-10.2412
mamaq	-10.2426
▁Dan	-10.2436
mağımız	-10.2443
▁bucaq	-10.2446
▁obyektlər	-10.245
▁səthin	-10.2451
plar	-10.2453
▁Me	-10.2469
▁Tarixi	-10.247
▁pi	-10.2474
▁oxuyu	-10.2475
▁evi	-10.2475
ləndirir	-10.2477
▁düşdük	-10.2477
▁kök	-10.2481
▁sonrası	-10.2481
▁düyməsini	-10.2481
ron	-10.2483
▁dünyasını	-10.2483
▁Qadınlar	-10.2484
yıb	-10.2485
▁vura	-10.2489
▁genişləndir	-10.2491
▁edildiyin	-10.2493
▁kimya	-10.2494
▁qabiliyyəti	-10.2503
▁etik	-10.2508
▁atmosferi	-10.2514
udur	-10.2527
▁çəkin	-10.2528
▁təhsili	-10.2532
▁qazanır	-10.2534
▁deyirsiniz	-10.2541
▁demir	-10.2558
▁olursa	-10.256
▁yazırdı	-10.2562
▁alim	-10.2567
▁əliniz	-10.2571
▁Hekayələr	-10.2574
▁üsulu	-10.2575
▁ötürü	-10.2577
▁alırdı	-10.2577
yo	-10.2577
▁ətrafı	-10.2581
▁qoruya	-10.2583
▁yeməklər	-10.259
▁Özünüz	-10.2593
ola	-10.26
▁Martin	-10.2609
▁ke	-10.2613
▁dairə	-10.2615
▁Səs	-10.2615
bl	-10.2622
▁yetirmə	-10.2626
ilir	-10.2629
nətə	-10.264
▁salsa	-10.2646
▁İnan	-10.2647
▁yaxınlaşdı	-10.2653
▁itirir	-10.2654
▁deməyi	-10.2657
ft	-10.2657
▁ağaclar	-10.267
▁satıl	-10.268
▁əsaslana	-10.2685
▁mu	-10.2688
▁başlanğıcında	-10.2693
▁çəki	-10.2694
▁birləşdir	-10.2696
▁sayt	-10.2703
▁yarışı	-10.2704
olu	-10.2714
▁mərkəzində	-10.2725
▁edi	-10.2727
▁atı	-10.2734
diklərini	-10.2734
▁Roma	-10.2739
▁gəzir	-10.2748
▁rəqsi	-10.2756
▁so	-10.2766
isal	-10.2768
▁maddələr	-10.279
dirsə	-10.2797
ümüzü	-10.28
▁sağlam	-10.2804
▁gətirdiyi	-10.2805
asının	-10.2808
▁ölümün	-10.282
sek	-10.2828
▁tut	-10.2833
▁kitabxanalar	-10.2853
▁gü	-10.2856
▁Is	-10.2861
▁gətirmə	-10.2863
▁qapını	-10.2868
▁şəkilini	-10.288
▁sür	-10.2881
han	-10.2886
▁kəndin	-10.2899
▁detalları	-10.2903
acak	-10.2909
▁bizimlə	-10.2911
enler	-10.2912
eyri	-10.2914
▁əvvəlcə	-10.2915
ayət	-10.2927
▁verməyə	-10.2949
ləmək	-10.2955
▁iz	-10.2983
▁oğlanlar	-10.2988
rlar	-10.2991
▁yolunu	-10.2992
▁atdı	-10.2993
▁gizlə	-10.2996
▁ulduzun	-10.2997
▁ailəm	-10.2999
▁fleytanı	-10.2999
▁kitabları	-10.2999
▁okeanda	-10.3008
▁istilik	-10.3012
▁telefonları	-10.3019
▁dey	-10.3027
▁oxumağ	-10.3028
▁getdiyini	-10.3034
▁Eynşteyni	-10.3043
▁140	-10.3061
uş	-10.3061
▁dərslər	-10.3064
▁bilməyəcəyi	-10.3068
▁edirsə	-10.3071
▁Ondan	-10.3082
çılar	-10.3083
▁çarpma	-10.3086
▁siyahı	-10.3089
▁görmədiyi	-10.3089
▁nüvəsi	-10.3107
nsə	-10.311
▁ayaqqabı	-10.3115
▁şərt	-10.3116
ms	-10.3117
▁nədən	-10.3127
dığımı	-10.3135
▁ulduzlarda	-10.3139
▁ölçə	-10.3139
▁formada	-10.3149
▁xaric	-10.3153
▁haqqı	-10.3153
▁təşkilatın	-10.3153
▁qaldı	-10.3154
▁təsirini	-10.3155
andırıcı	-10.3168
▁şəxsə	-10.3172
▁varlığ	-10.3183
▁boşluq	-10.3187
▁giri	-10.3191
acağ	-10.32
▁bölgələrdə	-10.3209
irdilər	-10.3224
▁kişilərin	-10.3224
▁yanaşır	-10.3226
▁günlərdə	-10.3237
▁yaratmalı	-10.3239
▁əsərini	-10.3257
▁verənlər	-10.3269
▁qalxı	-10.3271
▁Gör	-10.3275
▁paltarlar	-10.3275
▁ailəsin	-10.3276
▁göstəril	-10.3286
▁suda	-10.3286
▁İndiki	-10.3287
▁Amerikanı	-10.3288
▁yolunda	-10.3288
▁kitabı	-10.3293
▁işini	-10.3306
▁yaşayırdı	-10.3307
pa	-10.331
▁bit	-10.3333
▁düzəltmə	-10.3355
▁Mer	-10.3366
▁Min	-10.3384
▁Pa	-10.3392
yat	-10.3396
▁Ye	-10.3398
▁genişlən	-10.3413
▁gen	-10.3415
▁vermə	-10.3417
▁şəklini	-10.3428
▁qaynaq	-10.3433
▁Sa	-10.3438
▁müəyyənləşdir	-10.3439
▁deş	-10.3453
▁kü	-10.347
▁temperaturu	-10.347
imizdə	-10.3479
▁heyvanları	-10.3482
▁sənayesi	-10.3483
▁söyl	-10.349
▁paltar	-10.3497
▁tan	-10.35
▁analar	-10.351
▁çıxarıl	-10.3518
▁həşəratları	-10.3521
▁işçilər	-10.3528
▁ne	-10.3533
▁salmağ	-10.3567
ker	-10.3571
▁getməli	-10.3576
▁sənəd	-10.3579
▁kağızı	-10.3586
▁ağlını	-10.3589
▁beyni	-10.359
▁başımız	-10.3597
rdım	-10.3603
▁nəzəri	-10.3608
iyor	-10.363
inməyən	-10.3656
▁Fleyta	-10.3666
▁yolları	-10.3666
▁Söz	-10.3688
▁Bi	-10.3691
▁çəkilə	-10.3703
▁gəlməsi	-10.3712
▁vermir	-10.3723
luğun	-10.373
▁14	-10.3731
aqlı	-10.3733
Ar	-10.3738
qları	-10.3741
rədd	-10.3747
▁haqq	-10.3749
▁mərasim	-10.3751
ünüz	-10.3753
▁bitir	-10.3753
öl	-10.3761
▁axtarış	-10.3762
▁istər	-10.3771
▁hissəsində	-10.3772
▁sil	-10.3777
▁konflikt	-10.3778
▁xərçəng	-10.3782
▁nin	-10.3791
▁iqtisadiyyatın	-10.3806
▁azında	-10.3813
▁əhəmiyyəti	-10.3816
▁söyləyə	-10.3832
▁müəllimə	-10.3839
▁insanlığ	-10.3841
▁Qalaktikalar	-10.3842
uf	-10.3845
▁oyna	-10.3851
əcəyimiz	-10.3853
▁gəzi	-10.3853
▁baha	-10.3854
▁daşıdığı	-10.3871
▁İllər	-10.3875
▁əsrin	-10.3879
▁Cəmiyyət	-10.3883
▁güvən	-10.3883
▁dəyişməyi	-10.3888
▁gəlsə	-10.3894
▁robotları	-10.3896
▁heyvan	-10.3907
▁aça	-10.3908
▁göstərəcə	-10.3911
▁300	-10.3913
▁yanın	-10.3917
▁dizayner	-10.3925
▁bədən	-10.3928
▁başlanğıcı	-10.3929
▁Kollec	-10.3943
▁şəxslər	-10.3951
rsiniz	-10.3953
ənətkar	-10.396
▁ölkələrin	-10.3978
tən	-10.3987
▁Amerikalı	-10.399
▁fəaliyyəti	-10.4005
▁pro	-10.401
▁Adam	-10.402
▁sağlamlı	-10.4022
▁kompyuter	-10.4024
▁fikirləşmə	-10.4027
▁Wall	-10.4036
metri	-10.4036
▁ifaçılar	-10.4041
▁xəstə	-10.4045
▁heyvanlar	-10.4045
▁olardım	-10.405
▁hökümətin	-10.4055
▁vasitələr	-10.4068
▁jurnalist	-10.4073
▁yollarda	-10.4085
imle	-10.4096
etik	-10.4106
usk	-10.4116
▁sistemimiz	-10.4123
▁Mart	-10.4125
▁riyaziyyatçı	-10.4126
▁çiçəklə	-10.4142
▁olanın	-10.4146
▁çevrili	-10.4174
üzgü	-10.4176
▁poz	-10.418
yiniz	-10.4181
▁yazar	-10.4183
▁azalma	-10.4195
▁materiallar	-10.4207
▁xüsus	-10.4212
ber	-10.4214
▁daki	-10.4215
▁tele	-10.4215
▁təsirlən	-10.4219
▁adlandır	-10.4226
itt	-10.4236
1	-10.4241
to	-10.4244
▁gücləri	-10.4245
▁Pe	-10.4246
raf	-10.4249
▁dura	-10.4258
▁yaratma	-10.4259
▁filmlər	-10.426
▁detallar	-10.4263
▁evlən	-10.4269
▁bölgüsü	-10.427
▁co	-10.4283
▁çıxa	-10.4287
▁Bax	-10.4288
▁görmüş	-10.4301
▁Su	-10.4305
▁nümunələr	-10.4313
ick	-10.4316
luğu	-10.4321
use	-10.4321
▁olduqların	-10.4332
▁qrafik	-10.4335
▁rəqəmlər	-10.4343
▁məhbus	-10.4353
▁oyunlar	-10.4367
ko	-10.4371
▁Si	-10.4372
▁dedikləri	-10.4373
▁sübut	-10.4375
▁Qadın	-10.4378
▁pulu	-10.439
▁gördükləri	-10.4391
▁debat	-10.4393
▁xoşlayır	-10.4399
ger	-10.44
yirəm	-10.4405
▁sənədl	-10.4408
▁öyrəni	-10.4408
▁bənzə	-10.4411
mirdi	-10.4415
▁oturan	-10.4416
qo	-10.4422
ülü	-10.4422
▁evlərin	-10.4423
▁faiz	-10.4426
mlə	-10.4428
▁bal	-10.443
məmiş	-10.4436
▁itirdi	-10.444
▁maddələri	-10.4451
▁ərazilər	-10.4451
▁Ch	-10.4454
▁ge	-10.4454
ew	-10.4458
sey	-10.4466
klər	-10.4467
edici	-10.4468
▁səviyyəsin	-10.447
▁memar	-10.4475
abil	-10.4476
düm	-10.4479
▁bazarın	-10.4487
▁prinsip	-10.4495
▁dinlə	-10.4496
▁seçim	-10.4497
▁romanı	-10.4511
lti	-10.4516
B	-10.4522
tion	-10.4524
▁dayandır	-10.4524
▁sürə	-10.4527
string	-10.4527
uyru	-10.453
▁çəkər	-10.4532
F	-10.4533
fet	-10.4534
təbi	-10.4536
▁daşın	-10.4538
gens	-10.4541
orta	-10.4543
yyətlə	-10.4547
▁yaza	-10.4553
▁ortada	-10.4561
ifi	-10.4563
▁Qara	-10.4564
▁ətrafda	-10.4565
▁böyüklüyü	-10.4566
▁sonların	-10.457
▁gördüyü	-10.4571
gün	-10.4572
▁mərkəzin	-10.4576
▁ölü	-10.4577
▁mail	-10.4586
▁elmlə	-10.4587
vatar	-10.459
▁büdcə	-10.459
▁uşaqlarını	-10.4591
▁pey	-10.4596
rol	-10.4597
yonlar	-10.4599
▁azaldı	-10.4604
ologiya	-10.4607
▁mövzusu	-10.4607
▁yum	-10.462
▁sahibi	-10.462
əndə	-10.4624
▁hissələr	-10.463
mamız	-10.4634
▁edəcəyini	-10.4636
▁kimliyi	-10.4643
rek	-10.4644
ğına	-10.4645
▁qazandı	-10.4645
▁Ti	-10.4656
lıqla	-10.4662
▁göndərdi	-10.4663
▁kino	-10.4663
▁yarandı	-10.4664
xmay	-10.467
▁dağıdı	-10.4672
▁baba	-10.4681
▁filmin	-10.4685
▁qurtar	-10.4688
▁Cüm	-10.4688
başın	-10.4689
▁olmu	-10.469
▁naxışlar	-10.4695
▁pulun	-10.4698
▁çəkməy	-10.47
▁standart	-10.4701
▁alqış	-10.4702
əhray	-10.4702
ığın	-10.4704
▁oturdu	-10.4706
▁evlilik	-10.4707
▁hissini	-10.4708
üasir	-10.4709
▁qütb	-10.4709
▁Kepl	-10.4709
▁texnologiyaları	-10.471
exnologiya	-10.471
▁tamaşa	-10.4712
▁keyfiyyətl	-10.4712
▁Sufi	-10.4712
▁rəğ	-10.4712
▁Təbiət	-10.4712
▁ismarıc	-10.4712
▁Kompüter	-10.4712
▁Məqsəd	-10.4712
▁doğulmuş	-10.4712
▁qaytar	-10.4712
▁Avstraliya	-10.4712
▁Başlanğıc	-10.4712
▁Kendal	-10.4712
▁Konqres	-10.4712
▁Məhəmməd	-10.4712
▁Sierra	-10.4712
▁Street	-10.4712
▁Təyyarə	-10.4712
▁Vyetnam	-10.4712
▁alışqanlıq	-10.4712
▁gənişləmə	-10.4712
▁hobbi	-10.4712
▁lüğət	-10.4712
▁ləzzət	-10.4712
▁meditasiya	-10.4712
▁müsbət	-10.4712
▁oksigen	-10.4712
▁peyğəmbər	-10.4712
▁pilot	-10.4712
▁qabaq	-10.4712
▁smartfonlar	-10.4712
▁süpür	-10.4712
▁xarakter	-10.4712
▁çaşdırıcı	-10.4712
▁çuxur	-10.4712
▁şərəf	-10.4712
▁əsrarəngiz	-10.4712
▁Dövlət	-10.4712
▁Fransisko	-10.4712
▁Palme	-10.4712
▁Paris	-10.4712
▁istedad	-10.4712
▁nəqliyyat	-10.4712
▁partlama	-10.4712
▁uğra	-10.4712
▁əziyyət	-10.4712
▁Sakit	-10.4712
▁Xüsus	-10.4712
▁döndərə	-10.4712
▁məhşur	-10.4712
▁yapışqan	-10.4712
əssüm	-10.4712
▁immiqra	-10.4712
▁inanmır	-10.4712
▁qürur	-10.4712
▁tayf	-10.4712
▁çatlaqlar	-10.4712
▁Şəxs	-10.4712
▁tikinti	-10.4713
▁mayalanma	-10.4713
▁sakit	-10.4713
▁spir	-10.4713
▁Məhsul	-10.4713
▁sevinc	-10.4713
▁məşq	-10.4713
▁eşq	-10.4713
▁heykəl	-10.4713
▁kullan	-10.4713
▁reaksiya	-10.4713
▁redakt	-10.4713
▁mümkünlüyün	-10.4713
▁yararlı	-10.4713
▁Oldu	-10.4713
▁metan	-10.4713
▁qoca	-10.4713
▁cəbr	-10.4713
▁Venera	-10.4713
▁Kosm	-10.4713
▁bələdçi	-10.4713
▁elçi	-10.4713
▁yıx	-10.4713
▁öyrənilməsi	-10.4713
▁cəld	-10.4713
▁səmimi	-10.4713
▁namizəd	-10.4713
▁vurğula	-10.4713
rüf	-10.4713
▁Darvin	-10.4713
▁şüşə	-10.4713
▁antropologiya	-10.4713
▁Salam	-10.4713
▁ideal	-10.4713
▁Haring	-10.4713
▁şair	-10.4713
▁heyranedici	-10.4713
▁Leon	-10.4713
▁Gülmə	-10.4713
▁gələcəyə	-10.4713
▁təşəbbüs	-10.4713
▁Tez	-10.4713
▁taleyi	-10.4713
▁Arzu	-10.4713
▁keyfiyyətləri	-10.4713
▁təsdiq	-10.4713
urizm	-10.4713
▁yaşayış	-10.4713
▁maqnit	-10.4713
▁romantik	-10.4713
▁əlamət	-10.4713
▁Alman	-10.4713
▁Əvəzi	-10.4713
▁uydurma	-10.4713
▁tutmuş	-10.4714
mobil	-10.4714
▁sabah	-10.4714
▁Peter	-10.4714
▁zənc	-10.4714
▁tənb	-10.4714
▁qələm	-10.4714
port	-10.4714
▁qidalanır	-10.4714
▁Ronal	-10.4714
▁Özümüzü	-10.4714
▁balina	-10.4714
▁Təhsil	-10.4714
▁Hollivud	-10.4714
proqramlaşdırıla	-10.4714
▁dördüncü	-10.4714
▁170	-10.4714
▁sentyabr	-10.4714
▁sərbəst	-10.4714
▁cazibədar	-10.4714
▁iflic	-10.4714
▁mümkünsüz	-10.4714
▁tabe	-10.4714
▁qaradərili	-10.4715
▁tibb	-10.4715
▁qaldırmaq	-10.4715
▁günahkar	-10.4715
▁Steve	-10.4715
▁Görünü	-10.4715
▁toplayır	-10.4715
▁keçməli	-10.4716
▁tapdığım	-10.4716
aliyyə	-10.4716
▁Elektron	-10.4716
▁yaratmış	-10.4716
▁You	-10.4716
▁səmərəli	-10.4716
▁reallığı	-10.4716
▁qadir	-10.4716
▁aramızda	-10.4716
▁adlandırdığımız	-10.4717
▁öhdəsind	-10.4717
▁təşkilatlar	-10.4717
▁oxuduğum	-10.4717
off	-10.4717
▁şiş	-10.4718
▁boru	-10.4718
▁hazırlayır	-10.4718
▁başqaları	-10.4719
▁gətirəcək	-10.4719
▁torpaq	-10.4719
aluza	-10.4719
▁salırdı	-10.4719
▁gülür	-10.4719
▁məsləhətim	-10.472
▁tamamladı	-10.472
▁Qısaca	-10.472
▁baxdığınız	-10.472
▁yayılmış	-10.4721
▁quldur	-10.4721
▁195	-10.4721
▁Sto	-10.4721
▁sürücü	-10.4721
▁vaq	-10.4721
▁haqlı	-10.4721
▁ağlım	-10.4721
▁vurmaq	-10.4721
▁qazandır	-10.4721
▁Axır	-10.4721
▁hündürlükdə	-10.4721
▁etdirdik	-10.4722
▁ərazidə	-10.4722
▁yağır	-10.4722
▁rəhmli	-10.4722
▁arxasında	-10.4722
▁bilsin	-10.4722
cazə	-10.4723
▁səslənir	-10.4723
▁1960	-10.4724
▁Öyrəndi	-10.4724
alıcı	-10.4724
▁işlətdi	-10.4725
▁Əllərini	-10.4725
▁çiz	-10.4725
▁ağırlıq	-10.4726
phe	-10.4726
▁fəsil	-10.4726
▁gülün	-10.4727
▁dəyişəcəyi	-10.4727
▁dəstəkləyə	-10.4728
▁Had	-10.4728
▁Erik	-10.473
▁əyləşən	-10.473
▁naxış	-10.473
▁yataq	-10.473
▁yazılıb	-10.473
▁Təsadüfi	-10.473
▁Red	-10.473
▁Nigeriyalı	-10.4731
lak	-10.4731
▁başlamışam	-10.4733
▁uçmaq	-10.4733
▁mahnılar	-10.4733
▁Oba	-10.4734
▁fi	-10.4734
▁virus	-10.4734
▁aralarında	-10.4736
▁Yazı	-10.4737
▁Yara	-10.4737
▁öldür	-10.4737
▁yaratmağın	-10.4737
▁oğlum	-10.4737
▁sis	-10.4738
▁tutul	-10.4738
▁faydalı	-10.4739
əruz	-10.474
ənab	-10.474
▁notları	-10.4742
▁görünüşünü	-10.4742
▁ili	-10.4743
▁sektor	-10.4744
▁ip	-10.4744
▁günah	-10.4744
▁göründüyü	-10.4745
▁sifət	-10.4745
▁aktiv	-10.4745
▁Gecə	-10.4746
▁təhlükəli	-10.4747
düyüm	-10.4747
▁Ste	-10.4747
pan	-10.4748
▁seçmək	-10.4748
▁itirdiyimiz	-10.4748
▁görüb	-10.4749
▁Mah	-10.4749
▁No	-10.475
▁dövrünü	-10.4751
▁edildikdə	-10.4751
▁təpədə	-10.4751
▁Plan	-10.4752
▁böyüklük	-10.4753
▁Fərqli	-10.4753
pat	-10.4753
▁mənfi	-10.4753
▁düşünmür	-10.4754
▁açılı	-10.4754
▁canlandırma	-10.4754
▁anladıq	-10.4754
▁beyninizdə	-10.4754
▁Ant	-10.4755
▁Yadım	-10.4755
▁axırın	-10.4755
▁yaradıcısı	-10.4756
şün	-10.4758
▁deyəcək	-10.4759
ec	-10.4759
▁hesablay	-10.4759
▁getdiyimiz	-10.4759
▁çaylar	-10.476
▁şirkəti	-10.476
▁sarsı	-10.476
rcan	-10.4761
▁qib	-10.4761
▁Dostlar	-10.4762
▁götürdü	-10.4763
▁ölçək	-10.4766
övq	-10.4767
▁Dil	-10.4768
▁Həyatımı	-10.477
▁mexanizm	-10.477
▁qorunma	-10.4771
▁getməyi	-10.4771
▁dağıntıları	-10.4772
▁gözünüz	-10.4773
▁ic	-10.4775
▁şam	-10.4775
ital	-10.4779
▁çıxdığım	-10.4782
▁istəyi	-10.4784
▁keçirmək	-10.4784
▁çölü	-10.4787
▁qəhramanları	-10.4788
iyalı	-10.4789
▁tapdıq	-10.479
▁çoxalırlar	-10.479
bad	-10.4793
▁hesablamaq	-10.4796
▁bilinir	-10.4798
▁soyu	-10.4799
▁xərc	-10.4805
▁istəməz	-10.4809
▁texnikalar	-10.481
▁hayat	-10.4812
▁nitqim	-10.4812
▁çevirir	-10.4812
▁bina	-10.4814
▁park	-10.4816
▁sıxlaş	-10.482
karlar	-10.4821
▁artırmaq	-10.4822
▁Xəbərlər	-10.4823
▁varlığını	-10.4824
▁faydalan	-10.4826
▁Olan	-10.4828
▁məşğuldur	-10.483
▁edilmişdir	-10.4831
▁Qo	-10.4831
▁qatil	-10.4832
üt	-10.4833
▁məlum	-10.4834
ock	-10.4835
lluq	-10.4835
▁şlyapanı	-10.4836
▁Laqosda	-10.4837
▁qış	-10.4839
▁ünvan	-10.484
▁nömrəsi	-10.4847
▁fond	-10.4847
▁Ara	-10.4851
yur	-10.4858
▁oyan	-10.4859
▁çıxışım	-10.4859
▁Hara	-10.4861
ləşdirir	-10.4863
▁axtarmaq	-10.4868
▁işıqlandır	-10.4868
▁çətinliklər	-10.487
▁böyüklüyündə	-10.4874
▁dolaş	-10.4877
▁öyrənəcə	-10.4878
asa	-10.488
▁dərinliklərin	-10.4881
▁xüsusiyyətlər	-10.4885
narın	-10.4889
▁Bill	-10.4891
▁fərqində	-10.4896
▁biraz	-10.4896
▁anladı	-10.4898
▁Bibliyada	-10.49
▁fikirləri	-10.4901
▁Per	-10.4903
▁planlaşdır	-10.4904
▁vardır	-10.4904
elin	-10.4909
▁çatdı	-10.4912
▁çağır	-10.4912
▁and	-10.4915
▁pian	-10.4922
▁suallardan	-10.4924
▁filterlər	-10.4928
▁yerləşdirir	-10.493
▁qadına	-10.493
▁işlədi	-10.4932
▁uzaqlıq	-10.4932
rsız	-10.494
▁bəd	-10.4945
eşi	-10.4947
▁ərin	-10.4953
▁maşının	-10.4957
▁öyrənən	-10.4961
elli	-10.4961
▁enən	-10.4962
▁formasında	-10.4965
▁Sir	-10.4965
▁verdiyim	-10.4966
▁edilmir	-10.4969
▁dolandır	-10.4972
▁Da	-10.4981
▁dillərdə	-10.4984
▁olmamış	-10.4987
taq	-10.4988
▁bölgəsi	-10.4993
▁itkisi	-10.4994
▁mövzunu	-10.4996
AR	-10.5
▁aparırdı	-10.5002
▁buludların	-10.5009
▁yaxınlaşan	-10.5009
ters	-10.5013
▁Deyil	-10.5018
▁filmdə	-10.5018
▁tərif	-10.5024
▁deyilmiş	-10.5025
▁yaxınlaşdır	-10.5026
mazdı	-10.5026
▁fikirlə	-10.5035
▁gətir	-10.5038
əsih	-10.504
▁gir	-10.5047
ges	-10.5049
▁pa	-10.505
▁yazıları	-10.5056
▁düşmən	-10.5057
▁Sab	-10.5058
ımı	-10.5061
▁sübutu	-10.5062
topu	-10.5065
▁düşünsə	-10.5067
▁keçirmə	-10.5069
▁uy	-10.5072
▁çıxmağ	-10.5091
▁görməmişdi	-10.5093
▁sehr	-10.5096
▁etdiklərini	-10.51
MT	-10.51
▁İq	-10.5107
▁saya	-10.5107
liyim	-10.511
▁ümidsiz	-10.5114
▁daşınma	-10.5115
▁toxunu	-10.5122
▁nəslin	-10.5125
çıları	-10.513
▁dənəsi	-10.5139
▁diqqətini	-10.5146
▁Atası	-10.5154
▁sayıla	-10.5154
▁yeyir	-10.5156
▁ağla	-10.5168
▁kəndlərin	-10.5171
▁Şəkli	-10.5172
nes	-10.5173
rasiya	-10.5174
▁ölümləri	-10.5175
▁indiyə	-10.5176
▁məqsədim	-10.5181
tura	-10.5185
▁artımı	-10.5186
sün	-10.5195
▁Cey	-10.52
▁za	-10.52
▁səy	-10.5204
▁biznesi	-10.5205
▁dəst	-10.5211
▁tapıla	-10.5216
thin	-10.5224
▁keçməsi	-10.5226
▁dəyişdiyini	-10.5229
▁com	-10.5234
mamışdı	-10.5243
▁anlamır	-10.5249
şaf	-10.5258
▁ixtiraçı	-10.526
▁olaca	-10.5265
▁pan	-10.5282
▁təsirlərini	-10.5284
▁oteldə	-10.5292
▁səsimi	-10.5293
▁əksəriyyəti	-10.5297
▁molekullar	-10.5299
lmayıb	-10.5303
▁mənbə	-10.5308
▁əllərində	-10.5317
▁keçirilə	-10.5319
▁şəhərində	-10.5321
▁oturu	-10.5327
ınca	-10.5333
▁qorxusu	-10.5334
▁personajlar	-10.5335
▁alman	-10.5336
▁məc	-10.5345
▁xəstələr	-10.5346
▁Mil	-10.5348
▁düzəldir	-10.535
▁edəcə	-10.5356
▁görməyi	-10.536
lıyı	-10.5368
tır	-10.538
ili	-10.5382
▁həyatında	-10.5398
▁aparır	-10.54
▁yazan	-10.5413
ğini	-10.5413
▁işlədiyin	-10.542
▁dillərində	-10.5423
▁bədənin	-10.5426
▁tapma	-10.543
▁olmamaq	-10.5446
▁qaldığını	-10.5448
▁həmişəki	-10.5448
▁verərdi	-10.5452
▁Wal	-10.5453
▁kolleclər	-10.5457
arılar	-10.5462
▁önəmi	-10.5465
▁kom	-10.5466
▁dəf	-10.5466
▁araşdırmaların	-10.5466
▁adında	-10.5477
▁əyil	-10.5486
mum	-10.5499
▁hekayəsini	-10.5502
▁tapıl	-10.5504
▁xəritələşdir	-10.5512
▁hüceyrələr	-10.5516
▁akse	-10.5525
▁yaşan	-10.5533
▁qadınları	-10.5536
▁yumurtalar	-10.5548
▁fərqin	-10.5549
▁daxili	-10.5554
bat	-10.5558
▁görüşü	-10.5569
▁teleskoplar	-10.557
▁dayandığı	-10.5578
▁baxdıq	-10.5579
▁Amerikalılar	-10.5581
▁etmələri	-10.5583
▁müxtəliflik	-10.5585
onun	-10.5585
▁eşidilmə	-10.5586
▁zamanla	-10.559
▁sualım	-10.559
mən	-10.56
▁dəyişməsin	-10.56
▁eti	-10.5603
▁qüvvələrin	-10.5609
▁Əmi	-10.5614
▁kaf	-10.5615
lıqlar	-10.5617
▁çəkdi	-10.5623
▁qanunu	-10.5628
▁kar	-10.5631
▁Həd	-10.5651
indeki	-10.5656
▁həyatınızda	-10.566
▁Soyu	-10.5666
▁fikirlərimiz	-10.5669
▁Lon	-10.5683
▁si	-10.5686
▁birliyi	-10.569
▁Marsa	-10.5694
▁əsrlər	-10.5699
▁dizaynı	-10.5699
▁Onda	-10.5708
▁söyləy	-10.5711
▁əsasını	-10.5713
▁olmağını	-10.5719
▁ət	-10.5721
əfil	-10.5726
▁tük	-10.5729
▁düyməsi	-10.5732
▁faktlar	-10.5737
▁verməy	-10.574
▁şəhərlər	-10.5742
▁şərtlər	-10.5743
▁vəziyyətini	-10.5761
laşdıra	-10.5766
▁izləmə	-10.5777
▁yerləşdir	-10.5779
azı	-10.5783
mıyor	-10.5783
▁lin	-10.5788
▁hüquqlarını	-10.5795
▁divarlar	-10.5796
▁fotoşəkilləri	-10.5808
▁qırıl	-10.5814
▁dəyərin	-10.5821
▁layihəsi	-10.5822
▁bişir	-10.5826
ont	-10.583
▁güm	-10.5835
lerimiz	-10.5836
▁qaldıq	-10.5843
▁tapır	-10.5844
▁liderlər	-10.5847
abba	-10.5848
ranlıq	-10.5849
▁Həyatda	-10.5852
▁zi	-10.5854
▁robotu	-10.5856
▁hərəkatlar	-10.5859
izm	-10.5864
▁qəza	-10.5865
▁gönd	-10.5868
▁dəyişikliyin	-10.587
▁şagirdləri	-10.5874
▁mis	-10.5878
mirəm	-10.589
asmaq	-10.5898
▁oğlu	-10.5899
▁uçdu	-10.5901
▁genişlənməsi	-10.5917
▁danışacağı	-10.5928
landığı	-10.5934
▁xəbərlər	-10.5939
ızın	-10.5953
▁qanunların	-10.5968
▁mərhələdə	-10.597
▁çatma	-10.5985
▁he	-10.5987
▁ağlın	-10.5989
▁vaxtında	-10.599
▁quyru	-10.5991
▁sayə	-10.6008
▁adını	-10.6014
▁törə	-10.6017
▁tr	-10.6019
ılır	-10.6023
▁keçər	-10.6028
▁aşağıda	-10.6029
məyiniz	-10.6029
▁yerimiz	-10.6036
▁filmləri	-10.6043
ızdır	-10.6051
▁neçəsi	-10.6052
▁yarat	-10.6068
▁London	-10.6075
▁tədqiqatı	-10.6079
ver	-10.6082
osu	-10.6092
▁aparaca	-10.6092
▁yaşamağ	-10.6102
▁ölçmə	-10.6103
▁Ki	-10.6106
▁etməyən	-10.6117
▁məsələlər	-10.6137
▁inanma	-10.6143
fat	-10.6151
buk	-10.6157
▁məhsulların	-10.6174
▁müşahidələr	-10.6178
bit	-10.6184
▁ölkəni	-10.6185
▁qoyun	-10.6189
acağım	-10.6193
▁dostların	-10.6194
▁öyrənməyi	-10.6228
▁Etdiyim	-10.6254
▁ixtiralar	-10.6255
▁Gökada	-10.6257
▁tapşırıq	-10.6261
▁Nigeriyanı	-10.6265
▁öküz	-10.6271
tiş	-10.6288
ham	-10.6289
▁bölgələr	-10.629
▁danışmağı	-10.6295
▁qalx	-10.6297
ondu	-10.6299
mo	-10.631
▁Vo	-10.6311
▁etdiril	-10.6311
▁musiqiçi	-10.6313
▁işçiləri	-10.6317
▁qızın	-10.6333
▁internetdə	-10.6333
▁cəsarəti	-10.6333
▁Kollecin	-10.6335
▁zirvə	-10.6338
ren	-10.6338
▁bilmirsə	-10.6349
▁xəritəsi	-10.6349
▁fotoşəkildə	-10.637
▁göster	-10.6379
▁bomba	-10.6386
▁gözləri	-10.6404
▁formalar	-10.6408
▁basmağ	-10.641
▁se	-10.6418
▁Art	-10.6429
▁künc	-10.644
▁olmağım	-10.6446
▁İsveçrə	-10.6447
▁şüa	-10.6447
▁başım	-10.6455
ılmış	-10.6458
alları	-10.6485
▁Maşın	-10.6485
▁deyər	-10.6491
ekt	-10.6499
minin	-10.6509
edi	-10.6509
▁boşluqlar	-10.6514
▁yanım	-10.6525
▁şeylə	-10.6544
ürük	-10.6554
▁qəti	-10.6565
▁təşkilatı	-10.6565
ativ	-10.6566
▁cəmiyyətin	-10.6567
▁unutma	-10.6577
▁inandır	-10.6582
▁etməmi	-10.6585
▁dəyişdirmə	-10.6589
▁olunmasın	-10.6604
▁çıxardı	-10.6608
uzun	-10.6611
▁cihazların	-10.6617
ansız	-10.6619
▁çoxal	-10.6621
▁dönər	-10.6621
▁verər	-10.6622
▁Sizi	-10.6642
▁dəyişməli	-10.6644
▁ruha	-10.6648
▁bitkini	-10.665
rc	-10.6653
▁öldürül	-10.6658
▁buraxma	-10.6661
silə	-10.6668
▁baxdı	-10.6668
▁götürən	-10.668
▁birləşdirə	-10.668
▁məhsullarında	-10.6684
dək	-10.6688
land	-10.6699
ısı	-10.6713
▁şüaları	-10.6718
▁mühitdə	-10.6731
▁qarışdır	-10.6739
▁texnologiyalar	-10.6746
▁uşaqlıq	-10.6746
çe	-10.6746
çısı	-10.6748
▁istifadəçilər	-10.6748
▁bitdi	-10.6749
▁dərinlik	-10.6753
larımı	-10.6754
▁qoydu	-10.6765
▁be	-10.677
iyoru	-10.6781
▁ölkələri	-10.6782
yaranan	-10.6786
▁çıxanda	-10.6796
▁ayağ	-10.6797
▁toxunma	-10.6801
▁Con	-10.6803
▁dalğa	-10.6809
süz	-10.6831
▁verdikdə	-10.6835
▁Avropada	-10.6837
▁dalğaların	-10.6841
▁konu	-10.6863
▁Yuxarıda	-10.6871
att	-10.6876
▁həbsdə	-10.6888
▁təpə	-10.6906
▁görsə	-10.6908
llik	-10.6909
▁fon	-10.691
ızla	-10.6915
▁təzyiq	-10.6919
▁səviyyəsi	-10.6921
▁tax	-10.6934
▁eşidil	-10.6944
inki	-10.6956
▁qalmalı	-10.6972
▁aylar	-10.6976
▁istiqamətl	-10.6987
ırsan	-10.6993
▁yanımız	-10.7005
▁dövrlərin	-10.7007
▁səsini	-10.7012
▁planları	-10.7014
▁qüvvələri	-10.7028
dırıcı	-10.7033
▁qarşılaşdı	-10.704
▁başladığı	-10.7042
▁etməlidir	-10.7046
▁reallaşdıra	-10.7052
▁mətn	-10.7052
▁şad	-10.7054
nimc	-10.7057
▁növlərin	-10.7061
▁keçid	-10.7062
▁alına	-10.7071
▁gətirməy	-10.7071
ollo	-10.7074
▁qıza	-10.7076
məyib	-10.7082
▁effekt	-10.709
▁kollec	-10.7093
▁lideri	-10.7098
▁anlam	-10.7116
▁təcrübəm	-10.7119
lmaq	-10.712
mayacağı	-10.7135
▁çıxış	-10.7136
▁üzü	-10.7138
▁olmasında	-10.7143
▁anlamı	-10.7143
▁oğul	-10.7144
▁aldığını	-10.7146
▁problemlərin	-10.7149
▁önəm	-10.7169
ku	-10.719
▁etdiyin	-10.7193
▁strukturlar	-10.7205
▁çatdır	-10.7207
▁olmağımız	-10.7222
▁şəbəkə	-10.7225
▁otel	-10.7232
▁nəzərə	-10.7237
▁maddəsi	-10.7245
▁qeydlər	-10.7256
▁alətin	-10.7265
▁işlədiyi	-10.7268
cısı	-10.729
▁dağ	-10.7292
▁özəl	-10.7301
▁getdiyi	-10.7301
ans	-10.7306
▁çağırır	-10.731
▁təyyarələr	-10.7314
▁səsin	-10.7315
▁düşmə	-10.7319
▁əşya	-10.7319
▁qurula	-10.7331
metr	-10.7344
ord	-10.735
▁dəlili	-10.7353
mürdü	-10.7356
▁fər	-10.7356
▁Kitablar	-10.7372
▁inkişafı	-10.7374
▁gələcəyin	-10.7374
rami	-10.7381
▁Şəkil	-10.7391
▁yetir	-10.7401
▁çəkmiş	-10.7401
▁yüksəl	-10.7409
pl	-10.7414
▁bak	-10.7416
▁Hamını	-10.7418
▁hissədə	-10.7423
▁alimi	-10.7424
▁demə	-10.7431
ağıl	-10.7437
▁xəstəliyi	-10.744
▁ruhun	-10.7452
▁islahat	-10.7454
▁oyunca	-10.7457
▁əli	-10.7466
madığını	-10.7477
▁En	-10.7478
lanmaq	-10.7479
paz	-10.7479
R	-10.7479
▁saxlama	-10.748
eyh	-10.7481
▁peykin	-10.7494
▁qurma	-10.7495
▁bük	-10.7496
bilirsiniz	-10.7497
▁keçirmiş	-10.7497
▁yönəl	-10.7503
yəndə	-10.7514
▁gəlməyə	-10.752
qın	-10.7533
▁qurumlar	-10.7537
▁sevdiyi	-10.754
ps	-10.7546
▁dik	-10.7548
inci	-10.7553
▁Glob	-10.7554
▁araşdırdı	-10.7555
irdi	-10.7555
andığınız	-10.7561
▁sənaye	-10.7563
andır	-10.7572
▁Avropanı	-10.7574
salar	-10.7589
▁səthini	-10.7591
squ	-10.7603
▁hüquq	-10.7611
▁modeli	-10.7616
▁xəstəliy	-10.7625
dəcək	-10.7627
▁seç	-10.763
its	-10.7635
let	-10.7648
▁kur	-10.7648
▁duman	-10.7657
▁Ban	-10.7668
▁önün	-10.767
▁sistemləri	-10.7673
▁içəridə	-10.7681
▁nöqtəsi	-10.7682
xas	-10.7685
▁kva	-10.7686
laşdır	-10.7688
▁nisbəti	-10.769
▁kədər	-10.7696
▁qayıt	-10.7696
▁etməmiş	-10.77
▁oxuma	-10.7705
▁kosmosda	-10.7706
▁tül	-10.7711
▁cəmiyyəti	-10.7713
məyəcəy	-10.7718
▁ifaçı	-10.7718
ço	-10.7724
lg	-10.7729
ça	-10.774
▁iplik	-10.775
▁cəm	-10.7753
▁təbiəti	-10.7753
▁kitabım	-10.7756
▁çıxaran	-10.7758
▁sürfə	-10.7761
mes	-10.7767
▁oxşa	-10.7772
düyü	-10.7774
▁kökü	-10.7778
▁şifrələ	-10.7798
▁ışı	-10.78
▁düşərgə	-10.7811
▁çağı	-10.7815
▁Beyn	-10.7823
▁sirl	-10.7824
ləş	-10.7824
▁köməy	-10.7826
che	-10.7828
ünüzü	-10.7829
▁böyüdü	-10.7831
irsən	-10.7834
otel	-10.784
▁sürdü	-10.784
▁işçi	-10.7842
▁maşınların	-10.7844
▁vasitəsini	-10.7844
▁velosiped	-10.7845
məlum	-10.7846
▁hekayəm	-10.7849
▁çatışm	-10.7849
▁zənglər	-10.785
▁Angel	-10.7854
olunma	-10.7855
qərar	-10.7869
▁ünvanla	-10.7871
▁yoldaş	-10.7871
▁kimlər	-10.7875
▁buraxdı	-10.7881
arası	-10.7882
▁edəcəyim	-10.7883
▁işində	-10.7887
of	-10.7891
▁haq	-10.7897
▁gəzə	-10.7898
▁Yaş	-10.7898
Tu	-10.7901
mist	-10.7903
yirsən	-10.7907
▁səh	-10.7909
ravi	-10.7909
▁nitq	-10.791
▁Oğl	-10.7915
▁göndəri	-10.7919
▁dəyərli	-10.7923
▁bəşər	-10.7926
▁Fizik	-10.7926
▁Orta	-10.7938
▁şansım	-10.7938
hat	-10.7945
▁səsim	-10.7945
▁izlər	-10.7949
▁etdiyimizdə	-10.795
ıp	-10.7954
rəy	-10.7956
▁Digəri	-10.7961
▁cins	-10.7962
▁gəlmi	-10.7963
malarını	-10.7968
üyü	-10.797
▁gözünü	-10.7972
▁göl	-10.7974
▁im	-10.7981
▁qəlb	-10.7981
▁güzgü	-10.7983
▁saxlayı	-10.7986
▁qul	-10.7987
▁Öl	-10.7989
▁elektromaqn	-10.7991
▁Uzaq	-10.7992
▁yazdığım	-10.7995
go	-10.7996
ebilir	-10.7997
▁öyrətdi	-10.7997
▁insanlı	-10.8001
düyünü	-10.8002
▁texn	-10.8003
▁çağ	-10.8005
▁tezliklə	-10.8007
▁qardaş	-10.801
▁qığılcım	-10.801
▁tərəfdar	-10.8015
▁gördüyünü	-10.8016
▁alça	-10.8016
▁uzaqlaşdı	-10.8019
hone	-10.802
yor	-10.8022
▁Mövcud	-10.8023
▁toqquş	-10.8023
▁beyniniz	-10.8024
müddətli	-10.8024
▁təlim	-10.8025
zərində	-10.8026
▁sülh	-10.8027
▁zorl	-10.8028
▁işləyə	-10.8028
▁Öyrə	-10.803
▁vurdu	-10.8031
▁Doğru	-10.8033
▁düşmüş	-10.8033
▁Ja	-10.8034
▁həyatımız	-10.8034
▁quyu	-10.8035
lüyü	-10.8035
▁pillə	-10.8037
dırmaq	-10.8038
▁şəf	-10.8039
əyir	-10.804
▁üfür	-10.8041
öcüzə	-10.8042
▁mütə	-10.8043
ərcümə	-10.8043
arahat	-10.8044
umullar	-10.8044
▁psix	-10.8044
acılarım	-10.8045
üclü	-10.8045
▁mülk	-10.8045
▁İqtisadi	-10.8045
bənövşəyi	-10.8046
iyaziyyat	-10.8046
▁uğursuz	-10.8046
▁ultra	-10.8046
▁çarpıştırı	-10.8046
▁Xristian	-10.8046
▁eject	-10.8046
▁perspektiv	-10.8046
▁İstifadə	-10.8046
imbabve	-10.8046
pərəstişkarı	-10.8046
öycəqarğa	-10.8046
▁1990	-10.8046
▁Araşdırma	-10.8046
▁Avtomobil	-10.8046
▁Cazibə	-10.8046
▁Challenge	-10.8046
▁Dizayn	-10.8046
▁Flober	-10.8046
▁Gözəgörünməz	-10.8046
▁Kaliforniya	-10.8046
▁Mumbai	-10.8046
▁Mükafat	-10.8046
▁Mərasim	-10.8046
▁Qiymət	-10.8046
▁Siyahı	-10.8046
▁Sürfə	-10.8046
▁Uqanda	-10.8046
▁Virgin	-10.8046
▁Xoşbəxt	-10.8046
▁antropoloq	-10.8046
▁avadanlığı	-10.8046
▁ağlasığmaz	-10.8046
▁brauzer	-10.8046
▁bıçaq	-10.8046
▁danaayağı	-10.8046
▁dekabr	-10.8046
▁doğulan	-10.8046
▁doğulur	-10.8046
▁doğuşdan	-10.8046
▁düzəltmişdi	-10.8046
▁elastik	-10.8046
▁fotoqraf	-10.8046
▁fəlsəfə	-10.8046
▁homoseksuall	-10.8046
▁ictimaiyyət	-10.8046
▁interfeys	-10.8046
▁ixtisas	-10.8046
▁kariyeram	-10.8046
▁karyera	-10.8046
▁kolibri	-10.8046
▁kolleksiyası	-10.8046
▁kommunist	-10.8046
▁kontaminasiya	-10.8046
▁kozmoz	-10.8046
▁meksikalı	-10.8046
▁mikro	-10.8046
▁minnətdar	-10.8046
▁miqrasiya	-10.8046
▁münaqişə	-10.8046
▁məfhum	-10.8046
▁mərkəzlərində	-10.8046
▁platforma	-10.8046
▁praktik	-10.8046
▁profili	-10.8046
▁qadağa	-10.8046
▁qucaqlama	-10.8046
▁rasional	-10.8046
▁rejissor	-10.8046
▁saptayıcı	-10.8046
▁sayborq	-10.8046
▁stansiyası	-10.8046
▁süratlerini	-10.8046
▁sıcaklıklar	-10.8046
▁tolerantlı	-10.8046
▁təchizat	-10.8046
▁təsadüfi	-10.8046
▁təəssüratı	-10.8046
▁uçurttu	-10.8046
▁uğrun	-10.8046
▁yanlış	-10.8046
▁yekunlaşdır	-10.8046
▁zəlzələ	-10.8046
▁Çikaqo	-10.8046
▁şalvar	-10.8046
▁şərəfləndir	-10.8046
▁əcnəbi	-10.8046
missiyasını	-10.8046
▁Bronx	-10.8046
▁Konqo	-10.8046
▁Köhnə	-10.8046
▁Qarşı	-10.8046
▁Scalia	-10.8046
▁bütöv	-10.8046
▁etkileşmiyor	-10.8046
▁görülməmiş	-10.8046
▁instinkt	-10.8046
▁kampaniya	-10.8046
▁körpə	-10.8046
▁məyus	-10.8046
▁nötrino	-10.8046
▁santimetr	-10.8046
▁sarmal	-10.8046
▁sünnət	-10.8046
▁terror	-10.8046
▁İsrailli	-10.8046
▁Şəhər	-10.8046
▁Brizban	-10.8046
▁Robert	-10.8046
▁Statisti	-10.8046
▁ardıcıl	-10.8046
▁ekspedisiyalar	-10.8046
▁elementi	-10.8046
▁faciə	-10.8046
▁hirsl	-10.8046
▁isveç	-10.8046
▁kozmolo	-10.8046
▁kəlmə	-10.8046
▁mənzərə	-10.8046
▁qabığı	-10.8046
▁region	-10.8046
▁sıçra	-10.8046
▁səbirsizl	-10.8046
▁xatirə	-10.8046
▁yağıntı	-10.8046
▁İslam	-10.8046
▁Oxuma	-10.8046
▁ləkələr	-10.8046
▁mercekleme	-10.8046
▁quracağı	-10.8046
▁tapıntı	-10.8046
▁əsəbləş	-10.8046
recht	-10.8046
uşdurucu	-10.8046
▁Koreya	-10.8046
▁Yağış	-10.8046
▁başlayacağı	-10.8046
▁bəxşiş	-10.8046
▁istintaq	-10.8046
▁mövqe	-10.8046
▁oturmuşdu	-10.8046
ahiyyəti	-10.8046
sper	-10.8046
▁Dörd	-10.8046
▁Kunst	-10.8046
▁masaüstü	-10.8046
▁şou	-10.8046
▁Monte	-10.8046
▁Partlama	-10.8046
▁göndərmək	-10.8046
▁məhkum	-10.8046
▁Martinez	-10.8046
▁ağılsız	-10.8046
▁quraqlıq	-10.8046
▁razılaşa	-10.8046
▁Ciddi	-10.8046
▁istiqamətləndir	-10.8046
▁klavesin	-10.8046
▁çirkin	-10.8046
▁ekzot	-10.8046
▁istiqamətlənir	-10.8046
▁məramı	-10.8046
▁peşmançılıq	-10.8046
▁dinamik	-10.8046
▁rəqabət	-10.8046
▁tanımırdı	-10.8046
▁Diqqəti	-10.8046
▁Lesli	-10.8046
▁hamilə	-10.8046
▁əlçat	-10.8046
▁hesaplayabil	-10.8046
▁çəp	-10.8046
▁vərdiş	-10.8046
▁cinayət	-10.8046
▁sürüşmə	-10.8046
▁Kris	-10.8046
▁artmaqda	-10.8046
▁quraşdırılm	-10.8046
▁Nəsil	-10.8046
▁Film	-10.8046
▁yararlan	-10.8046
▁WMAP	-10.8046
▁pəncərə	-10.8046
▁Hadisə	-10.8046
▁irəliləmə	-10.8046
▁kabin	-10.8046
now	-10.8046
▁Rəsm	-10.8046
▁xətkeş	-10.8046
▁rəğbət	-10.8046
▁izləyən	-10.8046
▁oğurla	-10.8046
▁Gill	-10.8046
▁şəra	-10.8046
▁Mich	-10.8046
▁kollek	-10.8046
▁trans	-10.8046
▁sürətləndirici	-10.8046
▁əməkdaşlı	-10.8046
▁Ardın	-10.8046
▁galaksi	-10.8046
▁limanı	-10.8046
▁telepat	-10.8046
▁Sibir	-10.8046
▁elit	-10.8046
▁Tamaşaçılar	-10.8046
▁Divar	-10.8046
▁süper	-10.8046
▁Jack	-10.8046
▁atıldı	-10.8046
▁bügün	-10.8046
▁qurulması	-10.8046
▁helium	-10.8046
▁ədəb	-10.8046
▁Peak	-10.8046
ovsun	-10.8046
▁lisey	-10.8046
▁Hansı	-10.8047
▁Nitqimi	-10.8047
▁duyduğunu	-10.8047
▁ətrafımda	-10.8047
▁bəyəndi	-10.8047
▁tələsi	-10.8047
▁orqanizm	-10.8047
▁Meteorit	-10.8047
▁tövsiyə	-10.8047
▁davranışlar	-10.8047
▁qəzəb	-10.8047
▁müsəlman	-10.8047
▁mübadilə	-10.8047
▁ehtiyat	-10.8047
▁ürəyi	-10.8047
▁körfəz	-10.8047
▁yaxınlığın	-10.8047
▁piyada	-10.8047
▁yatağ	-10.8047
▁zola	-10.8047
▁daşqın	-10.8047
▁işgəncə	-10.8047
▁idrak	-10.8047
▁Planet	-10.8047
▁məhsuldar	-10.8047
şəng	-10.8047
▁rəhmət	-10.8047
▁həcm	-10.8047
▁daşıyan	-10.8047
▁Brit	-10.8047
▁deməmişdi	-10.8047
▁Doğu	-10.8048
▁kapital	-10.8048
▁uğursuzluq	-10.8048
▁ordu	-10.8048
▁Otur	-10.8048
▁feil	-10.8048
▁kölgə	-10.8048
▁təsəvvürüm	-10.8048
▁oxumuş	-10.8048
ebilirler	-10.8048
▁hüz	-10.8048
▁çıxartdı	-10.8048
▁institutlar	-10.8048
▁bağlamaq	-10.8048
▁konsert	-10.8048
▁resur	-10.8048
▁gözümüzü	-10.8048
low	-10.8048
▁eşitdikləri	-10.8048
▁fikirləşdiyiniz	-10.8048
▁qayıtdıq	-10.8048
ribən	-10.8048
▁sərmayə	-10.8048
▁nəvələrim	-10.8048
▁dostunuz	-10.8048
▁sevimli	-10.8048
▁Fakt	-10.8049
▁uzanı	-10.8049
▁həzz	-10.8049
▁millətlər	-10.8049
▁Almaniya	-10.8049
▁fikirləşmir	-10.8049
▁gediləcə	-10.8049
▁Düşünür	-10.8049
pmalar	-10.8049
▁Ruanda	-10.8049
▁tökül	-10.8049
pote	-10.8049
▁istiləşmə	-10.805
▁Pis	-10.805
▁əkinçi	-10.805
▁verilməli	-10.805
▁keçməyin	-10.805
▁müqəddəs	-10.805
▁atlet	-10.805
▁Kino	-10.805
▁Part	-10.805
hədsiz	-10.805
əviyyat	-10.805
▁yadınızda	-10.805
▁barmağı	-10.8051
▁investorlar	-10.8051
▁başlayacaq	-10.8051
▁müdirin	-10.8051
ezo	-10.8051
▁yarayır	-10.8051
▁ianə	-10.8051
▁hərarət	-10.8052
▁Elm	-10.8052
▁Səbəb	-10.8052
▁ağlayır	-10.8052
▁İyun	-10.8052
▁imti	-10.8052
etten	-10.8052
▁sığınaca	-10.8052
▁cild	-10.8052
▁sevinir	-10.8052
▁Bağışla	-10.8052
▁Sudanda	-10.8052
▁kameranızı	-10.8052
▁değiştirebil	-10.8052
▁əziz	-10.8053
▁bölüşdürülməsi	-10.8053
▁köçürülməsi	-10.8053
▁dillərin	-10.8053
▁getmişdi	-10.8053
▁Sara	-10.8053
▁mate	-10.8053
▁çəkildiyi	-10.8053
▁boşal	-10.8054
▁milyarderlər	-10.8054
▁azadlığı	-10.8054
▁axtarışında	-10.8054
▁bağışlayar	-10.8054
▁dəyişdiril	-10.8054
▁artması	-10.8054
▁pivə	-10.8054
▁eşidir	-10.8055
▁Dağ	-10.8055
eceğimi	-10.8055
▁ölçümləri	-10.8056
▁sonuncu	-10.8056
▁etsəydi	-10.8056
▁köynək	-10.8057
▁insalar	-10.8057
▁Klee	-10.8057
▁Qayğı	-10.8057
▁gətirmir	-10.8057
▁Uşaqlıq	-10.8057
▁val	-10.8057
▁mütəxəssisləri	-10.8058
▁Yüz	-10.8058
▁çatacaq	-10.8059
arici	-10.8059
▁kasıblığı	-10.8059
▁esin	-10.806
mmer	-10.806
▁evliliklərin	-10.806
▁eks	-10.806
▁iylən	-10.806
▁yaşandı	-10.806
▁Sabah	-10.806
▁reklamlarda	-10.806
ropik	-10.806
▁faktor	-10.8061
▁metod	-10.8061
▁standartların	-10.8062
▁partlayış	-10.8062
▁qasırğası	-10.8063
▁yayındır	-10.8063
▁texnologiyamız	-10.8063
mos	-10.8063
▁danışırsınız	-10.8063
▁bilgi	-10.8064
▁auditoriya	-10.8064
▁çatdırıl	-10.8064
▁DN	-10.8064
▁Mag	-10.8064
▁Test	-10.8065
▁düşmüşdü	-10.8065
▁dəyişdirdi	-10.8065
▁həyəcanlı	-10.8066
▁xatırlayırsınız	-10.8066
▁çevrilmiş	-10.8066
▁nəşr	-10.8067
▁təlimat	-10.8067
▁tapmalı	-10.8067
▁öyrədir	-10.8067
▁arzusu	-10.8068
▁Mac	-10.8069
▁1600	-10.8069
▁içki	-10.8069
▁ayaqlarımı	-10.8069
talyan	-10.807
▁durur	-10.807
▁DV	-10.807
memiz	-10.807
▁daral	-10.807
▁202	-10.8071
▁adlandırıb	-10.8071
▁yet	-10.8072
▁sərhədsiz	-10.8072
▁isim	-10.8072
▁Xal	-10.8073
▁sevmək	-10.8073
▁gərək	-10.8074
▁İraq	-10.8074
▁xro	-10.8075
▁Fran	-10.8075
▁səbət	-10.8076
▁Kimliyimiz	-10.8076
lendi	-10.8077
▁imtahan	-10.8077
▁işlətmə	-10.8077
▁ney	-10.8079
igh	-10.8079
▁təbəqəsində	-10.808
rafik	-10.8081
▁əf	-10.8081
▁olmamız	-10.8081
▁kaş	-10.8081
▁böyüyən	-10.8081
▁Kle	-10.8082
▁gedəcək	-10.8083
▁qap	-10.8084
▁astronavtları	-10.8084
▁ideyaların	-10.8084
▁hu	-10.8085
▁ağlamaq	-10.8085
▁inanırsınız	-10.8087
▁anlayışımızı	-10.8087
▁Sch	-10.8087
▁Müəllif	-10.8089
▁bənzəyə	-10.8089
▁düşdüyü	-10.8089
▁görülə	-10.8089
▁Beş	-10.809
▁1900	-10.8091
▁bədbəxtlik	-10.8091
▁ətraflarında	-10.8091
▁Ərin	-10.8092
▁almışdı	-10.8092
▁götürürdü	-10.8093
▁artığın	-10.8093
▁sürdüyü	-10.8094
▁söndür	-10.8094
▁anti	-10.8094
▁arzulama	-10.8094
▁çe	-10.8095
▁öyrətdik	-10.8095
▁düzdür	-10.8096
ith	-10.8098
▁bənzərsiz	-10.8099
▁aldınız	-10.81
▁spek	-10.81
▁istiliyi	-10.81
▁qulum	-10.8101
▁özünüzü	-10.8101
▁gözləməli	-10.8102
▁veb	-10.8103
▁qazanmış	-10.8104
miyib	-10.8104
▁önümüzd	-10.8104
▁çevrilmə	-10.8104
▁inək	-10.8105
ispan	-10.8107
▁akt	-10.8107
▁sürər	-10.8107
▁danışmır	-10.8108
nağı	-10.8109
▁sürü	-10.8109
▁dəmir	-10.8109
▁bütünlük	-10.811
▁gəminin	-10.8111
▁zehni	-10.8112
▁göstərmiş	-10.8112
▁tezliklər	-10.8113
▁göndərdik	-10.8113
▁Il	-10.8114
▁sarayın	-10.8114
▁Kamera	-10.8115
▁yarandığı	-10.8115
plikasiya	-10.8115
▁açıqca	-10.8116
▁düşündüyümü	-10.8117
▁Jer	-10.8117
▁gedirdi	-10.8118
▁sintez	-10.8118
▁silik	-10.8118
▁yadplanetliləri	-10.8118
▁qər	-10.8119
▁Ancel	-10.812
▁iy	-10.8122
cımız	-10.8122
▁Göz	-10.8122
▁məsuliyyətimiz	-10.8125
▁səpələ	-10.8126
▁Başqaların	-10.8126
▁korlama	-10.8127
malay	-10.8127
▁şifrələmə	-10.8128
amın	-10.8129
▁axtarışda	-10.813
▁ayağını	-10.8132
▁tullan	-10.8132
▁qurub	-10.8137
▁pay	-10.8139
▁itirdik	-10.814
▁Hamınız	-10.814
▁istəmədiyi	-10.814
▁uçurlar	-10.814
▁ölən	-10.8141
▁ömrüm	-10.8141
▁bağları	-10.8142
amaz	-10.8142
▁üzüm	-10.8144
▁şən	-10.8144
▁Ayk	-10.8145
▁şifrələy	-10.8147
▁qalxan	-10.8149
▁çarp	-10.815
▁ölümünü	-10.815
▁olmadı	-10.8154
▁biliyi	-10.8155
▁yad	-10.8158
▁keçirir	-10.8159
▁böhranı	-10.816
▁düşüncəli	-10.816
▁nənəyə	-10.816
▁Yaradıcılığ	-10.816
paq	-10.8162
▁edəcəyimiz	-10.8163
▁qaldırır	-10.8164
▁ailəsini	-10.8165
▁nöqtələri	-10.8166
▁Əliniz	-10.8166
durub	-10.8167
▁Fizika	-10.8167
▁qalıqları	-10.8167
▁axınlar	-10.8167
▁salın	-10.8168
▁çəkmir	-10.8171
▁Tel	-10.8171
▁sahillərində	-10.8174
▁sistemin	-10.8175
▁ardın	-10.8175
nümüzdə	-10.8176
▁göstərilir	-10.8176
▁başlayı	-10.8177
irdik	-10.8177
yrı	-10.818
▁çıxacağı	-10.8182
▁bağlar	-10.8183
▁düzləşdir	-10.8183
▁yerlərində	-10.8183
▁Alam	-10.8185
▁yumru	-10.8185
▁vaxtıdır	-10.8187
▁burdakı	-10.8187
▁Görü	-10.8187
▁ağsaqqallar	-10.8189
po	-10.8192
▁mərhələlər	-10.8193
▁izləmək	-10.8193
qtisadiyyat	-10.8194
▁qoyduq	-10.8194
▁vi	-10.8195
nalı	-10.8199
▁Oğlum	-10.8199
▁çıxmalı	-10.8199
▁Yay	-10.82
▁yerləşir	-10.8201
▁dedikdə	-10.8202
▁stress	-10.8203
▁çıxdığın	-10.8206
▁ştatı	-10.8207
tmış	-10.8209
▁gözündə	-10.821
laşdırmaq	-10.821
ləğ	-10.8212
▁cərəyanın	-10.8215
▁çoxunuz	-10.8219
▁istədiklərim	-10.8219
sidi	-10.822
▁səhvləri	-10.822
▁seçir	-10.8221
▁İşığı	-10.8223
▁təcrübənin	-10.8223
▁motivi	-10.8226
əəssüf	-10.8226
qal	-10.8232
▁uzadı	-10.8235
lerin	-10.8235
eler	-10.8236
▁şəxsiyyəti	-10.8237
▁notu	-10.8238
▁ənənəsini	-10.8238
▁diliniz	-10.8238
▁tapdığımız	-10.8238
▁səslənə	-10.8239
▁maşınla	-10.824
imatlar	-10.8242
ilyon	-10.8242
▁sənətçi	-10.8243
▁qurğuların	-10.8244
▁ed	-10.8244
▁kor	-10.8246
▁yolumuz	-10.8248
▁illərin	-10.8249
▁dava	-10.8253
▁Hindistandakı	-10.8254
▁silindr	-10.8255
▁imzala	-10.8257
▁iztirab	-10.8257
▁Car	-10.826
▁Von	-10.8261
▁hərflər	-10.8261
▁oynamaq	-10.8263
▁Təşkilatı	-10.8264
▁topladı	-10.8265
▁məsuliyyətini	-10.8266
▁dəlilikdi	-10.8275
▁dalğası	-10.8276
▁axını	-10.8279
▁çatışmazlı	-10.8282
▁qızdır	-10.8283
▁dəyişdirə	-10.8286
▁tamaşaçıları	-10.8286
▁Tanzaniyada	-10.829
▁uzaqlaşa	-10.8293
▁başlıq	-10.8295
aron	-10.8296
cil	-10.8298
▁həyəcanlan	-10.83
▁paylaşdığı	-10.83
▁qurğusu	-10.8304
▁mənbələrin	-10.8306
▁bacarsa	-10.8307
▁Orda	-10.8307
▁qarşılaya	-10.8308
▁raketlər	-10.831
▁qutular	-10.8311
▁afrikalılar	-10.8317
▁təcrübələrim	-10.8318
əciyi	-10.8318
▁görünər	-10.8319
ke	-10.832
▁anlarında	-10.832
▁gəliş	-10.8322
▁istəmirdi	-10.8323
▁Marionu	-10.8329
▁dolduru	-10.833
▁İşim	-10.8334
▁göndərirdi	-10.834
▁seçimim	-10.8346
▁ritualları	-10.8349
▁Kimliyi	-10.8355
ğımda	-10.8357
boy	-10.8358
▁edəcəyiniz	-10.8359
▁arzum	-10.8368
▁yadım	-10.8369
hon	-10.837
▁şəhərin	-10.8372
ird	-10.8372
▁nəh	-10.8374
▁olmamalı	-10.8374
▁iplikləri	-10.8375
nder	-10.8379
▁fikirləşə	-10.8379
▁ləyaqəti	-10.8379
▁ek	-10.838
▁yoxsullar	-10.8383
▁peşə	-10.8384
▁verim	-10.8387
şan	-10.84
▁başlamışdı	-10.8403
▁qayıtma	-10.8405
gis	-10.8406
▁May	-10.841
ek	-10.8414
lərimizdə	-10.8416
▁çəksə	-10.842
61	-10.8424
▁götürməy	-10.8427
▁atomların	-10.843
ata	-10.8431
▁boyda	-10.8432
▁Kişilər	-10.8432
▁vətən	-10.8433
▁səbəblə	-10.844
usu	-10.8443
▁rejimi	-10.8445
▁çıxması	-10.8447
12	-10.8448
art	-10.845
▁Ve	-10.8451
▁ten	-10.8452
▁səhifəsin	-10.8453
▁qona	-10.8454
▁tutardı	-10.8457
arın	-10.8458
▁seçkilər	-10.8459
bra	-10.8461
▁fəaliyyətim	-10.8461
ləsi	-10.8463
▁dörddə	-10.8463
▁yaxınların	-10.8463
▁çıxarı	-10.8476
oma	-10.8476
▁etməmişdi	-10.8477
▁günümüz	-10.8483
örürsünüz	-10.8486
▁yey	-10.8489
▁yerləşdirə	-10.8491
▁ap	-10.8497
▁əhvalatın	-10.8503
▁Çoxu	-10.8503
▁yaradaca	-10.8504
▁şansı	-10.8504
▁siyahısın	-10.8504
▁təzyiqlər	-10.8505
▁əraziləri	-10.8506
▁dinləyi	-10.8507
▁Mir	-10.8509
ridi	-10.8512
▁dönüş	-10.8515
▁debatları	-10.8515
yl	-10.8519
98	-10.852
ığır	-10.8521
▁parçacıqlarını	-10.8523
▁təhsilli	-10.8524
▁müzakirələri	-10.8525
▁Ora	-10.8535
▁çalışsa	-10.8543
▁seçmə	-10.855
▁yaşadığımız	-10.855
▁dediklərini	-10.855
▁temperatur	-10.8551
eqo	-10.8552
▁riyaziyyatın	-10.8553
▁məktəbin	-10.8555
▁düzü	-10.8558
▁qucaqlaya	-10.8561
▁arxivi	-10.8561
▁Tanrını	-10.8562
eşid	-10.8564
▁sistemlərin	-10.8566
▁məhbusu	-10.8569
çt	-10.8573
▁otağım	-10.8575
▁birləşdirən	-10.8577
▁uşağım	-10.8581
▁girdi	-10.8582
▁gəlməz	-10.8592
▁müv	-10.8593
▁keçdiyi	-10.8597
▁eləmi	-10.8598
▁deyilsə	-10.86
▁təmizləy	-10.8603
esiy	-10.8606
şək	-10.8609
▁zərur	-10.8611
▁yerləşdirdi	-10.8612
▁bənzəyirdi	-10.8621
▁seçə	-10.8622
▁dönü	-10.8626
▁həyatımızı	-10.863
▁oynayırdı	-10.8641
▁qurduq	-10.8644
lacaq	-10.8645
▁fr	-10.8648
▁sərhəddin	-10.8654
▁keçərdi	-10.8655
▁qurumların	-10.8655
▁görmüşdü	-10.8662
▁qanad	-10.8662
▁xortumu	-10.8667
▁məzmunu	-10.8668
▁təva	-10.8671
▁kompyuteri	-10.8674
▁girir	-10.8678
▁tanınması	-10.8683
üşü	-10.8689
▁Kainatı	-10.8689
▁əmr	-10.8691
▁malikdir	-10.8694
▁bölgüsün	-10.8695
avaş	-10.8697
nasında	-10.8697
▁mussonunda	-10.8697
▁j	-10.8698
▁girə	-10.8699
▁evlənmə	-10.8702
▁Şo	-10.8712
▁mar	-10.8713
▁effektlər	-10.8714
zacağımı	-10.8717
▁dəqiqlikl	-10.8725
▁beli	-10.8725
▁edirdilər	-10.8734
▁Qız	-10.8735
▁qrupu	-10.8736
▁axtarışı	-10.8737
▁Naziri	-10.8744
kanı	-10.8747
▁onillikdə	-10.875
▁Hamısını	-10.8766
▁dilimiz	-10.8771
▁Cin	-10.8773
▁performans	-10.878
▁dəyişmiş	-10.8781
ədd	-10.879
▁gəlməsin	-10.879
▁düşü	-10.8806
▁sizlə	-10.8812
▁təzyiqi	-10.8818
▁izlə	-10.8819
ığa	-10.8842
sun	-10.8842
▁okeanları	-10.8855
▁nisbətini	-10.8866
▁şirkətlərin	-10.8867
rada	-10.8873
tiqam	-10.8883
tal	-10.8892
▁birləşdirmə	-10.8897
▁güd	-10.8905
▁Bitkilər	-10.8907
▁bilik	-10.8914
ləşdirmə	-10.8914
▁telefonlar	-10.8916
▁nümunəsi	-10.8918
▁kayd	-10.8926
▁şəbəkələr	-10.8928
▁Go	-10.8929
▁xatırlatma	-10.8932
▁məsələsin	-10.8935
▁salan	-10.8936
▁nömrəl	-10.8936
▁musiqidən	-10.8939
▁gördüklərim	-10.895
▁yanğınlar	-10.8954
fəs	-10.8955
▁deməsi	-10.8974
▁dizaynları	-10.8977
atır	-10.8978
▁qalanın	-10.8979
▁fəlakətlər	-10.8987
▁bildirir	-10.8988
▁bildik	-10.8989
▁əlaqəsi	-10.899
▁yayım	-10.9
rimin	-10.9008
▁anı	-10.9008
▁ədəbiyyatın	-10.9018
els	-10.9019
▁başladığını	-10.9023
▁alimlərin	-10.9025
▁Lu	-10.9042
ışını	-10.9043
▁etdiyimi	-10.905
▁siyahısı	-10.9051
▁nəy	-10.9051
▁genlərin	-10.9056
▁altın	-10.9061
wi	-10.9083
▁xalqın	-10.9093
▁daşı	-10.9098
▁dəstəyin	-10.9113
▁məlumatın	-10.9114
▁aparmağ	-10.9118
▁qalmadı	-10.9121
tir	-10.9134
▁təhlükələr	-10.9137
▁davranır	-10.9143
nən	-10.9148
▁məktəblərində	-10.9148
▁şərti	-10.9148
▁siyahını	-10.9151
▁mətni	-10.9152
▁canlıları	-10.9164
udu	-10.9167
iyatl	-10.9182
▁nələrə	-10.9199
▁İngiliscədə	-10.9199
▁verməsi	-10.9207
▁reallaşdır	-10.9213
▁Universitet	-10.9218
çası	-10.9239
yanmış	-10.9254
pp	-10.9255
▁iq	-10.9267
eye	-10.9268
apa	-10.9269
ando	-10.9277
▁dizaynerlər	-10.9282
▁Kam	-10.9282
▁nəzarətin	-10.9284
▁Cha	-10.9299
▁genləri	-10.9303
▁soruşu	-10.9321
▁olmağımızı	-10.9327
▁aktyorlu	-10.9343
övrə	-10.9354
▁kompüteri	-10.9355
▁şahinlər	-10.9382
▁bahal	-10.9382
▁qiymətlər	-10.9387
▁Qalaktika	-10.9397
▁atomları	-10.941
▁pal	-10.9415
▁işləyirdi	-10.9423
▁mal	-10.9425
▁modellər	-10.9438
▁təyyarələri	-10.9438
▁limitləri	-10.9453
▁tələbələrin	-10.947
iblər	-10.9471
özün	-10.9475
▁hallarda	-10.9477
ilmek	-10.9481
bət	-10.9489
dünüz	-10.9498
▁gəlmədi	-10.9498
ston	-10.95
▁xərçəngi	-10.9501
▁inkişafın	-10.9501
▁adamlarını	-10.9513
▁qışqır	-10.9514
şin	-10.9515
▁Özün	-10.9516
ig	-10.953
▁parçam	-10.9533
▁Rol	-10.956
▁nəzərin	-10.9561
▁Far	-10.9562
▁Buf	-10.9567
▁bacarma	-10.9568
▁babaları	-10.9572
▁funksiyalar	-10.9575
▁Qızları	-10.9576
▁təməli	-10.9578
▁xaricdə	-10.9582
▁Etmə	-10.9604
▁sər	-10.9616
▁kameralar	-10.9624
ələk	-10.9635
▁önündə	-10.9646
▁sevgim	-10.9649
mas	-10.9658
MC	-10.9668
▁keçirdi	-10.9674
sk	-10.9689
ebo	-10.9692
▁qutusunda	-10.9697
▁ali	-10.9703
▁formalaş	-10.9704
▁ailələr	-10.9708
▁Fleytalar	-10.971
▁yazıçıları	-10.971
lməsi	-10.9716
masam	-10.9721
▁endi	-10.9737
▁yazmağ	-10.9743
▁utanma	-10.9767
▁Bar	-10.9768
▁otura	-10.9773
▁top	-10.9774
▁Tər	-10.978
atında	-10.9781
▁qarşıya	-10.9781
▁müştəriləri	-10.9783
▁Kas	-10.9788
▁yazılmışdı	-10.9793
▁görmədi	-10.9795
▁Agentliyini	-10.9796
▁qarış	-10.9806
▁canlılar	-10.9814
▁danışdığım	-10.9816
▁qalmı	-10.9826
eydi	-10.9838
▁miqyası	-10.984
▁fikirlərini	-10.9856
▁yığdı	-10.9863
▁oturmu	-10.9881
▁Bey	-10.9891
▁qoyaca	-10.9908
cs	-10.9908
▁şəxsləri	-10.9912
▁insanlığı	-10.9917
▁işlədə	-10.992
▁qutuda	-10.9921
▁kimy	-10.9928
▁mövcudluğun	-10.994
▁bağlan	-10.9942
▁üstünlüyü	-10.9951
▁yapış	-10.9953
▁söylədi	-10.9956
▁kanal	-10.9968
▁yağa	-10.9973
duğu	-10.9983
▁qarşısı	-10.9984
▁şüasını	-10.9989
ova	-10.9995
▁Kü	-11
klarını	-11.0005
▁Həbsxana	-11.0006
▁durma	-11.002
cin	-11.0034
▁qaydasın	-11.004
▁xanımı	-11.0042
▁qutuları	-11.0057
nik	-11.0059
▁sahilin	-11.0077
▁söhbətlər	-11.0089
▁zirvəsi	-11.0101
▁texnologiyası	-11.0105
▁Pr	-11.0121
▁görünüşün	-11.0129
▁dəstəklə	-11.0167
▁Sam	-11.0171
▁müharibəsi	-11.0176
▁musiqiçilər	-11.0179
▁növlər	-11.018
ione	-11.018
▁qrupun	-11.0213
▁izlədiyi	-11.0219
▁çıx	-11.023
▁yığır	-11.0236
▁seçki	-11.0247
▁anlat	-11.0254
▁həftələr	-11.0328
▁qaynaqlar	-11.0331
▁Gözə	-11.0346
▁yazılan	-11.035
▁çalışmış	-11.0368
▁oğlun	-11.0373
▁xəritəni	-11.0379
▁dəyişdik	-11.0412
▁mədəniyyətləri	-11.0414
▁dünyası	-11.0415
▁istəmi	-11.0415
▁Dar	-11.0438
erim	-11.0448
▁nöqtəsin	-11.0474
hum	-11.0476
anında	-11.0483
▁Həbsxanada	-11.0484
▁kanallar	-11.0485
nüz	-11.0489
▁iqtisadiyyatı	-11.0491
▁yapışı	-11.0497
▁gecəni	-11.05
vanda	-11.0502
fik	-11.0503
▁qaydalarını	-11.0528
illi	-11.0532
▁Ed	-11.056
▁itkin	-11.0562
▁ifası	-11.058
▁yazılı	-11.0593
▁halqalar	-11.0593
oley	-11.0621
rmi	-11.0627
▁edərsə	-11.0651
▁gəlirləri	-11.0662
▁hazırlamağ	-11.0664
▁Tu	-11.0667
▁yağışın	-11.0674
▁bilməmiş	-11.0678
▁Ruslar	-11.0685
▁sət	-11.0685
▁düşüncələri	-11.0698
▁32	-11.0713
▁yazılmış	-11.0721
▁Kan	-11.0726
ətir	-11.0738
▁gücün	-11.0741
atlar	-11.0749
▁baxışı	-11.0754
▁astronomlar	-11.0778
▁düymələri	-11.0783
ild	-11.0788
▁tərzimi	-11.0793
▁qalaca	-11.0795
▁ayaqqabıları	-11.0796
▁danışacağ	-11.0796
▁Win	-11.0796
men	-11.0808
▁etmədik	-11.0809
▁imtahanları	-11.082
▁genom	-11.0824
▁müştərilər	-11.0829
▁versiyasın	-11.0842
▁bazarı	-11.0846
▁minə	-11.0847
tıl	-11.085
▁ciblər	-11.0855
cur	-11.0871
▁hərəkətlərini	-11.0875
▁məktəblərdə	-11.0888
AT	-11.0895
are	-11.0902
▁bilməyəcəyim	-11.0912
umu	-11.0943
▁yoxlayır	-11.0953
▁xəritələn	-11.0954
▁qiymətlərin	-11.0965
dığında	-11.0971
▁formalaşması	-11.0988
▁genişlənməsin	-11.099
ov	-11.0998
▁çevirmə	-11.1009
məyimizi	-11.1019
▁orqanlar	-11.1021
sü	-11.1047
▁fikirləşdi	-11.1065
▁limit	-11.1098
▁parçaları	-11.1129
▁Universiteti	-11.1144
▁dostlar	-11.1149
məsini	-11.1151
iber	-11.1154
▁yerləşdiri	-11.1166
nde	-11.1172
oyuq	-11.1172
▁Agentliyin	-11.1174
▁tü	-11.1177
▁dağıl	-11.12
oyd	-11.1205
ntiy	-11.1206
▁düzəld	-11.121
tdi	-11.121
▁öyrəndikləri	-11.1215
▁səslərin	-11.1215
▁növün	-11.1218
▁görəcəyi	-11.1222
▁aktyor	-11.123
▁seçdiyi	-11.1234
▁uzaqlaş	-11.1244
▁Muzeyi	-11.125
▁vəzifəsi	-11.1264
▁oxumağı	-11.1276
▁Del	-11.129
▁təcrübəsi	-11.1292
liydi	-11.1294
tonlu	-11.1297
▁şimalı	-11.1306
▁kürəsi	-11.1317
▁qəz	-11.1328
▁oxuyar	-11.1333
laşmaq	-11.1336
▁izi	-11.135
▁bulud	-11.1352
▁qabiliyyətiniz	-11.1355
▁dəyişikliy	-11.1363
▁yumurta	-11.1368
▁qabiliyyətlər	-11.1369
▁bildikləri	-11.1376
▁yazıl	-11.1378
▁göstərdiyi	-11.1412
▁dəyişdiyi	-11.1415
▁atmosferdə	-11.1416
▁İnsan	-11.1436
▁araşdırması	-11.1442
▁hüceyrələri	-11.1446
▁Normal	-11.1459
▁sürfələr	-11.1462
▁kəşfləri	-11.1469
▁sektorun	-11.1469
▁rəq	-11.1473
▁yaratdığımız	-11.148
▁dalğaları	-11.1483
▁soy	-11.1508
▁əyildi	-11.151
▁dəstəyi	-11.1513
▁qurur	-11.1514
larımızı	-11.1515
izim	-11.1516
▁gəlməy	-11.1527
▁evliliy	-11.1549
ev	-11.1553
eden	-11.156
▁Kolleci	-11.1569
▁bacardı	-11.1575
▁düşündüyü	-11.1579
▁Co	-11.158
▁aks	-11.1581
dd	-11.1615
▁sərhəddi	-11.1619
▁müdrikliyi	-11.1622
▁nizaml	-11.1622
▁quruluşun	-11.1623
ifadəsi	-11.1633
mpa	-11.1662
▁fəlakət	-11.1673
▁görməni	-11.1682
▁biləcəkləri	-11.1689
▁maşınları	-11.169
▁Ölkələr	-11.1694
▁İngiliscə	-11.1703
▁uğuru	-11.1703
▁ailəsi	-11.1714
▁yanğın	-11.1719
▁görünüşləri	-11.1721
▁yaxınlaşma	-11.1724
▁seçdiyim	-11.173
laşması	-11.1745
▁paylaşmağ	-11.1749
▁şüalar	-11.1756
▁mənəm	-11.1761
▁şagirdlər	-11.1766
▁Bitki	-11.1779
ünd	-11.1786
▁göstəricilər	-11.1808
▁hin	-11.1816
▁xəritələr	-11.1824
▁yarış	-11.1827
▁çö	-11.1828
▁üstü	-11.1848
▁göstəriciləri	-11.1849
▁ağac	-11.1852
▁qoşuldu	-11.186
▁fotoşəkilin	-11.187
▁gəzər	-11.1882
evin	-11.1902
▁proqramlar	-11.1907
▁effekti	-11.1908
▁öldürü	-11.1919
▁mövcudluğu	-11.1929
▁təşkilatlan	-11.1929
▁alacaq	-11.193
tle	-11.1937
▁Krallı	-11.1944
▁performansl	-11.195
▁uçuşu	-11.1982
▁qoyulu	-11.1988
▁onillik	-11.1991
ankı	-11.1992
▁Nazir	-11.1999
▁versiya	-11.201
▁Har	-11.2012
etini	-11.2016
▁dövrlər	-11.2019
▁ağcaqanad	-11.2024
üc	-11.2028
lent	-11.2035
ürücü	-11.204
▁nazir	-11.2049
▁adları	-11.2058
axa	-11.2058
▁saxlan	-11.2061
▁Fərqi	-11.2068
▁kukla	-11.2081
▁dördü	-11.2086
▁yayımla	-11.2086
▁parçamı	-11.2091
▁mağaza	-11.2092
üklü	-11.2104
▁yorul	-11.2117
▁çevir	-11.2123
▁açıqla	-11.213
ülür	-11.2131
gar	-11.2133
▁kö	-11.2139
▁ağlama	-11.2148
▁Ştat	-11.2148
▁fizi	-11.2149
▁dilləri	-11.215
▁deməyə	-11.2152
▁anladığı	-11.2154
▁aparılı	-11.2165
▁öyrənə	-11.2167
▁məzmun	-11.217
▁gəlməklə	-11.2171
▁təəccüblən	-11.2172
▁nəsli	-11.2173
▁Le	-11.2175
▁rolu	-11.2175
ehrli	-11.2182
▁çay	-11.2188
▁kana	-11.2207
uld	-11.2218
▁lo	-11.2234
var	-11.2234
▁müşahidəsi	-11.2242
▁mühəndislər	-11.2244
▁tarixini	-11.2247
əvaz	-11.2249
▁görməmiş	-11.2251
▁kart	-11.2251
▁arxiv	-11.2257
▁Tanrı	-11.2258
▁inandığı	-11.2264
▁bel	-11.2276
▁bağı	-11.2295
rəsində	-11.2302
quşu	-11.2306
alo	-11.2328
▁qurğu	-11.2335
ığını	-11.2336
▁əhvalat	-11.234
▁elmləri	-11.235
lanması	-11.2351
ləşdirməy	-11.2357
atma	-11.2365
lacaqdı	-11.2366
▁təriflə	-11.2372
▁dalğalar	-11.2372
▁ədəbiyyatı	-11.2374
uldu	-11.2379
▁təmizlə	-11.2383
lığını	-11.2384
▁göstərdiyim	-11.2387
▁əhali	-11.2388
▁ağrısı	-11.2392
▁rəsmlər	-11.2395
▁Görürs	-11.2408
▁rejim	-11.2426
▁tərzini	-11.2442
▁bağça	-11.2446
▁uyğunlaş	-11.2464
▁qon	-11.2464
▁səbəbləri	-11.2464
▁fokus	-11.2466
▁şirkətləri	-11.2484
▁qızları	-11.2488
▁araşdırmanı	-11.25
ımdır	-11.2514
▁almağ	-11.2516
ander	-11.2516
▁xatırlatm	-11.2532
▁gözlənti	-11.2543
məzdi	-11.2544
▁çalışdığı	-11.2554
▁ustad	-11.2555
üzə	-11.2556
▁Sav	-11.256
▁izlədi	-11.256
▁çıxma	-11.2567
▁misiya	-11.2569
▁döy	-11.257
▁çalışanlar	-11.2574
▁qayıd	-11.2575
▁120	-11.2586
baş	-11.2587
▁çiçəkləri	-11.2594
▁rituallar	-11.2594
▁fürsət	-11.2597
60	-11.2605
▁Sp	-11.2607
alım	-11.261
▁doğum	-11.2611
▁növləri	-11.2617
▁Nəy	-11.2618
▁çıxarmağ	-11.2619
▁tərəfləri	-11.2619
▁doldur	-11.2619
▁keçdiyim	-11.2623
▁hissəcik	-11.2625
▁raket	-11.2629
▁roman	-11.2637
▁struktur	-11.2641
yəcəksə	-11.2659
▁ulduzu	-11.2661
▁banklar	-11.2663
▁qaranlığı	-11.2664
laşdı	-11.267
llo	-11.2678
laşmış	-11.2679
▁tanıdığım	-11.2686
▁ölçülə	-11.2686
▁göndərə	-11.2687
▁marağı	-11.2687
sunu	-11.2688
▁axtarma	-11.2691
onlar	-11.2691
▁rica	-11.2693
▁Təşkilat	-11.2699
▁işıqlandırma	-11.2704
▁göndərir	-11.2709
▁imza	-11.2713
lmaz	-11.2714
▁şah	-11.2715
palm	-11.2717
▁istəy	-11.2719
▁topl	-11.2722
▁izləyi	-11.2729
▁parçaların	-11.273
▁fayda	-11.2733
▁enər	-11.2736
▁çatdırı	-11.2742
▁başqaların	-11.2746
əssüf	-11.2747
leştiri	-11.275
▁avtobus	-11.2751
▁professor	-11.2751
▁motiv	-11.2759
işləri	-11.276
iyyətini	-11.276
▁dillə	-11.2766
▁şlyapa	-11.277
▁yazdığı	-11.2776
▁inanı	-11.2781
▁ifşaçı	-11.2783
dükcə	-11.2783
▁oynama	-11.2786
ümüz	-11.2791
▁xəritəsin	-11.2793
▁köç	-11.2794
▁bilmədiyim	-11.2796
özüm	-11.28
▁adamların	-11.2805
ega	-11.2805
siyanı	-11.2809
▁dayanar	-11.2811
ümüzdə	-11.2815
▁tapı	-11.2818
▁içir	-11.2827
▁cəh	-11.2835
oğlu	-11.2838
qurma	-11.2841
▁payla	-11.2843
▁kayb	-11.2846
▁surə	-11.2849
▁daşıyıcı	-11.2853
hər	-11.2855
lider	-11.2855
▁haqqım	-11.2859
▁Yaradıcı	-11.2862
W	-11.2865
▁slayd	-11.2868
16	-11.2868
▁oynadı	-11.2869
19	-11.287
gələn	-11.287
Q	-11.287
biləcək	-11.2872
vaxt	-11.2872
▁uşaqlarımız	-11.2872
G	-11.2872
yerdə	-11.2873
ebilirdi	-11.2875
▁həmkar	-11.2878
stre	-11.2879
▁adlandırı	-11.288
▁Deyi	-11.2882
intili	-11.2886
▁ömrü	-11.289
▁elektro	-11.2893
biri	-11.2897
ilmək	-11.2898
▁psixo	-11.2902
keş	-11.2907
ışda	-11.2909
▁qayğı	-11.2913
iyim	-11.2914
▁qaçar	-11.2914
▁termin	-11.2915
acağımı	-11.2922
▁qəhraman	-11.2922
▁masa	-11.2926
▁daşıyı	-11.2926
▁bədənimi	-11.2931
▁buraxıl	-11.2936
▁uzaqlaşdığı	-11.2937
▁çatması	-11.2938
▁Uşaqları	-11.294
▁pisdi	-11.2942
ğunluq	-11.2943
▁Dost	-11.2943
▁riyaz	-11.2946
▁Kamer	-11.2946
▁Valideyinlər	-11.2952
▁daşla	-11.2954
▁hay	-11.2958
▁gec	-11.2961
çiliyin	-11.2961
rateri	-11.2961
iyib	-11.2965
əyəcanla	-11.2965
▁uzunluğu	-11.2972
pressi	-11.2977
▁təb	-11.2978
▁məsafələr	-11.2978
▁geç	-11.2983
ktoru	-11.2985
▁fe	-11.2985
▁öyrədə	-11.2986
▁Özünü	-11.2988
ləyici	-11.2988
ilişlərində	-11.2991
tmək	-11.2993
şey	-11.2993
ləyəcəklər	-11.2994
tinq	-11.2997
gele	-11.2998
▁Bru	-11.2999
hramanlarım	-11.3
▁işçilərin	-11.3001
▁üzvü	-11.3002
▁tapşır	-11.3004
▁böyüyü	-11.3004
▁küləy	-11.3005
▁küç	-11.3005
▁zorakılı	-11.3006
▁Arx	-11.3007
ikay	-11.3011
ndrom	-11.3011
ebilme	-11.3015
▁düşmü	-11.3017
ktyabr	-11.3017
▁idarəçili	-11.3018
▁qasırğa	-11.3018
▁götürmüş	-11.302
▁metodu	-11.302
▁partlay	-11.3021
▁rəhm	-11.3021
olland	-11.3022
▁blog	-11.3024
ördüklərimiz	-11.3024
muzda	-11.3024
▁dəhşət	-11.3025
▁çalışdığım	-11.3026
azası	-11.3027
▁düzdü	-11.3029
▁münasib	-11.3029
ərd	-11.303
▁xal	-11.3031
llah	-11.3032
işti	-11.3032
▁bağışlay	-11.3032
strat	-11.3033
▁Məsəl	-11.3033
ədbəxtlik	-11.3033
▁çəkildi	-11.3034
▁əlimi	-11.3035
▁değiştir	-11.3035
▁Dəyiş	-11.3036
axışı	-11.3036
istem	-11.3036
ibliya	-11.3037
▁bəy	-11.3038
nternet	-11.3039
▁Kimliyimi	-11.3039
ələbə	-11.304
pace	-11.304
yyatı	-11.304
çəridə	-11.304
ördü	-11.304
ermostat	-11.3041
▁şekillendir	-11.3042
üzakirə	-11.3042
ətbuat	-11.3042
itab	-11.3042
ssas	-11.3042
nstitut	-11.3042
yaqlarımı	-11.3042
əkamül	-11.3042
▁İçin	-11.3042
pələn	-11.3043
▁telesko	-11.3043
▁qabağ	-11.3043
əşf	-11.3043
▁Televiz	-11.3043
▁yön	-11.3044
lövh	-11.3044
▁qrammat	-11.3044
▁Meteor	-11.3044
otoşəkillər	-11.3044
agirdləri	-11.3044
▁Univ	-11.3044
htimalla	-11.3045
ulyasiya	-11.3045
▁Ölçü	-11.3045
eyim	-11.3045
rinsip	-11.3045
etropoli	-11.3045
▁doğuldu	-11.3045
▁ticar	-11.3045
alehedici	-11.3045
rofessional	-11.3045
▁değiş	-11.3045
▁Fikir	-11.3046
▁müdrik	-11.3046
əsarət	-11.3046
ideo	-11.3046
▁Termina	-11.3046
▁uzaklık	-11.3046
▁büyüklü	-11.3046
nstruksiya	-11.3046
teknoloji	-11.3046
▁Qardaş	-11.3046
▁Yumurta	-11.3046
▁göyərtə	-11.3046
▁inqilab	-11.3046
▁konsept	-11.3046
▁modifi	-11.3046
▁operator	-11.3046
enişliyi	-11.3046
ikipediya	-11.3046
yordu	-11.3046
ülasyon	-11.3046
▁Dəhşət	-11.3046
▁Kitabxana	-11.3046
▁Lüğət	-11.3046
▁Norveç	-11.3046
▁Nömrə	-11.3046
▁Qrupun	-11.3046
▁Sərdabələri	-11.3046
▁Yavaşlay	-11.3046
▁afalla	-11.3046
▁basitleşti	-11.3046
▁drift	-11.3046
▁ekosisteml	-11.3046
▁infilyasiya	-11.3046
▁izlete	-11.3046
▁leksikoqraf	-11.3046
▁mikrodalğa	-11.3046
▁partikülleri	-11.3046
▁prestij	-11.3046
▁qohumların	-11.3046
▁qorilla	-11.3046
▁qravitasiya	-11.3046
▁rütubət	-11.3046
▁sevdiklərim	-11.3046
▁tədbirlər	-11.3046
▁təntənə	-11.3046
▁təşvi	-11.3046
▁verilməməsi	-11.3046
▁veteran	-11.3046
▁çoban	-11.3046
▁ödəniş	-11.3046
▁öngörü	-11.3046
▁şiddət	-11.3046
abilitasiya	-11.3046
isenziya	-11.3046
tereotiplər	-11.3046
trino	-11.3046
əbiristanlı	-11.3046
▁Adenike	-11.3046
▁Arizona	-11.3046
▁Assosiasiyası	-11.3046
▁Beatris	-11.3046
▁Cihaz	-11.3046
▁Concord	-11.3046
▁Demokrat	-11.3046
▁Direktor	-11.3046
▁Enerji	-11.3046
▁Federasiyasın	-11.3046
▁Fevral	-11.3046
▁Jeff	-11.3046
▁Kahka	-11.3046
▁Kembric	-11.3046
▁Klaviatura	-11.3046
▁Kolumbiya	-11.3046
▁Kompleks	-11.3046
▁Mapmaker	-11.3046
▁Mağaza	-11.3046
▁Mesaj	-11.3046
▁Müharibə	-11.3046
▁Nepal	-11.3046
▁Peyğəmbər	-11.3046
▁Pikasso	-11.3046
▁Qəbul	-11.3046
▁Razılaşdı	-11.3046
▁Sayborq	-11.3046
▁Stanford	-11.3046
▁Teatr	-11.3046
▁Teleskobu	-11.3046
▁Teleskop	-11.3046
▁Thatcher	-11.3046
▁Valideynlərimi	-11.3046
▁Velosipedi	-11.3046
▁White	-11.3046
▁William	-11.3046
▁Yeməkxana	-11.3046
▁Yunanıstan	-11.3046
▁alqoritm	-11.3046
▁animasiyası	-11.3046
▁apartayd	-11.3046
▁arvadı	-11.3046
▁avropa	-11.3046
▁bölünmə	-11.3046
▁bürüyür	-11.3046
▁bəhanə	-11.3046
▁döyüntü	-11.3046
▁döyüşçü	-11.3046
▁dözülməz	-11.3046
▁epidemi	-11.3046
▁fırlatma	-11.3046
▁gerçəy	-11.3046
▁görelilik	-11.3046
▁havzalar	-11.3046
▁hidrotermal	-11.3046
▁hündürdaban	-11.3046
▁irqçi	-11.3046
▁irtifa	-11.3046
▁karmaşıkl	-11.3046
▁klaviatura	-11.3046
▁kredit	-11.3046
▁müqavi	-11.3046
▁məntəqələri	-11.3046
▁mənşəyi	-11.3046
▁narazı	-11.3046
▁naşirim	-11.3046
▁nükleusları	-11.3046
▁nümayəndələri	-11.3046
▁nəsihətlər	-11.3046
▁paradoks	-11.3046
▁partlatma	-11.3046
▁patlama	-11.3046
▁populyar	-11.3046
▁printeriniz	-11.3046
▁prioritet	-11.3046
▁prosses	-11.3046
▁pıçılday	-11.3046
▁qarşısıalınmaz	-11.3046
▁qoxu	-11.3046
▁qəhrəman	-11.3046
▁rifah	-11.3046
▁rəqqas	-11.3046
▁santigra	-11.3046
▁sivilizasiya	-11.3046
▁skripka	-11.3046
▁statitika	-11.3046
▁sıfır	-11.3046
▁sızıntı	-11.3046
▁səsyazma	-11.3046
▁tendensiya	-11.3046
▁turşu	-11.3046
▁təmkinli	-11.3046
▁tərəfadarı	-11.3046
▁təxribat	-11.3046
▁valideyinləri	-11.3046
▁yaddaşımızda	-11.3046
▁yaddaşımızı	-11.3046
▁yarımdairə	-11.3046
▁yeməkxana	-11.3046
▁Ömrünü	-11.3046
▁çarmıx	-11.3046
▁ödüllendir	-11.3046
▁ödəyə	-11.3046
▁ömür	-11.3046
▁ördək	-11.3046
▁öğretmenler	-11.3046
▁İdarəsi	-11.3046
▁şifrəsi	-11.3046
▁Doug	-11.3046
▁arzuladığım	-11.3046
▁bacım	-11.3046
▁qamışlarda	-11.3046
oriyası	-11.3046
▁Antarkti	-11.3046
▁Müvəffəqiyyət	-11.3046
▁Nebula	-11.3046
▁Proqramı	-11.3046
▁Sahara	-11.3046
▁Saqqal	-11.3046
▁Sterlin	-11.3046
▁Unut	-11.3046
▁dırnaqlarım	-11.3046
▁dəhliz	-11.3046
▁eksperiment	-11.3046
▁etkilen	-11.3046
▁geliştir	-11.3046
▁heyecanl	-11.3046
▁hündürlüyü	-11.3046
▁həvəsləndir	-11.3046
▁idarəetmə	-11.3046
▁impotent	-11.3046
▁ixrac	-11.3046
▁körpü	-11.3046
▁magistra	-11.3046
▁metafor	-11.3046
▁missiyalar	-11.3046
▁mühakimə	-11.3046
▁müstəmləkə	-11.3046
▁müğən	-11.3046
▁məftun	-11.3046
▁nüsxə	-11.3046
▁ovucu	-11.3046
▁qayığ	-11.3046
▁qurulmuş	-11.3046
▁sivil	-11.3046
▁studiya	-11.3046
▁sığış	-11.3046
▁səlahiyyət	-11.3046
▁tempraturu	-11.3046
▁tragediya	-11.3046
▁violonçel	-11.3046
▁yamsılan	-11.3046
▁yoğunluk	-11.3046
▁Çalış	-11.3046
diğimiz	-11.3046
rımkürəsi	-11.3046
ölməçə	-11.3046
▁Atomlar	-11.3046
▁Jacqu	-11.3046
▁Kerala	-11.3046
▁Russell	-11.3046
▁aparıcı	-11.3046
▁mimarlar	-11.3046
▁tarazlıq	-11.3046
▁təbliğ	-11.3046
▁Ərazi	-11.3046
ldoz	-11.3046
ratoriya	-11.3046
rokuror	-11.3046
trakt	-11.3046
▁ayağındakı	-11.3046
▁fiqur	-11.3046
▁variant	-11.3046
▁ekvator	-11.3046
▁fırlad	-11.3046
▁qırx	-11.3046
atareya	-11.3046
▁Kusto	-11.3046
▁Risk	-11.3046
▁durdurur	-11.3046
▁gluon	-11.3046
▁tunel	-11.3046
tual	-11.3046
▁Qaydalar	-11.3046
▁dırmaş	-11.3046
▁yamsılama	-11.3046
parta	-11.3046
▁değil	-11.3046
▁dolayı	-11.3046
▁fayllar	-11.3046
▁münasibətin	-11.3046
▁naqilin	-11.3046
▁sehir	-11.3046
▁terap	-11.3046
▁çarx	-11.3046
▁ölçerse	-11.3046
▁Şirkəti	-11.3046
egel	-11.3046
lamaktı	-11.3046
▁bölmə	-11.3046
▁konuşma	-11.3046
▁motor	-11.3046
▁müdrük	-11.3046
▁qovlu	-11.3046
▁uçtu	-11.3046
▁yaranmasını	-11.3046
▁önümd	-11.3046
▁əsəbi	-11.3046
▁Aerona	-11.3046
▁Cohen	-11.3046
▁Stand	-11.3046
▁Terminalında	-11.3046
▁dördbuca	-11.3046
▁keşfetmemiz	-11.3046
▁macəra	-11.3046
▁tarazlığın	-11.3046
▁əngəllə	-11.3046
▁Taksini	-11.3046
▁cəzalandır	-11.3046
▁fərqlənir	-11.3046
▁pendir	-11.3046
▁pişikd	-11.3046
▁rota	-11.3046
▁Tort	-11.3046
▁Vaxt	-11.3046
▁benze	-11.3046
▁blok	-11.3046
▁fanta	-11.3046
osfer	-11.3046
▁ağzı	-11.3046
▁vəhşi	-11.3046
rect	-11.3046
▁etməyəcəyini	-11.3046
eziyada	-11.3046
▁Black	-11.3046
▁odaklan	-11.3046
▁Romanımda	-11.3046
▁öp	-11.3046
aştırma	-11.3046
▁endirdik	-11.3046
▁interval	-11.3046
▁qurbanları	-11.3046
▁ulaş	-11.3046
▁yığımlar	-11.3046
▁Düşmən	-11.3046
▁menus	-11.3046
▁neyronlar	-11.3046
▁sövdə	-11.3046
▁Təhlükə	-11.3046
▁törədilənlər	-11.3046
▁şərh	-11.3046
▁taksi	-11.3046
▁Yaradılış	-11.3046
▁hünülər	-11.3046
▁köpük	-11.3046
▁Yapon	-11.3046
▁tortu	-11.3046
▁işğal	-11.3046
▁zəmanət	-11.3046
▁zəhmət	-11.3046
astro	-11.3046
▁Təkrar	-11.3046
▁meyilli	-11.3046
▁yapıl	-11.3046
▁zərbə	-11.3046
▁eşidər	-11.3046
▁uzanan	-11.3046
▁yorucu	-11.3046
▁fokuslanmaq	-11.3046
▁çıxardırıq	-11.3046
▁əyləşi	-11.3046
tumun	-11.3046
▁serial	-11.3046
▁Harold	-11.3046
▁uyduları	-11.3046
▁Ətrafınız	-11.3046
ndaşla	-11.3046
▁buferləri	-11.3046
▁şax	-11.3046
▁Tikal	-11.3046
▁izlənmə	-11.3046
▁klav	-11.3046
▁peyğımbər	-11.3046
▁kəpənəklər	-11.3046
▁təəccüb	-11.3046
▁Komputeri	-11.3046
▁Səth	-11.3046
▁Kənar	-11.3046
▁dözə	-11.3046
▁hip	-11.3046
▁gerçek	-11.3046
▁resursları	-11.3046
▁böyütmək	-11.3046
▁razılaşır	-11.3046
▁Dərk	-11.3046
▁avadanlıqları	-11.3046
▁olmayacağını	-11.3046
▁tozlandırıcılar	-11.3046
▁tasar	-11.3046
▁İmkan	-11.3046
▁Dehli	-11.3046
▁Gələcə	-11.3046
▁qoymuşdu	-11.3046
üzyon	-11.3046
▁İnternetdə	-11.3046
▁paketi	-11.3046
▁türk	-11.3046
▁çevrə	-11.3047
▁Cinayət	-11.3047
▁Texnik	-11.3047
▁Albert	-11.3047
▁Maaş	-11.3047
değer	-11.3047
▁təmir	-11.3047
▁firma	-11.3047
▁Əşya	-11.3047
▁toxunduğu	-11.3047
▁İspaniya	-11.3047
▁Live	-11.3047
axlamış	-11.3047
▁bezdir	-11.3047
tamay	-11.3047
▁fark	-11.3047
▁Aqua	-11.3047
▁Masailər	-11.3047
▁getdiyimdə	-11.3047
▁tətil	-11.3047
ıydı	-11.3047
▁görkəm	-11.3047
▁gücləndirmək	-11.3047
▁prosessor	-11.3047
ruslar	-11.3047
▁yüzyıl	-11.3047
▁doğulduğu	-11.3047
▁Yaratdığ	-11.3047
▁pyes	-11.3047
▁öldüyü	-11.3047
▁lütf	-11.3047
▁nəfs	-11.3047
▁Ölçüsün	-11.3047
məkhaq	-11.3047
▁humanist	-11.3047
▁razılaşdı	-11.3047
▁Gəlmə	-11.3047
▁döş	-11.3047
▁seçici	-11.3047
atçısın	-11.3047
pertlər	-11.3047
▁koloni	-11.3047
▁ömrünü	-11.3047
oyabr	-11.3047
▁yaxşılaşma	-11.3047
▁füs	-11.3047
▁arzumuz	-11.3047
▁çağırış	-11.3047
▁eqoizm	-11.3047
▁öyə	-11.3047
▁köçür	-11.3047
▁olunmur	-11.3047
▁Ceff	-11.3047
▁Tibetd	-11.3047
▁məhdudlaş	-11.3047
inasiyalar	-11.3047
▁döyür	-11.3047
▁yörüngemiz	-11.3047
▁mülkiyyət	-11.3047
▁doldurmalı	-11.3047
▁məskunlaşm	-11.3047
▁heçkəs	-11.3047
▁təqaüd	-11.3047
▁tənqid	-11.3048
▁gösteriyor	-11.3048
▁əzmi	-11.3048
▁kapitalist	-11.3048
▁oyunçu	-11.3048
▁leş	-11.3048
▁mehriban	-11.3048
▁çəkilmə	-11.3048
▁bucağı	-11.3048
▁hör	-11.3048
▁sevindir	-11.3048
əzakətl	-11.3048
▁Audi	-11.3048
▁Sufizm	-11.3048
olej	-11.3048
▁geriləmə	-11.3048
▁keyfiyyəti	-11.3048
▁komputer	-11.3048
▁barbar	-11.3048
▁küçələrin	-11.3048
▁konstitusiya	-11.3048
▁fars	-11.3048
▁lövhə	-11.3048
▁tutulmuş	-11.3048
beklen	-11.3048
▁çillər	-11.3048
▁kaset	-11.3048
▁Göy	-11.3048
▁Matter	-11.3048
▁materik	-11.3048
xem	-11.3048
tirebil	-11.3048
▁Conson	-11.3048
▁aclığ	-11.3048
▁Televizor	-11.3048
▁məntiq	-11.3048
▁taxta	-11.3048
▁cibimdə	-11.3048
▁bəxş	-11.3048
▁qis	-11.3048
▁hiylə	-11.3048
▁zədələr	-11.3048
▁Bacılarımı	-11.3049
▁çıxmışdı	-11.3049
quqları	-11.3049
▁qələbə	-11.3049
▁vəsait	-11.3049
▁Ağıll	-11.3049
▁mesajlaşm	-11.3049
▁pozul	-11.3049
▁yaratsın	-11.3049
▁illüm	-11.3049
▁hiyləgərli	-11.3049
▁Anceles	-11.3049
iliği	-11.3049
▁cəza	-11.3049
▁gətirmişdi	-11.3049
əmmət	-11.3049
▁Samanyolu	-11.3049
▁çalışqan	-11.3049
▁patentlə	-11.3049
▁yardımçı	-11.3049
▁qırıq	-11.3049
▁mümkündü	-11.3049
▁dəyişmir	-11.3049
▁nötr	-11.3049
▁hesabatlarını	-11.3049
▁istiləndi	-11.305
▁tədqiqatçıları	-11.305
▁Henr	-11.305
▁açılma	-11.305
▁Kəndimizdə	-11.305
▁Yazıçılıq	-11.305
▁qorxmay	-11.305
▁öğret	-11.305
▁Yunan	-11.305
▁qoymur	-11.305
▁Səmada	-11.305
▁boşluğu	-11.305
▁adlandırılmış	-11.305
▁rənglən	-11.305
▁fikirləşməmişdi	-11.305
▁mətbəx	-11.305
▁İrq	-11.305
▁şekillendiril	-11.305
▁görüntüsün	-11.305
aşqınl	-11.305
▁impl	-11.305
▁Nuh	-11.305
▁arzusunda	-11.305
▁törəmələr	-11.305
atçıları	-11.305
▁Buddalar	-11.305
▁materialist	-11.305
▁sürtü	-11.305
ediyor	-11.305
▁istehsalçı	-11.305
▁termostat	-11.305
try	-11.3051
tılıyor	-11.3051
▁Sheph	-11.3051
▁gücləndi	-11.3051
▁tarla	-11.3051
▁öyrəş	-11.3051
▁görsənir	-11.3051
▁sevilir	-11.3051
▁Turn	-11.3051
üzyıl	-11.3051
▁parıl	-11.3051
▁oluş	-11.3051
▁bəxti	-11.3051
▁etkileşme	-11.3051
▁Hərşey	-11.3051
▁getməyimizi	-11.3051
▁mənbəyi	-11.3051
▁ofis	-11.3051
▁soruşmuş	-11.3051
etmedi	-11.3051
▁bənzətmə	-11.3051
▁kəsilmə	-11.3052
▁cinsiyyət	-11.3052
▁torna	-11.3052
▁verildiyini	-11.3052
▁valideynlərim	-11.3052
▁qıra	-11.3052
▁cont	-11.3052
▁roke	-11.3052
▁cavablandır	-11.3052
▁xalaları	-11.3052
▁gərgin	-11.3052
▁göstərsəydi	-11.3052
▁evrim	-11.3052
▁yönlendirilm	-11.3052
▁Harv	-11.3052
▁hazırlaşırdı	-11.3052
▁qaraj	-11.3052
▁varlığından	-11.3052
▁ağırlaş	-11.3052
▁qarışığı	-11.3053
ləcəkdi	-11.3053
▁Fikirləşir	-11.3053
lly	-11.3053
▁səfehlik	-11.3053
▁irqin	-11.3053
çülü	-11.3053
▁alıcılar	-11.3053
gulam	-11.3053
▁yanınızda	-11.3053
▁formalaşdırı	-11.3053
▁telefonumuzu	-11.3053
anmış	-11.3053
▁ilanq	-11.3053
▁qütbün	-11.3053
▁İstəyir	-11.3053
rfo	-11.3053
▁Qızıl	-11.3053
▁yetər	-11.3054
▁təxəyyülü	-11.3054
▁örtür	-11.3054
▁genlərimizi	-11.3054
▁makina	-11.3054
ladık	-11.3054
▁iqti	-11.3054
▁mələk	-11.3054
▁eğitti	-11.3054
▁üfürmək	-11.3054
▁Hern	-11.3054
şarc	-11.3054
mayacak	-11.3054
▁West	-11.3055
▁çalıcı	-11.3055
▁yavaşlat	-11.3055
▁bacarığımız	-11.3055
▁gördüyümü	-11.3055
▁itirdiyiniz	-11.3055
▁seçəcək	-11.3055
▁çabala	-11.3055
▁bitəndə	-11.3055
ahət	-11.3055
şağı	-11.3055
▁Kumullar	-11.3055
▁emosiya	-11.3055
▁xao	-11.3055
ütf	-11.3055
▁başlamağın	-11.3055
▁qəh	-11.3056
▁Bip	-11.3056
▁satmaq	-11.3056
▁Braun	-11.3056
▁umursama	-11.3056
▁sayılır	-11.3056
▁mö	-11.3056
▁Əyləncə	-11.3056
▁dəyişik	-11.3056
terik	-11.3056
▁inanıl	-11.3056
▁parlam	-11.3056
tıcı	-11.3057
▁törəyi	-11.3057
arter	-11.3057
▁tutulur	-11.3057
▁zər	-11.3057
ffaf	-11.3057
▁soruşduğu	-11.3057
▁çətinləşdirir	-11.3057
▁dağıtma	-11.3057
▁188	-11.3057
▁kifayətlənmə	-11.3057
▁cəmiyyətimizdə	-11.3057
▁tənliy	-11.3057
loni	-11.3057
əsvermə	-11.3057
ogh	-11.3057
▁köşkü	-11.3058
▁99	-11.3058
▁ağlayardı	-11.3058
▁buraxacaq	-11.3058
▁Keplər	-11.3058
▁qoşulacaq	-11.3058
▁Gələcəkdə	-11.3058
▁güldü	-11.3058
▁oditoryum	-11.3058
iymiş	-11.3058
▁Slo	-11.3058
▁durum	-11.3058
▁uzaqlaşdırmaq	-11.3059
▁yükləy	-11.3059
▁tutmasını	-11.3059
▁vurur	-11.3059
▁çıl	-11.3059
▁Dəyişikliyi	-11.3059
▁mexanik	-11.3059
▁Manh	-11.3059
▁uçurum	-11.3059
▁hazırlamağımız	-11.306
▁bişe	-11.306
▁dostluq	-11.306
zaları	-11.306
▁vak	-11.306
▁sürmək	-11.306
▁pilləkən	-11.306
▁düşündürü	-11.306
▁göstərmir	-11.306
▁eqonuz	-11.3061
▁asanlaşdır	-11.3061
▁oturacağı	-11.3061
▁fut	-11.3061
▁psixologiyası	-11.3061
menti	-11.3061
▁yönləndir	-11.3061
yariya	-11.3061
▁təəccüblənmiş	-11.3061
▁Qorxu	-11.3061
▁normaların	-11.3062
▁Sahi	-11.3062
▁Kö	-11.3062
arçacıq	-11.3062
▁münasibətim	-11.3062
▁yoxlanı	-11.3062
▁Carl	-11.3062
▁adlandırdığı	-11.3062
▁sezi	-11.3062
▁şəbəkəmiz	-11.3062
▁böyümək	-11.3062
▁tiki	-11.3063
▁tapacağı	-11.3063
▁Aralarında	-11.3063
illətlər	-11.3063
▁Səhv	-11.3063
dlarımızı	-11.3063
layabilir	-11.3063
▁damarları	-11.3063
▁Pul	-11.3063
▁araştırma	-11.3063
lığımızda	-11.3064
▁tanınmışdı	-11.3064
▁quyusu	-11.3064
▁ağıllar	-11.3064
▁Planetarisini	-11.3064
▁asırdı	-11.3064
▁müx	-11.3064
çəsi	-11.3064
▁Nənəsi	-11.3064
▁başlatdığı	-11.3064
▁alabil	-11.3064
▁tamamlama	-11.3064
▁edəbiləcək	-11.3064
alanmalar	-11.3064
▁tozluq	-11.3065
▁Xahi	-11.3065
▁gəzdirmə	-11.3065
çular	-11.3065
▁yelpik	-11.3065
▁oyad	-11.3065
▁qanunvericilik	-11.3065
▁dəyişim	-11.3065
▁ekle	-11.3065
▁geo	-11.3065
koti	-11.3065
▁Açıq	-11.3066
▁bəyənm	-11.3066
▁birləşdirib	-11.3066
▁predmetdir	-11.3066
▁qurmalı	-11.3066
eter	-11.3066
▁dilimində	-11.3066
▁bölüşdür	-11.3066
obotu	-11.3067
xara	-11.3067
▁quruldu	-11.3067
▁Tayl	-11.3067
▁Doğrudur	-11.3067
▁qaldırmağ	-11.3067
▁törət	-11.3067
▁yansım	-11.3068
▁blogçu	-11.3068
▁Sənətkar	-11.3068
▁azalı	-11.3069
▁Xatırlayı	-11.3069
▁Dig	-11.3069
▁hissəciy	-11.3069
▁cəhdlərini	-11.3069
▁Smo	-11.3069
▁hazırlanmışdı	-11.3069
▁ərazisində	-11.307
▁Qazı	-11.307
▁asdıq	-11.307
▁Inanı	-11.307
▁dəstəkləmi	-11.307
▁alqışlay	-11.307
▁İtir	-11.3071
▁dönmək	-11.3071
▁yığıl	-11.3072
▁seçimi	-11.3072
▁zəh	-11.3072
▁yoxluğu	-11.3072
▁bəsləyə	-11.3072
oncu	-11.3072
▁karşılaştırı	-11.3073
▁kraliça	-11.3073
AS	-11.3073
▁Həbs	-11.3073
▁cibinli	-11.3073
wei	-11.3073
▁sağlamlığı	-11.3073
▁dəriniz	-11.3074
▁DC	-11.3074
▁hərşey	-11.3074
yıcı	-11.3074
▁qalmışdı	-11.3074
▁olmasaydı	-11.3074
▁bildirdi	-11.3074
▁satış	-11.3074
▁qabiliyyətimiz	-11.3075
▁dayaz	-11.3075
▁CN	-11.3075
apını	-11.3075
təşəkk	-11.3075
▁götürmüşdü	-11.3076
▁balıq	-11.3076
yalın	-11.3076
iten	-11.3076
▁azalıb	-11.3076
əngində	-11.3077
▁olunduqda	-11.3077
▁baxmağımız	-11.3077
▁zorlama	-11.3077
▁qırıqlığın	-11.3077
▁cəmlə	-11.3078
▁caz	-11.3078
▁iliş	-11.3078
▁ağard	-11.3078
mbiya	-11.3078
▁Ciy	-11.3078
▁eşitmiş	-11.3079
▁katib	-11.308
mişlerdi	-11.308
▁təhl	-11.308
▁Boş	-11.3081
hiş	-11.3081
▁tara	-11.3081
dekileri	-11.3081
▁sülhü	-11.3081
▁donu	-11.3081
▁ahəng	-11.3081
▁Indi	-11.3082
▁dükan	-11.3082
▁dəstəsi	-11.3082
▁Masa	-11.3082
eyle	-11.3082
icero	-11.3083
▁dırnağı	-11.3083
ərəkət	-11.3083
stat	-11.3083
▁Cent	-11.3083
▁gor	-11.3084
ağım	-11.3084
▁Mak	-11.3084
▁Azadlığı	-11.3085
▁neu	-11.3085
▁mühəndisliyi	-11.3085
▁əsgər	-11.3085
▁aralıd	-11.3085
▁endiyi	-11.3086
▁zorakılığı	-11.3086
▁42	-11.3086
siyyət	-11.3086
▁anlayaca	-11.3086
▁mey	-11.3086
▁məx	-11.3086
uper	-11.3086
▁çıxmaz	-11.3087
▁toplaşı	-11.3087
▁yaradıcılığ	-11.3087
▁böyüyür	-11.3088
▁pas	-11.3088
tter	-11.3089
▁Həyatınızı	-11.3089
▁diplomu	-11.3089
▁23	-11.309
▁üzvünü	-11.309
▁ex	-11.309
▁xatırlamaq	-11.309
ineral	-11.309
▁görünmək	-11.309
▁müzakirəmiz	-11.3091
▁İsland	-11.3091
andel	-11.3091
▁xoşlam	-11.3091
▁bacarıqlar	-11.3091
▁sehrl	-11.3091
▁azaltma	-11.3091
▁kum	-11.3091
▁küncün	-11.3091
▁sağol	-11.3091
▁qaçmış	-11.3092
▁həmkarımız	-11.3092
▁Coz	-11.3092
▁bölüş	-11.3092
▁küçəsi	-11.3092
idge	-11.3093
▁müştərisi	-11.3093
▁komik	-11.3093
çimizdə	-11.3093
▁hadisəsində	-11.3093
etimiz	-11.3093
▁Ovçul	-11.3094
lanma	-11.3094
▁küləyin	-11.3094
ofe	-11.3095
▁gəzdiri	-11.3095
▁Kara	-11.3095
▁mənzili	-11.3095
atur	-11.3096
▁şanslı	-11.3096
▁durduğu	-11.3097
▁Bədən	-11.3097
▁həndəsə	-11.3097
▁vacibliyin	-11.3097
▁sərhədlərini	-11.3098
▁izləyəcək	-11.3099
▁heli	-11.3099
▁fikirləşmiş	-11.3099
▁Qut	-11.3099
▁avia	-11.3099
▁yapışdırma	-11.3101
▁Kent	-11.3101
▁əksər	-11.3102
▁pozğunlu	-11.3103
▁qurtara	-11.3103
bbi	-11.3104
▁qığılcımı	-11.3104
▁tərəfdarı	-11.3104
▁dinləyər	-11.3105
▁Avia	-11.3105
▁Cümlə	-11.3105
▁dərisin	-11.3106
▁tozu	-11.3106
▁ayırmır	-11.3107
▁nişa	-11.3108
▁dağları	-11.3108
finiz	-11.3108
▁Afrikalılar	-11.3108
▁atomlar	-11.3108
▁getməmiş	-11.3108
▁gözlemle	-11.3109
▁yandır	-11.3109
▁bərabərliyi	-11.3109
▁sens	-11.311
▁Çoxunuz	-11.311
▁məsk	-11.311
dendr	-11.3112
▁yolumu	-11.3112
maqneti	-11.3113
ech	-11.3113
ğim	-11.3113
rub	-11.3113
▁Duy	-11.3113
▁sürür	-11.3114
inja	-11.3114
▁qalxması	-11.3116
▁depres	-11.3116
ediya	-11.3117
acısı	-11.3117
▁qisimini	-11.3118
▁anlatama	-11.3118
▁qonaq	-11.3119
▁söylədik	-11.3119
yabileceğimiz	-11.3119
▁Tok	-11.3119
uck	-11.312
▁faza	-11.312
▁yaramır	-11.312
▁sevildiyi	-11.3122
▁fəaliyyətlərin	-11.3122
▁gözəlliyi	-11.3122
▁vir	-11.3124
▁çalışmır	-11.3124
▁elan	-11.3124
▁siyasətçi	-11.3124
rmada	-11.3124
enös	-11.3124
▁Gedi	-11.3124
▁birləşməsi	-11.3124
▁Qre	-11.3125
▁seçm	-11.3127
▁Tür	-11.3129
▁öldürməyə	-11.3129
▁qaldırdı	-11.3131
▁xeyirli	-11.3131
atlarını	-11.3131
▁düşməsini	-11.3132
▁kes	-11.3135
▁inanmaq	-11.3135
▁Eg	-11.3136
tten	-11.3137
▁devi	-11.3137
▁CS	-11.3138
▁dağıdıl	-11.3139
▁Saç	-11.3139
▁rahatla	-11.3139
abrik	-11.3139
ketin	-11.314
▁Valideyinlərim	-11.314
▁davası	-11.3141
ləyicilər	-11.3141
▁OM	-11.3142
▁böcəklər	-11.3143
▁izləyiciləri	-11.3144
▁Ortada	-11.3144
▁Uzaqlaş	-11.3146
lerimizde	-11.3147
▁duyğuları	-11.3147
▁yaşayıram	-11.3147
▁sevinə	-11.3147
▁seçməyi	-11.3148
▁uzaqlaşdır	-11.3149
▁We	-11.3149
▁öyrədəcə	-11.3151
▁qəlbini	-11.3153
▁inandığım	-11.3153
▁müxtəlifliyi	-11.3153
▁güzgüsü	-11.3154
ğe	-11.3155
▁Əsgərl	-11.3157
▁şifrələni	-11.3157
erlərdə	-11.316
▁qalması	-11.3163
ilasediciləri	-11.3163
▁qapısını	-11.3164
▁ağzım	-11.3164
▁sürətləndirmə	-11.3165
▁AC	-11.3165
▁yapm	-11.3165
▁bükü	-11.3165
▁deney	-11.3166
ces	-11.3166
▁etməyəcək	-11.3166
serve	-11.3167
▁əlil	-11.3167
▁oğlumuz	-11.3167
▁uşaqlığını	-11.3169
▁yaradacağı	-11.317
▁məhsullarımız	-11.3173
▁Mit	-11.3173
▁gözlərimi	-11.3174
▁buraxılan	-11.3175
▁idarəçiliyi	-11.3175
▁yoxsullu	-11.3175
▁sevər	-11.3176
ahzadə	-11.3176
▁işlədik	-11.3176
atacağı	-11.3177
▁açmaq	-11.3177
▁Hol	-11.3177
fımız	-11.3178
▁termina	-11.3178
▁örtülü	-11.3179
▁geçir	-11.3179
eyvənd	-11.3179
▁nəsillərin	-11.318
▁sağald	-11.318
▁yaşlarında	-11.3184
ışlar	-11.3185
▁görünsə	-11.3185
▁Tab	-11.3186
ecekti	-11.3188
▁qazanırlar	-11.3189
▁olmadıq	-11.319
▁ağlayar	-11.319
▁anları	-11.3191
ugw	-11.3191
cıl	-11.3193
▁qayğısın	-11.3194
▁bioloq	-11.3194
▁Ölümlərin	-11.3194
▁iyun	-11.3195
▁edəcəyimi	-11.3195
▁Key	-11.3198
▁girdiyin	-11.3198
▁gerçəkləşdi	-11.3201
kulumu	-11.3201
anali	-11.3203
▁döndük	-11.3206
iyyətli	-11.3206
▁etkileşi	-11.3207
▁axtardığı	-11.3207
▁gölü	-11.3208
▁çarpmayaca	-11.321
▁Mək	-11.3214
sor	-11.3214
▁ekstr	-11.3215
▁Bina	-11.3216
▁Amerikanları	-11.3217
▁keçsə	-11.3217
▁oxuyurdu	-11.3217
▁Alb	-11.3217
minist	-11.3217
▁addımları	-11.3219
▁Lanka	-11.322
▁doyu	-11.3222
▁mak	-11.3222
miyoru	-11.3224
uto	-11.3227
▁xatırlayar	-11.3227
▁inamım	-11.3227
▁Metropolit	-11.3227
▁mövzusunu	-11.3228
▁tanıyar	-11.323
▁serpiştir	-11.3231
▁qəb	-11.3231
ahren	-11.3232
▁xatırladır	-11.3232
▁slaydlar	-11.3232
uard	-11.3234
eros	-11.3235
▁almaları	-11.3235
rop	-11.3235
▁planla	-11.3236
▁proyektini	-11.3236
▁dərslərdən	-11.3237
▁təəccüblənm	-11.3243
▁yaxşılaşdır	-11.3244
▁ikisini	-11.3244
▁müəllimlə	-11.3244
rial	-11.3245
face	-11.3248
▁stu	-11.3248
▁kaybol	-11.3249
▁kiber	-11.3251
▁sonlandırm	-11.3251
▁gecələri	-11.3252
phone	-11.3254
▁dalğ	-11.3255
▁gözləmək	-11.3255
▁oynadıq	-11.3256
▁səyləri	-11.3256
▁bəşəri	-11.3256
duğunuz	-11.3257
▁barmaqlarımı	-11.3259
▁sok	-11.3262
▁güclə	-11.3264
▁itirən	-11.3269
▁göstərməy	-11.327
▁Qanad	-11.3272
▁maraqlandır	-11.3273
▁bədənimiz	-11.3275
▁azlığın	-11.3275
▁Tal	-11.3277
▁baxmır	-11.3279
▁Pl	-11.3281
yağa	-11.3281
▁öldük	-11.3283
leyebilir	-11.3285
▁yoluxm	-11.3286
eologiyanı	-11.3286
▁itirməyi	-11.3287
▁həmkarlarımı	-11.3287
▁qoysan	-11.3288
▁tikili	-11.3291
▁surət	-11.3293
▁parçacığını	-11.3293
giya	-11.3297
▁Lok	-11.3297
▁azaldır	-11.3299
▁tozunu	-11.3301
▁Yaşadığım	-11.3302
alətin	-11.3302
▁gecələr	-11.3303
▁yayımlanma	-11.3303
▁toplana	-11.3304
▁köçə	-11.3306
▁inandığımız	-11.3307
kop	-11.3309
▁çeki	-11.3309
▁xəstəliklə	-11.3311
▁addımla	-11.3313
▁dərslə	-11.3314
▁çık	-11.3315
▁oturur	-11.3316
▁cızma	-11.3316
▁kara	-11.3317
▁bədənlər	-11.3317
▁Gündə	-11.3318
▁sayırdı	-11.332
▁gəzdi	-11.3321
gilə	-11.3324
tutması	-11.3325
▁mülahizəsi	-11.3325
▁valideynlərimiz	-11.3327
▁təhk	-11.3329
▁kinonu	-11.3329
▁büdcəsi	-11.3329
▁halqalarını	-11.3331
müzü	-11.3332
▁masamı	-11.3337
▁bişirməy	-11.3338
▁açıqlaya	-11.3339
▁hökumətlər	-11.3341
▁çıxıblar	-11.3342
ağız	-11.3346
▁buludunu	-11.3346
▁gəmiləri	-11.3348
▁avtobusu	-11.3349
▁professoru	-11.3349
Kenn	-11.335
miydi	-11.3355
▁qiyamın	-11.3356
▁maili	-11.3357
umuzda	-11.3358
▁birleştir	-11.3358
▁işləni	-11.3363
tünd	-11.3364
▁qurmağı	-11.3365
abet	-11.3366
▁yetişməy	-11.3367
▁Ter	-11.3367
▁ikisinin	-11.337
▁hisslərini	-11.3374
ləşir	-11.3374
▁oxunu	-11.3378
▁ehtiyacları	-11.3379
▁dəstəklədi	-11.3382
▁velosipedim	-11.3383
əcəkləri	-11.3384
▁yayın	-11.3386
▁öldürür	-11.3388
▁dərinliy	-11.3388
▁Manc	-11.3392
▁saxlamağı	-11.3392
▁eşitdi	-11.3392
▁kimliyimizi	-11.3394
▁dinləməy	-11.3395
atarların	-11.3396
▁cəhətlərimiz	-11.3397
▁yadımda	-11.3398
▁qazandırmaq	-11.3402
▁ailələrini	-11.3405
vət	-11.3406
▁rəsmin	-11.3406
▁buraxdıq	-11.3407
▁düzəldil	-11.3407
qlarım	-11.3409
▁ailəniz	-11.341
▁danışıqların	-11.341
▁qrafikası	-11.3411
▁Deyir	-11.3412
▁ekv	-11.3412
▁ricam	-11.3417
▁marağım	-11.3418
▁olmazsa	-11.3419
▁göndərərə	-11.3419
madığımız	-11.3419
▁Angelin	-11.3425
▁sav	-11.3427
▁ətrafla	-11.3432
▁res	-11.3438
▁bəzəyi	-11.3438
▁izlərini	-11.344
▁dəyərlidir	-11.344
▁düşərgələrin	-11.3441
▁log	-11.3447
▁muzeyləri	-11.3447
▁protestan	-11.345
▁av	-11.3451
latın	-11.3453
ids	-11.3455
▁uzaqlaşdığımız	-11.3456
▁içirdi	-11.3457
▁yazdıqların	-11.346
çəkmə	-11.3464
▁radionu	-11.3468
▁qurulaca	-11.3469
▁axtarı	-11.3471
▁çıxardıq	-11.3472
▁toxunul	-11.348
çıq	-11.3481
ersiya	-11.3482
CO	-11.3484
▁qazandığım	-11.3485
▁bağlana	-11.3488
▁dəstəkləyi	-11.349
ceğim	-11.3492
▁göstəricilərin	-11.3498
▁Qurduğu	-11.35
▁sürdük	-11.3501
▁doğumun	-11.3501
▁göstereme	-11.3505
▁mağazalar	-11.3506
▁döyülmü	-11.3507
▁milyonu	-11.3512
timiz	-11.3512
▁böyüdük	-11.3513
imimiz	-11.3513
fş	-11.3515
▁kartlar	-11.3519
▁otellər	-11.3521
yok	-11.3534
əyiniz	-11.3535
▁hekayələrini	-11.354
▁bağlayı	-11.3545
▁Tri	-11.3551
▁özəllik	-11.3552
dırmadı	-11.3553
▁Kai	-11.3556
▁prinsipini	-11.3559
iyyətlə	-11.3562
▁dəstəklən	-11.3562
▁qoruy	-11.3565
▁misiyasın	-11.3565
▁ərim	-11.357
▁təminatını	-11.3571
▁gözləntiləri	-11.3575
lur	-11.3575
▁qrafikini	-11.3578
▁sənayesini	-11.358
▁hökumətin	-11.3581
etində	-11.3586
▁qaranlığın	-11.3587
ation	-11.3591
▁yavaşlay	-11.3596
▁oxşam	-11.3597
tlərin	-11.3598
▁yavaşlama	-11.3599
▁sərhədin	-11.3601
▁mərhələsin	-11.3603
▁oğlunu	-11.3604
▁memarlar	-11.3608
▁mağazası	-11.3611
ebileceğini	-11.3615
▁karto	-11.3617
▁yaşayaca	-11.3624
▁üzür	-11.3625
▁reallaşdığın	-11.3625
qalın	-11.3627
▁vuruş	-11.363
ende	-11.364
▁birləşdiyi	-11.3641
▁kədərlənm	-11.3645
▁bakteriyalar	-11.3647
▁uzaqlığın	-11.3652
▁fokuslandı	-11.366
▁Adəm	-11.3668
etdə	-11.3669
incan	-11.3671
tabilir	-11.3674
adası	-11.3675
▁Xoşum	-11.3677
▁özəlləşdir	-11.3678
▁daşıyıcıları	-11.3683
▁bağçasın	-11.3686
▁kənarını	-11.3688
yut	-11.369
▁kompyuterləri	-11.3691
▁kompüteriniz	-11.3692
▁ifşaçını	-11.3694
▁komm	-11.37
▁apardıq	-11.3702
▁qoyar	-11.3706
96	-11.3709
▁işarələri	-11.3717
▁yerleş	-11.3726
▁qatlayı	-11.3727
▁Miras	-11.3728
▁fra	-11.373
▁maç	-11.3734
ford	-11.3744
▁əhalisi	-11.3748
▁dərəsi	-11.3751
▁Anla	-11.3752
▁seçilir	-11.3762
itmiş	-11.3772
▁tozlandırı	-11.3775
▁təəccübləndi	-11.3776
▁anlaşılma	-11.3786
vark	-11.3787
▁edilmədiyi	-11.3788
▁qışqırmağ	-11.3792
▁xoşlayırdı	-11.38
▁seqmenti	-11.3805
▁döngülerini	-11.3805
▁sərnişinləri	-11.3805
▁gezegenleri	-11.3808
▁ölmə	-11.3813
▁problemlərimiz	-11.3815
▁yönəldir	-11.3817
məməyim	-11.3817
aşdırılmış	-11.3836
▁Küveytdə	-11.3837
▁köşkdə	-11.384
▁kuy	-11.384
▁Evlili	-11.3849
▁bacarıql	-11.3851
▁böyüd	-11.3856
▁cən	-11.3858
əvv	-11.386
▁miqyas	-11.3865
▁layiqli	-11.3867
▁düşünürsü	-11.3871
rukl	-11.3873
▁etməyimiz	-11.3878
▁nöqtələrində	-11.3879
▁etmədiyimi	-11.3888
▁elementlərin	-11.389
ühafizəçi	-11.3893
▁çəkilişlərin	-11.3898
kür	-11.3912
▁danışdıq	-11.3936
▁solun	-11.3947
▁fikirləşsə	-11.3953
▁böyüdür	-11.3955
▁buraxı	-11.3956
▁gedəcə	-11.396
▁romanım	-11.3963
▁uçu	-11.3964
sus	-11.3964
▁istəyənlər	-11.3984
▁incəlik	-11.4006
işlə	-11.4008
▁verəcəkləri	-11.4009
▁Ulduzlar	-11.4013
▁partnyorlar	-11.4014
▁İnsanl	-11.4014
▁ötü	-11.4017
▁biləcəklərin	-11.4025
▁Fərq	-11.4025
öka	-11.4029
▁Neda	-11.4029
▁dəyişər	-11.4032
▁silahları	-11.4035
▁getmədiyi	-11.4037
▁hesablamalar	-11.405
məyimin	-11.4063
özümlülük	-11.4067
▁səyahətimiz	-11.4073
▁zillə	-11.4076
▁çayı	-11.4079
gülü	-11.4079
açırmamalıyı	-11.4081
▁yorulmu	-11.4082
rələrin	-11.4086
▁Qul	-11.4087
ılmadığı	-11.4093
▁islahatlar	-11.4093
▁oturanlar	-11.4106
▁ruhlandırır	-11.4109
▁rəhbərli	-11.411
▁agentliklərin	-11.411
▁riflərin	-11.411
▁Alt	-11.4111
layırsınız	-11.4116
▁edilməsində	-11.4119
▁kuklalar	-11.4124
▁yaşamağımız	-11.4137
▁saxlanıl	-11.414
▁kanalı	-11.4159
uludlu	-11.416
▁əşyanı	-11.4161
▁molla	-11.4167
▁axtarışlar	-11.4168
▁misallarda	-11.4169
▁bölgəsində	-11.4179
lvarı	-11.4194
▁elmlərin	-11.4196
SM	-11.4204
▁görünüşlərdə	-11.4206
▁təyyarələrini	-11.4207
▁sobaları	-11.4209
▁Şəkillər	-11.4215
tic	-11.422
▁çəkmişdi	-11.4226
▁anlamanız	-11.4226
▁oynadığı	-11.423
iki	-11.4237
ayında	-11.424
▁yazıçılar	-11.4252
▁Qit	-11.4261
iqtisadiyyatımız	-11.4263
▁səliqəsizli	-11.4266
▁geylər	-11.4275
oxusun	-11.4279
ildiyiniz	-11.4288
usson	-11.4295
▁təşkilatlanma	-11.4298
▁Şükr	-11.4299
suzluğ	-11.4305
▁şirkətim	-11.4308
tların	-11.4308
▁dostumu	-11.4338
▁Ağlın	-11.4339
▁sürətləndiri	-11.4342
▁qumlu	-11.4348
▁uzaqlaşı	-11.4349
▁fikrimiz	-11.436
▁doğ	-11.4361
▁polislər	-11.4362
▁məqsədimiz	-11.4372
▁yaşları	-11.4377
▁çıxışı	-11.4377
▁Xəstəli	-11.4389
▁çağırırdı	-11.439
▁bükül	-11.4394
▁qatmaq	-11.4396
alacaqlar	-11.4401
▁versə	-11.4406
tülü	-11.4406
▁topa	-11.4415
▁etdirilə	-11.4432
▁sənətimi	-11.4434
▁verilməsini	-11.4438
▁idarəsi	-11.4454
leşti	-11.4455
AP	-11.4476
▁azalmasın	-11.4485
azon	-11.4487
▁təkrarla	-11.4499
ld	-11.4519
▁fərd	-11.4521
entləri	-11.4528
▁nəticələrin	-11.4547
▁çoxala	-11.4561
yğun	-11.4562
▁genlər	-11.4562
▁atdıq	-11.4585
▁bala	-11.4599
▁Insanlar	-11.4612
▁rəsədxanalar	-11.4612
quat	-11.4637
pozi	-11.4641
ətbəx	-11.4651
▁görmürü	-11.4656
▁seçdi	-11.4656
▁sondası	-11.4664
▁jurnalistlər	-11.467
şmək	-11.4699
dinan	-11.4699
▁müdrikliyin	-11.4703
ıştı	-11.4705
▁ruhlandır	-11.4708
▁oğullar	-11.4714
▁vəzifələr	-11.4747
▁yaxınlaşırı	-11.4749
▁siniflər	-11.4759
▁yayılı	-11.4762
ememe	-11.4765
▁uğurum	-11.4766
▁gətirdik	-11.4768
▁yalanın	-11.4776
▁Mus	-11.4781
▁vaxtımı	-11.4783
▁alsa	-11.4787
▁rafi	-11.4791
jo	-11.48
elen	-11.4806
arsa	-11.4815
uru	-11.4816
▁sapdır	-11.4832
▁büroları	-11.4851
▁həşaratlar	-11.4858
prov	-11.4861
▁göstərməyi	-11.4867
▁əsərlərini	-11.4881
ezdi	-11.4913
▁müharibələri	-11.4927
▁Normalda	-11.4927
▁yaratdığımızda	-11.4928
▁başlanğıcını	-11.4929
▁sektorunda	-11.4933
▁qışqırır	-11.4954
▁cümlələr	-11.4959
▁post	-11.4964
▁qışqırı	-11.4976
əşər	-11.4983
▁baxışların	-11.4983
▁Bankını	-11.4984
▁dəbdə	-11.4993
▁effektin	-11.5004
▁xəbərlə	-11.5012
▁dizaynlar	-11.5023
▁kamerası	-11.5036
komp	-11.5041
▁inf	-11.5057
arlıq	-11.5086
▁Adamı	-11.5086
▁qabiliyyətinizi	-11.5104
aritala	-11.5106
▁riay	-11.512
▁təpələr	-11.5125
▁Ölkələrdə	-11.5129
▁işığ	-11.5144
▁Nic	-11.5164
▁təbəqəsin	-11.5169
▁araşdırmağ	-11.5185
▁universitetləri	-11.5194
rilmiş	-11.52
▁qabiliyyətləri	-11.5209
▁Muzey	-11.5223
▁güvənin	-11.5225
▁Cəmiyyətin	-11.5226
▁Kitabları	-11.525
▁razılığ	-11.5262
▁Emini	-11.5278
▁sualın	-11.5284
əlcə	-11.5293
▁həyatınız	-11.5303
▁verdiyini	-11.5303
▁Yuxarı	-11.5311
▁dağıla	-11.5318
iklerimiz	-11.5331
▁təhlükəsi	-11.5386
▁ifaçıları	-11.5448
▁göstəricilərini	-11.5449
▁kafe	-11.5451
▁çevrilməsi	-11.547
aşınlarımız	-11.5473
ibra	-11.5475
▁çatdırır	-11.5477
oyunu	-11.5478
▁gəlmələrin	-11.548
▁aşılay	-11.5489
ləndirmək	-11.5491
riyaziyyatçıları	-11.5494
▁sürfələri	-11.5498
▁baka	-11.5507
▁temperaturda	-11.5518
▁konfliktlər	-11.555
lock	-11.5559
▁oxumağım	-11.5564
▁köməkçi	-11.5571
veriş	-11.5575
▁formalaşmasın	-11.5631
rakə	-11.5638
iliyor	-11.5648
▁hərəkatları	-11.565
landır	-11.5663
lənməmiş	-11.5663
▁tanıdı	-11.5665
rive	-11.567
▁şirkətlər	-11.5685
▁gələcəklərin	-11.5698
▁qarışı	-11.5711
▁proqramlarda	-11.5711
▁Yaxınl	-11.5728
▁tərəflərin	-11.5731
oqram	-11.5738
▁vermirdi	-11.5742
dıqların	-11.5744
▁əməliyyatın	-11.5745
▁fikirləşirsə	-11.5746
▁kitabımda	-11.5783
▁imtahanı	-11.5823
oko	-11.5831
▁Ira	-11.5833
aşan	-11.5837
▁Göt	-11.5846
▁layihəni	-11.5859
▁açıql	-11.5872
▁genomu	-11.5883
▁proqramın	-11.5893
▁gösterim	-11.5896
▁kəşflərin	-11.5897
▁məkanlar	-11.5901
▁alması	-11.5908
rməkdən	-11.5914
▁dəyişdirməy	-11.5922
▁yanımızda	-11.5927
axıl	-11.5931
▁toplamış	-11.5945
▁beynini	-11.596
X	-12.2879
Ə	-12.2882
Y	-12.2882
!	-13.5519
J	-13.552
;	-13.5521
U	-13.5522
Ö	-13.5523
:	-13.5524
)	-13.5525
?	-13.5526
-	-13.5527
"	-13.5528
,	-13.5529
.	-13.553
