<unk>	0
<s>	0
</s>	0
.	-2.98031
,	-3.19622
▁bir	-4.13224
▁və	-4.24587
n	-4.45278
▁	-4.46947
▁bu	-4.55874
a	-4.71624
ə	-4.85983
i	-4.8951
▁Bu	-5.04365
▁ki	-5.04713
▁də	-5.15368
-	-5.24959
▁çox	-5.2636
▁üçün	-5.26791
m	-5.35917
▁da	-5.40013
in	-5.41015
də	-5.45085
da	-5.47095
)	-5.51934
dən	-5.53138
?	-5.54009
▁""	-5.56472
▁(	-5.58941
lar	-5.61332
▁"	-5.62182
▁Və	-5.68156
lər	-5.70241
ı	-5.71353
dir	-5.74719
▁var	-5.76276
dan	-5.76984
▁kimi	-5.77002
▁daha	-5.78163
▁idi	-5.78477
k	-5.81991
:	-5.84205
."	-5.89159
▁-	-5.89943
r	-5.92429
▁nə	-5.93679
""	-5.9405
▁o	-5.96535
q	-5.98806
▁olan	-6.03382
▁hər	-6.09191
la	-6.10529
ın	-6.11485
▁ilə	-6.12593
ya	-6.12793
▁mən	-6.13008
▁qədər	-6.14121
▁şey	-6.16868
z	-6.17436
lə	-6.17667
dır	-6.20413
▁görə	-6.20892
▁isə	-6.23404
▁sonra	-6.2464
▁bütün	-6.25587
▁belə	-6.27326
▁il	-6.28491
▁biz	-6.30011
li	-6.31021
yə	-6.32088
▁deyil	-6.34269
na	-6.36575
▁böyük	-6.38484
u	-6.40465
▁ən	-6.41023
s	-6.42715
ları	-6.4409
▁necə	-6.45392
Gülüş	-6.45939
▁olaraq	-6.46505
▁yaxşı	-6.46816
lik	-6.47366
▁O	-6.47806
nın	-6.49311
▁ya	-6.51578
▁heç	-6.51628
ni	-6.527
t	-6.55274
di	-6.56557
▁Mən	-6.56926
▁etmək	-6.57136
▁edir	-6.57333
ləri	-6.58591
▁edə	-6.60892
b	-6.61917
an	-6.61948
▁olduğunu	-6.65854
▁Amma	-6.66069
▁bunu	-6.66956
▁az	-6.67548
sə	-6.67786
▁mənim	-6.72897
▁Bir	-6.74463
▁Biz	-6.74505
▁başqa	-6.75573
▁onlar	-6.75881
l	-6.76678
▁bizim	-6.77421
▁zaman	-6.78446
▁gün	-6.80701
▁haqda	-6.81351
▁bilər	-6.81482
▁öz	-6.8396
nin	-6.84391
▁istifadə	-6.84427
▁əvvəl	-6.84695
▁ilk	-6.87342
▁B	-6.87689
▁bilərsiniz	-6.88609
▁vaxt	-6.89078
ik	-6.89948
▁həm	-6.93835
dakı	-6.93858
▁yalnız	-6.95565
ən	-6.96011
▁amma	-6.96473
▁olduğu	-6.97373
▁yeni	-7.00576
'	-7.00936
▁oldu	-7.01427
ci	-7.01938
▁çünki	-7.02108
▁kiçik	-7.0211
d	-7.03505
lı	-7.03823
▁neçə	-7.04113
y	-7.04168
o	-7.04687
kı	-7.04837
▁yox	-7.06675
▁elə	-7.07038
▁h	-7.08165
▁iki	-7.08199
ş	-7.08502
e	-7.08655
.""	-7.08714
▁mənə	-7.09581
nə	-7.10035
▁burada	-7.11566
▁insanlar	-7.11892
nı	-7.11903
▁H	-7.12862
▁baş	-7.13039
▁İndi	-7.13143
un	-7.14093
▁onun	-7.1443
▁ancaq	-7.14431
dı	-7.1462
▁eyni	-7.1553
▁insan	-7.1607
im	-7.16721
am	-7.17098
ki	-7.17107
ndan	-7.18633
larını	-7.19433
cə	-7.19993
▁istəyirəm	-7.20055
▁digər	-7.21193
▁Ə	-7.21328
▁Çox	-7.2245
▁s	-7.22592
▁S	-7.22776
▁ola	-7.2304
▁biri	-7.23215
▁siz	-7.24244
▁t	-7.24305
▁edən	-7.25074
ar	-7.25076
si	-7.25888
▁edirəm	-7.261
▁Onlar	-7.26213
▁dünya	-7.26592
▁M	-7.27614
sa	-7.28048
▁ildə	-7.28424
▁iş	-7.28926
▁deyə	-7.29407
▁sizə	-7.30599
▁Lakin	-7.32338
▁Ancaq	-7.32434
▁onu	-7.32527
▁həqiqətən	-7.33664
?""	-7.34498
▁dəfə	-7.35061
▁b	-7.35242
Alqışlar	-7.35296
▁haqqında	-7.36346
▁olacaq	-7.36517
maq	-7.36868
lərin	-7.37924
▁indi	-7.40322
sı	-7.40598
▁hiss	-7.40793
▁yer	-7.40942
▁olur	-7.413
ir	-7.41424
▁kəs	-7.41632
ma	-7.41877
▁tərəfindən	-7.42021
▁olar	-7.42623
▁səbəb	-7.42697
▁şəkildə	-7.42804
ların	-7.43134
gər	-7.43451
▁onları	-7.44282
▁T	-7.46216
▁qarşı	-7.4766
▁orta	-7.47855
▁əgər	-7.47868
dəki	-7.48453
▁içində	-7.48853
▁bizə	-7.48894
▁bunun	-7.49347
▁Yəni	-7.49444
Alqış	-7.50595
▁insanların	-7.50687
▁tək	-7.5097
▁bəzi	-7.52257
▁həyat	-7.52323
▁Beləliklə	-7.52578
mək	-7.52677
▁davam	-7.54095
▁etməyə	-7.55673
▁gözəl	-7.55774
▁üzərində	-7.55825
▁A	-7.55916
ü	-7.56969
er	-7.5746
▁hansı	-7.57467
mi	-7.57588
▁fərqli	-7.57608
▁—	-7.57924
lıq	-7.58262
mağa	-7.58282
▁meydana	-7.59161
▁əslində	-7.59174
▁yol	-7.59512
▁onların	-7.59634
dur	-7.59731
▁gəlir	-7.60235
ca	-7.60867
▁artıq	-7.6089
▁məni	-7.61616
▁son	-7.61713
▁hekayə	-7.61973
▁yaxın	-7.62124
▁hələ	-7.6268
ər	-7.62801
▁şeylər	-7.63621
▁kosmos	-7.6434
▁milyard	-7.64387
v	-7.65541
▁Bunu	-7.67194
▁olmaq	-7.67645
▁cavab	-7.67683
▁Mənim	-7.68282
▁əsas	-7.68321
mə	-7.68939
▁lazım	-7.69117
▁ona	-7.69208
▁geri	-7.69798
▁qaranlıq	-7.70016
▁sadəcə	-7.70028
▁G	-7.70124
▁yoxdur	-7.70128
▁İ	-7.7031
▁hərəkət	-7.7035
▁fikir	-7.70495
▁K	-7.70506
Bu	-7.70527
▁D	-7.71489
ətta	-7.71831
;	-7.71905
▁olub	-7.71929
▁gələn	-7.72509
al	-7.73063
əm	-7.73116
sən	-7.73116
inə	-7.73261
▁doğru	-7.73444
▁C	-7.73681
ütün	-7.73801
▁olun	-7.74072
▁kömək	-7.74955
▁Afrika	-7.75066
▁demək	-7.75468
siz	-7.75481
ını	-7.7581
▁buna	-7.76156
kin	-7.76955
dim	-7.7699
▁milyon	-7.77146
▁maddə	-7.77646
▁Əslində	-7.77925
▁üç	-7.7793
▁tam	-7.7811
▁bilərik	-7.78115
▁"""	-7.78539
▁şeyi	-7.78743
inin	-7.79172
▁şəkil	-7.7923
▁2	-7.79445
▁ay	-7.79711
x	-7.80344
▁başa	-7.80561
▁etdi	-7.8064
▁sahib	-7.80678
▁etdiyi	-7.80872
▁sizin	-7.81095
▁təhsil	-7.81152
▁çətin	-7.81769
▁günəş	-7.8227
ib	-7.82312
▁birlikdə	-7.82399
▁la	-7.82752
▁işıq	-7.83057
▁Hər	-7.83224
ur	-7.83251
ti	-7.83312
f	-7.83778
▁inkişaf	-7.83827
ıb	-7.841
▁Burada	-7.84276
▁sağ	-7.84277
▁Çünki	-7.84356
▁qadın	-7.85267
niz	-7.85286
▁m	-7.85781
▁musiqi	-7.86412
▁qəbul	-7.86514
▁qərar	-7.86595
▁olsa	-7.86795
▁olardı	-7.87304
▁dünyanın	-7.87513
eç	-7.8759
lərini	-7.88185
▁qeyri	-7.88788
▁əlavə	-7.8879
▁müddət	-7.88792
▁hava	-7.88809
ır	-7.88961
▁dedi	-7.89761
ıq	-7.90115
▁enerji	-7.90261
cı	-7.90866
▁arasında	-7.91032
mış	-7.91096
c	-7.91446
▁kainatın	-7.91707
g	-7.92455
▁hal	-7.92465
lərlə	-7.92818
san	-7.93406
▁uzun	-7.93544
A	-7.9371
▁söz	-7.94134
ylə	-7.95101
▁kəşf	-7.95256
miz	-7.95338
▁bunlar	-7.95355
▁verir	-7.95365
larla	-7.95842
▁olmayan	-7.9594
▁ətrafında	-7.96031
il	-7.97743
el	-7.97929
"	-7.98338
▁Belə	-7.98456
▁sual	-7.98673
▁Nə	-7.98962
lərə	-7.99582
▁kim	-8.00016
▁maraqlı	-8.00522
ğa	-8.00709
▁pul	-8.00908
▁al	-8.00933
▁dollar	-8.00998
dığı	-8.01274
▁lazımdır	-8.01279
▁10	-8.01388
▁etdim	-8.01591
▁ev	-8.01684
lərdən	-8.0226
▁uşaq	-8.02326
▁uyğun	-8.03175
▁həmişə	-8.03321
du	-8.03425
dik	-8.03562
▁əhəmiyyətli	-8.03679
▁Yaxşı	-8.04047
▁etdiyimiz	-8.04067
▁rəqəm	-8.04179
▁idim	-8.0486
miş	-8.04934
O	-8.0504
▁edirlər	-8.05093
ri	-8.05114
at	-8.0533
p	-8.05735
siniz	-8.06009
or	-8.06158
?"	-8.06279
▁dərəcə	-8.06331
ini	-8.06945
ımız	-8.07332
▁1	-8.07626
▁Siz	-8.08106
▁cü	-8.08122
ində	-8.08368
▁3	-8.08867
araq	-8.09045
▁məşğul	-8.09051
▁görünür	-8.09096
▁Dah	-8.09249
lara	-8.09758
▁20	-8.10212
adlı	-8.10423
L	-8.10746
▁budur	-8.10885
▁hamısı	-8.10943
sini	-8.11068
▁bizi	-8.11226
▁elmi	-8.11277
▁deyir	-8.11367
▁edib	-8.11569
▁həll	-8.11905
▁göstərir	-8.1206
▁görmək	-8.12065
▁ölçüləri	-8.12079
▁adam	-8.12178
lardan	-8.12841
▁deyildi	-8.12995
▁P	-8.14067
▁yolu	-8.14083
▁min	-8.14268
▁Y	-8.14336
▁təsəvvür	-8.14471
▁Q	-8.14557
!	-8.14631
▁bağlı	-8.14705
▁mövcud	-8.14843
▁izah	-8.14909
▁yəni	-8.14919
▁bilirik	-8.14965
▁problem	-8.15249
▁Amerika	-8.15541
imi	-8.15689
▁orada	-8.1632
h	-8.16984
ına	-8.17489
▁k	-8.17528
▁vacib	-8.17582
əlkə	-8.17832
▁hesab	-8.17929
▁boyunca	-8.17937
▁Ən	-8.1798
▁verdi	-8.18224
▁yerdə	-8.18963
▁müəyyən	-8.19958
▁etmə	-8.2004
de	-8.20103
dım	-8.20224
▁Bunlar	-8.20227
▁an	-8.20393
ndə	-8.20467
▁su	-8.20496
▁de	-8.20818
▁Dünya	-8.20821
▁qısa	-8.21062
▁təmin	-8.21064
▁görürsünüz	-8.21064
▁edin	-8.21067
▁qlobal	-8.21068
▁öncə	-8.21088
▁yaratmaq	-8.21138
▁sadə	-8.21141
əcək	-8.21144
▁təbii	-8.21192
▁sözü	-8.21198
▁ifadə	-8.21306
imiz	-8.21421
▁etdik	-8.21484
lərindən	-8.21747
▁səbəbdən	-8.21958
ğı	-8.22109
▁məsələ	-8.22346
▁qalaktika	-8.2381
acaq	-8.23989
▁ABŞ	-8.24288
▁güclü	-8.24298
▁qəribə	-8.24309
▁növ	-8.24317
▁təsir	-8.24529
larına	-8.24588
▁anda	-8.24756
▁zamanda	-8.24802
▁E	-8.24899
▁məncə	-8.24923
▁dedim	-8.25001
lərinə	-8.25095
▁əldə	-8.25382
▁özüm	-8.25402
▁biləcək	-8.2576
ında	-8.25868
ması	-8.25964
ey	-8.26492
▁5	-8.26557
▁V	-8.26665
▁əlaqə	-8.26772
▁uzaq	-8.27426
▁başladı	-8.2751
▁xüsusi	-8.27564
▁barədə	-8.27622
▁yüksək	-8.27624
▁niyə	-8.27634
▁olması	-8.28126
▁açıq	-8.28778
▁kainat	-8.29379
▁aşağı	-8.29402
▁f	-8.29488
▁kütlə	-8.29555
▁fərq	-8.29663
Mən	-8.29913
▁Ya	-8.30284
▁nəticə	-8.30517
▁edəcək	-8.30675
▁burda	-8.30891
▁təşkil	-8.31062
▁dili	-8.31102
▁Sonra	-8.31111
▁başladım	-8.31576
▁edirik	-8.31667
ra	-8.32247
▁nəzər	-8.32485
dıq	-8.32528
▁gəldi	-8.33015
▁N	-8.33053
lərində	-8.33162
▁elm	-8.33824
ndən	-8.33852
▁g	-8.34513
▁idarə	-8.3456
▁ingilis	-8.34561
▁Titan	-8.34647
▁incəsənət	-8.34665
▁edərək	-8.3472
▁asan	-8.34734
▁vermək	-8.34743
▁bilərəm	-8.34868
▁qız	-8.349
▁xəbər	-8.36903
▁dünyanı	-8.37448
▁Hindistanda	-8.37892
cü	-8.37915
▁müxtəlif	-8.38104
▁Bibliya	-8.38228
gülüş	-8.38345
▁istərdim	-8.38375
▁göstərmək	-8.38382
▁yaz	-8.38571
D	-8.38598
▁bilmək	-8.3863
▁dəyişdi	-8.38711
Bəs	-8.38719
▁bil	-8.38846
▁dəqiqə	-8.39057
▁...	-8.39158
liyi	-8.39234
▁at	-8.4007
ım	-8.40659
larında	-8.41791
▁daxil	-8.41838
▁mümkün	-8.42145
▁kifayət	-8.42194
▁uçuş	-8.42212
ç	-8.42263
▁İş	-8.42271
▁danışmaq	-8.42304
sını	-8.42499
▁deyilmi	-8.42543
▁kitab	-8.426
▁əl	-8.42886
▁dilində	-8.43084
▁çalış	-8.43773
▁şəkillər	-8.43944
▁keçir	-8.44267
(	-8.4467
st	-8.44674
lərdə	-8.44714
▁maşın	-8.45186
▁4	-8.45476
▁bax	-8.45539
nda	-8.4575
▁nədir	-8.46015
le	-8.46179
▁çıxır	-8.46193
▁üzərinə	-8.46196
▁pis	-8.46236
▁olduğumuz	-8.46295
▁12	-8.46428
ler	-8.46446
▁almaq	-8.46567
▁səbəbi	-8.46607
▁Hindistan	-8.4666
▁Məncə	-8.46703
▁qala	-8.46734
dığımız	-8.46774
▁olduğum	-8.47464
▁üz	-8.47618
va	-8.4769
dilər	-8.47801
məyə	-8.47856
▁planet	-8.48006
▁sistemi	-8.48106
▁özü	-8.48216
▁kişi	-8.48365
▁təcrübə	-8.48414
lu	-8.48454
larda	-8.48516
dür	-8.48584
—	-8.49209
▁dünyada	-8.49518
▁dəqiq	-8.49589
▁məlumat	-8.49963
▁sözlər	-8.50077
▁oldum	-8.50156
▁geniş	-8.5035
▁müsahibə	-8.50358
▁təsvir	-8.50358
▁tərk	-8.50359
▁qolf	-8.50365
▁saat	-8.50374
▁Məsələn	-8.5049
▁bənzər	-8.50496
▁Bəlkə	-8.50504
▁altında	-8.50537
▁özünü	-8.50605
amamilə	-8.5064
ərzində	-8.50845
▁Bizi	-8.50892
▁onda	-8.51155
▁sən	-8.51282
indən	-8.51397
▁məh	-8.51454
ərək	-8.5161
▁qeyd	-8.5161
▁texnologiya	-8.51677
▁əsl	-8.51702
▁şəkli	-8.51756
▁ana	-8.51956
▁ulduz	-8.51976
▁gökada	-8.5234
sız	-8.52419
▁etməli	-8.52544
▁bura	-8.52828
▁işə	-8.53076
▁oğlan	-8.5348
▁maşını	-8.53705
sal	-8.53862
▁insanları	-8.53952
sində	-8.54636
▁təşəkkür	-8.54705
▁inanılmaz	-8.54706
▁saniyə	-8.54706
▁gördüyünüz	-8.5474
▁X	-8.54822
ed	-8.54861
▁Təşəkkürlər	-8.54925
▁bər	-8.54949
▁bilirsiniz	-8.5498
▁keçən	-8.55382
sında	-8.55641
yla	-8.55822
▁R	-8.55861
▁olma	-8.56025
▁verən	-8.56799
▁fikri	-8.56801
▁hadisə	-8.56849
▁ölkə	-8.56912
cu	-8.57106
nun	-8.57284
▁etdiyim	-8.5739
▁tələb	-8.57561
▁hazır	-8.58154
▁səhv	-8.58455
mələr	-8.58492
▁insanlara	-8.58769
▁illərdə	-8.58784
▁c	-8.58818
▁Ş	-8.59097
▁kasıb	-8.59229
▁başlayır	-8.59238
▁əməl	-8.59249
▁zəif	-8.59251
▁görürük	-8.59258
▁Günəş	-8.59282
▁yenə	-8.59303
▁F	-8.59322
▁özümüz	-8.59323
▁Bəli	-8.59615
▁İnsanlar	-8.59822
▁deməkdir	-8.60052
▁dair	-8.60881
▁adı	-8.60977
▁dövr	-8.6105
▁seç	-8.61207
nız	-8.62646
▁gözlə	-8.62808
lığı	-8.62844
▁200	-8.62988
▁nöqtə	-8.63007
▁cənub	-8.63035
zi	-8.63037
▁dil	-8.63119
ol	-8.63157
sinə	-8.63517
▁imkan	-8.63566
▁edildi	-8.63829
▁yaradıcı	-8.63857
▁isti	-8.63931
▁əmin	-8.63973
▁İngilis	-8.63992
▁dövlət	-8.64013
▁mütləq	-8.64013
▁hörmət	-8.64015
▁balaca	-8.64029
▁təxminən	-8.64057
▁Beləcə	-8.64162
▁hekayələr	-8.64518
▁hissəsi	-8.64588
▁qadınlar	-8.64762
▁şeyin	-8.64861
▁q	-8.64922
mı	-8.64978
▁zamanı	-8.6508
▁bilmə	-8.65255
▁özün	-8.65431
▁Sizə	-8.65657
▁sizi	-8.65904
qca	-8.66044
▁yenidən	-8.66144
den	-8.66173
▁yarı	-8.66311
▁De	-8.66502
▁a	-8.66557
▁nəyə	-8.66818
▁alan	-8.66993
ür	-8.67136
yi	-8.67177
gi	-8.67626
on	-8.67666
▁Bunun	-8.67739
▁ol	-8.67826
▁illər	-8.68156
▁çoxu	-8.68343
mən	-8.6852
adi	-8.68808
▁əks	-8.68926
▁video	-8.69002
▁kosm	-8.69012
▁təqdim	-8.69013
▁mübarizə	-8.69014
▁yəqin	-8.69016
▁ikinci	-8.69018
▁müasir	-8.69021
▁normal	-8.69036
▁asılı	-8.69099
▁təkrar	-8.69106
▁dolu	-8.69107
um	-8.69115
▁olmasa	-8.69125
lərinin	-8.6918
▁insanı	-8.69401
▁Yer	-8.69517
▁etdilər	-8.69857
▁ulduzlar	-8.69973
▁əvvəlki	-8.70238
▁bunların	-8.70312
▁parça	-8.70339
vi	-8.70484
▁ifa	-8.70638
▁məktəb	-8.70648
▁film	-8.70703
▁ehtiyac	-8.70713
▁bilməz	-8.71001
▁həftə	-8.71134
ka	-8.71845
▁ölkədə	-8.72489
kü	-8.72569
▁yağış	-8.72794
▁səs	-8.72814
▁uşaqlar	-8.72944
▁İl	-8.72969
▁yazı	-8.73145
▁atam	-8.73167
su	-8.73221
məsi	-8.73264
▁mövzu	-8.73349
▁çək	-8.73617
▁olsun	-8.73844
▁proqram	-8.73956
▁aydın	-8.74216
▁məşhur	-8.74259
ləşmiş	-8.74267
▁gedib	-8.74288
▁addım	-8.74295
▁bilir	-8.74298
▁birini	-8.74302
▁sonunda	-8.74311
əmçinin	-8.74328
▁bilmirik	-8.74332
▁Son	-8.74341
diyi	-8.74345
▁ala	-8.74574
▁model	-8.74588
▁ətraf	-8.74596
▁dərs	-8.74596
▁Onları	-8.74656
▁olmadan	-8.74679
rkən	-8.74747
▁olmadığını	-8.74861
▁hamımız	-8.75167
▁üstün	-8.75283
te	-8.75354
▁nəzəriyyəsi	-8.75614
çı	-8.75655
▁na	-8.75686
▁özləri	-8.75686
▁varsa	-8.75701
malı	-8.75715
ət	-8.75781
▁tap	-8.75829
ğ	-8.75981
mız	-8.762
▁yoldaşım	-8.76222
▁işlər	-8.7655
▁qaydalar	-8.76612
000	-8.76784
unu	-8.77031
▁için	-8.77083
▁təyyarə	-8.7713
▁gökadalar	-8.7723
▁Bura	-8.77342
▁çəkir	-8.77468
tan	-8.77643
▁məsafə	-8.78022
▁müəllimlər	-8.78142
luq	-8.78481
hazırda	-8.78489
▁güc	-8.78715
▁gələcək	-8.78921
▁toz	-8.78956
▁hamı	-8.79091
▁kənar	-8.79146
mü	-8.792
▁dörd	-8.79238
▁gücü	-8.79685
▁narahat	-8.79772
▁atom	-8.79811
▁Maldiv	-8.79831
▁cəlb	-8.79831
▁xəstəlik	-8.79866
▁olmağa	-8.79935
▁nəyi	-8.79936
▁Görə	-8.79978
▁bitki	-8.80094
▁təkcə	-8.80124
▁biləcəyimiz	-8.80145
▁oyunun	-8.80218
▁qoyma	-8.80324
▁"(	-8.80362
▁məqsədi	-8.80417
dü	-8.80475
▁verdim	-8.80736
▁çalışır	-8.80755
▁km	-8.80814
▁göstər	-8.8105
▁əla	-8.81082
larının	-8.81129
▁i	-8.81239
▁başlaya	-8.81248
▁işin	-8.81851
▁şeyləri	-8.8201
▁olduğun	-8.82303
sına	-8.82316
▁bilərlər	-8.82341
ırıq	-8.82358
ğu	-8.82371
▁rəqs	-8.82425
za	-8.82591
▁p	-8.82697
mışam	-8.82753
▁yaş	-8.82995
▁sistem	-8.83042
▁ilin	-8.83266
ün	-8.83282
▁d	-8.83399
▁görür	-8.83568
▁müəllim	-8.83668
▁ağ	-8.83984
▁xarici	-8.84004
▁sürətlə	-8.84018
sınız	-8.84026
▁səliqə	-8.84041
▁misal	-8.84245
MS	-8.84421
▁tə	-8.84618
ram	-8.84621
▁vardı	-8.84666
▁təsiri	-8.84903
▁parçası	-8.8499
▁qal	-8.85012
▁50	-8.85184
▁qrup	-8.85228
▁Kim	-8.85415
▁qorxu	-8.85572
▁bərabər	-8.85644
▁StoriKorps	-8.85714
▁həbsxana	-8.85714
▁yaxud	-8.85714
▁təklif	-8.85714
▁Saturn	-8.85715
▁qulaq	-8.85716
▁düzgün	-8.85717
təşə	-8.8572
▁yüzlərlə	-8.85747
▁gördüyümüz	-8.85757
▁olmur	-8.85761
▁ağıllı	-8.85793
dirlər	-8.85831
▁olunur	-8.85857
▁Sağ	-8.85895
iya	-8.85909
▁istədiyim	-8.86065
▁rol	-8.86132
iyyət	-8.86198
▁yerinə	-8.86305
▁bilən	-8.86448
▁otaq	-8.86488
▁problemi	-8.86493
diyimiz	-8.86518
ək	-8.8656
▁gəlmə	-8.86562
M	-8.86598
▁tez	-8.86768
▁et	-8.86796
▁halda	-8.8681
irlər	-8.87177
▁edilən	-8.87388
▁Mənə	-8.87626
rət	-8.88013
▁çıxan	-8.88083
ıl	-8.88198
▁ora	-8.88597
▁ehtimal	-8.89028
▁yeri	-8.89098
▁yerə	-8.89176
bir	-8.89614
▁düşünmə	-8.90112
▁suallar	-8.90236
▁müşahidə	-8.90238
əb	-8.90567
▁maraq	-8.90577
P	-8.90713
▁dərin	-8.90737
I	-8.90768
▁sərhəd	-8.90939
▁fizik	-8.91
S	-8.91303
Və	-8.91323
▁100	-8.9136
▁etməsi	-8.91373
bi	-8.91567
▁yuxarı	-8.91583
▁işdə	-8.91823
▁diqqət	-8.91917
5	-8.91927
▁edilməsi	-8.91948
▁kompleks	-8.91964
▁bəzən	-8.91964
▁mavi	-8.91965
▁növbə	-8.91966
▁sayəsində	-8.91967
▁icazə	-8.91969
▁bəhs	-8.91971
▁itir	-8.91972
▁olsaydı	-8.91978
▁baxmayaraq	-8.91979
▁Təbii	-8.92007
▁istəyirik	-8.92019
▁40	-8.92022
▁çoxlu	-8.92082
▁15	-8.92084
ası	-8.92141
▁ç	-8.92162
it	-8.92287
ımızı	-8.92351
lü	-8.92411
▁8	-8.92463
▁Başqa	-8.92463
▁Dünyanın	-8.92487
▁çalışan	-8.92504
▁yarım	-8.92582
kar	-8.92778
▁orbit	-8.929
▁tərəf	-8.9292
▁olduğundan	-8.92931
▁sol	-8.93132
sinin	-8.93164
malıyıq	-8.93248
▁sal	-8.93305
▁təhlükəsiz	-8.93338
▁'	-8.93391
yam	-8.93631
▁olurlar	-8.93658
▁olduq	-8.93694
▁günü	-8.94064
▁11	-8.94065
sin	-8.94181
▁rəsm	-8.94434
▁adi	-8.94506
▁üst	-8.94996
▁L	-8.95062
▁problemlər	-8.95116
▁plan	-8.95401
▁qalaktikalar	-8.9554
ıram	-8.95599
birimiz	-8.9565
▁nümunə	-8.95747
▁sevgi	-8.9587
▁cümlə	-8.95914
əl	-8.95932
▁həyatda	-8.96065
masına	-8.96237
▁sahə	-8.96312
▁görünüş	-8.96509
▁I	-8.96518
▁mə	-8.9653
liyin	-8.96616
▁çıxar	-8.96704
▁olanda	-8.96722
▁xəritə	-8.9674
▁düz	-8.96786
7	-8.97053
▁ölüm	-8.97157
▁en	-8.97411
▁Allahı	-8.97717
Onlar	-8.97752
▁dayan	-8.97845
▁kompüter	-8.97947
sanız	-8.98043
▁Təşəkkür	-8.98291
▁düşüncə	-8.98465
▁çıxdı	-8.98504
▁arxa	-8.98534
▁Apple	-8.9863
▁elektron	-8.98631
▁Kainat	-8.98631
▁nəfər	-8.98631
▁tərcümə	-8.98644
▁möh	-8.98648
▁sanki	-8.98665
▁önəmli	-8.98669
▁görünən	-8.98694
▁vasitəsilə	-8.98734
▁bilirəm	-8.98735
▁Məktəb	-8.98756
▁baxaq	-8.98774
▁sürətli	-8.98777
▁19	-8.98834
alnız	-8.98837
▁hərfi	-8.98903
▁Bununla	-8.9896
▁soruşdu	-8.98965
▁tapmaq	-8.9898
▁əsasən	-8.99028
▁mərhəmət	-8.99033
ta	-8.99121
▁istiqamətdə	-8.99186
▁idik	-8.99222
▁geriyə	-8.9931
▁6	-8.99426
▁deyirlər	-8.99461
▁gecə	-8.99466
▁Niyə	-8.99578
▁gətirən	-8.99676
▁məktəbə	-8.99702
▁mil	-8.9972
▁Onun	-9.00061
▁nələr	-9.00481
▁sayı	-9.00829
iz	-9.00834
rək	-9.00855
▁həyatın	-9.00962
▁nəyin	-9.01052
▁arasın	-9.01123
▁bazar	-9.01148
▁yay	-9.01319
▁9	-9.0135
▁etmiş	-9.01867
Elə	-9.01926
▁Afrikada	-9.01951
▁edək	-9.01956
aq	-9.02009
▁təbiətin	-9.0207
▁qarşısında	-9.02088
▁çəkilişi	-9.02113
▁ba	-9.02366
ərf	-9.02448
dığım	-9.02516
▁harada	-9.02707
bu	-9.02857
▁yüz	-9.02945
0	-9.03068
H	-9.03083
▁enerjisi	-9.03159
▁dəniz	-9.03214
mu	-9.03273
▁qüvvə	-9.03498
▁ruh	-9.03522
▁gəlirdi	-9.0373
▁olmağı	-9.03864
▁di	-9.03947
▁etməyi	-9.04016
▁parçacıqları	-9.04099
▁keç	-9.04135
▁bilərdi	-9.04185
Ə	-9.0438
▁gündə	-9.04532
▁ədalət	-9.04592
Yaxşı	-9.04619
▁qat	-9.04742
▁səth	-9.0475
▁problemləri	-9.04815
▁qayda	-9.04885
▁okean	-9.04886
tar	-9.04927
▁qət	-9.04951
son	-9.05053
▁xoş	-9.05091
▁qan	-9.05092
mızı	-9.05116
kən	-9.05228
▁xilas	-9.05439
▁edilə	-9.05445
▁edər	-9.05489
id	-9.05528
tik	-9.05539
ırdı	-9.05554
▁mühəndis	-9.05701
▁sıx	-9.0572
▁beş	-9.05759
▁irəli	-9.05772
▁Higgs	-9.05773
▁TED	-9.05773
▁korrupsiya	-9.05773
▁tətbiq	-9.05773
▁ümumi	-9.05773
▁ədəd	-9.05774
▁baxsaq	-9.05774
▁divar	-9.05774
▁xoşbəxt	-9.05774
▁dərhal	-9.05777
▁qaya	-9.05777
▁istənil	-9.05782
▁möcüzə	-9.05782
▁sualtı	-9.05782
▁içərisində	-9.05784
▁gənc	-9.05789
▁edirdi	-9.05796
▁zərər	-9.05804
▁əvəzinə	-9.05811
▁bilmirəm	-9.05813
▁bank	-9.05818
▁Big	-9.05819
▁universitet	-9.05823
▁çəkmək	-9.05853
▁daim	-9.05878
▁deyirəm	-9.05913
▁düşünün	-9.05913
▁üstündə	-9.05995
▁Böyük	-9.05995
▁bilmirdim	-9.06001
▁Gəlin	-9.06007
▁Sadəcə	-9.0601
▁olmalıdır	-9.06067
▁mümkündür	-9.06155
asiya	-9.06156
▁baxın	-9.06195
ınız	-9.06265
▁Necə	-9.06301
▁zəngin	-9.06517
▁müharibə	-9.06534
▁iynəcələr	-9.066
▁göz	-9.06673
▁beləcə	-9.07045
▁Digər	-9.07127
▁dizayn	-9.07145
arı	-9.07296
tiv	-9.07337
▁istədi	-9.07459
▁maraqlan	-9.07463
▁rəng	-9.0753
▁ulduzların	-9.07558
▁növü	-9.07562
▁orda	-9.07577
▁bəs	-9.07609
▁ko	-9.07869
▁qüvvət	-9.08044
▁Əla	-9.08161
man	-9.08252
6	-9.08353
es	-9.08366
▁gedir	-9.08452
fi	-9.08609
▁işim	-9.08676
▁W	-9.08688
▁Sən	-9.08736
məli	-9.08994
▁kütləsi	-9.09047
▁onlardan	-9.09153
▁uşaqları	-9.09169
▁şirkət	-9.09299
▁alma	-9.0933
▁vasitə	-9.09419
▁ehtimalla	-9.09594
ent	-9.0986
▁bacar	-9.10085
▁məlumatı	-9.1037
▁ehtiyacımı	-9.10372
▁işi	-9.10465
▁qoy	-9.10494
▁ayaq	-9.10644
2	-9.11237
diyim	-9.11323
▁topla	-9.11327
▁telefon	-9.11448
▁xatırla	-9.11477
▁Hə	-9.11481
▁gördük	-9.11508
B	-9.11839
▁edilir	-9.11904
K	-9.12015
ist	-9.12291
▁bilmədiyimi	-9.12308
birinə	-9.12326
▁olmuş	-9.12343
▁xey	-9.12348
mizə	-9.12355
ğın	-9.12366
Bir	-9.12386
▁olduqları	-9.1242
▁şimal	-9.12575
tez	-9.12594
▁ş	-9.13189
anda	-9.13278
▁gətirdi	-9.13316
▁çöl	-9.13319
▁danış	-9.13322
▁həşərat	-9.13334
▁qaç	-9.13376
həng	-9.1343
▁Həqiqətən	-9.13466
▁asteroid	-9.13466
▁hədiyyə	-9.13466
▁ciddi	-9.13466
▁gizli	-9.13466
▁polis	-9.13467
▁ölçüsü	-9.13468
▁Cassini	-9.13482
▁səhnə	-9.13491
▁olmalıyıq	-9.13494
▁aid	-9.13496
▁oluruq	-9.13509
▁NASA	-9.13519
▁test	-9.13532
▁birinci	-9.13537
▁salmaq	-9.13549
▁bunları	-9.1356
▁mövzusunda	-9.13562
▁yaşlı	-9.13584
▁getmək	-9.13658
▁minlərlə	-9.13661
▁anlamaq	-9.1371
▁səni	-9.13726
▁sıra	-9.13738
▁həqiqi	-9.13801
▁edirsiniz	-9.13896
▁özümüzü	-9.1395
▁hissəciklər	-9.13964
▁keçmiş	-9.13986
▁məsələn	-9.1399
▁üzünü	-9.14087
▁yaradıl	-9.14108
▁sim	-9.14154
▁ad	-9.14225
▁alır	-9.14326
▁istəyirdim	-9.14424
▁çat	-9.14471
▁oyun	-9.14494
▁Həmi	-9.1471
larından	-9.14766
)"	-9.14768
▁bitkilər	-9.14817
gan	-9.14824
▁hekayəni	-9.14843
▁e	-9.14915
ış	-9.14937
▁kağız	-9.15015
tə	-9.1517
▁çoxunu	-9.15177
▁bölgə	-9.15184
kcə	-9.15357
▁dəyər	-9.15498
▁insanlarla	-9.15499
▁sənin	-9.1562
▁Yeni	-9.1563
▁canlı	-9.15725
▁olduğunuz	-9.16039
▁etməklə	-9.16123
▁daş	-9.1634
▁səviyyə	-9.1645
▁ata	-9.16519
▁forma	-9.16632
▁16	-9.16722
▁vaxtı	-9.16763
▁ye	-9.16786
▁ideya	-9.1686
arkən	-9.16904
lərimizi	-9.16925
▁baxış	-9.16932
▁anam	-9.16983
▁mı	-9.17015
raya	-9.17038
yəm	-9.17072
▁imkanlar	-9.17199
məyi	-9.17334
▁tanı	-9.17537
yan	-9.17594
▁kamera	-9.17722
▁yaşı	-9.18257
▁zəng	-9.18332
▁sinif	-9.18534
▁nüvə	-9.18596
ap	-9.18656
qərb	-9.18732
▁razı	-9.18834
▁etmir	-9.19174
lərimiz	-9.19302
▁fizika	-9.19329
▁işığı	-9.19329
▁cihaz	-9.1976
əqib	-9.19802
ımın	-9.19852
4	-9.20019
ah	-9.20168
sel	-9.20206
ilmiş	-9.20213
▁yaratdığı	-9.20491
E	-9.20547
▁yolla	-9.20557
Niyə	-9.20622
▁quruluş	-9.20675
▁çevril	-9.20808
ck	-9.20896
▁adaları	-9.20915
▁Bəz	-9.21042
▁Onu	-9.21126
▁vaxtlar	-9.21307
Nə	-9.214
ydi	-9.21423
landı	-9.21431
▁olurdu	-9.21498
▁cəmiyyət	-9.21533
▁əyləncə	-9.21617
▁düşür	-9.21752
▁Əvvəl	-9.21776
əcəksiniz	-9.21789
Qəhqəhə	-9.21799
▁Einstein	-9.21799
▁çıxıb	-9.21799
▁Eyni	-9.21799
▁eniş	-9.218
▁ictimai	-9.218
▁inanıram	-9.21802
▁olmayacaq	-9.21812
▁səhər	-9.21812
▁əlaqədar	-9.21815
▁gəlib	-9.21828
▁Əsas	-9.21845
▁Birincisi	-9.21847
▁parlaq	-9.21847
▁mənada	-9.21887
▁din	-9.21887
▁yaradıcılıq	-9.21894
uditoriya	-9.21897
▁salaq	-9.21958
▁Bang	-9.21969
▁Tamam	-9.21981
▁boyu	-9.22005
▁ibarətdir	-9.22017
▁verin	-9.22068
▁istədiyimiz	-9.22073
▁vəziyyətdə	-9.22113
▁görünüşü	-9.22125
▁sev	-9.22198
▁həyatımı	-9.2226
▁köməyi	-9.22364
gə	-9.22408
▁öyrənmək	-9.22421
▁gətirir	-9.22448
▁səyahət	-9.22473
▁mövzuda	-9.22514
▁hissi	-9.22518
▁ölçülü	-9.22601
▁etdiyiniz	-9.22666
▁deyiləm	-9.22685
▁istəyirdi	-9.22735
▁vacibdir	-9.22744
▁sənət	-9.22754
ının	-9.22759
▁Avropa	-9.22806
▁tələbələr	-9.22812
▁çiçək	-9.22877
▁olmaqla	-9.22908
▁əsər	-9.2295
▁edirdim	-9.23016
▁anla	-9.23048
▁7	-9.2306
▁kişilər	-9.23067
▁çətindir	-9.23154
▁dedilər	-9.23163
▁sürət	-9.23263
▁Bil	-9.23557
▁tarixi	-9.23652
us	-9.23654
▁Allah	-9.23713
ch	-9.23777
lay	-9.23845
▁deyilən	-9.23867
T	-9.24367
ırlar	-9.24387
▁nənə	-9.24406
▁aç	-9.24525
▁say	-9.2464
▁məktəbdə	-9.24907
ge	-9.24945
sın	-9.25056
▁metr	-9.25115
mişəm	-9.25201
▁soruş	-9.25242
▁əsr	-9.25261
▁as	-9.25494
▁x	-9.25554
▁dost	-9.25635
▁riyaziyyat	-9.25667
▁mənası	-9.26029
▁qalan	-9.26033
▁biridir	-9.26051
mağı	-9.26158
et	-9.26218
▁adamlar	-9.26442
▁vəzifə	-9.2658
▁gəz	-9.2668
▁söhbət	-9.26872
▁davamlı	-9.26919
▁fakt	-9.27082
aş	-9.27095
▁layihə	-9.27098
▁bəziləri	-9.27194
rə	-9.27472
▁düşünə	-9.27583
▁yığ	-9.27823
▁biləcəyi	-9.27849
əsi	-9.2787
İ	-9.27997
▁tərəfi	-9.28132
▁nəzarət	-9.28497
çi	-9.28505
▁iynəcə	-9.28576
▁malik	-9.28993
▁sahəsi	-9.28999
▁y	-9.29045
▁gen	-9.29121
3	-9.29146
▁ön	-9.2923
▁axı	-9.29408
lük	-9.29493
mışdı	-9.29525
▁ümid	-9.29529
▁başlayan	-9.29603
▁dəstək	-9.29611
1	-9.29633
▁Am	-9.29635
▁tədqiqat	-9.29653
nızı	-9.29714
▁ölçü	-9.29887
lim	-9.30028
▁is	-9.30079
▁deyərdi	-9.30412
▁atmosfer	-9.30558
▁yaşayır	-9.30717
▁gey	-9.30785
▁hökümət	-9.30838
▁əvəz	-9.30841
▁Risen	-9.3089
▁məcburiyyətində	-9.3089
▁Charlie	-9.3089
▁göstərəcəyəm	-9.3089
▁mükəmməl	-9.3089
▁müqayisə	-9.3089
▁Çin	-9.3089
▁əlbəttə	-9.3089
▁Qaranlıq	-9.30891
▁informasiya	-9.30891
▁neft	-9.30892
▁işarə	-9.30895
▁iştirak	-9.30903
▁üzrə	-9.30915
▁ərəb	-9.30915
▁gətirib	-9.30919
▁deyib	-9.30919
▁baxsanız	-9.3092
▁düşünürəm	-9.30922
▁öyrəndim	-9.30929
▁21	-9.30934
▁gerçək	-9.30935
▁çəkisi	-9.30938
▁deyim	-9.3095
▁dəvət	-9.3098
▁şir	-9.30982
▁riyazi	-9.31
▁alt	-9.3101
▁düşündüm	-9.31032
▁mövcuddur	-9.31059
▁nəzərdə	-9.31128
▁Anam	-9.31131
▁istəyən	-9.31135
imizin	-9.31144
▁baxmaq	-9.31193
▁həyatı	-9.31365
çün	-9.31369
▁Bəziləri	-9.31447
▁biləcəyini	-9.31463
madı	-9.31466
▁yerlərdə	-9.31489
▁xüsusilə	-9.315
▁adlanır	-9.31615
▁özümü	-9.3168
▁İki	-9.31683
ye	-9.3177
!""	-9.31776
nızda	-9.31781
▁yazıçı	-9.31787
▁hökumət	-9.318
▁sizinlə	-9.31871
▁olmağın	-9.31961
▁məndən	-9.32018
mır	-9.32087
▁əhəmiyyət	-9.32195
▁fərqi	-9.32199
▁maddənin	-9.32207
▁tərəfdən	-9.32262
▁robot	-9.32292
▁ayır	-9.32355
▁olmaz	-9.32393
▁gör	-9.32421
▁gələcəyi	-9.32494
▁gəldiyin	-9.32508
▁xidmət	-9.32551
▁mür	-9.32559
▁əsəri	-9.32684
özün	-9.32787
▁çoxluq	-9.3284
▁gördüyüm	-9.3322
▁qoya	-9.33292
▁Al	-9.33442
▁ünsiyyət	-9.33461
▁gələ	-9.33481
▁nisbət	-9.33489
▁işığın	-9.34021
▁iqtisadiyyat	-9.34055
▁dəyişə	-9.34175
▁ayrı	-9.34299
.000	-9.34483
▁axtar	-9.34656
▁şahid	-9.34893
▁internet	-9.34907
▁gül	-9.34924
▁qızlar	-9.35006
▁xaricində	-9.35149
▁yarana	-9.35184
▁hekayələri	-9.35263
dərk	-9.35402
ul	-9.35513
▁nəticəsi	-9.35704
▁Lo	-9.35768
ay	-9.35855
en	-9.35928
▁yazın	-9.35973
▁dənə	-9.36267
art	-9.36446
▁anlayış	-9.36451
▁hə	-9.36592
▁bas	-9.36605
dırlar	-9.3662
▁çal	-9.36936
mizi	-9.36999
▁qar	-9.37041
▁ayrıl	-9.37197
▁təbiət	-9.37198
▁it	-9.37532
▁öyrənmə	-9.37671
up	-9.37739
▁ara	-9.37894
▁dəyişiklik	-9.37903
▁kainatda	-9.37981
izə	-9.38115
▁get	-9.38167
▁parçacıq	-9.38256
▁ölç	-9.38358
nt	-9.38363
lanır	-9.38371
▁işlə	-9.3852
▁fikrin	-9.387
yimiz	-9.38745
▁ailə	-9.38746
▁bənzəyir	-9.38783
▁nəsil	-9.38796
iniz	-9.38821
V	-9.38843
▁kənd	-9.38901
dılar	-9.38924
▁araşdırma	-9.38948
▁başlanğıc	-9.3905
mısınız	-9.39093
▁işləyir	-9.39189
▁arası	-9.39263
N	-9.39545
▁500	-9.39552
Musiqi	-9.39664
▁tələbə	-9.39744
▁xətt	-9.3975
▁qoru	-9.39772
▁sənə	-9.39828
▁yerində	-9.39878
▁cəhət	-9.39998
▁Demə	-9.40002
▁mussonu	-9.4009
▁uça	-9.4015
▁danışmağ	-9.40255
▁30	-9.40287
qları	-9.4032
▁məktəblər	-9.40492
▁quş	-9.4064
▁U	-9.40718
▁qaz	-9.40732
▁kimliyim	-9.40735
▁olmalı	-9.40746
▁həqiqət	-9.40785
üəllif	-9.40807
▁İkinci	-9.40811
▁şans	-9.40842
Biz	-9.40848
ördüyünüz	-9.40867
▁uşaqların	-9.40871
▁azad	-9.40881
▁Android	-9.4089
▁investisiya	-9.4089
▁müvəffəqiyyət	-9.4089
▁nektar	-9.4089
▁orqan	-9.4089
▁qırmızı	-9.4089
▁rəssam	-9.4089
▁Google	-9.4089
▁baxımından	-9.4089
▁kilometr	-9.4089
▁muzey	-9.4089
▁qitə	-9.4089
▁inşa	-9.40891
▁ürək	-9.40891
▁maye	-9.40891
▁Dav	-9.40891
▁zövq	-9.40893
▁genetik	-9.40895
▁tənlik	-9.40895
▁çəkilib	-9.40899
lobal	-9.40899
▁risk	-9.409
▁görəcəksiniz	-9.40901
▁yaradılış	-9.40904
▁təyin	-9.40905
▁Keçə	-9.4091
▁çəkilmiş	-9.40911
▁etdirmək	-9.4096
▁İynəcələr	-9.40961
▁Əlbəttə	-9.40961
▁soruşur	-9.40961
▁yoxdu	-9.40971
▁paylaşmaq	-9.40996
▁tanış	-9.41
▁qurmaq	-9.41006
▁yaxınlarda	-9.41029
▁məkan	-9.41054
▁saxlaya	-9.41077
▁cinsi	-9.41098
▁dur	-9.41128
▁sonda	-9.41166
▁Nəticədə	-9.41199
▁Bəzi	-9.41219
▁yanında	-9.41265
▁gəldiyi	-9.41309
▁string	-9.41337
▁aldım	-9.41347
▁obyekt	-9.414
▁əsrdə	-9.41414
▁yalan	-9.41421
şaq	-9.41447
sunuz	-9.41591
gah	-9.41748
▁dünyadakı	-9.42008
▁ta	-9.4201
▁dəyişmə	-9.42028
əkk	-9.42047
▁Afrikaya	-9.42111
▁imkanı	-9.42135
▁Əl	-9.42155
▁qoşul	-9.4217
▁olmadığı	-9.42272
▁sürəti	-9.4232
▁deyilir	-9.42322
▁evdə	-9.42343
idir	-9.4244
▁bilirdi	-9.43033
▁kimidir	-9.43035
ran	-9.43118
ton	-9.43163
▁cəmi	-9.43168
▁yaradır	-9.43231
acam	-9.43319
▁bildiyi	-9.43581
diyiniz	-9.43613
▁yaradan	-9.43631
▁v	-9.4379
yin	-9.4393
▁Yen	-9.4399
sizlik	-9.44199
▁araşdır	-9.44264
inizi	-9.44451
məliyəm	-9.44481
dey	-9.44616
▁hissəsin	-9.44625
▁təsirləri	-9.44826
▁olmuşdu	-9.44916
if	-9.44956
ıqlı	-9.45004
▁sonu	-9.45307
▁başla	-9.45315
lərim	-9.45611
▁dəyişən	-9.45683
▁öyrən	-9.45803
nizi	-9.45818
▁olacağı	-9.4594
se	-9.45991
▁tapa	-9.46012
acağı	-9.46012
▁qutusu	-9.46019
▁statistika	-9.46436
est	-9.46525
ərkən	-9.46549
▁mərkəzi	-9.46584
▁fleyta	-9.46803
▁qarşıl	-9.46853
▁verdiyi	-9.47145
hi	-9.4718
▁sa	-9.47275
▁alın	-9.47289
▁deyirdi	-9.47444
▁sözləri	-9.47475
ha	-9.47843
alı	-9.4793
ilir	-9.48104
mişdi	-9.48163
▁bilmir	-9.48178
▁oluna	-9.48719
▁gedən	-9.48787
əcəyi	-9.488
ənəvi	-9.48992
▁şagird	-9.49009
yıq	-9.49459
▁mühit	-9.49537
▁Uşaqlar	-9.4955
Q	-9.49824
▁çəkdiyi	-9.49928
▁real	-9.4997
ro	-9.49981
9	-9.50268
▁mükafatı	-9.5032
▁nəzəriyyə	-9.50385
▁düşün	-9.50387
▁hekayəsi	-9.50473
▁apar	-9.50512
▁çoxluğu	-9.50553
Xeyr	-9.5076
umuz	-9.50767
▁nöqtələr	-9.50832
▁görün	-9.50928
iyyə	-9.51034
▁təxmin	-9.5111
şərq	-9.51149
▁təkamül	-9.51167
▁günəşi	-9.51185
▁miqdar	-9.51204
▁gördü	-9.51226
▁arzu	-9.51263
op	-9.51287
suz	-9.51338
▁şəkillərin	-9.51408
nif	-9.51412
▁birində	-9.51486
▁şüa	-9.51565
siya	-9.51628
▁özlərini	-9.51659
▁öldü	-9.51687
ne	-9.51887
▁iqtisadi	-9.51931
▁siyasət	-9.51983
▁cazibə	-9.51994
▁hökm	-9.52001
▁yəhudi	-9.52001
▁Chris	-9.52001
▁Prezident	-9.52001
▁köhnə	-9.52001
▁ucuz	-9.52001
▁xahiş	-9.52001
▁çiçəy	-9.52001
▁Bilirsiniz	-9.52001
▁iclas	-9.52002
▁siyasi	-9.52002
▁soba	-9.52002
▁Nyu	-9.52003
▁Yalınayak	-9.52003
▁ticarət	-9.52004
▁sosial	-9.52006
▁külək	-9.52007
▁götürüb	-9.52007
▁mühüm	-9.5201
▁içimizdə	-9.52015
▁Kosmos	-9.52015
▁yaranır	-9.5202
▁səma	-9.52025
▁qarışıq	-9.52026
▁fikrimcə	-9.52027
▁dostum	-9.52028
▁xatırlayıram	-9.52029
▁görünməz	-9.5204
▁13	-9.52044
▁işlərin	-9.52045
rey	-9.52048
▁Geri	-9.52061
▁material	-9.52065
▁25	-9.52069
▁Enceladus	-9.52081
▁çıxarmaq	-9.52124
▁etməyin	-9.52157
▁bildiyimiz	-9.52181
▁məhsulu	-9.52203
▁çalışmaq	-9.52205
▁gətirmək	-9.52208
▁milyonlarla	-9.52217
▁aşkar	-9.52229
▁Deməli	-9.52247
▁ingiliscə	-9.52259
▁əyləncəli	-9.52262
▁cib	-9.52302
▁milli	-9.52345
▁etdirən	-9.52395
▁araya	-9.52435
▁olduğumu	-9.52452
▁sözün	-9.52481
dığını	-9.52482
▁Hətta	-9.52514
xalq	-9.52518
yım	-9.52623
▁bilirdim	-9.52649
▁dahi	-9.52658
▁ağrı	-9.5267
▁bilərsən	-9.52724
raq	-9.52773
▁olundu	-9.52818
▁gəlmiş	-9.52834
▁diş	-9.52843
▁yoxsa	-9.52868
Hə	-9.52874
▁ortasında	-9.52886
▁Eynşteyn	-9.52893
▁Nəyə	-9.52897
▁edilmiş	-9.52937
▁başladıq	-9.52944
lanmış	-9.53004
▁gəlmək	-9.53167
▁verdik	-9.53249
▁suyun	-9.53264
▁ehtiyacı	-9.53366
▁qanun	-9.53383
▁Tək	-9.53387
▁Ştatlar	-9.53516
▁mi	-9.53517
▁göndər	-9.53666
▁tarix	-9.53671
malıdır	-9.53705
ing	-9.53754
pe	-9.538
▁göstərən	-9.53859
▁ədalətsiz	-9.53905
▁iyi	-9.53958
anı	-9.53991
▁olmaması	-9.54049
▁kon	-9.54163
▁uç	-9.54395
▁dalğa	-9.54462
əvi	-9.54468
uş	-9.54492
▁cavabı	-9.54605
▁tanıma	-9.54921
▁mü	-9.55079
▁qutu	-9.55092
▁yayıl	-9.55256
▁bar	-9.55383
icad	-9.55429
abl	-9.55648
▁ənənə	-9.55841
▁başlama	-9.55901
▁əsası	-9.55934
larımız	-9.55944
▁ağır	-9.5599
▁üzə	-9.56039
▁sizlər	-9.56066
▁Ha	-9.56094
məliyik	-9.56125
▁əvvəllər	-9.56148
▁səthin	-9.56189
▁iti	-9.5624
▁şəxs	-9.56266
▁vəziyyət	-9.56417
▁qara	-9.56679
▁yaşımda	-9.56844
▁Ay	-9.56879
▁peyk	-9.56904
▁çıxara	-9.56952
▁ölkələrdə	-9.57013
▁hara	-9.57139
▁yarısı	-9.57414
▁verə	-9.57421
ard	-9.57615
▁bircə	-9.57648
▁qur	-9.57734
asını	-9.57771
▁kənddə	-9.57914
dığınız	-9.58122
▁istifadəçi	-9.58231
▁yerlər	-9.58277
özümə	-9.5831
mir	-9.58354
▁olanlar	-9.58371
▁planetlərin	-9.58436
▁anlama	-9.58563
▁yarada	-9.58837
mişdim	-9.59078
▁üsul	-9.59101
▁çıxarır	-9.5917
▁Hamı	-9.59203
▁məqsəd	-9.59262
▁qalır	-9.59277
▁dini	-9.59444
▁kəsi	-9.59453
▁məlumatlar	-9.59699
bo	-9.59843
he	-9.60117
▁istəyir	-9.6027
nu	-9.60272
▁gələcəkdə	-9.60322
▁danışma	-9.60434
▁əs	-9.6051
▁teleskop	-9.60545
una	-9.60586
▁qiymət	-9.60721
▁istədiyi	-9.60854
sək	-9.61039
▁həşəratlar	-9.61123
▁gəl	-9.61167
muş	-9.6124
▁müəllimləri	-9.61333
və	-9.61373
▁Et	-9.61432
unda	-9.61455
▁görədir	-9.61633
hu	-9.6173
▁olanları	-9.61752
▁etdiyini	-9.61813
▁Bo	-9.61821
▁səthi	-9.61846
▁varlıq	-9.61997
▁edəndə	-9.62082
▁aya	-9.62181
ndəki	-9.62253
rand	-9.62462
▁məsuliyyət	-9.62661
ımı	-9.62709
▁sualı	-9.62728
F	-9.62768
▁Öz	-9.62951
▁öl	-9.62957
ardı	-9.63043
pa	-9.63072
▁danışır	-9.63098
▁Mario	-9.63141
ölçülü	-9.63313
G	-9.63341
Amma	-9.6336
▁gö	-9.6344
▁radio	-9.63465
▁valideyn	-9.63582
▁adamı	-9.63701
▁tamam	-9.63734
ene	-9.63768
başa	-9.63813
üz	-9.63817
saydı	-9.63836
▁danışa	-9.63901
▁dediyi	-9.63963
▁etibar	-9.63993
▁şəxsi	-9.64055
▁ədəbiyyat	-9.64159
▁ibarət	-9.64168
▁mövsüm	-9.64186
▁anlamağ	-9.64338
maz	-9.64465
müşdü	-9.64477
▁mesaj	-9.64479
▁ört	-9.64484
▁öt	-9.64495
▁məhdud	-9.645
▁klassik	-9.64501
▁əxlaq	-9.64501
▁Cənub	-9.64501
▁Məhkəmə	-9.64501
▁Təsəvvür	-9.64501
▁həddin	-9.64501
▁kvadrat	-9.64501
▁meteorit	-9.64501
▁müraciət	-9.64501
▁potensial	-9.64501
▁xəstəxana	-9.64501
▁Əfqanıstan	-9.64501
▁Qolf	-9.64501
▁metal	-9.64501
▁əhatə	-9.64501
▁komanda	-9.64501
▁onlayn	-9.64501
▁simvol	-9.64502
▁hakim	-9.64502
▁ötəri	-9.64502
▁göstəricilər	-9.64502
▁ultrabənövşəyi	-9.64502
▁İsveç	-9.64502
▁irəliləyiş	-9.64502
▁həssas	-9.64503
▁simulyasiya	-9.64503
▁dərman	-9.64504
▁Rəq	-9.64505
▁mikrofon	-9.64505
▁Bilmirəm	-9.64506
▁elementlər	-9.64506
(?)	-9.64507
▁xanım	-9.64508
▁analiz	-9.64508
▁onsuz	-9.64512
▁heyrət	-9.64514
ğunu	-9.64515
▁super	-9.64518
▁həkim	-9.64519
▁Hava	-9.64527
içik	-9.64529
▁olmayıb	-9.64529
▁verib	-9.64538
▁dəhşətli	-9.64541
▁45	-9.64546
▁ziya	-9.64546
▁proqramı	-9.64546
▁bilet	-9.64549
▁mübahisə	-9.64565
ursuz	-9.6458
▁bilməzsiniz	-9.64589
▁sahəsində	-9.64592
▁BHÇ	-9.64592
▁mikroskop	-9.64592
▁fikirləşir	-9.64604
▁görürəm	-9.64615
▁nəticəsində	-9.64627
▁kat	-9.64644
▁edərdim	-9.64647
▁işləri	-9.64684
▁yaratdı	-9.64697
▁bilmədiyi	-9.64715
▁alıb	-9.64719
▁yaşında	-9.64731
▁incə	-9.64771
▁Ap	-9.64775
▁70	-9.6478
▁yaşamaq	-9.64785
lub	-9.64789
▁yaşıl	-9.64816
▁qalmaq	-9.64828
▁basın	-9.64841
▁rəngli	-9.64844
ük	-9.64848
▁90-	-9.64848
▁aldıq	-9.64865
▁dəyişir	-9.64881
▁altı	-9.64889
▁oynaya	-9.64899
▁Hələ	-9.64901
▁bilmirlər	-9.64919
▁Artıq	-9.6492
aret	-9.64952
▁şeydən	-9.64952
▁yaratdıq	-9.64983
▁hazırlama	-9.65017
yik	-9.65026
▁Əks	-9.6503
▁Baş	-9.65037
▁gördüm	-9.65065
▁proqramlaşdırma	-9.65067
▁ilah	-9.65088
▁ölçüdə	-9.65136
▁kosmosun	-9.65145
▁İsa	-9.65167
▁Birinci	-9.65173
▁Ru	-9.65203
▁dəyişmək	-9.65214
▁Hal	-9.65215
▁qalın	-9.65256
▁qazan	-9.65264
▁istəyirsiniz	-9.65327
▁özünüz	-9.65362
▁təxmini	-9.65398
▁hissəsidir	-9.65431
▁quşlar	-9.65529
▁yaşayan	-9.65596
▁qəd	-9.657
ber	-9.6585
▁işlədir	-9.65858
mp	-9.65888
şi	-9.65999
▁Sənə	-9.6604
uz	-9.66172
rum	-9.66202
▁qü	-9.66233
izin	-9.66237
lənmişdi	-9.66263
▁Gün	-9.66266
▁yerli	-9.66322
▁yük	-9.66329
be	-9.66457
▁Məni	-9.66635
▁l	-9.66717
ımıza	-9.66822
▁Həyat	-9.66829
▁düşən	-9.66841
▁işləmə	-9.66856
▁götür	-9.66864
▁qalmış	-9.66865
▁Sizin	-9.6691
▁vizual	-9.67058
▁maraqlıdır	-9.67174
▁qura	-9.67194
eme	-9.67312
▁te	-9.67442
▁Nigeriyada	-9.67496
▁ölkələr	-9.67689
▁bacara	-9.67742
▁idilər	-9.6775
▁miras	-9.67765
▁getdik	-9.67797
likdə	-9.67848
▁etməyim	-9.67856
▁yolda	-9.67953
▁bildiyim	-9.68122
▁dey	-9.68178
▁gətir	-9.68198
war	-9.68239
iylə	-9.68313
▁qadını	-9.68396
▁Ne	-9.68452
▁göstərə	-9.68524
▁sevir	-9.68528
▁gəlirsə	-9.68701
▁filmi	-9.69027
▁par	-9.69054
▁lazımlı	-9.69241
diyini	-9.6925
▁dəyərlər	-9.69314
▁etiketi	-9.69346
▁quruluşu	-9.69352
▁Tə	-9.69401
▁yed	-9.69429
▁gedə	-9.69458
▁anası	-9.6946
ənc	-9.69463
klər	-9.69673
▁18	-9.69942
9-	-9.69963
ert	-9.69989
▁Budur	-9.70108
▁zamanlar	-9.70164
▁düş	-9.702
mamış	-9.70276
▁verməli	-9.70352
▁tutur	-9.70418
▁varlıqlar	-9.70445
▁itki	-9.70737
▁vad	-9.70798
yın	-9.71015
▁gəmi	-9.71032
▁saç	-9.71164
▁mədəniyyət	-9.71225
▁uğurl	-9.71726
▁hüquqları	-9.71743
▁sistemini	-9.7184
▁işimiz	-9.71851
▁fikirlər	-9.71854
ion	-9.719
▁quru	-9.71987
▁qoyur	-9.7213
ut	-9.72134
uq	-9.72173
üb	-9.72296
tal	-9.72386
▁bağ	-9.72539
ləşdir	-9.72846
▁çevrildi	-9.72924
▁fəaliyyət	-9.7296
▁forması	-9.72977
▁27	-9.73026
▁rahat	-9.73045
▁nəticələri	-9.73116
▁öyrəndiyim	-9.73246
rəm	-9.73247
▁tozlar	-9.7328
▁vasitəsi	-9.73401
▁kitablar	-9.73424
▁qapı	-9.73451
▁yarat	-9.73458
yü	-9.73509
▁re	-9.73559
▁sahələri	-9.73592
▁sahədə	-9.73597
▁z	-9.73611
▁çatan	-9.73674
▁tərz	-9.73816
məyəcək	-9.74005
▁prosesi	-9.74152
▁effekt	-9.74276
▁pi	-9.74338
muz	-9.74502
ine	-9.74525
▁müzakirə	-9.74649
▁sənayesin	-9.74654
▁varlı	-9.74734
▁üzün	-9.74735
▁səyahəti	-9.74741
▁görüş	-9.74765
▁adlandır	-9.74826
▁on	-9.74911
uli	-9.74958
▁yaşım	-9.75079
ləşmə	-9.7513
▁problemin	-9.75207
8	-9.75248
ləyir	-9.75294
▁dön	-9.75322
▁Ge	-9.75353
▁tuta	-9.75377
▁düşdü	-9.75378
▁vaxtda	-9.75535
əmsal	-9.75658
▁dilini	-9.75701
ümüzü	-9.75746
səydi	-9.75758
▁utan	-9.75866
▁düşünür	-9.75912
ken	-9.75964
▁şeydir	-9.76005
ilməsi	-9.76042
rəsində	-9.76096
▁yaşadığı	-9.76228
▁detal	-9.76303
▁təməl	-9.76424
▁fotoşəkil	-9.76465
ınızı	-9.765
ho	-9.76505
▁do	-9.76522
▁bolt	-9.76542
▁görməyə	-9.7655
▁tutdu	-9.76603
▁istə	-9.76635
▁musson	-9.76659
▁ruhu	-9.76826
▁10-	-9.76871
afi	-9.76939
▁otaqda	-9.76989
larıdır	-9.77012
▁keçi	-9.77037
▁getdi	-9.77137
▁orbitin	-9.77404
ğımızı	-9.77435
▁yaşaya	-9.77479
▁hey	-9.77508
hər	-9.77599
ilirəm	-9.776
Bəli	-9.77625
Ancaq	-9.77641
▁hissə	-9.77826
▁olanı	-9.77975
▁yaşadı	-9.78144
▁baxa	-9.78203
▁ehtimalı	-9.78226
▁texnik	-9.78241
▁bilsəydi	-9.78259
▁198	-9.78325
▁Nəticə	-9.78337
▁196	-9.78338
▁istehsal	-9.78405
4-	-9.78484
lubmu	-9.78494
▁ikisi	-9.78543
▁tərəfdə	-9.78619
▁xət	-9.78627
▁yağ	-9.78664
▁mahnı	-9.78681
▁tədqiq	-9.78738
▁aldı	-9.78764
▁Warren	-9.78787
▁cədvəl	-9.78787
▁demokrati	-9.78787
▁etiraz	-9.78787
▁hidrogen	-9.78787
▁kabel	-9.78787
▁nigeriyalı	-9.78787
▁yeniyetmə	-9.78787
▁Çətin	-9.78787
▁axmaq	-9.78787
▁üfüq	-9.78787
▁əyri	-9.78787
İnanılmaz	-9.78787
▁xəyal	-9.78787
▁çıxacaq	-9.78787
▁inanc	-9.78787
▁foto	-9.78787
▁qoyub	-9.78787
▁Şimal	-9.78787
▁məhkəmə	-9.78787
▁cavan	-9.78788
▁hesablama	-9.78788
▁dalğalanmalar	-9.7879
▁inanırdı	-9.7879
▁professional	-9.7879
▁sürfə	-9.78791
▁künc	-9.78791
▁təzə	-9.78791
▁eşidəndə	-9.78792
▁qonşu	-9.78792
▁idman	-9.78792
▁zəka	-9.78792
▁genişliyində	-9.78793
▁bölüşmək	-9.78793
▁beləliklə	-9.78798
▁mətbuat	-9.78798
▁qisimi	-9.788
▁maddəni	-9.78804
▁bilməyəcəyi	-9.78808
▁qızdırma	-9.78815
▁danışarkən	-9.78829
▁turizm	-9.78829
▁çap	-9.78838
▁həyatımda	-9.78839
▁buruq	-9.78839
▁Əsl	-9.78841
▁adətən	-9.78847
▁dəyişikliyi	-9.78847
▁döndü	-9.78849
▁sevirəm	-9.78855
▁Mary	-9.78869
▁ölkəsində	-9.7888
▁aparmaq	-9.78881
▁QİÇS	-9.78893
▁elektrik	-9.78893
▁çıxmaq	-9.78895
▁verilən	-9.78896
▁neylə	-9.78897
▁Polis	-9.78903
▁baxaraq	-9.78919
▁Əvvəlcə	-9.7893
▁ke	-9.78935
▁düşündük	-9.78938
əqin	-9.78944
▁ölür	-9.78966
▁Özüm	-9.79014
▁aldığım	-9.79014
▁keçib	-9.79029
▁baxanda	-9.7903
▁sınaq	-9.79063
▁Cavab	-9.79076
▁daşları	-9.7912
▁bilmirdilər	-9.79123
▁New	-9.79163
▁elektromaqneti	-9.79193
▁sarı	-9.79211
▁verilməsi	-9.79215
▁Hamımız	-9.79221
▁İncəsənət	-9.79265
▁eqo	-9.7927
▁çoxalma	-9.79277
▁yazmaq	-9.79284
▁duya	-9.79297
Ya	-9.79319
▁dəyiş	-9.7932
çilər	-9.79347
▁planetlər	-9.79354
▁Cas	-9.7936
▁dostlarım	-9.79382
▁halında	-9.79402
▁Kimsə	-9.79425
▁şeytan	-9.7944
ırdım	-9.79482
▁bilməyə	-9.79502
▁Özümü	-9.7953
▁içəri	-9.79572
▁şəkilləri	-9.79585
▁burax	-9.79615
▁düşünmək	-9.79636
▁axır	-9.79639
▁qızıl	-9.79673
▁Hindistanın	-9.79691
inməyən	-9.79751
▁Nigeriya	-9.79811
▁sizcə	-9.79827
▁içindəki	-9.79832
▁60	-9.79839
▁sevin	-9.79842
▁qarşısın	-9.79847
▁kimlik	-9.7989
▁yaşadığım	-9.80108
▁qalaktikaların	-9.80132
▁apardı	-9.80167
▁haldır	-9.80184
▁yara	-9.80204
▁məktəbi	-9.80247
▁gücünü	-9.80377
imizi	-9.80447
▁adalarında	-9.80531
▁Musiqi	-9.80605
dırılmış	-9.80606
▁verirdi	-9.80619
▁art	-9.80671
mizdə	-9.8076
əmişə	-9.8077
▁Mə	-9.80851
▁ağcaqanadlar	-9.80891
▁gəlmişdi	-9.80921
▁faizi	-9.80971
▁bunlardan	-9.81032
▁boltu	-9.81083
▁edil	-9.81094
▁görmə	-9.81124
▁yerləri	-9.81254
▁tik	-9.81321
▁insanlığ	-9.81493
▁doğrudan	-9.815
▁dövrə	-9.81516
▁yeməyi	-9.8152
▁erkə	-9.81584
▁dəyişikliklər	-9.81628
▁rəngi	-9.8166
▁etməz	-9.8167
▁olmaqdan	-9.81686
Bunu	-9.81692
▁başqalarını	-9.81802
▁veril	-9.81874
▁du	-9.81883
▁öyrəndik	-9.81947
▁çevirə	-9.81984
▁ver	-9.82024
▁böyüdü	-9.82159
▁dilə	-9.82224
▁qazanır	-9.82308
▁sına	-9.82308
▁insanlıq	-9.82324
▁hərəkat	-9.82397
▁peyklər	-9.82443
▁olacağın	-9.82447
▁yerdir	-9.82523
▁məsafəni	-9.82554
▁istəmə	-9.82605
▁yaşda	-9.82743
▁Az	-9.82769
▁yanaşma	-9.8279
▁olunmuşdu	-9.82841
▁həyatını	-9.82925
▁ton	-9.82963
▁ayın	-9.8299
▁arada	-9.83077
▁ixtira	-9.83096
▁səslər	-9.83121
▁gördükləri	-9.8316
▁biznes	-9.83304
ülü	-9.83574
Ata	-9.83684
sının	-9.83719
▁qanunları	-9.83724
▁qızların	-9.83878
cəm	-9.8388
▁seçil	-9.8389
▁texnologiyanı	-9.84093
▁fa	-9.84189
▁vermə	-9.84237
▁Qızlar	-9.84253
▁oyna	-9.84317
Allah	-9.84413
qo	-9.84441
▁təc	-9.8448
▁kainatı	-9.84484
▁iz	-9.8462
▁gedəndə	-9.8484
▁sinifdə	-9.84872
▁gəlirlər	-9.84943
50	-9.84968
▁danışırdı	-9.85013
irəm	-9.8507
▁etmirdi	-9.85087
▁cümləni	-9.85127
▁dayanır	-9.8519
▁saldı	-9.85208
▁maşınlar	-9.85214
▁gözləyir	-9.85248
▁şüası	-9.85299
ilə	-9.85315
▁sala	-9.85317
▁riyaziyyatı	-9.85343
ko	-9.85477
▁qalaktikanı	-9.856
▁gətirə	-9.85658
▁Rus	-9.85693
▁halın	-9.8571
oloji	-9.85796
▁tanın	-9.85865
▁yerin	-9.85922
▁səsi	-9.85936
ku	-9.86029
dıqca	-9.86142
▁mərhələ	-9.86146
▁robotlar	-9.86166
▁anlayışı	-9.86177
▁hissələri	-9.8618
aman	-9.86278
▁hamısını	-9.86326
▁dövrün	-9.86428
▁gözü	-9.86453
▁anlayışını	-9.865
▁dünyamız	-9.8653
▁almış	-9.86611
▁axtarır	-9.86682
▁mühitin	-9.86747
▁kitabın	-9.86802
▁cihazlar	-9.86837
▁getmə	-9.86888
mışdım	-9.86921
▁dövrü	-9.86928
▁hadisələr	-9.87038
▁Ali	-9.87074
▁yolun	-9.8708
çılıq	-9.87098
▁otağı	-9.8729
▁fizikası	-9.87293
▁oxu	-9.87318
▁alət	-9.87327
▁danışdığı	-9.87372
▁fəaliyyətin	-9.87383
▁si	-9.87576
▁keçdik	-9.87613
lilik	-9.87628
▁düymə	-9.87981
▁aş	-9.88051
▁bəzilərini	-9.88079
▁edənlər	-9.88171
▁peyki	-9.88508
▁həftədə	-9.88555
▁haqqı	-9.88565
▁şəhər	-9.88571
▁apara	-9.8858
▁dildə	-9.887
▁yerləşdir	-9.88705
▁davran	-9.88795
▁sənəd	-9.89007
▁150	-9.89036
▁olmasını	-9.89068
ce	-9.89074
▁Düz	-9.89085
▁axtarış	-9.89206
▁etiket	-9.89221
▁Kollec	-9.89317
tmaq	-9.89457
maqla	-9.89465
▁hazırla	-9.89578
▁təbəqə	-9.8961
▁ayı	-9.89795
▁bədən	-9.89808
▁lider	-9.8994
zdən	-9.90087
▁top	-9.90107
isi	-9.90149
▁deməli	-9.90314
▁etdiril	-9.90358
▁nöqtədə	-9.90457
mayıb	-9.90458
,5	-9.90466
▁Ro	-9.90558
iki	-9.90618
▁rənglər	-9.90681
▁yemək	-9.90793
▁əsərləri	-9.90812
▁hərbi	-9.90864
▁Amerikada	-9.90877
▁Ko	-9.90965
▁fəaliyyəti	-9.90966
▁etdikləri	-9.91008
mıza	-9.91087
▁hərəkatlar	-9.91352
▁kürə	-9.91386
▁Mars	-9.91427
ley	-9.91491
▁vasitələri	-9.91562
▁bilə	-9.91617
ji	-9.9169
kim	-9.9184
▁Afrikanı	-9.919
▁Hamısı	-9.91974
▁qum	-9.91976
mızın	-9.91991
▁verəcək	-9.92075
ster	-9.92085
▁silah	-9.92156
▁600	-9.92168
▁Se	-9.92212
▁uzaqlaş	-9.92224
nc	-9.92227
▁döyüş	-9.92291
▁Mar	-9.92759
▁gözləmə	-9.92768
▁aparıl	-9.92797
▁hamını	-9.92815
qdan	-9.92844
izi	-9.9294
▁ek	-9.93131
▁dərslər	-9.93227
▁Həm	-9.93243
madan	-9.93358
ləşib	-9.93361
▁CA	-9.93376
▁mənbə	-9.93483
mayacaq	-9.93537
▁düşə	-9.93554
▁afrikalı	-9.93774
qal	-9.93904
3-	-9.93979
▁Ke	-9.93981
▁vur	-9.94094
▁tutu	-9.94177
Necə	-9.94273
▁fəaliyyətdə	-9.943
məklə	-9.94324
▁keçirə	-9.94351
▁çata	-9.94359
fantastik	-9.94378
ülmüş	-9.94433
▁sonsuz	-9.94521
▁ehtiyacım	-9.94531
▁bilmirdi	-9.94546
▁sistemimiz	-9.94631
▁madd	-9.94653
umuzu	-9.94657
▁qayna	-9.94673
Mənim	-9.94761
▁demişdi	-9.94784
▁artır	-9.9481
▁oxuyur	-9.94835
▁buludu	-9.94938
deki	-9.94987
▁qapıl	-9.95015
▁sürə	-9.9505
▁uçur	-9.95064
▁demiş	-9.95068
▁xərclə	-9.95098
▁Rea	-9.95274
▁edilmə	-9.95277
ünün	-9.95298
duğunu	-9.95339
▁məsləhət	-9.95366
▁radi	-9.95372
öh	-9.95403
üxtəlif	-9.95407
iyyat	-9.95413
▁ehti	-9.95435
▁yardım	-9.95445
▁rast	-9.95445
munikasiya	-9.95453
▁MİNV	-9.95453
▁axşam	-9.95453
▁eğrileri	-9.95453
▁funksiyası	-9.95453
▁gözəgörünməz	-9.95453
▁hüququ	-9.95453
▁inanırıq	-9.95453
▁intervyu	-9.95453
▁konflikt	-9.95453
▁krater	-9.95453
▁maksim	-9.95453
▁maneə	-9.95453
▁memar	-9.95453
▁məcbur	-9.95453
▁televizor	-9.95453
▁kommunikasiya	-9.95453
▁məqalə	-9.95453
▁məxsus	-9.95453
▁siçan	-9.95453
▁sorğu	-9.95453
▁təmsil	-9.95453
▁yuxu	-9.95453
▁Cəmiyyət	-9.95454
▁Növbə	-9.95454
▁edərdiniz	-9.95454
▁gizlə	-9.95454
▁oxşayır	-9.95454
▁baxımdan	-9.95454
▁səkkiz	-9.95454
▁Coş	-9.95454
▁gəzinti	-9.95454
▁güvən	-9.95454
▁səhləb	-9.95455
▁bilmərik	-9.95455
▁hədəf	-9.95455
▁olunub	-9.95456
▁proqnoz	-9.95456
▁Male	-9.95457
▁sirr	-9.95458
▁meyvə	-9.95458
▁evliliyi	-9.95461
▁məzun	-9.95463
▁jurnalist	-9.95463
▁proton	-9.95463
▁bayır	-9.95465
▁Newton	-9.95466
▁olunurdu	-9.95466
▁pro	-9.95468
▁cisim	-9.95471
▁qurtar	-9.95473
▁qayıdanda	-9.95474
▁kaluza	-9.95475
▁yetkin	-9.95476
▁yanaşı	-9.95476
▁zidd	-9.95477
▁böyümüşəm	-9.95477
▁Təəssüf	-9.9548
▁xəbərdar	-9.95485
▁John	-9.95488
▁dibin	-9.9549
▁müşahidəçi	-9.95492
▁Titrəmə	-9.95493
▁dövranı	-9.95496
▁Jay	-9.95496
▁maliyyə	-9.95498
▁çıxarıl	-9.95498
▁məğ	-9.955
▁vasitəsiylə	-9.95502
▁Təxminən	-9.95505
▁biləcəyiniz	-9.95507
▁etməliyik	-9.95508
▁amerikalı	-9.95514
▁həvəs	-9.95518
▁fikirləşirdim	-9.9552
▁ətrafımızda	-9.95525
▁tutmaq	-9.95526
▁boyutlar	-9.95539
▁verilir	-9.95542
▁Asiya	-9.95544
▁cinsli	-9.95545
▁çevrilib	-9.95545
▁Johny	-9.95546
▁razılaşma	-9.95555
▁ilham	-9.95562
▁İran	-9.95572
▁edim	-9.95573
▁çalışdıq	-9.95574
▁Adətən	-9.95581
▁Problem	-9.95581
▁şüur	-9.95581
▁hazırladıq	-9.95584
▁Təkcə	-9.95595
▁yazdım	-9.956
▁şok	-9.95609
▁toqquşma	-9.95611
▁Dəri	-9.95624
▁beynə	-9.95633
▁edəcəksiniz	-9.95635
▁edəcəm	-9.95635
▁yanına	-9.95642
▁baxıb	-9.95644
▁vətəndaş	-9.95667
misiniz	-9.9571
▁75	-9.95725
▁etsək	-9.95732
▁ayıran	-9.9575
▁qardaşım	-9.95767
▁r	-9.95797
▁uzunluğunda	-9.95801
çinizdə	-9.9581
▁Uz	-9.9582
▁həllər	-9.95863
arsınız	-9.95868
▁anlaya	-9.95886
▁400	-9.95903
▁göy	-9.95939
ev	-9.95956
▁197	-9.95966
▁Hind	-9.95979
▁Qər	-9.95999
▁mövsümü	-9.96009
▁bənzədiyin	-9.96014
▁Bugün	-9.96016
▁işləyən	-9.96019
▁bilmədim	-9.9602
▁düşdüm	-9.96069
▁oxumaq	-9.96083
▁nəticəsidir	-9.96087
alıcı	-9.96094
▁gəlmir	-9.96098
▁kap	-9.9612
▁oturan	-9.96123
▁etibarlı	-9.96152
▁aləm	-9.962
▁istəyirsən	-9.9622
▁mənəvi	-9.9622
▁hüceyrələr	-9.96235
▁böyükdür	-9.96255
▁gəlin	-9.96278
ətli	-9.96339
▁cəhd	-9.96342
▁bugün	-9.96367
ləriylə	-9.9637
▁xoşum	-9.96507
▁Hey	-9.96525
▁Mərkəzi	-9.96536
eti	-9.96582
▁can	-9.96586
qlu	-9.96603
▁geyin	-9.96617
oj	-9.96637
▁olmasıdır	-9.9664
▁gəldik	-9.96653
▁təs	-9.96665
▁san	-9.96708
▁varmı	-9.96735
▁nümunələri	-9.96748
açar	-9.9678
▁bağlıdır	-9.96807
▁Universitetində	-9.96817
▁hazırlaya	-9.96862
mid	-9.96894
▁reallaş	-9.96911
▁görəndə	-9.9699
▁fizikaçı	-9.97057
▁danışan	-9.97081
▁fond	-9.97167
mak	-9.97168
▁quruluşunu	-9.97194
ron	-9.97282
▁birləşdirmək	-9.97305
▁edəcəklər	-9.97345
▁tutum	-9.9738
▁olmadığın	-9.97387
▁quran	-9.97404
▁Xeyr	-9.97422
▁dəyişiklikləri	-9.97438
▁azaldı	-9.97525
▁girmə	-9.9754
▁heyran	-9.97577
▁xüsusiyyəti	-9.97596
▁verdilər	-9.97632
▁xətti	-9.97682
▁kurs	-9.97732
▁fürsəti	-9.97749
ke	-9.97785
▁özümdən	-9.97891
▁həbs	-9.97918
▁xeyr	-9.97922
▁şəxsin	-9.97942
eyr	-9.97948
▁adlan	-9.97954
▁önün	-9.97956
▁nömrələr	-9.9803
▁mükafat	-9.98103
ğımız	-9.9819
lıdır	-9.98199
▁azında	-9.98231
▁biləcəyim	-9.98366
▁romanı	-9.98609
▁yaratdığım	-9.9863
otel	-9.98638
▁digərin	-9.98693
▁yenilik	-9.98722
▁Biri	-9.98739
▁səfər	-9.98788
mizin	-9.98832
▁tut	-9.98916
▁kar	-9.98921
▁oxuyan	-9.99145
eri	-9.99257
▁edilirdi	-9.99288
▁tədqiqatlar	-9.99346
▁seçim	-9.99466
▁adım	-9.99479
▁çevir	-9.99482
▁çatmış	-9.99513
dunuz	-9.99579
▁telek	-9.99674
▁otur	-9.99772
▁dövrdə	-9.99783
▁çiçəklərin	-9.99844
▁naziri	-9.99884
▁sür	-9.99961
▁qoyul	-10.0001
▁otağ	-10.0013
enler	-10.0019
▁dördün	-10.0024
▁Aristotel	-10.0025
▁telefonu	-10.003
▁əlində	-10.0036
▁xəstəliyin	-10.0036
▁hərəkəti	-10.0037
▁vermədi	-10.0056
▁oxuya	-10.0074
ləşdirmək	-10.0076
▁deşi	-10.0077
▁uza	-10.0084
▁proses	-10.0085
▁deyəndə	-10.0089
▁istədiyini	-10.0091
▁başqası	-10.0099
▁yazma	-10.0123
j	-10.0139
▁tanınır	-10.0146
▁başını	-10.015
▁parçasını	-10.0158
fə	-10.0168
▁xa	-10.0172
▁şeylərdən	-10.0177
▁keçə	-10.0181
▁rəsmi	-10.0195
mek	-10.0198
ker	-10.0205
▁milyonda	-10.0208
▁tərəfin	-10.0211
▁be	-10.0215
mda	-10.0223
▁inanma	-10.0239
əcəyimiz	-10.0242
▁alətləri	-10.0243
üstə	-10.0249
▁təhlükə	-10.025
nən	-10.0258
▁çəki	-10.0259
▁okeanı	-10.026
▁ve	-10.0275
▁çəkiliş	-10.0288
▁ifaçılar	-10.0296
lerini	-10.0297
birində	-10.0299
▁açıqlama	-10.0299
▁Yorkda	-10.0306
▁versiyası	-10.0307
▁əlaqəni	-10.0309
▁so	-10.031
▁uğur	-10.0328
▁uşaqlıqda	-10.0336
▁etmişdi	-10.0339
0-	-10.0341
▁eşitdiyi	-10.0345
▁Uşaqları	-10.036
lamaq	-10.0365
▁dönür	-10.0366
▁Burda	-10.0373
▁mərasimdə	-10.0373
cəyiniz	-10.0376
dar	-10.0376
▁fotoşəkili	-10.0376
ırsınız	-10.0387
▁strukturları	-10.0401
▁yaratmağ	-10.0402
▁Meri	-10.041
▁uşağ	-10.0411
▁əlləri	-10.0414
▁yazır	-10.0421
yıb	-10.0421
▁astronom	-10.0424
▁gəlməsini	-10.0452
lanan	-10.0483
▁yanaş	-10.0489
▁qalma	-10.0501
ümüz	-10.0501
▁işlədi	-10.0505
diklərini	-10.0508
▁ayaqları	-10.0528
▁bizdə	-10.0543
C	-10.0544
▁keçdi	-10.0544
ümə	-10.0545
▁qaydaları	-10.0566
▁mu	-10.0609
yer	-10.0612
▁şəklində	-10.0615
▁etməkdir	-10.0618
▁ideyası	-10.0642
▁Londonda	-10.0642
ıza	-10.0648
▁boy	-10.065
▁elmin	-10.0652
▁şahidi	-10.0673
▁Di	-10.0675
▁enerjisini	-10.0677
▁dəlil	-10.0678
▁qızı	-10.0682
▁kəsə	-10.0685
2-	-10.069
▁sahil	-10.0711
w	-10.0711
▁insana	-10.0716
▁saxla	-10.0721
▁keçirmə	-10.0737
hə	-10.0739
luğun	-10.0745
ləmək	-10.0764
▁yazıl	-10.0769
▁El	-10.0783
▁Bankı	-10.0784
▁qarşılaş	-10.0784
▁yoldaşı	-10.0788
▁əməliyyat	-10.0789
▁tarixin	-10.0795
▁para	-10.0807
eşi	-10.081
▁ölümü	-10.0811
▁Emi	-10.0819
▁Səni	-10.0819
▁aləti	-10.0824
▁şəklin	-10.0838
qu	-10.0838
▁baxır	-10.0876
▁paylaş	-10.0894
▁Du	-10.0905
▁oturdu	-10.0929
dum	-10.0932
▁temperatur	-10.0936
▁yerdən	-10.0941
loq	-10.0943
▁not	-10.0945
nizlə	-10.0952
▁məhsul	-10.0954
▁istəy	-10.0955
▁iç	-10.0956
▁bitirmə	-10.0958
onlar	-10.096
iyorlar	-10.0962
yorlar	-10.0964
▁oynayır	-10.0964
etik	-10.0966
▁qüvvəsi	-10.0971
▁aldığı	-10.0973
▁fotoşəkillər	-10.0986
▁La	-10.0987
▁olunmuş	-10.0996
▁götürür	-10.1003
ve	-10.1016
▁ailədə	-10.1019
▁yağışı	-10.1022
▁sürü	-10.1031
▁ça	-10.1036
▁şəhərdə	-10.1049
▁artım	-10.1055
▁uyğunlaşma	-10.1061
udur	-10.107
▁üzündə	-10.1072
▁yaşama	-10.1075
acağım	-10.1085
lərimi	-10.1086
▁oxumağ	-10.1088
▁baba	-10.1093
yır	-10.1107
bra	-10.1112
,"	-10.1117
R	-10.1128
▁mədəniyyəti	-10.1157
▁maddələr	-10.1161
▁rəngləri	-10.1163
▁məlumatları	-10.1175
ilib	-10.1183
▁filmin	-10.1183
Y	-10.1191
▁öyrəndiyimi	-10.1191
oma	-10.1192
▁Orta	-10.1194
nətə	-10.1201
ola	-10.1202
alaca	-10.1202
Bizi	-10.1206
▁Ye	-10.1207
▁sualları	-10.1217
▁açdı	-10.1218
▁alətlər	-10.1218
▁hissələrin	-10.1221
▁Hekayə	-10.1232
the	-10.1233
▁şəkl	-10.1244
▁Ka	-10.1257
urdu	-10.1266
▁bişir	-10.127
▁olunması	-10.1271
▁səhifə	-10.129
▁alimlər	-10.1291
gün	-10.1305
dəyəm	-10.1307
▁üzü	-10.131
▁suyu	-10.1313
▁nəzəriyyəsini	-10.1315
sıdır	-10.1318
▁çıxardı	-10.1324
▁kök	-10.1327
▁etdir	-10.1327
▁olunma	-10.1328
▁yetiş	-10.1331
▁məktəbin	-10.1335
▁fikirləş	-10.1336
▁Me	-10.1337
▁sü	-10.134
▁günün	-10.1341
daki	-10.1343
ığın	-10.1358
▁bü	-10.1367
ısı	-10.1381
ünü	-10.1382
liyə	-10.1389
▁Kişi	-10.139
▁yerləş	-10.1402
lerin	-10.1403
▁çəkirdi	-10.1406
▁yavaş	-10.1409
Kənd	-10.1414
laşdırma	-10.1416
Birinci	-10.1424
W	-10.1425
▁neçəsi	-10.1426
üzə	-10.1426
Hindistan	-10.1429
▁ifşa	-10.1429
orbit	-10.143
Çox	-10.1431
İndi	-10.1431
Burada	-10.1433
▁çıxış	-10.1433
▁obyektlər	-10.1439
▁ərazi	-10.1446
edərkən	-10.1448
▁yaxınlaşdı	-10.1448
▁inam	-10.145
▁xəbərləri	-10.1452
▁tapma	-10.1456
İl	-10.1459
▁verməyə	-10.146
▁toxu	-10.1462
▁müddətdə	-10.1463
irdi	-10.1466
▁olanların	-10.1475
yiniz	-10.1481
▁ələ	-10.1485
▁90	-10.1493
Hər	-10.1502
▁avtomobil	-10.1506
▁qorx	-10.1509
▁ulduzları	-10.151
▁dediyim	-10.1513
Titanik	-10.1514
▁cəsarət	-10.152
▁Maraqlı	-10.1523
▁səfəri	-10.1529
▁düşünürsünüz	-10.1529
yle	-10.1534
▁boş	-10.1535
exnologiya	-10.1539
▁xeyir	-10.154
▁Məh	-10.1542
▁qurdu	-10.1543
▁jurnal	-10.1544
▁sübut	-10.1545
▁Jo	-10.1545
▁bəşər	-10.1545
▁Apophis	-10.1545
▁Hasbro	-10.1545
▁Həşərat	-10.1545
▁Mandela	-10.1545
▁Meksika	-10.1545
▁Müsahibə	-10.1545
▁Richard	-10.1545
▁Telefon	-10.1545
▁doğur	-10.1545
▁fundamental	-10.1545
▁karbon	-10.1545
▁media	-10.1545
▁mərkəzdə	-10.1545
▁nümayiş	-10.1545
▁oktyabr	-10.1545
▁oğurluq	-10.1545
▁prezident	-10.1545
▁püskür	-10.1545
▁qəflətən	-10.1545
▁qənaət	-10.1545
▁zinakar	-10.1545
▁çərçivə	-10.1545
▁İnkişaf	-10.1545
▁Ədalət	-10.1545
▁əlverişli	-10.1545
pesifik	-10.1545
qnostik	-10.1545
▁Gökada	-10.1545
▁Həbsxana	-10.1545
▁avtomat	-10.1545
▁ehtiras	-10.1545
▁futbol	-10.1545
▁gözlənilməz	-10.1545
▁könüllü	-10.1545
▁müalicə	-10.1545
▁məktub	-10.1545
▁oğurluğu	-10.1545
▁qığılcım	-10.1545
▁təkmilləşdir	-10.1545
▁yüngül	-10.1545
▁övlad	-10.1545
▁aclıq	-10.1545
▁olmayaraq	-10.1545
▁qolfçu	-10.1545
▁rejim	-10.1545
▁edəcəyəm	-10.1545
▁görünmür	-10.1545
▁filosof	-10.1545
▁palçıq	-10.1545
▁tapşırığı	-10.1545
▁oğul	-10.1545
▁əqli	-10.1545
▁narko	-10.1545
Bitboks	-10.1545
▁master	-10.1545
▁qarışqa	-10.1545
▁sərt	-10.1546
▁Sual	-10.1546
Qırmızı	-10.1546
▁Aydın	-10.1546
▁Okean	-10.1546
▁Fide	-10.1546
▁valehedici	-10.1546
▁Kenya	-10.1546
▁öyrədil	-10.1546
▁stabil	-10.1546
▁Quran	-10.1546
▁islahat	-10.1546
▁saxlayır	-10.1546
▁qrammatika	-10.1546
▁mühazirə	-10.1546
▁mühərrik	-10.1546
▁Tom	-10.1546
leksi	-10.1546
▁tip	-10.1546
▁qida	-10.1546
▁qovuş	-10.1546
▁rastlaş	-10.1547
▁qəsd	-10.1547
▁skan	-10.1547
▁tapşırıq	-10.1547
ologiya	-10.1547
▁quyru	-10.1547
▁140	-10.1547
rədd	-10.1547
▁cənab	-10.1547
▁İsveçrə	-10.1548
▁disk	-10.1548
▁danışacam	-10.1548
▁tərəfdar	-10.1548
▁Space	-10.1548
▁ekran	-10.1548
▁inana	-10.1548
▁genişləmə	-10.1548
▁bəli	-10.1548
məyinizi	-10.1548
▁başlayın	-10.1548
▁Atam	-10.1548
▁bilmərəm	-10.1548
▁bucaq	-10.1549
▁Martin	-10.1549
▁genişləndir	-10.1549
▁üstünlük	-10.1549
ardım	-10.155
▁ağaclar	-10.155
▁sağlamlıq	-10.155
▁ediləcək	-10.155
▁dəyişəcək	-10.155
▁prim	-10.155
▁həddə	-10.155
▁reallaşdırmaq	-10.155
aliyyə	-10.155
leştir	-10.155
IP	-10.1551
▁çatdırmaq	-10.1551
▁aşıb	-10.1551
▁qarşımızda	-10.1551
▁oxşar	-10.1551
▁göndəril	-10.1552
memiz	-10.1552
▁Yox	-10.1552
▁edilib	-10.1552
▁istiqamətli	-10.1553
▁cəs	-10.1553
▁satın	-10.1553
▁müxbir	-10.1554
əfil	-10.1554
vatar	-10.1554
▁keçərək	-10.1554
nvol	-10.1555
▁Adam	-10.1555
acağam	-10.1555
▁yarışı	-10.1556
▁həsr	-10.1556
▁reallıq	-10.1557
▁kənarında	-10.1557
▁qırıl	-10.1557
▁Getdi	-10.1558
▁tapdım	-10.1558
▁etsinlər	-10.1558
▁mədəni	-10.1558
▁She	-10.1558
▁görünürdü	-10.1559
▁yaşamış	-10.1559
▁ayrılmış	-10.1559
▁söyləmə	-10.156
▁çalışırdım	-10.1561
malısınız	-10.1561
▁yatır	-10.1561
▁teatr	-10.1561
▁mağara	-10.1561
▁əlimizdə	-10.1562
▁bacardıq	-10.1562
▁nəfəs	-10.1562
▁qoruma	-10.1563
▁çalışdım	-10.1563
▁meyl	-10.1563
▁düzəltdik	-10.1564
▁soyuq	-10.1564
▁bəy	-10.1564
▁soruşuram	-10.1565
▁bilirsiz	-10.1565
▁yenilən	-10.1566
▁dönən	-10.1566
▁etmişəm	-10.1566
▁İnan	-10.1566
anaram	-10.1567
▁bayram	-10.1567
asının	-10.1567
▁qarlı	-10.1567
▁əksinə	-10.1568
▁dəyişdirmək	-10.1568
Angel	-10.1569
▁bacarığı	-10.1569
▁dağını	-10.1569
nsə	-10.157
▁götürək	-10.1571
▁əsir	-10.1571
▁qatar	-10.1571
▁daxilində	-10.1573
▁mənasında	-10.1574
▁otağına	-10.1574
▁geyim	-10.1577
▁harda	-10.1577
▁getməyə	-10.1577
▁tərs	-10.1578
▁desək	-10.1579
▁Po	-10.1581
▁göstərim	-10.1581
▁çəkdik	-10.1581
▁görüntü	-10.1583
▁milyardda	-10.1584
▁ortalama	-10.1584
oğr	-10.1584
▁sayt	-10.1584
▁ətraflı	-10.1585
▁altına	-10.1586
▁80	-10.1587
▁desəm	-10.1589
▁gedin	-10.159
▁qaldırın	-10.159
▁edəcəyim	-10.1591
▁atmaq	-10.1592
▁bilmirdik	-10.1593
▁siq	-10.1593
▁Rusiya	-10.1594
▁planetimizin	-10.1595
▁fikirləşin	-10.1596
▁öldür	-10.1598
▁istehsalı	-10.1598
▁daşıdığı	-10.1599
▁dəyərli	-10.1601
▁mənasız	-10.1603
ore	-10.1605
▁olarkən	-10.1606
lerle	-10.1606
brik	-10.1608
▁doğrudur	-10.1608
▁xəbəri	-10.1609
oral	-10.161
▁istəyirlər	-10.1611
biri	-10.1613
▁bal	-10.1615
▁qabiliyyəti	-10.1616
▁pop	-10.1618
▁ulduzun	-10.1619
▁düyü	-10.1622
ərsiniz	-10.1623
▁atmosferi	-10.1623
▁əşyaları	-10.1624
▁səhra	-10.1624
▁nədirsə	-10.1625
▁ağlını	-10.1626
▁The	-10.1627
uncu	-10.1628
▁əladır	-10.1633
▁unutma	-10.1634
▁deyəsən	-10.1634
▁çatışm	-10.1635
▁yazıb	-10.1635
▁aydındır	-10.1638
▁Deyə	-10.1638
▁danışdı	-10.1639
▁uşağın	-10.1643
▁edici	-10.1646
▁poz	-10.1647
▁beynimiz	-10.1648
▁olmuşdum	-10.165
▁elədim	-10.1652
▁düzəldə	-10.1653
ılır	-10.1661
▁bağlan	-10.1662
po	-10.1662
▁çəkən	-10.1665
▁gəzdir	-10.1668
▁Tam	-10.1671
▁miqdarı	-10.1671
▁deyərdim	-10.1672
▁vura	-10.1673
ash	-10.1675
fantastika	-10.1678
▁əlaqəli	-10.1679
acaqsınız	-10.1681
▁təsirli	-10.1682
▁olurdum	-10.1685
▁yadım	-10.1685
▁alim	-10.1686
▁Nəyi	-10.1687
▁toxun	-10.1688
rəb	-10.1689
-2	-10.1694
▁məhsulunu	-10.1694
▁bey	-10.1696
şərqi	-10.1696
▁bilməli	-10.1705
▁Tarixi	-10.1705
▁yanımız	-10.171
▁şərt	-10.1714
▁sözlə	-10.1716
▁olduqda	-10.1716
▁Dan	-10.1727
uruq	-10.1727
▁göndərdiyi	-10.173
▁öyrənməy	-10.1733
▁kəndə	-10.1734
▁uşaqlarımızı	-10.1734
larımızda	-10.1752
üt	-10.1752
▁anlam	-10.1758
▁müzakirələr	-10.1761
▁istilik	-10.1767
nüz	-10.1767
▁sonrası	-10.1768
▁Ki	-10.177
▁dünyasını	-10.1774
▁edirdik	-10.1775
▁əvvəlcə	-10.1776
▁gəldilər	-10.178
▁edildiyin	-10.1781
kanın	-10.1781
▁bildiklərini	-10.1784
▁ailəsin	-10.1792
▁məndə	-10.1792
▁qol	-10.1792
▁etik	-10.1797
▁inandırı	-10.1798
lis	-10.1799
▁San	-10.1803
▁keçdiyi	-10.1815
acak	-10.1821
▁birləşdir	-10.1829
▁kimya	-10.1831
▁Qadınlar	-10.1833
▁atdı	-10.1835
▁etsə	-10.1844
▁ci	-10.1855
▁əlaqədə	-10.1859
▁Hekayələr	-10.1869
plar	-10.187
▁qona	-10.1872
▁gəldim	-10.1876
ft	-10.1882
▁verirlər	-10.1886
▁kainatımız	-10.1892
▁hini	-10.1893
▁sürdü	-10.1894
ənab	-10.1896
▁idiniz	-10.1901
▁Ondan	-10.1902
▁Ana	-10.1911
▁2000	-10.1912
▁Britaniya	-10.1919
mamaq	-10.1922
▁dilin	-10.1936
han	-10.1938
▁düyməsini	-10.1939
▁birinə	-10.1945
▁əliniz	-10.1951
▁yerimə	-10.1955
▁fikirdir	-10.1961
isal	-10.1961
▁başlanğıcında	-10.1985
▁gətirmə	-10.1992
▁adlandırdı	-10.1992
uyur	-10.2003
▁cənuba	-10.2017
▁əsrin	-10.2019
ek	-10.2019
▁qazana	-10.2025
mağımız	-10.2039
▁tapmağ	-10.2042
▁Roma	-10.2047
▁düşdük	-10.2049
▁qanunların	-10.2055
yara	-10.2059
▁kitabxanalar	-10.2074
▁deyilik	-10.2075
▁eşitmə	-10.2076
▁çevirdi	-10.208
▁İndiki	-10.2087
sek	-10.2092
▁planları	-10.2093
▁sistemimizdə	-10.2093
▁çəkin	-10.2096
▁paltarlar	-10.2115
▁keçid	-10.2119
▁düşməyə	-10.2125
▁kitabım	-10.2126
ızdır	-10.2132
▁mərkəzində	-10.2137
Ar	-10.2144
▁tanınma	-10.2147
▁başı	-10.2148
landiya	-10.2156
▁bitir	-10.2158
▁yeməklər	-10.2162
▁deyildim	-10.2172
▁toxunu	-10.2177
▁oğlanlar	-10.218
▁kaf	-10.218
▁şirkəti	-10.2181
▁usta	-10.2184
len	-10.2195
▁Göz	-10.2211
tır	-10.222
▁istəmir	-10.2223
▁yönəl	-10.2224
▁Mill	-10.2231
▁bizimlə	-10.2235
olu	-10.2249
▁bit	-10.2257
▁oyunlar	-10.2258
▁in	-10.2261
▁şəkilini	-10.2267
▁yanaşır	-10.2269
▁Kral	-10.2272
▁olduqların	-10.2287
▁sistemində	-10.229
amın	-10.2299
ünüz	-10.2305
▁şəxsə	-10.232
▁ayaqqabı	-10.2326
▁yazırdı	-10.2331
▁iqtisadiyyatın	-10.2332
▁ət	-10.2337
ləndirir	-10.2362
▁təşkilatın	-10.2372
▁çarp	-10.2391
▁st	-10.2394
ili	-10.2405
▁Həyatın	-10.241
▁nüvəsi	-10.241
▁alırdı	-10.2411
▁nədən	-10.2411
▁qapını	-10.2418
▁yetirmə	-10.2418
▁ne	-10.2428
sinizsə	-10.243
▁bi	-10.2431
▁uşağı	-10.2436
▁müəyyənləşdir	-10.245
▁sənayesi	-10.2459
▁beyni	-10.2463
▁təəccüblən	-10.2467
▁miqyasl	-10.2472
abil	-10.2473
▁Min	-10.2474
▁ölümün	-10.2477
▁yaxşıdır	-10.2478
▁getməli	-10.2481
▁riyaziyyatçı	-10.2484
▁deyirsiniz	-10.2491
▁təcrübəm	-10.2506
▁yolunu	-10.2507
▁müəllimə	-10.2507
▁üsulu	-10.2513
▁haqq	-10.2523
▁kişilərin	-10.2531
▁gətirdiyi	-10.2535
▁Kitab	-10.2541
▁xaric	-10.2541
▁Pe	-10.2542
▁detalları	-10.2546
dədir	-10.2557
▁atası	-10.2558
▁təsirini	-10.2572
▁psix	-10.2579
▁varlığ	-10.2586
▁söyl	-10.2589
▁bilmədi	-10.2592
yirəm	-10.2599
▁fleytanı	-10.2604
▁sualını	-10.2605
▁görmədiyi	-10.2626
▁müəllimi	-10.2635
▁Qalaktikalar	-10.2656
▁atamı	-10.2671
umuzun	-10.2689
▁fi	-10.269
▁birimizi	-10.2691
▁okeanda	-10.2696
ürük	-10.27
▁göstəril	-10.2701
▁formada	-10.2707
▁kitabı	-10.2716
▁sil	-10.2723
▁heyvanlar	-10.273
▁gözlərin	-10.2731
▁suda	-10.2732
dək	-10.2738
▁istifadəçilər	-10.274
▁tutar	-10.274
5-	-10.2742
▁Müəllim	-10.2748
▁boşluq	-10.2748
▁həşəratı	-10.2749
▁tozları	-10.2756
▁günlərdə	-10.2759
▁səy	-10.2777
mirdi	-10.2778
mişik	-10.2794
▁qaynaq	-10.2796
▁işini	-10.2802
▁parçam	-10.2808
▁gəlməsi	-10.2809
▁yolunda	-10.2816
▁oxuy	-10.2824
▁qışqır	-10.2825
▁əsərini	-10.2836
▁dizayner	-10.284
▁ailəm	-10.2853
▁rəqsi	-10.2858
osu	-10.2858
▁vasitələrin	-10.2863
▁ili	-10.2872
▁mərasim	-10.2873
mirik	-10.2878
▁analar	-10.2881
▁Kitablar	-10.2902
▁bölgələrdə	-10.291
▁çarpma	-10.2919
De	-10.2919
dınız	-10.2923
ırsınızsa	-10.2926
▁kompyuter	-10.2927
▁vermir	-10.2942
▁diplom	-10.2943
▁inandığı	-10.2946
▁Özü	-10.2949
▁şəklini	-10.2962
▁olardım	-10.2991
▁siyahı	-10.3001
▁kanal	-10.3014
▁şəxslər	-10.3016
▁işçilər	-10.3059
▁başlanğıcı	-10.3065
▁imtahan	-10.3065
▁bazarın	-10.3071
▁çiçəklə	-10.3071
▁giri	-10.3083
▁1000	-10.3086
▁salmağ	-10.3098
▁bilməzdi	-10.3108
▁heyvan	-10.3111
▁öyrənməli	-10.3131
dığımı	-10.3136
▁zal	-10.3143
▁Fleyta	-10.3146
▁yaran	-10.3149
▁desə	-10.3158
▁sahibi	-10.3161
ınca	-10.3165
lama	-10.3168
▁dedikləri	-10.3175
▁vəziyyəti	-10.3176
▁verənlər	-10.3186
6-	-10.3204
▁telefonları	-10.3208
▁çəkdiyimi	-10.3262
and	-10.3266
▁söyləyə	-10.3269
▁versiyasın	-10.327
▁biznesi	-10.3284
▁hissəsində	-10.3293
▁xəstə	-10.3303
▁mağaza	-10.3312
▁detallar	-10.3322
▁gəlsə	-10.3323
▁Aristoteli	-10.3338
silə	-10.3343
▁gördüyü	-10.3353
▁deş	-10.3353
▁növlərin	-10.3363
▁po	-10.3366
▁dərsi	-10.3378
metri	-10.3383
▁bənzə	-10.3385
▁həşəratları	-10.3391
▁yaratma	-10.3403
▁demir	-10.3409
▁ətrafda	-10.341
▁olmadı	-10.3411
▁Wall	-10.3417
▁tele	-10.3423
minin	-10.3426
▁eşid	-10.3427
▁Uşaq	-10.3435
▁istər	-10.3439
▁dəyişməyi	-10.3445
▁Qə	-10.3451
▁məhbus	-10.3484
▁baxma	-10.3497
▁bölgüsü	-10.3505
baş	-10.3515
▁ölkələrin	-10.3516
▁kağızı	-10.3521
▁təpə	-10.3527
▁birləş	-10.3551
▁sehr	-10.3571
▁proyekt	-10.3571
yoruz	-10.3572
üzgü	-10.3572
yini	-10.36
▁heyvanları	-10.3601
▁əhəmiyyəti	-10.3614
▁bildiri	-10.3615
▁azalma	-10.3626
▁debat	-10.363
▁digərləri	-10.3631
▁qrafik	-10.3634
▁sevdiyim	-10.3636
▁uçdu	-10.3652
▁xoşlayır	-10.3654
▁texnologiyaları	-10.3656
▁Mer	-10.3661
200	-10.3663
▁vardır	-10.3665
▁dinlə	-10.3673
dırıcı	-10.3684
▁gir	-10.3684
▁təsirlən	-10.3686
▁çəkilə	-10.3687
▁Qadın	-10.369
süz	-10.3694
atın	-10.3701
▁faiz	-10.3711
▁düşmə	-10.3717
12	-10.3718
Başqa	-10.373
▁itirdi	-10.3739
▁elmlə	-10.3739
mirəm	-10.3748
▁inandır	-10.375
▁hazırlaş	-10.3754
▁görmüş	-10.3755
cısı	-10.376
▁baha	-10.3767
▁bölgələr	-10.3769
▁çıxa	-10.3774
▁dəli	-10.3776
▁dayandır	-10.3778
edici	-10.3778
▁təhsili	-10.3779
üyü	-10.38
▁prinsip	-10.3805
▁böyüklüyü	-10.3818
▁özəl	-10.3821
▁Eynşteyni	-10.3833
▁əsəb	-10.3846
▁tədqiqatı	-10.3848
▁göstərdiyi	-10.3852
▁olanın	-10.3856
ərlər	-10.386
▁törə	-10.3868
▁materiallar	-10.3883
▁300	-10.3887
▁qalx	-10.3899
▁qoruya	-10.3905
▁qarışdır	-10.3908
▁mövzusu	-10.3909
▁xüsus	-10.3911
▁ortada	-10.3916
yı	-10.3925
string	-10.3926
həqiqi	-10.3927
mümkündür	-10.3928
təbii	-10.393
Belə	-10.393
▁edəcəyini	-10.3931
lanma	-10.3933
▁səviyyəsin	-10.3936
müəyyən	-10.3938
boy	-10.3944
Dah	-10.3945
orta	-10.3946
▁naxışlar	-10.3948
▁Oğl	-10.3949
▁şəbəkə	-10.3953
▁acı	-10.3956
lıqla	-10.3957
▁kino	-10.396
zaman	-10.3962
▁büdcə	-10.3962
▁işıqlandır	-10.3965
▁dərinlik	-10.3965
yız	-10.3968
▁kart	-10.3975
altı	-10.3982
yəndə	-10.3982
▁pulu	-10.3983
▁kimliyi	-10.3995
▁düşünürdü	-10.3996
Sizə	-10.3997
▁pey	-10.4003
▁ölü	-10.4009
▁dağıdı	-10.4011
▁sektor	-10.4014
▁yanı	-10.4019
▁sualım	-10.4023
Əla	-10.4025
▁oxş	-10.4026
▁istədikləri	-10.4027
▁uy	-10.4028
▁robotları	-10.4031
▁Düşün	-10.4035
▁götürdü	-10.4037
▁nizam	-10.4037
onun	-10.4037
urizm	-10.4038
▁Qısa	-10.4038
▁məlum	-10.4038
İstə	-10.4038
axmayaraq	-10.4039
əhray	-10.4039
itrəmə	-10.404
üasir	-10.4041
▁adət	-10.4041
▁Kepl	-10.4041
▁evlilik	-10.4042
ilyon	-10.4043
nternet	-10.4043
▁qütb	-10.4043
▁tanıyır	-10.4043
itab	-10.4043
▁köç	-10.4043
▁keyfiyyətl	-10.4044
▁qazandır	-10.4044
övq	-10.4044
▁Sufi	-10.4045
▁fövqəl	-10.4045
▁Kompüter	-10.4045
▁gənişləmə	-10.4045
Gülmə	-10.4045
proqramlaşdırıla	-10.4045
▁1908	-10.4045
▁Andromeda	-10.4045
▁Avstraliya	-10.4045
▁Başlanğıc	-10.4045
▁Dickens	-10.4045
▁Dövlət	-10.4045
▁Fransisko	-10.4045
▁Huygens	-10.4045
▁Kendal	-10.4045
▁Konqres	-10.4045
▁Məhəmməd	-10.4045
▁Məqsəd	-10.4045
▁Normal	-10.4045
▁Street	-10.4045
▁Venera	-10.4045
▁Vyetnam	-10.4045
▁Xüsus	-10.4045
▁Yaxud	-10.4045
▁alışqanlıq	-10.4045
▁buyurur	-10.4045
▁görmüsünüz	-10.4045
▁hobbi	-10.4045
▁ismarıc	-10.4045
▁lüğət	-10.4045
▁ləzzət	-10.4045
▁müsbət	-10.4045
▁partlama	-10.4045
▁peyğəmbər	-10.4045
▁pilot	-10.4045
▁qabaq	-10.4045
▁qaytar	-10.4045
▁rəğmən	-10.4045
▁xarakter	-10.4045
▁yapışqan	-10.4045
▁yaşayış	-10.4045
▁çuxur	-10.4045
▁öhdəsind	-10.4045
▁şərəf	-10.4045
▁əsrarəngiz	-10.4045
Valideyinlər	-10.4045
əssüm	-10.4045
▁Anderson	-10.4045
▁Tunguska	-10.4045
▁Təbiət	-10.4045
▁doğulmuş	-10.4045
▁gezegen	-10.4045
▁immiqra	-10.4045
▁nəqliyyat	-10.4045
▁oksigen	-10.4045
▁sabah	-10.4045
▁smartfonlar	-10.4045
▁səslənir	-10.4045
▁təhdid	-10.4045
▁uğra	-10.4045
▁çaşdırıcı	-10.4045
▁ümumiyyətlə	-10.4045
▁Haring	-10.4045
▁cəld	-10.4045
▁fikirləşməyin	-10.4045
▁istedad	-10.4045
▁mayalanma	-10.4045
▁çatlaqlar	-10.4045
▁əziyyət	-10.4045
▁ideal	-10.4045
▁maqnit	-10.4045
▁məhşur	-10.4045
▁Paris	-10.4045
▁döndərə	-10.4045
▁inanmır	-10.4045
▁metan	-10.4045
▁qürur	-10.4045
▁spir	-10.4045
▁Şəxs	-10.4045
▁Əvəzi	-10.4045
▁personajlar	-10.4045
▁səmimi	-10.4045
▁aktiv	-10.4045
▁qələm	-10.4045
▁tayf	-10.4045
▁tikinti	-10.4045
▁yorul	-10.4045
▁sakit	-10.4045
▁Məhsul	-10.4045
▁eşq	-10.4045
▁heykəl	-10.4045
▁inanırlar	-10.4045
▁işarəsidir	-10.4045
▁çoxalırlar	-10.4045
▁məşq	-10.4045
▁salsaq	-10.4045
▁küləy	-10.4045
▁yıx	-10.4045
▁mono	-10.4045
▁reaksiya	-10.4045
▁qoca	-10.4045
▁vurğula	-10.4045
▁Kosm	-10.4045
▁mümkünlüyün	-10.4045
▁görünməyən	-10.4046
▁bələdçi	-10.4046
▁gələcəyə	-10.4046
▁sarsı	-10.4046
▁şüşə	-10.4046
meliyiz	-10.4046
rüf	-10.4046
▁Sto	-10.4046
▁Facebook	-10.4046
▁əksəriyyəti	-10.4046
▁qaranlığı	-10.4046
▁şair	-10.4046
cazə	-10.4046
▁əlamət	-10.4046
▁Steve	-10.4046
▁antropologiya	-10.4046
▁heyranedici	-10.4046
mobil	-10.4046
▁kullan	-10.4046
▁yamsılayır	-10.4046
▁romantik	-10.4046
▁uydurma	-10.4046
▁rica	-10.4046
▁bioloji	-10.4046
▁sıxlaş	-10.4046
▁tapıla	-10.4046
▁qaradərili	-10.4046
▁taleyi	-10.4046
▁Arzu	-10.4046
▁Erik	-10.4046
▁tibb	-10.4046
▁iflic	-10.4046
▁qidalanır	-10.4047
▁tutmuş	-10.4047
▁təşəbbüs	-10.4047
Axır	-10.4047
▁sentyabr	-10.4047
▁sərbəst	-10.4047
▁Qətiliklə	-10.4047
▁təsdiq	-10.4047
▁Hollivud	-10.4047
▁gözləyən	-10.4047
▁hayat	-10.4047
▁Özümüzü	-10.4047
▁cazibədar	-10.4047
▁keyfiyyətləri	-10.4047
▁boru	-10.4047
▁istiqamətində	-10.4047
arici	-10.4047
cəbr	-10.4047
▁öyrənilməsi	-10.4047
▁görüb	-10.4047
▁anlayırıq	-10.4047
▁şlyapanı	-10.4047
▁dəstəkləyə	-10.4047
▁yüksəl	-10.4047
▁uçacağı	-10.4047
▁qaldırmaq	-10.4047
▁zənc	-10.4047
▁Peter	-10.4047
▁Plan	-10.4047
▁tabe	-10.4047
ord	-10.4047
▁Alman	-10.4047
▁qadir	-10.4048
▁günahkar	-10.4048
▁artist	-10.4048
▁balina	-10.4048
▁ağlım	-10.4048
▁fəsil	-10.4048
▁təşkilatlar	-10.4048
▁görərik	-10.4048
port	-10.4048
▁aramızda	-10.4048
▁xalqa	-10.4048
▁ip	-10.4048
▁Görünü	-10.4049
▁səmərəli	-10.4049
off	-10.4049
yararlı	-10.4049
▁müdrikliyi	-10.4049
▁hazırlanan	-10.4049
aluza	-10.4049
▁hazırlayır	-10.4049
▁şahini	-10.4049
▁dördüncü	-10.4049
▁kədər	-10.4049
▁quldur	-10.405
Su	-10.405
▁100.000	-10.405
▁oxuduğum	-10.405
▁oturub	-10.405
▁şiş	-10.405
▁yarandı	-10.405
▁reallığı	-10.405
▁etdirdik	-10.405
▁mümkünsüz	-10.4051
▁torpaq	-10.4051
▁keçməli	-10.4051
▁qalıqları	-10.4051
▁diqqətinizi	-10.4051
▁mühümdür	-10.4051
▁Yaşa	-10.4051
▁baxdığınız	-10.4051
▁irq	-10.4051
▁adlandırdığımız	-10.4051
▁partladı	-10.4051
▁bilsək	-10.4051
▁yum	-10.4052
▁gülün	-10.4052
▁dağıl	-10.4052
▁dolanir	-10.4052
▁marağı	-10.4052
▁tapdığım	-10.4052
▁etsəniz	-10.4052
▁sevinc	-10.4053
▁yavaşca	-10.4053
▁hündürlükdə	-10.4053
▁öyrənmişəm	-10.4053
▁yağır	-10.4054
▁çiz	-10.4054
▁başlamışam	-10.4054
▁baxırdım	-10.4054
▁göründüyü	-10.4054
▁rəhmli	-10.4054
▁anladıq	-10.4054
▁ruhlandır	-10.4054
▁Öyrəndi	-10.4055
▁Atası	-10.4055
mayacağı	-10.4055
▁etdirir	-10.4055
▁nizamlı	-10.4055
▁hardasa	-10.4056
▁Elektron	-10.4056
▁alqışla	-10.4056
▁sanaram	-10.4056
rol	-10.4057
▁alış	-10.4057
▁vurmaq	-10.4057
▁yaratdığımız	-10.4057
seniz	-10.4058
▁soy	-10.4058
mos	-10.4058
▁yazılıb	-10.4058
▁öyrənir	-10.4058
▁anladım	-10.4058
▁bilsin	-10.4058
▁getməyi	-10.4059
▁fil	-10.4059
▁Təsadüfi	-10.4059
▁tapdıq	-10.4059
▁ağırlıq	-10.406
▁məsləhətim	-10.406
▁sağlam	-10.406
▁Gecə	-10.4061
▁göstərəcək	-10.4061
▁Olan	-10.4061
▁layiqdir	-10.4062
▁tutul	-10.4062
▁haqlı	-10.4062
▁çətinliklər	-10.4062
▁yataq	-10.4062
▁virus	-10.4062
▁uçmaq	-10.4062
▁oteldə	-10.4063
▁dəyişəcəyi	-10.4063
▁aralarında	-10.4063
▁TV	-10.4063
▁düşürəm	-10.4064
▁mey	-10.4064
▁çıxarıb	-10.4065
▁mahnılar	-10.4065
▁gözünüz	-10.4065
▁oyunca	-10.4066
▁əyləşən	-10.4066
▁tamaşa	-10.4066
▁baxdığımızda	-10.4066
▁Hökumət	-10.4066
▁müstəqil	-10.4066
▁sifət	-10.4066
▁vahid	-10.4066
▁İngiltərə	-10.4066
▁Keçmiş	-10.4066
▁qalıb	-10.4066
▁adlandırırlar	-10.4066
▁Məlumat	-10.4067
▁İkincisi	-10.4067
▁oğlum	-10.4067
▁həyatınızda	-10.4068
▁görürdüm	-10.4068
▁asmaq	-10.4069
▁itirdiyimiz	-10.4069
▁yazılan	-10.4069
▁nəzəri	-10.4069
▁etməlisiniz	-10.4069
kişil	-10.407
▁David	-10.407
▁ic	-10.407
▁yazaraq	-10.4072
▁Had	-10.4072
▁and	-10.4073
▁Mah	-10.4073
▁açıb	-10.4073
▁çay	-10.4075
▁Maraqlıdır	-10.4075
əruz	-10.4075
▁təhlükəli	-10.4075
▁Fərqli	-10.4076
▁Ailə	-10.4076
▁əminəm	-10.4078
▁tük	-10.4078
▁faydalı	-10.4079
▁amerika	-10.4079
▁edildikdə	-10.4081
ysanız	-10.4081
▁atır	-10.4081
▁Yara	-10.4082
▁tamamladı	-10.4083
▁olacaqsınız	-10.4083
ykən	-10.4083
▁yaratmağın	-10.4083
landır	-10.4083
▁ölçək	-10.4083
otik	-10.4084
▁günah	-10.4085
▁arxasında	-10.4085
▁bina	-10.4086
▁sis	-10.4086
▁yaradıcısı	-10.4086
▁öyrənən	-10.4087
▁öldürül	-10.4087
▁sonlarında	-10.4087
▁kukla	-10.4087
▁sürücü	-10.4087
▁şam	-10.4088
düyüm	-10.4089
▁işlətdi	-10.4089
▁gedirik	-10.4089
▁çıxdığım	-10.409
▁faydalan	-10.409
▁qib	-10.4091
▁yadda	-10.4092
▁axırın	-10.4093
▁Həmçinin	-10.4093
iyalı	-10.4094
▁etmişik	-10.4094
narın	-10.4095
▁opti	-10.4096
▁görünüşünü	-10.4097
▁qazandı	-10.4097
▁Alan	-10.4097
▁çölü	-10.4098
▁düşünürdüm	-10.4098
▁prosesdir	-10.4099
▁qabiliyyətiniz	-10.41
▁qorunma	-10.4101
▁xərc	-10.4101
▁hesablamaq	-10.4102
▁sektorun	-10.4103
▁məşğuldur	-10.4104
▁beyninizdə	-10.4106
▁getdiyimiz	-10.4106
rcan	-10.4108
▁OK	-10.4108
Bax	-10.4109
▁ağıl	-10.4109
▁vermişdir	-10.4109
▁ərin	-10.4109
▁istədik	-10.4111
▁ərazidə	-10.4111
▁enən	-10.4112
▁gedək	-10.4113
▁sözünün	-10.4114
▁park	-10.4116
▁ifadəsi	-10.4117
▁istək	-10.4118
▁qəhramanları	-10.4118
▁Ste	-10.4118
▁Dil	-10.4122
▁danışdım	-10.4122
mail	-10.4123
▁yaşan	-10.4127
▁canlandırma	-10.4127
▁məlumatlarını	-10.4127
▁enerjini	-10.4127
▁Evə	-10.413
▁danışanda	-10.413
▁bilinir	-10.413
▁edilmişdir	-10.4132
▁mexanizm	-10.4135
▁1960	-10.4136
▁fərqində	-10.4137
▁keçirmək	-10.4137
▁yayılmış	-10.4137
▁Qo	-10.4138
▁sabit	-10.414
▁dağıntıları	-10.4141
▁araşdırmaq	-10.4142
▁mənfi	-10.4142
▁yersiz	-10.4144
▁naxış	-10.4144
uyru	-10.4145
▁etmişdim	-10.4146
▁demə	-10.4147
▁texnikalar	-10.4147
rek	-10.4148
▁sayıla	-10.415
▁Həyatımı	-10.4151
▁müddətcə	-10.4152
▁artırmaq	-10.4155
▁izləmə	-10.4155
▁Qey	-10.4156
▁dövrünü	-10.4156
▁1980	-10.4157
▁getdim	-10.4157
▁biraz	-10.4157
▁bağlay	-10.416
▁ünvan	-10.4161
▁dolandır	-10.4161
bəz	-10.4162
▁slayd	-10.4165
▁Xəbərlər	-10.4167
▁varlığını	-10.4167
uf	-10.4168
▁Fələstin	-10.417
▁başında	-10.4172
▁akse	-10.4173
▁edilmir	-10.4173
ləşdirir	-10.4174
▁çaylar	-10.4175
▁müxtəliflik	-10.418
▁Laqosda	-10.4183
▁oyan	-10.4183
▁formalaşması	-10.4183
imle	-10.4185
▁bölgəsi	-10.4191
lluq	-10.4191
hat	-10.4196
▁salırdı	-10.4198
▁vasitələr	-10.4199
▁pulun	-10.4199
▁nömrəsi	-10.4202
▁özlərinə	-10.4203
▁alırlar	-10.4205
lti	-10.4205
stre	-10.4206
▁görməmişdi	-10.4206
▁dolan	-10.4209
irdilər	-10.4211
▁bəd	-10.4212
▁çıxışım	-10.4213
▁qatil	-10.4217
▁Cha	-10.4217
thin	-10.4219
▁uğuru	-10.4219
▁Deyil	-10.422
▁Ölkələr	-10.422
▁hərəkətləri	-10.4221
▁nitqim	-10.4221
▁yaxınlaşan	-10.423
▁deyirdim	-10.4231
▁Sab	-10.4233
▁burdadır	-10.4234
▁etmişdir	-10.4236
▁dolaş	-10.424
▁olmağım	-10.424
▁axtarmaq	-10.424
▁Yu	-10.4241
inki	-10.4242
▁qabiliyyətlər	-10.4242
▁deməkdi	-10.4243
▁Sir	-10.4243
sından	-10.4244
rsız	-10.425
▁suallardan	-10.425
▁daşınma	-10.4256
fet	-10.4257
▁çalışırlar	-10.4257
▁yerləşdirir	-10.4258
▁danışmağı	-10.426
▁anlamır	-10.4264
▁hissini	-10.4264
▁filmlər	-10.4265
▁qaldı	-10.4265
▁pan	-10.4266
▁yazıları	-10.4271
▁iq	-10.4275
▁201	-10.4276
▁ölçə	-10.4278
▁öyrənmiş	-10.4281
▁filterlər	-10.4283
▁uzaqlıq	-10.4284
▁məqsədim	-10.4286
▁çıxmağ	-10.4289
▁bizlərə	-10.429
▁böyüklüyündə	-10.4292
▁ağzı	-10.4293
liyim	-10.4294
▁mövzunu	-10.4296
58	-10.4296
pan	-10.4297
▁qayıda	-10.43
▁yaxınlaşır	-10.4302
▁çağır	-10.4311
arada	-10.4313
▁bilərdik	-10.4314
▁yaxınlaşdır	-10.4318
başın	-10.4318
▁100-	-10.432
elli	-10.4321
▁yeyir	-10.4329
bat	-10.433
▁ətrafı	-10.4334
▁pal	-10.4335
▁yaşamağ	-10.4335
▁vermişdi	-10.4338
▁bilmirsə	-10.4339
▁enerjinin	-10.434
▁xərçəng	-10.434
çıları	-10.4348
ges	-10.4352
▁fikirlə	-10.4354
▁fikrinə	-10.4357
Qara	-10.4358
▁hissələr	-10.4359
▁ulduzlardan	-10.4366
tion	-10.4368
bit	-10.4369
▁İq	-10.4372
▁2005	-10.4376
irdim	-10.4377
▁qadına	-10.4387
▁problemdir	-10.4392
▁həmişəki	-10.4394
▁Mil	-10.4398
▁açılı	-10.4403
▁olsaq	-10.4408
▁nəslin	-10.4412
▁edirsən	-10.4417
▁verdiyim	-10.4419
▁formasında	-10.4425
▁gücləri	-10.4429
nes	-10.4429
▁buludların	-10.4439
▁dənəsi	-10.444
Səni	-10.4441
AR	-10.4442
Ta	-10.4448
ters	-10.446
▁ümidsiz	-10.4463
▁olmamaq	-10.4467
▁indiyə	-10.4468
▁şah	-10.4469
▁va	-10.4471
use	-10.4474
▁düyməsi	-10.4474
▁Ronal	-10.4475
▁düşmən	-10.4479
▁dillərdə	-10.4483
▁saya	-10.4496
mizdir	-10.4498
▁fərqin	-10.4503
▁mo	-10.4504
▁tərif	-10.4507
çox	-10.4511
▁yanım	-10.4526
iyoruz	-10.4543
▁qəza	-10.4551
▁şə	-10.4562
▁verərdi	-10.4562
▁başım	-10.4563
▁dərinliklərin	-10.4564
▁düzəldir	-10.4571
avaş	-10.4575
asında	-10.4575
▁güm	-10.4578
▁bilin	-10.4579
▁keçməsi	-10.4583
▁edirsə	-10.4585
▁Amerikalılar	-10.4594
ecek	-10.4597
▁vermiş	-10.4598
▁uşaqlarını	-10.4603
▁molekullar	-10.4605
▁cəmiyyətin	-10.4607
▁notları	-10.4608
▁Ar	-10.461
▁dəyişikliyin	-10.4613
ərdim	-10.4621
mürdü	-10.464
▁aparırdı	-10.465
▁əyil	-10.4657
▁ölümləri	-10.4669
▁mərkəzin	-10.4672
Bilirs	-10.4674
taq	-10.468
▁gözləri	-10.4683
▁yazan	-10.4684
▁yollarda	-10.4696
▁öyrətmə	-10.4699
▁ixtiraçı	-10.4706
▁götürən	-10.4708
▁Mo	-10.4712
▁görməyi	-10.4722
▁planlaşdır	-10.4724
▁4-	-10.4733
▁Wal	-10.4734
▁alman	-10.4739
▁şe	-10.4747
▁xəstələr	-10.4749
▁artımı	-10.476
▁Ban	-10.4764
▁şəhərində	-10.4765
mama	-10.4765
▁danışdığım	-10.477
▁Cey	-10.4772
▁məc	-10.4778
▁həyatında	-10.4786
luğu	-10.4791
mazdı	-10.4792
▁dam	-10.4794
iliyor	-10.4795
▁vaxtında	-10.4803
▁şagirdləri	-10.4808
▁əsaslana	-10.481
▁ağla	-10.4813
▁dəyişdiyini	-10.4816
lıqlar	-10.4817
▁araşdırmaların	-10.482
▁istəyi	-10.4821
▁etdiklərini	-10.4827
▁fikirləri	-10.4828
▁xəritələşdir	-10.483
phe	-10.4833
▁Səs	-10.4834
aqlı	-10.4834
▁genişlənməsi	-10.4836
▁səsimi	-10.4837
▁qu	-10.4853
▁dəf	-10.4855
26	-10.4867
▁co	-10.4871
▁kolleclər	-10.4877
▁yad	-10.4878
▁işlədiyin	-10.4882
▁Orada	-10.4883
▁temperaturu	-10.4884
▁çalışdığı	-10.489
▁oturmu	-10.4895
▁işdir	-10.4896
▁dillərində	-10.491
redakt	-10.4912
▁söyləy	-10.4915
▁qaldığını	-10.4916
▁bədənin	-10.4917
▁lin	-10.4918
▁düşünsə	-10.4919
▁qoyun	-10.4925
▁teleskoplar	-10.4945
▁paylaşmağ	-10.4967
bad	-10.4974
▁ayağ	-10.4975
layan	-10.4988
▁yumurtalar	-10.4992
▁adında	-10.4992
▁çəkər	-10.4994
▁əllərində	-10.4995
▁mis	-10.5003
▁təsirlərini	-10.501
▁kəndlərin	-10.502
lardı	-10.5055
▁kəndin	-10.5058
▁çevirir	-10.5066
▁görüşü	-10.5072
laşdıra	-10.5078
səniz	-10.5082
ğini	-10.5084
▁Kollecin	-10.5088
▁çoxdur	-10.5091
▁hekayəsini	-10.5095
▁arı	-10.5096
şək	-10.5098
▁eti	-10.5098
▁dəyişməsin	-10.5115
▁qanunu	-10.5119
▁önəmi	-10.5119
▁nümunələr	-10.5123
ündən	-10.5128
▁düşünmür	-10.5131
▁za	-10.5144
▁əsasını	-10.5168
▁konu	-10.5169
üc	-10.517
▁göstərməy	-10.5176
▁faktlar	-10.5178
▁maddələri	-10.5181
▁dəyərin	-10.5186
▁məhsulların	-10.521
▁dağ	-10.5213
▁şəhərlər	-10.5228
cağını	-10.5231
▁robotu	-10.5236
▁xəbərlər	-10.5239
iyib	-10.5242
▁layihəsi	-10.527
▁müşahidələr	-10.5273
rasiya	-10.5281
sınlar	-10.5287
▁Ev	-10.5292
▁yerimiz	-10.5292
mamız	-10.5295
▁Həyatda	-10.5302
▁gətirəcək	-10.5307
ızın	-10.5309
▁toplama	-10.5311
▁deyəcək	-10.5321
▁işçiləri	-10.5327
masam	-10.5333
▁götürə	-10.5334
▁London	-10.5337
▁fikirlərimiz	-10.5338
▁əsrlər	-10.5341
▁mərhələdə	-10.5342
imizdə	-10.535
let	-10.5351
▁vasitəsini	-10.5355
uza	-10.5361
▁evlən	-10.5394
▁təhsilin	-10.5394
▁aparır	-10.5418
ızla	-10.5429
▁düşündüyü	-10.5431
raf	-10.5433
▁fotoşəkilləri	-10.5449
▁eşidilmə	-10.545
▁vəzifəsi	-10.5453
▁tül	-10.5457
▁etmələri	-10.5473
land	-10.5473
▁göster	-10.5474
▁basmağ	-10.5479
ont	-10.5482
▁hüquqlarını	-10.5493
▁aşağıda	-10.5508
▁Marsa	-10.5529
▁çəkməy	-10.5531
▁boşluqlar	-10.5537
▁w	-10.5546
▁fikrimi	-10.5549
▁nisbəti	-10.5551
▁qızın	-10.5552
▁açı	-10.5554
▁texnologiyalar	-10.5556
▁dizaynı	-10.5561
rini	-10.5573
▁ixtiralar	-10.5575
▁Con	-10.5577
rdim	-10.5591
ələk	-10.5599
ris	-10.5604
illi	-10.5622
▁Lon	-10.5629
tində	-10.5632
▁adını	-10.5634
▁qaldıq	-10.5638
▁düşündü	-10.5647
▁qüvvələrin	-10.5654
alları	-10.5655
azlığı	-10.5672
▁şübhə	-10.5676
▁65	-10.5679
olunmaz	-10.5704
▁təkərləri	-10.5705
▁buraxma	-10.5707
▁zirvə	-10.5712
▁eşidil	-10.5713
fat	-10.5715
▁dostların	-10.5721
20-	-10.573
əcəm	-10.5735
▁baxdıq	-10.5735
▁şeylə	-10.5738
▁olmağını	-10.5739
tura	-10.5741
▁kor	-10.5749
▁dəyişdirmə	-10.5749
▁Ora	-10.5758
▁çe	-10.576
şaf	-10.576
üşü	-10.5771
▁oğlu	-10.5771
▁salan	-10.5803
▁yo	-10.5804
▁qurumlar	-10.5814
▁musiqiçi	-10.5822
▁yarad	-10.5824
▁dayandığı	-10.5845
ollo	-10.5847
▁internetdə	-10.5867
▁getmi	-10.5876
sünüz	-10.5893
▁səsin	-10.5893
çısı	-10.5895
▁gəzi	-10.5905
▁keçirilə	-10.5906
▁bomba	-10.5907
▁alətin	-10.591
▁tərəfində	-10.5919
▁uşaqlıq	-10.5921
▁Maşın	-10.5933
▁təzyiq	-10.5943
topu	-10.5947
▁İllər	-10.5953
▁öyrə	-10.5954
andığınız	-10.5974
əhv	-10.5978
▁öyrənməyi	-10.5982
▁sənədl	-10.5995
▁Qa	-10.5999
ry	-10.6001
▁gedirdi	-10.6003
▁York	-10.6012
▁yetir	-10.6014
mışdır	-10.6014
▁strukturlar	-10.6018
▁ifaçı	-10.6021
"""	-10.6025
▁fotoşəkildə	-10.6027
rami	-10.6027
▁çəkdi	-10.605
▁önəm	-10.6054
▁şərtlər	-10.6054
▁təşkilatı	-10.6057
çe	-10.6058
▁mətn	-10.6058
▁En	-10.6059
▁mənəm	-10.6061
▁lab	-10.6061
▁danışı	-10.6077
▁birləşdirə	-10.6081
▁filmləri	-10.609
50.000	-10.61
▁ölkəni	-10.6111
▁ruha	-10.6117
▁Kamer	-10.6121
▁səviyyəsi	-10.6156
ham	-10.6156
▁təpədə	-10.617
yəcəm	-10.6177
rəy	-10.6186
▁nöqtəsi	-10.6199
▁nəzərə	-10.6208
▁qər	-10.6212
ondu	-10.6217
▁çıxanda	-10.6219
▁Avropada	-10.6221
▁başladığı	-10.6224
▁çağırır	-10.6235
▁Yuxarıda	-10.6254
ılmışdı	-10.6267
nümüzdə	-10.6274
▁başın	-10.6281
▁Nigeriyanı	-10.6297
▁fər	-10.6298
▁çatdır	-10.6305
▁mühitdə	-10.6308
▁masa	-10.6313
▁dalğaların	-10.6318
ekt	-10.6323
▁ölkələri	-10.6324
▁kollec	-10.6325
iyanın	-10.6329
qın	-10.6331
▁sistemin	-10.6332
▁toxunma	-10.6334
▁yolları	-10.6337
kik	-10.6349
▁təyyarələr	-10.6349
▁Beyn	-10.6354
▁se	-10.6358
▁cihazların	-10.6377
▁bitdi	-10.6389
▁əşya	-10.6406
▁vəziyyətini	-10.6411
madığını	-10.6422
▁dəyişməli	-10.6426
▁qüvvələri	-10.644
▁məhsullarında	-10.645
▁paltar	-10.6465
▁olunmasın	-10.6472
yanmış	-10.6489
düyü	-10.6498
▁tax	-10.6503
▁peykin	-10.6515
▁170	-10.6516
▁ruhun	-10.6522
com	-10.6527
▁qurula	-10.6546
eyh	-10.6552
ranlıq	-10.6555
▁böyüd	-10.656
▁bitkini	-10.6583
mizdən	-10.6584
▁Söz	-10.6617
▁dinləy	-10.6625
out	-10.6626
▁Agentliyi	-10.6657
▁filmdə	-10.6671
▁seçki	-10.6671
məsinə	-10.6687
▁baxdı	-10.6696
eye	-10.6698
▁Digəri	-10.67
▁Həd	-10.6713
▁işlədiyi	-10.6725
▁maddəsi	-10.6733
▁xəstəliyi	-10.6745
▁qayıt	-10.6746
tiylə	-10.6747
▁Adını	-10.675
▁cəmiyyəti	-10.6752
squ	-10.6755
sk	-10.6773
▁gələcəyin	-10.6776
▁iy	-10.6776
▁alına	-10.6788
▁Mir	-10.681
▁çağ	-10.6815
▁Amerikalı	-10.682
mayın	-10.6836
▁Si	-10.6837
Bil	-10.6837
▁işində	-10.6838
▁sevdiyi	-10.6842
▁xatırlay	-10.6845
ənətkar	-10.6848
metr	-10.6862
▁səsini	-10.6864
▁üzüm	-10.6867
▁təbiəti	-10.6867
▁həbsdə	-10.6873
▁ışı	-10.6879
▁alimi	-10.6881
▁siyahısın	-10.6883
fik	-10.6891
▁verər	-10.6897
▁olmasında	-10.6911
▁oxuma	-10.6915
▁sənaye	-10.6916
▁nəzərin	-10.6926
▁Gəl	-10.693
iyor	-10.6934
▁cəm	-10.6935
▁kimlər	-10.6936
nağı	-10.6938
▁çıxaran	-10.6941
▁haq	-10.6947
▁fikrim	-10.6959
zamanın	-10.6965
▁iplik	-10.6966
▁paylaşma	-10.6966
▁xərçəngi	-10.6982
▁müharibəsi	-10.6982
▁etməlidir	-10.6986
▁kur	-10.6987
▁çıxma	-10.6995
▁sistemləri	-10.7002
buk	-10.7003
men	-10.7027
▁qoydu	-10.7041
▁səsim	-10.7045
duğu	-10.7054
▁qalmalı	-10.7083
▁oturma	-10.7086
▁xəstəliy	-10.7094
▁Yüz	-10.7099
▁yağa	-10.7105
▁id	-10.7105
▁əsaslan	-10.7109
ladım	-10.7124
▁köməy	-10.7126
▁müda	-10.7132
▁nitq	-10.7139
paz	-10.7151
sey	-10.7152
mərhəmətli	-10.7152
▁modeli	-10.7154
▁Dr	-10.7156
▁standart	-10.7164
lanmaq	-10.7165
ith	-10.7185
▁gətirməy	-10.7188
lg	-10.7192
▁liderlər	-10.7198
▁içəridə	-10.7203
▁bük	-10.7205
sün	-10.7205
▁kəndi	-10.721
▁şifrələ	-10.7215
▁ünvanla	-10.722
dərili	-10.7221
mıyor	-10.7226
▁çatma	-10.7227
▁səh	-10.7229
▁izləyi	-10.7241
▁Səh	-10.7245
▁ağlın	-10.7247
York	-10.7247
ağıl	-10.7248
üst	-10.7248
yl	-10.7249
lendi	-10.7249
başqası	-10.7254
The	-10.7256
İncəsənət	-10.7257
Artıq	-10.7258
sabit	-10.7261
Sadəcə	-10.7261
▁Fizik	-10.7262
Sağ	-10.7262
Ş	-10.7262
▁izlər	-10.7263
aydın	-10.7263
X	-10.7263
Məsələn	-10.7263
dünyanı	-10.7263
Baş	-10.7264
Çünki	-10.7264
qərar	-10.7265
Yəni	-10.7265
▁qul	-10.7271
▁elektromaqn	-10.7275
Böyük	-10.7282
▁cins	-10.7284
▁daşın	-10.7288
▁Şərq	-10.7291
▁güzgü	-10.7302
▁insanlı	-10.7303
ebilir	-10.7305
ravi	-10.7306
▁təh	-10.7307
arası	-10.731
▁qardaş	-10.7311
İş	-10.7311
yimə	-10.7315
▁reallaşdır	-10.7315
▁beyniniz	-10.7317
▁şəhərin	-10.7321
▁alça	-10.7325
məyib	-10.7327
▁Je	-10.7328
▁qap	-10.7331
ayaq	-10.7332
laşdı	-10.7335
pp	-10.7336
rada	-10.7337
Siz	-10.7338
belə	-10.7339
▁öyrətdi	-10.7342
▁maraqlanır	-10.7344
▁tezliklə	-10.7346
▁uca	-10.7346
▁düzəltdi	-10.7346
▁olmu	-10.7348
dırmaq	-10.7351
▁soyu	-10.7352
yirsən	-10.7353
sidi	-10.7354
▁qabağında	-10.7354
▁Səliqə	-10.7357
▁gördüyünü	-10.7359
▁köşk	-10.736
▁zorl	-10.736
zərində	-10.7362
düyünü	-10.7364
Şəkil	-10.7365
▁Öyrə	-10.7366
▁mütə	-10.7366
▁sülh	-10.7366
▁şansım	-10.7367
Glob	-10.7367
▁Təxmin	-10.7367
▁bilməyəcək	-10.7368
▁Ja	-10.7368
müddətli	-10.7369
▁əyləş	-10.7369
▁etkileş	-10.737
ərcümə	-10.7371
▁üfür	-10.7372
▁toqquş	-10.7372
▁Doğru	-10.7372
umullar	-10.7373
osmos	-10.7373
▁böyümüş	-10.7373
▁satıl	-10.7374
öcüzə	-10.7374
▁məzmu	-10.7374
▁diametr	-10.7374
▁Ancel	-10.7376
▁termin	-10.7376
▁quyu	-10.7376
▁mülk	-10.7377
▁düşmüş	-10.7377
▁pillə	-10.7377
arahat	-10.7377
Mövcud	-10.7378
sper	-10.7378
Dost	-10.7378
▁resur	-10.7378
üclü	-10.7378
bənövşəyi	-10.7378
▁ultra	-10.7378
▁mikro	-10.7378
▁İqtisadi	-10.7379
uşdurucu	-10.7379
▁uğursuz	-10.7379
▁hesaplayabil	-10.7379
İstifadə	-10.7379
▁Küveyt	-10.7379
▁Skimmer	-10.7379
▁Statisti	-10.7379
▁eject	-10.7379
▁instinkt	-10.7379
▁kozmoz	-10.7379
▁perspektiv	-10.7379
▁rəğbət	-10.7379
▁saptayıcı	-10.7379
Avtomobil	-10.7379
Flober	-10.7379
Qiymət	-10.7379
Uçurum	-10.7379
elastik	-10.7379
imbabve	-10.7379
kommunist	-10.7379
öycəqarğa	-10.7379
ənnimcə	-10.7379
▁Anthony	-10.7379
▁Araşdırma	-10.7379
▁Ayrıca	-10.7379
▁Brizban	-10.7379
▁Cazibə	-10.7379
▁Challenge	-10.7379
▁Kaliforniya	-10.7379
▁Littman	-10.7379
▁Mumbai	-10.7379
▁Mükafat	-10.7379
▁Mərasim	-10.7379
▁Partlama	-10.7379
▁Perasa	-10.7379
▁Qarşı	-10.7379
▁Qısacası	-10.7379
▁Riyaziyyat	-10.7379
▁Robert	-10.7379
▁Sabbath	-10.7379
▁Scalia	-10.7379
▁Sputnik	-10.7379
▁Sürfə	-10.7379
▁Voyager	-10.7379
▁Xristian	-10.7379
▁Yadımdadır	-10.7379
▁agentlikləri	-10.7379
▁antropoloq	-10.7379
▁aracımız	-10.7379
▁ardıcıl	-10.7379
▁avadanlığı	-10.7379
▁ağsaqqallar	-10.7379
▁böyüyən	-10.7379
▁bütöv	-10.7379
▁bıçaq	-10.7379
▁danaayağı	-10.7379
▁dinozavrlar	-10.7379
▁doğulan	-10.7379
▁doğulur	-10.7379
▁doğuşdan	-10.7379
▁döngülerin	-10.7379
▁fotoqraf	-10.7379
▁fəlsəfə	-10.7379
▁genişlənir	-10.7379
▁görülməmiş	-10.7379
▁gülürəm	-10.7379
▁hissiyatlı	-10.7379
▁hüquqşünas	-10.7379
▁iPhone	-10.7379
▁ictimaiyyət	-10.7379
▁interfeys	-10.7379
▁istiqamətlənir	-10.7379
▁ixtisas	-10.7379
▁kabin	-10.7379
▁kariyeram	-10.7379
▁kolibri	-10.7379
▁kozmolo	-10.7379
▁kölgə	-10.7379
▁körpə	-10.7379
▁kövrək	-10.7379
▁masaüstü	-10.7379
▁meksikalı	-10.7379
▁mercekleme	-10.7379
▁minnətdar	-10.7379
▁miqrasiya	-10.7379
▁münaqişə	-10.7379
▁məfhum	-10.7379
▁mərkəzlərində	-10.7379
▁naməlum	-10.7379
▁platforma	-10.7379
▁praktik	-10.7379
▁qabığı	-10.7379
▁qadağa	-10.7379
▁quarks	-10.7379
▁region	-10.7379
▁rejissor	-10.7379
▁santimetr	-10.7379
▁sapmalar	-10.7379
▁sayborq	-10.7379
▁sünnət	-10.7379
▁süratlerini	-10.7379
▁sıcaklıklar	-10.7379
▁sərmayə	-10.7379
▁sərnişinlər	-10.7379
▁telepat	-10.7379
▁təchizat	-10.7379
▁tənbeh	-10.7379
▁təsadüfi	-10.7379
▁təəssüratı	-10.7379
▁uğrun	-10.7379
▁xatirə	-10.7379
▁xətkeş	-10.7379
▁yapışı	-10.7379
▁yaratmışıq	-10.7379
▁yaxınlaşacağı	-10.7379
▁yaxınlaşıb	-10.7379
▁yekunlaşdır	-10.7379
▁zəlzələ	-10.7379
▁Çikaqo	-10.7379
▁çarpıştırı	-10.7379
▁İslam	-10.7379
▁İsrailli	-10.7379
▁şalvar	-10.7379
▁əcnəbi	-10.7379
Dizayn	-10.7379
dekabr	-10.7379
tolerantlı	-10.7379
▁BMT	-10.7379
▁Gözəgörünməz	-10.7379
▁Sevirəm	-10.7379
▁Siyahı	-10.7379
▁brauzer	-10.7379
▁homoseksuall	-10.7379
▁istiqamətləndir	-10.7379
▁kampaniya	-10.7379
▁kontaminasiya	-10.7379
▁məyus	-10.7379
▁pəncərə	-10.7379
▁stansiyası	-10.7379
▁yanlış	-10.7379
▁yağıntı	-10.7379
▁əlçat	-10.7379
missiyasını	-10.7379
pərəstişkarı	-10.7379
▁1900	-10.7379
▁Bronx	-10.7379
▁Dörd	-10.7379
▁Meteorit	-10.7379
▁Rəsm	-10.7379
▁Səbəb	-10.7379
▁Uqanda	-10.7379
▁ağlasığmaz	-10.7379
▁danışacağıq	-10.7379
▁ekspedisiyalar	-10.7379
▁irəliləyirik	-10.7379
▁isveç	-10.7379
▁kəlmə	-10.7379
▁mənzərə	-10.7379
▁nötrino	-10.7379
▁peşmançılıq	-10.7379
▁profili	-10.7379
▁süper	-10.7379
▁sıçra	-10.7379
▁tapıntı	-10.7379
▁zibil	-10.7379
▁şeridi	-10.7379
▁Konqo	-10.7379
▁Obama	-10.7379
▁elementi	-10.7379
▁görüşdüm	-10.7379
▁ləkələr	-10.7379
▁oğurla	-10.7379
▁seqment	-10.7379
▁səbət	-10.7379
▁yadplanetliləri	-10.7379
▁əmlak	-10.7379
ommersi	-10.7379
rasional	-10.7379
▁Ciddi	-10.7379
▁Yağış	-10.7379
▁YouTube	-10.7379
▁bəxşiş	-10.7379
▁daşıyan	-10.7379
▁feil	-10.7379
▁istintaq	-10.7379
▁orqanizm	-10.7379
▁razılaşa	-10.7379
▁çirkin	-10.7379
▁1990	-10.7379
▁Doğu	-10.7379
▁Kunst	-10.7379
▁Martinez	-10.7379
▁dinamik	-10.7379
▁mövqe	-10.7379
▁quraqlıq	-10.7379
▁Şəhər	-10.7379
▁əyir	-10.7379
▁1600	-10.7379
▁Ağlı	-10.7379
▁Monte	-10.7379
▁Oxuma	-10.7379
▁oxuyub	-10.7379
▁əziz	-10.7379
ahiyyəti	-10.7379
▁2007-	-10.7379
▁bədbəxtlik	-10.7379
▁funksiyalar	-10.7379
▁hamilə	-10.7379
▁anlaşıldı	-10.7379
▁düzəltmişdi	-10.7379
▁Lesli	-10.7379
▁itkisidir	-10.7379
▁məhkum	-10.7379
▁artmaqda	-10.7379
▁karyera	-10.7379
▁klavesin	-10.7379
▁şou	-10.7379
▁əməkdaşlı	-10.7379
▁Görürsünüz	-10.7379
▁gedəcək	-10.7379
▁səbirsizl	-10.7379
navtlar	-10.7379
▁Divar	-10.7379
▁görüm	-10.7379
▁möhkəm	-10.7379
▁Xəstəl	-10.7379
▁trans	-10.7379
ropik	-10.7379
▁texnolo	-10.7379
▁idrak	-10.7379
▁büroları	-10.7379
recht	-10.7379
▁Film	-10.7379
▁çəp	-10.7379
▁məramı	-10.7379
▁sarmal	-10.7379
▁naqil	-10.7379
▁rəqabət	-10.7379
▁Qayğı	-10.7379
▁50-60	-10.7379
▁etkileşmiyor	-10.7379
▁irəliləmə	-10.7379
▁yönəldər	-10.7379
▁izləyən	-10.7379
▁kolleksiyası	-10.7379
▁Nəsil	-10.7379
▁Mich	-10.7379
▁çıxacağı	-10.7379
▁yararlan	-10.7379
▁WMAP	-10.7379
▁dostunuz	-10.7379
▁Hadisə	-10.7379
▁Sudanda	-10.7379
▁lisey	-10.7379
▁İyun	-10.7379
plikasiya	-10.7379
▁sintez	-10.7379
▁nəhayət	-10.7379
▁alçaltmaq	-10.7379
▁böyüklükdə	-10.7379
▁ehtiyat	-10.7379
▁limanı	-10.7379
▁nəvələrim	-10.7379
▁yayındır	-10.7379
▁həcm	-10.7379
▁kollek	-10.7379
▁yumru	-10.7379
▁duyduğunu	-10.7379
eceğimi	-10.7379
tiqam	-10.7379
▁Peak	-10.7379
▁bölüşdürülməsi	-10.7379
▁elit	-10.7379
▁köçürülməsi	-10.7379
▁gediləcə	-10.7379
▁piyada	-10.7379
▁partlay	-10.7379
▁atıldı	-10.7379
yoxsullar	-10.7379
▁tamaşaçıları	-10.7379
Köhnə	-10.7379
▁dəyişdirdi	-10.7379
▁sirli	-10.7379
▁fövqəladə	-10.7379
▁həzz	-10.7379
▁işgəncə	-10.7379
▁keçməyin	-10.7379
▁galaksi	-10.7379
▁ürəyi	-10.7379
▁səslənə	-10.7379
▁Burton	-10.7379
▁tullan	-10.7379
▁körfəz	-10.7379
▁bügün	-10.738
ribən	-10.738
▁əkinçi	-10.738
▁Brit	-10.738
▁sübutudur	-10.738
▁hesablaya	-10.738
▁ədəb	-10.738
▁institutlar	-10.738
▁qasırğası	-10.738
▁Jack	-10.738
▁artığın	-10.738
▁ətrafımda	-10.738
▁inanırsınız	-10.738
▁helium	-10.738
▁Dağ	-10.738
▁sürüşmə	-10.738
▁Nitqimi	-10.738
▁ekzot	-10.738
▁saxlayın	-10.738
▁faciə	-10.738
▁Planet	-10.738
vərdiş	-10.738
▁qəzəb	-10.738
▁yatağ	-10.738
▁bağlamaq	-10.738
▁nəysə	-10.738
▁Charle	-10.738
▁rifləri	-10.738
▁kapital	-10.738
▁rəhmət	-10.738
▁davranışlar	-10.738
hədsiz	-10.738
▁ağlayır	-10.738
▁doldu	-10.738
▁fikirləşdiyiniz	-10.738
▁dönüb	-10.738
▁dolduru	-10.738
▁investorlar	-10.738
▁azaltm	-10.738
▁daşqın	-10.738
▁uğursuzluq	-10.7381
▁çatdırıl	-10.7381
▁oxumuş	-10.7381
▁Dostlar	-10.7381
▁tövsiyə	-10.7381
▁insalar	-10.7381
▁başlayıb	-10.7381
▁xatırlayırsınız	-10.7381
▁yaxınlığın	-10.7381
▁ordu	-10.7381
▁pivə	-10.7381
▁tanımırdı	-10.7381
Koreya	-10.7381
▁sevimli	-10.7381
▁zola	-10.7381
▁ianə	-10.7381
▁alışırıq	-10.7381
▁Almaniya	-10.7381
▁imti	-10.7381
▁həndəs	-10.7381
▁Latın	-10.7381
▁Ardın	-10.7381
▁yarayır	-10.7381
Onun	-10.7381
▁görərsiniz	-10.7381
▁başlamışıq	-10.7381
▁Pis	-10.7382
▁eşitmisiniz	-10.7382
▁quracağı	-10.7382
▁yadınızda	-10.7382
▁səpələ	-10.7382
▁müdirin	-10.7382
yəcəksən	-10.7382
▁Sibir	-10.7382
▁həyəcanlan	-10.7382
▁millətlər	-10.7382
▁qayıtdıq	-10.7382
▁ağılsız	-10.7382
▁eşitdikləri	-10.7382
▁götürürdü	-10.7382
▁arzusu	-10.7382
şəng	-10.7382
▁düşündüyümü	-10.7382
▁etmisiniz	-10.7382
▁konsert	-10.7382
▁gözümüzü	-10.7382
▁təlimat	-10.7383
əviyyat	-10.7383
▁Ruanda	-10.7383
▁ölçümləri	-10.7383
▁düşmüşdü	-10.7383
▁şəra	-10.7383
▁şahinlər	-10.7383
▁təlim	-10.7383
▁daral	-10.7383
▁məzmunu	-10.7383
eylan	-10.7384
▁görmürəm	-10.7384
▁ərazilərdə	-10.7384
ebilirler	-10.7384
▁halqası	-10.7384
▁ilanlar	-10.7384
▁kayd	-10.7384
▁müqəddəs	-10.7384
▁istəsəniz	-10.7384
▁istiləşmə	-10.7384
▁şübhəsiz	-10.7385
durub	-10.7385
▁191	-10.7385
▁göstərəcəyi	-10.7385
▁kameranızı	-10.7385
▁atlet	-10.7385
igh	-10.7385
▁çəkildiyi	-10.7385
etten	-10.7385
▁Dünyanı	-10.7385
ezo	-10.7385
▁qalmır	-10.7385
▁Kris	-10.7386
▁başlayacaq	-10.7386
▁etsəydi	-10.7386
▁salırlar	-10.7386
▁bizlərik	-10.7386
lüyü	-10.7386
▁Sadə	-10.7386
▁riyaziyyatın	-10.7386
▁olmamalıdır	-10.7386
▁qurğusu	-10.7386
▁azadlığı	-10.7387
▁köynək	-10.7387
▁baxırsınız	-10.7387
talyan	-10.7387
▁artması	-10.7387
ransız	-10.7387
▁olacam	-10.7387
▁videonu	-10.7387
▁Uşaqlıq	-10.7388
▁qış	-10.7388
▁düzəltmək	-10.7388
▁şifrələmə	-10.7388
▁sərhəddin	-10.7388
▁fikirləşdim	-10.7388
▁hərarət	-10.7388
ığır	-10.7388
▁qoyulur	-10.7388
▁stress	-10.7388
▁axtarışında	-10.7389
▁vətən	-10.7389
▁həyəcanlı	-10.7389
▁öyrənirəm	-10.7389
▁mate	-10.7389
▁xüsusiyyətləri	-10.7389
▁sonuncu	-10.7389
▁Uzaq	-10.739
▁görünüşüdür	-10.739
▁Klee	-10.739
▁buraxır	-10.739
put	-10.739
▁yoxlayır	-10.739
▁Soyuq	-10.739
▁aldınız	-10.7391
▁adlandırıb	-10.7391
minəm	-10.7391
▁esin	-10.7391
pote	-10.7392
▁yaşandı	-10.7392
▁28	-10.7392
▁ney	-10.7392
▁tanıyıram	-10.7392
▁boşal	-10.7392
▁yarandığı	-10.7393
▁çıxdığın	-10.7393
▁evliliklərin	-10.7393
Tez	-10.7393
▁auditoriya	-10.7393
ander	-10.7394
▁çağı	-10.7395
▁gətirmir	-10.7395
▁xalqın	-10.7395
▁İngiliscədə	-10.7395
▁14	-10.7395
▁milyarderlər	-10.7396
verici	-10.7396
▁öyrənib	-10.7396
▁çalışaq	-10.7396
▁Sara	-10.7396
rafik	-10.7396
▁texnologiyamız	-10.7396
▁inək	-10.7396
▁çıxmalı	-10.7397
▁içki	-10.7397
▁tapdığımız	-10.7397
▁kasıblığı	-10.7397
▁faktor	-10.7397
▁dəyişdiril	-10.7397
▁bilməyib	-10.7397
▁oynamaq	-10.7397
▁İraq	-10.7397
▁32	-10.7398
▁əf	-10.7398
▁olmamız	-10.7398
▁gəlincə	-10.7398
▁nəşr	-10.7399
▁Red	-10.7399
▁edərsiniz	-10.7399
▁qucaqlaya	-10.74
▁ayaqlarımı	-10.74
▁hökümətinin	-10.74
▁Səliqəli	-10.74
▁getdiyini	-10.7401
▁qazanmaq	-10.7401
▁edəcəyik	-10.7402
▁bildirib	-10.7402
dilib	-10.7402
▁reklamlarda	-10.7402
▁diqqətini	-10.7402
▁kaş	-10.7403
▁verim	-10.7404
▁baxırıq	-10.7404
▁Von	-10.7404
▁Mag	-10.7406
▁dayanıb	-10.7406
▁gərək	-10.7407
▁gedirsən	-10.7407
▁peşə	-10.7407
▁göndərdik	-10.7408
▁sevmək	-10.7409
▁hüz	-10.7409
▁gedirəm	-10.7409
▁Təyyarə	-10.7409
▁meditasiya	-10.7409
▁Leon	-10.7409
▁söndür	-10.7409
▁süpür	-10.7409
▁Sakit	-10.7409
▁Palme	-10.7409
▁Sierra	-10.7409
▁Oldu	-10.7409
▁Salam	-10.7409
▁Darvin	-10.741
▁Müəllif	-10.741
▁AB	-10.741
Tamaşaçılar	-10.741
▁sərhədsiz	-10.7411
▁sez	-10.7411
▁Jer	-10.7411
▁alındı	-10.7411
▁inanı	-10.7411
▁tapıb	-10.7412
▁veb	-10.7412
▁Beş	-10.7413
▁düzdür	-10.7414
▁şəf	-10.7415
▁öyrətdik	-10.7415
▁kva	-10.7415
▁verilməli	-10.7415
▁ucadan	-10.7417
▁yazdığım	-10.7417
▁ideyaların	-10.7417
▁AP	-10.7417
▁cəsarətli	-10.7417
▁ətraflarında	-10.7417
▁çəkirsən	-10.7418
Hansı	-10.7419
▁Kle	-10.7419
▁kürəsində	-10.7419
▁Təhsil	-10.7419
ibi	-10.742
▁val	-10.7421
▁isim	-10.7421
▁öyrətmək	-10.7422
▁özünüzü	-10.7422
▁tezliklər	-10.7422
▁ölən	-10.7422
▁narahatlıq	-10.7422
▁qurub	-10.7423
▁Lir	-10.7423
▁dəqiqlikl	-10.7423
▁əksər	-10.7424
▁qaldırır	-10.7425
▁maşınların	-10.7425
▁bənzərsiz	-10.7427
▁barmağı	-10.7428
▁anlayışımızı	-10.7428
▁astronavtları	-10.7428
▁əmr	-10.7429
▁vurdu	-10.743
▁təbəqəsində	-10.7431
▁qurduq	-10.7431
▁qurulması	-10.7432
▁gəminin	-10.7433
▁Pr	-10.7434
▁arzulama	-10.7434
go	-10.7434
▁bizimçün	-10.7435
▁hissədə	-10.7435
▁ömrüm	-10.7435
▁beli	-10.7436
▁Nigeriyalı	-10.7436
fəs	-10.7437
▁xro	-10.7438
▁sət	-10.7438
▁Kimliyimiz	-10.7439
mist	-10.744
▁alaraq	-10.7441
▁istiliyi	-10.7442
əth	-10.7442
▁yet	-10.7443
▁Tamamilə	-10.7445
▁məqsədli	-10.7447
wi	-10.7447
▁avtomobillər	-10.745
▁istədikdə	-10.745
now	-10.745
▁ağlamaq	-10.7453
▁itirdik	-10.7454
▁dedikdə	-10.7454
▁sarayın	-10.7455
▁Far	-10.7455
▁silik	-10.7456
▁ardın	-10.7456
müsəlman	-10.7456
▁deyirsən	-10.7457
▁açıqca	-10.7457
▁istədiklərim	-10.7457
▁bağlar	-10.7457
düz	-10.7459
▁Il	-10.7459
məhsuldar	-10.746
▁əraziləri	-10.7461
▁deməmişdi	-10.7461
▁biliyi	-10.7461
▁əlimdən	-10.7464
▁Şo	-10.7465
▁bilmədilər	-10.7466
▁Şərqi	-10.7467
▁anti	-10.7468
its	-10.7468
▁uzanı	-10.7468
▁Hamınız	-10.7469
▁olursa	-10.7469
▁ayağını	-10.7472
▁uçurlar	-10.7473
▁axınlar	-10.7474
▁mərhələlər	-10.7474
▁şifrələy	-10.7475
▁Qız	-10.7476
Sabah	-10.7476
ərhal	-10.7477
▁nənəyə	-10.7477
ispan	-10.7478
▁məsuliyyətimiz	-10.7478
▁boyda	-10.7479
▁ədəbiyyatın	-10.7481
▁önümüzd	-10.7482
▁yerlərində	-10.7482
▁faktdır	-10.7482
▁açma	-10.7483
malay	-10.7485
▁olubmu	-10.7488
▁reallaşdıra	-10.7489
Gələcək	-10.7489
▁pay	-10.7489
▁gəldikdə	-10.7491
▁sürdüyü	-10.7493
▁göstərək	-10.7493
▁axtarışda	-10.7494
imatlar	-10.7494
▁işlətmə	-10.7494
▁Tel	-10.7497
▁Fizika	-10.7498
▁vaxtıdır	-10.7499
laşdırmaq	-10.7499
▁çoxunuz	-10.7499
▁gəliş	-10.7502
▁düşüncəli	-10.7504
▁bilərikmi	-10.7505
▁hərəkətini	-10.7507
▁Titaniki	-10.7508
qtisadiyyat	-10.7508
▁Yay	-10.7508
qulum	-10.7509
▁Yaradıcılığ	-10.751
▁sözlərinin	-10.751
▁burdakı	-10.7513
▁vasitələrinin	-10.7514
▁dərili	-10.7518
▁izləmək	-10.7519
▁ştatı	-10.7521
▁müv	-10.7521
sansa	-10.7522
▁bilsəydim	-10.7522
▁demişdim	-10.7523
▁Şəkl	-10.7523
ebilme	-10.7524
▁görünər	-10.7526
▁musiqisi	-10.7527
▁Əliniz	-10.7527
indeki	-10.7529
▁demişdir	-10.7533
▁gözünü	-10.7535
▁düşünək	-10.7538
eqo	-10.7541
▁cərəyanın	-10.7541
məzdi	-10.7542
▁salın	-10.7543
▁fikirləşə	-10.7544
▁bilik	-10.7546
▁problemlərin	-10.7546
▁böhranı	-10.7548
ntı	-10.7549
▁qalxan	-10.7552
ləğ	-10.7554
▁dönüş	-10.7555
▁Görü	-10.7556
▁zehni	-10.7556
▁qurğuların	-10.7558
▁sahillərində	-10.7562
▁ölümünü	-10.7562
▁təcrübənin	-10.7562
▁nöqtələri	-10.7564
▁Evli	-10.7564
▁keçərdi	-10.7565
▁arzum	-10.7565
▁qarış	-10.7567
▁imzala	-10.757
▁göstərilir	-10.7573
▁Təşkilatı	-10.7575
▁deyilmiş	-10.7578
▁Bibliyaları	-10.758
▁yey	-10.7585
▁biləcəyinizi	-10.7585
king	-10.7586
▁Orda	-10.7587
laşdır	-10.7589
▁qoyduq	-10.759
▁Ara	-10.7594
▁silindr	-10.7595
▁yerləşir	-10.7598
▁bilməyi	-10.7598
98	-10.7603
▁şəxsiyyəti	-10.7604
lent	-10.7604
▁hərflər	-10.7606
hum	-10.7608
▁göstərirdi	-10.761
▁edəcəyimiz	-10.7611
▁fikirləşmir	-10.7613
▁maşınla	-10.7613
▁yuxarıdan	-10.7615
▁edəcəyiniz	-10.7617
▁axını	-10.7617
29	-10.7619
əylənmək	-10.7622
▁başlıq	-10.7626
▁30-	-10.7627
▁qarşılaya	-10.7627
mas	-10.7627
usu	-10.7629
▁standartların	-10.7629
▁qəti	-10.7633
ləşir	-10.7634
▁çəkə	-10.7635
▁qızdır	-10.7635
▁şən	-10.7636
▁almışdı	-10.7636
▁görülə	-10.7638
▁mar	-10.7639
▁dəmir	-10.764
▁olursan	-10.7642
▁mütəxəssisləri	-10.7647
▁j	-10.7647
▁bağışlay	-10.7648
▁Tanzaniyada	-10.765
▁oluram	-10.765
▁İşığı	-10.7652
▁gözündə	-10.7654
komp	-10.7654
▁Car	-10.7654
▁izləyir	-10.7655
▁ulduzlarda	-10.7656
▁getdiyi	-10.766
ret	-10.766
▁sənətçi	-10.7666
▁göndərmək	-10.7674
▁May	-10.7681
▁girir	-10.7682
▁ənənəsini	-10.7684
▁qəlbin	-10.7684
vaq	-10.7684
▁Kənd	-10.7689
tmək	-10.769
▁iztirab	-10.7692
▁göndərirdi	-10.7692
▁olsunlar	-10.77
▁Go	-10.7712
▁seçimim	-10.7718
▁qalaktikaları	-10.7722
▁notu	-10.7726
▁səbəblə	-10.7728
▁dörddə	-10.774
▁Kişilər	-10.7744
che	-10.7748
▁değiştirebil	-10.7753
▁afrikalılar	-10.7754
▁edirdilər	-10.776
nasında	-10.7763
▁dilindədir	-10.7767
▁daxildir	-10.7769
▁qutular	-10.777
▁dava	-10.7773
▁bağları	-10.7778
▁paylaşdığı	-10.7779
▁kökü	-10.778
ləşdirmə	-10.7783
▁müzakirələri	-10.7785
▁Sam	-10.7788
▁bahal	-10.779
▁təhsilli	-10.779
▁Marionu	-10.7794
▁evlərin	-10.7794
▁istəmirdi	-10.7796
▁Kimliyi	-10.7796
▁görmüşdü	-10.7801
▁illərin	-10.7802
▁düymələri	-10.7804
▁50-	-10.7809
▁Kam	-10.7812
aron	-10.7817
▁əhvalatın	-10.782
▁eks	-10.7825
▁tutardı	-10.7827
▁mənbələrin	-10.7828
▁şimalı	-10.7831
▁iplikləri	-10.7836
▁fikirli	-10.7837
▁uşağım	-10.7839
▁məsuliyyətini	-10.7841
dəcək	-10.7844
▁raketlər	-10.7845
▁qanad	-10.7848
▁motivi	-10.7851
▁səhifəsin	-10.7851
iydi	-10.7856
tıcı	-10.7866
Mart	-10.7873
▁baxan	-10.788
▁dalğası	-10.7882
▁ləyaqəti	-10.7883
▁başlamışdı	-10.7886
▁sayə	-10.7893
▁görəsən	-10.7894
▁başladılar	-10.7898
▁anı	-10.7899
▁mal	-10.79
İki	-10.7901
▁qoruy	-10.7904
▁yaşadığımız	-10.7904
▁tanınması	-10.791
▁düşü	-10.7913
▁-"	-10.7917
▁siyahını	-10.7918
▁iynəcələri	-10.7925
▁Özünüz	-10.7929
▁işləyə	-10.7929
▁ediblər	-10.7935
▁dəyişmiş	-10.7937
fon	-10.794
▁yaxınlaşma	-10.7944
▁ritualları	-10.7959
▁girdi	-10.7963
▁bilərdim	-10.7964
▁birləşdirən	-10.7967
▁gü	-10.7969
▁girə	-10.7971
▁bənzəyə	-10.7974
▁təsəvvürüm	-10.798
▁etmədən	-10.7992
▁debatları	-10.7992
▁olardıq	-10.7992
▁təmizləy	-10.8002
kanı	-10.8015
ırdıq	-10.8017
▁zərur	-10.802
▁götürməy	-10.8036
▁varmış	-10.8037
▁məsələlər	-10.8047
▁arxivi	-10.8049
▁qayıtma	-10.805
▁təməli	-10.8052
Qəribədir	-10.8059
▁proyektin	-10.8078
çt	-10.8078
▁bildirir	-10.8082
▁vəziyyətin	-10.8089
▁ölçülər	-10.8089
▁Meta	-10.8095
▁səhvləri	-10.8097
▁dövrlərin	-10.81
▁qalmadı	-10.8103
▁Tanrını	-10.811
▁istəmədiyi	-10.8129
▁həyatımızı	-10.8133
▁xatırlatma	-10.814
low	-10.814
▁Bitkilər	-10.8141
paq	-10.8141
▁qrupun	-10.8146
▁Gör	-10.8146
▁Agentliyini	-10.8156
▁xatırlayır	-10.8162
▁gəlməyə	-10.8163
▁yanğınlar	-10.8169
▁təzyiqlər	-10.817
▁genlərin	-10.817
▁Avropanı	-10.8181
▁bölgüsün	-10.8182
▁gəlməsin	-10.8186
▁təzyiqi	-10.8192
▁dilimiz	-10.8203
▁məhbusu	-10.8217
▁otağım	-10.8224
▁hirsl	-10.8225
▁başladığını	-10.8226
▁malikdir	-10.8226
babaları	-10.8245
▁günümüz	-10.8247
▁dəlili	-10.8247
▁inkişafın	-10.8252
Sev	-10.8254
▁onillikdə	-10.8258
▁kameralar	-10.8262
▁vardım	-10.8268
ston	-10.8276
ew	-10.8278
▁həyəcan	-10.8289
▁baka	-10.8289
▁bənzəyirdi	-10.829
eter	-10.8292
▁düzü	-10.8293
▁eşidir	-10.8298
▁məktəblərində	-10.8299
▁mussonunda	-10.8301
▁etməmişdi	-10.8306
▁evlənmə	-10.831
abilirsiniz	-10.8315
sen	-10.8317
MC	-10.832
zacağımı	-10.8326
▁seçkilər	-10.8334
▁alimlərin	-10.835
arılar	-10.8352
atında	-10.8363
▁nisbətini	-10.8364
▁sahələr	-10.838
▁kimy	-10.838
ando	-10.8382
▁Naziri	-10.8382
lanması	-10.8382
▁etdirə	-10.8387
▁birləşdirmə	-10.8388
▁görsə	-10.8397
▁Universiteti	-10.8399
▁şirkətləri	-10.8403
▁çatdı	-10.8404
▁dizaynları	-10.841
▁aktyorlu	-10.8416
▁anlarında	-10.8425
▁Hamını	-10.8429
▁kürəsi	-10.843
▁nəzarətin	-10.8437
▁fəlakətlər	-10.8442
▁okeanları	-10.8444
▁Muzeyi	-10.8448
▁qalanın	-10.8455
▁performans	-10.8491
▁halqalar	-10.8497
▁oynayırdı	-10.8498
ros	-10.8508
▁kəşfləri	-10.8529
▁kompyuteri	-10.8561
▁telefonlar	-10.8561
▁səliqəsiz	-10.8563
▁şərti	-10.8564
nge	-10.8576
ger	-10.86
ece	-10.8606
▁effektlər	-10.8641
laşırlar	-10.8642
acağımı	-10.8645
▁zənglər	-10.8665
işlə	-10.867
▁işləyirdi	-10.8674
▁sistemlərin	-10.8677
▁nömrəl	-10.8685
▁oğlun	-10.8701
▁Qan	-10.8731
▁dediklərini	-10.8741
▁itirir	-10.8748
▁axtarışı	-10.8751
rmi	-10.8758
▁dəstəyin	-10.8762
▁Etdiyim	-10.8767
▁Fleytalar	-10.878
▁edərsə	-10.8782
▁mövcudluğun	-10.8791
▁hallarda	-10.8796
▁buraxdı	-10.8799
▁Fak	-10.8808
▁formalaş	-10.8828
▁xortumu	-10.8848
▁sahilin	-10.8851
▁canlıları	-10.8859
▁Özün	-10.886
▁getməsi	-10.8881
▁ailələr	-10.8899
▁qarşılaşdı	-10.8905
▁mətni	-10.8906
▁tələbələrin	-10.8917
imtahanları	-10.8923
▁1000-	-10.8929
▁yaradı	-10.8946
▁metod	-10.8949
▁məsələsin	-10.8951
▁Fərqi	-10.8955
▁həyatımız	-10.8955
▁izlə	-10.8983
▁canlılar	-10.8989
▁aparmağ	-10.8992
▁lideri	-10.8993
▁davranır	-10.9
▁parla	-10.9003
▁çəkmir	-10.9007
▁siyahısı	-10.902
▁hazırladı	-10.9021
70	-10.9026
▁yerləşdirdi	-10.9031
siyası	-10.9066
▁eşit	-10.9069
▁qazanmış	-10.9078
▁quraşdırılm	-10.909
▁yazıçıları	-10.9093
▁miqyası	-10.9096
yinin	-10.9104
▁müştərilər	-10.9106
▁uyğunlaş	-10.9107
dınızsa	-10.911
▁verməsi	-10.9122
▁təhlükələr	-10.9128
▁sevgim	-10.9135
▁görmür	-10.9142
▁diplomu	-10.9145
▁gəlməy	-10.9153
▁təyyarələri	-10.9157
▁bildikləri	-10.9161
▁yazılmışdı	-10.9172
▁xaricdə	-10.9182
▁qurma	-10.9199
▁dərsin	-10.9199
▁Is	-10.9204
▁qaydasın	-10.9214
ləsi	-10.9227
▁danışırsınız	-10.9235
▁musiqiçilər	-10.9257
tünd	-10.9258
qurumların	-10.9265
▁söhbətlər	-10.9274
▁otura	-10.9279
amaz	-10.9308
▁Kas	-10.9323
əəssüf	-10.9326
rc	-10.9334
▁hərəkətlərini	-10.9335
▁güd	-10.9353
ünüzü	-10.9355
▁bağı	-10.9359
▁Kan	-10.937
▁zirvəsi	-10.9374
▁gəzir	-10.9383
əvaz	-10.939
▁olmamış	-10.9391
üzyılımız	-10.9398
▁keçirir	-10.9415
ilmek	-10.945
ps	-10.946
davamlılıq	-10.9479
▁gəlmədi	-10.9479
▁parçacıqlarını	-10.9487
▁çevrilmiş	-10.9487
▁aşıla	-10.9488
▁dillərin	-10.9503
▁adamlarını	-10.9511
▁başımız	-10.9514
▁bildik	-10.9533
▁ailəsini	-10.9536
▁yayım	-10.9544
▁tərzimi	-10.9544
çası	-10.955
▁limit	-10.9575
▁limitləri	-10.9575
▁bulud	-10.9598
▁genom	-10.9603
xas	-10.9609
▁çatması	-10.9635
▁qaynaqlar	-10.9649
▁yağışın	-10.9672
▁qiymətlər	-10.9675
▁Dar	-10.9677
▁dizaynerlər	-10.9689
▁Qalaktika	-10.9698
▁qutusunda	-10.9703
▁şəxsləri	-10.973
▁söylədi	-10.976
▁astronomlar	-10.9776
ıldığı	-10.9778
▁endi	-10.9779
AM	-10.9807
▁xəritələn	-10.9809
əssüf	-10.9822
▁soruşu	-10.9849
▁təva	-10.9851
▁izlədiyi	-10.9851
▁ifası	-10.9854
▁Ruslar	-10.987
▁itkin	-10.9894
▁araşdırması	-10.9923
60	-10.9952
▁xəritəsin	-10.9955
ışını	-10.9984
Bey	-10.9986
▁utanma	-11.0004
uzun	-11.0024
▁yolumuz	-11.0035
pl	-11.0056
▁yazılmış	-11.0076
▁çıxartdı	-11.0082
mamışdım	-11.011
apa	-11.0145
aşdırılmış	-11.0147
▁yığdı	-11.0152
tic	-11.0165
ione	-11.0171
▁kanallar	-11.0171
▁müştəriləri	-11.0199
▁düzəld	-11.0211
lerimiz	-11.0213
▁şüasını	-11.0215
oko	-11.0238
▁metodu	-11.0242
▁çevrilmə	-11.0253
▁topladı	-11.0279
Rol	-11.0285
işti	-11.0293
▁Win	-11.0313
▁yaşları	-11.0369
10	-11.0378
▁bilməmiş	-11.0395
▁ayaqqabıları	-11.0395
▁qutuları	-11.0398
▁etmədik	-11.0406
▁dəstəyi	-11.0458
diyindən	-11.048
qərbin	-11.0491
▁quruluşun	-11.0494
▁Universitet	-11.0496
▁yumurta	-11.0508
▁mədəniyyətləri	-11.0555
▁nöqtəsin	-11.0578
▁uzadı	-11.0581
▁Krallı	-11.061
▁yönəldi	-11.0626
▁halqa	-11.0631
▁yayımla	-11.0633
▁yığır	-11.0665
▁Gözə	-11.0668
▁qey	-11.0684
▁təşkilatlan	-11.0694
▁ailəsi	-11.0706
▁ustad	-11.0719
ğımda	-11.0722
muşuq	-11.0733
▁tərzini	-11.074
▁etməmiş	-11.076
▁qaydalarını	-11.0785
▁performansl	-11.0788
▁ünsiyyətin	-11.0788
▁dönər	-11.0796
üzdür	-11.0842
olland	-11.0849
▁fəlakət	-11.085
ördü	-11.0873
▁ağlama	-11.0878
mağım	-11.0883
▁aktyor	-11.0885
▁dördü	-11.0912
▁Nazir	-11.0927
▁İnsan	-11.0939
▁nazir	-11.0943
▁dəyişdiyi	-11.0946
▁miraslar	-11.0954
▁250	-11.0962
▁kana	-11.0973
▁qiymətlərin	-11.0988
uldu	-11.0993
laşmaq	-11.1007
əyəcanla	-11.1028
esiy	-11.103
▁onillik	-11.1088
▁əyildi	-11.1112
▁öyrəndikləri	-11.1167
▁genişlənməsin	-11.1182
yişdirə	-11.1186
▁yaşın	-11.1189
▁yanğın	-11.1208
▁dəyişikliy	-11.1233
▁Bitki	-11.1245
▁görəcəyi	-11.1252
laşması	-11.128
dükcə	-11.1286
▁Tanrı	-11.1287
▁fizi	-11.1291
Sən	-11.1306
▁səfərin	-11.1317
▁xidmətin	-11.1319
▁roman	-11.1328
▁qalmağ	-11.1338
▁Qəribə	-11.1356
▁arxiv	-11.1372
məyimizi	-11.1392
▁təriflə	-11.1401
▁Düşünür	-11.1408
özü	-11.1413
aşan	-11.1413
▁təmizlə	-11.1437
▁öldürü	-11.144
hzadə	-11.1476
ehrli	-11.148
▁Bağışla	-11.1509
▁müşahidəsi	-11.1517
üklü	-11.1519
▁ağcaqanad	-11.1539
axa	-11.1543
▁Qızları	-11.1549
▁bilməsə	-11.1566
lacaqdı	-11.1571
tonlu	-11.1572
▁Ştat	-11.1585
▁qəz	-11.159
ləndiyini	-11.1592
▁nəsli	-11.16
▁fürsət	-11.1601
▁araşdırmanı	-11.1618
▁fotoşəkilin	-11.162
▁əhali	-11.1624
▁qoşuldu	-11.1627
▁versiya	-11.1635
▁xüsusiyyət	-11.1639
▁mövcudluğu	-11.1641
məyəcəyi	-11.1654
▁motiv	-11.1654
▁raket	-11.166
▁hazırlamağ	-11.1668
▁xəritəni	-11.1694
▁əhvalat	-11.1697
ebilirdi	-11.1698
▁daşıyıcı	-11.1701
▁gecəni	-11.1707
▁lo	-11.1711
▁qrupu	-11.1713
ağım	-11.172
▁rituallar	-11.1723
▁çıxarmağ	-11.1736
▁bilgi	-11.1771
▁hökumətin	-11.1782
▁edəcəyi	-11.1783
▁değiştir	-11.1795
▁dura	-11.1805
▁çalışmış	-11.1812
▁qayıd	-11.1814
▁Bəd	-11.1835
▁qon	-11.1837
ütfən	-11.1842
▁gözlənti	-11.1844
▁istiqamət	-11.1849
▁struktur	-11.1855
▁bağça	-11.1866
▁ifşaçı	-11.1867
ega	-11.1875
▁korlama	-11.1883
ırtı	-11.1883
▁gözləməli	-11.1897
▁qəlb	-11.1899
palm	-11.1908
▁eşitmi	-11.1917
▁avtobus	-11.1918
▁professor	-11.1918
rid	-11.192
▁genişlənmə	-11.193
laşmış	-11.195
yorsunuz	-11.1959
▁seçdiyim	-11.196
▁yaxınlaşa	-11.197
▁içir	-11.1984
▁hissəcik	-11.1985
▁əylən	-11.1987
▁döy	-11.1988
▁sevirdi	-11.1993
▁görül	-11.2003
▁səslərin	-11.2009
▁sav	-11.2015
▁sevməy	-11.2021
▁ağrısı	-11.2022
▁uşaqlarımız	-11.2032
▁surə	-11.2033
▁işçilərin	-11.2041
▁cəh	-11.2044
▁göndərir	-11.2045
axışı	-11.2052
▁başlamış	-11.2061
iyyətini	-11.2064
▁Təşkilat	-11.2066
quşu	-11.2072
▁imza	-11.2075
▁düşünərə	-11.2084
▁qurğu	-11.209
▁topl	-11.2091
▁fikirlərini	-11.2091
üç	-11.2099
▁velosiped	-11.2102
▁layiq	-11.2103
vanda	-11.2107
▁yazdığı	-11.2119
ləyici	-11.2122
llo	-11.2126
Şəkli	-11.2149
Onu	-11.2153
▁bacarsa	-11.2153
▁kürəsin	-11.2162
▁Yaradıcı	-11.2168
oley	-11.2178
▁buraxıl	-11.2194
▁fayda	-11.2202
▁payla	-11.2205
▁aks	-11.2207
əhs	-11.2208
ilirdik	-11.2212
▁bədənimi	-11.2212
▁gedi	-11.2213
▁qayğı	-11.2216
999	-11.2218
▁qəhraman	-11.2218
ğunluq	-11.2227
▁sualın	-11.2235
▁kayb	-11.2236
▁əlimdə	-11.2242
Özünüz	-11.2245
oğlu	-11.2245
Meta	-11.2247
Titan	-11.2253
Kişi	-11.2254
Kral	-11.2254
biləcək	-11.2255
Orada	-11.2256
lider	-11.2258
Cavab	-11.2258
dost	-11.2259
qutu	-11.226
çiliyin	-11.226
▁əlimi	-11.2261
▁üzvü	-11.2261
Burda	-11.2261
Bang	-11.2262
öyrənmək	-11.2262
Tamam	-11.2262
forma	-11.2262
Məktəb	-11.2262
Gəlin	-11.2262
danışa	-11.2262
▁planetimizi	-11.2262
təkrar	-11.2264
İnsanlar	-11.2264
sevə	-11.2264
hesab	-11.2265
Bibliya	-11.2266
Beləliklə	-11.2266
hekayə	-11.2266
vaxt	-11.2266
qaranlıq	-11.2266
500	-11.2266
▁uzunluğu	-11.2266
gələn	-11.2268
40	-11.2269
▁qaldırı	-11.2271
aşkar	-11.2274
Kimsə	-11.2274
dəqiq	-11.2275
▁Arx	-11.2275
inqin	-11.2282
Audi	-11.2283
əsr	-11.2284
Hey	-11.2285
▁ömrü	-11.2286
tinq	-11.2288
▁gec	-11.2297
▁sözünü	-11.2299
▁Sav	-11.23
▁riyaz	-11.2302
işləri	-11.2304
▁zorakılı	-11.2314
▁Xatırla	-11.2318
▁qırı	-11.2319
▁Bru	-11.2321
▁misiya	-11.2325
▁karşı	-11.2327
pressi	-11.2328
daşlıq	-11.233
yyatı	-11.2332
Kim	-11.2332
▁qucaqla	-11.2336
▁namizəd	-11.2338
iten	-11.2339
strat	-11.234
▁böyümə	-11.2341
▁akt	-11.2343
▁böyüyü	-11.2344
▁valideynlərim	-11.2344
Böyü	-11.2344
▁idarəçili	-11.2346
ördüklərimiz	-11.2346
▁gerçəkləşdi	-11.2348
▁görürdü	-11.2348
▁doğum	-11.2349
▁küç	-11.2349
▁görünmə	-11.2352
ktoru	-11.2354
▁dəyişik	-11.2355
▁blog	-11.2355
▁rəhm	-11.2356
▁dəhşət	-11.2359
▁fokus	-11.236
▁yolumu	-11.2361
▁cinayət	-11.2363
gəlirl	-11.2363
▁etsin	-11.2364
▁tanıdığım	-11.2365
▁düzdü	-11.2366
acılarım	-11.2366
▁Özünü	-11.2367
oyuq	-11.2368
▁Dəyiş	-11.2369
ermostat	-11.2369
əqiq	-11.2369
▁çəkildi	-11.237
ələbə	-11.237
▁elçi	-11.237
▁müdrik	-11.2371
əkamül	-11.2371
llah	-11.2371
istem	-11.2371
ilməz	-11.2372
▁terror	-11.2373
tabilir	-11.2373
üzakirə	-11.2374
ətbuat	-11.2374
əşhur	-11.2374
▁tapşır	-11.2374
▁şekillendir	-11.2374
▁düşdüyü	-11.2374
ümkün	-11.2374
şlyapa	-11.2374
▁üstünlüy	-11.2374
pace	-11.2375
birini	-11.2375
anlaşıl	-11.2375
yaqlarımı	-11.2376
▁qabağ	-11.2376
stronom	-11.2376
hramanlarım	-11.2376
▁baxdığımız	-11.2376
▁qorxusu	-11.2376
otoşəkillər	-11.2376
çəridə	-11.2376
▁yön	-11.2377
▁durur	-11.2377
qasırğa	-11.2377
▁doğuldu	-11.2377
nstitut	-11.2377
▁tapılm	-11.2377
▁Məsəl	-11.2377
rinsip	-11.2377
ibliya	-11.2377
öqtə	-11.2377
▁ticar	-11.2377
agirdləri	-11.2377
▁münasib	-11.2377
əsarət	-11.2377
qrammatik	-11.2377
htimalla	-11.2378
lövh	-11.2378
rofessional	-11.2378
ulyasiya	-11.2378
▁Ölçü	-11.2378
alehedici	-11.2378
obotu	-11.2378
etropoli	-11.2378
əşf	-11.2378
pələn	-11.2378
oriyası	-11.2378
▁değiş	-11.2378
aştırma	-11.2379
▁Fikir	-11.2379
▁persona	-11.2379
▁bəxş	-11.2379
▁nötr	-11.2379
▁irəliləy	-11.2379
▁White	-11.2379
▁hör	-11.2379
abilitasiya	-11.2379
ldoz	-11.2379
nstruksiya	-11.2379
▁Təhlükə	-11.2379
▁irtifa	-11.2379
▁karmaşıkl	-11.2379
Kahka	-11.2379
oyabr	-11.2379
tereotiplər	-11.2379
▁Doug	-11.2379
▁Federasiyasın	-11.2379
▁Krateri	-11.2379
▁Norveç	-11.2379
▁Qardaş	-11.2379
▁Rothblatt	-11.2379
▁Sterlin	-11.2379
▁Terminalında	-11.2379
▁afalla	-11.2379
▁bölmə	-11.2379
▁bürüyür	-11.2379
▁cəzalandır	-11.2379
▁dağıtma	-11.2379
▁döş	-11.2379
▁ekosisteml	-11.2379
▁geliştir	-11.2379
▁hidrotermal	-11.2379
▁inqilab	-11.2379
▁ixrac	-11.2379
▁klaviatura	-11.2379
▁körpü	-11.2379
▁magistra	-11.2379
▁metafor	-11.2379
▁məftun	-11.2379
▁narazı	-11.2379
▁pıçılday	-11.2379
▁sehir	-11.2379
▁sevdiklərim	-11.2379
▁sızıntı	-11.2379
▁tarazlıq	-11.2379
▁tədbirlər	-11.2379
▁yorucu	-11.2379
▁yoğunluk	-11.2379
▁Çiç	-11.2379
▁Çıx	-11.2379
▁Ölümlərin	-11.2379
▁öküzlər	-11.2379
▁öngörü	-11.2379
▁öp	-11.2379
▁Şirkəti	-11.2379
Cümlə	-11.2379
Peyğəmbər	-11.2379
Pikasso	-11.2379
Sayborq	-11.2379
Sürücü	-11.2379
Yeməkxana	-11.2379
enös	-11.2379
ikipediya	-11.2379
isenziya	-11.2379
minatord	-11.2379
rect	-11.2379
rmiydiniz	-11.2379
rımkürəsi	-11.2379
teknoloji	-11.2379
ölməçə	-11.2379
ördək	-11.2379
üzyon	-11.2379
əbiristanlı	-11.2379
▁Adenike	-11.2379
▁Aerona	-11.2379
▁Arizona	-11.2379
▁Assosiasiyası	-11.2379
▁Atomlar	-11.2379
▁Aykroyd	-11.2379
▁Azadlığı	-11.2379
▁Beatris	-11.2379
▁Children	-11.2379
▁Cihaz	-11.2379
▁Cohen	-11.2379
▁Concord	-11.2379
▁Demokrat	-11.2379
▁Direktor	-11.2379
▁Dəhşət	-11.2379
▁Enerji	-11.2379
▁Evrende	-11.2379
▁Genişliyi	-11.2379
▁Göstər	-11.2379
▁Göy	-11.2379
▁Heinrich	-11.2379
▁IPCC	-11.2379
▁Israel	-11.2379
▁Jacqu	-11.2379
▁Kembric	-11.2379
▁Klaviatura	-11.2379
▁Kolumbiya	-11.2379
▁Kompleks	-11.2379
▁Lüğət	-11.2379
▁Mapmaker	-11.2379
▁Müvəffəqiyyət	-11.2379
▁Nömrə	-11.2379
▁Oktyabr	-11.2379
▁Plutoya	-11.2379
▁Qrupun	-11.2379
▁Quarklar	-11.2379
▁Razılaşdı	-11.2379
▁Rufus	-11.2379
▁SecureDrop	-11.2379
▁Spock	-11.2379
▁Stanford	-11.2379
▁Suyumuz	-11.2379
▁Sərdabələri	-11.2379
▁Teatr	-11.2379
▁Teleskop	-11.2379
▁Televiziya	-11.2379
▁Televizor	-11.2379
▁Thatcher	-11.2379
▁Valideynlərimi	-11.2379
▁Velosipedi	-11.2379
▁William	-11.2379
▁Xoşbəxtlikdən	-11.2379
▁Yazıçılıq	-11.2379
▁Yumurta	-11.2379
▁Yunanıstan	-11.2379
▁alqoritm	-11.2379
▁apartayd	-11.2379
▁arvadı	-11.2379
▁avadanlıqları	-11.2379
▁avropa	-11.2379
▁basitleşti	-11.2379
▁başlayacağıq	-11.2379
▁bəhanə	-11.2379
▁bəzəyi	-11.2379
▁drift	-11.2379
▁durdurur	-11.2379
▁dördbuca	-11.2379
▁döyüntü	-11.2379
▁dözülməz	-11.2379
▁dözə	-11.2379
▁düşmüsünüz	-11.2379
▁dırnaqlarım	-11.2379
▁eksperiment	-11.2379
▁epidemi	-11.2379
▁etkilen	-11.2379
▁fayllar	-11.2379
▁fizikçiyim	-11.2379
▁gerçəy	-11.2379
▁görelilik	-11.2379
▁götürmüşük	-11.2379
▁göyərtə	-11.2379
▁gözlemle	-11.2379
▁havzalar	-11.2379
▁hündürlüyü	-11.2379
▁həvəsləndir	-11.2379
▁infilyasiya	-11.2379
▁iyimserim	-11.2379
▁iylənir	-11.2379
▁izlete	-11.2379
▁kombinasiyalar	-11.2379
▁kredit	-11.2379
▁kvarklar	-11.2379
▁leksikoqraf	-11.2379
▁mikrodalğa	-11.2379
▁mübadiləsi	-11.2379
▁müdhiş	-11.2379
▁müdrük	-11.2379
▁müstəmləkə	-11.2379
▁müğən	-11.2379
▁məntəqələri	-11.2379
▁naşirim	-11.2379
▁nikotin	-11.2379
▁nümayəndələri	-11.2379
▁nüsxə	-11.2379
▁nəsihətlər	-11.2379
▁operator	-11.2379
▁ovsunlayıcı	-11.2379
▁paradoks	-11.2379
▁partikülleri	-11.2379
▁partlatma	-11.2379
▁patlama	-11.2379
▁pianino	-11.2379
▁populyar	-11.2379
▁prestij	-11.2379
▁printeriniz	-11.2379
▁prioritet	-11.2379
▁prosses	-11.2379
▁qohumların	-11.2379
▁qorilla	-11.2379
▁rastgelelik	-11.2379
▁rifah	-11.2379
▁rəqqas	-11.2379
▁santigra	-11.2379
▁sivilizasiya	-11.2379
▁skripka	-11.2379
▁spektordan	-11.2379
▁statitika	-11.2379
▁sıfır	-11.2379
▁sığış	-11.2379
▁səlahiyyət	-11.2379
▁səsyazma	-11.2379
▁teleskobundan	-11.2379
▁tempraturu	-11.2379
▁tendensiya	-11.2379
▁tozlandırıcılar	-11.2379
▁tozlandırır	-11.2379
▁tragediya	-11.2379
▁turşu	-11.2379
▁törədilənlər	-11.2379
▁təbliğ	-11.2379
▁tələsirdi	-11.2379
▁təmkinli	-11.2379
▁təntənə	-11.2379
▁təxribat	-11.2379
▁uzaklık	-11.2379
▁valideyinləri	-11.2379
▁verilməməsi	-11.2379
▁veteran	-11.2379
▁violonçel	-11.2379
▁xatırlatmıram	-11.2379
▁yapışdırma	-11.2379
▁yarımdairə	-11.2379
▁yaşındakilerle	-11.2379
▁yeməkxana	-11.2379
▁yenidənqurma	-11.2379
▁Çalış	-11.2379
▁Ömrünü	-11.2379
▁çarmıx	-11.2379
▁çaşqınlıq	-11.2379
▁çevrə	-11.2379
▁çoban	-11.2379
▁ödəniş	-11.2379
▁ödəyə	-11.2379
▁üzləşəndə	-11.2379
▁şiddət	-11.2379
▁şifrəsi	-11.2379
▁Əyləncə	-11.2379
tirebil	-11.2379
▁Qəbul	-11.2379
▁bəyəndim	-11.2379
▁qamışlarda	-11.2379
▁qayığ	-11.2379
▁wird	-11.2379
Mağaza	-11.2379
miyorum	-11.2379
verilişlərində	-11.2379
▁ATLAS	-11.2379
▁Antarkti	-11.2379
▁DNT	-11.2379
▁DVD	-11.2379
▁Guardian	-11.2379
▁Müharibə	-11.2379
▁Nebula	-11.2379
▁Nepal	-11.2379
▁Proqramı	-11.2379
▁Russell	-11.2379
▁Teleskobu	-11.2379
▁Vaucanson	-11.2379
▁animasiyası	-11.2379
▁arzuladığım	-11.2379
▁atılacaq	-11.2379
▁bölünmə	-11.2379
▁büyüklü	-11.2379
▁daşıyır	-11.2379
▁doldurmalı	-11.2379
▁döyüşçü	-11.2379
▁düşündürür	-11.2379
▁dəhliz	-11.2379
▁dənəciyi	-11.2379
▁ekvator	-11.2379
▁eqoizm	-11.2379
▁fırlatma	-11.2379
▁görsənmir	-11.2379
▁heyecanl	-11.2379
▁hündürdaban	-11.2379
▁iPod	-11.2379
▁idarəetmə	-11.2379
▁impotent	-11.2379
▁konsept	-11.2379
▁köpük	-11.2379
▁mimarlar	-11.2379
▁nükleusları	-11.2379
▁oyatdı	-11.2379
▁qarşısıalınmaz	-11.2379
▁qiyamın	-11.2379
▁qovlu	-11.2379
▁qurbanları	-11.2379
▁qırx	-11.2379
▁rütubət	-11.2379
▁sövdə	-11.2379
▁tarazlığın	-11.2379
▁tortu	-11.2379
▁tərəfadarı	-11.2379
▁yamsılan	-11.2379
▁Çəki	-11.2379
▁ödüllendir	-11.2379
▁ömür	-11.2379
▁öğretmenler	-11.2379
▁Ərazi	-11.2379
bəxtlikdən	-11.2379
diğimiz	-11.2379
ndrom	-11.2379
veriş	-11.2379
▁Gilləm	-11.2379
▁Jeff	-11.2379
▁Kitabxana	-11.2379
▁Qorxu	-11.2379
▁buyurun	-11.2379
▁dırmaş	-11.2379
▁evliliyə	-11.2379
▁gücləndirmək	-11.2379
▁hiyləgərli	-11.2379
▁macəra	-11.2379
▁mühakimə	-11.2379
▁prosessor	-11.2379
▁psixologiyası	-11.2379
▁qravitasiya	-11.2379
▁razılaşır	-11.2379
▁sivil	-11.2379
▁təşvi	-11.2379
▁ünsiyyətçidir	-11.2379
▁İdarəsi	-11.2379
▁şadam	-11.2379
Sahara	-11.2379
▁Kerala	-11.2379
▁Sandel	-11.2379
▁Times	-11.2379
▁blok	-11.2379
▁değil	-11.2379
▁enirsən	-11.2379
▁etmisən	-11.2379
▁istəməzsiniz	-11.2379
▁müqavi	-11.2379
▁qoxu	-11.2379
▁satış	-11.2379
▁çalışacağıq	-11.2379
toqraf	-11.2379
ucunu	-11.2379
▁fiqur	-11.2379
▁studiya	-11.2379
Fevral	-11.2379
Mesaj	-11.2379
rokuror	-11.2379
▁Kusto	-11.2379
▁Live	-11.2379
▁Qaydalar	-11.2379
▁Risk	-11.2379
▁barbar	-11.2379
▁missiyalar	-11.2379
▁ovucu	-11.2379
▁paketi	-11.2379
▁yamsılama	-11.2379
atareya	-11.2379
ruba	-11.2379
▁fırlad	-11.2379
▁işçisi	-11.2379
▁karşılaştırı	-11.2379
▁pendir	-11.2379
▁üzləşdiyi	-11.2379
Meteor	-11.2379
akfımız	-11.2379
layabilir	-11.2379
▁Hərşey	-11.2379
▁Vaxt	-11.2379
▁ayağındakı	-11.2379
▁danışmırıq	-11.2379
▁menus	-11.2379
▁variant	-11.2379
▁xatırlamıram	-11.2379
▁xatırlamırıq	-11.2379
▁aparıcı	-11.2379
▁çarx	-11.2379
əngində	-11.2379
▁Taksini	-11.2379
▁bişe	-11.2379
▁həmkarımız	-11.2379
▁terap	-11.2379
▁yoldaşları	-11.2379
▁öyrədirik	-11.2379
▁gender	-11.2379
▁benze	-11.2379
▁uzaqlaşarlar	-11.2379
▁önümd	-11.2379
məkhaq	-11.2379
yeceğini	-11.2379
▁münasibətin	-11.2379
▁mənşəyi	-11.2379
▁zərbə	-11.2379
▁əzmi	-11.2379
ication	-11.2379
tumun	-11.2379
▁Insanlar	-11.2379
▁Romanımda	-11.2379
▁endirdik	-11.2379
▁kaset	-11.2379
▁çıxardırıq	-11.2379
▁Alams	-11.2379
▁Stand	-11.2379
▁bulanıq	-11.2379
▁modifi	-11.2379
▁pişikd	-11.2379
▁qurulmuş	-11.2379
▁uçtu	-11.2379
▁əngəllə	-11.2379
etmedi	-11.2379
zavr	-11.2379
əsvermə	-11.2379
▁dolayı	-11.2379
▁gəlməmişdən	-11.2379
▁keşfetmemiz	-11.2379
▁taksi	-11.2379
▁ulaş	-11.2379
egel	-11.2379
▁Təkrar	-11.2379
▁patentlə	-11.2379
▁sahibkarlar	-11.2379
▁tunel	-11.2379
▁görkəm	-11.2379
▁materik	-11.2379
Saqqal	-11.2379
▁bacım	-11.2379
▁konuşma	-11.2379
▁neyronlar	-11.2379
parta	-11.2379
übadilə	-11.2379
▁göllər	-11.2379
▁Açıq	-11.2379
▁Harold	-11.2379
▁getdiyinizdə	-11.2379
▁gluon	-11.2379
▁interval	-11.2379
▁fokuslanmaq	-11.2379
▁işğal	-11.2379
▁vəhşi	-11.2379
▁xəritəsidir	-11.2379
▁bezdir	-11.2379
▁klav	-11.2379
▁nümunəsidir	-11.2379
▁rota	-11.2379
▁Virginia	-11.2379
phone	-11.2379
partlayışlar	-11.2379
▁Nəysə	-11.2379
▁bütünlüklə	-11.2379
▁fərqlənir	-11.2379
▁olmayacağını	-11.2379
▁azalıb	-11.2379
▁serial	-11.2379
▁Aqua	-11.2379
▁Tikal	-11.2379
▁Harv	-11.2379
▁torna	-11.2379
▁həyəcanverici	-11.2379
▁zəmanət	-11.2379
▁yığımlar	-11.2379
▁etməyəcəyini	-11.2379
▁tasar	-11.2379
▁şax	-11.2379
▁geo	-11.2379
▁zəhmət	-11.2379
▁getdiyimdə	-11.2379
▁hərşey	-11.2379
Terminator	-11.2379
▁Kənar	-11.2379
▁izlənmə	-11.2379
▁azalır	-11.2379
ambiya	-11.2379
muşdum	-11.2379
▁fars	-11.2379
▁məhdudlaş	-11.2379
▁sınandı	-11.2379
▁Braun	-11.2379
▁kifayətlənmə	-11.2379
▁qırıqlığın	-11.2379
▁Yaradılış	-11.2379
▁uyduları	-11.2379
▁qayıdardım	-11.2379
ffaf	-11.2379
▁Ətrafınız	-11.2379
▁Gördüyüm	-11.2379
▁Dehli	-11.2379
▁Masailər	-11.2379
▁hesabatlarını	-11.2379
▁gerçek	-11.2379
▁kəpənəklər	-11.2379
Albert	-11.2379
▁oturmuşdum	-11.2379
▁Maaş	-11.2379
▁Slo	-11.2379
▁Texnik	-11.2379
▁izləyiciləri	-11.2379
▁peyğımbər	-11.2379
▁Yapon	-11.2379
▁riay	-11.2379
▁komik	-11.2379
▁odaklan	-11.2379
astro	-11.2379
▁şərəfləndirsin	-11.2379
▁Coz	-11.2379
▁Dərk	-11.2379
▁qoymuşdu	-11.2379
funksi	-11.2379
əmmət	-11.2379
▁buferləri	-11.2379
▁çalışqan	-11.2379
▁şərh	-11.2379
ideo	-11.2379
ssas	-11.2379
▁sürətləndirmə	-11.2379
▁tökülür	-11.2379
▁Avia	-11.2379
▁öyrədəcə	-11.2379
▁Tibetd	-11.238
▁makina	-11.238
▁Uzaqlaş	-11.238
▁yoxsullu	-11.238
▁varlığından	-11.238
terik	-11.238
▁Qurduğu	-11.238
▁düşərgəsinə	-11.238
▁resursları	-11.238
▁yaranmasını	-11.238
▁impl	-11.238
▁olunmur	-11.238
tual	-11.238
▁nişa	-11.238
▁bağışlayarsınız	-11.238
▁adlandırır	-11.238
▁meyilli	-11.238
▁toxunduğu	-11.238
▁İtir	-11.238
▁ömrünü	-11.238
▁fark	-11.238
▁geriləmə	-11.238
▁füs	-11.238
▁sens	-11.238
▁Ölçüsün	-11.238
ıydı	-11.238
▁lövhə	-11.238
▁təqdir	-11.238
▁evrim	-11.238
▁istəyərdim	-11.238
▁olmağımızdır	-11.238
▁seçici	-11.238
▁münasibətim	-11.238
▁dəstəsi	-11.238
çıxmışdı	-11.238
▁məskunlaşm	-11.238
adplanetli	-11.238
▁sığınacağı	-11.238
▁ötürmə	-11.238
▁Əşya	-11.238
lamaktı	-11.238
▁geçir	-11.238
değer	-11.238
iliği	-11.238
▁dəlilikdir	-11.238
▁mənzili	-11.238
▁Təh	-11.238
▁keyfiyyəti	-11.238
▁koloni	-11.238
▁komputer	-11.238
▁konstitusiya	-11.238
▁humanist	-11.238
▁türk	-11.238
▁böcəklər	-11.238
ceğim	-11.238
▁nəfs	-11.238
▁qarışığı	-11.238
adsız	-11.238
▁yörüngemiz	-11.238
xem	-11.238
▁deney	-11.238
▁Tayl	-11.238
▁pyes	-11.238
ülasyon	-11.238
▁danışıldığı	-11.238
▁enab	-11.238
Deyir	-11.2381
▁gəlməzdi	-11.2381
▁doğulduğu	-11.2381
tter	-11.2381
▁gösteriyor	-11.2381
▁ölçerse	-11.2381
▁leş	-11.2381
▁Komputeri	-11.2381
▁Matter	-11.2381
▁eğitti	-11.2381
▁Indi	-11.2381
▁Sufizm	-11.2381
▁tutulmuş	-11.2381
▁2.4	-11.2381
▁Univ	-11.2381
▁yaşımdaykən	-11.2381
▁Fikirləşir	-11.2381
▁həmkarlarımı	-11.2381
▁Yaratdığ	-11.2381
▁hip	-11.2381
▁gücləndi	-11.2381
▁mehriban	-11.2381
▁razılaşdı	-11.2381
əzakətl	-11.2381
ləyəcəklər	-11.2381
▁cildinə	-11.2381
▁məntiq	-11.2381
▁anlatama	-11.2381
▁yaratmalısınız	-11.2381
▁döyür	-11.2381
tılıyor	-11.2381
▁yaxşılaşma	-11.2381
heçkəs	-11.2381
▁1982-	-11.2381
▁düşürsünüz	-11.2381
▁kapitalist	-11.2381
▁açılma	-11.2381
ememe	-11.2381
pertlər	-11.2381
▁aclığ	-11.2381
▁heli	-11.2381
ruslar	-11.2381
▁əlaqədəyik	-11.2381
▁pilləkən	-11.2381
▁oyunçu	-11.2381
▁dəstəkləmi	-11.2381
sixopat	-11.2381
▁böyütmək	-11.2381
▁deməyin	-11.2381
atçısın	-11.2381
▁qələbə	-11.2381
▁zədələr	-11.2381
▁təəccüb	-11.2381
▁acımışdı	-11.2381
▁Sheph	-11.2381
▁Smo	-11.2381
▁irqçi	-11.2382
▁istəmisiniz	-11.2382
▁küçələrin	-11.2382
osfer	-11.2382
▁Conson	-11.2382
▁çağırış	-11.2382
▁mülkiyyət	-11.2382
▁sevinirəm	-11.2382
▁ağdərili	-11.2382
▁gəlmisiniz	-11.2382
▁taxta	-11.2382
▁duydu	-11.2382
▁pas	-11.2382
▁188	-11.2382
▁sürətləndirir	-11.2382
▁yavaşlat	-11.2382
▁örtülü	-11.2382
▁rənglən	-11.2382
▁çıxmasına	-11.2382
▁vəsait	-11.2382
▁Samanyolu	-11.2382
▁tənqid	-11.2382
▁təqaüd	-11.2382
rılmayıb	-11.2382
üksək	-11.2382
▁sürtü	-11.2382
▁Yoru	-11.2382
▁quyusu	-11.2382
▁oturacağı	-11.2382
▁qəddar	-11.2382
▁Anceles	-11.2382
▁hünülər	-11.2382
▁yanınızda	-11.2383
▁Fransız	-11.2383
▁görsənir	-11.2383
▁mülahizəsi	-11.2383
nkali	-11.2383
▁qaraj	-11.2383
▁Masa	-11.2383
▁götürmüşdü	-11.2383
▁Kimliyimi	-11.2383
▁çatacaqsınız	-11.2383
▁danışacağam	-11.2383
▁verildiyini	-11.2383
▁getməyimizi	-11.2383
serve	-11.2383
abet	-11.2383
▁görüntüsün	-11.2383
▁bənzətmə	-11.2383
▁şekillendiril	-11.2383
▁boşluğu	-11.2383
▁yoxlanı	-11.2383
▁çillər	-11.2383
▁anlaşılma	-11.2383
▁tədqiqatçıları	-11.2383
▁tarla	-11.2383
▁müx	-11.2383
▁Hern	-11.2383
▁gərgin	-11.2383
▁götürürük	-11.2383
▁köçür	-11.2384
▁çıxaracağam	-11.2384
▁mümkündü	-11.2384
▁And	-11.2384
▁toplayır	-11.2384
▁zər	-11.2384
kümele	-11.2384
▁ofis	-11.2384
▁görməmişəm	-11.2384
▁sağlamlığı	-11.2384
▁təxəyyülü	-11.2384
▁arzusunda	-11.2384
▁bəxti	-11.2384
▁arzumuz	-11.2384
▁doyu	-11.2384
▁Buddalar	-11.2384
▁Səhra	-11.2384
▁izlədi	-11.2384
▁çatdırım	-11.2384
▁mətbəx	-11.2384
▁qütbün	-11.2384
▁Qazı	-11.2384
kulumu	-11.2385
▁öldüyü	-11.2385
▁getmişdim	-11.2385
errorizm	-11.2385
▁deməyib	-11.2385
▁dəstəklədi	-11.2385
▁uzaqlığın	-11.2385
▁Çoxunuz	-11.2385
▁gəzərkən	-11.2385
▁izləyirsiniz	-11.2385
▁dırnağı	-11.2385
▁öğret	-11.2385
▁hissəciy	-11.2385
▁eqonuz	-11.2385
▁yaradacaq	-11.2385
▁ərim	-11.2385
▁yeməyimizi	-11.2385
▁olmağımızın	-11.2386
▁diametrində	-11.2386
▁cinsiyyət	-11.2386
ratoriya	-11.2386
▁tamamlama	-11.2386
▁yardımçı	-11.2386
▁gedərək	-11.2386
▁səfehlik	-11.2386
▁araştırma	-11.2386
▁yazdıqların	-11.2386
▁cızma	-11.2386
▁roke	-11.2386
▁qıra	-11.2386
▁ötürül	-11.2386
▁qarışır	-11.2386
▁Nuh	-11.2387
eceksiniz	-11.2387
▁yapıl	-11.2387
▁satılır	-11.2387
▁öldürməyə	-11.2387
▁başlamağın	-11.2387
▁anlamısınız	-11.2387
▁hazırlanmışdı	-11.2387
▁danışmayıb	-11.2387
iymiş	-11.2387
▁maraqlanırsınız	-11.2387
▁yerləşdirək	-11.2387
▁satmaq	-11.2387
rsaq	-11.2387
▁qucaqlamaq	-11.2387
▁Lanka	-11.2387
▁maili	-11.2387
▁uçurum	-11.2387
▁parıl	-11.2387
▁qatlayı	-11.2387
▁formalaşdırı	-11.2387
atçıları	-11.2387
▁Post	-11.2387
ləcəkdi	-11.2387
▁göstərsəydi	-11.2387
▁duman	-11.2387
▁çabala	-11.2387
▁mənbəyi	-11.2388
▁anlayır	-11.2388
▁sevilir	-11.2388
▁istehsalçı	-11.2388
quqları	-11.2388
▁təcrübələrimi	-11.2388
▁gölü	-11.2388
▁elçisi	-11.2388
dlarımızı	-11.2388
▁bitəndə	-11.2388
▁baxmağımız	-11.2388
▁yönlendirilm	-11.2388
▁qarşılaşdığımız	-11.2388
▁dəyişmir	-11.2388
▁termostat	-11.2388
▁Kumullar	-11.2388
vaşlayıp	-11.2388
▁tətil	-11.2388
▁siyasətçi	-11.2389
▁üstünlüyü	-11.2389
▁yüksəy	-11.2389
▁cibimdə	-11.2389
Black	-11.2389
▁2008	-11.2389
▁uzanan	-11.2389
▁emosiya	-11.2389
▁mesajlaşm	-11.2389
▁dövrüdür	-11.2389
▁yansım	-11.2389
▁toplayıram	-11.2389
▁Turn	-11.2389
▁tutmasını	-11.2389
qışlayırlar	-11.2389
▁yetər	-11.2389
▁Doğrudur	-11.2389
▁verilərək	-11.239
▁West	-11.239
▁təmir	-11.239
▁ağlayardı	-11.239
▁Saç	-11.239
▁durarkən	-11.239
Tort	-11.239
▁tapacağı	-11.239
▁dumanlı	-11.239
▁qalxır	-11.239
▁xalaları	-11.239
▁alabil	-11.239
yariya	-11.239
▁üfürmək	-11.239
▁qaldırdı	-11.239
▁danışıqların	-11.2391
▁itirdiyiniz	-11.2391
lly	-11.2391
▁bucağı	-11.2391
▁Aralarında	-11.2391
▁tutulur	-11.2391
▁çətinləşdirir	-11.2391
Xahi	-11.2391
▁48	-11.2391
▁törəyi	-11.2391
▁oditoryum	-11.2391
yordu	-11.2391
şağı	-11.2391
ndaşla	-11.2391
▁Sahi	-11.2391
▁Səmada	-11.2391
▁örtür	-11.2391
▁mələk	-11.2391
▁Həbs	-11.2391
eologiyanı	-11.2392
▁normaların	-11.2392
▁etkileşme	-11.2392
menti	-11.2392
▁cəsarətini	-11.2392
▁donu	-11.2392
▁cavablandır	-11.2392
▁itirməyi	-11.2392
▁dönərək	-11.2393
▁yelpik	-11.2393
▁göstereme	-11.2393
▁baxırdıq	-11.2393
▁dükan	-11.2393
▁qanunvericilik	-11.2393
▁canına	-11.2393
▁buraxacaq	-11.2393
▁dostluq	-11.2393
çülü	-11.2393
ecekti	-11.2393
▁qaçırma	-11.2393
▁otellər	-11.2393
▁güldü	-11.2393
▁dilimində	-11.2393
▁caz	-11.2393
▁uzaqlaşdırmaq	-11.2394
▁sayılır	-11.2394
▁yükləy	-11.2394
▁oynayırsan	-11.2394
▁təhlükəsi	-11.2394
▁tapırlar	-11.2394
▁predmetdir	-11.2394
▁oyad	-11.2394
▁çalıcı	-11.2394
▁qaldırmağ	-11.2394
▁birləşdirib	-11.2394
▁məsk	-11.2394
▁asanlaşdır	-11.2394
arçacıq	-11.2394
▁cəmiyyətimizdə	-11.2394
▁olmayın	-11.2394
▁Səth	-11.2394
▁barlarda	-11.2394
▁yığıl	-11.2395
eziyada	-11.2395
▁getməmiş	-11.2395
▁fut	-11.2395
▁keçərkən	-11.2395
▁Keplər	-11.2395
▁Dəyişikliyi	-11.2395
▁keçirmişdi	-11.2395
mezdi	-11.2395
▁Inanı	-11.2396
▁uçurttular	-11.2396
▁Düşündü	-11.2396
▁yönləndir	-11.2396
▁edəbiləcək	-11.2396
stəsəniz	-11.2397
▁Mak	-11.2397
ofe	-11.2397
▁pozul	-11.2397
▁Qısası	-11.2397
gulam	-11.2397
▁fokuslandı	-11.2397
▁araşdırdıq	-11.2397
inayətkarlar	-11.2397
▁Nənəsi	-11.2397
▁damarları	-11.2397
▁DC	-11.2397
▁seçməyi	-11.2397
▁Ciy	-11.2398
▁vurur	-11.2398
▁qurulaca	-11.2398
▁Sənətkar	-11.2398
▁kraliça	-11.2398
inja	-11.2398
▁itiririk	-11.2398
▁durum	-11.2398
▁yerləşdirib	-11.2398
▁soruşduğu	-11.2399
▁dayaz	-11.2399
uşaqlığım	-11.2399
▁vir	-11.2399
ahət	-11.2399
▁çıl	-11.2399
ogh	-11.2399
üds	-11.24
▁çeki	-11.24
▁öyrəş	-11.24
çəsi	-11.24
əzləri	-11.24
▁AC	-11.24
▁dəriniz	-11.24
illətlər	-11.2401
azası	-11.2401
▁axtaracaq	-11.2401
▁tozluq	-11.2401
çular	-11.2401
▁tapırıq	-11.2401
▁asdıq	-11.2401
▁yaşayırdıq	-11.2402
▁Şəkillər	-11.2402
▁cəmlə	-11.2402
▁mexanik	-11.2402
çıx	-11.2402
▁verərək	-11.2402
▁eşitmiş	-11.2402
▁blogçu	-11.2402
▁verilib	-11.2402
▁saxlanıl	-11.2403
▁qalxması	-11.2403
▁Elmi	-11.2403
▁inanıl	-11.2403
▁yoxluğu	-11.2403
▁atomlarının	-11.2403
▁Carl	-11.2403
▁sülhü	-11.2403
▁məşhurluq	-11.2403
▁görmədim	-11.2403
▁Qre	-11.2403
şarc	-11.2403
eyvənd	-11.2403
▁zillə	-11.2403
▁yaşayırdım	-11.2404
▁düşünürsən	-11.2404
uyub	-11.2404
▁sürmək	-11.2404
ford	-11.2404
▁saxlamaq	-11.2404
▁olunduğunu	-11.2405
▁oxşam	-11.2405
▁aralıd	-11.2405
▁Pul	-11.2405
▁pulumuz	-11.2405
▁ağard	-11.2405
ikay	-11.2405
▁adlandırdığı	-11.2405
▁qurmalı	-11.2405
▁başlayırsınız	-11.2405
▁tozunu	-11.2405
▁katib	-11.2406
dendr	-11.2406
ktu	-11.2406
▁gəzirdi	-11.2406
▁cəhdlərini	-11.2407
▁Planetarisini	-11.2407
▁istəyirsiz	-11.2408
yalın	-11.2408
▁ahəng	-11.2408
▁gördüyümü	-11.2408
▁yaşayaca	-11.2408
▁sevildiyi	-11.2408
▁bilməyəcəkdi	-11.2408
▁Nic	-11.2409
▁doğumun	-11.2409
rosdur	-11.2409
▁köşkü	-11.2409
▁quruldu	-11.2409
▁Jean	-11.2409
▁qoyacaq	-11.2409
▁dönmək	-11.241
▁küçəsi	-11.241
▁xal	-11.241
▁Sanki	-11.241
▁müştərisi	-11.241
İspaniya	-11.2411
▁aldığını	-11.2411
▁endiyi	-11.2411
▁bölüşdür	-11.2411
TA	-11.2412
təşəkk	-11.2412
▁alçal	-11.2412
▁basıb	-11.2412
ediya	-11.2412
▁zorlama	-11.2413
ierr	-11.2413
oncu	-11.2413
▁yaşamalı	-11.2413
▁tikir	-11.2414
▁böyüyür	-11.2414
▁yaradıb	-11.2414
▁Duy	-11.2414
▁qis	-11.2415
şərqində	-11.2415
▁CN	-11.2415
uper	-11.2415
▁ərə	-11.2415
▁fikirləşib	-11.2415
▁ayırmır	-11.2415
▁qarışıqlıq	-11.2416
▁qorxusuz	-11.2416
hop	-11.2416
▁yandır	-11.2417
▁zəh	-11.2417
▁böyümək	-11.2417
ərəkət	-11.2417
Düşmən	-11.2417
▁tanınmağa	-11.2417
▁Art	-11.2417
mişlerdi	-11.2417
Otur	-11.2417
▁çəkərək	-11.2418
▁əsgər	-11.2418
▁eləmisiniz	-11.2418
▁yaramır	-11.2419
▁bildirdi	-11.2419
etimiz	-11.2419
alanmalar	-11.2419
yiblər	-11.2419
▁beşini	-11.242
▁şəbəkələri	-11.242
▁seçməkdir	-11.242
▁qaçıb	-11.242
▁tənliy	-11.2421
▁özüdür	-11.2421
▁dərisin	-11.2421
▁törət	-11.2422
▁namizədlər	-11.2422
▁qabağındadır	-11.2422
▁Anla	-11.2422
▁düşürsən	-11.2423
▁hadisəsində	-11.2424
▁dəyişim	-11.2424
▁çıxmaz	-11.2424
▁iliş	-11.2424
▁Həyatınızı	-11.2424
▁şirkətlərinə	-11.2425
▁ex	-11.2425
▁uzatma	-11.2425
▁Manh	-11.2426
▁vacibliyin	-11.2426
▁bilərdiniz	-11.2426
▁özəllik	-11.2426
▁bacarıqlar	-11.2426
▁avia	-11.2426
▁Cent	-11.2427
▁Mus	-11.2427
try	-11.2427
▁düşünürsünüzsə	-11.2427
▁yaradıcılığ	-11.2427
rive	-11.2427
▁toxunul	-11.2428
▁söylədik	-11.2428
▁göndərdilər	-11.2428
apını	-11.2429
▁Sənsən	-11.243
▁Afrikalılar	-11.243
▁oğlumuz	-11.243
▁itirib	-11.2431
▁gözlərimi	-11.2431
▁gözləyirik	-11.2431
▁depres	-11.2431
▁məx	-11.2432
çılarla	-11.2432
▁Kent	-11.2433
▁baxacaq	-11.2433
▁tuturam	-11.2434
▁Ağıll	-11.2434
▁Qul	-11.2435
▁seçmək	-11.2435
▁aldığınız	-11.2435
▁alçald	-11.2436
▁hazırlamağımız	-11.2437
▁kəsilmiş	-11.2437
▁istəyirsənsə	-11.2437
▁baxıram	-11.2437
▁Kara	-11.2438
▁yazacaq	-11.2438
▁sonudur	-11.2438
▁neu	-11.2438
Adəm	-11.2438
▁Bina	-11.2438
▁Ovçul	-11.2439
▁eləsək	-11.2439
▁qalması	-11.244
▁qırıq	-11.2441
▁mühəndisliyi	-11.2442
▁sevirik	-11.2442
▁olmazsa	-11.2442
larımdan	-11.2443
iqqətiniz	-11.2443
▁zorakılığı	-11.2443
elen	-11.2445
wei	-11.2445
liğin	-11.2446
Musson	-11.2446
▁qalxın	-11.2447
▁bioloq	-11.2447
stat	-11.2447
▁edilsə	-11.2447
▁qaçmaq	-11.2447
▁xatırlamaq	-11.2448
▁elan	-11.2449
Yunan	-11.2449
çimizdə	-11.2449
▁sağol	-11.2449
▁doğrusu	-11.2449
▁şanslı	-11.245
▁dallan	-11.245
▁istəsə	-11.2451
aranlığ	-11.2451
▁yaşayıram	-11.2451
▁Şika	-11.2451
▁hay	-11.2452
ağız	-11.2452
yut	-11.2452
▁balıq	-11.2453
▁miqdarıdır	-11.2454
ech	-11.2454
▁başlatdığı	-11.2454
▁danışıb	-11.2455
▁molla	-11.2455
▁bərabərliyi	-11.2455
ineral	-11.2456
▁gor	-11.2457
▁dağıdıl	-11.2458
▁xeyirli	-11.2458
incan	-11.2459
▁görünmək	-11.2459
▁bükül	-11.2461
▁devi	-11.2462
▁maç	-11.2463
▁çalışıb	-11.2463
▁İsland	-11.2463
▁dalğ	-11.2466
▁We	-11.2466
▁proqramın	-11.2467
▁anlayaca	-11.2467
oxusun	-11.2468
▁faza	-11.2468
▁durduğu	-11.2469
tten	-11.247
▁Eg	-11.247
beklen	-11.247
▁görünsə	-11.247
Ceff	-11.2471
▁sənsən	-11.2471
finiz	-11.2472
ahren	-11.2475
▁qurmağı	-11.2475
ço	-11.2475
▁Mit	-11.2476
▁şifrələni	-11.2477
▁izləyəcək	-11.2478
▁Əsgərl	-11.2479
▁sağald	-11.248
▁deməyə	-11.248
Bip	-11.248
▁pozğunlu	-11.248
▁Ben	-11.2481
▁olmasaydı	-11.2481
maqneti	-11.2482
vət	-11.2483
▁eşitdi	-11.2486
mesin	-11.2487
yabileceğimiz	-11.2487
▁davası	-11.2487
▁rəqəmlərdən	-11.2488
▁firma	-11.2489
lament	-11.249
▁bacarığımız	-11.249
atur	-11.2491
▁açmaq	-11.2492
▁gözəlliyi	-11.2492
▁rafi	-11.2492
atma	-11.2493
Henr	-11.2494
rfo	-11.2494
▁yaradacağı	-11.2496
loni	-11.2497
▁ağlayar	-11.2498
ğe	-11.2499
ğim	-11.2499
▁üzvünü	-11.2499
▁kes	-11.2503
Qızıl	-11.2505
▁müxtəlifliyi	-11.2506
Kəndimizdə	-11.2507
▁uzaqlaşdır	-11.2508
oydu	-11.2509
İrq	-11.2509
lerimizde	-11.2509
erlərdə	-11.251
▁yaxşılaşdır	-11.251
eyse	-11.2511
▁güzgüsü	-11.2512
▁vuruş	-11.2514
▁dilinizdi	-11.2516
▁hazırlaşırdı	-11.2517
▁qəhrəman	-11.252
rial	-11.2523
▁kaybol	-11.2523
məyəcəyəm	-11.2524
Bilmirik	-11.2524
▁çoxala	-11.2528
▁Key	-11.253
▁qapısını	-11.2532
uld	-11.2533
▁təhl	-11.2533
▁Bacılarım	-11.2537
dinizsə	-11.2537
9.99	-11.2542
▁qoymur	-11.2542
trakt	-11.2544
cılar	-11.2545
▁olunduqda	-11.2546
ülək	-11.2547
▁telefonumuzu	-11.2547
▁şəbəkəmiz	-11.255
▁düşməsini	-11.2553
simp	-11.2553
▁Manc	-11.2553
lvarı	-11.2554
▁idarəçiliyi	-11.2557
▁qayğısın	-11.256
▁tanıyar	-11.256
▁Qanad	-11.2562
▁protestan	-11.2567
▁Şükr	-11.2567
▁log	-11.2568
▁girdiyin	-11.2569
▁büdcəsi	-11.257
▁rəq	-11.257
dururuq	-11.257
▁əh	-11.2572
▁məhsullarımız	-11.2572
▁əlil	-11.2573
▁işıqlandırma	-11.2573
▁buraxılan	-11.2575
▁çalışmır	-11.2581
▁iyun	-11.2582
▁görmürü	-11.2583
▁Evləri	-11.2584
▁baxmır	-11.2585
▁halqalarını	-11.259
tamay	-11.2591
anali	-11.2592
ces	-11.2593
ləşdirən	-11.2597
▁işığ	-11.2601
▁Amerikanları	-11.2602
▁Metropolit	-11.2602
leyebilir	-11.2602
▁yaratsın	-11.2603
Oğlum	-11.2603
▁xoşlam	-11.2604
▁təminatını	-11.2612
Başqaların	-11.2613
blas	-11.2614
▁oxuyurdu	-11.2616
▁azlığın	-11.2622
▁layiqli	-11.2624
▁düşərgələrin	-11.2628
minist	-11.2629
▁kağ	-11.2635
▁mövzusunu	-11.2638
▁saxlamağı	-11.2639
▁barmaqlarımı	-11.2651
ketin	-11.2655
▁kuy	-11.2658
▁qabiliyyətimiz	-11.2661
ilanq	-11.2664
ətbəx	-11.2665
▁velosipedim	-11.2667
▁axtardığı	-11.2669
▁kimliyimizi	-11.2672
acısını	-11.2672
▁uşaqlığını	-11.2675
▁oynadı	-11.2681
▁gəmiləri	-11.2686
Kenn	-11.2689
▁Ira	-11.269
▁yoluxm	-11.2694
etini	-11.2695
▁qazandığım	-11.2699
sürətləndiricisi	-11.2699
ladık	-11.2707
▁oynadıq	-11.2709
▁yayımlanma	-11.2712
▁uzaqlaşdı	-11.2714
ətiliklə	-11.2716
ilasediciləri	-11.2719
materialist	-11.2721
rukl	-11.2723
cont	-11.2724
▁parçacığını	-11.2726
▁inamım	-11.2729
▁çarpmayaca	-11.2731
▁qazandırmaq	-11.2732
▁uzaqlaşdığı	-11.2735
▁bükü	-11.2738
▁kinonu	-11.2741
▁uzaqlaşdığımız	-11.2745
▁Qit	-11.2745
etində	-11.2752
ləyicilər	-11.2753
▁oxumağım	-11.2759
latın	-11.2766
▁Lis	-11.2769
▁yavaşlama	-11.2769
▁bədənimiz	-11.2774
▁qrafikası	-11.278
▁karto	-11.278
▁döyülmü	-11.2782
▁buludunu	-11.2784
dekileri	-11.2791
idge	-11.2808
▁surət	-11.2809
▁qorxmay	-11.2837
İçin	-11.2841
▁gətirmişdi	-11.2846
▁düşünürsü	-11.2853
▁oxunu	-11.2854
▁düzləşdir	-11.2858
▁avtobusu	-11.2861
▁professoru	-11.2861
▁misiyasın	-11.2861
▁əsəbləş	-11.2862
▁valideynlərimiz	-11.2872
▁buraxdıq	-11.2876
▁ailəniz	-11.2876
trino	-11.2877
▁reallaşdığın	-11.2889
▁dərinliy	-11.2893
▁müzakirəmiz	-11.2898
▁birləşməsi	-11.2903
spekt	-11.2903
tutması	-11.2912
▁bağçasın	-11.2919
▁təkamülü	-11.292
ebileceğini	-11.2922
▁inandığımız	-11.2931
Gəlmə	-11.2932
▁birləşdiyi	-11.2939
▁gözləntiləri	-11.2944
▁lütf	-11.2945
▁cəhətlərimiz	-11.2946
▁prinsipini	-11.2949
▁tanınmışdı	-11.295
▁asırdı	-11.2956
▁qrafikini	-11.296
▁fikirləşməmişdi	-11.2967
azım	-11.2969
▁duyğu	-11.2973
▁üzəri	-11.2979
▁sayırdı	-11.2981
▁radionu	-11.2989
rakə	-11.2991
▁özəlləşdir	-11.2991
▁mərhələsin	-11.2992
▁getmədiyi	-11.2994
daxil	-11.2997
▁içirdi	-11.3007
etta	-11.3018
▁bacardı	-11.3026
▁yetişməy	-11.3029
▁yaddaşımızı	-11.303
azon	-11.304
▁dinləməy	-11.3041
▁kompüteriniz	-11.3041
▁hazırlaşma	-11.3052
ühafizəçi	-11.3076
laştır	-11.3084
▁qaçmış	-11.3092
▁daşıyıcıları	-11.3104
▁versə	-11.3105
▁bakteriyalar	-11.3106
▁çəkilişlərin	-11.3106
▁düzəltməy	-11.311
▁etmədiyimi	-11.3111
əvv	-11.3119
ilgilen	-11.3131
▁Ulduzlar	-11.3135
▁partnyorlar	-11.3135
▁tikili	-11.3144
iklerimiz	-11.3144
▁kənarını	-11.3154
LM	-11.3169
▁adlandırılmış	-11.3171
▁izlərini	-11.3173
▁serpi	-11.3187
tirilme	-11.3187
▁əhalisi	-11.3194
▁araşdırmağ	-11.3212
Qut	-11.3216
▁bişirməy	-11.3225
törəmələr	-11.3233
oturur	-11.3239
▁həv	-11.3264
▁oğlunu	-11.327
▁dəstəkləyi	-11.3276
▁ifşaçını	-11.3281
▁kompyuterləri	-11.3283
▁İnsanl	-11.3292
J	-13.2845
U	-13.2846
Ö	-13.2847
Ç	-13.2848
ö	-13.2849
