<pad>
<unk>
<s>
<\s>
▁,
▁.
▁the
▁
s
▁to
'
▁"
▁of
▁a
▁and
▁that
▁I
y
ed
▁in
▁s
▁it
▁you
▁is
ing
▁we
▁And
ly
▁this
▁was
▁t
▁be
n
▁on
▁—
▁for
▁have
▁are
▁?
▁can
▁with
▁So
▁The
▁what
▁my
▁an
▁as
▁at
▁about
▁there
m
▁all
▁not
(
▁)
▁see
-
▁one
r
▁It
▁like
▁fro
▁so
▁But
▁re
e
▁do
d
▁but
▁our
▁me
▁people
▁just
very
▁had
▁us
▁these
▁know
▁out
▁up
▁when
▁We
▁:
▁by
▁would
▁here
▁who
▁he
▁if
▁look
▁or
▁m
▁You
ies
▁because
en
▁them
▁time
▁some
▁were
▁Laughte
▁did
▁more
▁Thi
▁which
▁how
▁your
▁want
▁think
▁every
▁get
▁years
▁go
ause
▁world
▁ve
▁going
▁really
▁say
▁could
▁other
▁has
▁into
aid
▁things
▁take
▁will
▁way
▁don
▁actual
▁Now
▁right
hose
▁their
▁make
▁much
▁first
▁no
▁now
▁something
er
▁thing
es
▁back
▁What
▁come
▁start
▁call
▁Appl
▁than
▁where
▁ll
around
▁any
▁That
▁two
▁down
▁little
▁got
▁over
t
▁kind
▁In
▁change
▁life
▁galax
▁He
▁need
▁does
▁space
▁work
▁many
▁she
▁universe
▁even
▁There
▁his
▁great
▁lot
lso
▁most
▁day
▁show
▁d
▁matter
▁through
▁year
▁being
one
▁human
st
▁school
▁story
▁talk
▁picture
▁new
▁different
other
▁put
▁Well
▁good
▁Thank
▁al
▁him
▁If
▁tell
▁thought
▁A
▁light
▁should
▁doing
went
▁made
▁problem
;
▁long
▁idea
▁before
▁ever
▁same
▁ask
▁why
▁few
▁well
▁came
▁three
▁happen
▁part
▁ago
▁learn
▁use
▁together
▁million
▁might
▁place
self
▁Earth
▁love
day
▁her
▁kid
▁big
▁fact
▁image
h
w
▁OK
▁next
across
thing
▁try
▁point
▁000
▁dark
▁Africa
▁after
▁important
▁again
▁dimension
▁system
ves
▁billion
▁India
▁Bec
▁never
▁self
each
▁off
ness
ic
▁end
▁help
▁small
▁When
▁e
▁course
▁second
▁mean
▁bit
able
▁let
▁best
▁able
7
▁Wh
▁question
▁girl
▁turn
▁give
▁high
le
▁become
out
ther
▁My
▁teacher
▁better
▁own
▁How
▁four
l
▁stars
▁particle
▁English
▁found
▁reason
ion
▁done
ity
▁global
▁planet
▁number
▁play
▁She
▁whole
▁find
▁sort
▁old
▁men
▁too
▁example
▁away
in
▁form
▁large
▁last
▁fly
▁later
!
tween
▁imagine
▁One
▁No
▁means
▁percent
▁wom
▁science
▁energ
ok
▁words
▁stories
▁real
ything
▁hard
on
body
▁sense
▁still
▁believe
▁read
▁guy
olar
▁S
a
ld
ways
▁woman
est
▁create
▁liv
▁man
▁language
aybe
▁U
▁creat
▁10
quite
▁word
▁understand
▁room
▁village
▁seem
▁else
ever
▁simple
▁name
▁am
▁20
▁art
most
▁water
▁bring
▁un
▁month
nough
▁single
ory
▁live
▁job
▁moment
▁For
▁design
▁future
▁interesting
▁Her
▁All
▁may
▁golf
▁book
▁God
▁data
▁education
▁walk
▁discover
▁left
▁mak
▁technology
▁surface
came
▁country
▁As
o
▁probabl
▁structure
▁close
us
▁C
▁200
▁home
▁money
▁famil
▁five
▁answer
▁Let
▁under
▁force
▁artist
▁far
▁wonderful
▁experience
▁nature
▁feel
▁kne
ce
▁countr
▁government
▁decided
▁power
▁These
▁thousand
▁person
▁sometime
▁father
▁African
▁half
▁ocean
▁dragonfl
▁remember
▁getting
▁questions
▁student
▁saw
▁music
▁children
▁American
▁pattern
▁buil
▁young
▁Titan
▁phone
▁write
▁death
▁b
▁hundred
msel
▁makes
▁inside
▁opportunit
▁set
▁mother
▁America
▁interview
▁times
▁beautiful
▁happens
▁computer
▁hav
▁B
such
▁color
▁develop
▁centur
▁hit
▁possibl
▁study
um
where
▁50
▁less
▁car
al
▁scale
▁prett
▁product
▁plant
▁hand
▁complete
▁mind
▁must
▁poor
▁unti
▁T
▁moon
▁insect
▁act
▁piece
▁mov
▁amazing
▁result
▁speak
▁Do
▁effect
▁recent
▁news
▁box
▁absolute
▁move
▁top
▁100
▁gravit
▁Bible
▁while
▁middle
▁ra
▁full
▁size
▁w
▁challenge
▁week
▁flute
▁extra
▁yet
▁open
▁game
▁Or
▁thinking
once
▁morning
▁fun
▁works
th
▁fast
▁Every
▁share
▁hear
▁listen
▁exist
▁land
▁follow
▁orbit
▁Have
▁dollar
▁stop
▁movie
▁night
▁heard
▁oursel
▁minute
▁nothing
▁travel
▁coming
▁allow
▁six
▁sun
▁Einstein
▁monsoon
▁draw
▁pass
rought
▁sure
not
▁outside
▁Just
▁case
▁entire
ation
▁lives
▁prison
▁stay
▁figure
▁college
▁physic
▁Yes
▁run
felt
▁test
▁line
▁front
▁build
▁whe
▁business
▁12
giving
▁stuff
▁1
▁known
▁wrong
▁di
▁beginning
▁air
▁rain
▁deep
▁miles
▁order
▁realiz
▁string
▁digital
▁saying
▁information
▁Yea
▁2
rhaps
▁On
▁Some
▁state
▁histor
▁happening
▁along
▁grow
▁project
▁flower
ware
▁eye
▁process
▁sex
▁bad
▁map
▁Story
Corps
▁detail
▁mass
▁speed
▁cluster
▁physical
▁object
▁flight
▁head
▁particular
▁writing
rote
gan
▁essential
ers
alone
▁hour
▁face
▁leas
▁couple
▁won
▁O
▁material
▁age
▁drive
▁difference
▁journey
▁movement
▁Sun
▁invisibl
▁cart
▁tin
▁lost
▁exact
▁forward
▁house
▁boy
▁term
▁J
▁friends
▁People
▁leave
▁market
0
▁son
▁generation
▁region
▁compassion
▁Maldiv
▁begin
pent
▁device
▁paper
▁source
▁final
▁explain
▁group
▁gone
▁major
▁craz
▁New
▁modern
▁rich
itting
▁care
▁lead
▁rule
▁stand
▁expand
▁certain
▁pick
ten
▁body
▁thank
▁blue
▁Saturn
▁environment
▁aware
▁past
▁sound
▁period
▁sudden
▁working
less
▁gre
▁camera
▁weather
▁parents
▁true
▁An
early
▁friend
▁element
▁G
▁fight
▁Our
eady
▁often
▁40
▁After
▁short
▁Not
▁By
ment
▁impact
▁video
▁near
stead
▁key
▁Go
▁somebody
▁machine
▁difficult
▁books
▁engineer
ish
▁scientist
▁E
▁MS
▁o
kay
▁Oka
▁rest
▁gav
▁eight
▁basically
▁watch
credible
▁train
▁born
▁Al
▁step
▁film
▁alr
▁communit
▁public
8
5
▁To
▁sent
▁continent
▁de
▁rate
▁3
▁since
▁perfect
▁disease
▁record
▁though
▁cry
▁ground
▁player
▁NASA
▁Bang
▁produce
▁electron
▁chance
▁realit
▁experiment
▁easy
ch
▁asteroid
▁kilometer
▁notice
▁speci
▁pe
▁polle
▁purpose
▁letter
▁star
▁interest
taking
▁dad
▁keep
▁black
▁robot
▁stage
▁anyway
▁audience
▁15
▁Nigeria
▁econom
▁realize
▁500
▁huge
▁bigge
c
▁K
▁turns
▁soft
▁availab
is
▁teaching
▁obvious
▁husband
▁cook
▁toward
▁dur
k
▁cell
▁ways
▁powerful
▁creation
▁Apple
▁brain
▁moral
▁invent
▁worth
▁marriage
▁mathematic
bility
▁natural
▁argument
▁easi
▁interact
▁literal
▁wall
▁hands
▁send
▁Take
▁aren
▁famous
▁Right
▁rock
▁telling
▁teach
▁save
▁benefit
▁11
▁deal
i
▁focus
▁voice
▁M
▁social
ally
▁grandmother
▁yes
▁view
▁equal
▁atmosphere
▁Big
▁add
▁white
▁given
▁animal
▁eyes
▁Indian
▁Arab
▁temperature
▁degree
▁probe
▁bas
▁gravitational
▁screw
▁ray
▁raise
▁sign
▁airplane
▁ordinar
▁supposed
ful
▁wait
company
▁Don
▁gift
▁novel
▁spend
▁happ
▁Europe
▁support
▁proper
el
▁side
wise
▁institution
▁30
▁Oh
▁yea
▁oil
▁service
▁Can
ton
▁soon
▁f
▁above
▁fine
▁creative
▁reach
▁securit
▁risk
▁First
D
▁tools
ni
▁perspective
▁honor
▁societ
▁At
▁definition
▁extreme
▁strong
wife
▁building
▁relationship
▁amount
▁equation
▁quick
▁humanit
▁path
▁photograph
▁L
▁red
▁danc
▁cover
▁incredibly
L
▁caus
▁justice
▁Maybe
▁field
▁scientific
▁genes
▁specific
▁character
▁laws
▁atom
▁telescope
▁dimensional
▁damage
▁Higgs
▁tri
▁conversation
▁both
▁issue
▁enormous
▁learning
$
▁hold
▁Most
▁Art
▁strange
▁met
▁Of
▁sentence
▁writer
land
▁continue
▁class
▁slow
▁Who
▁corrupt
▁Nigerian
an
▁nobod
▁except
▁fair
▁media
▁list
▁late
▁health
▁meant
▁Music
▁Audience
▁city
▁cool
▁door
▁simpl
▁wisdom
▁Cassi
▁network
▁forth
▁wear
▁remind
▁tradition
ia
ond
▁With
▁SL
▁join
▁return
▁model
hind
▁choose
▁attention
▁Unit
▁instrument
▁faith
▁sky
▁cause
▁wind
▁fresh
▁warp
▁text
▁lose
▁feeling
▁hope
▁yourself
▁address
▁carry
▁touch
▁nice
9
▁die
▁dance
▁alien
▁connected
▁tough
▁pressure
▁wish
▁bar
▁Internet
▁special
▁heart
▁York
▁master
▁visit
▁program
▁pull
▁seven
▁remarkabl
▁performance
▁necessar
▁describe
▁impossibl
▁protect
▁constant
▁successful
▁free
▁marrie
▁waste
▁haven
▁define
▁type
▁calculate
▁value
▁boys
▁solution
[
]
▁basi
▁flow
▁W
▁radio
man
▁food
▁version
▁Mary
▁team
▁measure
▁Brit
▁concept
▁driv
▁fundamental
▁inspire
▁distance
▁activity
▁musical
▁breed
▁ego
▁complicated
▁curve
▁copyright
▁safe
ty
▁account
▁immediate
▁event
ry
▁putt
▁professional
▁TV
▁parent
▁Where
▁meet
▁connection
▁enjoy
▁drawing
▁Look
▁shows
▁Like
▁60
▁center
▁malaria
▁conflict
▁ran
refore
▁sub
▁average
▁economic
▁growth
▁25
▁affect
▁fee
▁sounds
▁press
▁original
▁store
▁total
▁familiar
▁notic
▁Android
▁P
upon
▁super
aught
▁stick
▁16
▁function
▁evolved
▁satellite
▁main
▁visibl
▁several
▁mission
▁child
▁law
▁war
▁respect
▁Martin
▁potential
▁communicate
▁industr
▁clearly
▁reading
▁minds
▁customer
▁States
▁19
ne
▁rough
▁south
▁level
▁ring
▁creature
▁solve
▁push
▁Russian
▁common
▁eventual
▁roommate
lly
▁ultra
▁Aristot
▁Charli
▁serious
▁southwest
▁block
▁expansion
▁commercial
▁predict
ectar
▁extraordinar
▁Mario
▁square
▁shape
▁score
é
▁rains
▁Bare
foot
▁eat
▁TED
ance
▁exploration
▁designer
▁track
▁understanding
▁Chris
▁fantastic
▁Be
▁lesson
▁Pe
▁mom
▁Did
▁wave
▁militar
▁mental
▁appear
▁smart
▁Mr
ig
▁London
u
▁manag
▁World
▁launch
▁count
▁per
▁present
▁straight
▁various
▁buy
standing
▁Rise
▁nuclea
urveillance
special
▁consider
▁tool
though
▁require
▁precise
▁fit
▁foundation
▁control
▁user
▁collect
▁police
▁factor
▁finish
▁circle
▁spoke
ist
▁Amy
▁hat
▁strength
▁recognize
▁cloud
son
▁personal
▁zoom
▁conscious
▁prevent
▁minister
ism
Z
▁sticker
online
▁En
cela
dus
▁liquid
▁fascinating
▁meaning
▁international
▁German
▁season
▁loop
▁religion
’
▁road
▁D
▁Actua
▁physicist
▁statistic
▁programm
▁variation
▁fluctuation
▁tidy
▁Kal
uza
▁electromagnetic
▁agree
▁childhood
▁guess
▁search
▁earlie
▁connect
▁cost
▁subject
▁indeed
older
▁non
▁bed
ous
▁litera
ture
b
▁mine
tuck
▁kill
▁Sometime
▁excited
▁Come
▁disappear
▁90
▁content
▁chang
▁charge
▁truth
▁clear
▁reform
▁21
▁sector
▁income
▁slight
▁pay
▁decade
▁measur
▁imagination
▁odd
▁involv
▁N
▁intelligence
▁national
▁access
▁recognition
▁web
▁jump
▁message
▁Google
▁click
▁tip
▁weak
▁propert
▁responsibility
▁brother
▁expect
cy
▁separate
▁Universit
▁classroom
▁sat
▁carri
▁13
▁eggs
▁decades
▁qualit
▁knowledge
▁spirit
▁traditional
▁foot
▁site
▁race
▁visual
▁prisoner
▁feature
▁low
ian
▁cosm
▁remain
▁crater
▁fiction
▁math
▁dive
▁dot
▁War
▁represent
▁fail
▁debate
▁immense
▁grammar
▁genetic
elve
▁further
▁warm
▁Mars
▁hot
▁bottom
▁birds
▁wide
▁prophet
▁evidence
X
▁cycle
▁unknown
▁northeast
▁mosquito
▁Are
▁wonder
▁ticket
▁motion
▁board
▁microphone
▁plann
▁compar
▁5
▁theme
▁sell
more
▁universit
ur
▁song
▁actor
▁rare
▁unfortunate
▁transform
▁magic
▁drugs
▁photo
▁AIDS
rey
▁occurr
▁resource
▁success
▁President
▁investment
▁development
▁exciting
▁Am
▁miss
▁explore
▁encrypt
▁hospital
▁mention
▁culture
▁sit
▁fear
▁collective
▁stopp
ine
▁window
▁card
▁pro
▁doctor
▁tremendous
▁concern
▁nine
▁roll
▁bend
▁graduate
▁background
▁edge
▁default
▁ceremon
held
▁cut
▁stroke
▁female
▁tape
▁Over
▁recording
▁Josh
▁argue
▁spectrum
it
▁tru
▁fruit
▁possibilit
▁civilization
▁Afghani
stan
▁significant
▁battle
ither
▁polic
▁correct
▁normal
▁prime
▁compassionate
▁400
▁pray
hi
▁summer
4
▁offer
▁Hubb
▁Space
▁fall
▁apart
lew
▁heat
how
water
▁career
▁ship
▁Titanic
▁technical
▁fan
▁principle
▁innovation
▁opinion
be
▁translat
▁net
▁skin
▁popular
▁John
6
▁publish
ug
▁green
▁progress
▁ritual
▁loss
▁random
▁Case
▁mimic
▁embedded
violet
▁Jesu
▁198
ber
▁filament
HC
▁orbital
▁sad
▁check
▁Has
▁break
▁dynamic
▁Your
▁print
▁practice
▁honest
as
▁lie
▁typical
▁contemporar
▁etc
▁artistic
time
▁usual
g
nfortunate
ary
▁trouble
▁increasing
▁action
▁enter
▁Does
▁bike
▁express
▁reveal
▁dead
▁praise
▁arm
▁assignment
▁devil
▁sleep
▁brief
head
by
▁dream
▁arriv
ese
▁belong
▁area
▁China
kept
▁compani
▁price
▁previous
▁banks
▁150
▁attract
▁financial
▁touris
▁East
▁documentar
▁fellow
▁opening
▁Iran
▁whistleblower
ter
▁curious
▁report
ling
▁Since
nstead
▁technique
▁Wall
▁musician
▁standard
▁basic
ft
▁Also
▁bother
▁lay
▁45
▁David
▁airline
▁app
▁pain
hood
▁Jay
▁destroy
▁Hey
▁daughter
▁complex
▁snow
▁admir
▁approach
ollege
▁apply
▁robotic
▁surprise
▁196
▁spark
▁shine
▁hotel
▁runn
▁Grand
▁grandfather
▁Many
▁courage
▁political
▁throw
▁Har
blew
▁alive
▁preserv
magine
▁cancer
▁San
▁scann
▁vertical
or
▁heritage
▁include
▁challeng
▁cultural
▁studie
▁mobile
▁Tom
▁unique
▁sensitive
600
▁distort
▁petition
▁pocket
▁depend
▁H
▁expedition
▁breath
▁equivalent
▁recogniz
▁cold
▁bright
tic
age
▁trip
▁meter
▁desert
▁jet
▁brilliant
▁reward
CG
▁border
▁advanc
▁analog
▁advantage
▁fund
▁rescue
▁vehicle
▁cyborg
▁sea
▁failure
▁R
▁ethic
▁birth
▁suppose
▁solv
ible
▁Great
nt
▁similar
ka
▁reject
▁electric
▁g
▁brains
▁underst
ood
▁blood
▁Ke
V
▁improve
▁includ
▁hole
▁favor
▁Warr
▁direct
▁giant
▁dense
▁simulation
▁none
idi
▁intelligent
▁flie
▁orchid
▁prediction
▁chemical
▁yellow
▁shall
▁writ
▁Ap
▁attribute
▁Sufi
2
▁Octo
▁190
▁Newton
▁mathematician
▁direction
▁roof
▁Mal
▁crossing
▁meeting
▁capabilit
▁electrifie
▁quark
▁hydrogen
▁lens
▁applie
▁weird
▁lower
▁lock
▁button
▁gesture
▁mouse
▁architect
ver
▁CA
▁Wow
▁plan
▁busy
▁mono
▁shock
▁worry
ra
▁respond
▁essence
▁sand
▁shot
▁Work
▁French
▁response
▁explanation
▁encourage
▁unfair
▁seat
▁desire
▁knowing
▁soul
▁role
▁secret
▁reporter
/
pover
▁arrest
▁office
▁behavior
▁emerg
▁Bank
▁instance
▁estimate
▁democratic
▁produc
et
3
▁post
ization
▁South
▁profit
▁manage
▁link
▁budget
▁revenue
table
▁invest
▁third
▁terribl
▁employ
▁Jun
▁clothes
▁mix
ak
▁forever
▁email
▁witness
▁environmental
▁suffering
▁page
▁plus
▁twi
▁calling
▁definite
▁sexual
▁See
▁football
▁Johnny
▁flat
▁Swede
▁distant
▁planetar
▁librar
▁fire
wood
▁beat
▁grade
▁shame
▁leg
ble
▁faint
▁luck
▁accept
ol
▁rise
▁microscope
▁hair
▁cheap
▁booth
▁Even
▁receiv
▁authentic
▁onto
na
▁pink
shea
▁releas
to
ta
▁Thanks
▁opposite
▁bond
▁ancient
▁mirror
▁survey
▁los
▁apparent
ily
▁suspect
▁demonstrate
▁individual
▁crowd
▁effort
hildren
▁spread
▁option
▁lack
gh
▁1980
▁gas
▁Telescope
▁range
uff
▁metha
▁bizarre
light
▁earth
▁paint
gen
▁European
▁massive
▁fluid
id
▁bodie
▁formation
▁complexit
▁additional
il
▁astronaut
▁curiosit
▁creativ
▁winter
▁adult
▁Ab
▁metal
▁convince
▁describ
▁band
▁profound
▁station
eb
▁lifetime
▁Sierra
▁keeps
▁consequence
▁Mexican
▁coverage
▁translate
▁Palestinian
▁provid
▁decide
▁oppos
▁blend
▁missing
▁coast
way
▁awkward
▁suggest
▁vast
ore
▁primar
▁general
▁oh
▁RO
▁cable
eath
▁wor
▁rid
▁♫
▁hitt
▁astronomer
▁research
▁nuclei
▁atomic
▁ant
▁proton
▁artificial
▁probabilit
▁quarter
▁doom
▁Jewish
rew
▁museum
▁Richard
ive
▁Koran
▁spiritual
▁Me
▁presence
▁j
▁divine
▁dinosaur
ophis
▁label
▁habituat
▁organ
▁invention
pler
▁mathematical
▁tend
▁graph
▁maxim
▁quarti
▁inventor
▁curl
▁vibrat
▁collision
▁observer
▁laugh
▁smil
▁broken
▁flood
▁keyboard
▁Dr
▁goal
▁finger
▁document
▁genius
▁feed
▁Bi
▁tired
▁perform
▁Hu
▁mere
▁dreams
▁continu
▁piano
▁exception
▁competition
▁talent
ru
▁mouth
▁title
▁void
▁argu
▁Dad
▁condition
▁cross
▁catch
▁enem
▁becom
▁ultimate
▁bold
▁identit
▁related
▁advice
▁celebrat
▁HIV
▁Polic
▁led
▁operate
▁organization
▁govern
▁partners
ership
▁leader
▁Minister
▁4
▁finance
▁crash
▁explor
▁code
▁increase
▁capital
la
▁saving
▁Other
▁Ver
▁educat
▁Prize
▁Long
▁expos
▁chapter
▁bomb
▁investigation
▁exercise
ice
▁9
▁Se
▁website
▁From
▁Street
▁cris
▁classical
▁gold
▁scroll
▁double
▁ingredient
ie
▁ride
▁lift
▁His
stair
Two
▁choice
▁Digital
▁infinite
▁capacity
▁limited
▁Museum
▁sphere
▁position
▁mapp
▁spacecraft
▁Moon
▁phase
▁sharing
▁haze
▁engag
▁crop
▁determined
▁roads
▁cafeteria
ated
▁Angelin
▁Five
▁twenty
▁gay
tonewall
▁privilege
▁wire
▁dozen
▁Centr
▁facilitator
▁bus
ua
▁Sara
▁hate
▁baby
▁anti
▁dignit
▁serve
▁poet
▁note
▁sil
▁television
spite
▁arc
ez
ck
▁afr
▁Th
▁floor
▁sides
▁Ten
▁bull
▁beam
▁resolution
▁blow
▁cutting
▁destructi
▁accelerat
▁memor
▁task
▁local
▁Uganda
▁screen
▁corners
▁relative
▁detect
▁park
▁vulnerabl
▁Facebook
▁Put
▁18
▁comet
▁compare
▁rings
▁organic
▁clouds
▁F
▁fracture
▁nation
▁forget
▁measurement
▁Was
▁lad
▁sight
▁dunes
▁scene
▁north
▁wreck
▁More
▁hotte
▁extend
▁spot
▁Angel
▁limit
▁landscape
▁unlike
▁Stan
▁mid
▁wound
▁corner
▁existence
▁endeavor
Tube
▁communication
lan
▁attend
1
▁fix
▁Nel
▁Mandel
▁climate
▁carbon
di
▁reflect
▁Le
▁speech
▁ball
▁meal
▁foreign
▁professor
▁Fide
rice
▁catastrophe
▁Lago
▁darkness
▁Ru
▁smok
▁bough
▁Up
▁expensive
▁Muh
▁extension
▁speaker
▁grab
▁notion
▁projection
▁interaction
▁evolve
▁hatch
▁anthropolog
▁clever
▁fuel
▁construct
▁vers
▁shower
▁transport
▁dig
▁invit
▁cave
▁thanks
▁politic
▁discussion
▁distribution
▁Supreme
▁Court
▁Absolute
▁ignore
▁religious
▁citizens
▁blowing
▁clean
▁Beatbox
▁quant
▁unifie
▁Final
▁article
▁dangerous
▁icon
▁expert
▁14
bro
ve
▁boxe
▁pollinate
▁tree
▁pollinator
rum
▁undern
▁favorite
lo
▁filter
▁adulter
▁stone
▁th
▁thou
Q
▁fabric
▁Muslim
▁medium
ah
▁divin
▁height
▁Dan
▁keyhole
▁rocket
▁wheel
▁broad
▁radiation
▁calcul
der
▁Asia
▁larva
▁seasonal
▁bird
▁breakthrough
▁private
witzer
▁vibration
▁detector
▁Pleas
ger
▁react
▁gate
▁idiot
▁phrase
▁regard
▁interface
▁pen
▁painting
▁operation
▁clip
▁Video
erson
▁split
▁effective
▁300
▁unexpected
efore
pirac
▁pop
▁instant
▁bear
▁Kid
▁ideal
▁Bar
the
▁Fl
z
▁wash
▁bet
▁primitive
▁Tour
▁paid
ir
▁earn
gentleman
▁tour
art
▁eighth
▁Anyway
▁Picasso
mp
ors
▁traged
▁California
im
▁negative
▁miserable
▁profile
▁proud
▁1990
▁Any
▁scared
▁disaster
▁September
▁transfer
▁courageous
▁escape
▁dress
▁according
▁prosecut
▁Ala
▁jail
▁willing
▁ongoing
broad
▁receive
▁globe
▁invite
▁Sahara
▁140
▁rose
ent
▁introduc
▁due
ility
▁construction
▁situation
▁bank
▁2000
▁election
▁plent
▁yoursel
▁Tanzania
▁session
▁hobby
▁cap
▁Dutch
▁starv
▁US
▁blueprint
▁demand
▁testify
▁spy
▁brave
▁knock
▁credit
▁among
▁promise
▁virtual
▁regular
op
▁tech
▁alert
▁hearts
▁minus
▁iPhone
▁please
▁slide
▁emotion
▁Kendal
▁folks
▁sister
▁auntie
▁angr
▁inner
ila
▁lo
▁violen
ied
▁horizon
▁chart
▁dome
▁captur
▁Manhattan
▁base
▁valley
▁below
▁Kenya
▁tall
▁mothers
rank
▁shoes
▁bunch
▁Thre
▁shirt
▁sick
▁male
▁Virgin
▁belief
▁elder
▁mutilat
▁neighbor
▁fourth
▁pilot
▁optimistic
orrow
▁vision
▁bacteria
▁tight
house
▁grabb
▁Congress
▁treat
▁Litt
▁snake
▁co
▁loud
▁Eric
▁Claud
▁hearing
▁citi
▁Danny
▁Per
asa
AP
▁Holly
▁forgive
▁Chicago
ley
▁peace
▁file
12
▁ruin
▁Francisc
▁horizontal
▁accurate
▁visualization
ro
▁fate
A
▁stands
▁models
▁graphic
▁comfortabl
▁Roy
▁Last
go
ard
▁dis
▁Service
▁Del
▁sample
pa
ana
▁decision
▁contrast
▁smartphone
▁lawyer
ting
▁bang
▁spiral
romeda
▁Galax
▁molecule
▁gentl
▁drift
▁rivers
▁pool
▁peak
▁channel
▁round
▁alter
▁emphasize
▁outer
▁accent
▁emotional
▁shoreline
▁altitude
▁Air
▁gentlem
▁dry
▁pole
▁exot
▁England
▁stumbl
▁organism
▁precious
▁1960
f
far
▁Los
▁hook
▁absorb
▁narrative
▁urge
▁passion
▁embrac
▁barel
▁broke
▁balance
vatar
▁appreciate
▁survive
▁Russia
▁cosmo
▁nail
▁delight
▁West
▁Vietnam
men
▁injur
▁Ol
onald
▁Rea
▁organize
▁Brita
▁24
▁blogg
▁climb
vi
▁vocabular
▁lifestyle
▁danger
▁Never
▁impression
▁identify
▁Chin
▁ponytail
▁Western
▁noun
▁Ga
▁engage
re
▁disagree
▁ending
▁masse
▁Pi
▁empower
▁Word
asically
▁squish
▁compound
▁Mo
ler
▁attempt
▁panic
ar
▁biological
▁chunk
▁marine
▁weapon
▁figur
▁heavy
▁rush
aker
▁Cha
▁geometr
▁leaving
▁fold
sis
▁external
▁pale
▁multitask
▁era
▁kit
S
▁lecture
▁deserve
▁Suppose
▁Peter
fer
▁Scal
▁determine
▁loving
▁conviction
▁series
▁Would
ai
▁butterfl
ge
▁street
oo
▁Darwin
▁evolution
▁spectacular
▁explosion
▁scan
▁symboliz
▁unprecedented
▁error
▁bits
▁unify
nna
▁transmit
▁useful
uck
▁hop
▁bees
bo
▁fabulous
ud
▁smell
▁mechanism
▁frequenc
▁hidden
▁Venus
▁recommend
▁choos
▁killing
▁cognitive
▁psycholog
▁biblical
▁sacred
▁Iraq
▁translation
▁Latin
▁Greek
▁Dark
▁Which
amma
▁refer
▁Rum
▁swing
q
▁slamm
▁mile
▁Friday
▁nucle
▁rocks
▁engine
▁custom
▁Dickens
▁hang
tz
▁neutrino
▁Paris
▁SH
▁Span
▁assign
▁Gill
right
▁whales
▁reverse
▁Ocean
imme
▁occur
▁colleague
▁soil
▁southern
▁aim
em
▁involve
▁dropout
▁senior
IPP
▁contract
▁laid
▁Ti
▁orange
▁method
ü
eith
ford
▁microscop
▁vibrate
▁Large
▁Hadr
▁Colli
▁oxygen
viation
▁fighter
▁cylinder
▁pant
▁Good
▁nagg
▁batter
▁awful
▁smile
▁realization
▁Rather
▁Interesting
▁implement
▁remov
▁desktop
▁modify
▁tense
tra
ram
▁lies
▁Mom
▁Real
▁responsibl
ubert
▁bug
▁Kafka
▁Met
ifi
ju
▁seas
▁ridiculous
ier
▁proof
night
ong
gun
▁eager
book
▁excuse
▁Late
▁punish
▁stoo
▁Unti
led
▁filling
▁handle
▁Sound
cha
▁gap
▁statement
▁remote
▁pencil
▁Italian
▁alcohol
▁cab
▁King
▁Lear
▁Mart
ha
ham
▁dancer
▁slides
▁Whil
▁partnership
▁governor
▁states
tan
▁president
▁leaders
▁elite
▁independent
▁trend
▁28
▁export
▁stole
▁liberal
ize
▁prior
▁Washing
elecommunication
▁luxur
jo
▁telecom
▁reputation
▁earning
▁reserve
▁shore
▁inflation
▁illustrate
▁agricultur
▁mineral
estate
over
▁neighborhood
orry
▁award
ike
▁Mi
▁Wal
▁Rwanda
▁Think
▁household
▁adequate
▁careful
▁Jam
▁journalist
▁gather
▁claim
▁vital
▁Jeff
▁Obama
▁Foundation
▁upload
▁veteran
▁Hi
▁da
▁severe
▁noise
▁boundar
▁prestig
▁concert
▁hall
▁facilit
▁patient
▁kick
▁nest
▁browser
▁menu
▁Type
cut
▁tap
▁Mac
capitalize
▁freak
▁instruction
▁carrier
▁adopt
▁dictionar
▁unit
▁Again
▁neat
▁highlight
▁drag
▁trick
▁City
▁Bronx
▁dominat
▁twist
▁redefin
am
▁clock
▁Tell
▁frustration
▁Sit
▁Man
▁li
▁holding
▁Anthon
▁dear
▁ill
▁names
▁bust
▁remorse
▁c
▁envelope
▁Universe
▁metaphor
▁Histor
▁Planet
ari
view
▁Matter
▁cosmolog
▁containment
MA
P
▁microwave
▁Com
▁Voyage
▁fires
▁context
▁Maasai
▁cows
▁goat
▁Teacher
ite
▁excite
▁knife
▁rust
▁nurse
▁sneaker
burg
▁vacuum
▁trade
▁orphan
▁stabilit
▁dawn
▁revolution
▁passionate
▁fell
▁knit
▁crush
ought
▁p
ique
▁archiv
▁Michael
▁fierce
▁199
▁photographer
▁narrow
▁shout
▁copy
▁Asperg
lic
▁angel
▁honey
▁expectation
▁pure
▁ho
▁guide
▁80
▁Audi
▁table
▁DP
DI
▁Alex
old
▁Les
▁meaningful
▁Rememb
▁walks
▁archive
▁birthday
▁homes
▁activist
▁importan
▁metropoli
▁camp
▁wing
▁babi
▁shift
▁magnificent
▁date
▁display
▁extract
ik
▁render
▁texture
▁millimeter
▁preserve
▁earthquake
▁wars
▁technologi
▁accelerate
▁Challenge
▁rapid
▁partner
bi
▁School
▁fortunate
▁philosoph
at
▁injustice
▁officer
▁criminal
▁volunteer
▁hell
hole
▁Second
▁meditat
▁distortion
▁current
om
▁ambition
▁dominate
▁afford
▁politician
▁organizer
▁Should
▁remove
▁voyage
▁myster
▁insight
▁Ne
bul
▁interconnected
▁divers
▁thick
▁coat
ahren
▁mountain
▁br
▁linear
▁fault
▁demonstration
▁bump
▁geological
▁drain
what
▁puzzling
ial
▁lake
▁polar
▁diversit
▁threat
▁finding
▁tropic
▁plume
▁conclusion
▁implication
▁Apollo
▁shut
▁manifest
▁Jacque
▁resonate
▁spaceship
▁textbook
▁outlet
M
▁submersible
▁filmmak
▁Termina
tor
▁div
▁animation
▁Wins
ma
▁printer
▁Rome
truck
▁component
▁vent
▁fiber
ja
▁tele
▁glimpse
grade
▁influence
ut
▁lett
▁aspect
endous
▁comment
ure
▁Give
▁limitation
▁Sudan
▁Palm
▁Swed
▁Prime
▁communist
▁instantaneous
▁protest
▁campaign
▁win
▁defeat
imbabwe
▁Robert
▁communicat
▁vote
▁gender
care
dor
▁overwhelm
▁motivat
bla
▁unwa
▁campus
▁apple
▁ginger
▁beer
▁La
▁chocolate
▁conventional
▁norm
▁dinner
▁pity
▁basket
▁Year
▁embrace
▁referr
▁grown
▁quote
▁breast
▁drove
▁immigration
li
▁killer
▁horribl
▁refugee
▁plane
▁stereotype
▁Congo
▁messenger
▁sequel
▁consum
▁ambitio
▁confront
▁workshop
▁Stor
uthern
▁North
▁regain
▁quiet
▁mistake
▁Jean
▁195
▁traffic
▁obey
▁stupid
▁steal
▁borrow
▁k
▁verb
▁editor
▁National
▁root
▁Ph
▁Kenyan
▁ignoran
▁Cam
▁creator
while
venge
▁wondered
▁substance
▁surviv
▁iPod
▁disconnect
▁mis
ci
▁Map
and
▁vi
C
▁wow
ether
▁architecture
▁worri
▁reflection
▁compete
▁input
▁efficient
▁garage
▁suggestion
▁photos
▁counterpart
▁valuable
▁philosopher
del
▁excellence
▁dispute
GA
▁grant
▁objection
▁Walk
▁whom
▁achievement
▁amuse
▁arbitrar
▁sports
▁status
▁mutual
▁tendenc
up
▁Mumb
hip
▁appropriate
▁lover
▁TEDx
▁Bris
bane
▁twinkl
ach
▁recycl
▁cosmologist
▁Through
▁iron
▁irregular
▁micro
▁swarm
▁population
▁depict
ac
no
▁benign
▁trigger
▁clue
▁relativ
▁inspiration
▁biologist
▁Dece
mber
▁footprint
wide
▁Change
etallic
▁overall
▁ma
▁chef
▁discourag
▁platform
▁signature
29
▁bidd
▁flip
▁carrie
▁horse
idge
▁fat
▁burn
▁weight
▁shepherd
00
halt
▁agnostic
▁Sab
bath
▁homosexual
▁irrational
▁tolerance
▁destructive
▁barrier
▁discuss
▁November
▁Adam
▁Gulf
▁Kuwait
▁curriculum
▁prophec
▁Islamic
▁Age
▁explod
▁circula
▁limb
▁smoke
▁Sir
▁Burt
▁servant
▁Turk
ate
▁seek
▁65
▁Jer
▁yards
ke
▁mega
▁Siberia
ungu
▁auditorium
▁Apri
▁unbelievabl
▁Deep
▁shoot
▁provide
▁bone
▁counter
▁habit
▁passenger
▁beginner
▁combine
▁1900
▁consistent
▁Geoff
▁fet
▁constituent
▁frame
pr
▁genome
▁peculiar
▁grid
▁replac
▁1600
▁naked
▁mess
▁analyz
▁conference
▁observation
▁sequence
▁mysterious
▁transparent
▁rotat
▁photon
▁volume
▁stretch
▁upside
▁hunt
▁magnetic
▁shapes
▁loom
▁bureau
▁craft
sha
▁unknow
▁department
▁fac
▁coral
▁reef
▁Sri
▁Lanka
▁keen
▁centimeter
fall
rising
▁migration
▁falcon
▁Falcon
▁Roll
▁winds
▁eater
▁drop
▁sustainabl
▁Israeli
▁areas
▁Monte
▁skill
▁practical
▁skills
▁mainstream
▁relevant
▁certificate
▁cabinet
▁puppet
▁Tele
▁Swi
▁Paul
▁Klee
▁patent
ö
▁Ku
▁pie
▁DARPA
traction
▁Klein
▁neutron
▁theoretical
▁eject
▁debri
▁surprising
▁observ
▁stamp
▁DNA
▁candidate
lium
▁Sputnik
▁stress
▁accelerator
tical
▁snapshot
▁deflect
▁cone
▁Gaga
▁billionaire
▁playful
▁harp
hor
▁punch
▁boo
ca
▁disappointed
▁pair
▁loose
▁thigh
▁password
▁Mmm
▁vacation
▁marvel
▁subsequent
▁woke
▁desk
▁roller
▁spring
▁Smith
▁intuitive
▁seamless
▁mount
▁dial
▁updat
▁pinch
▁afternoon
▁Russ
ell
▁Explorer
▁PM
▁Paper
▁Open
▁resist
▁associat
▁crayon
▁Dam
sual
▁storytell
▁celebrate
▁infant
▁Sam
aking
▁anxious
amorph
▁Writ
▁justify
▁storyteller
▁Island
▁beach
▁dogs
▁useless
▁pleasure
▁happie
▁Learn
kit
vous
▁tire
▁Play
▁fatigue
▁joyful
▁homework
▁Beside
▁contest
▁diligent
ndeed
▁sketch
▁crow
▁Young
▁ha
▁palace
hoe
▁utter
dom
▁hung
▁lame
▁interpretation
bar
▁Bull
▁Head
▁Du
▁oppress
▁Hot
riff
▁Lego
▁plastic
▁jealous
▁drama
▁blank
▁sheet
▁spouse
▁happi
▁driver
▁banker
▁arts
▁Korea
po
▁194
▁airport
▁puzzle
▁destin
p
ami
▁Metropoli
▁Economic
▁Financial
▁Commission
▁Nu
▁outrage
▁overwhelming
▁downward
▁improv
▁recover
▁charit
▁bored
▁inefficient
co
▁privatiz
▁enterprise
▁Financ
▁landline
▁360
▁capita
▁wrap
▁salar
▁exchange
▁hous
▁mall
▁89
▁consolidat
surance
life
▁party
▁whil
▁Ade
x
▁Beatrice
uba
▁boat
▁winning
▁Times
▁Edward
▁Snow
▁CIA
▁handed
▁afterward
▁prosecutor
▁alleged
▁refus
▁trial
▁droppe
together
▁hide
▁failing
▁trail
▁consent
▁Department
▁combin
▁resistan
cur
▁Post
▁contact
▁freedom
vy
▁worker
▁warning
▁crime
▁suffer
▁burden
▁comfort
▁meaningless
▁rediscover
▁hardship
ib
▁heal
ious
gie
▁Hall
▁Center
▁introduce
▁disc
▁tun
▁license
▁Hold
▁switch
▁bitter
▁tone
stroke
▁database
▁select
▁lag
▁shutter
▁exposure
▁pre
▁anger
▁Ta
▁whip
▁boom
▁knee
▁defining
▁Henr
▁tragic
▁teenager
▁burial
▁prepar
▁burst
▁mad
▁hanging
▁dude
▁worse
▁Wom
▁inappropriate
▁rap
▁offering
▁Folk
▁zip
ification
▁epidemic
▁envision
▁behav
▁promote
liberation
▁Himalaya
▁maintain
▁Hayd
▁production
▁host
▁Uni
I
▁interactive
▁continuous
▁Pioneer
▁trajector
▁encounter
ium
▁Cambodia
▁controll
▁Saturday
▁Nepal
▁Tibet
▁prepare
▁milk
▁sibling
▁deni
▁farm
▁abus
▁passage
▁transition
after
ph
▁scholarship
▁blam
▁commitment
▁transformation
▁division
▁Eve
▁achiev
▁fearless
▁confident
▁Move
▁grand
▁lapse
▁marker
▁visualize
▁thinne
▁virus
▁22
▁riot
▁queen
▁recorder
▁dedicat
▁flop
▁chicken
▁Harv
▁silence
▁broadcast
▁entertain
▁Librar
▁excerpt
▁syndrome
▁cockroach
▁constrict
▁pitch
▁Ben
▁Carlo
▁quantit
▁Part
▁Isa
▁hero
▁collection
▁voices
▁hir
▁selection
▁tens
▁Anni
▁guilt
▁shelter
▁hug
▁Get
▁romance
▁unimaginabl
▁resilienc
▁Israel
▁Johnson
▁murder
▁gang
▁manner
▁motivation
MJ
▁admire
hur
▁granddaughter
▁AM
▁apologize
▁streets
▁mortal
▁weekend
▁trust
▁grasp
▁member
▁buff
▁laser
▁angle
▁coordinate
▁Ka
▁accura
▁Buddha
▁devastat
za
▁Rush
▁disseminat
▁viewer
▁section
▁Stir
▁Ca
▁toll
▁portion
▁terroris
▁accomplish
▁sustain
▁reconstruction
▁wizard
▁ceiling
▁Doug
▁participate
▁Scot
▁Gla
▁doll
▁Life
▁inclin
▁Out
▁cyclone
ennis
▁posting
▁V
▁suit
▁Friends
▁Government
▁eleven
▁forgot
▁Time
▁Vi
B
▁com
▁mindful
▁feedback
drew
▁bill
▁Bureau
▁i
▁secure
▁seize
▁target
▁priva
▁cyber
▁civil
▁Modern
▁Live
▁threaten
▁divide
▁Aid
▁cam
▁mal
▁99
▁ex
W
▁origin
▁depth
▁inter
▁establish
▁Milk
▁Way
pool
▁concentrate
▁explorator
▁conduct
▁accompani
▁thin
▁ethan
ludge
▁tar
eit
▁basin
▁hills
▁Try
▁High
▁Lake
▁Ju
▁adventure
▁extensive
lit
drop
▁tectonic
▁descend
▁tick
▁presentation
ri
▁converge
▁ice
▁pebble
▁sink
▁mud
▁fill
▁equator
▁tenth
▁elevat
▁Antarctic
▁excess
▁gra
▁8
▁eclipse
▁gain
▁pond
▁Cous
teau
▁description
▁heads
▁endless
▁doodl
cuba
▁diver
aunt
▁certifi
CA
▁awe
▁chose
▁merg
▁generat
▁sufficient
▁magical
▁optical
▁studio
▁Secret
▁hostile
▁explorer
▁bot
▁optic
▁Cent
▁fame
▁Tre
▁synthesize
▁leap
▁calm
ster
▁White
hall
▁nap
▁conscience
▁tank
▁symbol
▁vulture
▁hover
▁unlock
of
▁Social
▁Democrat
▁reply
▁abolish
▁Save
▁Austria
▁leaflet
▁rally
▁Albert
▁poll
▁Burm
ung
▁policy
▁slaver
heid
▁appearance
▁agreement
▁persuad
▁persuade
▁120
▁prepared
▁tackle
▁Ancient
ero
▁Gree
▁De
▁march
▁wrapp
▁recalibrate
▁spiritualit
▁healthie
▁arrive
▁truck
▁happiness
▁55
▁logo
▁ge
▁tumor
oma
▁eastern
▁eyed
▁foreigner
▁kin
▁domestic
ff
▁Car
▁assum
izing
▁incomprehensi
▁beast
▁Mexic
ala
▁laughing
bject
▁Igbo
▁Power
rid
▁dispossess
▁Start
▁Nativ
▁abuse
▁serial
▁irritat
▁devalu
▁breakfast
mar
gar
▁insist
▁rape
▁rob
▁publisher
nda
▁prefer
▁procedure
gi
▁Fe
▁Bob
▁court
▁renew
▁Far
ina
▁Trust
▁repair
▁paradi
▁mechanical
▁lexicograph
▁native
▁McKe
quat
mel
▁ninja
▁Japan
cast
▁duck
face
▁adjective
▁edit
▁Edi
au
▁OMG
ump
▁initial
▁confusion
▁stronger
▁brown
▁plug
▁confirm
▁stair
▁expression
▁dysfunctional
kin
hand
▁stem
▁cure
bridge
▁thriv
▁struggle
▁suspend
▁ghost
▁State
secure
▁enlighten
▁funny
▁Febr
uary
▁unthink
▁addiction
▁windows
▁crack
▁perpetuat
▁victim
▁relief
▁mapping
▁adapt
▁fish
▁anthropologist
▁modification
▁heavi
▁wake
▁adolescent
▁adolescence
▁worm
▁Love
▁ambien
▁psychological
ology
▁legitimate
▁dealing
▁prosthetic
king
aday
side
▁Cameron
O
▁shipp
▁Christmas
▁encouraging
▁distribut
▁venture
▁roam
▁defend
▁moralit
▁inform
▁vot
▁disabilit
▁painful
▁Gol
ssociation
▁Stay
▁Charle
▁Jack
enuous
▁Seven
▁incidental
▁dissent
▁premise
▁underly
▁virtue
▁outcome
▁stake
▁abilit
▁athletic
▁confer
▁procreati
long
▁recipe
tolerance
▁shy
▁civic
huse
▁cassette
▁Honest
eez
▁coffee
▁repli
▁42
▁bud
▁tackl
▁downtown
▁setting
▁Billi
box
stoke
▁niche
▁Australia
▁central
plan
▁destination
▁flavor
ison
▁House
▁jazz
▁knot
▁999
ue
▁ecosystem
▁patch
▁giga
ears
▁feeds
▁trace
▁Star
▁synthesi
▁shake
▁hazard
▁bubble
▁variet
▁layer
▁Centur
▁marvelous
▁prospect
▁reduc
▁mindset
▁arise
v
▁naive
▁compass
▁Roth
tt
▁96
▁entrepreneurs
▁obligation
▁employee
▁shin
▁experienc
▁fraction
▁fragil
▁beaut
▁abrupt
▁landmass
▁wa
▁Success
▁extinct
▁signal
▁output
▁occupy
ap
▁seeming
▁hypothetical
▁Will
▁crucial
▁needles
▁cheese
▁Easy
ake
▁org
▁Twitter
▁Reddit
▁Tumbl
▁disrespect
oc
▁Liquid
▁Hat
▁reproduction
▁adaptation
▁hummingbird
▁hawk
▁moth
▁tube
▁deceiv
▁mimick
▁transmitt
▁perceive
▁beetle
ylan
ga
▁bristle
▁pin
rset
pad
ix
▁astonishing
▁43
▁44
▁sunscreen
▁evening
qui
▁magazine
▁fundamentalism
▁logical
▁stack
▁Christian
▁Lord
▁shave
▁beard
▁types
▁avoid
▁commit
▁covet
▁cloth
▁wise
▁apartment
▁creationist
▁wage
▁sprinkle
▁reveren
▁evangelical
▁Christians
▁Jew
▁bless
▁Red
▁inspiring
▁worldview
▁harmful
▁dismiss
▁candle
▁cake
gra
▁Serious
▁sheep
▁tail
▁reaction
compromising
▁transcend
▁gorilla
▁crucifi
▁comparison
▁Abu
▁suspicion
▁Prince
▁infect
▁Guardian
▁famine
▁core
▁disturbing
▁zone
▁Francesc
▁pregnanc
▁schedule
▁neuron
▁activat
▁positive
F
▁grandparent
▁dies
▁Could
▁Council
▁universal
▁journal
▁Persian
▁Roman
E
▁Education
▁Award
osene
▁lamp
▁exam
ating
▁objective
▁eso
teric
uf
▁egotis
▁training
▁Creat
▁merc
▁resurrect
▁charter
▁subconscious
▁temporar
if
cus
▁Hindu
gur
▁grape
▁concentration
har
▁numb
▁lump
▁Boulder
ek
▁Yu
cat
zu
▁east
▁dust
▁wip
▁crumbl
▁gigant
rizon
▁Cra
▁devastation
▁forest
▁crap
▁devoted
▁ham
▁Little
▁Sch
▁Dur
▁thrust
pock
▁sophisticate
▁Blue
▁ripe
▁flick
▁upset
▁cl
ack
▁windshield
▁Steve
▁hopeful
▁exhilarati
▁gadget
▁thermostat
▁install
▁invisib
structure
▁Electro
▁fuzz
▁Horse
▁Face
▁Gravit
▁lever
path
▁contain
▁psychoanaly
▁internal
uite
rich
▁188
▁Lu
fus
▁algebra
▁pyramid
▁summit
daily
▁reshap
▁Field
▁advance
▁uniform
▁Plan
▁Survey
▁location
▁plot
▁fade
ew
shift
▁representation
▁labor
luster
▁26
▁framework
▁astronomical
▁processor
▁densit
▁Back
ground
▁upper
▁Ge
▁stare
▁campfire
▁freckle
▁UV
▁IPC
ney
▁mini
obi
▁dedicate
▁prize
▁Spa
een
▁Kai
▁bead
▁inherent
▁sculpture
▁clipboard
▁variable
▁tension
▁weave
▁Tri
▁carriage
▁cigar
ill
▁Talk
▁tie
▁guid
▁priorit
▁tunnel
ference
▁length
▁Nothing
▁chao
spread
▁genuine
▁investigate
▁chore
▁island
▁Kera
▁replace
▁Keep
▁fashion
▁dull
▁attitude
▁Hang
▁Wait
▁phenomeno
▁rigorous
▁trans
▁Incredible
woosh
▁drought
▁overhead
tion
▁automatic
▁circuit
▁inch
▁Manch
uri
▁sensibl
▁northern
▁Eurasia
▁northwest
▁Fortun
ately
▁Bee
▁cheek
▁Teach
▁joy
▁colon
▁lit
▁annual
brew
erusal
▁communicator
▁vaccine
▁pneumo
nia
DT
quin
▁bald
▁ineffective
▁drug
efront
▁Master
▁improvement
▁review
▁DVD
▁combination
▁confiden
▁Mahat
▁Gandhi
▁learner
per
onia
agger
▁leak
▁priest
▁guarantee
▁fabricate
▁illiterate
▁dentist
▁convenience
▁dazzl
▁electrify
▁Lad
▁collapse
AC
▁DC
▁Half
▁Gambi
▁nervous
anguish
▁attendant
▁backward
▁Coh
▁empty
▁scatter
iro
▁Lau
bre
▁wir
ä
te
lle
▁shop
▁statistical
▁Ren
▁Mag
itte
illi
▁George
gel
▁accident
▁pirate
▁historic
▁98
▁indicat
▁derive
▁bucks
▁191
▁propos
▁electromagnet
▁Amazing
▁compell
▁nor
▁fiddle
▁intertwin
irstream
▁calculation
explain
▁slam
▁collide
▁AT
LA
▁EU
▁magnet
▁Relat
▁exquisite
▁Margar
cher
▁surround
▁impede
▁symmetr
▁measurabl
nic
tine
▁clogg
▁arter
▁prostate
▁impoten
▁ellip
▁deduce
▁bent
▁napkin
▁streak
▁centered
▁Stephen
▁Hawk
▁persuasi
▁announc
▁Lockheed
sance
▁Von
▁Braun
▁impressive
▁operational
▁Shephe
▁2020
▁Concord
▁capitalist
▁milestone
▁committ
▁taxpayer
▁automat
▁Va
uc
▁embarrassing
aggression
▁Period
▁shit
▁sock
▁fraud
▁undo
isplace
▁badge
▁imagin
▁Vanco
uver
▁tempt
▁temptation
▁asshole
▁futil
▁bliss
▁rememb
utum
ongratulation
▁pulley
▁sens
▁que
▁projector
▁palm
▁newspaper
ped
▁Wild
▁Tribe
▁54
▁Pran
av
▁MIT
▁tables
▁thorough
▁inflict
ama
▁Parent
▁celebration
▁Stop
sense
huh
▁Um
▁supermarket
ile
▁Ro
▁eros
▁violat
scope
Gregor
▁monstro
▁vermi
▁Fran
osi
▁unjust
▁masterpiece
▁Had
▁nuts
▁mountains
▁boss
▁Michel
▁mischie
▁client
▁Wolf
made
▁Moz
ime
▁ballet
▁grader
▁perch
▁branch
cal
▁dragg
▁mortifi
▁None
▁galler
▁Basel
paper
ontemporar
▁amateur
▁convincing
▁Next
inal
▁Fountain
▁chok
banish
kara
▁guitar
▁Aw
▁club
▁troll
▁castle
▁impulse
▁suppress
▁env
▁dictator
▁criticize
▁evil
▁log
▁Dra
matic
▁Student
Write
▁creep
▁handwrit
▁deadline
▁trance
▁Devil
▁pragmatic
▁Sorry
▁multiple
▁backseat
▁painter
▁Gra
▁legend
▁Gi
▁Airport
spiring
▁Korean
▁Alr
llusion
▁allud
▁Die
rmant
▁cooperati
▁Crime
hu
▁Ri
bad
▁slip
▁constitution
▁immunit
▁legislature
▁imp
▁tolerate
▁chalk
▁dictatorship
▁monitoring
▁upward
▁initiative
▁asset
▁grateful
▁chaotic
▁comprehensive
▁International
▁Monet
▁Fund
▁vice
▁Hav
▁telephone
▁bribe
ba
▁32
SM
▁MT
N
▁wireless
iscal
▁controversial
▁volatil
▁smooth
▁fluctuat
▁predictab
▁GDP
▁6
▁diversif
▁Agricultur
▁macro
▁solid
▁legislati
▁min
▁shopp
▁mortgage
▁Too
▁requir
▁strengthen
▁Standard
▁Charter
lla
▁wild
▁elephant
▁democratiz
▁multi
▁OE
CD
▁Conflict
▁Darfur
▁CD
▁Business
▁Understand
▁dung
are
▁cord
▁auction
sterda
▁Pul
itzer
SA
▁illegal
▁wiretapp
▁catastrophic
15
▁spec
▁federal
▁Sudden
▁electronic
▁convict
▁St
▁Sad
▁administration
mendment
▁circumvent
▁Communication
▁submission
▁lumin
▁Aaron
▁Swart
▁Free
▁Press
▁server
▁sav
▁avenue
▁wrongdoing
crow
▁alarm
▁dirt
▁expose
▁Constitution
▁Ban
eum
▁depression
▁despair
▁violin
▁grave
▁midst
▁restor
▁violinist
▁Carne
▁Kenn
▁church
▁restrict
pros
▁brand
que
▁Rock
▁Chang
▁TEDster
▁gun
▁syllabus
osmos
▁Shi
▁assume
▁Tab
▁calorie
▁Connecti
▁Texa
▁Control
▁Command
▁typ
▁Blackberry
▁punctuat
▁mail
▁Leave
▁Phone
▁Beep
ogue
▁devolve
▁FAA
▁terminal
▁currenc
▁convers
▁Double
▁Watch
▁delete
▁increment
uch
let
▁Shut
▁snap
▁frustrating
▁Camera
▁congratulation
▁Technolog
▁Li
cense
▁Harle
▁Grow
▁superior
▁inferior
▁doubt
▁deconstruct
▁sleeve
Ex
plain
▁guideline
▁bathroom
▁empti
▁teenage
▁apologiz
▁prop
▁paralyz
▁hostage
▁coach
▁heroin
▁overdose
▁jeopard
▁swor
▁secre
▁nude
▁petrifie
▁behold
▁proportion
▁adhere
bound
limited
▁dispos
▁Atlas
▁Natural
▁registration
▁rebuild
▁internship
▁Lin
ko
ping
▁SC
SS
▁laptop
▁cafe
▁Low
▁Side
▁collaborative
▁Rubi
▁exhibit
▁comparative
▁realm
glow
▁exoplanet
▁magni
tude
▁Carol
▁Por
▁coded
▁ingenious
▁Merc
ury
▁divert
▁Ghana
▁ghetto
▁Columbia
▁Aqua
hasa
▁Gang
▁clos
▁lion
▁warrior
▁pubert
▁Cool
▁sweep
▁rear
▁dresse
▁heel
▁uncomfortabl
▁determin
▁undergo
▁crossroad
▁stigma
▁courtyard
▁clitori
▁bleed
▁anesthesi
▁Oregon
▁jean
▁pave
▁attractive
▁uncle
▁dictate
▁Rand
▁Lynch
▁chief
▁cleaner
▁genital
▁graduat
▁pregnan
▁criteri
▁Shar
▁125
▁Stand
children
▁peaceful
▁wings
▁magnify
▁caterpillar
hell
▁nano
▁silk
▁strain
▁Latino
▁Shir
▁Record
▁Bow
▁Guy
▁cubicle
▁Wang
▁hallway
▁clar
▁Traditional
▁Terminal
▁grandkid
iest
▁intimate
▁animat
▁Boo
▁obsession
▁venom
▁cope
▁stomach
ache
▁scream
▁judge
▁exceed
▁sweet
▁fantas
▁bound
▁acknowledge
▁advertisement
▁genero
dec
▁towns
▁gathering
▁bearing
▁bias
▁grace
tting
▁clerk
▁Brookl
▁dump
▁kitchen
▁princess
▁romantic
ggle
tooth
▁Larami
un
▁Slow
ti
▁Hope
▁motivate
▁lady
▁miracle
▁LM
▁Participant
▁hospice
ock
▁Four
closure
▁regret
▁audio
▁underwa
▁furious
▁retirement
▁homeless
▁psychiatrist
▁diagnos
▁anniversar
▁tower
▁visceral
▁fleeting
consequential
▁endur
▁Help
ament
▁Inter
▁stranger
ogether
skirt
▁guard
▁Bay
▁Area
▁scanner
▁x
▁paradigm
▁capture
App
xi
mate
▁Bam
iyan
▁Taliban
▁Bot
▁Cyber
▁Archive
▁fifty
▁Chi
▁Rap
▁Babylon
▁Ross
hapel
▁Po
▁deliver
▁conserv
ator
▁researcher
▁manipulation
▁architectural
▁narrat
▁phenomena
▁tornado
▁urban
▁sprawl
▁acid
▁Luck
▁pace
ritage
NES
CO
▁March
▁treasure
▁curtain
vantage
▁Mitchell
▁Director
▁Conservati
▁Pr
itch
▁Visual
▁visionar
▁inherit
▁defi
her
▁educate
▁Canadian
▁Enjoy
▁hurricane
▁valu
▁rack
▁extracurricular
▁activit
ef
tamina
▁indiscriminate
▁Normal
IP
▁Obvious
▁Terrorist
▁rapist
▁burglar
▁gangster
▁initiat
▁classe
▁Nine
▁convert
▁Book
▁Station
▁landmark
▁Kir
▁preach
▁cooperate
▁complaint
▁grievance
▁draft
bu
16
▁legal
▁Federal
▁Investigat
▁owner
▁hackers
OS
▁sold
▁consumer
▁messag
▁seller
▁manufacturer
▁suspicious
disproportionate
▁gaze
securit
▁democrac
▁Black
▁Spring
▁Occupy
▁members
▁ensure
▁Helen
▁Walter
▁Mark
uckerberg
▁headphone
▁mic
▁jack
half
▁Christopher
▁Band
▁Skyp
▁buck
icious
▁stalk
▁girlfriend
▁terrifying
CS
▁stepp
▁dispatch
▁Pluto
▁former
planetar
▁glide
▁farthe
post
▁splendor
▁composite
▁Di
▁expanse
▁unexplo
▁terrain
▁intrigu
▁molecular
▁nitrogen
▁propa
▁ubiquitous
▁envelop
▁condens
▁circumstance
▁350
▁zero
▁carve
▁gull
▁cataract
▁canyon
▁eeri
▁mist
▁Michigan
ifying
uous
▁deployment
▁deploy
▁parade
▁union
▁colossal
▁goose
▁panoram
▁unambiguous
line
con
▁highland
ario
▁Sea
▁mystic
▁geographical
▁rival
▁active
▁composition
▁issu
▁examin
▁erupt
▁inference
▁stagger
eeming
▁coherent
▁protection
cted
▁exhal
▁cradle
skies
▁Shakespeare
▁divid
▁compartment
▁annoy
▁steady
▁diet
▁satisfie
▁insatiab
▁woods
hik
▁frog
▁geek
rous
aturation
▁author
▁darn
▁Canad
▁pest
▁Y
▁interven
▁shallow
▁Nature
▁boundless
▁affair
▁reconcile
▁comic
▁Ali
▁mesmeriz
▁Clark
distinguish
▁cinema
▁premier
▁leapfrog
▁competitive
▁lagg
▁realistic
motive
▁shelve
▁Julie
▁epic
tlantic
▁port
HD
▁preparation
▁capsule
▁hydro
thermal
mitten
▁maker
mark
▁interior
▁deck
▁plank
▁corridor
▁operat
eck
▁surreal
▁v
▁replica
presence
▁avatar
▁inject
▁chemo
esis
▁advisor
▁biomedic
▁protocol
astro
ologist
▁director
▁captain
▁damn
place
▁Made
▁glory
▁thrill
tu
▁cops
▁combat
▁Create
▁unchar
▁territor
▁Pandora
magination
▁la
▁filmmaker
ailure
▁Kim
▁awaken
han
▁Ethiopian
▁Square
▁Iranian
▁sympath
▁dut
▁rect
▁commands
▁frontier
▁slave
▁William
▁Wilb
force
▁protester
▁appall
▁Philippi
ada
▁regime
▁coup
uga
▁Pre
▁monk
▁blogs
pression
▁persecut
▁Su
▁Ky
▁Te
hran
eign
▁welfare
fa
▁Semit
▁racis
▁discriminati
▁sexualit
▁mark
▁singer
▁summarize
▁racial
▁Combin
▁Climate
▁scandal
openha
▁agenda
▁transferr
▁Iceland
▁supervisi
▁prosper
wi
▁tuberc
ulosi
ragg
▁sadness
▁donation
▁import
▁chains
▁unnecessar
▁commemorat
▁Rwandan
▁genocide
▁Fa
vor
▁sport
▁Mak
▁Torture
▁tortur
▁Nation
▁peacekeep
itarian
idden
▁infuse
▁bind
▁appreciat
▁reconnect
▁acquaintance
▁redefine
▁unsur
▁gourmet
▁Flow
load
▁supply
▁humbl
▁Peace
▁seren
vana
▁Amazon
gio
▁uncertain
▁reader
▁illustration
▁obligat
▁mango
amara
▁perception
▁stir
▁uninten
▁administrator
ural
▁Fin
▁Their
▁confuse
▁official
▁tribal
▁consequent
▁Maria
▁stove
▁patron
▁Namibia
▁irrita
▁announcement
▁merchant
▁sail
▁Sub
▁Kip
▁contend
▁synonymous
▁flee
▁sneak
illa
▁marketplace
▁immers
▁immigrant
▁dependent
▁definitive
▁Mou
▁arrow
▁arrival
▁colonial
▁Psycho
▁murderer
▁mild
▁representative
▁Tyle
▁Stein
kill
▁unhapp
laughter
▁camps
▁cousin
▁Pol
▁Ok
pressive
▁jam
▁bread
▁ratio
▁normaliz
▁invad
▁flatten
▁overlook
▁incomplete
▁horrific
▁depressing
▁vacan
working
aka
▁Short
▁charm
▁readers
▁justifie
▁Fun
mi
▁Yo
ruba
▁Mar
▁passport
▁innovative
▁infrastructure
▁thrive
af
▁refurbish
▁organiz
▁malign
▁Alic
▁Walker
▁helpful
▁apprentice
▁interfere
▁semester
▁anticipate
▁dictionarie
▁unconscious
▁Exact
▁plural
▁Bost
▁Berk
▁linguist
▁usage
▁discourage
▁Creativ
▁whipp
pper
▁delicio
broken
worm
unch
▁lunch
tel
▁motor
▁motel
▁Edu
tainment
▁electro
▁execute
▁functional
▁Friend
▁Commerc
do
▁bulldoz
dministration
ulate
▁Embrac
▁newborn
▁infanc
form
▁valid
▁navigat
▁anxiet
▁hopeless
▁retrospect
▁repetitive
▁Cor
wall
▁wicked
▁atheist
▁Catholic
▁nun
▁anomal
▁replicat
▁dread
▁steer
▁shooting
▁fledg
ll
▁Lee
▁biolog
▁Norwegian
▁credi
chondr
▁160
egitimate
▁Strange
▁revelation
▁esteem
imi
▁therapist
▁couch
▁cheat
▁inhabit
▁divisive
▁judgment
▁authorit
▁therap
▁brutal
iz
▁psychopath
Pad
bling
▁farms
▁surge
▁Cru
▁insane
▁torch
▁bount
iful
▁inevitabl
▁Simpl
▁Nar
▁Million
▁supplie
▁geo
▁cod
fi
▁popul
▁logistic
bel
▁nominee
off
▁trillion
▁Bridge
▁Senegal
▁computational
▁victor
▁invitation
app
lcome
▁Rob
ogeno
▁Alp
▁Homo
▁sapien
▁screens
▁Pop
pin
▁pound
▁lawn
▁yester
▁compress
▁whisper
▁tab
▁paleontologist
▁digg
▁Luc
▁assembl
▁intimac
▁simultaneous
▁addict
▁technological
▁geograph
▁educator
MS
▁awesome
▁barbecue
quatic
▁Aquariu
sea
▁laborator
▁aqua
▁Remote
▁Operat
▁Ve
cle
▁tether
lf
▁Scientist
▁Oil
hill
▁Gold
▁robber
R
▁intention
▁forum
▁makers
▁prototyp
▁Kickstarter
▁batch
▁manufactur
▁Tech
▁penguin
&
▁DIY
▁participat
▁desperate
▁matche
▁ideological
▁bonuse
▁bailout
▁affirmative
raging
▁articulate
▁Athen
▁Accord
▁Random
▁lotter
▁excellen
▁byproduct
▁trivial
▁circulat
▁Profess
ional
▁permission
▁tournament
▁sued
▁disabl
▁accommodate
▁accommodation
▁decid
▁Raise
urance
▁Nick
▁Arno
▁str
▁ruling
▁wrestl
▁Steven
▁distinguish
▁productive
ath
ema
▁delicate
▁athlete
▁grappl
▁prominent
▁underlie
▁opponent
▁defender
▁elevate
▁discour
▁disagreement
▁coerc
▁restore
▁pioneer
▁Beij
▁Massac
tts
▁Cat
▁vintage
▁posture
▁portrait
▁crab
▁Add
▁salt
▁pan
ermaid
▁waltz
▁heartbeat
▁junior
▁var
▁cheerleader
▁swear
▁rhyme
▁scheme
▁monkey
▁kisse
▁Hell
▁frown
▁socio
economic
▁colonialis
▁cash
▁seed
▁classic
▁assure
so
▁applaud
▁innate
▁inhuman
izzy
▁hub
misphere
▁pursuit
▁enabl
zhen
▁reverb
▁Trump
▁drum
▁pad
▁Noise
▁Sydney
▁Opera
▁Smok
▁Jefferson
▁alike
▁appl
ep
▁Pull
▁remembering
▁astronom
uke
▁Monday
▁Express
▁parachute
▁coastline
▁centi
▁Eagle
▁supernova
▁remnant
▁patche
▁smudg
▁fusion
▁silicon
▁subtract
▁simulat
boro
finish
tron
ically
▁speculate
▁spatial
▁imprison
math
▁Bottom
▁believ
▁zillion
▁chemistr
▁geometric
▁kilogram
▁engender
▁eff
back
▁Hour
tification
▁Target
▁implant
▁phy
▁greenhouse
▁extinction
▁Bio
tech
log
▁fanatic
ad
enture
▁terror
▁unacceptabl
▁downside
▁Bill
▁Joy
▁grain
▁relinquish
▁absurd
▁application
▁II
▁poster
▁premature
▁Joe
▁Equal
wash
▁Bert
rand
▁harness
▁optimal
▁doors
▁latter
▁Joseph
environmentalist
▁academic
▁span
▁evolutionar
▁Belt
▁schematic
▁vaporiz
emise
▁unfold
▁emergence
▁January
▁striking
▁tribute
▁cartoon
lock
▁plaque
ette
▁sterile
scape
▁gradual
▁volcan
▁eruption
▁Apart
▁trauma
▁wax
▁sliver
▁vegetati
▁hundredth
oxide
▁ominous
▁intense
▁emitt
▁radar
▁transmission
▁albe
extraterrestrial
▁spike
▁induc
▁runaway
▁vigil
▁spa
ose
▁biosphere
▁stabilize
▁spawn
▁oas
▁Pope
makers
vin
ang
▁fridge
▁concoction
roni
▁oven
▁purpl
▁Girl
▁featur
▁humongous
▁46
ventual
▁headquarter
▁unveil
▁silver
▁Won
hocolate
▁Factor
▁obstacle
▁Disgust
boy
77
AG
▁dog
▁Gut
rez
▁hurt
▁bugg
▁reproduce
▁Evolution
▁forensic
▁hay
▁fever
▁disseminate
▁nose
▁ch
▁grass
▁cereal
▁symbiotic
▁symbio
▁spreads
▁Plant
▁landing
▁strip
▁marking
▁unsuspect
ps
▁load
▁jaw
▁crawl
chi
▁tricks
ev
olved
▁erect
▁kingdom
tro
▁gloss
▁ob
▁aggressive
▁bonk
▁perfume
▁smelt
▁array
scent
▁nast
▁helic
cero
▁release
acula
▁lord
▁dam
▁boil
▁volatile
▁trapp
▁container
▁drink
▁phi
▁Brazil
▁metabolize
▁mammal
▁starch
▁burning
▁metaboliz
▁cat
▁unusual
▁thermo
regulat
ropical
nsect
▁shade
liant
hem
▁match
▁attach
▁tripod
▁prim
rose
lett
rway
▁poetic
▁fertil
▁encapsulate
▁guts
▁tipp
▁immerse
▁topic
uinea
▁pig
source
▁radical
▁psychologist
▁poker
▁Fat
▁Know
ncyclopedia
annica
▁quest
▁Asian
▁Kev
▁Kelly
▁Living
▁Biblical
▁Olive
▁Garden
▁polls
▁hip
▁Commandment
▁multiply
▁twin
cane
▁obscure
▁Levi
▁kiss
▁poly
▁cotton
▁testicle
▁grip
▁gossip
▁pretend
▁donate
▁dissonance
▁Pro
robe
▁dressing
▁retaliat
arbaric
▁intent
▁Wikipedia
▁authors
▁relax
▁vocation
▁menstruati
ng
fensive
▁gymnas
▁gorgeous
▁Ken
▁prayer
▁Third
▁workaholic
hou
▁Jeh
ova
▁Wit
reconceive
▁varie
▁generalization
▁pamphlet
▁Jim
▁Tony
polo
▁disregard
▁separat
▁wool
▁Martian
▁miserabl
▁fundamentalist
ave
▁wrestle
▁hail
▁tax
ab
▁rent
▁bush
▁provok
▁cliche
▁provoke
▁Fort
▁wield
▁Brent
▁unsurprising
▁Haiti
▁Samu
witz
▁survivor
▁Holo
caust
▁teache
▁cruel
▁horrify
▁Gh
raib
uant
▁publication
▁insurgenc
▁Further
▁Guard
▁Kent
io
▁stigmatiz
▁Wales
▁Image
▁responsibilit
▁Katrina
▁deem
▁Eugen
▁Personal
▁Moor
▁Ar
met
▁haunt
deli
▁index
▁reassure
atal
uestion
▁rehabilitat
▁depress
RD
▁Dubai
▁holiday
▁shocking
habi
▁garden
▁medicinal
▁cosmetic
bal
put
▁recruit
▁wealth
▁morph
▁beneficia
▁sole
▁domain
wa
gon
▁Ran
▁linguistic
▁pursue
ual
▁gatekeeper
▁satisfy
▁segment
▁fulfill
▁requirement
▁Golden
▁equate
▁shoulder
sia
▁remedi
▁dyslexi
TO
FL
▁prohibit
▁headline
▁Div
ide
▁differentiate
▁nei
▁bin
▁cooperat
▁achieve
NN
▁Hero
▁metaphorical
▁Mind
▁Use
▁consist
▁merci
▁Elizabeth
ylor
▁traveler
▁translator
▁Mose
▁Abraham
▁Christ
rah
mah
▁decree
▁reign
▁Islam
saw
▁follower
nger
▁grammatical
▁discipl
▁hum
▁heartbreak
ith
▁employer
▁ears
ompassion
▁dissolv
▁exten
▁Jung
glo
▁Ram
atchi
▁differ
▁sake
▁Mala
▁singular
▁physiolog
▁clay
▁embodie
▁steward
▁verge
▁sword
▁plow
▁glorifi
▁rifle
▁bullet
▁Cold
▁scoop
▁Ever
ninsula
▁Co
▁excavat
▁splash
▁Penn
lvani
▁atmospher
▁wipe
low
▁recreation
orium
▁buffalo
▁antelope
▁Gho
buster
rift
▁blast
▁ecological
▁millenni
▁row
▁Science
▁Mayan
pocalyp
▁stadium
▁passe
▁kidney
▁awake
▁worrying
▁blessing
▁disguise
pact
▁excavate
▁timing
▁millisecond
▁prove
▁fist
cho
AM
▁velvet
▁glove
▁reference
▁prince
▁Rust
we
ick
da
▁Southwest
▁Research
▁Institute
▁weigh
▁tumbl
hemical
▁generate
▁gentle
▁Trek
nterprise
▁Brother
▁Bel
▁cramp
▁rattl
▁falls
▁grocer
▁hungr
▁juic
xcept
▁damag
▁flesh
▁peeling
▁dug
▁encode
▁pedestrian
▁nerve
▁exhaust
ians
feld
▁comedian
▁innovator
car
▁wiper
▁hardwir
▁Job
▁fears
away
▁eternit
▁Typical
▁fixed
itan
▁neuroscience
▁algorithm
▁wood
▁anchor
▁concrete
▁optimiz
▁cha
grin
▁investor
▁shoe
lace
▁Vel
cro
▁mailbox
▁dumb
llo
▁gig
▁Orchestra
fund
▁cryptic
▁setback
▁constituenc
▁stall
▁ugl
iness
▁bracket
▁apt
ged
▁repulsive
▁flourish
▁secretar
▁Conscious
▁taste
iddle
▁Eastern
▁route
▁eternal
▁omni
▁Remi
▁immaterial
▁refuse
▁Genetic
▁revis
▁38
▁Potato
▁potato
▁48
▁chromosome
convenient
▁continual
▁flake
aste
▁Liver
▁spine
▁wavelength
▁chemist
▁Van
mont
▁bla
▁Light
▁Electric
ight
▁Radio
▁radiat
▁Thom
▁Witt
stein
▁cheer
▁bastard
▁Lang
▁improvisation
▁Mathematic
▁inexpensive
▁arithmetic
▁Calcu
lus
▁gambl
▁trends
▁discrete
▁uncertaint
▁summar
▁deviation
▁relic
▁infer
▁Ultra
▁con
undr
▁flare
▁Jupiter
▁epoch
▁marks
▁exaggeration
▁CO
▁stealth
▁expansive
▁matur
basket
▁foam
▁Sloan
▁Sky
▁radi
▁rotate
▁clump
▁Notice
▁parse
▁speck
▁node
▁occasional
▁intersect
▁intricate
▁assemble
▁contractor
▁rendering
▁teen
▁Cosm
ngular
▁flipp
▁sharp
▁plate
▁hint
▁habitat
kyo
▁skyline
▁Miss
▁dimm
▁dip
▁toast
▁manifestation
▁vary
▁iceberg
▁dramatic
▁bathe
▁bath
▁dismantle
▁Indonesia
▁Anna
▁Nicole
BC
▁Nair
▁Loc
▁Colombia
▁Similar
▁Reu
▁Fil
▁Project
▁supreme
▁Common
▁Era
bra
reconcil
▁disparate
▁culprit
▁undef
iv
eval
▁scholars
▁convention
CK
ometric
▁Hurricane
▁Weather
alga
▁tacti
▁offshor
▁buoy
▁historical
▁compil
▁behavioral
▁timeline
▁tide
▁nuance
▁collaborate
13
▁Mil
wau
kee
▁Mean
▁sculptural
▁embed
atrix
▁assumption
▁alternative
▁entry
▁presume
▁Thursday
▁bomber
▁detonat
▁maim
▁Hick
ant
▁dehumaniz
▁selective
▁Twenty
▁plunge
tangible
▁Design
lov
case
▁Fellow
▁Societ
▁balanc
▁Australian
▁scarf
▁instinct
oga
▁surrender
▁tag
▁admitted
▁orientation
▁unconditional
▁brillian
▁ponder
▁unite
▁embarrass
▁rehab
▁breadwinner
▁kindergarten
eak
▁critical
▁neglect
▁backyard
▁chain
▁Capital
▁IT
ork
▁investigat
▁dolphin
▁whale
▁Pick
▁moist
▁crosse
▁naturalist
ental
▁Scarlet
ander
lider
▁Pacific
▁wander
▁mediocr
▁endemic
▁endanger
▁soak
▁Human
▁stream
variabl
ago
▁stretche
▁Down
van
ect
▁bicycle
ches
▁scratch
▁fisher
▁vessel
elle
▁withdraw
▁Kar
taka
utheast
▁converg
▁Summer
▁evaporat
▁conve
▁convergen
arch
ean
▁feat
▁percolat
▁River
▁refuel
eastern
▁latitude
▁strike
▁prey
▁Includ
▁Kashmir
▁compli
▁migrate
▁Nav
▁Fly
▁Needles
+
▁prevalent
▁scar
▁beside
▁waist
▁Six
▁diabet
▁stat
▁puff
▁fluorescent
▁tune
▁reflectiv
▁opposition
▁reframe
▁Mao
tung
mira
▁entrepreneur
▁peacebuild
▁enthusiastic
▁patriot
▁cute
▁heck
▁confess
▁soldier
▁hatred
▁friendship
▁cofounde
j
▁archaeolog
▁congregation
▁joint
▁belly
rthodox
▁Northern
▁Buffet
▁admit
▁optimist
▁lifespan
▁reduction
▁phenomenal
▁measl
▁diarrhea
▁Death
▁1930
▁derivative
▁ironic
▁eliminat
▁temperat
▁paradox
▁afflict
▁understate
▁bite
▁indoor
▁spray
▁parasite
▁vigorous
▁eradicat
▁shrink
▁reduce
▁soar
▁visi
▁simulate
ise
▁generous
▁eradicate
▁biotechnolog
▁stunn
▁minorit
▁complet
▁retain
▁characteristic
▁vest
▁pension
▁replicate
nowledge
▁66
▁fifth
▁principal
▁fool
▁tenure
nel
▁Matthew
▁Hard
▁Nic
▁stimul
▁Senat
▁elitist
obb
▁diplomat
▁squash
▁champion
▁hunger
▁Mother
▁coma
eduction
▁identifi
▁Elder
▁qualification
qualifie
▁cop
▁competenc
▁midwife
etter
accessibl
atter
▁bruise
▁mum
▁jumbo
▁Khan
▁Architectur
▁cast
▁qualifie
▁Forget
▁Clear
▁waterproof
▁kilowatt
▁panel
▁Food
▁parabol
▁teeth
▁liter
▁Democracy
▁elect
▁monitor
▁supervise
ueen
▁percentage
▁illitera
▁Puppet
▁donor
▁friction
▁Shake
▁decentraliz
mystifie
▁Bhutan
▁Men
▁restless
▁compulsive
phone
▁Impossib
▁concession
▁Sign
▁chatt
▁Grandm
▁summon
iff
ult
▁Call
▁tiger
▁quotation
▁profession
▁fascinat
▁memoir
▁Eat
▁Pra
▁sensation
▁bestseller
▁recall
▁genre
▁unst
▁grim
▁suicide
▁Norman
Mail
▁blink
▁internalize
▁odious
▁blunt
▁exceeding
▁Socrat
▁disembod
▁swallow
▁erase
▁rational
istic
▁rubb
▁fairy
▁juice
▁pose
▁capricious
▁para
normal
▁thunder
▁barrel
▁poem
▁intact
▁uncann
▁pipeline
▁relate
▁sane
▁freeway
▁op
por
tune
▁Leonard
▁manuscript
loud
▁Listen
▁performer
▁brav
aging
▁ascend
▁chant
▁spin
▁reconciliation
▁psyched
▁Continu
▁enlarg
▁indulg
▁Donald
▁Ba
organiz
▁tur
▁hurry
▁juxtapose
▁reintroduc
▁clap
▁Joan
▁economical
▁canvas
▁skeptical
ige
▁Bern
von
weis
pez
▁Reg
▁Wi
zi
gli
▁Ja
▁systematic
iki
▁Saint
▁Pha
▁unclear
▁tangle
▁plain
▁sunburn
▁vo
ball
▁spare
▁analys
▁pot
▁Kan
insk
▁arrange
▁categorize
▁filing
▁Jas
▁practic
▁ruler
▁discipline
▁embark
itz
▁toothbrush
▁Vinc
▁van
▁inward
▁handicraft
▁arrangement
▁Jackson
ollock
▁fur
▁cup
ret
pp
heim
▁pixel
ura
▁pile
▁bookshop
▁flags
▁proposal
▁Un
▁navigate
▁Yet
▁sensor
▁Highway
▁jogg
▁highway
▁Mountain
▁crook
▁Lo
▁stunt
▁Sebastia
run
▁gallon
oline
▁raising
▁bridge
▁strateg
▁Microsoft
▁SO
PA
TA
▁quantitative
▁propose
▁enlist
▁Picture
▁58
▁analyze
oulevard
▁penn
▁retail
▁corn
▁wheat
bacc
▁theater
▁foreg
▁insidious
▁Neanderthal
▁Excel
▁Labor
▁Statistic
▁harm
▁lobby
▁MP
▁Classic
▁inquir
▁addition
▁bask
▁glow
▁pervasive
▁resolve
▁apocryphal
▁93
▁inert
▁exert
▁substrate
mine
nce
▁popp
▁screaming
▁Victor
▁swim
▁treatise
▁swimm
▁dove
▁minded
▁Number
▁192
▁Park
▁irrelevan
▁viewpoint
▁thickness
▁refin
▁equip
▁refine
▁pursu
▁Super
▁trie
▁holder
▁examine
▁entit
▁rub
▁precis
▁fiddl
▁Cala
▁Ya
▁tinie
▁Consider
▁horn
▁experimentation
▁CE
RN
▁Genev
▁forc
▁arena
▁mechanic
▁package
▁circum
▁85
▁diameter
▁electrical
▁snowflake
▁melt
20
▁copi
▁pour
▁thumb
▁189
ester
▁Ern
▁insult
ealand
▁twentie
▁underpin
▁elegan
▁bottle
▁champ
agne
▁convolut
▁glad
simplification
cientific
ade
▁Davi
▁froze
▁exponential
▁fuse
▁Carl
▁Saga
▁Craig
▁Vent
▁elegant
▁Robin
▁Williams
▁tea
▁moderat
▁cannabi
oid
▁mari
▁saturate
▁sugar
▁opiate
▁coca
▁chronic
▁wrinkle
diac
▁PET
▁progression
▁vitr
▁inhibit
▁potenc
▁Health
▁attack
▁gene
ably
▁promot
▁Navi
genic
▁Direct
▁23
▁predisposition
▁approximate
▁emit
▁concentrat
▁spher
ical
▁wider
▁fixate
▁identical
▁velocit
▁blob
▁extrapolate
▁eyeball
▁reception
▁devise
▁wine
glass
▁Draw
▁illusion
▁correspond
▁decrease
ories
▁crystal
▁collaborator
▁Minne
sota
▁annihilat
▁gamma
▁Hous
▁regress
▁youth
▁instinctive
▁Bush
▁doctrine
▁Boeing
▁Oo
▁39
▁Week
▁shak
nais
▁missile
▁Force
▁82
▁till
▁retreat
▁56
▁Land
tenance
▁abandon
▁Craz
▁overlap
▁Computer
iller
RS
▁Priva
uz
Ship
▁resort
▁critic
▁Frog
▁Gore
▁commerc
▁Allen
▁Musk
▁Branson
zo
elow
▁colonize
▁SR
▁supersonic
▁cargo
▁parallel
▁NA
▁Rough
▁Slov
▁mammoth
vicin
▁dispers
▁skeleton
▁garment
▁preposterous
▁ancestor
▁conquer
▁frivolous
▁momentous
▁tubes
▁modifi
vich
▁typewriter
▁Flu
▁Rena
▁Baghdad
▁encod
▁plac
▁conceptual
▁conquest
▁necessit
▁exclusive
▁plea
▁delightful
▁flexibl
▁Victorian
▁Charles
abbage
▁analytical
▁programmer
▁wove
▁rubber
space
