<pad>
<unk>
<s>
<\s>
▁,
▁.
▁the
▁
s
▁to
'
▁"
▁of
▁a
▁and
▁that
▁I
y
ed
▁in
▁s
▁it
▁you
▁is
ing
▁we
▁And
ly
▁this
▁was
▁t
n
▁be
▁on
▁—
▁for
▁have
▁are
▁?
▁can
▁with
r
▁So
▁The
m
e
▁what
▁my
▁as
▁at
▁about
▁there
▁an
▁all
▁not
(
▁)
▁see
-
d
▁one
▁re
▁It
▁like
▁fro
▁so
▁do
▁But
▁but
▁our
▁me
en
▁people
▁just
very
▁had
▁out
▁us
▁these
▁know
▁up
▁when
▁We
▁:
▁by
▁would
▁here
▁who
▁he
▁if
▁or
▁look
▁m
▁them
ies
▁You
er
▁because
▁time
▁some
▁were
▁Laughte
▁did
▁more
▁Thi
▁which
▁how
▁your
▁want
▁think
▁every
▁get
▁years
▁go
ause
▁ve
▁world
▁going
t
▁really
▁say
▁could
▁other
▁has
es
▁into
aid
▁things
▁take
▁will
▁way
▁don
▁any
▁actual
▁Now
▁right
hose
▁make
▁their
▁much
▁first
▁no
▁now
▁something
▁thing
▁back
▁What
▁come
▁start
▁call
▁Appl
▁than
▁where
▁ll
around
▁That
▁down
▁two
▁little
▁got
▁In
▁over
▁kind
▁change
▁He
▁need
▁space
▁life
▁galax
▁does
▁work
w
▁even
▁many
▁she
▁universe
thing
▁There
▁show
▁his
▁A
▁d
one
st
▁great
▁lot
lso
▁most
▁day
▁matter
▁through
h
▁year
▁being
ic
▁human
▁school
▁story
▁talk
▁new
▁picture
▁different
other
▁put
▁Well
▁good
went
l
▁al
▁Thank
▁him
in
▁If
▁tell
▁thought
▁light
▁should
▁doing
▁made
al
▁S
▁problem
;
▁long
▁idea
▁before
▁ever
▁same
▁ask
o
▁why
▁few
▁well
▁came
▁learn
le
▁three
▁happen
▁part
▁love
▁ago
▁e
▁use
▁together
▁million
▁might
▁place
self
▁Earth
ion
u
day
▁her
a
▁kid
▁big
▁fact
▁image
▁OK
▁next
across
▁try
▁point
▁000
▁dark
ce
▁Africa
▁end
ves
▁after
▁important
▁again
each
▁dimension
▁system
▁billion
ness
▁India
▁Bec
▁never
▁self
▁off
▁bit
est
out
▁help
▁small
▁When
able
▁planet
ers
▁course
▁second
▁mean
▁best
▁let
▁un
▁able
7
▁high
ther
▁Wh
▁question
▁girl
▁turn
▁give
ity
us
▁become
▁My
on
▁teacher
th
▁better
▁own
▁How
▁She
▁four
▁men
▁stars
▁particle
▁English
▁found
▁reason
▁done
▁global
k
▁number
ok
ld
▁play
▁whole
▁find
▁sort
▁too
▁U
▁old
▁example
▁away
▁form
▁C
▁large
▁last
▁fly
▁later
!
▁No
▁hard
tween
▁imagine
▁One
▁means
▁percent
▁wom
▁science
▁energ
▁real
▁b
▁words
▁stories
ation
b
body
▁read
▁sense
▁am
▁still
▁believe
▁man
▁guy
olar
▁seem
▁art
most
ways
▁woman
▁create
▁liv
▁language
aybe
▁B
▁water
▁creat
▁10
quite
▁word
▁understand
▁room
▁Titan
▁village
ory
▁walk
▁else
ever
▁simple
▁Her
▁name
▁20
▁moment
▁For
▁bring
▁month
nough
▁single
um
▁live
ch
▁All
▁job
▁design
▁future
▁interesting
▁may
▁golf
▁under
c
▁book
▁God
▁data
▁education
▁discover
▁left
▁mak
▁technology
▁surface
came
▁country
ment
▁As
▁probabl
▁structure
▁close
▁200
▁far
▁home
▁money
▁famil
▁five
ar
▁answer
▁Let
▁force
▁artist
▁wonderful
▁G
▁w
▁experience
▁nature
▁feel
▁kne
▁countr
▁government
▁decided
la
▁power
▁T
▁orbit
▁These
▁rain
▁remember
▁thousand
▁person
▁sometime
▁father
▁African
▁set
▁half
▁ocean
▁dragonfl
▁hand
▁getting
▁hundred
▁questions
▁student
g
▁saw
▁music
▁land
ate
▁children
▁American
▁pattern
▁buil
▁young
▁phone
▁write
▁ra
▁death
msel
▁makes
▁inside
▁opportunit
▁O
▁K
▁Do
▁car
▁mother
▁America
▁interview
▁times
▁beautiful
▁happens
less
▁computer
▁hav
such
▁color
▁develop
▁mind
▁centur
el
▁hit
▁possibl
▁study
where
ist
▁50
▁less
▁scale
▁prett
▁product
▁extra
▁plant
▁complete
cy
▁must
▁Nigeria
▁poor
id
▁unti
it
▁moon
▁insect
▁test
▁act
▁piece
▁mov
▁amazing
re
▁result
▁de
▁speak
▁effect
▁recent
▁news
▁box
▁absolute
▁move
▁sun
▁top
▁100
▁E
▁gravit
▁Bible
▁while
▁middle
▁full
▁size
once
▁di
▁follow
▁challenge
▁week
▁war
L
▁flute
▁yet
▁open
▁game
▁Or
▁thinking
▁morning
ta
▁fun
ur
▁works
▁fast
not
▁Every
▁share
▁hear
ter
▁listen
▁travel
▁exist
▁1
▁Have
▁dollar
▁pass
▁stop
▁movie
▁An
▁night
▁heard
▁oursel
▁minute
▁nothing
▁coming
▁allow
▁eye
▁six
▁air
▁Stor
ish
▁Einstein
▁monsoon
▁run
▁object
▁draw
or
rought
▁sure
ent
gan
▁outside
p
▁Just
an
is
▁case
ton
▁entire
ism
▁12
▁lives
▁prison
▁wrong
ni
▁stay
▁figure
▁college
ect
▁physic
▁Yes
▁bad
felt
▁f
▁line
▁project
▁front
▁To
▁build
▁whe
▁business
giving
▁stuff
▁key
▁known
▁beginning
▁deep
▁miles
▁begin
▁order
▁realiz
▁string
▁digital
▁saying
▁information
▁head
▁Yea
▁2
rhaps
▁On
▁fight
▁Some
▁state
▁histor
▁happening
▁along
▁grow
i
▁flower
lo
ware
▁process
▁sex
ten
▁map
Corps
▁detail
▁south
▁mass
▁tin
▁speed
▁cluster
▁physical
▁eight
▁flight
▁particular
9
▁writing
ous
rote
▁essential
alone
▁hour
ance
▁face
▁leas
▁couple
▁won
0
▁material
▁age
▁drive
▁stick
▁difference
▁journey
▁movement
▁Sun
▁invisibl
▁cart
▁o
▁lost
▁exact
▁forward
▁Al
▁house
▁boy
ph
▁term
▁J
▁friends
▁film
▁People
8
ig
▁leave
▁market
▁rule
▁Go
ally
▁son
il
he
▁generation
▁region
▁pe
▁bas
▁poll
▁compassion
▁Maldiv
pent
▁M
▁star
▁device
▁paper
credible
▁source
as
▁final
f
▁Am
▁explain
▁group
▁gone
▁major
▁craz
▁New
▁modern
▁rich
itting
▁care
▁lead
D
▁stand
▁expand
stead
▁record
ling
▁certain
▁pick
ol
P
▁body
▁books
▁thank
▁blue
▁Saturn
▁environment
ne
▁aware
MS
▁past
▁sound
▁period
▁rest
▁sudden
▁working
▁gre
▁camera
▁weather
▁parents
▁true
early
▁friend
▁element
▁Our
eady
▁often
▁40
▁After
▁public
5
▁short
▁Not
▁By
▁3
▁impact
▁video
▁near
▁somebody
▁machine
▁cry
▁view
▁difficult
▁con
▁experiment
▁engineer
▁creation
ian
ps
bo
▁scientist
▁wind
kay
▁Oka
▁gav
ut
▁basically
▁watch
▁Be
▁train
▁born
z
ri
▁step
▁F
ors
▁alr
▁heart
▁communit
po
▁sent
▁continent
▁rate
▁since
▁perfect
▁disease
▁P
op
▁though
▁carri
ine
un
▁ground
▁player
▁pro
▁NASA
▁Bang
▁L
▁produce
▁electron
▁chance
▁realit
▁easy
▁asteroid
▁kilometer
▁notice
▁speci
▁purpose
▁letter
▁natural
li
ful
▁interest
taking
▁dad
▁W
ifi
▁keep
ary
▁black
▁robot
▁stage
▁anyway
▁audience
▁15
▁econom
▁realize
▁500
▁huge
▁bigge
ard
▁turns
▁soft
▁availab
ro
age
▁teaching
▁obvious
▁husband
▁cook
▁toward
▁dur
▁cell
▁ways
om
▁powerful
son
▁Apple
▁ring
▁brain
▁War
▁moral
▁invent
▁worth
▁marriage
▁mathematic
na
bility
▁argument
▁easi
▁interact
▁literal
▁wall
▁hands
▁send
▁Don
▁Ro
▁Bar
▁Take
▁aren
▁famous
▁Right
▁rock
▁telling
v
▁teach
▁save
▁benefit
▁11
▁deal
▁focus
▁voice
▁At
▁social
wife
am
▁grandmother
▁yes
▁equal
▁atmosphere
▁Big
▁add
▁white
▁given
▁animal
▁eyes
▁Indian
▁Arab
▁temperature
▁degree
▁probe
▁season
▁fundamental
ive
▁gravitational
▁screw
▁ray
▁raise
▁sign
▁airplane
▁ordinar
▁supposed
▁wait
company
▁die
▁p
▁hold
▁gift
ma
land
▁novel
ka
▁spend
▁happ
▁Europe
▁support
et
▁proper
▁per
▁side
▁bar
wise
▁institution
▁30
▁Oh
▁yea
at
▁oil
▁service
▁Can
▁soon
▁above
▁fair
▁fine
▁creative
▁reach
▁securit
▁risk
▁First
▁tools
▁perspective
▁honor
▁societ
▁definition
▁extreme
▁super
▁strong
▁building
▁door
▁relationship
▁simpl
▁amount
▁equation
▁quick
▁humanit
▁basi
▁path
▁photograph
▁red
▁danc
ond
▁cover
▁incredibly
▁caus
▁justice
▁Maybe
▁field
iz
▁scientific
▁genes
▁specific
▁character
▁laws
▁atom
▁sky
▁telescope
▁dimensional
▁damage
▁ego
▁Higgs
▁eat
ty
▁tri
▁conversation
▁both
▁issue
▁enormous
▁learning
▁pull
be
$
▁Most
▁Art
▁strange
▁met
▁Of
▁sentence
▁writer
ber
▁continue
ir
▁ha
▁class
▁slow
▁center
▁Who
ant
▁corrupt
▁sub
▁nobod
▁except
▁media
▁list
▁late
▁health
▁meant
▁Music
▁free
man
▁type
aught
▁Audience
▁city
▁cool
▁wisdom
▁Cassi
▁network
▁forth
ang
▁remind
▁tradition
ia
▁With
▁join
▁recognize
▁return
▁model
hind
▁dis
▁choose
▁En
▁attention
▁Unit
▁H
▁instrument
▁faith
▁Ke
▁D
der
▁cause
▁fresh
▁text
▁lose
▁feeling
▁hope
▁yourself
ge
ry
▁address
▁carry
▁touch
▁nice
▁dance
▁alien
au
▁connected
▁tough
▁tour
▁pressure
▁wish
▁Internet
▁special
▁York
▁Le
▁master
▁visit
ba
▁program
▁seven
▁predict
if
▁remarkabl
ated
qui
▁Cha
▁performance
▁necessar
▁describe
▁impossibl
▁protect
▁constant
▁successful
▁meaning
▁marrie
▁waste
oid
▁haven
ke
▁define
▁calculate
▁value
ie
▁boys
▁solution
[
]
▁flow
▁radio
▁dive
▁wear
▁food
▁law
▁version
▁Mary
▁team
▁measure
ve
za
▁Ru
ug
▁concept
hi
▁driv
▁inspire
lly
▁distance
▁activity
▁musical
▁breed
2
▁complicated
▁curve
▁copyright
▁safe
ca
▁account
▁immediate
ver
▁Ha
▁event
▁putt
▁professional
▁TV
ra
▁parent
▁Where
▁meet
▁connection
▁Me
ting
ture
▁enjoy
▁drawing
gen
▁Look
te
▁shows
▁Like
line
▁60
▁photo
▁malaria
▁conflict
▁Ri
▁ran
refore
▁average
▁fi
▁economic
▁measur
▁growth
▁25
▁strength
ll
▁affect
▁fee
▁sounds
▁press
▁original
▁store
▁total
▁familiar
▁notic
upon
▁fear
all
▁16
▁function
▁evolved
▁satellite
▁main
▁visibl
▁several
▁mission
▁child
ill
▁respect
▁Martin
▁potential
▁communicate
▁industr
▁clearly
▁Brit
▁reading
▁minds
▁customer
▁States
▁19
▁rough
▁level
▁creature
▁adult
▁solve
▁push
▁Russian
▁common
▁Re
▁eventual
ible
▁roommate
nt
ler
▁ultra
▁Aristot
▁Charli
▁serious
▁block
▁expansion
▁commercial
▁extraordinar
▁Mari
▁square
▁shape
▁score
é
foot
▁TED
co
em
▁exploration
▁roll
▁designer
▁track
▁understanding
▁Chris
▁compar
▁5
▁fantastic
▁lesson
▁mom
▁Did
▁sea
▁wave
chi
pa
mp
▁Pi
▁militar
▁mental
▁appear
▁smart
▁Mr
▁London
▁manag
▁World
▁launch
▁count
▁present
▁straight
▁various
▁attract
lic
▁buy
x
ak
standing
▁nuclea
urveillance
special
▁consider
▁tool
though
▁require
▁app
▁precise
▁Ja
▁fit
▁offer
▁foundation
▁control
S
▁user
▁collect
▁police
▁factor
▁finish
▁circle
▁sat
▁spoke
▁Angel
▁hat
to
ck
ure
uff
▁blow
▁cloud
▁Ca
▁personal
▁zoom
▁corner
▁conscious
fa
▁prevent
▁minister
600
▁distort
Z
online
▁liquid
▁fascinating
▁international
▁German
tic
G
▁loop
▁religion
’
6
▁publish
elve
▁road
▁Actua
▁mimic
▁physicist
▁pollinat
▁statistic
▁programm
▁variation
▁fluctuation
▁northeast
▁elect
▁electromagnetic
▁vibrat
▁Are
▁agree
▁childhood
▁guess
hole
ile
▁search
▁earlie
▁connect
ell
▁cost
▁subject
▁indeed
▁Pe
older
▁non
▁bed
▁litera
▁sell
im
cal
▁mine
tuck
ad
▁kill
▁Sometime
▁excited
▁disappear
ham
▁90
▁content
▁chang
▁charge
tro
▁N
▁truth
▁clear
▁reform
▁21
ization
▁sector
▁income
▁slight
▁pay
▁decade
▁imagination
▁odd
ik
▁involv
▁intelligence
▁national
▁access
ious
▁recognition
ab
▁web
ft
▁jump
▁message
▁Google
▁click
let
▁tip
▁Har
▁weak
▁propert
▁responsibility
▁brother
ti
▁expect
▁separate
ied
▁Universit
▁classroom
▁fire
▁13
▁eggs
▁decades
▁co
▁qualit
▁knowledge
▁spirit
▁La
ez
way
▁traditional
▁foot
▁site
▁race
▁normal
▁visual
▁prisoner
▁feature
▁low
▁cosm
▁remain
▁fall
▁crater
▁fiction
▁math
▁div
▁dot
▁fan
vi
▁represent
▁fail
▁debate
▁immense
▁grammar
▁genetic
▁further
V
▁warm
▁Mars
▁hot
▁bottom
▁birds
▁wide
▁prophet
▁habit
▁evidence
X
▁cycle
▁unknown
▁mosquito
▁boo
ger
▁wonder
▁ticket
▁motion
que
▁board
▁microphone
▁Wi
av
▁plann
go
▁Ka
more
▁universit
▁dead
▁song
▁actor
▁rare
▁unfortunate
▁Come
▁transform
▁magic
▁drugs
▁arriv
▁AIDS
ud
rey
ese
▁govern
▁occurr
▁resource
▁success
ose
ize
▁post
▁President
▁investment
▁development
▁exciting
▁miss
▁explore
ul
ice
▁encrypt
▁hospital
▁da
ship
▁facilit
▁mention
▁culture
▁sit
▁Com
▁Mu
▁collective
▁stopp
▁window
▁card
▁j
▁doctor
▁tremendous
▁concern
▁nine
▁bend
▁graduate
ide
▁background
q
ua
▁edge
▁snow
▁default
▁ceremon
held
▁cut
▁stroke
▁female
▁tape
▁Over
▁recording
▁Grand
ator
▁Josh
▁argue
▁spectrum
▁tru
▁fruit
ip
▁possibilit
▁civilization
▁Afghani
stan
▁significant
▁accelerat
▁battle
ither
▁polic
▁correct
▁prime
▁compassionate
di
▁400
ster
▁pray
bu
▁ex
▁18
▁summer
4
▁Hubb
▁Space
▁g
ac
▁apart
▁trip
lew
▁heat
how
water
▁career
▁metal
▁mid
▁ship
▁technical
▁principle
▁innovation
▁opinion
ga
▁Su
▁translat
▁net
ci
▁spiritual
▁skin
▁popular
▁John
j
ise
▁green
▁progress
▁underst
▁vi
▁ritual
▁loss
▁random
▁embedded
violet
ical
ah
▁Jesu
▁198
wa
▁qua
HC
▁sad
▁Per
▁check
▁mis
▁break
▁Con
▁Dr
▁dynamic
▁Your
▁print
▁plan
▁feed
▁Bi
▁practice
▁honest
▁lie
▁shock
▁worry
▁typical
▁contemporar
▁etc
▁artistic
time
▁usual
▁earn
art
nfortunate
▁trouble
▁increasing
▁action
▁grade
▁enter
ung
▁Does
led
▁bike
▁express
▁reveal
▁praise
▁arm
▁assignment
▁cross
▁devil
▁sleep
▁brief
head
▁ca
by
▁dream
▁paint
▁secret
▁Di
lit
▁belong
ial
▁leg
▁area
▁China
▁South
kept
▁compani
▁price
▁shore
table
tu
▁previous
▁explor
▁banks
▁150
▁Stan
▁financial
▁East
▁employ
▁documentar
▁Jun
rice
▁fellow
▁opening
▁Iran
▁whistle
▁sp
▁curious
▁report
▁Since
nstead
▁technique
▁Wall
▁musician
▁standard
▁basic
▁Also
▁bother
▁lay
▁45
▁David
▁airline
▁Li
▁pain
hood
▁destroy
stair
▁Hey
▁lo
▁daughter
▁flat
C
I
▁complex
▁Kenya
▁Ma
ai
▁admir
▁approach
ollege
▁apply
▁robotic
▁surprise
▁196
▁spark
▁hotel
▁Bo
bi
▁runn
▁grandfather
▁Many
▁courage
▁political
▁throw
ley
blew
M
▁alive
▁preserv
magine
▁cancer
con
▁San
▁scann
▁vertical
▁heritage
▁include
A
▁challeng
▁cultural
▁studie
▁mobile
▁Tom
▁unique
▁spread
▁sensitive
▁com
▁petition
▁mess
▁pocket
▁depend
gh
▁expedition
▁breath
▁equivalent
▁Fa
▁cold
▁br
▁bright
▁meter
▁desert
▁jet
▁brilliant
▁reward
▁border
▁advanc
▁analog
▁advantage
va
▁fund
▁rescue
▁vehicle
pr
▁failure
ap
▁ethic
lan
▁attend
▁birth
▁suppose
▁solv
gg
▁Great
ow
▁foreign
▁similar
▁Ga
gar
ru
▁reject
ot
▁electric
▁coast
ology
▁brains
ood
▁blood
▁general
▁improve
▁includ
▁hole
▁favor
▁direct
▁giant
▁dense
▁simulation
▁ant
▁none
▁bi
▁intelligent
▁flie
▁prediction
▁chemical
▁yellow
▁shall
▁writ
▁fabric
▁attribute
▁Octo
▁190
▁Newton
▁mathematician
▁direction
▁roof
▁Mal
▁crossing
▁drop
▁meeting
▁capabilit
▁hydrogen
▁lens
▁applie
▁weird
▁lower
ock
▁lock
▁button
▁gesture
▁mouse
▁architect
▁operation
▁clip
per
▁CA
▁Wow
▁busy
tra
▁mono
▁respond
▁essence
▁Fl
ero
aking
ju
▁sand
▁shot
▁Work
▁French
▁ball
▁response
▁explanation
▁encourage
▁unfair
▁la
▁seat
ull
▁desire
▁Ho
▁knowing
▁soul
▁role
▁reporter
/
pover
▁arrest
▁dress
▁office
▁behavior
▁emerg
▁Bank
▁instance
▁estimate
▁democratic
▁produc
3
▁profit
▁manage
▁link
▁budget
▁revenue
▁invest
▁code
▁capital
▁third
▁terribl
▁clothes
▁mix
▁forever
▁expos
▁wire
▁bomb
▁email
▁witness
▁Se
tz
▁environmental
▁suffering
▁page
▁plus
▁twi
▁calling
▁pre
▁dominat
▁definite
fer
▁sexual
▁See
▁football
▁Johnny
▁c
ification
▁chart
▁Swede
▁cosmolog
▁distant
▁librar
wood
▁beat
▁shame
▁faint
▁luck
▁accept
▁clean
▁rise
▁microscope
▁hair
▁cheap
▁Even
▁receiv
▁authentic
▁onto
▁poet
▁cl
▁pink
▁releas
▁peace
▁Thanks
▁opposite
▁bond
▁ancient
▁camp
▁bull
▁mirror
▁survey
▁los
▁apparent
ily
▁suspect
▁demonstrate
▁screen
▁individual
▁crowd
▁effort
hildren
▁option
▁V
ana
▁lack
▁1980
▁gas
▁Ne
▁Telescope
▁range
▁metha
dge
▁bizarre
light
▁earth
▁European
▁massive
▁fluid
▁bodie
▁north
▁formation
▁complexit
▁additional
▁astronaut
▁curiosit
▁creativ
▁winter
▁Ab
▁convince
▁describ
▁band
ja
▁profound
▁station
men
ag
▁symbol
▁fix
▁lifetime
▁Sierra
▁keeps
kin
▁consequence
▁Mexican
▁coverage
▁translate
▁Palestinian
▁Mo
▁provid
▁decide
▁oppos
bro
▁blend
▁missing
▁awkward
▁suggest
fi
▁vast
ore
▁primar
▁oh
▁RO
▁cable
eath
▁wor
▁rid
▁♫
▁hitt
▁astronomer
▁research
▁nuclei
atomic
▁artificial
▁probabilit
▁quarter
uc
▁Jewish
rew
hou
▁museum
▁Richard
▁Ku
▁Koran
▁presence
▁divine
▁dinosaur
▁slam
▁mile
▁label
▁organ
▁invention
pler
▁mathematical
▁tend
▁graph
▁maxim
quart
▁Ti
▁inventor
▁curl
▁collision
▁observe
io
▁laugh
▁smil
▁gate
▁broken
▁flood
▁keyboard
▁pen
▁goal
▁finger
▁document
▁genius
▁tens
▁pop
▁cr
▁bear
▁tired
▁perform
▁Hu
the
▁mere
▁dreams
▁continu
▁Had
▁bet
▁piano
ev
▁exception
▁competition
side
▁talent
▁mouth
▁title
▁fill
void
▁argu
▁Dad
ite
▁condition
▁catch
▁enem
▁becom
▁ultimate
▁bold
▁identit
▁related
ha
▁Air
▁advice
▁celebrat
▁HIV
▁Polic
▁led
▁imp
▁operate
▁organization
ward
▁partners
ership
▁leader
▁Minister
▁4
jo
T
▁finance
▁crash
▁8
▁increase
▁multi
▁saving
▁Other
▁Mi
▁Ver
▁Wal
▁cap
▁educat
▁Prize
▁Long
▁chapter
▁investigation
▁exercise
▁St
▁9
▁website
▁From
▁Street
▁cris
ib
▁classical
▁gold
▁scroll
▁Ph
ble
▁double
▁shut
▁ingredient
▁Ken
▁Man
▁ride
▁prop
▁lift
▁His
Two
▁choice
▁Digital
▁infinite
▁capacity
▁limited
▁Museum
ium
▁inter
ative
▁contain
▁sphere
▁position
▁mapp
▁spacecraft
▁Moon
▁phase
▁sharing
▁engag
▁Co
▁crop
ank
▁determined
▁roads
▁cafeteria
▁Five
▁grand
▁gay
▁Stone
▁Latin
iv
▁privilege
▁fl
▁dozen
▁Centr
▁bus
▁treat
▁Sara
▁hate
▁baby
▁Cla
▁anti
▁dignit
▁serve
▁note
▁sil
▁television
spite
▁arc
▁afr
▁Th
▁floor
▁archive
▁sides
▁Ten
▁resolution
▁cutting
▁destructi
▁memor
▁task
▁local
▁Uganda
▁relative
▁detect
▁park
▁vulnerabl
up
uck
▁Facebook
▁Put
▁comet
dor
▁compare
▁organic
▁clouds
▁fracture
▁nation
▁forget
▁measurement
▁Was
▁lad
▁sight
zz
▁dune
▁scene
ari
▁wreck
▁More
▁hotte
▁extend
▁spot
▁limit
▁landscape
▁unlike
▁wound
▁existence
▁endeavor
▁delight
da
Tube
▁communication
▁Brita
1
▁Bu
▁communicat
▁Nel
▁Mandel
▁climate
▁carbon
▁reflect
fu
▁speech
▁meal
ging
▁professor
▁catastrophe
▁Lago
▁darkness
▁smok
▁bough
▁Up
▁expensive
▁disagree
▁extension
▁speaker
▁discour
▁k
▁grab
▁notion
▁projection
▁interaction
▁evolve
ick
▁hatch
▁clever
▁fuel
▁construct
▁vers
▁transport
▁dig
▁pal
▁invit
▁cave
▁thanks
▁R
▁politic
▁discussion
▁distribution
▁Supreme
▁Court
▁Absolute
no
▁ignore
▁religious
▁Beatbox
▁quant
▁unifie
▁Final
▁article
▁dangerous
▁icon
▁expert
▁shin
▁14
ake
▁boxe
▁tree
▁undern
▁favorite
▁filter
▁stone
▁th
Q
ably
▁Muslim
▁medium
ith
har
▁height
▁Dan
▁rocket
▁wheel
▁broad
▁Ge
▁radiation
▁calcul
viation
▁contract
▁Asia
▁larva
▁bird
▁breakthrough
▁private
witzer
▁vibration
▁detector
▁Pleas
▁react
gging
do
▁idiot
▁phrase
▁regard
▁interface
▁painting
▁pin
▁Video
▁Pa
erson
▁split
▁effective
▁300
▁table
▁unexpected
efore
ira
▁instant
▁Kid
ual
▁ideal
▁bug
▁wash
▁primitive
▁paid
gentleman
▁joy
ong
ho
▁Anyway
▁traged
▁California
▁negative
▁miserable
▁profile
▁proud
▁1990
▁Mart
▁Any
▁scared
▁disaster
▁September
ep
ami
▁transfer
▁Financ
▁courageous
▁escape
▁according
▁prosecut
▁Ala
▁jail
▁willing
▁ongoing
broad
▁receive
▁globe
▁invite
▁Sahara
▁140
▁priva
▁introduc
▁due
▁divers
▁construction
▁situation
▁bank
▁2000
▁election
▁plent
▁yoursel
▁Tanzania
▁session
▁hobby
▁Rwanda
▁Dutch
▁starv
▁US
▁blueprint
▁demand
▁brave
▁knock
▁credit
▁among
▁promise
▁virtual
▁regular
cur
▁tech
▁alert
cut
▁minus
▁iPhone
▁please
▁unit
▁Cam
▁slide
▁emotion
▁redefin
▁Ta
▁folks
▁li
pt
▁sister
▁angr
▁inner
app
▁violen
▁horizon
▁metaphor
▁captur
▁Manhattan
glo
MA
▁base
▁valley
▁below
▁tall
▁mothers
▁shoes
▁bunch
▁Thre
▁shirt
▁sick
▁male
burg
▁Virgin
▁belief
▁elder
▁mutilat
▁neighbor
▁fourth
▁pilot
▁optimistic
orrow
▁wing
▁vision
▁thin
▁bacteria
▁tight
▁dedicat
shine
house
▁grabb
▁Termina
▁Congress
▁snake
▁loud
▁Eric
udi
▁hearing
▁ho
▁citi
▁Danny
▁Holly
▁forgive
▁Chicago
▁file
12
▁ruin
▁Francisc
▁horizontal
▁accurate
▁visualization
▁devastat
▁fate
▁stands
▁render
▁models
▁graphic
▁comfortabl
E
O
▁Last
▁Vi
▁Service
▁Del
▁sample
▁decision
▁contrast
▁smartphone
▁lawyer
▁organiz
ack
▁bang
▁99
▁spiral
▁Gala
▁thick
▁molecule
▁gentl
▁drift
▁recogniz
▁river
▁pool
▁peak
▁channel
▁round
▁alter
▁emphasize
▁accent
▁emotional
▁converg
▁altitude
▁gentlem
▁dry
▁pole
tical
▁exot
▁England
▁stumbl
▁organism
▁precious
▁1960
▁Los
▁hook
▁absorb
▁narrative
we
▁urge
tor
▁passion
▁embrac
▁barel
▁broke
▁balance
istic
▁appreciate
▁survive
▁Russia
▁cosmo
▁nail
▁Creat
▁West
▁Vietnam
▁injur
▁organize
▁protest
▁24
▁blogg
▁climb
ating
▁vocabular
▁lifestyle
van
▁danger
▁east
▁Never
▁impression
▁identify
▁Chin
ff
▁Western
▁merc
▁engage
▁masse
and
▁empower
▁Walk
▁para
▁Word
asically
▁steal
▁compound
▁attempt
▁panic
▁biological
▁chunk
▁marine
▁weapon
▁figur
▁heavy
▁rush
aker
off
▁geometr
ether
▁leaving
▁fold
sis
▁external
ue
▁era
▁kit
▁lecture
▁deserve
▁Suppose
▁Peter
▁excellen
▁determine
▁loving
▁conviction
▁series
▁Would
▁butterfl
▁street
▁Darwin
▁evolution
▁spectacular
▁twin
▁explosion
▁scan
ular
fin
ically
▁unprecedented
▁error
▁bits
▁spa
▁ma
▁Red
nna
ches
▁transmit
▁useful
▁hop
▁bees
▁fabulous
▁smell
▁mechanism
▁frequenc
▁hidden
▁Venus
▁recommend
▁choos
▁Christian
▁killing
▁cognitive
▁psycholog
▁sacred
gel
▁cru
rising
▁Iraq
put
▁translation
▁Greek
ark
▁Which
▁refer
▁swing
▁Friday
▁nucle
▁rocks
▁engine
▁custom
und
▁Dick
▁hang
ino
▁stretch
▁Paris
H
▁Span
▁assign
right
▁whales
▁reverse
▁Ocean
imme
▁occur
▁colleague
▁soil
▁southern
▁aim
nia
▁involve
▁senior
▁laid
▁orange
▁method
ü
ford
▁microscop
▁Large
▁Colli
▁oxygen
hor
▁cylinder
▁pant
▁Good
▁batter
▁awful
nce
▁smile
▁realization
gra
▁Rather
▁Interesting
▁implement
▁remov
ped
▁Tri
▁desktop
▁modify
ram
▁lies
▁Mom
▁Real
▁responsibl
▁Sam
rous
▁ridiculous
ier
▁proof
night
ade
▁eager
book
lace
▁excuse
▁Late
▁punish
▁stoo
▁Unti
▁handle
bar
▁Sound
cha
▁gap
▁statement
iff
▁remote
matic
▁pencil
▁De
▁Italian
▁alcohol
▁King
▁Gra
port
▁dancer
▁slides
▁Whil
▁partnership
▁states
hu
▁president
▁leaders
▁elite
▁independent
▁trend
▁28
▁export
▁stole
▁liberal
▁prior
▁Washing
elecommunication
▁luxur
▁telecom
▁reputation
▁reserve
▁inflation
▁illustrate
▁agricultur
▁mineral
estate
over
▁neighborhood
orry
▁award
▁Think
▁household
adequate
▁careful
▁Jam
itz
▁journalist
▁gather
▁claim
▁vital
▁Jeff
▁Obama
▁Foundation
▁upload
▁veteran
cro
▁Hi
▁Ba
▁severe
▁noise
▁boundar
▁prestig
▁concert
▁hall
▁patient
▁disc
▁kick
▁nest
▁browser
▁Type
▁tap
▁Mac
▁freak
▁instruction
▁adopt
▁dictionar
▁Again
▁neat
▁highlight
▁drag
▁trick
▁City
▁Bronx
▁twist
▁whip
▁clock
Ex
plain
▁Tell
▁frustration
izing
▁holding
▁host
▁dear
▁swo
▁ill
▁names
▁rap
▁bust
▁envelope
verse
▁dispos
▁Histor
Planet
view
▁Matt
▁Lo
▁microwave
▁Voyage
▁Po
▁context
▁cow
▁farm
▁goat
▁abus
▁Teacher
▁excite
▁knife
af
▁rust
▁nurse
▁sneaker
▁vacuum
▁trade
▁orphan
▁stabilit
▁dawn
▁revolution
▁passionate
▁cat
ner
▁fell
▁knit
▁crush
ought
ique
arch
▁Michael
▁fierce
▁199
▁photographer
▁narrow
▁shout
▁copy
▁Asperg
tric
▁angel
▁Carl
▁Part
▁honey
▁expectation
▁pure
▁guide
▁80
▁gra
▁Audi
▁DP
DI
▁murder
▁gang
▁Alex
▁meaningful
▁Rememb
▁birthday
▁homes
▁activist
▁importan
▁metropoli
▁babi
▁shift
▁magnificent
▁date
▁disseminat
▁display
▁extract
▁texture
▁millimeter
▁preserve
▁earthquake
▁technologi
▁accelerate
▁Challenge
▁rapid
▁partner
▁School
ctor
▁fortunate
▁philosoph
ina
▁injustice
▁officer
▁criminal
▁Friend
▁volunteer
▁hell
▁Second
▁meditat
▁current
▁ambition
▁afford
▁politician
▁Live
▁Should
▁remove
▁buck
▁mal
▁voyage
▁myster
▁insight
bul
▁interconnected
▁coat
▁mountain
▁High
▁Ju
uous
▁linear
▁fault
▁demonstration
▁bump
▁geological
▁drain
what
▁lake
▁polar
▁diversit
▁threat
▁elevat
▁finding
▁tropic
▁plume
▁conclusion
▁implication
ference
▁Apollo
▁manifest
▁pond
▁Jacque
atur
▁textbook
▁Y
▁submersible
▁animation
▁leap
▁printer
▁Rome
truck
▁component
▁vent
▁fiber
▁tele
▁glimpse
grade
▁influence
▁lett
▁aspect
▁cop
▁comment
▁Give
▁limitation
▁Sudan
▁Pal
▁Swed
▁Prime
▁communi
▁instantaneous
▁campaign
▁win
▁defeat
imbabwe
▁Robert
press
▁vote
▁gender
▁mark
▁persuade
care
▁overwhelm
▁motivat
bla
▁campus
▁ob
▁apple
▁chocolate
▁conventional
▁norm
ural
▁dinner
▁pit
▁Year
▁embrace
▁referr
▁grown
▁quote
▁breast
▁drove
▁immigration
erial
▁killer
▁horribl
▁refugee
▁plane
val
▁stereotype
▁Congo
▁rob
▁consum
▁ambitio
▁confront
▁workshop
▁Tru
uthern
▁North
▁regain
▁quiet
▁mistake
K
▁Jean
▁195
▁traffic
▁obey
▁stupid
▁borrow
quat
▁electro
▁verb
▁editor
▁National
▁root
ibility
▁ignoran
▁creator
while
venge
▁wondered
▁substance
▁surviv
▁iPod
▁disconnect
▁Map
▁wow
▁architecture
▁worri
▁reflection
▁compete
▁input
▁efficient
▁garage
lf
R
▁suggestion
▁bat
▁photos
▁counterpart
▁valuable
▁defend
▁philosopher
▁dispute
ional
▁grant
▁Jack
▁whom
▁achievement
▁amuse
▁arbitrar
▁sports
▁status
▁mutual
▁tendenc
▁citizens
▁Mumb
ette
▁appropriate
▁Bill
▁TEDx
box
ris
ach
▁recycl
▁patch
▁Through
▁iron
▁gig
▁irre
▁micro
▁swarm
▁population
▁depict
▁benign
▁trigger
▁clue
▁relativ
▁inspiration
▁biologist
▁Dece
mber
▁footprint
wide
▁overall
car
▁chef
▁platform
▁signature
spect
dding
▁Plan
▁flip
▁tube
▁horse
▁fat
▁burn
▁weight
▁shepherd
00
halt
▁agnostic
▁homosexual
▁irrational
▁destructive
▁barrier
▁discuss
▁November
▁Adam
▁Gulf
bal
▁curriculum
▁Islamic
▁Age
▁explod
▁circula
▁limb
▁smoke
▁Sir
▁servant
▁Turk
▁seek
▁65
ek
▁Lu
▁Jer
▁Cra
▁yard
▁Siberia
▁auditorium
▁Apri
▁unbelievabl
▁Deep
▁shoot
▁provide
▁bone
▁counter
▁passenger
▁combine
▁1900
llo
▁consistent
▁frame
▁genome
▁peculiar
▁grid
▁replac
▁internal
▁naked
▁Cal
▁analyz
▁conference
▁observation
▁sequence
▁mysterious
▁transparent
▁rotat
▁volume
▁upside
▁hunt
▁fr
▁magnetic
▁shapes
▁craft
sha
unk
▁department
▁fac
▁coral
▁reef
▁keen
▁centimeter
fall
▁migration
▁Falcon
ura
▁colon
▁sustainabl
▁Israeli
▁areas
▁Monte
▁skill
▁practical
▁skills
▁mainstream
▁relevant
▁certificate
▁illitera
▁cabinet
▁puppet
▁Tele
▁Swi
▁Paul
▁patent
ö
▁pie
▁DARPA
agne
▁neutron
▁theoretical
▁fiddl
▁debri
▁surprising
▁observ
▁stamp
▁DNA
▁candidate
lium
▁stress
▁snapshot
▁deflect
▁Bra
▁billionaire
▁playful
▁punch
▁embarrass
▁disappoint
▁pair
▁loose
▁thigh
▁password
place
▁Van
▁vacation
▁marvel
▁subsequent
▁woke
bra
▁desk
▁spring
▁Smith
▁intuitive
▁seamless
▁mount
▁dial
▁updat
▁afternoon
▁Russ
▁Explor
▁PM
▁Pra
▁Open
▁resist
▁associat
▁Da
▁storytell
▁celebrate
▁infant
▁anxious
osi
▁justify
▁storyteller
▁Island
▁beach
▁dogs
▁useless
▁pleasure
▁happie
▁Learn
▁ski
▁tire
▁Play
▁fatigue
▁homework
▁contest
ndeed
▁sketch
▁crow
▁Young
▁utter
dom
▁hung
▁interpretation
ou
▁Du
▁oppress
▁Lego
▁plastic
▁cast
▁jealous
log
▁drama
▁blank
▁sheet
▁spouse
▁happi
▁driver
▁banker
▁arts
▁Korea
▁194
▁airport
▁puzzle
▁destin
▁cooperat
▁Economic
▁Commission
▁outrage
▁overwhelming
▁improv
▁recover
▁charit
▁bored
▁inefficient
▁enterprise
▁360
▁capita
▁wrap
▁volatil
▁salar
▁exchange
▁6
▁hous
▁mall
▁consol
surance
life
▁party
▁whi
gun
are
uction
▁boat
▁winning
▁Times
▁Edward
▁Snow
▁CIA
▁afterward
▁prosecutor
▁refus
▁spec
▁trial
▁droppe
together
▁hide
▁failing
▁trail
▁consent
▁Department
▁combin
▁circum
▁resistan
▁Pre
▁Post
▁contact
▁freedom
▁worker
▁warning
▁crime
▁suffer
▁violin
▁burden
▁comfort
▁rediscover
▁restore
▁heal
gie
▁Hall
▁Center
▁introduce
ng
▁tun
▁license
▁Hold
▁Shi
▁Black
▁switch
▁mail
▁database
▁select
▁exposure
▁anger
▁boom
▁knee
▁defining
▁Henr
▁tragic
▁teenager
▁burial
▁prepar
▁burst
▁mad
▁hanging
▁dude
▁worse
▁Wom
▁zip
▁epidemic
▁envision
▁behav
▁promote
liberation
▁Himalaya
▁maintain
▁production
ping
▁interactive
▁continuous
▁magni
▁trajector
▁encounter
▁Cambodia
▁controll
▁Saturday
▁Nepal
▁Tibet
▁clos
▁prepare
▁milk
▁sibling
▁deni
▁passage
▁transition
▁stigma
▁Rand
▁scholarship
▁blame
▁commitment
▁transformation
▁division
▁Eve
▁achiev
▁confident
▁Mov
▁lapse
▁marker
▁visualize
▁virus
▁22
▁riot
▁queen
▁cu
cle
▁chicken
▁Harv
▁silence
▁broadcast
▁entertain
▁Librar
ki
▁excerpt
▁syndrome
▁cockroach
▁pitch
▁Ben
▁quantit
▁exceed
▁bound
▁hero
dec
▁collection
▁voices
▁hir
▁selection
▁guilt
▁prince
▁shelter
▁hug
▁Get
▁romance
▁unimaginabl
▁resilienc
▁Israel
▁Johnson
▁manner
▁motivation
J
▁admire
hur
▁apologize
▁streets
▁mortal
▁fur
▁weekend
▁trust
▁grasp
▁endur
ament
▁member
▁laser
▁angle
▁coordinate
▁accura
▁Buddha
▁Ra
▁section
▁portion
▁terroris
▁accomplish
▁sustain
▁reconstruct
▁ceiling
▁van
▁participate
▁Scot
itch
▁defi
▁Life
▁inclin
▁Out
▁cycl
ennis
▁suit
▁Government
▁forgot
mark
▁Time
B
▁mindful
▁feedback
drew
▁bill
▁secure
▁seize
aging
▁target
▁cyber
▁civil
▁Modern
▁threaten
▁divide
▁Aid
W
▁origin
▁depth
▁establish
▁Milk
▁Way
▁concentrate
▁conduct
▁accompani
than
▁hill
▁Try
▁Lake
▁adventure
▁extensive
drop
ifying
▁tectonic
▁deploy
▁descend
▁tick
▁presentation
▁pan
▁ice
bble
▁sink
▁mud
▁equator
▁tenth
ode
▁Antarctic
▁examin
▁erupt
▁excess
▁gain
▁wood
▁author
▁description
▁heads
▁endless
▁doodl
cuba
▁certifi
CA
▁chose
▁merg
▁generat
▁sufficient
▁magical
og
▁optical
▁studio
▁Secret
▁hostile
▁explorer
bot
▁optic
ologist
▁fame
unch
▁synthesiz
▁calm
▁White
hall
▁awake
▁conscience
▁tank
▁vulture
▁hover
▁unlock
▁Social
▁Democrat
▁reply
▁William
▁Save
▁Austria
▁leaf
▁Albert
▁policy
▁slaver
▁appearance
▁agreement
▁120
wi
▁prepared
▁chain
keep
▁tackle
▁Gree
▁march
▁wrapp
▁healthie
met
▁arrive
▁truck
▁happiness
▁55
▁logo
▁tumor
oma
▁domestic
▁Car
▁assum
▁beast
▁Mexic
▁laughing
▁immers
▁Power
uri
▁Start
▁Nativ
▁colonial
▁Pol
▁breakfast
▁bread
▁insist
▁rape
▁depress
aka
▁prefer
▁procedure
▁Bob
▁court
▁renew
▁Far
▁repair
▁mechanical
ograph
▁native
▁Mc
▁pl
▁Japan
cast
▁duck
▁edit
▁Edi
MG
ulate
ump
▁initial
▁confusion
▁stronger
▁brown
▁plug
▁confirm
▁expression
▁dysfunction
hand
▁stem
och
gi
▁cure
bridge
▁thriv
▁struggle
▁suspend
▁ghost
▁State
secure
▁enlighten
▁funny
▁Febr
uary
▁unthink
▁addiction
▁windows
▁crack
▁perpetuat
iful
▁victim
▁relief
mine
pit
▁mapping
▁Rob
▁adapt
▁fish
▁anthropologist
▁modification
▁Pop
▁heavi
▁wake
▁adolescent
▁adolescence
▁worm
▁Love
▁psychological
▁legitimate
▁dealing
▁prosthetic
aday
▁Opera
▁Cameron
▁Gold
▁shipp
▁Christmas
▁encouraging
▁distribut
▁venture
▁match
▁moralit
▁inform
▁vot
▁disabilit
▁painful
ssociation
▁accommodat
▁Stay
▁Ar
▁Seven
▁wrestl
▁incident
▁premise
▁underly
▁virtue
▁outcome
▁stake
ath
▁abilit
▁athletic
long
▁recipe
▁shy
▁civic
▁coffee
▁repli
▁cheer
▁kiss
▁42
▁citizen
▁tackl
▁downtown
▁setting
huma
▁Australia
▁central
▁destination
▁flavor
ison
▁House
▁jazz
uke
▁ecosystem
▁simulat
▁trace
▁Star
▁synthesi
▁shake
▁bubble
▁variet
▁layer
back
▁marvelous
▁prospect
▁reduc
▁mindset
▁arise
▁Jo
lin
▁naive
▁compass
▁96
atter
▁entrepreneurs
▁obligation
▁employee
▁Bel
▁experienc
▁fraction
lock
▁fragil
▁beaut
▁extinct
▁signal
▁output
▁occupy
away
▁hypothetical
▁Will
▁crucial
▁conc
tion
▁cheese
▁org
▁Twitter
▁Tu
▁feat
▁hum
col
▁reproduction
▁symbio
▁adaptation
▁hummingbird
▁mo
▁transmitt
▁perceive
▁beetle
ula
set
ix
▁metaboliz
▁astonishing
▁43
▁44
screen
▁magazine
▁Know
▁logical
▁stack
▁Lord
▁shav
▁types
▁avoid
▁commit
▁cloth
▁wise
▁apartment
▁wage
▁Jew
▁inspiring
▁worldview
▁harmful
▁dismiss
▁candle
▁cake
▁Serious
▁sheep
▁tail
▁provok
▁reaction
promising
▁transcend
▁gorilla
▁comparison
▁Prince
▁infect
▁famine
▁core
▁disturbing
▁zone
▁France
▁pregnanc
▁schedule
▁neuron
▁activat
▁positive
F
▁grandparent
▁Could
▁Council
▁universal
▁journal
▁Roman
▁Education
▁lamp
▁exam
▁objective
▁training
▁resurrect
▁subconscious
▁temporar
cus
▁Hindu
gur
▁grape
▁concentration
▁numb
▁lump
ata
▁excavat
▁dust
▁wip
▁wipe
▁gigant
rizon
▁forest
▁crap
▁devote
▁Little
▁Sch
▁Dur
▁thrust
▁Sp
▁sophisticate
▁Blue
▁rip
▁flick
▁upset
▁encod
▁Steve
▁hopeful
▁gadget
▁install
structure
▁Electro
▁fuzz
vity
▁lever
path
▁Gene
▁psycho
▁spin
uite
▁El
▁radi
▁algebra
▁pyramid
▁summit
daily
▁reshap
▁Field
▁advance
▁uniform
▁Survey
▁location
▁plot
▁fad
shift
▁representation
▁labor
lus
▁26
▁framework
▁astronomical
▁processor
▁densit
▁Back
ground
▁upper
fire
ney
▁mini
obi
▁prize
▁Spa
▁inherent
▁sculpture
board
▁variable
▁tension
lov
▁Talk
▁scar
▁tie
▁guid
▁priorit
▁tunnel
▁length
▁Nothing
▁chao
spread
▁genuine
▁investigate
▁chore
▁island
▁replace
▁Keep
▁fashion
▁attitude
▁Wait
▁phenomeno
▁rigorous
▁trans
osh
▁drought
▁overhead
▁automatic
▁circuit
▁sensibl
▁northern
▁Nav
▁Fortun
▁cheek
▁annual
brew
erusal
▁vaccine
▁pneumo
▁ineffective
▁eradicat
▁drug
front
▁improvement
▁review
▁DVD
qualifie
▁combination
▁confiden
▁Mahat
▁Gandhi
mbo
▁leak
▁priest
▁guarantee
▁dentist
▁convenience
▁Lad
▁collapse
AC
DC
▁Half
ambia
▁nervous
▁backward
▁empty
▁scatter
bre
▁vo
▁wir
ä
ball
▁shop
▁statistical
▁pot
▁Mag
itte
▁George
▁accident
▁pirate
▁historic
▁98
▁indicat
▁derive
▁191
▁propos
▁Amazing
▁compell
▁nor
stream
▁calculation
ex
▁collid
AT
LA
U
▁magnet
▁exquisite
▁Margar
cher
▁surround
▁symmetr
tine
▁prostate
▁Stephen
▁Hawk
▁persuasi
▁announc
▁impressive
▁2020
▁capitalist
stone
▁committ
▁taxpayer
▁automat
▁Va
aggression
▁shit
▁fraud
▁imagin
▁tempt
▁temptation
ulation
▁sens
▁palm
▁newspaper
▁54
▁MIT
▁thorough
▁inflict
▁celebration
▁Stop
sense
huh
▁supermarket
▁violat
scope
▁Fra
▁masterpiece
▁nuts
▁mountains
▁boss
▁Michel
▁client
▁Wolf
▁Moz
▁branch
▁dragg
▁None
▁galler
▁Bas
▁amateur
▁convincing
▁Next
banish
▁guitar
▁club
roll
▁impulse
▁suppress
▁dictator
▁criticiz
▁evil
▁Student
▁creep
▁handwrit
vil
▁pragmatic
▁Sorry
▁multiple
▁legend
▁Gi
▁Korean
▁slip
▁constitution
▁immun
ature
▁tolerate
▁chalk
▁dictatorship
▁monitoring
▁upward
▁initiative
▁asset
▁grateful
▁chaotic
▁comprehensive
▁International
▁Fund
▁vice
▁Hav
▁telephone
▁bribe
▁32
SM
N
▁wireless
▁controvers
▁smooth
▁flu
▁GDP
culture
▁macro
▁solid
▁legislati
▁min
▁shopp
▁mortgage
▁wild
▁elephant
▁democratiz
EC
▁Darfur
CD
▁Business
▁Understand
▁dung
▁cord
sterda
SA
▁illegal
pping
▁catastrophic
15
▁federal
▁Sudden
▁electronic
▁convict
▁Sad
▁administration
mendment
▁Commun
mission
▁lu
▁Swa
▁Free
▁server
venue
▁alarm
▁dirt
▁Constitution
▁depression
▁despair
▁grave
▁midst
▁Carne
▁Kenn
▁church
▁restrict
▁brand
▁Rock
▁TEDster
▁gun
▁assume
▁calorie
▁Connecti
▁Texa
▁Control
▁typ
berry
▁punctuat
▁Leave
ogue
AA
▁terminal
▁currenc
▁convers
▁Watch
▁delete
▁Sh
▁snap
▁frustrat
▁congratulat
▁Technolog
▁Grow
▁superior
▁doubt
▁deconstruct
▁sleeve
▁guideline
▁bathroom
▁teenage
▁apolog
▁paralyz
▁coach
▁heroin
eopard
▁secre
▁pet
hold
▁proportion
bound
limited
▁Natural
▁registr
▁rebuild
▁Lin
ko
▁laptop
▁cafe
▁collaborative
▁Rub
▁exhibit
▁realm
▁exoplanet
tude
▁Carol
▁ingenious
▁Merc
▁Ghana
ghett
▁Columbia
▁lion
▁warrior
▁pubert
▁sweep
▁uncomfortabl
▁determin
▁undergo
▁courtyard
▁clitori
▁bleed
▁anesthesi
▁Oregon
▁jean
▁pave
▁attractive
▁uncle
▁dictat
▁Lyn
▁chief
▁genital
▁graduat
▁pregnan
▁criteri
▁Shar
children
▁peaceful
▁nano
▁silk
▁strain
▁Record
▁Guy
▁hallway
▁clar
▁Traditional
▁intimate
▁animat
▁obsession
▁cope
▁stomach
▁scream
▁judge
▁sweet
▁fantas
▁acknowledge
▁advertisement
▁genero
▁town
▁gathering
▁bias
▁Brookl
▁dump
▁kitchen
▁romantic
ggle
▁Slow
▁Hope
▁motivate
▁lady
▁miracle
▁Four
▁regret
▁audio
▁retirement
▁homeless
▁psychiatrist
▁diagnos
▁anniversar
▁tower
▁visceral
▁fleet
tial
▁Help
▁Inter
▁stranger
ogether
skirt
gua
▁Bay
▁scanner
▁paradigm
▁capture
App
xi
▁Taliban
▁Archi
▁Chi
▁Babylon
▁Ross
▁deliver
▁conserv
▁researcher
▁manipulation
▁architectural
▁narrat
▁phenomena
ado
▁urban
▁sprawl
▁acid
▁Luck
▁pace
▁UN
▁March
▁treasure
▁curtain
▁Conservati
▁visionar
▁inherit
▁educate
▁Canadian
▁hurricane
▁valu
icular
▁activit
crim
▁Normal
▁Obvious
▁Terr
▁initiat
▁classe
▁convert
▁Book
▁Kir
▁preach
▁cooperate
▁complain
▁griev
▁draft
16
▁legal
▁Federal
▁Invest
▁owner
▁hack
OS
▁sold
▁consumer
▁manufacturer
▁suspicious
disproportionate
▁gaze
securit
▁democrac
▁Spring
▁members
▁ensure
▁Mark
berg
half
▁Christopher
▁Band
▁Skyp
▁girlfriend
▁terrifying
▁stepp
▁Plu
▁former
▁interpla
▁glide
▁composite
▁unexplo
▁terrain
▁intrigu
▁molecular
▁nitrogen
▁ubiquitous
▁condens
▁circumstance
▁350
▁zero
▁carve
▁Michigan
▁parade
ambiguous
▁Sea
▁geographical
▁rival
▁active
▁composition
▁stagger
coherent
▁protection
▁Shakespeare
▁divid
▁annoy
▁diet
▁satisfie
ati
▁frog
▁geek
▁dar
▁Canad
▁interven
▁shallow
▁Nature
▁affair
▁reconcile
▁comic
▁Clark
▁cinema
▁premi
▁competitive
motive
▁shelve
▁epic
▁Atlant
▁preparation
▁capsule
▁hydro
thermal
▁interior
▁deck
▁corridor
▁operat
plica
▁avatar
▁inject
▁chemo
esis
▁advis
▁biomedic
▁protocol
▁director
▁captain
▁damn
▁Mad
▁glory
▁thrill
▁combat
▁territor
▁Pan
▁filmmaker
▁Ki
han
▁Ethiopia
▁Square
▁Iranian
▁sympath
▁dut
▁command
▁frontier
▁slave
force
▁Philippi
▁regime
▁monk
▁blog
▁Te
▁welfare
▁racis
▁discriminat
▁sexualit
▁singer
▁summarize
▁racial
▁Climate
▁scandal
openha
▁agenda
▁transferr
▁Iceland
▁prosper
▁tuberc
ulosi
▁sadness
▁import
▁unnecessar
▁genocide
▁sport
▁tortur
▁Nation
itarian
idden
▁bind
▁appreciat
▁reconnect
load
▁supply
▁humbl
▁Peace
▁Amazon
▁uncertain
▁illustration
▁perception
▁stir
▁uninten
▁administrator
▁Fin
▁Their
▁confuse
▁official
▁tribal
▁Maria
▁patron
▁Namibia
▁announcement
▁sail
▁Sub
nonymous
▁flee
▁sneak
ada
▁marketplace
▁immigrant
▁dependent
arrow
▁Psycho
▁mild
▁representative
▁Stein
▁unhapp
laughter
▁cousin
▁jam
▁ratio
▁invad
▁overlook
▁incomplete
▁horrific
▁vacan
work
▁Short
▁char
▁readers
▁Yo
▁Fe
▁Mar
▁passport
▁innovative
▁infrastructure
▁thrive
▁helpful
▁interfere
▁semester
▁anticipate
▁dictionarie
▁unconscious
▁Exact
▁Bost
▁Berk
ivity
▁delicio
worm
▁lunch
▁motor
▁Ed
▁execut
▁functional
racing
born
form
▁valid
▁navigat
▁anxiet
▁hopeless
▁retrospect
pe
▁Cor
▁atheist
▁Catholic
▁anomal
▁replicat
read
▁steer
▁shooting
▁biolog
▁Norwegian
▁160
▁Strange
▁revelation
▁esteem
▁therapist
▁couch
▁cheat
▁inhabit
▁judgment
▁authorit
▁therap
▁brutal
▁psychopath
▁surge
▁insane
▁inevitabl
▁Simpl
▁Na
▁Mill
▁supplie
▁geo
▁cod
▁logistic
bel
▁trillion
▁Bridge
▁Senegal
▁computational
▁victor
▁invitation
lcome
▁Homo
▁sapien
▁pound
▁yester
▁compress
▁whisper
▁digg
▁Luc
▁assembl
▁intimac
▁simultaneous
▁addict
▁technological
▁geograph
▁educator
▁awesome
quatic
▁laborator
▁aqua
▁Scientist
hill
▁robb
▁intention
▁makers
▁prototyp
▁manufactur
Tech
▁penguin
&
▁DIY
▁participat
▁desperate
▁ideological
▁bonus
▁bail
▁affirm
▁articulat
▁Athen
▁Accord
▁lotter
▁byproduct
▁trivial
▁circulat
▁Profess
▁permission
▁disabl
▁decid
▁Rais
▁Nick
▁ruling
▁Steven
▁distinguish
▁productive
▁delicate
▁athlete
▁grappl
minent
▁underlie
▁opponent
▁coerc
▁pioneer
▁Beij
▁Massac
ett
▁Cat
▁posture
▁portrait
▁crab
▁Add
▁salt
▁junior
wear
▁scheme
▁monkey
▁socio
economic
▁cash
▁seed
▁classic
▁assure
▁applaud
izzy
▁hub
▁pursuit
▁enabl
▁drum
▁pad
▁Sydney
▁Jefferson
like
▁astronom
▁Monday
▁parachute
▁cent
▁supernova
▁fusion
ilicon
▁subtract
▁speculat
▁spatial
▁imprison
otto
▁believ
▁chemistr
▁geometric
▁kilogram
▁implant
▁greenhouse
▁extinction
tech
atic
▁terror
▁unacceptabl
▁grain
▁absurd
▁application
▁II
▁poster
▁premature
▁Joe
▁Equ
wash
▁harness
▁optimal
▁Joseph
environmentalist
▁academic
pend
▁evolutionar
▁vapor
▁unfold
▁emergenc
▁January
▁striking
▁tribute
▁cartoon
▁plaque
▁sterile
scape
▁gradual
▁volcan
▁trauma
▁wax
▁vegetati
oxide
▁intense
▁emitt
▁radar
▁transmission
▁spike
▁induc
▁biosphere
▁stabiliz
▁spawn
makers
vin
ridge
oc
▁oven
▁purpl
▁Girl
▁46
ventual
▁headquarter
▁unveil
▁silver
▁obstacle
77
AG
▁dog
▁hurt
▁reproduce
▁Evolution
▁fever
▁nose
▁grass
▁cereal
▁strip
▁load
▁jaw
▁crawl
▁tricks
▁erect
▁kingdom
▁aggressive
▁perfume
▁array
▁nast
▁release
▁boil
▁trapp
▁container
▁drink
▁Brazil
▁mammal
▁burning
▁unusual
▁thermo
regulat
ropical
▁shad
▁attach
▁pr
rway
▁fertil
▁gut
▁tipp
▁topic
▁pig
our
▁radical
▁psychologist
▁poke
▁quest
▁Asian
▁Kev
▁Kelly
▁Living
▁Olive
▁Garden
▁hip
▁multiply
▁Levi
▁poly
▁cotton
▁grip
▁gossip
▁pretend
▁Pro
ali
▁intent
▁Wikipedia
▁relax
ocation
▁menstrua
fensive
▁gym
▁gorgeous
▁prayer
▁Third
hov
▁varie
▁Jim
▁Tony
▁Camp
▁separat
▁wool
▁tax
▁rent
▁bush
▁wi
▁Haiti
▁survivor
▁Holo
caust
▁teache
▁cruel
▁horrify
urg
▁Further
▁responsibilit
▁Katrina
▁Personal
▁Moor
▁haunt
▁index
uestion
▁rehabilitat
▁Dubai
▁holiday
▁garden
▁cosmetic
▁recruit
▁wealth
▁morph
▁beneficia
▁domain
gon
▁pursue
▁satisfy
▁segment
▁fulfill
▁requirement
▁shoulder
TO
FL
▁prohibit
▁headline
▁differentiate
▁nei
▁achieve
NN
▁Mind
▁consist
▁Elizabeth
▁translator
▁Abraham
▁Christ
▁Islam
saw
gram
ility
▁heartbreak
▁ears
ompassion
▁dissolv
▁exten
▁differ
▁Mala
▁singular
▁physiolog
▁clay
▁embodie
▁steward
▁verge
word
▁bullet
▁Col
▁scoop
▁Ever
lash
▁Penn
lvani
▁atmospher
▁recreat
▁blast
▁ecological
▁millenni
▁row
▁Science
▁May
pocalyp
▁stadium
▁kidney
▁disguise
▁timing
▁millisecond
▁prove
cho
BA
▁glove
▁reference
▁Research
▁Institute
▁weigh
▁tumbl
▁Che
▁generate
▁gentle
▁Brother
▁rat
▁grocer
▁hungr
xcept
▁damag
▁flesh
▁peel
▁pedestrian
▁nerve
▁exhaust
feld
▁comedian
▁innovator
▁Job
▁fixed
▁neuroscience
▁algorithm
▁anchor
▁concrete
▁optimiz
▁investor
▁shoe
▁dumb
▁Orchestra
▁stall
▁ugl
iness
▁flourish
▁taste
iddle
▁Eastern
▁route
▁eternal
▁im
▁refuse
▁38
▁potato
▁48
▁chromosome
convenient
▁continual
▁wavelength
▁chemist
▁bla
▁Light
ight
▁Radio
▁Thom
stein
▁improvisation
▁Mathematic
▁inexpensive
▁arithmetic
ulu
▁gambl
▁trends
▁discrete
▁uncertaint
▁summar
▁Jupiter
▁exaggerat
▁CO
▁Sky
▁rotate
▁Notice
▁par
▁node
▁occasional
▁intricate
▁assemble
▁flipp
▁sharp
▁plate
▁hint
▁habitat
kyo
▁Miss
▁toast
▁manifestation
▁vary
▁iceberg
▁dramatic
▁Indonesia
▁Nicole
BC
▁Nair
▁Colombia
▁Similar
▁Fil
▁Project
▁Common
▁disparate
▁scholar
▁convention
ome
▁Hurricane
▁offshor
▁historical
▁compil
▁behavioral
▁nuance
▁collaborate
13
▁Mil
▁Mean
▁sculpt
▁embed
atrix
▁assumption
▁alternative
▁entry
▁presum
▁Thursday
▁selective
▁Twenty
▁plunge
tangible
▁Design
case
▁Societ
▁balanc
▁Australian
▁instinct
▁surrender
▁tag
▁admitted
▁orientation
▁brillian
▁kindergarten
▁critical
▁neglect
▁abuse
▁backyard
▁Cap
▁investigat
▁dolphin
▁whale
▁moist
▁Wa
▁Pacific
▁wander
▁mediocr
▁endanger
▁Human
▁stream
▁Down
▁bicycle
▁scratch
▁fisher
▁vessel
▁withdraw
▁Kar
utheast
▁Summer
▁evaporat
ection
▁River
▁latitude
▁strike
lude
▁migrat
+
▁prevalent
▁beside
▁waist
▁Six
▁diabet
▁stat
▁puff
▁fluorescent
▁tune
▁reflectiv
▁opposition
▁reframe
▁entrepreneur
▁enthusiastic
▁patriot
▁cute
▁confess
▁soldier
▁hatred
▁friendship
found
▁archaeolog
▁joint
rthodox
▁Northern
▁admit
▁optimis
▁lifespan
▁reduction
▁phenomenal
▁measl
▁diarrhea
▁Death
▁1930
▁ironic
▁eliminat
▁temper
▁paradox
▁indoor
▁spray
▁parasite
▁shrink
▁reduce
▁visi
▁generous
▁biotechnolog
▁stunn
▁minorit
▁complet
▁retain
▁characteristic
▁pension
▁replicate
▁fifth
▁principal
▁fool
▁Matthew
▁Nic
▁stimul
▁Senat
▁diploma
▁champion
▁hunger
▁Mother
▁identifi
▁competenc
▁bruise
▁Kh
▁Architect
▁Forget
▁Clear
proof
▁kilo
▁panel
▁Food
▁teeth
▁Democracy
▁monitor
ueen
▁percentage
upp
▁donor
▁friction
▁Sha
▁decentraliz
▁Bhutan
▁Men
▁chat
▁sum
ult
▁tiger
▁quo
▁profession
▁fascinat
▁sensation
▁recall
▁grim
▁suicide
▁Norman
▁blink
▁blunt
▁swallow
▁erase
▁rational
▁rubb
▁juice
▁pose
▁thunder
▁barrel
▁poem
▁intact
can
▁pipeline
▁relate
▁Leonard
▁manuscript
▁Listen
▁performer
▁reconciliation
▁psyche
▁hurry
ux
posed
▁clap
▁economical
▁canvas
▁skeptical
▁Bern
▁Reg
zi
gli
▁systematic
▁Ni
▁Saint
▁unclear
▁plain
▁spare
▁analys
▁Kan
sky
▁arrang
▁categor
▁practic
▁discipline
▁embark
rus
▁Vinc
craft
▁arrangement
▁cup
ret
pp
▁pixel
▁pile
▁flag
▁proposal
▁Un
▁navigate
▁Yet
▁sensor
▁highway
▁Mountain
▁stunt
▁Sebastia
▁gallon
oline
▁raising
▁bridge
▁strateg
▁Microsoft
PA
TA
▁quantitative
▁propose
▁Picture
▁analyze
▁retail
▁corn
▁wheat
acco
▁theater
▁Neanderthal
▁Lab
▁harm
▁lobby
▁inquir
▁addition
▁glow
▁pervasive
▁resolve
▁93
▁popp
▁screaming
▁swim
▁swimm
▁Number
▁192
▁Park
▁irrelevan
point
▁equip
▁pursu
▁Super
▁trie
▁entit
▁rub
▁precis
▁Ya
▁Consider
horn
▁CE
RN
▁mechanic
▁package
▁85
▁diameter
▁electrical
▁melt
▁pour
▁thumb
▁insult
ealand
▁bottle
▁champ
▁glad
cientific
▁Davi
▁froze
▁exponential
▁fuse
▁Sa
▁Craig
▁Ven
▁elegant
▁tea
▁mode
▁mari
▁sugar
▁coca
▁chronic
▁wrinkle
diac
▁progression
▁inhibit
▁Health
▁attack
▁gene
▁promot
▁23
position
▁approximate
▁emit
▁concentrat
▁wider
▁identical
▁velocit
▁blob
ception
▁devise
▁wine
▁illusion
▁correspond
▁decrease
ories
▁crystal
▁collaborator
▁Min
▁gamma
▁youth
▁instinctive
▁Bush
▁doctrine
▁Oo
▁shak
▁missile
▁Force
▁till
▁retreat
▁Land
tenance
▁abandon
▁overlap
▁Computer
▁Pri
▁resort
▁critic
tan
rid
▁Gore
▁commerc
zo
onic
▁parallel
▁NA
ough
▁mammoth
▁dispers
▁skeleton
▁ancestor
▁conquer
▁modifi
▁Rena
▁plac
▁conceptual
▁necessit
▁exclusive
▁plea
▁flexibl
▁Victorian
▁Charles
abbage
▁analytic
▁programmer
ov
▁rubber
space
