<pad>
<unk>
<s>
<\s>
▁,
▁.
▁the
▁
s
▁to
'
▁"
▁of
▁a
▁and
▁that
▁I
y
▁in
▁s
ed
▁it
▁you
▁is
ing
▁we
▁And
ly
▁this
▁was
▁t
▁be
n
▁on
▁—
▁have
▁for
▁are
▁?
▁can
▁with
▁So
▁The
▁what
▁my
d
▁an
▁as
▁at
▁about
▁there
▁all
▁not
(
▁)
▁see
-
▁one
m
▁It
▁like
▁fro
▁so
▁But
▁re
▁do
▁but
▁our
▁me
r
▁people
▁just
very
▁had
e
▁us
▁these
▁know
▁out
▁up
▁when
▁We
▁:
▁by
▁would
▁here
▁if
▁he
▁look
▁who
▁or
▁m
▁You
▁because
▁them
▁time
ies
▁some
▁were
▁Laughte
▁did
▁more
▁Thi
▁which
▁how
▁your
en
▁want
▁every
▁think
▁get
▁years
▁go
ause
▁world
▁ve
▁going
▁really
▁say
▁could
▁other
▁has
▁into
aid
▁things
▁take
▁will
hose
▁way
▁actual
▁Now
▁don
▁right
▁their
▁make
▁much
▁first
▁now
▁something
▁no
▁thing
▁back
▁What
▁come
▁start
▁call
▁Appl
es
▁than
▁where
▁ll
around
▁any
▁That
▁two
er
▁down
▁little
▁got
▁over
▁kind
▁In
▁change
▁life
▁galax
▁need
▁does
▁space
▁work
▁He
▁many
▁she
▁universe
▁even
▁There
▁his
▁great
▁lot
lso
▁most
▁day
▁show
t
▁matter
▁through
▁year
▁being
▁d
▁human
▁school
▁story
▁talk
▁picture
▁new
▁different
one
▁put
other
▁Well
▁good
▁Thank
▁him
▁If
▁tell
▁thought
▁light
▁should
▁doing
went
▁made
▁problem
;
▁long
▁idea
▁before
▁ever
▁same
▁A
▁ask
▁why
▁few
▁well
▁came
▁create
▁three
▁happen
▁part
▁ago
▁learn
▁use
▁together
▁million
st
▁might
▁place
self
▁Earth
▁love
day
▁her
▁kid
▁big
▁fact
w
▁OK
▁next
across
▁try
▁image
▁000
thing
▁dark
▁Africa
▁after
▁important
▁again
▁dimension
▁point
▁system
ves
▁billion
▁India
▁Bec
▁never
▁self
▁off
ness
▁end
▁help
▁small
▁When
▁e
each
▁course
▁second
▁mean
▁bit
▁let
▁best
▁able
7
▁question
▁girl
▁turn
▁give
▁high
▁become
ther
▁My
▁teacher
▁better
▁own
▁How
▁Wh
▁four
on
able
▁stars
▁particle
▁English
▁found
▁reason
▁done
ity
▁global
▁planet
▁number
h
▁She
▁whole
▁find
▁sort
▁play
▁old
▁men
ic
▁too
▁example
▁away
▁form
▁large
▁last
▁later
out
!
le
▁fly
tween
▁imagine
▁One
▁No
▁means
▁percent
▁wom
▁science
▁energ
▁words
▁stories
▁real
ything
▁hard
ld
body
▁al
l
▁sense
▁still
▁believe
▁read
▁guy
olar
alway
▁woman
est
▁liv
▁man
▁language
aybe
a
▁10
quite
▁S
▁word
▁understand
▁room
▁village
▁seem
▁else
ok
ever
▁simple
▁name
▁am
▁20
▁art
▁U
▁w
▁water
▁bring
▁month
nough
▁single
ory
▁live
▁job
▁moment
▁design
▁future
▁interesting
▁Her
▁All
▁may
▁For
▁golf
▁book
▁God
▁data
▁education
▁walk
▁left
▁mak
▁technology
▁surface
most
came
▁country
▁As
▁probabl
▁structure
▁close
▁realize
▁discover
▁200
▁home
▁money
▁famil
▁five
▁answer
▁force
▁artist
▁far
▁wonderful
▁experience
▁nature
▁feel
▁kne
▁Let
▁countr
▁government
▁decided
▁power
▁These
▁thousand
▁person
▁sometime
▁father
▁African
▁under
▁half
▁ocean
▁dragonfl
▁remember
▁getting
▁questions
▁un
▁student
▁saw
▁music
ce
▁children
▁American
▁pattern
▁buil
▁young
▁Titan
▁phone
▁C
▁write
▁death
▁hundred
msel
▁makes
in
▁inside
▁opportunit
▁set
▁mother
▁America
▁interview
▁times
▁beautiful
▁happens
▁computer
▁hav
such
▁color
▁develop
▁centur
▁hit
▁possibl
▁study
where
▁50
▁less
▁scale
▁prett
▁product
▁plant
▁hand
▁complete
▁mind
▁must
▁poor
▁unti
▁car
▁move
▁insect
▁act
▁piece
▁amazing
▁result
▁speak
▁effect
▁recent
▁news
▁box
ion
▁absolute
▁top
▁100
▁Bible
▁while
▁middle
▁mov
▁full
▁size
▁b
▁challenge
▁week
▁flute
▁extra
▁yet
▁open
▁game
▁thinking
once
▁morning
us
▁fun
▁fast
▁Every
▁share
▁hear
▁listen
▁exist
▁follow
▁orbit
▁gravit
▁Have
▁dollar
▁stop
▁ra
▁movie
▁night
▁heard
▁works
▁oursel
▁minute
▁nothing
▁travel
▁coming
▁allow
▁Do
▁six
▁sun
▁moon
▁Einstein
▁monsoon
▁draw
▁Or
rought
▁sure
th
not
▁outside
▁Just
▁case
▁entire
▁lives
▁prison
▁stay
▁notice
▁figure
▁college
▁cause
▁physic
▁Yes
▁run
felt
▁test
▁line
▁pass
▁front
al
▁build
▁whe
▁business
▁12
giving
▁stuff
▁1
▁known
▁wrong
▁di
▁beginning
▁air
▁land
▁rain
▁deep
▁miles
▁order
▁string
▁digital
▁saying
▁information
▁Yea
▁2
▁B
rhaps
▁On
▁Some
▁state
▁histor
▁happening
▁along
▁grow
▁project
ware
▁eye
▁process
▁sex
▁bad
▁map
▁Story
Corps
o
▁detail
um
▁mass
▁speed
▁cluster
▁physical
▁object
▁flight
▁head
▁particular
▁writing
rote
▁essential
alone
▁hour
▁face
▁leas
▁couple
▁age
▁drive
▁T
▁difference
▁journey
▁movement
▁Sun
▁invisibl
▁cart
▁tin
▁lost
▁exact
▁forward
▁house
▁boy
▁term
▁friends
▁People
▁won
▁leave
▁market
gan
0
▁material
▁son
▁produce
▁generation
▁region
▁Maldiv
▁begin
pent
▁device
▁source
▁final
▁met
▁explain
▁group
▁gone
▁major
▁craz
▁New
▁rich
itting
▁care
▁lead
▁rule
▁flower
▁expand
▁certain
▁pick
ten
▁body
▁thank
▁Saturn
▁environment
▁aware
▁past
▁sound
▁period
▁sudden
▁working
▁gre
▁camera
▁weather
▁paper
▁parents
▁true
▁An
early
▁friend
▁element
▁fight
▁Our
eady
▁often
▁40
▁After
▁modern
▁short
▁Not
▁stand
▁impact
▁video
▁near
stead
▁somebody
▁machine
▁difficult
▁books
▁engineer
▁blue
▁solve
▁scientist
▁MS
▁compassion
oka
▁Oka
▁gav
▁eight
▁basically
▁watch
credible
▁train
▁born
▁step
▁film
▁alr
▁communit
▁public
5
▁To
▁sent
▁continent
▁By
ment
▁rate
▁3
▁since
▁perfect
▁disease
▁describe
▁record
▁though
▁cry
▁ground
▁player
▁NASA
▁Bang
▁electron
▁chance
▁J
▁realit
▁experiment
▁easy
▁measure
ish
▁asteroid
▁kilometer
▁speci
▁pe
▁polle
▁purpose
▁letter
▁star
less
▁interest
taking
▁dad
▁continue
▁M
▁keep
▁black
▁robot
▁stage
▁anyway
▁audience
▁Nigeria
▁econom
▁500
▁huge
▁bigge
▁K
▁turns
▁soft
▁availab
▁key
▁teaching
▁obvious
▁husband
▁toward
▁dur
▁ways
▁powerful
▁creation
▁Apple
▁brain
▁moral
▁invent
▁worth
▁marriage
▁mathematic
▁rest
bility
▁natural
▁argument
▁easi
▁interact
▁literal
▁wall
▁hands
▁send
▁Take
▁aren
▁famous
▁Right
▁rock
▁telling
▁teach
▁save
▁15
▁benefit
ation
▁11
▁deal
▁focus
▁Go
▁voice
▁social
▁grandmother
▁yes
▁view
▁equal
▁atmosphere
▁Big
▁add
▁white
▁given
▁animal
▁eyes
▁Indian
▁Arab
▁19
▁temperature
▁degree
▁probe
▁bas
▁gravitational
▁screw
▁ray
▁raise
▁sign
▁airplane
▁supposed
▁wait
company
▁die
▁Don
▁novel
▁spend
▁happ
▁Europe
▁support
▁proper
▁side
ers
wise
▁institution
▁30
▁Oh
▁yea
▁oil
▁service
▁Can
▁soon
▁above
▁fine
▁creative
▁reach
▁securit
▁risk
▁First
is
▁tools
ni
▁perspective
▁honor
▁societ
▁definition
▁extreme
▁strong
wife
▁building
ally
▁relationship
▁amount
▁equation
▁quick
▁humanit
▁path
▁photograph
▁red
▁danc
▁cell
▁cover
▁incredibly
▁O
▁justice
▁Maybe
▁field
▁scientific
▁genes
▁character
▁laws
▁atom
▁telescope
▁dimensional
▁damage
▁Higgs
▁tri
▁ordinar
▁conversation
▁both
▁issue
▁enormous
▁learning
$
▁hold
▁Most
▁Art
▁Al
▁strange
▁Of
▁sentence
▁writer
▁gift
▁class
▁slow
▁Who
8
▁manage
▁Nigerian
▁nobod
▁except
▁de
▁fair
▁late
▁health
▁meant
▁Music
▁At
▁L
▁Audience
▁city
▁cool
▁door
▁simpl
▁wisdom
▁Cassi
▁network
▁forth
▁wear
▁remind
▁tradition
ond
▁With
L
▁SL
▁join
▁recognize
▁return
▁model
hind
▁choose
▁attention
▁Unit
▁instrument
▁faith
▁E
▁sky
▁wind
▁fresh
▁warp
▁text
▁lose
▁feeling
▁hope
▁yourself
▁address
▁carry
▁touch
▁nice
▁dance
▁alien
land
▁connected
▁tough
▁pressure
▁wish
▁bar
▁Internet
▁special
▁heart
▁York
▁master
▁visit
▁program
▁pull
▁seven
▁remarkabl
▁performance
i
▁necessar
▁impossibl
▁media
▁protect
▁list
▁constant
▁successful
▁marrie
▁waste
▁haven
▁define
▁type
▁calculate
▁value
▁boys
▁solution
[
]
▁basi
▁flow
▁radio
▁cook
▁food
▁version
▁Mary
▁team
▁Brit
▁concept
▁driv
▁specific
▁fundamental
▁inspire
▁distance
▁activity
▁musical
▁breed
▁ego
▁complicated
▁curve
▁copyright
▁safe
▁account
▁immediate
▁event
▁putt
▁professional
▁TV
▁parent
▁Where
▁meet
▁connection
▁enjoy
▁drawing
▁Look
▁shows
▁Like
▁60
▁center
▁malaria
▁conflict
▁ran
▁corrupti
refore
ton
▁average
▁economic
▁growth
▁25
▁affect
▁fee
▁sounds
▁press
▁original
▁store
▁total
▁free
▁familiar
▁Android
▁P
upon
aught
▁weak
▁stick
▁16
▁function
▁evolved
▁satellite
▁main
▁visibl
▁several
▁mission
ful
▁child
▁law
▁war
▁respect
▁potential
▁communicate
D
▁industr
▁clearly
▁reading
▁minds
▁customer
▁States
▁rough
▁south
▁level
▁creature
▁push
▁Russian
▁common
▁eventual
▁translate
▁roommate
lly
▁ultra
▁Aristot
▁Charli
▁serious
▁southwest
▁block
▁expansion
▁commercial
▁predict
ectar
▁extraordinar
▁Mario
▁square
▁shape
▁score
é
▁rains
▁Bare
foot
ty
▁TED
▁exploration
ry
▁designer
▁track
▁understanding
▁Chris
▁fantastic
9
▁Be
▁lesson
▁mom
▁Did
▁wave
▁militar
▁mental
▁appear
▁smart
▁Mr
▁London
▁World
▁sub
▁launch
▁count
▁per
▁present
▁various
▁buy
standing
▁Rise
▁nuclea
urveillance
special
▁consider
▁tool
though
▁require
▁precise
▁fit
cy
▁foundation
▁control
▁user
▁collect
▁police
man
▁factor
▁finish
▁circle
▁carrie
▁spoke
▁Amy
▁strength
▁cloud
▁personal
▁zoom
▁conscious
▁prevent
▁minister
Z
▁sticker
online
▁En
cela
dus
▁liquid
▁fascinating
▁meaning
▁international
▁German
▁season
▁loop
▁religion
’
▁road
▁Actua
▁physicist
▁statistic
▁programm
▁variation
▁fluctuation
▁tidy
▁Kal
uza
▁electromagnetic
▁agree
▁childhood
▁guess
▁search
▁earlie
▁connect
▁cost
▁subject
▁indeed
older
▁non
▁bed
▁litera
ture
▁mine
▁kill
▁G
▁Sometime
▁excited
▁disappear
▁90
▁content
▁chang
▁charge
▁truth
ance
▁clear
▁reform
▁21
▁sector
▁income
▁slight
▁pay
▁decade
▁imagination
▁odd
volved
▁intelligence
▁national
▁access
▁recognition
▁web
▁jump
▁message
▁Google
▁click
▁propert
▁responsibility
▁brother
▁expect
▁separate
▁Universit
▁graduate
▁W
▁classroom
▁eat
▁sat
an
▁13
▁decades
▁qualit
▁hat
▁knowledge
▁spirit
▁traditional
▁foot
▁site
▁race
▁visual
▁prisoner
▁feature
▁cosm
▁remain
▁crater
▁ring
▁fiction
▁math
▁advance
▁dot
▁War
▁represent
▁fail
▁debate
▁immense
▁grammar
▁genetic
elve
▁further
▁D
▁warm
▁Mars
▁bottom
▁birds
▁wide
▁prophet
▁evidence
X
▁cycle
▁unknown
▁northeast
▁mosquito
▁Are
▁wonder
▁ticket
▁motion
▁board
▁microphone
▁plann
▁compar
▁5
▁theme
more
▁universit
▁song
▁actor
▁rare
▁unfortunate
▁Come
▁transform
▁magic
▁drugs
▁photo
▁AIDS
rey
▁occurr
▁resource
▁success
▁President
▁investment
▁development
▁exciting
▁creat
▁miss
▁explore
▁N
▁encrypt
▁hospital
▁mention
▁culture
▁sit
▁tip
▁fear
▁collective
▁straight
▁stopp
▁window
▁card
▁doctor
▁tremendous
▁concern
▁nine
▁roll
▁bend
▁background
▁edge
▁default
▁ceremon
held
▁cut
▁stroke
▁female
▁tape
▁Over
▁recording
▁Josh
▁argue
▁spectrum
▁tru
▁fruit
▁possibilit
▁civilization
▁Afghani
stan
▁significant
ither
▁polic
▁correct
▁normal
▁prime
▁compassionate
▁400
▁pray
▁low
▁summer
4
▁offer
▁Hubb
▁Space
▁fall
▁apart
▁fle
▁heat
how
water
▁career
▁Titanic
▁technical
▁fan
▁principle
▁innovation
▁opinion
▁net
▁skin
▁popular
▁publish
▁green
▁progress
▁ritual
▁loss
▁random
▁Case
▁mimic
▁hot
▁embedded
▁eggs
violet
▁Jesu
▁198
▁filament
HC
▁orbital
▁sad
▁check
▁Has
▁dynamic
▁Your
▁print
▁Pe
▁practice
▁honest
▁lie
▁typical
▁contemporar
▁etc
▁artistic
▁usual
▁sell
nfortunate
▁trouble
▁increasing
▁action
▁enter
▁Does
tuck
▁bike
▁express
▁reveal
▁dead
▁praise
▁arm
▁assignment
▁devil
▁sleep
▁brief
head
by
▁dream
▁arriv
▁belong
▁area
▁China
kept
▁compani
▁price
▁previous
▁banks
▁150
▁attract
▁financial
▁touris
▁East
▁documentar
▁opening
▁Iran
▁whistleblower
▁curious
▁report
▁Since
nstead
▁technique
▁musician
▁standard
▁basic
▁Also
▁bother
▁45
▁David
▁airline
▁app
▁pain
▁Jay
▁destroy
▁Hey
▁daughter
▁complex
▁snow
▁approach
ollege
▁apply
▁robotic
▁surprise
▁196
▁shine
▁hotel
▁runn
▁Grand
▁grandfather
▁Many
▁courage
▁political
▁throw
blew
▁alive
▁preserv
magine
▁cancer
▁San
▁scann
▁vertical
▁heritage
▁include
▁challeng
▁cultural
▁studie
▁mobile
▁battle
▁unique
▁sensitive
600
ism
▁distort
▁petition
▁pocket
▁depend
▁H
▁expedition
▁breath
▁equivalent
▁cold
▁bright
▁trip
▁meter
▁desert
▁brilliant
▁reward
▁CG
▁border
▁analog
▁advantage
▁ship
▁dive
▁fund
▁rescue
▁vehicle
▁cyborg
▁sea
▁failure
▁R
▁ethic
▁birth
▁suppose
▁Great
▁similar
▁John
▁reject
▁electric
▁brains
▁underst
ood
▁blood
▁improve
▁includ
▁Martin
▁hole
▁Warr
▁direct
▁giant
▁dense
▁simulation
▁none
▁intelligent
▁orchid
▁prediction
▁chemical
▁yellow
▁shall
▁writ
▁Ap
▁attribute
2
▁Octo
ber
▁Newton
▁mathematician
▁direction
▁roof
▁Mal
▁crossing
▁meeting
▁capabilit
▁electrifie
▁quark
▁hydrogen
▁lens
▁lock
▁button
▁break
▁gesture
▁mouse
▁architect
▁CA
▁Wow
▁plan
▁busy
▁shock
▁worry
▁respond
▁essence
▁shot
▁French
time
▁response
▁explanation
▁encourage
▁unfair
▁seat
▁desire
▁knowing
▁soul
▁role
▁secret
▁reporter
/
pover
▁arrest
▁office
▁behavior
▁emerg
▁Bank
▁instance
▁estimate
▁democratic
▁post
ization
▁South
▁profit
▁introduce
▁f
▁link
▁budget
▁revenue
table
▁invest
▁third
▁terribl
▁employ
▁Jun
▁clothes
▁mix
▁forever
▁email
▁witness
▁environmental
▁Wall
▁suffering
▁page
▁plus
▁twi
▁calling
▁super
▁definite
▁sexual
▁football
▁Johnny
▁flat
▁Swede
▁distant
▁planetar
▁librar
▁fire
wood
▁grade
▁shame
▁leg
▁faint
▁luck
▁accept
ia
▁rise
▁microscope
▁spark
▁cheap
▁booth
▁Even
▁receiv
▁authentic
▁onto
▁pink
shea
▁release
▁Thanks
▁opposite
▁bond
▁ancient
▁mirror
▁survey
▁los
▁apparent
▁suspect
▁demonstrate
▁individual
▁crowd
▁effort
hildren
▁spread
▁option
▁lack
▁1980
▁Telescope
▁range
hane
▁bizarre
light
▁earth
▁paint
▁European
▁massive
▁fluid
▁bodie
▁formation
▁complexit
▁additional
▁astronaut
▁curiosit
▁creativ
▁winter
▁adult
▁metal
▁convince
▁profound
▁station
son
▁lifetime
▁Sierra
▁keeps
▁consequence
▁Mexican
▁coverage
▁Palestinian
▁decide
▁oppos
▁blend
▁missing
▁coast
▁awkward
▁suggest
▁vast
▁primar
▁general
▁oh
▁ROV
▁cable
eath
▁wor
▁favor
▁rid
▁♫
▁hitt
▁astronomer
▁research
▁nuclei
▁atomic
▁ant
▁proton
▁artificial
▁probabilit
▁quarter
▁Jewish
rew
▁museum
▁Richard
▁Koran
▁spiritual
▁presence
▁divine
▁dinosaur
ophis
6
▁label
▁organ
▁invention
▁Ke
pler
▁mathematical
▁tend
▁graph
▁maxim
▁quarti
▁tidi
▁inventor
▁curl
▁vibrat
▁collision
▁observer
▁weird
▁laugh
▁broken
▁flood
▁keyboard
▁Dr
▁goal
▁finger
▁document
▁genius
▁feed
▁tired
▁perform
▁mere
▁dreams
ous
z
▁sand
▁piano
▁exception
▁competition
▁talent
▁mouth
▁title
▁void
▁argu
▁Dad
▁condition
▁cross
▁catch
▁enem
▁becom
▁ultimate
▁bold
▁identit
▁related
▁advice
▁celebrat
▁HIV
▁Polic
▁led
▁operate
▁organization
▁govern
▁partners
ership
▁leader
3
▁Minister
▁4
▁finance
▁lower
▁crash
▁explor
▁code
▁increase
▁capital
▁saving
▁Other
▁Ver
▁fellow
▁educat
▁Prize
▁Long
▁expos
▁chapter
▁bomb
▁investigation
▁exercise
ice
▁combine
▁9
▁website
▁From
▁Street
▁cris
▁classical
▁gold
▁scroll
▁double
▁See
▁ingredient
▁ride
▁lift
▁His
stair
Two
▁choice
ied
▁Digital
▁infinite
▁capacity
▁limited
▁Museum
▁sphere
▁position
▁mapp
▁spacecraft
▁Moon
▁phase
▁sharing
▁haze
▁engag
▁crop
▁beat
▁admir
▁determined
▁roads
▁appli
▁cafeteria
▁donate
▁Angelin
▁Five
▁twenty
▁hair
▁gay
tonewall
▁privilege
▁wire
▁dozen
▁Centr
▁facilitator
▁Sara
▁hate
▁baby
▁anti
▁dignit
▁serve
▁poet
▁note
▁sill
▁television
spite
ck
▁afr
▁Th
▁floor
▁archive
▁sides
▁Ten
▁beam
▁resolution
▁cutting
▁destructi
▁accelerat
▁memor
ily
▁task
▁local
▁screen
▁corners
▁relative
▁detect
▁park
hi
▁vulnerabl
▁Facebook
ian
▁Put
▁18
▁comet
▁compare
▁rings
▁gas
▁organic
▁clouds
▁F
▁fracture
▁nation
▁forget
▁measurement
▁Was
▁lad
▁sight
▁dunes
▁scene
▁north
▁wreck
▁More
▁hotte
▁extend
▁spot
▁Angel
▁limit
▁landscape
▁unlike
▁embrace
▁Stan
▁wound
▁band
▁corner
▁existence
▁appreciate
sis
ist
▁endeavor
ese
Tube
▁communication
▁attend
1
▁fix
▁Nel
▁Mandel
▁climate
▁carbon
▁reflect
▁Leon
▁speech
▁ball
▁meal
▁foreign
▁professor
▁Fide
rice
▁catastrophe
▁Lago
▁darkness
▁smok
▁bough
▁expensive
▁Muh
▁extension
▁speaker
▁grab
▁notion
▁projection
▁interaction
▁evolve
way
▁anthropolog
▁clever
▁fuel
▁construct
▁vers
▁shower
▁transport
▁dig
▁invit
▁cave
▁thanks
▁politic
▁discussion
▁distribution
▁Supreme
▁Court
▁provide
▁Absolute
▁ignore
▁religious
▁citizens
▁blowing
▁Tom
▁clean
▁Beatbox
▁quant
▁unifie
▁Final
▁article
▁dangerous
▁icon
▁expert
▁doom
▁14
bro
▁boxe
▁pollinate
▁tree
▁flie
▁pollinator
▁lay
▁undern
▁favorite
▁filter
▁adulterer
▁stone
▁th
▁thou
Q
▁fabric
▁Muslim
▁medium
ah
▁Sufi
▁divin
▁height
▁Dan
▁keyhole
▁rocket
▁habituat
▁wheel
▁broad
▁replace
▁radiation
▁calcul
▁Asia
▁larva
▁seasonal
▁bird
▁Amur
▁breakthrough
▁private
nt
witzer
▁Har
▁vibration
▁detector
▁Pleas
▁smile
▁react
▁gate
▁smil
▁idiot
▁phrase
▁regard
▁interface
ver
▁painting
▁operation
▁Video
erson
▁split
▁effective
▁300
▁unexpected
efore
pirac
▁pop
▁instant
▁bear
▁Kid
▁ideal
▁wash
▁bet
▁primitive
▁Work
▁paid
▁earn
gentleman
▁tour
ary
▁eighth
▁Anyway
▁Picasso
▁traged
el
▁California
▁negative
▁miserable
▁profile
▁proud
▁1990
▁Any
▁scared
▁disaster
▁September
▁transfer
▁courageous
▁escape
▁dress
▁according
▁prosecut
▁jail
▁willing
▁ongoing
broad
▁receive
▁globe
▁invite
▁Sahara
▁140
▁rose
as
▁due
ility
▁measur
▁construction
▁situation
▁bank
▁2000
▁election
▁plent
▁yoursel
▁Tanzania
▁session
▁cap
▁Dutch
▁starv
▁US
▁blueprint
▁demand
▁testify
▁spy
▁brave
▁knock
ter
▁credit
▁among
ling
▁promise
▁virtual
▁regular
▁tech
▁alert
▁hearts
▁ten
▁minus
▁iPhone
▁please
▁slide
▁emotion
▁Kendal
▁folks
▁sister
▁auntie
▁angr
▁inner
ila
▁violen
▁horizon
▁chart
ium
▁capture
▁Manhattan
▁base
▁valley
▁below
▁Kenya
▁tall
▁mothers
rank
▁shoes
▁bunch
▁Thre
▁shirt
▁sick
▁male
▁Virgin
▁belief
▁elder
▁mutilat
▁neighbor
▁fourth
▁pilot
▁optimistic
orrow
▁vision
▁bacteria
▁tight
house
▁grabb
▁Congress
▁treat
▁Litt
▁snake
▁loud
▁Eric
▁Claud
▁hearing
▁citi
▁Danny
▁Per
asa
▁Holly
▁forgive
▁arc
▁Martine
▁Chicago
▁peace
▁file
12
▁ruin
▁bulls
▁Francisc
▁horizontal
▁accurate
▁visualization
or
▁blow
▁fate
Ark
▁stands
▁models
▁graphic
▁comfortabl
▁Uganda
▁Roy
▁Last
▁Service
▁den
▁Del
▁sample
▁decision
▁i
▁contrast
▁smartphone
▁lawyer
ting
▁bang
▁spiral
romeda
la
▁Galax
▁moons
▁molecule
▁gentl
▁drift
▁recogniz
▁rivers
▁pool
▁peak
▁channel
▁round
▁Hu
ygen
▁emphasize
▁outer
▁accent
▁emotional
▁shoreline
▁altitude
▁gentlem
▁dry
▁pole
▁England
▁stumbl
▁organism
▁precious
▁1960
▁afar
▁Los
▁bus
▁absorb
▁narrative
▁urge
▁Ab
▁passion
▁barel
▁broke
▁balance
▁mid
vatar
▁survive
▁Russia
▁nail
▁delight
▁Vietnam
▁injur
▁Ol
onald
▁Rea
▁organize
▁Brita
▁24
▁blogg
▁climb
▁vocabular
▁lifestyle
▁danger
▁Never
▁impression
▁identify
▁Chin
▁ponytail
▁Western
ard
▁noun
▁engage
▁disagree
▁ending
▁masse
▁provid
▁empower
asically
▁squish
▁compound
▁attempt
▁panic
▁hatch
▁biological
▁chunk
▁marine
▁weapon
▁figur
▁heavy
▁rush
▁geometr
▁leaving
▁fold
▁external
▁multitask
▁era
▁lecture
▁deserve
▁Suppose
▁Peter
▁Scali
▁determine
▁loving
▁conviction
▁series
▁Would
▁butterfl
▁street
▁Darwin
▁spectacular
▁explosion
▁symboliz
▁unprecedented
▁error
▁bits
▁unify
▁transmit
▁useful
▁hop
▁bees
▁bee
▁fabulous
▁smell
rum
▁mechanism
▁frequenc
▁hidden
▁Venus
▁recommend
▁choos
▁bible
▁killing
▁cognitive
▁psycholog
▁biblical
▁sacred
▁Iraq
▁translation
▁Latin
▁Greek
▁sh
▁Dark
▁Which
amma
▁refer
▁Rum
▁swing
▁slamm
▁mile
▁Friday
08
▁nucle
▁rocks
▁engine
▁notic
▁custom
▁Dickens
▁hang
▁neutrino
▁Paris
▁SH
▁Span
▁assign
▁Gill
right
▁whales
▁reverse
▁Ocean
▁Glob
▁Skimmer
▁occur
▁colleague
▁soil
▁southern
▁jet
▁involve
▁dropout
▁senior
IPP
▁contract
▁laid
▁cooker
▁Tidy
▁Up
▁orange
▁method
ü
eith
gh
ford
▁microscop
▁vibrate
▁Large
▁Hadr
▁Colli
der
▁oxygen
viation
▁fighter
▁cylinder
▁pant
▁Good
▁nagg
▁batter
▁awful
▁realization
▁Rather
▁Interesting
▁pen
▁implement
▁remov
▁clip
▁desktop
▁modify
▁tense
▁Bi
▁lies
▁Mom
▁Real
▁responsibl
▁Fla
ubert
▁bug
▁Kafka
▁seas
▁ridiculous
▁proof
night
▁Gyeong
▁eager
▁excuse
▁Late
▁punish
▁stoo
▁Unti
▁filling
▁Sound
▁gap
▁statement
▁remote
▁pencil
▁Italian
▁alcohol
▁cab
▁King
▁Lear
▁Mart
▁dancer
▁slides
▁Whil
▁partnership
▁governor
▁states
▁president
▁leaders
▁elite
▁independent
▁trend
▁28
▁stole
▁produc
▁prior
▁Washing
elecommunication
▁luxur
▁telecom
▁manag
▁reputation
▁earning
▁reserve
▁shore
▁inflation
▁illustrate
▁agricultur
▁mineral
estate
over
▁neighborhood
orry
▁award
▁hobby
▁Rwanda
▁Am
▁Think
▁household
▁adequate
▁careful
▁Jam
▁journalist
▁gather
▁refuse
▁claim
▁vital
▁Jeff
▁Obama
▁Foundation
▁upload
▁veteran
▁severe
▁noise
▁boundar
▁prestig
▁hall
▁facilit
▁patient
▁tune
▁nest
▁browser
▁menu
▁Type
▁tap
▁freak
▁instruction
▁carrier
▁adopt
▁dictionar
▁lands
▁unit
▁Again
▁neat
▁highlight
▁drag
▁trick
▁City
▁Bronx
▁dominat
▁twist
▁redefin
hood
▁clock
▁Tell
▁frustration
▁Sit
▁Man
▁holding
▁Anthon
▁names
▁bust
▁remorse
▁c
▁envelope
▁Universe
▁metaphor
▁Planetar
▁Uni
▁Matter
▁cosmolog
▁containment
MAP
▁microwave
▁Voyage
▁domes
▁fires
▁context
▁Maasai
▁cows
▁goat
▁abuse
▁Teacher
▁excite
▁knife
▁rust
▁nurse
▁sneaker
▁vacuum
▁trade
▁orphan
▁stabilit
▁dawn
▁revolution
▁passionate
▁fell
▁knit
▁crush
ought
▁Michael
▁fierce
▁199
▁photographer
▁narrow
▁shout
▁copy
ua
▁Asperg
▁angel
▁honey
▁expectation
▁pure
▁ho
▁guide
▁80
▁table
▁DP
▁AP
▁DI
▁Alex
▁Les
ley
▁meaningful
▁Rememb
▁walks
▁birthday
▁homes
▁activist
▁importan
▁metropolis
▁camp
▁wing
▁babi
▁shift
▁magnificent
▁date
▁display
▁extract
▁render
▁texture
▁millimeter
▁preserve
▁earthquake
▁caus
▁wars
▁technologi
▁accelerate
▁Challenge
▁rapid
▁partner
▁School
▁fortunate
▁dis
▁philosoph
▁injustice
▁officer
▁criminal
▁volunteer
▁hell
▁Second
▁meditati
ana
▁distortion
▁current
▁ambition
▁dominate
▁afford
▁politician
▁organizer
▁divide
▁Should
▁remove
▁voyage
▁myster
▁insight
▁interconnected
▁divers
▁thick
ne
▁coat
ahren
eit
▁mountain
▁linear
▁fault
▁alter
▁demonstration
▁bump
▁geological
▁drain
age
what
▁puzzling
▁lake
▁polar
▁exot
▁diversit
▁threat
▁finding
▁tropic
▁jets
▁plume
▁conclusion
▁implication
▁Apollo
▁shut
▁hook
▁manifest
▁Jacque
▁resonate
▁imager
▁spaceship
▁textbook
▁outlet
▁submersible
▁filmmak
▁Termina
tor
▁div
▁animation
▁Wins
▁printer
▁Rome
truck
▁component
▁vent
▁fiber
▁glimpse
grade
▁influence
▁lett
▁aspect
▁comment
▁Give
▁limitation
▁West
men
▁Sudan
▁Swed
▁Prime
▁communist
▁instantaneous
▁protest
▁campaign
▁win
▁defeat
imbabwe
▁Robert
u
▁communicat
▁vote
▁gender
▁persuade
care
icero
▁overwhelm
▁motivat
▁campus
▁apple
▁ginger
▁beer
▁chocolate
▁conventional
▁norm
▁dinner
▁pity
▁basket
▁Year
▁referr
▁grown
ble
▁quote
▁drove
▁immigration
▁killer
▁horribl
▁refugee
▁plane
▁stereotype
▁Congo
▁messenger
▁sequel
▁consum
▁ambitio
▁confront
▁workshop
▁Stor
uthern
▁North
▁regain
▁quiet
▁mistake
ug
▁Jean
▁195
▁traffic
▁obey
▁stupid
▁Words
▁steal
▁borrow
▁verb
▁editor
▁National
▁root
▁hood
▁g
▁Ph
▁Kenyan
▁ignoran
▁Cam
▁creator
while
▁wondered
▁substance
▁surviv
▁iPod
▁disconnect
lore
▁wow
ether
▁architecture
▁worri
▁reflection
▁compete
▁input
▁efficient
▁garage
▁suggestion
▁kits
▁photos
▁counterpart
▁valuable
▁philosopher
▁excellence
▁dispute
GA
▁grant
▁objection
▁Walk
▁whom
▁achievement
▁amuse
▁arbitrar
▁sports
▁status
▁mutual
▁tendenc
▁Mumb
ai
▁appropriate
▁lover
▁TEDx
▁Bris
bane
oo
▁evolution
▁twinkl
ach
▁recycl
▁cosmologist
▁Through
▁iron
▁cosmo
▁micro
▁swarm
▁population
▁depict
▁benign
the
▁trigger
▁clue
▁relativ
▁inspiration
and
▁biologist
▁Dece
mber
▁footprint
▁pale
wide
▁Change
▁overall
▁chef
▁discourag
▁platform
▁signature
ore
29
S
nna
▁flowering
▁bidd
▁probosc
▁horse
▁realiz
uck
idge
▁fat
▁burn
▁weight
▁shepherd
00
halt
▁agnostic
▁Sab
bath
▁homosexual
▁irrational
▁tolerance
▁destructive
ch
▁barrier
▁discuss
▁November
▁Adam
▁Gulf
▁Kuwait
▁curriculum
▁prophec
▁Islamic
▁Age
▁explod
ive
▁circula
▁limb
▁smoke
▁Sir
▁Burt
teric
▁servant
▁Turk
▁seek
et
▁65
▁Jer
▁yards
▁Siberia
▁Tung
uska
▁190
▁auditorium
▁Apri
▁unbelievabl
▁Deep
▁shoot
▁bone
▁counter
▁habit
▁passenger
▁beginner
▁1900
▁consistent
▁Geoff
▁fet
▁constituent
▁frame
▁genome
▁peculiar
▁grid
▁1600
▁naked
rich
tz
▁Ru
▁mess
▁analyz
▁conference
▁scan
▁observation
▁sequence
▁mysterious
▁transparent
▁rotat
▁photon
▁volume
▁stretch
▁upside
▁hunt
▁magnetic
▁shapes
▁loom
▁bureau
▁craft
▁jebr
▁translat
▁shal
▁department
▁fac
▁coral
▁reef
▁Sri
▁Lanka
▁keen
▁centimeter
fall
rising
▁migration
▁falcon
▁Falcon
▁Goa
▁Roller
▁winds
▁eater
▁drop
▁sustainabl
▁Israeli
▁aim
ine
▁areas
▁Monte
▁skill
▁practical
▁skills
▁mainstream
▁relevant
▁certificate
▁cabinet
▁puppet
▁Swi
▁Paul
▁Klee
▁patent
ö
▁Kunst
recht
egel
▁pie
▁DARPA
▁theft
traction
▁Klein
▁superstring
▁neutron
▁theoretical
▁eject
▁debri
▁surprising
▁observ
▁stamp
▁DNA
▁candidate
lium
▁Sputnik
▁stress
▁accelerator
tical
▁snapshot
▁deflect
▁cone
▁Gaga
rin
▁billionaire
▁playful
▁harpsichord
▁punch
▁disappointed
▁pair
▁loose
▁thigh
▁password
▁Mmm
▁vacation
▁marvel
▁subsequent
▁woke
▁desk
▁roller
▁spring
▁Smith
▁intuitive
▁seamless
▁mount
▁dial
▁update
▁pinch
▁afternoon
▁Russe
ll
▁Explorer
▁PM
▁Paper
▁Open
▁resist
▁associat
▁crayon
▁Dam
▁monodrama
sual
▁storytell
▁celebrate
▁Sam
aking
▁anxious
▁Writ
▁continu
▁justify
▁storyteller
ju
▁Island
▁beach
▁dogs
▁useless
▁pleasure
▁happie
▁Learn
ier
▁tire
▁Play
▁fatigue
art
▁joyful
▁homework
▁Beside
▁contest
gun
g
▁diligent
ndeed
▁sketchbook
▁crow
▁Young
▁ha
▁palace
hoe
ru
▁utter
▁Works
▁hung
▁lame
tled
▁interpretation
▁Bull
▁Head
▁Du
▁Hot
▁Lego
▁plastic
▁jealous
▁drama
▁blank
▁sheet
▁spouse
▁happi
▁driver
▁banker
▁arts
▁Korea
▁194
▁airport
▁puzzle
▁destin
amie
eigh
▁Metropoli
tan
▁Economic
▁Financial
▁Commission
▁outrage
▁Alam
▁corrupt
▁overwhelming
▁downward
▁improv
▁export
▁mon
▁recover
▁charit
▁bored
▁inefficient
▁enterprise
▁Financ
▁landline
▁liberal
▁360
▁capita
▁wrap
▁salar
▁exchange
▁hous
▁straighten
▁mall
▁89
▁consolidat
surance
life
▁party
▁whil
▁Adenike
are
▁Wal
▁Beatrice
ak
uba
▁boat
▁winning
▁Times
▁Edward
▁Snow
▁CIA
▁handed
▁afterward
▁prosecutor
▁alleged
▁trial
▁droppe
together
▁hide
▁failing
▁trail
▁consent
▁Department
▁resistan
▁Secure
Drop
om
▁Post
▁contact
▁freedom
vy
▁worker
▁warning
▁crime
▁Hi
▁suffer
▁burden
▁comfort
▁meaningless
▁rediscover
▁hardship
▁restore
▁indescribabl
▁heal
ious
▁concert
gie
▁Hall
▁Center
que
▁disc
▁license
▁kick
▁Hold
▁assume
▁Mac
▁switch
▁layout
▁bitter
▁tone
▁keystroke
▁database
▁select
▁lag
▁shutter
▁exposure
▁pre
▁anger
▁whip
▁boom
▁knee
▁defining
▁Henr
▁tragic
▁teenager
▁burial
▁prepar
▁limousine
▁burst
▁hanging
▁dude
▁worse
▁Wom
▁ill
▁inappropriate
▁rap
▁offering
▁Folk
▁zip
▁lo
ification
▁epidemic
▁envision
▁behav
▁promote
liberation
▁Himalaya
▁maintain
▁Hayd
▁production
▁host
op
view
▁interactive
▁continuous
▁Com
▁Pioneer
▁trajector
▁encounter
▁controll
▁Saturday
▁Nepal
▁Tibet
▁prepare
▁milk
▁sibling
▁farm
▁passage
▁transition
bled
after
▁scholarship
▁blame
▁commitment
▁transformation
▁division
▁Eve
▁achiev
▁fearless
▁confident
▁Move
▁grand
▁lapse
▁marker
▁visualize
▁thinne
▁virus
▁22
▁riot
▁queen
▁recorder
▁dedicat
▁flop
▁chicken
▁Harv
▁silence
▁broadcast
▁entertain
▁Librar
▁excerpt
▁syndrome
▁cockroach
▁constrict
▁col
▁pitch
▁Ben
▁Carlo
▁quantit
▁Part
▁Isa
▁hero
▁collection
▁voices
▁hire
▁selection
▁tens
▁Anni
▁Audi
▁guilt
▁shelter
▁hug
▁Get
▁romance
▁unimaginabl
▁resilienc
▁Israel
▁Johnson
▁murder
▁gang
▁manner
▁motivation
MJ
▁admire
hur
▁Haro
▁granddaughter
▁AM
▁apologize
▁streets
▁mortal
ra
ta
▁weekend
▁trust
▁grasp
▁member
▁buff
▁laser
▁angle
▁coordinate
▁accura
▁Buddha
▁devastat
▁Rush
▁disseminat
▁viewer
▁section
▁Tik
▁Stir
▁toll
▁portion
▁arson
▁terroris
▁accomplish
▁sustain
▁Tombs
▁reconstruction
▁wizard
▁ceiling
▁Doug
▁participate
▁Historic
▁Scot
▁Glas
gow
▁doll
▁Life
▁incline
▁Out
▁cyclone
ennis
▁pro
▁posting
▁suit
▁Friends
▁Government
▁eleven
▁forgot
▁ash
ram
▁Time
▁com
▁mindful
▁feedback
drew
▁bill
▁Bureau
▁secure
▁seize
▁target
▁priva
▁cyber
▁civil
▁Modern
▁threaten
▁Aid
▁cam
▁mal
▁99
▁ex
W
▁origin
▁depth
▁inter
▁establish
▁Nebu
▁Milk
▁Way
▁concentrate
▁explorator
▁conduct
▁accompani
▁thin
▁suff
used
▁ethan
ludge
▁tar
▁basin
▁hills
▁Try
▁High
▁noon
▁Lake
▁adventure
▁extensive
lit
drop
▁tectonic
▁descend
▁presentation
▁unreach
▁converge
▁Air
▁ice
▁pebble
▁sink
▁mud
▁fill
▁equator
ial
▁tenth
▁elevat
▁Antarctic
▁excess
▁gra
▁8
▁eclipse
▁gain
▁pond
▁Cous
teau
▁description
▁heads
▁endless
▁doodl
cuba
▁diver
▁daunt
uffalo
▁certifi
CA
▁awe
▁dives
▁chose
▁merg
▁generat
▁sufficient
▁magical
tic
▁optical
▁studio
▁Secret
▁hostile
▁explorer
▁optic
▁Cent
▁fame
▁Tremendous
▁synthesize
▁leap
▁calm
▁White
▁nap
▁conscience
▁tank
▁symbol
▁vulture
▁hover
▁unlock
of
▁Palme
▁Social
▁Democrat
▁reply
▁abolish
▁Save
▁Austria
▁leaflet
▁rally
▁Albert
▁poll
▁Burm
▁policy
▁slaver
heid
▁Wine
▁appearance
gen
▁agreement
▁indivi
sible
▁120
▁prepared
▁tackle
▁Ancient
▁Gree
▁march
▁wrapp
▁Ador
▁recalibrate
▁spiritualit
▁healthie
▁arrive
▁truck
▁happiness
▁55
▁logo
▁tumor
oma
▁unwa
nted
▁eastern
▁eyed
▁foreigner
▁Ache
be
▁domestic
▁incomprehensi
▁beast
▁Mexic
▁laughing
sham
▁Igbo
nkali
▁Power
▁dispossess
▁Start
▁Nativ
▁serial
▁irritat
it
▁devalu
▁breakfast
▁insist
▁rape
▁rob
▁publisher
▁prefer
▁procedure
▁Bob
▁court
▁renew
▁Trust
▁repair
▁paradi
▁mechanical
▁lexicograph
▁native
na
quat
▁ninja
▁Japan
▁duck
face
▁adjective
▁edit
▁burgle
▁OMG
▁embrac
▁initial
▁confusion
▁stronger
▁brown
▁plug
▁replicate
▁confirm
▁stair
▁expression
▁dysfunctional
nar
▁Skin
▁stem
▁cure
bridge
▁thriv
▁struggle
▁suspend
▁ghost
▁State
secure
▁enlighten
▁funny
▁Febr
uary
▁addiction
▁mis
▁windows
▁crack
▁perpetuat
▁victim
▁relief
▁Mapmaker
capitalize
▁vi
▁mapping
▁Cha
▁adapt
▁fish
▁anthropologist
▁modification
▁heavi
▁wake
▁adolescent
▁adolescence
▁wormhole
▁Love
▁ambien
▁psychological
▁legitimate
▁dealing
▁prosthetic
▁monotask
aday
▁mono
side
▁Cameron
▁shipp
▁Christmas
▁encouraging
▁distribut
▁venture
▁roam
▁defend
▁moralit
▁inform
del
▁vot
▁admiring
▁disabilit
▁painful
▁Golf
ssociation
▁Stay
▁Charle
▁Jack
▁Seven
▁incidental
▁dissent
elian
▁premise
▁underly
▁virtue
▁outcome
▁stake
▁abilit
▁athletic
▁confer
▁procreati
long
▁recipe
tolerance
▁shy
▁civic
huse
▁cassette
▁Honest
▁coffee
▁replie
▁42
hip
▁tackl
▁downtown
▁setting
▁Billi
stoke
▁niche
▁Australia
▁central
▁Airplane
▁destination
▁flavor
▁House
▁jazz
▁knot
▁ecosystem
▁patch
▁giga
▁feeds
▁trace
▁synthesi
▁shake
▁hazard
▁bubble
▁variet
▁layer
▁Centur
ac
▁marvelous
▁prospect
▁mindset
▁arise
▁naive
▁compass
▁Roth
bla
tt
▁96
▁entrepreneurs
▁obligation
▁employee
▁shin
▁experienc
▁fraction
▁fragil
▁beaut
▁abrupt
▁landmass
▁Success
▁extinct
▁signal
▁output
▁occupy
▁seeming
▁hypothetical
▁Will
etallic
▁crucial
▁needless
▁cheese
▁Easy
▁Bake
▁Oven
▁org
▁Twitter
▁Reddit
▁Tumbl
▁disrespect
venge
▁Liquid
▁Hat
▁reproduction
▁adaptation
▁hummingbird
▁hawk
▁moth
▁tube
▁mimick
▁transmitt
▁perceive
▁beetle
lang
▁carri
▁bristle
▁Dorse
▁spad
ix
▁astonishing
▁43
▁44
▁sunscreen
▁evening
quire
▁magazine
▁undert
ook
▁fundamentalism
▁logical
▁stack
▁Christian
▁Lord
▁shave
▁beard
▁types
▁avoid
▁commit
▁covet
▁cloth
▁wise
▁apartment
▁creationist
▁wage
▁Kent
▁flip
▁reveren
▁evangelical
▁Christians
▁Jew
▁bless
▁Red
▁inspiring
▁worldview
▁harmful
▁dismiss
▁candle
▁cake
▁Serious
▁sheep
▁tail
▁reaction
▁transcend
▁gorilla
▁comparison
▁Abu
▁suspicion
▁infect
▁Guardian
▁famine
▁core
▁disturbing
▁zone
▁Francesc
▁pregnanc
▁schedule
▁neuron
▁positive
▁restart
▁FF
▁dear
▁grandparent
▁Could
▁Council
▁universal
▁journal
▁Persian
▁Roman
c
▁Education
▁forelimb
▁Award
▁ker
osene
▁lamp
▁exam
▁compassionat
▁objective
▁eso
▁Sufis
uf
▁egotis
▁training
▁Creat
▁merc
▁resurrect
▁charter
▁subconscious
▁temporar
▁locus
▁Hindu
gur
eb
▁grape
▁concentration
▁lump
▁Boulder
▁Peak
eeker
▁Yuc
ata
zu
▁east
▁dust
▁wip
▁crumbl
▁gigant
rizon
▁Meteor
▁Cra
▁megaton
▁devastation
kro
▁crap
▁devoted
▁ham
▁Little
▁Dur
▁thrust
pock
▁sophisticate
▁Blue
▁ripe
▁flick
▁upset
▁encode
▁handle
▁windshield
▁Steve
▁hopeful
▁exhilarati
▁gadget
▁Charge
▁thermostat
rmostat
▁install
ft
▁invisib
▁Electron
▁fuzz
▁Horse
▁Face
▁Gravit
▁lever
▁telepath
gnostic
▁contain
▁psychoanalyst
▁internal
▁Gas
uite
▁Hein
▁188
▁thinker
fus
▁cello
▁algebra
▁pyramid
▁summit
daily
▁reshape
▁Field
▁uniform
▁irregular
▁Plan
▁Survey
▁location
▁plot
▁fade
shift
▁representation
▁labor
▁supercluster
▁26
▁framework
▁astronomical
▁processor
▁densit
▁Back
ground
▁upper
▁Ge
▁stare
▁campfire
▁freckle
▁UV
▁IPC
C
ney
▁reduce
▁mini
obi
▁dedicate
▁prize
bout
▁Spa
een
▁Kai
▁bead
▁inherent
▁sculpture
▁clipboard
▁variable
▁tension
▁weave
▁carriage
▁cigar
illos
▁Talk
▁tie
▁guid
▁priorit
▁tunnel
▁length
▁Nothing
▁chao
spread
▁genuine
▁investigate
▁chore
▁island
▁Kera
ure
▁Keep
▁fashion
▁flier
▁dull
▁attitude
▁Hang
▁Wait
▁phenomeno
▁rigorous
▁Incredible
▁swoosh
▁drought
▁overhead
▁automatic
▁circuit
▁inch
▁Manch
▁sensibl
▁northern
▁Eurasia
▁northwest
▁Fortun
ately
▁fellows
▁Bee
▁cheek
▁Teach
▁joy
ush
▁breast
▁colon
▁lit
▁annual
brew
▁Touris
▁Me
erusal
em
▁communicator
▁vaccine
▁pneumo
nia
DT
▁quin
▁bald
▁ineffective
▁drug
efront
▁Master
▁improvement
▁review
▁DVD
▁combination
▁confiden
▁Mahat
ma
▁Gandhi
▁learner
▁Til
onia
▁leak
▁priest
▁guarantee
▁illiterate
▁dentist
▁convenience
▁dazzl
▁electrify
▁Lad
akh
▁collapse
▁AC
▁DC
▁Half
▁Gambi
▁nervous
anguish
▁attendant
▁unknow
▁daemon
▁backward
▁Coh
▁empty
▁ol
▁scatter
iro
▁specification
che
ent
▁Lau
pr
fer
▁Alb
▁wir
zi
ger
ä
te
▁shop
▁statistical
▁Rene
▁Mag
ritte
▁pointillis
▁George
▁Bru
▁accident
▁pirate
▁historic
rington
▁98
▁derive
▁bucks
▁191
▁propos
▁electromagnet
▁Amazing
▁compell
▁graviton
▁nor
▁fiddle
irstream
▁calculation
explain
▁slam
▁collide
▁AT
LA
▁EU
▁magnet
▁glu
▁Relative
▁exquisite
▁Margar
cher
▁surround
▁impede
▁measurabl
▁nic
tine
▁clogg
▁arter
▁prostate
▁impoten
▁ellip
▁deduce
▁bent
▁napkin
▁streak
▁centered
▁Stephen
▁Hawk
▁persuasi
ve
▁announc
▁Lockheed
sance
▁Von
▁Braun
▁impressive
▁operational
▁Ala
hepherd
▁2020
▁Concord
▁capitalist
▁milestone
▁committ
▁taxpayer
▁automat
▁Vau
cans
▁applie
eaten
▁booger
▁embarrassing
▁lowercase
aggression
▁Period
▁shit
▁sock
▁smush
▁fraud
▁undo
isplace
▁badge
▁imagin
▁Vanco
uver
▁tempt
▁temptation
▁asshole
▁futil
▁blissful
▁rememb
rance
utum
ongratulation
▁pulley
▁sens
▁que
▁projector
▁palm
▁newspaper
▁clippe
▁Wilder
▁Tribe
▁54
▁Pran
av
▁MIT
▁tables
▁gifted
▁thorough
▁stray
▁inflict
▁Parent
▁Hurr
▁celebration
▁Stop
sense
huh
▁Um
▁supermarket
▁Soon
▁infantil
▁Ro
▁Bart
hes
▁eros
▁violat
scope
▁Gregor
▁monstro
▁vermin
▁Fran
etamorphosi
justifiabl
▁masterpiece
▁Had
▁nuts
▁Je
▁mountains
▁boss
▁skit
▁Michel
▁Tourn
▁mischie
vous
iring
▁client
▁Wolf
gang
made
▁Moz
ime
▁ballet
▁grader
bok
▁perch
▁branch
▁rascal
▁dragg
▁mortifi
▁None
▁sel
dom
▁galler
▁Basel
paper
ontemporar
▁amateur
▁handlebar
▁convincing
▁Next
▁urin
▁Fountain
champ
▁chok
▁oppressor
▁banish
▁kara
oke
iming
▁guitar
▁riff
wful
▁club
▁troll
▁castle
▁impulse
▁suppress
▁env
▁dictators
▁criticize
▁evil
▁log
▁Dramatic
▁Student
Write
▁creep
▁handwrit
▁deadline
▁trance
▁Devil
▁pragmatic
▁Sorry
▁multiple
▁backseat
▁painter
ha
raham
▁legend
impo
▁Airport
spiring
▁Korean
▁Alr
llusion
▁allud
▁Diep
rmant
▁cooperati
▁Crime
▁Nu
hu
▁Riba
du
▁arraign
▁slip
▁constitution
▁immunit
▁legislature
▁impeach
▁tolerate
▁chalk
▁dictatorship
▁monitoring
▁upward
▁initiative
▁asset
▁grateful
▁chaotic
▁comprehensive
▁International
▁Monet
▁Fund
▁vice
competent
▁privatize
▁liberalize
▁Hav
▁telephone
▁bribe
▁Oba
anjo
▁32
SM
▁MT
N
▁wireless
▁privatiz
iscal
▁controversial
▁volatil
▁smooth
▁fluctuate
▁predictab
▁GDP
▁6
▁diversif
▁Agricultur
▁macro
▁solid
▁legislati
▁min
▁shopp
▁mortgage
▁Too
▁requir
▁strengthen
▁Barclay
▁Standard
▁Charter
▁Dollar
▁wild
▁elephant
▁democratiz
▁multi
num
▁OE
CD
▁Conflict
▁Darfur
▁CD
▁Business
▁Understand
▁Og
unles
▁Mix
▁dung
▁cord
uro
▁auction
sterda
▁Pul
itzer
SA
▁illegal
▁wiretapp
▁catastrophic
15
▁spec
▁federal
▁Sudden
▁electronic
▁convict
▁Ster
▁Sad
▁administration
mendment
▁circumvent
▁Communication
▁submission
▁luminar
▁Aaron
wartz
▁Freed
▁Press
▁server
▁sav
▁avenue
▁wrongdoing
crowd
▁alarm
▁Flint
▁dirt
▁expose
▁Constitution
▁Ban
seum
▁da
▁depression
▁despair
▁violin
▁grave
▁midst
▁violinist
▁Carne
▁Kenn
▁church
▁restrict
pros
▁brand
▁Baro
▁Rock
▁Chang
▁TEDster
▁gun
▁syllabus
osmos
hift
▁Tab
▁calorie
▁Connecti
cut
▁Texa
▁Control
▁Command
▁typ
▁Blackberry
▁punctuat
▁capitalize
▁mail
▁Leave
▁Phone
▁Beep
ogue
▁devolve
▁FAA
▁terminal
▁currenc
▁convers
▁Double
▁Watch
▁delete
▁increment
uch
▁delet
▁Shutt
▁snaps
▁frustrating
▁Camera
▁congratulation
▁Technolog
icense
▁Harle
▁Grow
▁superior
▁inferior
▁doubt
▁deconstruct
▁Tam
ie
▁bam
▁sleeve
▁Explain
▁guideline
▁bathroom
▁emptie
▁teenage
▁apologiz
▁prop
▁paralyz
▁hostage
▁coach
▁mad
▁tenement
▁heroin
▁overdose
▁jeopard
▁dearest
▁swor
▁secre
▁prowl
▁nude
▁petrifie
▁behold
▁proportion
▁adhere
bound
limited
▁dispos
▁Atlas
▁Natural
▁Histor
▁registration
▁rebuild
▁dome
▁internship
▁Link
SCI
SS
▁laptop
▁cafe
▁Low
▁Side
▁collaborative
▁Rubin
▁exhibit
▁comparative
▁realm
glow
▁exoplanet
▁magni
tude
▁Carol
▁Por
co
▁coded
▁ingenious
▁Merc
ury
▁divert
▁Ghana
▁ghetto
▁Columbia
▁Cambodia
▁Cambodian
▁Aqua
hasa
▁Gang
▁clos
▁lion
▁warrior
▁pubert
▁Cool
▁sweep
▁deni
▁rear
▁dresse
▁heel
▁uncomfortabl
▁determin
▁undergo
▁rite
▁crossroad
▁stigma
▁courtyard
▁clitori
▁bleed
▁anesthesi
▁Oregon
▁jean
▁pave
▁attractive
▁uncle
▁dictate
▁Ran
dolph
▁Lynch
burg
▁chief
▁cleaner
▁genital
▁pregnan
▁criteri
▁Shar
▁125
▁Stand
children
▁peaceful
▁wings
▁flyer
▁magnify
▁caterpillar
▁eggshell
▁nano
▁silk
▁strain
▁Latino
▁pique
▁archivist
▁Shirk
▁Record
▁Bow
▁Guy
▁cubicle
▁Wang
▁hallway
▁clar
▁Traditional
▁Terminal
▁grandkid
▁busi
▁intimate
▁animat
▁Booth
▁obsession
nomous
▁cope
▁stomach
ache
▁scream
▁judge
▁exceed
▁sweeti
▁fantas
▁bound
▁acknowledge
▁advertisement
▁genero
▁decen
▁towns
▁gathering
▁bearing
▁bias
▁grace
tting
▁clerk
▁Brookl
▁dump
▁kitchen
▁princess
▁romantic
▁snagg
tooth
▁Larami
un
▁Byr
▁Slow
▁peni
tentia
▁freed
▁Hope
▁motivate
I
▁lady
▁miracle
▁LM
▁tiptoe
▁Participant
▁hospice
ock
▁Four
closure
▁regret
▁audio
▁underwa
▁furious
▁releas
▁retirement
▁homeless
▁psychiatrist
▁diagnos
▁anniversar
▁tower
▁visceral
▁fleeting
consequential
▁endur
▁Help
ament
▁Interview
▁stranger
ogether
skirt
▁guard
▁Bay
▁Area
▁scanner
▁x
▁z
▁Ka
▁paradigm
▁Approximate
▁Bam
iyan
▁Taliban
oth
▁Cyber
▁Archive
▁fifty
▁Chi
chen
za
▁Rap
▁Nui
▁Babylon
▁Ross
hapel
▁Pomp
ei
▁deliverable
▁conservator
▁researcher
▁manipulation
▁architectural
▁Castle
▁narrate
▁phenomena
▁tornado
▁urban
▁sprawl
▁acid
▁Luck
▁pace
ritage
NES
CO
▁Kasu
bi
▁March
▁treasure
▁curtain
vantage
▁Mitchell
▁Director
▁Conservati
▁Prit
chard
▁Visual
▁visionar
▁inherit
▁defi
inherit
▁educate
▁Canadian
▁Enjoy
▁hurricane
▁valu
racket
▁extracurricular
▁activit
fatig
tamina
▁indiscriminate
▁Normal
▁VIP
▁Obvious
▁Terrorist
▁rapist
▁burglar
▁gangster
▁initiat
▁classe
▁Nine
▁convert
▁Book
books
▁Station
hole
▁landmark
▁Vi
pass
▁Kiran
B
▁preach
▁cooperate
▁complaint
▁grievance
▁draft
buds
16
▁legal
▁Federal
▁Investigation
▁owner
▁hackers
OS
▁sold
▁consumer
▁messag
▁seller
▁manufacturer
▁suspicious
disproportionate
▁gaze
securit
▁democrac
▁Black
▁Lives
▁Spring
▁Occupy
▁members
▁ensure
▁Helen
▁Walter
▁Mark
uckerberg
▁headphone
▁mic
▁jack
half
▁Christopher
gho
▁Band
▁Skyp
▁buck
icious
▁stalker
▁girlfriend
▁terrifying
▁CS
▁stepp
▁dispatch
▁rendezvous
▁Pluto
▁former
planetar
▁glide
▁farthe
post
▁splendor
▁composite
▁Whirl
pool
▁Di
▁standout
▁expanse
▁unexplo
▁terrain
▁intrigu
▁molecular
▁nitrogen
▁propa
▁ubiquitous
▁envelop
▁sur
mised
▁condens
▁circumstance
▁350
▁zero
▁carve
▁gull
▁cataract
▁canyon
▁lowland
▁eeri
▁mist
▁Michigan
▁brimming
▁Jul
tifying
inuous
▁deployment
▁deploy
ticker
▁parade
▁union
▁colossal
▁goose
▁panoram
▁unambiguous
▁dendrit
lines
consolidate
▁highland
ario
▁Casp
▁Sea
stical
▁geographical
▁rival
▁active
▁composition
▁issu
▁examin
▁erupt
il
▁inference
▁stagger
eeming
▁coherent
▁protection
▁refract
▁exhalation
▁cradle
▁captur
skies
▁Shakespeare
▁compartment
▁annoy
▁steady
▁diet
▁satisfie
▁insatiab
▁woods
hik
▁frog
▁geek
▁wond
rous
aturation
▁author
▁darn
▁Canad
▁pester
▁Y
M
▁interven
▁shallow
▁Nature
▁boundless
▁meager
▁affair
▁reconcile
▁comic
▁Alien
▁mesmeriz
▁Clark
distinguish
▁cinema
ILM
▁premier
main
▁leapfrog
▁competitive
▁lagg
▁realistic
motive
▁shelve
▁Julie
▁epic
tlantic
▁port
▁HD
▁preparation
▁capsule
▁hydro
thermal
mitten
▁maker
▁Bismark
▁bot
▁spool
▁interior
▁deck
▁plank
▁corridor
▁operat
▁shipwreck
▁surreal
ja
▁vu
▁replica
▁tele
presence
▁avatar
▁inject
▁chemosynthe
▁advisor
▁cosmonaut
▁biomedic
▁protocol
▁astrobiolog
▁director
▁captain
▁damn
place
▁Made
▁glory
▁thrill
tuation
▁cops
▁combat
▁Create
▁unchar
▁territor
▁Pandora
magination
▁laurel
▁filmmaker
ailure
minster
hall
▁Kim
▁awaken
▁Bir
han
▁Ethiopian
▁Live
iana
▁Square
▁Iranian
▁sympath
▁dut
▁rectif
▁commands
▁frontier
▁slave
▁William
▁Wilb
force
▁protester
▁Egla
ebb
▁appall
▁Philippi
strada
▁regime
▁coup
▁Mu
gabe
remier
▁monk
▁blogs
pression
▁persecut
ung
▁Su
▁Ky
▁Te
hran
eign
▁welfare
▁fascis
▁Semit
▁racis
▁discriminati
▁sexualit
▁mark
▁singer
▁summarize
▁racial
▁oppressi
▁Combin
▁Climate
▁scandal
openha
▁persuad
▁agenda
▁transferr
▁Iceland
▁supervisi
▁prosper
▁midwi
▁Mir
iam
▁tuberc
ulosi
▁ragged
▁sadness
▁donation
▁importer
▁exporter
▁chains
▁unnecessar
▁commemorat
▁Rwandan
▁genocide
avorite
▁sport
▁Mak
▁Torture
▁torture
▁Nation
▁peacekeep
itarian
▁ridd
▁infuse
▁bind
▁Demos
then
▁reconnect
▁acquaintance
▁redefine
surpasse
▁gourmet
▁Flow
load
▁supply
▁humbl
▁Peace
▁seren
ir
vana
▁Amazon
▁gem
angi
oblast
▁uncertain
▁reader
▁illustration
▁obligat
▁mango
▁Camara
▁Laye
▁perception
▁kink
▁stirr
▁uninten
▁administrator
ural
am
▁Finish
raffi
led
▁Their
▁confuse
▁official
▁tribal
▁consequent
▁Maria
▁Care
▁stove
▁patronizing
▁Namibia
▁irritab
▁announcement
▁merchant
▁sail
▁156
▁breasts
▁Sub
▁Rudy
▁Kip
▁contend
▁synonymous
▁fleec
▁sneak
▁Guadal
ajar
▁tortilla
▁marketplace
▁immers
bject
▁immigrant
▁dependent
▁definitive
▁Mou
rid
▁Bar
ghout
▁arrow
▁arrival
▁colonial
▁abuser
▁Psycho
▁murderer
▁mild
▁representative
▁Tyle
▁Upd
ike
▁Steinbe
▁Ga
skill
▁unhapp
laughter
▁camps
▁cousin
▁Polle
▁Okol
pressive
▁jam
▁marg
arine
▁bread
▁ration
▁normaliz
▁invad
▁flatten
▁overlook
▁untru
▁incomplete
▁horrific
▁depressing
▁vacan
working
tar
▁Bak
▁Short
▁charm
▁readers
▁justifie
▁Fun
mi
anda
idgin
▁Yo
ruba
jo
ela
▁Marle
▁passport
▁innovative
▁br
▁infrastructure
▁thrive
▁Fara
fina
▁refurbish
▁organiz
▁malign
▁humanize
▁Alic
▁Walker
▁helpful
▁apprentice
▁interfere
▁semester
▁anticipate
▁dictionarie
▁unconscious
ugs
▁Erin
▁McKe
▁Exact
▁plural
▁Bost
▁Berk
▁Gl
eason
▁hoodie
▁linguist
▁usage
▁discourage
▁Creativ
▁whipp
pper
▁Linguist
▁delicio
▁k
▁caramel
broken
worm
castle
runch
▁lunch
otel
▁motor
▁motel
▁Edu
tainment
▁electrocute
▁execute
▁functional
▁Friend
▁Commerc
▁Edit
oz
▁bulldoze
▁butler
eronautic
dministration
ulate
▁Mugw
ump
▁Word
nik
▁Embrac
▁newborn
▁infanc
form
▁valid
▁navigat
▁anxiet
▁hopeless
▁retrospect
▁repetitive
▁Corn
wall
▁wicked
▁atheist
▁Catholic
▁nun
▁anomal
▁dread
▁steer
▁shooting
▁fledg
llis
▁Lee
▁biolog
▁Than
die
▁Ugandan
▁Norwegian
▁credi
itochondria
▁160
egitimate
▁Strange
▁revelation
▁esteem
▁bulimi
▁therapist
▁couch
▁assum
▁cheat
▁infant
▁inhabit
▁divisive
▁judgment
▁venge
▁authorit
▁therap
▁unthink
▁brutalize
▁psychopath
▁Pad
bling
▁desensitiz
▁farms
▁surge
▁Cru
cially
▁insane
▁torch
▁bount
iful
▁inevitabl
▁Simpl
▁Cycl
▁Nar
gis
mar
▁Million
▁supplie
▁geo
▁cod
first
▁popul
▁logistic
▁Map
bel
▁nominee
nando
▁De
to
off
▁trillion
▁Bridge
▁Senegal
lua
▁computational
▁victor
▁invitation
mappe
lcome
▁RoboC
ogeno
▁Alp
▁Homo
▁sapien
▁screens
▁Poppin
▁pound
▁lawn
▁yester
▁compress
▁whisper
▁tab
▁paleontologist
▁digg
▁incite
▁Luc
▁assembl
▁intimac
▁simultaneous
▁paleontolog
▁addict
▁technological
▁co
▁geograph
▁educator
MS
▁awesome
▁barbecue
task
▁Aquatic
▁Aquariu
sea
▁laborator
▁Key
▁Lar
go
▁aquanaut
▁Remote
▁Operat
▁Vehicle
▁tether
lf
▁Scientist
▁Oil
hills
▁Gold
▁robber
ROV
▁intention
▁forum
▁makers
▁hobbyist
▁prototyp
▁kit
▁Kickstarter
▁batch
▁manufactur
▁Tech
Shop
▁penguin
&
▁DIY
▁participat
▁desperate
▁matche
▁ideological
▁bonuse
▁bailout
▁affirmative
raging
▁articulate
▁Athen
▁Accord
▁Random
▁lotter
▁excellen
▁byproduct
▁trivial
▁circulat
▁Professional
▁permission
▁tournament
▁sued
▁disabl
▁accommodate
▁accommodation
▁decid
▁Raise
urance
▁Nick
laus
▁Arno
▁Palm
▁strenuous
▁ruling
▁wrestl
▁Stevens
▁ordinari
▁distinguishe
▁productive
athema
▁delicate
▁athlete
▁grappl
▁prominent
▁underlie
▁opponent
▁defender
▁elevate
▁discour
▁disagreement
▁coerci
▁pioneer
▁hookup
▁Beij
▁Massac
tts
▁Cat
▁passer
▁vintage
▁posture
▁geez
▁portrait
▁mug
▁crab
▁Add
▁salts
▁panhandle
▁mermaid
▁waltz
▁Wha
▁heartbeat
▁Mor
▁junior
▁var
▁cheerleader
▁swear
▁rhyme
▁scheme
▁monkey
▁kisse
▁Hell
▁budge
▁frown
▁socio
economic
▁colonialis
▁Alert
▁cash
▁seed
▁classic
up
▁Thum
▁beatbox
▁assure
so
▁applaud
▁kin
folk
▁innate
▁inhuman
izzy
▁hub
misphere
▁pursuit
▁enable
geri
ar
▁Gu
zhen
▁reverb
rumpet
ison
▁drum
▁pad
▁Noise
▁Sydney
▁Opera
▁Smoke
▁Jefferson
▁alike
▁appl
▁Pee
ping
▁Pull
▁999
▁remembering
▁astronom
▁nuke
▁Monday
▁Express
▁parachute
▁coastline
▁centi
tinue
▁Eagle
▁supernova
▁remnant
▁patche
▁smudge
▁scant
▁fusion
▁silicon
amorpho
▁subtract
years
▁irregularit
▁simulat
boro
▁Stars
▁sway
finish
▁gastronomic
▁speculate
▁spatial
▁imprison
math
▁Bottom
▁believ
▁zillion
▁chemistr
▁geometric
▁kilogram
▁engender
▁eff
▁paperback
▁Hour
tification
▁Target
▁implant
▁physi
▁greenhouse
▁extinction
▁Bio
technologi
▁reduc
▁fanatic
▁weirdo
adventure
▁terror
▁unacceptabl
▁downside
▁Bill
▁Joy
▁grain
▁relinquish
▁absurd
▁application
▁II
▁poster
▁premature
▁Joe
▁Equal
▁Pug
wash
▁Ber
trand
▁harness
▁optimal
▁doors
▁latter
▁Joseph
environmentalist
▁academic
▁stupendous
▁span
▁evolutionar
▁Belt
▁schematic
▁vaporiz
▁unthinking
emise
▁unfold
▁emergence
▁January
▁concertina
▁striking
▁tribute
▁cartoon
block
▁plaque
▁vignette
▁sterile
scape
▁gradual
▁volcan
▁eruption
▁Apart
▁trauma
▁wax
▁wan
▁sliver
▁vegetati
▁hundredth
oxide
▁ominous
▁intense
▁emitter
▁radar
▁transmission
▁Metallic
▁albe
extraterrestrial
▁spike
▁induc
▁alteration
▁elapse
▁runaway
▁vigil
▁spasm
▁foreclos
▁biosphere
▁stabilize
▁spawn
▁oas
see
▁McKenn
▁Pope
▁toymaker
▁Gavi
bang
▁fridge
▁unea
▁concoction
▁macaron
▁oven
▁purpl
▁Girl
▁featur
▁humongous
▁46
ventual
▁headquarter
▁unveil
▁silver
▁Won
ka
hocolate
▁Factor
▁obstacle
▁idio
▁Disgust
boy
77
AG
▁dog
▁Gut
rez
▁hurt
▁hater
▁bugger
▁reproduce
▁Evolution
▁forensic
▁hay
▁fever
▁disseminate
▁nose
▁chuck
▁grass
▁cereal
▁symbiotic
▁symbio
▁spreads
▁Plant
▁landing
▁strip
▁marking
▁li
▁unsuspect
▁flips
ps
▁load
▁jaw
▁crawl
▁Orchid
▁tricks
▁coevolve
▁erect
▁deceive
▁botanist
▁decei
▁kingdom
▁trot
using
▁gloss
▁obs
idian
▁insid
▁aggressive
▁bonk
▁deceiv
▁perfume
▁smelt
▁ga
udy
▁array
▁scent
▁nast
▁helico
▁blowf
lies
▁macula
tum
▁lord
▁pint
▁dam
▁boil
▁volatile
▁trapp
▁container
▁drink
▁wil
▁philo
dendro
▁sellou
▁Brazil
▁phall
▁metabolize
▁mammal
▁starch
▁burning
▁metaboliz
▁cat
▁unusual
▁thermoregulat
ropical
nsect
▁shade
liant
hem
▁bull
▁match
▁attach
▁tripod
▁prim
rose
▁Bjor
▁Rors
lett
rway
▁poetic
▁fertil
▁encapsulate
▁guts
▁tipp
▁immerse
▁topic
uinea
▁pig
source
▁radical
▁psychologist
▁poker
▁Fat
▁Know
ncyclopedia
annica
▁quest
▁Asian
iec
▁Kev
▁Kelly
▁Living
▁Biblical
▁Olive
▁Garden
▁polls
▁hip
▁Psalm
▁Commandment
▁multiply
▁twin
cane
▁obscure
▁Levi
▁kiss
▁poly
▁cotton
▁testicle
▁grip
▁gossip
▁pretend
▁dissonance
▁Prover
bs
▁sandal
▁robe
▁dressing
▁retaliate
arbaric
▁intent
▁Wikipedia
▁authors
▁relax
▁vocation
▁menstrua
fensive
▁evolutionist
▁gymnastic
▁gorgeous
ucky
▁sprinkler
▁sprinkle
▁prayer
▁Third
▁workaholic
▁Thou
idic
▁Jeh
ova
▁Wit
▁Bless
▁p
reconceive
▁varie
▁generalization
▁Letter
▁pamphlet
▁outcast
▁Jim
▁Walli
▁Tony
polo
▁disregard
▁separat
▁wool
▁Martian
▁miserabl
▁fundamentalist
▁denigrat
▁heave
▁wrestle
▁hail
▁taxicab
▁rent
▁bush
▁provok
▁cliche
▁uncompromising
▁provoke
▁Fort
▁wield
▁Brent
▁crucifi
▁unsurprising
▁Haiti
▁Samu
▁Pisa
▁Aus
witz
▁survivor
▁Holo
caust
▁teache
▁cruel
▁crucifix
▁horrify
▁Gh
raib
▁Guan
anamo
▁publication
▁insurgenc
▁Further
▁Guard
io
▁stigmatiz
▁Princes
▁Wales
▁Image
▁responsibilit
▁Katrina
▁deem
▁Eugen
▁Personal
▁Moor
▁Ar
ington
▁Ceme
▁haunt
sel
▁Fe
deli
▁Cia
gar
▁index
▁reassure
atal
uestions
▁activat
▁rehabilitati
▁depress
▁RD
▁Dubai
▁holiday
▁shocking
habi
▁garden
▁medicinal
▁cosmetic
▁herbal
dispute
▁recruit
▁modernize
▁wealth
▁morph
▁beneficia
▁sole
▁domain
▁bandwagon
▁Ranking
▁linguistic
▁pursue
▁til
lingual
▁gatekeeper
▁satisfy
▁segment
▁fulfill
▁requirement
▁Golden
▁equate
▁shoulder
sia
▁remedi
▁dyslexi
OE
FL
▁prohibit
▁headline
ivide
▁differentiate
▁nei
▁cooperat
▁achieve
NN
▁Hero
▁metaphorical
▁Mind
▁Use
▁consist
mala
▁merci
▁Elizabeth
▁Ta
ylor
▁traveler
▁translator
▁Mose
▁Abraham
▁Christ
rahma
▁Him
▁decree
▁reign
▁activator
▁exo
▁Islam
saw
▁battles
▁follower
essenger
▁grammatical
▁disciplin
▁hum
▁heartbreak
ith
▁qu
si
▁employer
▁ears
ompassion
▁dissolv
▁jug
▁Objectiv
▁breaker
▁exten
▁Jung
▁glorify
▁Bok
▁Ram
▁Om
atchi
nda
▁differ
▁sake
▁Mala
▁singular
▁physiolog
▁clay
stration
▁prostrate
▁embodie
▁stewards
▁verge
sai
old
▁sword
▁plow
share
▁glorifi
cation
▁rifle
▁bullet
▁numbing
▁Cold
▁scoop
▁Lump
▁Ever
ninsula
▁Co
mel
▁excavat
▁splash
▁Penn
lvani
▁atmospher
▁wipe
▁median
low
▁recreation
▁Macke
uditorium
▁heft
▁buffalo
▁antelope
hostbuster
▁rift
▁blast
▁forest
▁ecological
▁millenni
▁row
▁Science
▁Mayan
▁apocalyp
▁dooms
▁stadium
▁passe
▁kidney
36
▁awake
▁worrying
▁blessing
▁disguise
mpact
▁excavate
▁timing
▁millisecond
▁prove
▁fist
▁mach
rrrrrr
AM
▁velvet
▁glove
▁Prince
▁reference
▁prince
▁Rust
▁Schwe
ick
da
▁Southwest
▁Research
▁Institute
alnut
▁weigh
▁tumbl
hemical
▁generate
▁gentle
▁Star
▁Trek
nterprise
▁Brother
▁Bel
ushi
▁cramp
▁rattl
▁falls
▁grocer
▁hungr
▁juic
xcept
▁damag
▁flesh
▁peeling
▁numb
▁dug
▁clench
▁pedestrian
▁nerve
▁wrack
▁habituate
▁exhaust
▁Comed
ians
▁Sein
feld
▁comedian
▁innovator
car
▁wiper
▁hardwir
▁Job
▁fears
away
box
▁eternit
▁Typical
▁fixed
itant
▁neuroscience
▁algorithm
▁wood
▁anchor
▁concrete
▁optimiz
▁cha
grin
▁investor
▁shoe
lace
▁Vel
cro
▁mailbox
▁dumb
llo
▁gig
▁Orchestra
fund
▁cryptic
▁setback
▁tick
▁substructure
▁constituenc
▁stall
▁ugl
iness
▁bracket
▁apt
▁misjudge
▁repulsive
▁flourish
▁secretar
▁Conscious
▁taste
iddle
▁Eastern
▁route
▁eternal
▁omni
present
▁Remind
▁materialist
▁immaterial
▁del
ving
▁Genetic
▁revis
▁38
▁Potato
▁potato
▁48
▁chromosome
convenient
▁continual
▁flake
▁hairs
▁Taste
▁bud
▁Liver
▁spine
▁Atom
▁wavelength
▁chemist
▁Van
▁Hel
mont
▁bla
stral
▁Light
▁Electric
▁bumble
ight
▁Radio
▁radiat
omas
▁Edi
▁Lud
wig
▁Witt
stein
▁cheerful
▁bastard
▁Aud
▁Lang
▁improvisation
zar
▁Mathematic
▁inexpensive
▁arithmetic
▁Calcul
▁gambl
▁trends
▁discrete
▁uncertaint
▁summar
▁deviation
▁relic
▁inferr
▁Ultra
▁con
undr
▁flare
▁Jupiter
▁epoch
▁marks
▁exaggeration
▁CO
BE
▁MAP
▁stealth
▁kicks
▁expansive
▁matur
basket
▁foam
▁Sloan
▁Sky
▁radial
▁rotate
▁clump
▁View
▁Notice
▁boon
▁parse
par
sec
▁speck
▁node
▁occasional
▁intersect
▁intricate
▁assemble
▁contractor
▁rendering
▁teen
▁Cosm
ngular
▁flipp
▁sharp
ology
▁plate
▁hint
▁habitat
kyo
▁skyline
▁Missi
▁dimm
▁dips
▁toast
spot
▁manifestation
▁vary
▁iceberg
▁dramatic
▁bathe
▁bath
▁dismantle
▁Indonesia
▁Anna
▁Nicole
BC
▁Nair
▁Loc
▁Colombia
▁Similar
▁Reut
▁File
▁Project
▁supreme
▁Common
▁Era
▁reconcil
▁disparate
▁culprit
▁undef
▁derivation
▁Medi
eval
▁scholars
▁convention
CK
ometric
▁Hurricane
▁Weather
alga
▁tacti
▁audi
▁offshor
▁buoy
▁historical
▁compile
▁behavioral
▁timeline
▁tide
▁notation
▁nuance
compromising
▁collaborate
13
▁Trio
▁Mil
wau
kee
▁Mean
▁sculptural
▁embedd
atrix
▁assumption
▁alternative
▁entry
▁presume
▁Thursday
▁Ju
▁bomber
▁unknowing
▁detonat
▁maim
▁Hick
warrant
▁dehumanize
▁selective
▁Twenty
▁plunge
tangible
▁wa
▁Aliso
▁Design
lov
case
▁Fellow
▁Societ
▁gin
▁balanc
▁Australian
▁scarf
nique
▁instinct
oga
▁surrender
▁ID
▁tag
▁admitted
▁Difference
▁orientation
▁unconditional
▁brillian
▁ponder
▁unite
▁embarrass
▁rehab
▁breadwinner
▁kindergarten
eak
▁critical
▁neglect
▁backyard
▁chain
▁Capital
▁IT
▁snorkel
▁investigat
▁dolphin
▁whale
▁Pick
▁moist
▁crosse
▁naturalist
▁Oriental
▁Scarlet
▁Wander
lider
▁Pacific
▁wander
▁mediocr
▁endemic
▁endanger
verage
▁soak
▁Human
▁stream
variabl
▁Seem
▁archipelago
▁stretche
▁Down
▁Triv
▁Far
▁transect
▁bicycle
ches
▁scratch
▁fisher
▁vessel
▁Sey
chelle
▁withdraw
▁Kar
taka
▁southeast
▁converg
▁Summer
▁evaporat
▁conve
ction
▁convergen
▁hatche
▁La
▁Monarch
▁trans
ocean
▁feat
▁percolate
▁River
uria
▁refuel
eastern
▁latitude
▁strike
▁prey
▁Includ
▁Pi
▁Kashmir
▁compli
▁migrate
▁Nav
▁Fly
▁Needles
+
▁prevalent
▁scar
▁beside
▁waist
▁Six
▁diabet
▁stat
▁duff
uff
▁puff
▁fluorescent
▁reflectiv
▁opposition
▁reframe
▁Mao
▁Tse
▁tung
▁Emirat
▁entrepreneur
▁peacebuilder
▁enthusiastic
▁patriot
▁cute
▁heck
▁confess
▁soldier
▁hatred
▁friendship
▁cofound
j
di
▁Tour
▁archaeolog
▁congregation
▁maq
▁joint
▁belly
rthodox
▁stew
▁Northern
re
▁Buffet
▁admit
▁optimist
▁lifespan
▁reduction
▁phenomenal
▁measl
▁diarrhea
▁Death
▁1930
▁derivative
▁ironic
▁eliminat
▁temperat
▁paradox
▁afflict
▁understate
▁bite
▁indoor
▁spray
▁parasite
▁vigorous
▁eradicat
▁shrink
▁soar
▁visi
▁simulate
ise
▁generous
▁eradicate
▁biotechnolog
▁stunn
▁minorit
▁complet
▁retain
▁characteristic
▁vest
▁pension
nowledge
▁66
▁fifth
▁principal
▁fool
▁tenure
▁Advis
ate
nel
▁Matthew
▁Hard
▁Nic
▁stimul
▁Senat
▁elitist
▁snobb
▁diplomat
▁squash
▁champion
har
▁hunger
▁Mother
▁coma
eduction
▁Dig
▁identifi
▁Elder
▁qualification
qualifie
▁cop
▁competenc
▁midwife
etter
accessibl
style
▁Batter
▁bruise
▁mumb
▁jumbo
▁sq
▁Aga
▁Khan
▁Architectur
▁cast
▁aspersion
▁forester
▁qualifi
▁Forget
▁Clear
▁waterproof
▁jagge
▁kilowatt
▁panel
▁Food
▁fabricat
▁fabricate
▁parabol
▁Sche
ffle
▁teeth
▁liter
▁Democracy
▁elect
▁monitor
▁supervise
ueen
▁percentage
▁illitera
▁Puppet
▁Jok
him
cha
▁donor
▁friction
▁Shake
▁decentraliz
▁demystifie
▁Bhutan
▁untrain
▁Men
▁restless
▁compulsive
elevision
▁Telegraph
▁Telephone
▁Impossib
▁concession
▁Sign
▁chatt
▁Grandmother
▁summon
ifficult
▁Call
▁swagger
▁tiger
▁quotation
▁profession
▁fascinat
▁memoir
▁Eat
▁Pray
▁mega
▁sensation
▁bestseller
▁recall
▁genre
▁unst
▁grim
▁suicide
▁und
▁Norman
▁Mail
▁blink
▁internalize
▁odious
▁blunt
▁exceeding
▁Socrat
▁disembod
▁swallow
▁unmanage
▁erase
▁rational
istic
▁rubb
▁fairy
▁juice
▁pose
▁maddening
▁capricious
▁para
normal
▁thunder
▁barrel
▁poem
▁intact
▁uncann
▁pipeline
▁relate
▁sane
▁freeway
▁opportun
▁Leonard
times
▁manuscript
loud
▁Listen
▁performer
▁brav
aging
▁ascend
▁chant
▁spin
▁reconciliation
▁psyched
▁Continu
▁Ursu
hr
li
▁enlarg
▁indulg
▁Donald
▁Ba
ech
ler
organiz
▁tur
structure
▁hurry
▁juxtapose
▁aimless
▁reintroduce
▁clap
▁Joan
▁economical
▁canvas
▁skeptical
ige
▁Eig
▁Bern
von
f
weis
lich
▁ge
sch
▁spe
fisch
ssig
k
geme
▁Form
enschatz
▁neu
▁Wir
kung
gli
▁Ja
▁systematic
▁Niki
▁Saint
▁Pha
lle
▁unclear
▁tangle
▁plain
▁sunburn
▁vol
eyball
▁spare
▁analys
▁listing
▁pot
▁Kand
insk
▁arrange
▁categorize
▁filing
▁Jas
per
▁Johns
▁practic
▁ruler
▁discipline
▁embark
ritz
▁toothbrush
▁Vinc
▁van
▁inward
▁handicraft
▁arrangement
▁Jackson
ollock
▁fur
▁cup
ret
▁Oppenheim
▁pixel
▁Se
urat
▁Piet
▁pile
▁bookshop
▁flags
▁proposal
▁je
ez
▁navigate
▁Yet
▁sensor
▁Highway
▁jogg
▁highway
▁Mountain
▁crook
▁Lomb
▁stunt
▁Sebastia
run
▁gallon
oline
▁raising
▁bridge
▁strateg
did
▁Microsoft
▁SO
PA
TA
▁dispassionate
▁quantitative
▁propose
▁enlist
▁Moti
▁Picture
▁58
▁analyze
oulevard
▁Westin
▁penn
▁retail
▁corn
▁wheat
bacc
apster
▁theater
▁foreg
▁insidious
▁Neanderthal
▁Excel
▁Labor
▁Statistic
▁indicate
kit
▁harm
▁lobby
▁MP
lum
▁Classic
▁inquir
▁Theodor
▁addition
▁bask
▁glow
▁pervasive
▁resolve
▁apocryphal
▁93
▁inert
▁exert
▁substrate
▁prominen
▁describ
▁popp
▁screaming
▁Victor
▁swim
▁treatise
▁swimm
▁dove
▁minded
▁Number
▁192
kar
▁Park
▁irrelevan
▁viewpoint
▁thickness
▁refin
▁equip
▁tuck
▁refine
▁pursu
▁indicat
▁sparkl
uperstring
▁trie
▁uncut
▁holder
▁examine
▁entit
ubric
▁precis
▁fiddl
▁intertwin
▁Cal
abi
▁Ya
▁intertwine
▁tinie
▁Consider
▁horn
▁experimentation
▁CE
RN
▁Genev
▁forc
▁arena
▁mechanic
▁package
▁circum
ference
▁85
▁99999
▁diameter
▁electrical
▁snowflake
▁melt
20
▁copi
▁pour
▁thumbnail
▁189
▁tau
▁illustr
▁forebear
ester
▁Ern
▁discoverer
▁insult
ealand
▁twentie
▁underpin
▁elegan
enuous
▁bottle
▁champ
agne
▁convolut
▁glad
▁symmetr
▁simplification
▁symmetric
▁unscientific
▁Wad
▁Davi
▁froze
▁exponential
▁Smoot
▁fuse
▁Carl
▁Saga
▁V
▁Craig
▁Vent
▁elegant
▁Robin
▁Williams
▁tea
▁blueberr
▁moderat
▁cannabi
oid
▁mari
▁saturate
▁sugar
▁opiate
▁coca
▁chronic
▁wrinkle
diac
▁PET
▁progression
▁vitr
▁inhibit
▁potenc
▁Health
▁attack
▁gene
▁favorabl
▁promot
▁Navi
genic
▁Direct
▁23
Me
▁predisposition
▁approximate
▁emit
▁concentrat
▁spher
ical
▁wider
▁fixate
▁Coma
▁identical
▁velocit
▁blob
▁extrapolate
▁eyeball
▁skew
▁reception
▁devise
▁wine
glass
▁Draw
▁illusion
▁mirage
▁correspond
▁asympto
▁decrease
ories
▁crystal
▁collaborator
▁Minne
sota
▁annihilat
▁gamma
▁Hous
▁regress
▁youth
▁instinctive
▁Bush
▁doctrine
▁Boeing
▁Oo
▁39
▁Week
▁shaker
nais
▁missile
▁hotrod
▁Force
▁82
▁till
▁retreat
▁56
▁Grum
▁Lu
▁Lander
tenance
▁abandon
▁Craz
▁overlap
▁Computer
iller
IRS
▁Priva
uz
▁Moj
ave
Ship
One
▁resort
▁critic
▁Rutan
rides
▁Frog
▁Gore
▁commerc
▁Allen
▁El
▁Musk
▁Branson
zos
sari
elow
▁Carm
ack
▁colonize
▁SR
▁supersonic
▁cargo
▁parallel
▁NA
▁Rough
▁Slov
enia
▁mammoth
riff
vicin
▁dispers
▁skeleton
▁garment
▁preposterous
▁ancestor
▁conquer
▁frivolous
▁momentous
▁tubes
▁modifi
▁clavic
hor
▁typewriter
▁Flute
▁Rena
▁Baghdad
▁plac
▁pins
▁conceptual
▁conquest
▁necessit
▁exclusive
▁plaything
▁pleasing
▁delightful
▁Jacqu
▁flexibl
▁Victorian
▁Charles
abbage
▁analytical
▁programmer
▁wove
▁rubber
▁Necess
▁workspace
