<pad>
<unk>
<s>
<\s>
∇
τ
ZZ
æ
ë
Č
ää
š
ē
Ō
ì
XX
®
▁yapabiliri
ć
ô
QQ
ø
¥
ÜZ
ī
€
ê
อร
่
อย
ï
­
É
Á
©
à
́
ú
ō
ä
▁Bildiğin
°
£
ZX
ñ
Ğ
ã
è
Â
⁄
á
@
ó
í
~
^
*
_
Ö
+
̈
‘
=
üldüğü
▁dörd
▁değiştirebil
▁yaklaşıyor
▁öğretiyor
▁eşleş
▁toprağ
▁texnologiya
▁rəng
▁həmişə
▁Maldiv
▁etkileş
ebilseydi
▁Tanzanya
▁kahkaha
▁tanımladığı
▁Çoğunlukla
▁kriter
▁mahrum
▁tuğla
▁kaplumbağa
▁edebiyat
▁Danimarka
▁trajik
▁çevrim
▁mahremiyet
▁gösterebilir
▁transistör
▁hissəsi
▁getmə
Ç
▁qayda
▁kütlə
▁icra
▁Milyonlar
▁piksel
layabilecek
▁tayf
▁selam
▁slogan
▁Fazla
▁Yüzlerce
▁tarafinda
▁kucuk
▁şempanze
▁Diyelim
▁veritabanı
▁iğrenç
▁Yeteri
▁Teksas
▁şekl
▁turuncu
▁Rüzgar
▁Şiir
é
▁Ağaç
▁gördükleriniz
▁montaj
▁genetiği
▁psikiyatri
▁müfredat
▁hırsız
▁şizofreni
▁fizyoloji
▁Tunus
▁ihmal
▁karides
▁yelpaze
▁feet
▁kademe
dönük
ləyir
▁kəşf
▁qeyri
▁Albert
▁panik
▁şirin
▁santimetre
▁Hukuk
▁Nefes
▁sıçan
▁Yaptıkları
▁Endişe
▁Köpek
▁hatıra
▁çeyrek
▁Sınır
▁karanlığ
▁mektubu
▁kalıntıları
▁Hawaii
eographic
▁Endüstri
▁alıştırma
▁hoparlör
▁asansör
▁kraliçe
▁prens
▁entropi
▁İlaç
▁yüzgeç
hücre
▁qəbul
▁oynadığı
hazırda
▁qərar
▁təşkil
▁proses
▁pano
▁Apollo
▁implant
▁Şurada
▁çekirdeği
▁fevkalade
▁Kulağa
▁harcadığı
▁versiyon
▁enkaz
▁fakülte
▁müslüman
▁ürkütücü
▁coşku
▁ipuçları
▁tansiyon
▁İskoç
ograf
▁talih
▁karısı
▁Bahçe
▁Türkiye
▁soykırım
▁omurilik
▁Kök
▁keşfe
▁atlayı
▁Leonardo
▁Tesl
▁uyğun
roskop
▁Somali
▁şampiyon
▁Mühendis
▁mütevaz
▁İrlanda
▁tişört
▁cesaretlendir
▁Karanlık
▁öğüt
▁manevi
ebilmemiz
▁Bilinç
▁denetle
▁çiçeğ
▁röntgen
▁üzgün
▁Muhammed
Kaide
▁xəbər
▁maraqlı
▁tələb
▁qaz
▁vacib
▁Bronx
▁klişe
▁İncil
▁piramid
▁azınlık
▁süpermarket
▁hiyerarşi
▁dökül
▁Watson
▁lanet
▁üzgünüm
▁eklem
▁Olimpiyat
▁Bangladeş
▁kavuştu
▁makul
▁sansür
▁Finans
▁ritmi
▁çizelge
▁afet
▁Soğuk
▁Detroit
▁yapılacağın
▁zihniyet
▁baloncuk
▁gayret
▁yedek
▁Mayıs
▁nöqtə
▁razı
▁ehtiyac
▁gəlmə
▁meyilli
▁sızıntı
▁logo
▁astronot
▁iPod
▁Elektrik
▁görüldü
▁örüntü
▁Sekiz
▁Ticaret
▁uyguluyor
▁değiştiği
▁kabiliyet
▁cikar
▁vücud
▁kulübe
▁görüştü
▁festival
▁bayrak
▁Şili
▁mühim
▁insanoğlunu
▁tercüme
▁Profesör
▁imparator
▁Kapa
▁borsa
▁Brian
▁İlgi
▁zanned
▁argüman
▁Dördüncü
▁Singapur
▁düşünürüz
▁Life
▁Merkez
▁Grön
▁Julia
▁Sekoya
▁inkişaf
▁federal
▁Aşk
▁nötr
▁Köy
▁garaj
`
▁hapiste
▁çorba
▁sindir
▁sürüklen
▁tsunami
▁hayırsever
▁Çocuğu
▁servet
▁Kaçınız
▁İsmi
▁ipucu
▁Şubat
▁Jenn
▁kabuğu
▁editör
▁pantolon
▁halüsinasyon
▁obezite
▁keşfedilme
▁niyetli
▁etnik
▁Cuma
▁Örgütü
▁konsantr
▁düşünüp
▁levha
▁məsələ
▁GSM
▁olmayacağı
▁Demokrat
▁spesifik
▁anlaşılması
▁talimat
▁Silah
▁Etiyopya
▁niha
▁manşet
▁getireceği
▁verebil
▁ufacık
▁sponsor
▁doğaçlama
▁okuyucu
▁kliniğ
▁taciz
▁omurga
▁belirlen
▁meslektaşım
▁pamuk
▁misafir
▁olanağı
▁gütmeye
▁ışığ
▁evliliği
▁muhabir
▁oluşması
NSA
▁yatay
▁Kütüphane
▁mecbur
▁arayışı
▁Yemen
▁oluştuğu
▁Parkinson
▁oksitosin
▁dəyişi
▁mövcud
▁mineral
▁dəyişdi
▁Black
▁süzül
▁solunum
▁National
▁Norveç
▁efekt
▁Duvar
▁anlaş
▁Kitabı
▁çırp
uther
▁çoğunluk
▁desteklen
▁çocukluğum
▁yatkın
▁kurşun
▁yeryüzü
▁primat
▁ilerlet
▁görmedi
▁Kelime
▁ivme
▁beyefendi
▁laboratuar
▁personel
▁enzim
▁filozof
▁otoyol
▁ritüel
▁Adaları
▁avuç
▁Duygu
▁küçümse
▁çalıyor
▁bandı
▁Aklım
▁Anlaşıl
▁semptom
▁Devrimi
▁kapsaya
▁zekâ
▁origami
▁xüsusi
▁sahə
▁gələn
▁kömək
▁Saturn
▁görülür
▁Görünüş
▁püskür
▁açılma
▁Charlie
▁hekim
▁Sokak
▁şarj
▁beklenen
▁tasvir
▁Yıldız
▁talebi
lendiriyor
▁yaklaştığı
▁üzül
▁hissettikleri
▁fatura
çoğumuzun
▁Medya
▁Pekâl
▁çene
▁gündüz
▁tweet
▁yetmez
▁kuyruğu
▁içinizde
▁doğuştan
î
▁volkan
▁işitme
▁izole
▁klavye
▁modül
▁numune
▁hasat
▁ekonomistler
▁Berlin
xşı
▁müddət
▁rahatlat
▁oğlunu
▁işıq
▁düşmüş
▁əhəmiyyət
▁Mill
▁Gül
▁rast
▁yırtıcı
▁Delhi
▁buralarda
▁basladi
▁oluştuğunu
▁Koruma
▁şükür
mişsinizdir
▁illüzyon
▁Nihayet
▁istismar
▁bilgeliğ
▁Değer
▁belirtileri
▁Görev
▁tahıl
▁statü
▁göründüğünü
▁Yaratıcı
▁dəqiq
▁mövzu
▁musiqi
▁Henr
▁Virgin
▁Nelson
▁Ruanda
▁Bitki
▁zira
▁Microsoft
ilmemiş
▁rakip
▁soktu
▁Özgür
▁öğe
▁yoksulluğu
▁Şarkı
▁gelişiyor
▁cocuk
▁doğrultu
▁zafer
▁penis
▁uyuyor
▁geçirmiş
▁örgü
▁Şans
▁karşılaşıyor
▁denetim
▁ikon
▁bambaşka
▁Hücre
▁ipek
▁kültürümüz
▁eşdeğer
▁olamadı
▁Sahra
▁istihbarat
▁idam
▁yozlaşma
▁timsah
▁patern
▁olub
▁məlumat
▁qaranlıq
▁gülüş
▁biləcəyi
▁bənzə
termal
▁Vakfı
▁kristal
▁hemfikir
▁vasıtası
▁bulunduğunu
▁Simdi
▁Seçim
▁şahane
▁çabu
▁Binlerce
▁evlat
▁gitmiyor
▁çağdaş
▁buluştu
▁işkence
▁içimde
▁yüce
▁plak
▁örnekte
▁istihdam
bilecek
▁arşiv
▁sistematik
▁coğrafya
▁spektrum
▁süpür
▁Taliban
▁günəş
▁coğrafi
▁aktiv
▁atlet
▁Tony
▁yayılmış
▁Gates
▁öldürücü
▁bilgilendir
▁dürtü
▁fırça
binlerce
▁ampul
▁Belir
▁Şehri
▁ödüyor
▁sakat
▁aslin
▁dogru
▁çiğ
▁bahsedil
▁görülebilir
▁2050
▁LED
▁göğsü
▁lens
▁patates
▁gerçeğ
▁muayene
▁Brown
▁bahsetmiş
▁yükselişi
▁kapanı
▁tükenmiş
▁burun
▁İspanyol
əlkə
▁tərəf
▁Polis
▁düşünürsünüz
▁düşünürdü
▁Mikro
▁Aristo
▁Nick
ound
▁gözükme
▁topladığı
▁duymuşsunuz
▁dışkı
▁haricinde
▁olamayacağı
▁niteliği
▁goster
▁evvel
▁takıntı
▁minnettar
ville
▁mağdur
▁masum
▁gereksinim
▁Bebek
▁döndürü
▁jeo
▁Haziran
▁ihlal
▁bankacı
û
▁saldırgan
▁Nano
▁İspanya
City
▁halihazırda
▁peynir
▁başarama
▁bütünüy
▁cihad
▁hələ
▁təhsil
▁bank
ütü
▁paraşüt
▁popülasyon
▁başlıca
▁Düşündü
▁Kişisel
▁Bilmiyorum
▁ihtiyac
▁destekliyor
▁Vietnam
agos
▁Lider
▁irade
▁ertesi
▁direnci
▁Çağ
▁yürürken
▁alarm
▁Florida
▁Yanlış
▁düşünebiliriz
▁Hatırla
▁Cambridge
▁edeceğimiz
▁netice
▁interaktif
▁psikolog
▁eşitsizliğ
▁pişmanlık
▁kızgın
▁səs
▁özünü
▁sağlayabil
▁Model
▁küreselleşme
▁isyan
▁goz
▁kapağı
▁lüks
▁rezerv
▁acayip
▁Mükemmel
▁sattı
▁Green
▁imge
▁kirlet
▁husus
▁Sovyet
▁enjekt
▁Arjantin
▁cinayet
▁Başlangıç
▁bencil
▁evcil
▁belirleye
awa
▁sandviç
▁görüldüğü
▁bulaşıcı
▁Wikipedia
▁hansı
▁peş
▁farz
▁kopar
▁Yukarı
▁uzaklıkta
▁dalgalanma
▁95
▁mutluyum
▁sunduğu
▁çekirdek
▁aykırı
▁Örnek
▁kombinasyon
▁Gitti
▁donmuş
▁yankı
▁emek
▁tabu
▁feminist
▁kurulmuş
▁ortamında
▁banyo
▁zarif
▁fiber
▁alem
▁Asker
▁darbe
▁alıkoy
▁taze
▁enfekte
▁sipariş
▁prensibi
▁imalat
▁estetik
▁nehrin
▁görmekte
▁kaçınma
▁meclis
▁Dijital
▁karşılığında
▁nəticə
▁üzərində
▁əslin
▁oxu
▁əlaqə
▁sürət
▁maşın
▁yağış
▁asteroid
▁Antarktika
▁pay
▁2001
▁burnu
leştiril
▁Yaşlı
▁yeraltı
▁hatırlatıyor
▁kirliliği
▁mekaniği
▁baska
▁gerçekleşmesi
▁bahsettiğimiz
mazsınız
▁üzücü
▁öbür
▁klip
▁sömür
▁sunucu
▁Genellikle
▁kemer
▁durak
▁Gazete
▁attığı
▁salgı
▁renkte
▁Petrol
▁hiçbirşey
▁korsan
▁Atlantik
▁tabanı
▁düşünmüyor
▁kuşak
leştiren
▁Kontrol
▁zincir
▁ölecek
▁mıknatıs
▁eğim
▁ogren
▁yığ
▁aldatma
▁Hazır
bilirdiniz
▁doğma
▁kumaş
ER
▁Akademi
▁geldiğimde
▁gercekte
▁ünite
▁Kural
▁ironi
▁anlatır
▁Etki
▁Hızlı
▁Str
▁Kapı
▁kırıklığın
▁eşcinsel
▁alabiliyor
▁çürü
▁sentetik
▁görecek
▁tadını
▁çevrimiçi
▁imaj
EC
▁kaçak
▁öncülü
▁kalkınma
▁dövme
▁denizaltı
▁Demokrasi
▁rüşvet
▁gözəl
▁vasitə
laşan
▁qalaktika
▁sayılır
▁bahar
▁tuş
▁inkar
▁Sabah
▁tropik
▁mega
▁devri
▁parazit
▁Yavaş
▁varoluş
▁Afgan
▁yapamıyor
▁istemediği
▁konuşuyordu
▁Silikon
▁gittiğimiz
▁becer
▁azalıyor
▁beste
▁ırkçı
▁paradigma
▁şaşkın
▁etkinlik
▁Bekle
▁batarya
▁hoşlanma
▁ilave
▁alabilme
layabiliyor
▁trajedi
leşen
▁elinizi
▁korkar
▁başladığında
▁derinliklerin
▁görülmemiş
▁karışımı
▁Eric
▁çaresiz
▁Gülme
▁yardımıyla
▁yeryüzünde
▁hormon
▁retina
▁hesabı
▁Belə
▁Big
ation
▁kalkıp
▁sınırı
▁Ford
▁bıraktığı
▁aşamasında
▁Biyoloji
▁çalışacağım
▁Işık
▁yıkıcı
▁İsviçre
▁hakkinda
▁onemli
digimiz
▁bulamadı
▁ödün
▁eğiliminde
▁uzaklaştır
▁grub
▁Oxford
▁görebildiği
▁Matematik
▁sorduğu
▁galeri
▁akıntı
▁seçtiği
▁böceği
▁görmüştü
▁biliniyor
▁reaksiyon
▁konularda
▁işlevsel
▁Yemek
▁mizah
▁edemeyeceği
▁yüzleşme
▁çekilme
▁davranıyor
▁saklama
▁bitiş
▁güvercin
▁kahverengi
▁solucan
▁çikolata
▁maalesef
▁görebileceği
▁rekor
▁programcı
▁telif
▁dinazor
▁Smith
▁cür
▁çətin
▁Beləliklə
▁2003
▁növ
▁Kişi
▁kabin
▁2012
▁keyf
▁William
▁oynadı
▁oturduğu
▁Birçoğu
▁Stanford
▁koyduğu
▁esinlen
▁okudu
▁Bölge
▁kolunu
▁fırın
▁uçuyor
▁Krallık
▁pişir
▁getirebilir
▁kurduğu
▁sanıyorum
▁partner
▁bağımlılık
▁anatomi
▁gerçekleştiği
▁atlat
▁başvuru
▁benzetme
▁ergen
▁kurbağa
▁dramatik
▁şüphesiz
▁Makine
▁Bazılarınız
▁kaynaklanıyor
İH
▁emniyet
▁helikopter
▁nöroloji
▁koltuğu
▁Sahip
əgər
▁cavab
▁profil
▁kosmos
müz
▁yoğunluk
▁verilmiş
▁umursama
▁bildirim
halde
▁hissetti
▁yenilenebilir
▁İnanıyoru
▁gelmesini
▁Chicago
▁kariyerim
▁Britanya
▁oluşumu
▁kelimeleri
▁kalitesini
▁degis
▁inceliyor
▁belediye
▁transfer
▁bahsettiği
▁hayatınızı
▁Erkek
▁fiil
▁kullanılır
▁Scott
▁gerektiriyor
▁mevsim
▁telefonunuz
▁Özel
▁içimizde
▁göreceğiniz
▁davranışsal
▁şapka
▁Aslın
▁bıçak
▁şahs
▁dağınık
▁basınç
RB
▁çöküş
▁titreşim
▁Ebola
RNA
▁etməyə
60
▁alınmış
▁uçma
▁fikr
▁eğ
▁Noel
▁Politik
▁bardak
▁pound
▁çakı
▁buluyorum
▁yuzde
▁köşesinde
▁okuduğum
▁Geleneksel
leştirilmesi
▁bozulma
▁köyün
▁çamur
▁negatif
▁reçete
▁beraberinde
▁İzleyici
▁yiyeceği
▁kısıtlı
▁Müzesi
▁yıkıl
▁dinliyor
▁acımasız
▁Yardım
▁hükumet
▁kullanılması
▁anlamsız
▁tamamiyl
▁karaciğer
▁çıxar
▁aranızda
▁hərəkət
▁trans
▁evimiz
▁koridor
▁120
▁aşina
▁şansımız
▁Saat
BA
BC
▁26
▁Ortalama
▁adlandırıla
▁söyleyeyim
▁öldürdü
▁paralel
▁işgal
▁uğraşan
▁akışını
▁motive
▁bakımından
▁kalori
▁katılıyor
▁karşılaştığımız
▁pirinç
▁görünmüyor
▁çıktığında
▁yaratabilir
meyeceğim
▁öyleyse
▁terörizm
▁Evrim
▁kazanıyor
▁arkadaşlarınız
▁gecekondu
diyini
▁iplik
▁Vo
▁duman
▁çarpma
▁rota
leşir
▁diyalog
▁Hristiyan
▁Yerel
▁şehr
▁bilge
▁geleceğimiz
▁tuttuğu
▁gönderiyor
▁aygıt
▁tünel
▁gergin
▁Güvenlik
▁Bankası
▁istikrar
▁2006
▁kumanda
▁eşitsizlik
▁şablon
▁cidden
▁Kongo
▁basamak
▁Körfez
▁değiştiğini
▁referans
▁bozukluğu
▁Hastane
▁düğüm
▁Bakanlığı
▁konuşmamı
▁severim
▁seviyesini
▁enteresan
▁türünü
▁karmaşa
▁hacker
▁emisyon
ırıq
▁şair
▁bio
taşı
▁dayanara
▁oynayan
▁kaydedil
▁esnasında
▁mutfak
▁haritasını
▁33
▁Güven
▁Hintli
▁Gand
▁isimlendir
▁yosun
▁faydası
▁sokma
▁güce
▁Olay
▁yitir
▁ressam
▁trend
▁GSY
▁Elimizde
▁Kutbu
▁qar
▁şəkildə
▁qız
▁artırma
▁10,000
▁satıcı
▁başlığı
▁cisim
▁olmasaydı
▁100.000
▁geometri
▁uçtu
▁sırrı
▁yıldızların
▁sokağ
▁hic
▁pişirme
▁tümüyle
▁başvur
▁birikim
▁geçecek
▁yakalanma
▁bırakıp
▁buluşma
▁oluşmuş
▁sezon
▁bakıyorsunuz
▁koşul
▁çukur
▁taşıyıcı
▁sopa
▁bitti
▁istasyonu
▁vb
▁fotoğrafını
▁çıkarak
$
▁alıyordu
ıldığını
▁başarısızlık
leştirir
▁dizüstü
▁istəyir
▁istədi
▁məktəb
▁Manhattan
▁satır
▁uçurum
▁kesti
▁dönüşüyor
▁simülasyon
▁kesiş
▁fiziği
▁Durum
▁istediklerini
▁gerekmiyor
▁kaydetme
▁halini
▁kaos
▁muydu
▁bakıyorum
▁vadeli
▁şov
▁bulaş
▁sabır
▁Hâl
▁tepesinde
▁yaramaz
▁edemiyor
▁antibiyotik
▁anlayama
▁verdiğiniz
▁Dön
▁Hollanda
▁dinozor
▁yolculuğ
▁Merak
▁çubuk
▁patron
▁piyano
▁gideli
▁sinema
▁uğultu
▁kısıtlama
▁santral
▁ölür
▁bilinir
▁Street
▁Ağı
▁davranışlarını
▁Nobel
▁liberal
▁kuyruk
▁beton
▁sayıları
amadım
▁Çift
▁kutlama
▁düzenlen
digini
▁çare
▁anlıyorum
▁iskeleti
▁mürekkep
▁zıt
▁kullanıldı
▁aptalca
▁CEO
▁Laboratuvar
▁bozukluk
▁paylaşıyor
▁sundu
▁hipotez
▁kalırsa
▁İçeri
▁Orman
▁üretir
▁yaşayacak
▁önlem
▁üretilen
▁kapitalizm
▁inovasyon
başı
▁haqqında
▁tərəfində
▁örtü
▁yayıldı
BI
▁ulduz
▁fikrimiz
▁bağlaya
▁Yahudi
▁mısın
▁eğitil
▁sorunumuz
▁bittiğini
▁Öte
leştiriyor
▁bilişsel
luyoruz
▁davranışları
▁tanıştır
▁hita
▁diyebilirsiniz
▁kurar
▁ped
▁arttırma
▁eğil
▁Etrafı
▁çıktığını
▁amca
▁duymuş
▁yüzleş
▁Anlat
▁sözlük
▁yetecek
▁hakikat
▁düzenledi
▁formül
▁miktarını
▁tekniği
▁büyüdüğü
▁yapamayacağı
▁kısıt
▁Mimar
▁öğrendi
▁PM
▁Rio
▁düşünürsek
▁dəfə
▁təsir
▁baca
▁Enerji
▁Yü
▁Whit
▁ağız
▁zorlama
▁buzun
▁ideoloji
▁mod
▁250
▁Kırmızı
▁tanıştığım
▁saklı
▁vazgeçme
▁enstitü
▁kusursuz
▁giderse
▁ödedi
▁sentez
▁ulaştığı
▁benzediğini
▁Kullan
▁bittiği
▁bastır
▁mezar
▁kurucu
rtesi
▁bacağı
▁yapıcı
▁Okyanus
leştirdi
▁düşünecek
▁hoca
▁otomobil
▁enstrüman
▁doğmuş
▁çarpışma
▁Devam
▁Problem
▁həqiqətən
▁Yə
▁ölkə
▁Robert
▁maddi
▁karmaşıklığı
▁ekstra
▁bitirdi
▁kapsamlı
▁gerekecek
▁Uganda
▁Hepsini
▁vermiyor
▁dakikalık
▁tören
▁Program
▁üstte
▁yüzeyinde
▁kırılgan
▁büyüklükte
▁kullanıyorum
▁çalışacak
▁sanıyor
▁teşkil
▁kentsel
▁baktığımda
▁ısrar
▁ödev
▁torunları
▁Kültür
meliyim
▁boğul
▁cennet
▁silahlı
▁Californi
▁28
▁oğlan
▁götürür
▁Bob
▁dünyamızı
▁rica
▁dolduru
▁ölçeği
melisiniz
▁korktu
▁yetişkinler
▁Kalp
▁şerit
▁değerini
▁düşünceleri
▁atalarımız
eşke
seksüel
▁hüküm
▁kenarında
▁Mor
▁işlemi
abiliyordu
▁2011
▁siber
▁Muhteşem
▁duyduğu
▁Güç
▁hatırlar
▁yerleşim
▁çember
▁kaygı
▁maske
▁düşünmüştü
▁olacaq
▁mikrofon
▁qadın
▁Çalış
▁yayılan
▁uyuş
▁ödüllendir
▁Geçtiğimiz
▁Modern
▁ilişkilendir
▁akış
▁nazik
▁torba
▁bayılıyor
▁çeşidi
arry
▁kardeşleri
▁Erkekler
▁yazılımı
▁çözünürlük
▁almıştı
▁hızını
▁ısır
▁kendiliğinden
▁figür
▁Suriye
▁programlama
▁kuyruklu
▁yolcu
▁çevirdi
▁maddə
▁yayımla
▁ultra
▁silahları
▁Haiti
▁yaşanan
▁yatıyor
duğunuzda
▁götürüyor
▁nüfusu
▁yapılır
lüğünü
▁gidiyordu
▁kaynaklarını
bilim
▁Hedef
▁yanındaki
▁şebeke
deydim
▁basar
▁takılı
▁Önümüzde
▁gerektiren
▁Vadisi
▁Ocak
▁yayınladı
▁alkol
▁taşır
▁mutsuz
▁gösterecek
▁dikey
meyeceği
▁yerleştiril
▁Okyanusu
▁perde
▁üretebil
▁yerlerinde
▁hatırlayın
▁Derek
▁sevimli
▁Jeff
▁yanımda
▁alındı
ğunu
▁canlandırma
▁dizilim
▁yavaşlat
▁içgüdü
▁Uluslararas
▁kuruluşları
▁kalktı
▁Eminim
▁umuyor
▁Doğal
▁katılımcı
▁haberleri
▁Gerçekte
▁sag
▁sıkışı
▁amaçlı
▁etmeliyiz
▁olmalısınız
▁destekleyen
▁alakası
▁kardeş
▁modelin
▁kitapta
▁ulaşılabilir
▁özür
▁isteyeceği
▁oluşturduğu
▁çocukluk
▁alanlarında
▁kabuk
▁kazanç
▁seyred
▁bölümünde
▁gerektirir
▁katil
▁örümcek
▁vermişti
▁oluşum
▁elinizde
▁kromozom
▁metin
▁geliştirdi
▁düşünürken
▁Nə
▁kitab
▁dördü
▁opera
▁verildi
▁vurma
▁2004
▁dibin
▁hidro
ışını
▁yerleş
▁optik
▁ticareti
▁kısme
yorsun
▁kullanılma
▁öğrendiğimiz
▁yapıyorsunuz
▁vesaire
▁etken
▁bilinmeyen
▁gazı
▁bazılarınız
▁online
▁çılgınca
▁yepyeni
▁sürecinde
▁çocuklarımızı
▁samimi
▁İster
▁kurumsal
▁dayanıyor
▁meselesi
bilimci
▁eviniz
▁çağında
▁konuştuğumuz
▁babamın
▁başlatma
▁kartı
▁kaldığı
▁Hint
▁kullanabileceği
▁tarayıcı
BG
▁qoy
▁bəzi
ləşdir
▁edirəm
▁alırsınız
▁bağlıdır
▁aktivist
▁Siyah
▁Jim
▁1950
▁Filistin
▁başlık
▁çözmeye
▁tasarlay
▁değişir
▁yarısında
▁yangın
▁hattı
▁sorgulama
üydü
▁Dinle
▁ödülü
▁yapımcı
▁peri
▁Öğrenciler
▁hatırlıyor
landığını
▁intihar
▁endüstriyel
▁okyanusta
▁durumunu
▁mantığı
▁koşulları
▁nəzər
▁Fizik
▁genomu
▁istisna
▁duyduğunuz
▁olacağına
▁portre
▁golf
▁oradaydı
▁nakli
▁meşhur
▁yakaladı
▁İçinde
▁olmayabilir
▁kusur
▁başladığımda
▁karşılaştırma
▁maliyetli
▁gidin
▁açıp
▁reform
▁sihir
▁unuttu
▁kemiği
▁korkma
▁simge
▁zehirli
▁dinledi
ılmıştı
▁cömert
▁Öğretmen
▁ilişkileri
▁koydum
▁kırık
▁yapıldığını
tığınızda
▁İnan
▁disk
▁Günü
▁mikroskop
▁olmasından
▁astronom
▁kıy
▁başladığını
▁kağıdı
▁özen
▁haklarını
▁Kısaca
▁kalitesi
ilecek
▁çıkarıp
▁once
▁sure
▁cun
▁kullanışlı
▁geçirdik
▁alışkanlık
ürekli
dıklarında
▁Birlikte
▁alabilirsiniz
▁içlerinde
▁kötüsü
stil
▁izleyen
▁gereği
▁doğası
▁jenerasyon
▁radyasyon
▁matematikçi
▁ətraf
▁sadə
▁Yara
asiya
▁yazan
▁2005
▁Telefon
▁rejim
▁lazer
hall
teknoloji
▁orijinal
▁Alan
▁tutukla
▁yapılabilir
▁kapsam
▁kalmadı
▁temizleme
▁sunmak
▁disiplin
▁üyeleri
▁güncel
▁tasarımın
▁gösterilen
▁Alex
▁beklenmedik
▁sekil
▁bildikleri
layabileceği
▁özellik
▁kaybediyor
▁örtüsü
▁umutsuz
▁önemsiz
▁baylar
▁buradayım
▁Kısa
▁resif
▁sihirli
▁rehber
▁yetenekli
▁sebze
▁fiyatı
▁çoğumuz
▁mutasyon
▁kullandım
▁tedarik
▁tanesini
▁zehir
▁formları
▁kaybetmiş
▁İklim
▁DH
azı
▁insansız
▁kəs
▁Yazı
▁yazılı
erry
▁başlamış
▁19.
▁ömür
▁konsept
▁biyolog
▁ödeye
▁eksikliği
▁yapmasını
▁itiraf
▁yaşıyordu
▁sanmıyorum
▁aşkın
▁elektriğ
▁işliyor
▁oluşturduk
▁keskin
▁etkileme
▁istersiniz
▁edinme
▁düşünmeniz
▁çıplak
▁hariç
▁okuyor
▁gerçekçi
▁dönen
▁sınav
▁Başarı
▁çekimi
▁oluştu
▁Kitap
▁mikroplar
▁yükselme
▁utanç
▁kuvvetli
▁dâhil
▁öngör
▁korkusu
▁mısır
▁gəlir
▁Düz
▁istəyirəm
▁32
Ş
ğına
▁İst
▁yatağı
▁soyu
▁başlangıçta
▁YouTube
▁yayılması
mezdi
▁gökada
▁büyüyor
▁neresi
▁güzelliği
▁sıcaklığı
▁yollarını
▁Kongre
▁değiştirmeye
▁izni
▁koruyucu
▁dönüştürül
▁Yaptığımız
▁istediler
▁kaldırma
▁uğraşıyor
▁ekipman
▁edersek
▁grafiğ
▁orkestra
▁əsas
▁deyir
▁ildə
▁oyunları
▁Düş
▁bilmir
▁Söz
▁mülk
▁ölmüş
▁Fikir
▁Martin
▁gizemli
▁element
▁Peter
lenir
▁almayı
▁Cam
▁Mus
▁1970
▁metod
▁Lütf
sch
▁frekans
▁Col
▁Yeşil
▁somut
▁gittiğimde
▁kapak
▁ilişkili
▁bitme
▁gelmesi
▁Milletler
▁boyutta
▁veriyorum
▁cebi
▁biriktir
▁edebilecek
abildik
▁taşımak
▁dışındaki
▁pasif
▁diyebiliriz
▁meslektaşları
▁düşünüyordu
▁bekler
▁edeceğiz
▁protez
▁sonuçlarını
▁fotograf
▁görebiliyoruz
▁sürpriz
▁sevdikleri
▁gülüşmeler
▁motivasyon
▁boşal
▁davranma
▁orası
lmüş
▁çelik
▁etik
▁MS
▁the
▁ima
▁yönü
▁kabiliyeti
▁kolaylaştır
▁yapmadı
▁yapamaz
▁karşılaştığı
▁uçağı
▁dağıtım
▁sıkıştır
▁bariz
▁yumuşak
▁kılavuz
▁deprem
alesef
▁bulundur
▁kalmıştı
▁erkeğ
▁gerçekleşti
▁elini
▁Önemli
▁değişen
▁şarap
▁gübre
▁topluyor
▁geleceğ
▁cazibe
▁taşındı
▁olabildiğin
▁Pasifik
▁oluruz
▁dalış
▁bebekler
▁şempanzeler
▁neşe
▁döngüsü
▁fotoğrafçı
▁tasarladı
▁pul
▁riski
▁global
▁600
▁aramızda
▁umur
▁Aşağı
▁iyileştir
▁vurgu
▁Tor
▁öğretmenleri
▁psiko
▁lob
▁yapıldığı
▁bulunduğumuz
▁toplumu
▁etrafındaki
▁gidiyoruz
▁öğrenmeye
▁benzin
▁ülkedeki
▁odadaki
▁koştu
▁çekilmiş
▁soyle
▁oldugunu
▁geçirir
▁kaybettiği
▁kablosuz
▁paylaşım
▁Ödül
▁kırıl
▁anımsa
▁gelmeye
▁geliştirdik
▁yaparız
▁görünüyordu
▁şikayet
labilirsiniz
▁görmüyor
▁Kafa
▁göreceğiz
▁köpeği
▁arkasındaki
▁zorunlu
▁hey
▁Çox
▁tasarımcılar
▁aldığınız
luğunu
▁poster
▁yayma
▁ayrıldı
▁gücümüz
▁yaparsınız
▁Hükümet
▁Devlet
▁kalmayı
digim
▁vereyim
▁Seni
▁Tanı
▁kızların
▁katlan
▁kavga
▁umuyorum
▁getirecek
lanacak
▁etkiliyor
▁görüntüleme
▁pembe
▁önyargı
▁karşılaşma
▁bölümünü
▁açmak
▁çıkması
▁gücüne
▁programları
laşıyor
▁yapmıştı
▁başardık
▁şef
▁lezzet
▁eyni
▁hara
▁çirkin
▁ancaq
▁10.000
▁Boston
▁varlığını
▁ışın
▁felç
▁Dışarı
▁isterdi
▁açtığı
▁görünüm
▁anlatmaya
▁konuşurken
▁görebilme
▁şiddetli
▁bekleyen
doğu
▁Pazar
▁istemedi
▁kucak
▁kaydetti
▁kalmıyor
▁heyecanlandır
▁uyumlu
▁canavar
▁ümit
▁kafatası
▁tüketimi
▁kazanan
mısınız
gər
dəki
▁şəkil
▁çalma
▁cins
vol
▁tara
laştı
▁parla
▁bahseder
▁maç
▁Mavi
▁geliştiril
▁diren
▁gerçekleşiyor
▁istiyorsak
▁Latin
▁Fotoğraf
▁düşünerek
▁genelinde
▁çıkacak
ildiğinde
▁sahnede
▁söylemeye
laştığı
▁parmağı
▁yapabildiği
▁gide
▁Gece
▁yaratıcılığı
▁aktör
▁öden
▁filtre
▁geleceğini
▁besleme
▁bakıyoruz
▁mühendisliği
▁bağışıklık
▁söylemişti
laşdı
▁Tur
ğımız
▁She
▁evlilik
berg
▁farketme
▁sıçra
▁roket
▁3.
eceğimizi
▁Nor
▁seviyesinde
▁dönelim
keresinde
▁bölgelerinde
▁gezegende
▁saldır
▁tiyatro
▁ismini
▁duyguları
▁vücudu
ımızdaki
▁kullanmayı
▁müzisyen
▁çelişki
▁ebeveynleri
▁altta
▁bilgisayarın
▁çip
▁inanıyoruz
▁kazı
▁düşündüğü
▁yapabileceğiniz
▁Alzheimer
▁okudum
▁yönünde
▁terör
▁otizm
▁felsefe
▁kodu
lərlə
▁bez
▁Cas
▁Robot
▁hesapla
▁Sch
▁Ölüm
▁koleksiyon
▁kayda
▁öldüğü
▁düşünmüyoru
▁memur
▁edebileceğiniz
▁Enstitüsü
▁perspektif
▁şehirlerin
▁hayvanları
▁korteks
▁matematiğ
▁karbondioksit
▁üye
▁sorduğum
▁MR
▁müziğin
▁atmak
▁geçmişi
▁Kanser
▁paylaştı
▁söylemeliyim
▁olumsuz
▁açlık
▁söyleyeceğim
▁yürüdü
▁pompa
▁modelleri
▁Süper
▁röportaj
▁Frank
▁yoru
▁sevin
▁yaşlarında
▁pre
▁Kor
▁Amerikalılar
▁Ger
ymış
▁Paris
meyeceğini
▁huzur
▁topar
▁dokusu
▁yaklaşımı
▁çocuklarımız
▁bırakır
▁ilerledi
▁oldugu
▁evrende
▁bayağı
▁dunya
▁malzemeleri
▁vücudumuz
▁efsane
▁yaratıcılık
▁verilme
▁Yaptığı
▁görebil
▁rolü
▁gözlerini
▁paylaştığı
▁değiştirir
▁çamaşır
▁değin
▁küçü
▁antik
▁diyecek
▁onlarca
məyi
▁digər
▁oturur
▁ömrü
batı
ight
▁olmazdı
▁sav
▁Dikkat
▁döndüğü
▁eleman
▁mutluluğu
▁edilemez
▁geçirdi
▁Francisco
▁düşer
▁olmalıydı
▁desteği
▁temin
▁Korku
▁protesto
▁çalışmıyor
ollywood
▁oynar
▁yazıcı
▁Karşı
▁akışı
▁okulu
▁amacıyla
▁vadede
▁resimde
▁detaylı
▁Görüyorsun
▁grip
▁tavuk
▁verdiğim
▁yaxın
lur
▁giz
MA
▁ölümcül
▁gözlü
▁otorite
▁kabullen
▁eğitme
▁felci
▁olmalıyız
▁şekillerde
▁nasil
▁yil
▁kapatma
▁yurt
iriz
▁açıklamak
▁artışı
▁iyileşme
▁gelmez
▁animasyon
▁kardeşi
▁redded
▁uzmanları
▁Bayan
▁tesadüf
▁davranışı
▁düşüncesi
▁çalışıyordum
▁çalışmanın
▁göründüğü
▁Tim
▁elma
▁mana
▁parçasını
▁alınma
▁Min
▁olacağım
▁tetik
stati
▁Mary
▁For
mezler
▁ilerliyor
▁öğreniyor
▁ağırlık
▁sakla
▁Gezegen
lenebilir
▁yaşta
▁teorisi
▁kuşlar
▁keşfi
▁büyüklüğü
▁değiştirecek
▁görebilir
▁bitirmek
▁yardımı
▁Beyaz
▁yarattık
▁koltuk
▁stüdyo
▁keşfettik
▁Çalışma
▁travma
▁gerçekleşen
▁Hayvan
▁gelmiyor
▁Esas
umuzu
▁Mal
▁Birinci
▁futbol
▁unut
▁olmalıdır
–
by
▁durur
▁Thomas
ebileceğim
▁kutusu
▁yetenekleri
▁Herşey
▁koyduk
▁sokakta
▁denir
▁kılan
▁okumak
▁tamamını
▁yapmaları
▁hemşire
▁aletler
▁taşıyan
▁abart
▁atış
▁direnç
▁öncü
▁kullanacağı
▁geçtiğimiz
▁dinlemek
▁yapısı
▁noktasında
▁görebileceğiniz
▁yaşlanma
araq
məsi
▁2009
▁ayrılma
▁2007
▁yaşadığım
▁Michael
▁evrimin
▁anlamamız
liyiz
▁yararı
▁Mutlu
▁posta
▁kurulu
▁ayrıntı
▁harcay
▁denk
▁medeniyet
▁kazanmak
▁bilmediği
▁akraba
▁şartlar
▁muhafaza
▁merdiven
▁balıkçı
▁hayatımızı
▁planı
▁eti
▁uzağ
▁belirgin
▁ispat
▁boru
▁panel
sızın
bire
▁alıyorlar
▁birleşi
▁kalabalık
▁gülümse
ebilmesi
emezsiniz
▁lamba
▁keyif
▁Arka
▁renkler
▁erişimi
▁kaynaklı
leyip
▁Pakistan
▁kaldık
▁garanti
▁çocukken
▁okyanusun
▁bulmuş
▁gösterdiği
▁düşünmemiz
▁eksen
▁etmesini
▁ulaştır
▁Devletleri
▁hizmetleri
▁çəki
▁Titan
▁oğlu
▁1980
▁uzunluğunda
▁pas
mişlerdi
zaman
lediğimiz
amam
▁giderken
▁izlemek
▁nitelik
▁bulgu
▁yüzünü
▁politikacılar
▁Kötü
▁Port
▁üretti
▁yapardı
▁birbirlerini
▁bildiğim
▁tecavüz
▁heves
▁unutu
▁sözcük
abilecekleri
▁kalacak
▁ettirme
▁derler
▁sigorta
▁Kendimi
▁imkân
▁yoğunluğu
▁liderler
▁kiçik
▁Che
▁edi
▁uşaq
▁vermiş
▁hazırlama
▁yazılmış
▁BM
larımızla
▁insanlığın
▁terapi
▁metafor
fel
▁no
▁nota
▁harcan
▁duymak
▁değişimin
▁direk
▁arayı
▁Nerede
▁yiyor
▁kent
▁yapacağımız
▁öğrencisi
▁görülme
▁çekim
ttığı
▁tatmin
▁istiyordu
▁yapabilme
▁etmişti
▁istekli
▁yoldan
▁düşünüyorsunuz
▁1990
15
▁metro
▁işimiz
▁işini
▁mağaza
▁doğrusu
▁Ardında
▁CO
▁alınan
▁doktoru
▁fenomen
▁gitmiş
▁Higg
▁gelişen
▁yirmi
▁dersiniz
▁geldiğimiz
▁normalde
▁gelişti
▁yerleştirdi
▁araştırmalar
▁yıldızlar
yorsunuz
▁kızın
▁izlediği
▁entegr
▁danışman
▁göğüs
▁döneminde
▁tekerlek
▁Dış
▁fotoğrafları
▁tanışma
▁keşfetmek
▁zararlı
▁özgün
▁olunca
▁işlerini
▁yerleştirme
▁seferinde
sünüz
▁elə
▁uydur
ydü
▁teleskop
▁günümüz
▁market
▁Amazon
▁Oray
▁sars
▁pazarlama
▁düşünürseniz
▁şahit
▁Yıllar
▁geçici
▁sanatı
▁topluluğu
▁akademi
▁sınıfta
▁ücretsiz
▁bulunur
▁ürettiği
▁yapılacak
▁kesme
▁istiyorsunuz
▁Açıkça
▁tüp
▁soruyor
▁bölgeler
▁kendisinin
▁penguen
▁sivrisinek
▁neçə
▁otel
▁tavan
▁iPhone
▁göl
▁kompleks
▁1960
▁fizikçi
▁evinde
▁Kadınlar
▁düşünelim
▁etkiler
▁ekledi
▁nüfusunu
▁getirdik
▁adil
▁konuştuk
▁kaçınılmaz
▁Senin
▁hayatımda
▁etmez
▁yüzün
▁iskele
▁türleri
▁Rusya
▁tekne
▁kurgu
▁öncesinde
▁Böylelikle
▁büyükanne
▁istediğini
▁mıydı
▁hiss
▁aralarında
mağa
▁Mac
▁yaşımda
▁sevdi
▁olursunuz
▁Apple
▁tarla
▁aldılar
▁görüntüsü
▁öğretmenler
▁değiştirebilir
▁yarısını
▁eşim
▁söyleyecek
▁tasarlan
▁gelenek
▁vs
▁siyaset
▁çocuğ
▁hidrojen
▁gizem
▁ağın
▁ilkel
▁müziği
▁öğrenir
▁çeşitlilik
▁karşılıklı
▁sorusu
▁bölgesi
▁öğrencilerin
▁şimdiki
▁devamlı
▁umudu
▁yaprak
▁Dört
▁klasik
▁tanıdık
▁Sırada
▁yükle
▁iniş
▁aklımız
▁nerde
ünüzü
rək
▁apar
ırdım
▁Burda
▁anket
lüğ
▁dördüncü
laşmış
▁çim
▁Es
▁İnsanları
▁topladı
▁oturan
▁solu
▁gömül
▁65
deyken
▁ajan
▁geldiler
▁içme
▁olağan
▁nüfusun
▁sesler
▁projeler
▁korunma
▁inek
▁yönetimi
▁damla
J
▁yürüyor
▁yazarı
▁uzmanı
▁ortamı
▁mahkeme
▁başlayacak
▁empati
▁sorumluluğu
▁deyə
lərini
▁mənə
▁fərq
niversite
▁Obama
▁Internet
▁gördünüz
▁koyun
AR
▁bakmaya
▁katıldı
▁seçeneği
▁aday
layabiliriz
▁oluşturdu
▁duyduğumuz
▁çarpıcı
▁titre
▁farketti
▁hapse
▁değilse
▁yoksulluk
▁değerler
▁2010
▁atar
▁kelimesini
▁çiftlik
▁sisteme
▁yoğunlaş
▁Cevap
▁bacakları
▁nöro
▁etkileyen
▁yapabilmek
▁kaz
▁başlamıştı
▁seçimler
▁yunus
▁boşluğu
▁amma
▁elektron
▁Dağ
▁açan
▁pilot
▁sıcaklık
▁demir
▁ötürü
▁kozm
▁durdurma
amayız
▁ikisini
ecekti
▁Charles
▁öncelikle
▁harcadı
▁girdiği
▁değerleri
▁topluluğun
▁büyüleyici
acaba
▁kullanılabilir
▁teslim
▁elbise
▁duvarı
▁vücudunuz
▁kültürü
▁gösterdiğim
▁hile
▁görünme
▁akciğer
▁gitmeye
▁hastaların
lıktan
▁hatırlay
▁şirketin
▁çünk
▁İndi
çü
▁orda
▁tanıy
▁TV
50
▁Film
▁limit
▁inşaat
▁Yarı
▁Şey
▁terörist
▁veriyorlar
▁şirketleri
▁kurtulma
▁Çevre
▁kavramı
▁türün
▁sistemlerin
▁ellerinde
▁gönderdi
▁yıldızı
▁resimleri
▁matematiksel
▁geçirmek
▁yeteri
▁aradı
riyoruz
▁Hareket
▁okulun
▁Büyü
▁bilinçli
▁Tahmin
▁katılım
▁Öğren
▁deneyler
▁dünyası
▁anti
▁kimlik
▁Harvard
▁Tom
▁duyduğum
▁ayağa
▁Deney
▁edemez
▁pratik
▁yapmalıyız
▁ölçme
▁havuz
▁bilmiyordum
leşiyor
▁modeller
▁yaparlar
▁millet
▁Japon
lüyor
▁kova
▁makineler
▁kaldım
▁Kaç
biliyorum
▁Web
▁atmosferi
dığımızda
lme
▁Birisi
rerek
▁kalır
▁fotoğraflar
▁Merhaba
▁bant
▁Hayal
yıllardır
▁ölen
miyordu
▁üyesi
▁doktorlar
▁onar
▁savaşı
▁uyarı
▁üretici
▁potansiyeli
▁kalıcı
▁Lak
▁yazdığı
▁kası
layın
▁açar
lduğunu
▁ölümün
▁Angeles
▁tutan
▁yaşamış
▁Lu
▁ekleme
▁evim
▁düzeltme
▁tanıştım
▁güçlendir
▁unsur
▁enfeksiyon
▁sürme
▁görürüz
▁refah
▁erişim
▁Temel
▁savaşta
▁görülüyor
▁gittiğini
▁kadınlara
▁konuşu
▁Değiş
▁hâlin
▁doğduğu
▁öneri
▁bacak
▁kuruyor
▁istiyordum
yorlardı
▁iyileştirme
▁Can
▁keçi
▁MIT
▁27
▁İste
▁ruhu
bor
▁üstü
dor
▁herkesi
▁yapmaz
▁yarıyor
▁arabalar
▁fikirlerin
▁İlginç
▁baktık
▁güzellik
▁sonuc
▁senaryo
▁fırtına
▁üreten
▁kilise
▁yazıyor
liğimiz
▁toprağı
▁Tarih
▁sera
▁görüntüleri
▁egzersiz
▁etkiledi
▁gezin
▁düşünen
▁iyisini
▁qarşı
▁forma
▁kafe
▁yararlan
▁dua
▁topu
▁Doktor
▁Tanrım
▁konuşur
ılacak
▁dehşet
▁etkisini
ıyorlardı
imizde
ğiniz
▁başardı
▁ticaret
leyerek
▁konuşacağım
▁hizmeti
▁buyuk
▁kimliği
▁düğme
▁bulduğum
▁olabiliyor
▁sensör
▁izleyici
abileceğim
▁macera
▁tüy
▁çizme
▁üretken
▁Dev
▁hiçbiri
▁Seyirci
▁bakacak
▁hekayə
lərində
▁sahil
▁Tak
▁har
▁Normal
ebiliyoruz
▁Oh
▁99
▁devrimi
▁birbirimize
▁gidiş
▁sanayi
▁büyüyen
▁kısaca
▁yetersiz
▁Fransa
▁uzaktan
▁teknolojiler
▁olabiliriz
▁uğraşma
▁saniyede
▁oynuyor
▁tarihte
▁getiril
▁hayatım
▁sorduk
▁sigara
▁puan
▁kütüphane
sıydı
▁kömür
▁yaşındaydı
dakı
▁pis
▁hazırladı
▁milli
▁Yaşa
▁yolları
▁ayırma
lerimizde
of
▁2008
▁yararlı
▁yaşa
▁Sonrasında
▁lif
▁tamir
▁halkın
▁algılama
▁ettikleri
▁dokunma
▁sürüyor
▁yapılabil
▁şekilleri
▁kullanabilir
▁kalıp
▁çekildi
▁zorundasınız
▁bulunmakta
▁tarihin
▁kolu
yeceğim
▁hatırlama
▁projesi
▁elleri
▁formu
▁yapımı
▁ihtimal
▁emekli
▁haritası
▁savaşın
rayı
▁başım
▁tipik
lus
▁ayna
▁1000
-1
lamaz
▁restoran
▁kral
▁yapıştır
▁kış
mıştık
lerimden
▁mutlak
leştirmek
▁cadde
▁sayısını
lemiş
▁donanım
▁aptal
▁teknolojileri
▁şeklini
▁Biliyor
▁eşsiz
▁duyur
▁çalışmayı
▁kızım
▁bahsetme
▁annesi
▁Hikaye
görebiliyorsunuz
▁elimde
▁kurduk
▁prototip
mizle
▁Washington
▁oturdu
▁23
▁ekoloji
▁hay
leştiği
▁kayna
▁biten
▁şurada
▁görüntüler
zerinde
▁onur
▁yapacağını
▁Yüksek
▁pozitif
▁konuşan
▁okur
▁verebilir
▁favori
▁hı
▁değiştiriyor
▁geleceğin
▁dö
▁Mah
▁bildir
▁biridir
▁maaş
▁22
▁Roma
▁edilir
▁dün
miyorlar
▁döndüm
▁büyüklüğünde
▁Günümüzde
▁kullandı
▁doktora
▁testi
▁endüstrisi
▁düzelt
müyor
▁çalışarak
▁dakikada
▁alışveriş
ildiği
▁içeriyor
▁dayanıklı
▁gölge
▁mahkum
▁tatil
▁sinek
▁benimse
▁bedava
▁açıyor
▁meyve
▁ortamda
▁masraf
▁hesab
▁anında
▁Bizi
▁gücün
▁Baba
rsanız
▁dolayısıyla
▁Dur
▁oynat
▁azalma
▁aydınlat
metre
▁değişiyor
▁oluyordu
▁liderleri
▁sonuçta
▁öğrendiğim
▁dükkan
▁oranları
▁yapısını
▁bahsediyorum
▁haz
▁edelim
ıydı
▁temelde
▁yaratıklar
▁Kuru
▁yaratır
▁duyarlı
▁belirleme
▁yerleri
▁mucize
▁önde
▁adapt
▁kirli
▁Ru
▁götürme
▁kamyon
▁mekanik
▁çabuk
▁soruları
▁sorgu
▁oluşur
▁tanımlay
▁kahkahalar
siydi
▁Yoks
▁denklem
▁yapalım
▁görevli
▁aklınız
▁ilgileniyor
▁olasılığı
▁hareketleri
▁bırakmak
▁çıkarma
▁organizmalar
▁kapasitesi
PS
ylə
▁Anders
▁aydın
▁kö
▁sistemini
▁Beyin
▁rastla
▁Gar
▁şeffaf
▁çanta
manyetik
▁Fark
▁kaybı
▁ilişkiler
▁düşüyor
▁koydu
▁vazgeç
▁teknolojisi
▁üretiyor
▁Ekonomi
▁ettiğiniz
▁vizyon
▁Bas
▁Şirket
▁İlki
▁yuvarla
▁edeceğim
▁tasarlanmış
▁kırsal
▁ayağı
dığımı
▁çıx
matik
▁demiş
▁NASA
▁Sistem
▁köken
▁Var
▁beyniniz
▁binalar
▁21.
▁kayded
dığımda
ledik
emedi
▁koşullar
▁prensip
▁diyordu
▁otobüs
▁meşgul
▁rüya
▁bekley
▁kapasite
▁başlayabilir
▁değiştiren
▁duygusu
▁bölgesinde
▁gövde
▁bölgelerde
▁elle
▁profesör
▁üreme
▁kazanma
▁yaratan
▁inceley
▁özellikler
▁ardı
▁faydalan
▁beynimiz
▁dini
▁Richard
▁Gene
laştırma
▁Park
etmek
▁yakalama
▁harcıyor
▁şehirde
tigi
▁okulda
▁yakalan
▁Arkadaş
▁Sonuçta
▁özgürlüğü
▁müdür
▁kişilerin
▁ucunda
▁durumlarda
▁sezgi
▁kalanı
▁söyledikleri
cilik
▁bulduğumuz
▁ediyorsunuz
▁etdiyi
ləş
▁haqda
▁olurlar
lərə
▁miras
▁çay
▁şiş
▁usta
kinden
emeyeceği
▁üstesinde
▁malzemeler
▁kısmında
▁benzeyen
▁gideceği
▁barındır
▁şaka
▁Hepiniz
▁direkt
▁anlattığı
lıyorlar
▁gezi
▁görebiliriz
▁düşünüyordum
▁Yıl
▁lisans
▁kutup
▁kalem
▁siyahi
▁varlıklar
▁söylediler
▁günlerde
için
▁göçmen
▁mektup
▁yerin
▁səbəb
▁Kom
▁İtalya
cağı
▁kainat
▁anlayışı
▁kariyer
leyebilir
ska
▁dinamik
▁gidecek
▁ilerley
▁hızlandır
▁geçmek
▁ötesin
▁mühendislik
▁avcı
▁ayakta
biriyle
▁diğerleri
sha
▁gerekti
▁kabile
▁hücresi
▁Hangi
▁çiftçiler
▁çevril
sində
▁mat
▁Times
▁seçil
maktır
▁tuttu
▁gri
▁umarım
lıyorum
▁Darwin
▁anlıyor
U
▁saklan
▁alıntı
▁çeker
▁oluyorlar
▁küçül
▁süreçte
▁görülen
▁hediye
▁sohbet
▁Herhangi
▁operasyon
▁görmez
▁kategori
▁Tasarım
▁ölçekte
▁öyrə
lisiniz
landırıl
▁peşinde
▁çıkmak
▁girer
▁destekleme
▁borç
▁çalışıyordu
▁ilgisi
▁yürüyüş
▁bağlantılı
▁düşen
▁yakalay
▁farkettim
▁gelmek
▁Merkezi
▁bölgede
▁tarama
▁yetiştirme
▁inanıyor
sızlık
▁utan
▁mesajı
▁gec
▁Mer
▁Alman
▁izledi
▁havada
rseniz
▁Dünyada
mışlardı
▁soğu
▁odaklanma
muzu
▁tasarla
▁oturup
mezsiniz
▁kasaba
▁eğlen
▁hayret
▁sağladığı
inizde
▁hızı
▁yasal
▁eseri
▁nano
redeyse
▁zorluklar
▁hisseder
▁dosya
▁çevirme
▁konser
▁tutun
▁Savaş
▁faydalı
yorlar
▁Evren
▁gidebilir
▁Gelecek
▁ulaşım
▁ölüyor
▁gay
▁getirdiği
▁organize
▁eğlence
ceği
▁şeylerle
▁hapishane
▁bilinci
▁ağaçlar
▁Avustralya
▁hamile
▁buluyor
▁gelin
▁yapın
▁isterse
▁21
▁150
rey
umuzun
▁anlayış
▁Los
▁evrimleş
▁oturma
▁ağırlığı
▁yaraya
▁planlama
▁kuram
▁slayt
▁gerektiğin
▁süren
▁kullanabiliriz
▁etkileri
▁açığ
▁öne
▁teknolojik
▁renkli
▁oranında
▁dusun
▁uygulay
▁çiftçi
▁istemiyorum
▁kurumlar
ğinde
▁tamamıyl
ınızda
▁Az
com
▁canlandır
▁Yunan
▁bugünkü
▁zorlu
▁varsayım
▁yaşamı
▁Sosyal
▁halkı
tesi
▁çalışıyorlar
▁Bilgi
▁oradaki
▁sıradışı
mizden
▁görünmez
▁düzeyde
yecek
▁iğne
▁başkanı
▁hissettim
▁organizma
▁çoktan
▁korkutucu
▁hayatımız
▁özet
▁ekmek
▁polen
▁həm
▁ağzı
▁sual
▁Kaliforniya
araya
▁75
sındaki
▁gök
eceğimiz
▁liderlik
unuzu
▁ucu
▁heyecanlı
▁döngü
▁tarihinde
▁değerlendirme
▁moda
▁erkeklerin
▁aylık
▁alanlarda
▁korkuyor
▁geçtiği
▁Kendisi
▁geçirdim
▁bireysel
▁arayüz
▁söyledim
▁nesli
▁sunuyor
▁organik
▁köprü
▁artıyor
▁istifadə
▁stres
▁pil
chi
▁Ağ
▁durdu
▁uzat
▁trafik
▁Eylül
▁güvenliği
▁yasak
▁temas
▁35
lanmıştı
ıvı
▁baktım
emediği
▁konuştu
▁kanat
▁avukat
▁istemez
▁sırt
▁mənim
ino
▁başladığımız
,5
▁Ste
▁bal
▁damar
▁öldürül
▁hakim
gal
▁Araba
▁patent
▁20.
▁üste
▁nihayet
▁kullanılıyor
▁tüken
▁genişlet
▁altındaki
▁izliyor
▁kardeşim
▁çoğal
▁meslek
▁ısınma
▁simetri
▁Alqış
▁sakin
▁ideal
▁aldığımız
▁İnanılmaz
liyim
▁aldığım
▁kaybetme
acağımızı
▁giriyor
▁göç
▁gezegenin
▁geldim
▁resme
ligi
▁Nijerya
▁işlev
▁tersine
▁taban
▁koşu
▁yapılar
▁olumlu
▁böcek
▁blok
▁Kore
▁mobil
▁yuva
▁oyunun
▁Bill
▁zar
▁Einstein
▁olacağız
▁Sal
▁yapması
▁Şehir
▁pozisyon
▁değişken
▁sıkıcı
▁beslenme
▁yöne
▁biliyordum
▁uyuşturucu
▁kritik
▁ilgilenme
▁ırk
▁yoksul
▁üretmek
▁George
▁otomatik
▁ürünler
▁çıkarıyor
▁zirve
əyə
▁tək
▁etmə
larımın
▁Kral
▁problemin
ris
war
▁İşin
ıldığı
larımdan
▁Pan
larımızda
ebildi
▁Adı
▁iyimser
yalım
▁konuşmayı
▁denilen
▁tasarımı
▁noktalar
▁duyduk
▁geliş
▁kalmak
▁bahsedeceğim
▁kitaplar
▁Muhte
▁hadi
▁dolan
▁demokratik
▁Uç
▁oğlum
▁Sev
▁attı
gra
▁olmasıdır
▁sürücü
▁yo
▁kullanıyorlar
▁idare
▁Toplum
▁yürü
▁yaşar
▁problemler
▁Hala
▁hasar
▁sahipler
▁oyuncak
▁koymak
▁kitapları
▁aracılığıyla
▁Açık
▁etrafta
▁nehir
▁etmeniz
▁həyat
▁Öl
▁tez
▁ayında
▁yükselt
▁inancı
ıldığında
▁keşfetme
▁söyleyebilirim
▁duyuyoru
▁Müslüman
▁örgüt
bilirsek
▁edebil
▁edebileceği
▁hikayesini
▁duydum
▁esnek
▁öğle
▁çeşitliliği
▁tahta
ğını
▁İsveç
▁yazdım
▁atı
▁şok
▁elektro
▁Steve
lıyordu
ılabilir
▁sürecin
▁Konu
▁başlayalım
▁tutuyor
▁içeriği
▁ziyade
▁makinesi
▁bilimi
▁parçacıklar
▁geliştirmek
▁Basit
▁kutsal
▁sorumluluk
▁hayvanların
▁oluşturu
▁sesini
▁depresyon
▁bırakıyor
▁ebeveyn
▁balıkları
▁merhamet
▁sahte
▁kendim
▁geçmişte
leştirilmiş
▁Yapma
▁sormak
▁başlıyoruz
▁felaket
▁falan
▁Mil
▁zorla
sün
▁foto
▁aldığı
▁Sha
▁duran
.5
▁No
▁İslam
▁sıklıkla
▁derdi
▁onay
düşünebilirsiniz
▁Proje
▁ahlak
▁diyorlar
▁odada
▁sevdiği
▁Umarı
▁gelmişti
▁buzul
inizin
▁bilmə
▁Cha
▁yaşı
sünü
▁0
wi
nizle
▁Bay
▁seviyede
▁soyut
bilir
▁kontrolü
▁ekley
▁farkı
▁ağaçları
▁anlatacağım
▁cesur
▁düşüş
▁değ
▁tohum
▁çeken
▁olmuyor
▁algoritma
▁Tə
▁başlayı
▁Yol
landığı
▁Bra
▁genom
▁koloni
▁savun
▁duyuyor
▁sever
▁isteği
lanabilir
▁olaylar
▁etkileyici
▁kültürün
▁kullanmaya
suzluk
▁taşıy
▁birçoğu
▁Farklı
♪
▁co
məyə
▁Lin
▁götürdü
▁daim
▁sürdü
▁Meksika
▁dilim
abiliyoruz
▁yıllarda
▁sıkıntı
▁gelince
▁Geliş
▁vereceğim
▁varsay
▁ışığın
▁mülteci
▁basitçe
▁zordur
▁Eğitim
▁kocaman
▁karakteri
▁anlatı
▁yaşındayken
▁böcekler
▁ilaçlar
▁cihazı
▁Ed
▁Per
eceksiniz
▁bölün
tiğim
▁çözümler
▁neyi
▁düşündüğünüz
▁yapabil
▁sebeple
▁düzenli
▁yüzyılın
▁söyleyen
▁istek
▁arttı
irken
▁yapmam
▁alıyoruz
▁özgürlük
▁tanıyor
iken
▁belirsiz
▁gazeteci
▁etdi
▁varlığı
▁Kon
▁Ken
▁başlat
▁400
▁blog
altı
20
uantum
▁Twitter
▁biriydi
lup
▁Oyun
▁örnekler
▁çalışırken
▁Uzay
▁bilimci
▁alanın
▁sunum
▁etraf
▁miktarı
▁bahsettiğim
▁çoğunuz
▁koca
▁gerçekliği
▁başqa
▁fo
▁oyna
▁babası
▁uçur
▁Allah
▁görmüş
▁Babam
▁ölçüm
▁eğit
▁Paul
▁dinleme
▁saatte
▁baktı
▁Kesinlikle
▁başlamak
▁Savaşı
▁olmuştur
▁olgu
▁versiyonu
▁nesneler
▁civarında
▁göstər
ard
▁çatı
▁almış
▁kişilik
sıdır
mızdan
▁satıl
▁yolunda
▁hayran
lebilir
▁yarışma
▁çıktığı
▁konuştuğu
eceğin
▁sınırlı
▁küre
▁çalıştı
▁avantaj
▁teklif
▁seyirci
▁eleştir
lemeye
▁rengi
▁komp
▁Rus
luğun
▁İz
▁azaltma
▁mor
▁yansı
▁bağır
▁satış
▁eğri
▁çözme
▁vakti
▁öldürme
▁ekip
▁tatlı
iğe
▁vahşi
▁ederler
▁psikoloji
▁öfke
▁bilmiyoruz
▁bö
▁Beş
stan
▁alıcı
▁zamanında
▁yenilikçi
▁uygula
▁saha
▁kazandır
▁olası
lendiği
▁yatak
▁dönüştürme
ldukça
▁yarattı
melen
▁tamamı
▁bahsetti
▁bildiğiniz
▁Fransız
▁ağrı
▁Eş
▁Soru
▁kilit
▁kurban
▁kavra
▁şişe
▁sorar
▁baktığımızda
▁birbirleri
▁yapılıyor
▁Genel
▁bulabilir
▁fosil
▁yapabileceğimiz
▁diyelim
▁Para
▁öğretme
▁verdiğimiz
▁içeren
▁üçte
▁faaliyet
▁Fo
lması
▁Is
ebilirler
▁karikatür
▁öngörü
▁eksik
▁çözmek
▁inceledi
▁şehri
lerimize
▁kalmış
▁Doğa
▁kızlar
▁yığın
ustu
▁parayı
▁Değil
▁takımı
▁üretimi
▁uyku
▁Yakın
▁vaxt
▁əvvəl
▁oynay
▁Öz
▁yaradı
▁sözü
▁toz
ınıza
▁atmosfer
▁yiy
▁zamanla
▁tarif
▁tabaka
▁Neyse
▁sürede
▁Küresel
▁harca
ttiği
▁işleme
▁yapılma
▁düşme
▁fırsatı
▁sonucunda
▁etmesi
▁maden
▁yaka
▁çektiği
▁sahipti
▁güvenilir
▁ailem
▁kurdu
▁olmasa
artan
▁Jam
▁hu
▁metal
▁milyarlarca
ebileceğini
▁hareketi
▁tersi
▁finansal
▁yönelik
▁çözümü
▁görebiliyor
▁klinik
▁mezun
▁ederiz
▁kalite
▁yapıyordu
▁geçiriyor
▁Öncelikle
▁geliyordu
▁çekmek
▁qal
▁adamlar
▁Bağ
liyi
▁ip
▁Tu
▁anladım
▁radikal
▁fırla
manız
▁vergi
▁Genç
▁terim
▁Biliyoru
▁aklın
▁yolculuğu
▁oturuyor
▁devasa
▁hissediyorum
▁heykel
▁karşılaştı
kâr
inə
▁45
ras
▁vuru
Y
▁Kanada
▁yörünge
▁bakan
▁Bizler
▁verdiler
▁çerçeve
▁Başkan
▁çevresinde
▁Res
▁beğen
▁profesyonel
▁konuya
▁Özellikle
▁indi
ümüzü
▁yazdı
▁fayda
▁rastgele
▁Kal
▁yapmanız
▁kuruluş
▁hayatlarını
▁gelişimi
▁taşıyor
▁tuz
▁kaynaklar
▁zemin
▁kelimeler
▁deneyimi
▁Mc
▁hâle
posta
ınızı
▁Amma
▁başladığı
▁yaşadığımız
▁anlamlı
org
▁platform
▁çalışması
▁saçma
lıyız
▁boyutu
▁olabilirdi
▁problemleri
▁söylüyorum
▁mantık
▁akım
▁hastalar
▁alalım
▁Ulusa
▁kalın
▁Mısır
▁Konuşma
üstü
ğında
▁çat
▁kullanım
▁isimli
▁kendileri
▁baktığınızda
▁bakarsa
▁yürüme
▁üzeri
▁zorundaydı
▁vakit
▁çağrı
▁getiren
▁geçirme
▁ahlaki
▁köle
▁getirir
▁finans
▁sınırları
▁dediğim
nuzu
öz
▁düzgün
▁tanış
▁bilin
▁küme
▁çağı
lenen
▁nedeniyle
▁gelebilir
▁teşhis
▁gelişim
▁alternatif
▁tren
▁zinciri
▁popüler
▁resimler
▁özgü
▁değerlendir
▁yönetme
▁eser
▁içerik
▁tüketici
▁diz
▁tav
▁değeri
▁Ter
▁ekosistem
baba
▁grubu
▁konuşmaya
▁sağlayabilir
ecekler
▁yapabilecek
▁doğdu
▁ederken
▁deyişle
utu
▁Biri
şü
▁sağlam
▁fon
▁Ber
▁bunlara
▁paket
▁dönemde
▁bizimle
gre
▁dinley
▁biliyordu
ime
▁tartış
müştü
▁şart
▁istedikleri
▁ilacı
▁bilgileri
mamış
ov
ment
▁sonrası
ebileceğiniz
▁faktör
▁sıtma
▁manzara
▁kendisini
▁üretil
▁bilinç
▁başlattı
▁kriz
▁edildiği
▁tutmak
▁dönüştü
▁eğitimi
abileceğini
▁istatistik
▁tesis
▁internette
▁alarak
irdi
iv
lidir
▁İran
▁Ön
▁trilyon
▁oluşuyor
mıyordu
▁kişiyi
▁bende
lerindeki
▁açıklay
▁maru
▁Yaşam
▁oluşturur
▁değişti
▁hisse
▁Japonya
▁çağ
▁materyal
acaklar
▁kaydı
▁Almanya
▁oranda
▁diğeri
▁dönüyor
▁Pek
▁çoğunluğu
▁mantar
▁insanlık
▁ulaştı
▁çıkmış
▁takdir
ladığı
▁sistemimiz
▁sim
▁çöl
ği
▁imza
▁yumurta
▁öğretti
▁müdahale
▁Arap
▁hissettir
ğümüz
▁bütçe
▁olmam
▁fonksiyon
▁kıyafet
▁çocuklara
▁şirketlerin
▁müze
▁hafıza
şık
▁açma
▁fikrim
▁Kenya
lilik
her
▁Altı
▁asi
▁haberler
▁acil
▁bebeği
▁alabilir
▁calis
▁oluşturan
▁yaptıklarını
▁peki
▁olduğunuzu
▁Sizi
▁yetiş
▁yarar
▁AIDS
ünde
▁yoluyla
▁zamanlı
▁Şunu
▁birinde
▁toplumsal
▁kadının
▁kahve
▁mekan
▁elektronik
▁bileşen
▁yalan
İ
nom
▁içi
▁ibaret
▁edilebilir
▁alkış
▁eminim
▁dolara
▁Deniz
▁heç
▁uça
ğr
▁Uzun
▁hap
▁uzaklaş
▁buradan
▁zorluk
▁ettiğini
▁yöntemi
▁yapama
▁evlen
▁gönüllü
▁engelli
▁döner
▁Kimse
▁sahiptir
▁çıkış
▁talep
▁Annem
öv
uşu
larımıza
▁sıvı
▁tanrı
▁çocuklarını
▁oksijen
▁gürültü
▁baktığı
▁Kadın
▁uyu
▁türden
▁tümör
▁Araştırma
▁ola
▁kredi
▁basın
▁nadir
▁Kara
ysanız
lerse
▁yetenek
▁Sağlık
abileceğiniz
▁bilimin
ebildiği
▁boşluk
▁memnun
▁kazandı
▁gökyüzü
emeyiz
▁misin
▁hikayesi
▁dayalı
▁Brezilya
▁yazık
▁domuz
▁hastalığın
▁görünüş
▁imkanı
▁istiyorsanız
▁tavsiye
▁kendiniz
▁durumunda
▁zevk
▁endişelen
▁ulusal
▁kıyasla
▁ihtimalle
▁Yalnız
▁roman
▁Bey
▁görü
▁yetki
▁Dedi
▁Facebook
▁görüşü
0.000
▁aksin
▁cesaret
▁Yaklaşı
▁gözüküyor
▁evde
▁mercan
▁Hə
▁Görü
▁filmi
raya
▁yaşın
▁anlatma
▁unutma
▁sivil
▁Biliyorsunuz
▁kıs
▁başlangıcı
▁kurallar
▁istedik
▁koyuyor
▁hastalıkları
▁gönderme
▁ticari
▁başlayan
bra
acağınız
▁sok
▁sağlay
ecektir
▁beklenti
▁düşman
▁etmiyor
▁kampanya
▁yaptır
▁rekabet
▁bahsed
larsa
▁grubun
▁arttır
▁başlangıç
▁danış
▁olaraq
▁etmək
▁İkincisi
▁zamana
▁dili
▁Wa
▁askeri
▁izleme
▁yılı
▁banka
▁karşıya
▁kulağ
▁kedi
çüncü
mıyoruz
▁çalışmalar
▁çağır
ydim
▁Gu
▁hükümeti
▁merkezinde
▁taşıma
▁edersiniz
▁hukuk
▁evrensel
▁çalıştığı
▁çizim
▁necə
▁olmama
▁Av
▁lise
ang
rke
▁yürüy
▁söyleyebilir
▁Sorun
▁değişiklik
ven
iyordum
▁etmekte
▁ihtiyacım
▁ihtimali
▁pencere
▁şefkat
▁yox
▁yolla
▁kimin
▁kimya
▁İsrail
▁balon
▁ihtiyaçları
lendirme
▁birbirlerin
▁yerlere
▁serbest
▁bildiği
▁niye
▁etmemiz
▁gerçekleş
▁söylediğim
▁tanımlama
▁berbat
▁çalıştığını
▁yavru
▁sistemler
▁katılma
▁günümüzde
▁Bilgisayar
▁kayıp
▁300
han
▁ordu
▁baz
sey
▁toplu
▁artır
amayacak
▁düşünüyoruz
▁kullanan
bilirsin
▁miydi
▁yönetici
▁kesim
▁bayan
▁döv
▁üstün
don
res
rma
düm
▁sonu
▁hakları
▁bazılarını
▁dünyasında
▁edebilme
▁olacaktı
▁işleri
▁tarzı
imde
▁degil
▁bulmaya
▁karışık
▁ücret
▁ulaşmak
▁kendinizi
▁çalışmaları
▁öğrencileri
▁atık
▁katman
▁dişi
dınız
ımızın
rop
▁tü
aş
▁düşünül
ore
▁ekibi
▁kurul
▁görüyorum
▁tuvalet
▁yapmıyor
▁anlayabil
▁kıta
▁seviyor
▁dolarlık
▁denen
▁arıyor
▁cerrah
▁benden
▁Tekrar
▁əl
▁gəl
ham
▁ağı
▁2000
▁Wal
▁kitabın
uğu
dığınızda
▁ah
▁olmanız
▁çekiyor
▁gelmiş
▁olamaz
ciler
▁durumun
▁bilgisayarlar
▁tasarlama
▁sermaye
▁ters
▁ağacı
▁kaybetti
▁yaxşı
umun
les
▁mağara
▁dürüst
▁yerini
▁balina
▁kurmak
▁rapor
ksiyon
▁edilmesi
▁karşılık
▁bakteriler
▁ser
▁evin
▁Kan
▁olmaması
▁soy
▁çök
▁sandalye
▁musun
▁eğilim
▁edebiliriz
▁Irak
▁elinde
▁ulus
▁Ana
▁yolda
▁böl
▁bey
▁seri
▁yapabiliyor
▁kaldırı
▁düzenleme
▁edebiliyor
▁yaşamın
▁bekleme
▁Pat
▁anlamıyla
▁sembol
▁gözleri
diğinizde
▁düzey
▁çap
▁başı
mis
istan
▁Hey
▁Ol
ize
▁kişiye
▁dışarıda
▁gibiydi
▁yapabileceği
▁Yu
▁komik
▁robotlar
▁bah
amp
▁ez
▁sürece
▁teknolojiyi
▁yarattığı
mden
▁marka
▁karşılaş
▁dök
▁buluş
▁kullandığımız
▁vermeye
▁istedi
etti
▁savunma
▁suçlu
▁Geri
miyoruz
▁doldur
▁Hava
ladığımız
lıydı
▁diyoruz
abilirler
▁haklı
▁biçim
▁yaşıyoruz
▁etkin
▁kütle
▁Hasta
▁şimdiye
likten
▁özelliği
▁görüşme
lərdə
unuz
▁sonun
▁bağımlı
▁işletme
▁gösterir
▁harf
diklerini
▁kızı
▁konferans
▁bulur
rah
rı
▁Top
▁üretme
▁Söyle
▁bahsediyor
▁ihtiyacınız
▁taklit
▁maliyet
▁koyu
▁Bakın
▁Sanat
▁tıbbi
▁çiçek
▁öğrenciler
▁şanslı
▁alacak
menin
tra
▁çalıştır
▁sır
▁girişim
▁kablo
▁isterim
▁koyar
▁kulak
cılık
▁eşi
▁Pro
▁kuralları
▁koruy
▁olmaktan
▁seni
▁bahsetmek
▁mutluluk
▁eg
▁kullanıyoruz
▁saye
▁hikayeler
▁tel
lmaz
▁fikrin
▁vaka
▁Wo
▁bağlam
▁daire
▁gruplar
▁edilme
▁Teknoloji
▁nükleer
▁araştırmacı
▁çalıştığımız
▁gittikç
▁mimar
▁Sana
▁Afrikalı
luğ
malısınız
od
▁şekillendir
▁sistemleri
▁cinsel
▁yerden
▁konum
▁çılgın
▁yapacağım
▁cinsiyet
▁Çocuklar
▁yargı
▁sevme
▁doğrudan
▁yen
yacağını
▁tanıma
▁Sağ
▁kaba
▁biçimi
▁bölümü
▁alanları
▁ölçek
▁nereden
▁dinle
▁tarafında
▁his
ırdı
ilir
▁Ti
ımda
▁şeydi
▁ismi
▁atom
dışı
▁gerekirse
▁kuzey
▁istemiyor
▁şiir
▁zihni
▁bırakma
▁Kur
▁İngiliz
ulmuş
▁oyunu
liğine
▁kok
▁karşısında
▁çıkarmak
▁istey
▁lütfen
▁tespit
▁arkasında
▁göze
▁ürünleri
▁krizi
▁yay
▁yarış
onu
▁Gün
▁inceleme
▁kanal
▁duyar
yüz
▁güney
▁gittik
▁yaptılar
▁halka
▁Hepsi
▁aktif
▁anlatıyor
ebilen
ədə
▁Ö
layarak
▁tırman
amayacağı
▁hayata
▁girişimci
▁ediliyor
▁içer
▁Güzel
▁cümle
▁vücudun
▁ölçüde
▁karıştır
▁hastalıklar
▁endüstri
▁şifre
▁tap
▁500
▁paylaşma
▁düşünür
lduğu
▁Fe
lke
▁gelişmekte
▁potansiyel
▁yansıt
▁oku
▁olabilirsiniz
▁depo
▁kapalı
▁türü
▁günün
▁Hal
▁aşk
▁adamları
▁öldü
indeki
▁tutma
▁dilin
▁koş
▁bol
▁To
▁Aile
ilebilir
▁fikirleri
▁yürüt
▁parlak
▁harcama
▁öykü
▁kıyı
▁korumak
▁düşündüğüm
▁ən
▁dizayn
▁dost
meden
▁ötesinde
▁düşündüğümüz
▁yapılması
▁Sol
▁hücrelerin
üne
▁Bazıları
▁dikkatli
▁eli
▁ettir
▁gurur
▁dediğimiz
▁Londra
▁değişimi
▁Ju
form
▁başladılar
▁Düşün
gün
leyecek
yseniz
▁yerleştir
▁neyin
▁artış
▁uzakta
▁dokuz
lerdeki
▁gördüğü
▁şeker
mar
▁insanlardan
▁toplay
▁bakteri
for
maları
▁fikrini
▁ani
▁Göz
ğim
▁gerçeklik
▁yönde
gram
▁epey
▁altyapı
▁değişme
▁olasılık
▁arkadaşı
▁ölme
▁bax
▁Bilirsiniz
▁Yer
nizin
▁sert
▁bilmek
ince
▁gid
▁Önce
▁deniyor
▁bilinen
▁sizlere
▁oluşturma
▁diyorum
▁bulabil
▁edebilirsiniz
əcək
▁böyük
▁veril
▁Onların
▁arzu
çu
▁sil
▁duru
ero
▁parçalar
▁Der
eceğiniz
▁olabilecek
▁olanak
▁hatırlıyorum
leniyor
▁hissediyor
▁geldiğinde
▁nüfus
lıq
▁adamın
▁yeti
▁bağış
▁değişiklikler
▁maliyeti
▁miktar
▁Anne
abilirim
evi
▁siyasi
▁vur
▁galaksi
bol
abilen
▁çoğunlukla
▁Eski
▁adalet
▁belge
▁koyma
▁anlattı
lenmesi
▁kesi
▁inanç
▁tıp
▁karınca
▁yaratıyor
▁kullanır
▁geçer
▁karış
▁yeme
mah
rin
▁toplama
▁Dan
▁ayakkabı
▁yüzyılda
▁kitle
▁kültüre
▁görevi
▁Okul
▁boz
▁fizik
bay
lanır
▁görünür
acağımız
we
▁araştır
▁yönel
▁olmuştu
▁müşteri
▁Har
▁dedik
▁am
▁bulut
▁durdur
▁kemik
▁uluslararası
▁hepiniz
▁yetişkin
▁yerler
▁mantıklı
meli
▁besin
▁özgür
▁hayatımı
ografi
▁Bar
▁yaşadığı
▁insana
▁yarım
▁1.
▁bulundu
▁yaşamak
▁kurtarma
▁servis
lıyım
asyonu
▁radyo
▁ger
▁dağıt
dunuz
▁salon
▁önümüzde
▁kaybed
▁toplantı
▁Gördüğünüz
iyordu
▁edip
▁asker
▁detay
▁tasarımcı
▁yönetim
uldu
▁Birincisi
V
▁olabil
▁bozu
▁yaptığınız
▁istediği
▁itibar
▁yanıt
lığını
▁beyni
▁kahraman
▁yılın
▁nevi
▁mekanizma
▁açtı
▁oluşturmak
▁fotoğrafı
▁köşe
▁hissettiği
▁birinci
hur
▁tutar
▁hassas
ılıyor
▁çekme
▁büyüt
▁ameliyat
▁fazlasını
▁gö
▁sabit
▁yola
▁sığ
▁dağıl
▁Davi
▁keşfetti
▁önemi
lerimi
▁dediği
▁Hayatı
isi
sizlik
nızın
▁patlama
▁gelişmiş
▁gez
▁yolculuk
▁bitkiler
▁tık
▁yapıldı
▁maymun
▁sesleri
maktan
▁paylaşmak
▁yapıyorum
ong
▁Hu
likte
▁oyuncu
▁sorunun
▁komşu
mıyorum
▁Bize
▁verecek
▁açısı
▁bakma
▁ödül
▁etmeyi
▁aktivite
▁koku
▁sö
▁isə
və
▁kü
▁saf
▁Afganistan
▁eyalet
▁bekliyor
▁olabileceği
▁kullandık
▁sağlama
▁yapay
dıklarını
▁seçme
▁yazılım
nıza
▁azal
ımızı
▁şeydir
▁kamp
▁etiket
amazsınız
▁geldik
eceği
▁giderek
▁kaynakları
▁plastik
▁gazete
▁matematik
▁geleceği
▁olabileceğini
▁deli
ac
▁ayı
▁uğraş
▁öğrendik
▁oluşturuyor
▁değiştirdi
▁üstüne
▁gittiği
▁ünlü
▁kaza
▁meme
niversitesi
▁ağaç
▁yüzü
ft
▁kay
ladık
▁anlaşma
▁not
ndeki
▁olmaları
▁istiyorlar
▁yaptığını
▁Asya
▁değiller
▁duygusal
▁izley
mur
birimiz
▁yenilik
▁uy
▁anladı
▁sarı
mıştır
ırız
▁değerli
▁hafif
▁olduk
▁yapacağı
▁Harika
▁zorundayız
▁Par
▁ala
larımı
W
▁giriş
▁değiliz
▁evrenin
▁noktası
▁sizinle
▁dönüşüm
ladım
liydi
duğumuz
▁Ah
▁önemlidir
▁hesaplama
▁sorma
▁terk
▁sürdürülebilir
ğın
▁ölü
▁diş
▁sağlar
▁ediyordu
▁Elbette
▁Şöyle
▁ulaşma
▁sorumlu
▁bıraktı
▁olayı
▁boy
▁toplan
jen
▁Gö
▁kullandığı
larındaki
▁etrafı
▁araçları
▁biyoloji
▁keşif
▁yapabilirsiniz
abildiği
▁şirketi
acaksınız
▁kalıyor
▁dergi
▁balığı
▁olanı
▁grafik
▁yet
▁Hadi
bilme
▁çözü
▁ülkelerin
▁uygulan
▁kanun
▁birbirin
▁büyüdü
▁protein
▁İngilizce
▁kullanılan
▁İç
duğunu
memiz
▁devrim
▁istediğiniz
düğünü
▁kullanıcı
umu
▁yolunu
layacak
▁görünen
▁aklım
diğinde
▁görmeye
▁nefret
▁farklılık
▁sıradan
madan
▁kuru
▁verilen
kça
▁HIV
▁delik
▁sordum
▁yeteneği
▁buldu
lılar
ly
▁The
▁Fr
gü
▁kart
▁toplumun
▁geçiş
▁düştü
▁denedi
▁dediler
▁yemeği
▁seçenek
▁belə
▁uzan
▁Kol
▁karşılaştır
ğini
▁firma
▁iddia
▁Hiçbir
▁şeklinde
▁İngiltere
▁V
▁doğum
▁alanda
▁tehlike
▁yakıt
▁tuhaf
▁ödeme
▁şeyden
▁hepimizin
▁çalıştım
▁başarısız
▁düşündü
▁çatışma
▁ofis
▁anahtar
▁şüphe
▁etkilen
▁makina
▁zayıf
▁buçuk
▁alanında
▁öner
▁Küçük
▁benzeri
▁isti
▁standart
▁şansı
ilmesi
▁sordu
▁spor
▁mesafe
▁bağımsız
▁özellikleri
▁Hayat
▁uyum
▁Devletler
cik
▁özü
,
rim
▁web
▁parçaları
▁km
lıyoruz
▁kuvvet
▁kilometre
▁çöp
makta
▁obje
nizde
▁Yo
saydı
▁saç
▁24
▁bomba
▁kapat
▁sokak
▁ceza
▁vatandaş
▁göreceksiniz
▁çıkardı
▁par
▁şans
▁gördüğüm
▁batı
▁sonuçları
▁buydu
▁tablo
▁kağıt
▁işim
▁olacağı
▁imkan
larca
▁sorunlar
▁uyar
▁öğrenmek
▁isteyen
▁arkadaşlarım
miştir
▁üret
▁qədər
olog
kop
▁boyu
▁reklam
▁halk
▁müthiş
▁birleştir
▁Ses
▁soğuk
▁suyu
yacağım
▁ede
▁geliştirme
▁bireyler
▁bakmak
▁benimle
▁sürdür
▁arkadaşları
▁hayatı
sidir
▁kom
▁şe
zer
▁kaçır
▁azalt
▁hesap
▁sevdiğim
▁fazlası
▁biyolojik
▁mahalle
▁uçuş
gel
ebilmek
▁değişikliği
▁şehirler
liğini
landır
▁oynama
▁suyun
▁olmadı
▁kum
syon
▁Gel
▁neyse
▁çıkart
▁ettiğim
▁almaya
▁gaz
▁çoğunu
▁malzeme
▁elimizde
▁ilə
layabilir
tığımız
▁yapmış
leştirme
ledi
▁burası
liğinde
lma
▁önün
▁modeli
▁uğra
nce
tığını
▁Amerikalı
▁barış
▁bisiklet
mem
▁bulunuyor
▁Güneş
▁sağlayacak
▁Yine
▁işbirliği
▁sanal
▁Sta
▁sana
▁organizasyon
▁ederek
▁boya
▁lider
▁durma
▁onlarla
lardaki
▁salgın
▁mimari
▁kamu
▁seks
ydım
▁makale
▁kaldı
▁etmiş
▁Sonun
▁Man
▁birşeyler
▁Bazen
▁tüket
▁ürünü
▁kopya
▁çekti
▁öğrendim
▁hü
▁görə
▁Lo
▁Ek
▁performans
ebileceği
▁konuşuyor
▁ettiler
▁çapında
▁çalıştık
▁akşam
▁fiyat
▁Sonuç
▁birer
▁okula
▁değiştirme
▁dol
lanması
abileceği
▁kanseri
▁bahçe
▁yeri
leşti
▁yaşındaki
▁koru
likle
▁taşı
▁tasarruf
▁nesne
▁gerekiyordu
sən
ld
▁Wi
luyor
▁bizler
▁muazzam
liler
▁rüzgar
▁üz
▁problemi
süz
▁olduğumuzu
▁Hem
▁bildiğimiz
▁düşünmek
▁yaklaşım
▁mühendis
▁yıldız
▁geçerli
leşmiş
▁Adam
▁gor
▁sıkı
▁saygı
▁bakıyor
▁sektör
▁tarım
▁kor
ırsınız
▁kör
▁hızla
▁kullanıyor
▁cok
▁eriş
ebileceğimiz
▁fabrika
▁kalbi
▁sağlığı
▁analiz
▁benze
▁gaye
▁ışığı
▁anlatmak
▁nefes
▁Öyleyse
▁Sizin
▁Br
▁farkın
▁eğlenceli
▁bulunduğu
▁git
ara
▁edici
▁17
▁taş
▁imkansız
▁kurtul
▁pahalı
▁kullanımı
▁çıkı
▁Tabi
▁verileri
▁düşür
▁yazar
imin
▁kaybol
▁adına
▁değiş
▁Bilim
iyorsunuz
▁sorunları
▁çalıştığım
▁tehdit
bur
ic
ja
nün
▁tehlikeli
▁devre
▁Buradaki
▁seyahat
ebilirim
nə
▁Or
▁işçi
▁vi
▁gücünü
mızın
aj
▁Doğu
ans
▁Car
ağa
kat
▁öldür
▁yoğun
ndaki
▁ülkede
▁çeki
▁arazi
▁alanlar
▁arası
uru
X
▁kitabı
abileceğimiz
▁babam
mıştım
▁karakter
▁kısmını
▁yabancı
▁kare
▁gördü
▁Ay
▁oluş
▁hali
lıkla
▁miktarda
▁dönme
▁çalışmaya
▁telefonu
▁Dr
bar
▁Du
▁gerektiği
▁hastalığı
▁yak
▁hissetme
▁günü
dy
▁toplam
▁Fi
emez
▁tarihi
▁güvenlik
▁şirketler
“
▁ağır
▁ayar
▁veriler
▁nöron
▁boyutlu
▁adet
▁sergi
nca
▁görür
▁görürsünüz
▁yüzyıl
▁kadınların
▁çalışıyorum
▁Öyle
▁parti
▁olduğumu
▁odaklan
▁uydu
▁sıfır
▁araçlar
düğü
▁zeka
▁katıl
gin
▁dava
▁Pi
ümü
yordu
▁yarısı
▁sırada
▁sonrasında
▁kenar
▁açıkça
▁strateji
▁doktor
”
lərin
▁fil
▁yaşadı
▁edildi
▁Doğru
mamız
▁adını
mayacak
▁Demek
▁tas
▁kimyasal
▁fare
▁Geçen
▁kendime
▁gül
▁edir
landırma
hu
hri
▁cam
▁geçiyor
ucu
▁Ona
▁13
▁isim
▁dev
▁gemi
▁saldırı
▁yaygın
ində
▁hissi
ınca
▁herşeyi
ğimiz
▁zihin
▁erken
▁burda
▁onunla
▁polis
▁top
ğin
▁demektir
▁taşın
▁sıcak
▁üretim
▁başa
▁oy
/
▁14
▁tur
▁inanma
▁öte
▁çekici
▁süreci
▁çocuğu
▁televizyon
▁hücreler
▁kendimiz
arı
diniz
unda
▁Ye
▁aş
▁kavram
▁hız
▁başta
▁kalk
▁yorum
▁ata
▁dağ
▁sap
▁ortam
▁Kız
▁katkı
▁birine
▁yaparak
▁besle
▁okuy
▁ikisi
▁davran
▁yayıl
▁yetiştir
▁geriye
▁tecrübe
maq
▁otur
land
▁şaşır
▁örneği
▁sonuçlar
▁ikna
▁John
▁köy
▁yönlendir
▁Bak
mesini
▁benziyor
▁yeterin
▁davet
▁ad
kür
ümüz
▁dek
▁politik
▁ediyorlar
▁vücut
▁yağmur
nızda
▁Chris
qu
▁anlaşıl
▁yağ
▁adamı
ite
▁olduğunuz
▁anlam
▁yık
▁insanı
▁siyah
▁beden
▁toprak
▁düşünmeye
▁verdiği
hane
ınız
malı
▁yaşay
▁olmayı
▁sırasında
▁öğretmen
▁gıda
▁ortasında
▁to
lamaya
▁boyut
▁olmamız
▁ettiğimiz
seydi
▁olağanüstü
▁halinde
larınızı
▁don
▁So
▁düşündük
laştır
▁endişe
▁değiştirmek
acaktır
▁sahibiz
▁bölüm
▁herşey
örü
▁düş
ası
▁ruh
ılır
yor
▁modern
▁bitir
ks
diler
▁kurma
▁çalışıyoruz
▁isteme
▁teşvik
▁geldiği
▁ziyaret
▁hissed
Ə
duğu
▁Po
▁Y
ıyorum
▁Mən
▁ton
mizde
▁bulunma
▁sekiz
▁verimli
▁yaparken
▁sonsuz
▁İnsanların
ırken
▁getirdi
▁sessiz
▁Beni
▁dokun
▁bit
▁hə
▁mo
▁anı
lardır
▁90
▁dahi
▁Ri
▁bü
▁Birçok
▁kısım
muştu
var
▁olmaz
▁Yüz
lerinizi
▁Burası
▁parmak
▁renk
ırlar
ss
▁genetik
▁getirme
lerimizin
▁yapmayı
▁fi
▁yollar
▁gitti
▁girme
▁getiriyor
ğü
ral
▁uzman
ayım
▁programı
▁sağladı
▁yönet
▁70
▁baba
layıcı
lerdir
▁anlamaya
▁geldiğini
▁Pekala
▁kayıt
▁doku
▁hər
▁ayrıl
gan
▁aktar
▁duyma
▁keşfed
▁yapmamız
▁deyil
cılar
▁verin
▁park
▁es
▁sağlamak
▁hakkı
▁sorunu
▁kurum
▁istediğimiz
men
▁ilerleme
▁ülkelerde
birine
▁kural
iyyə
imizi
aman
▁ardında
yıp
▁sefer
izm
▁motor
▁oran
▁deri
▁olduğunda
▁güvenli
▁cevabı
ib
▁sinyal
▁geleneksel
▁piyasa
▁icat
▁gerçeği
inizi
▁ge
▁Tam
▁şehrin
▁etrafında
▁Baş
▁ölç
▁kaya
▁rahatsız
▁buldum
▁so
▁tarz
▁önemlisi
▁edilen
▁olmayacak
▁pat
▁rahat
▁ter
ıyla
▁değişik
▁merkez
yoruz
▁kültür
▁türlü
ktan
▁uyan
▁eve
▁çiz
▁say
▁Ja
rek
▁çocuğun
lüğü
▁bebek
▁hepsini
▁anlay
ev
▁kilo
▁alakalı
▁rakam
▁üzerindeki
ğım
▁açıdan
▁mesele
▁yüksel
▁açıklama
▁bilir
▁Onları
▁girdi
gar
▁ülkeler
▁dile
▁nesil
▁miyiz
▁başlama
oz
▁16
▁In
je
▁bunlardan
▁genellik
▁aşama
▁kere
▁indir
▁döndü
▁sür
▁sevgi
▁mil
▁belirt
▁diy
▁hükümet
▁tepe
▁bağlan
F
mektedir
▁tarafı
▁giden
▁sun
▁belirli
▁annem
▁sorular
▁zeki
tür
ot
▁Çoğu
▁nerey
▁Tabii
bb
▁İnternet
▁bilmiyorum
▁yoktur
maktadır
▁Gülüş
ff
▁Video
▁gösteri
▁geçme
▁Biraz
sti
▁ar
▁Pe
▁gösterme
▁eylem
▁Gerçek
▁öğrenci
▁sanatçı
▁seviyorum
▁elbette
▁korkunç
▁çalışır
▁Go
▁Yap
larınız
▁demokrasi
▁karanlık
▁gösterdi
▁yüzlerce
▁getirmek
▁Hepimiz
▁akıl
dığınız
▁günlük
mle
▁durumu
▁sağlıklı
▁garip
▁önem
Q
▁olmasını
kül
mizin
▁süper
lerim
▁yaklaş
▁denge
▁doğu
▁alış
▁dal
bil
amaz
▁olanlar
▁yana
liyor
▁süreç
▁uçak
cak
abilmek
▁bilimsel
▁kendimizi
▁gü
▁duruyor
▁tutku
əs
▁olduğundan
▁Vi
▁gerçekte
▁gitmek
▁görüyor
▁umut
▁gelecekte
▁bulduk
cık
▁duyu
gun
▁yaşan
▁teori
▁satın
▁senin
manın
▁Tek
mez
eyim
▁inanıyorum
▁ettiği
ından
▁200
▁oldum
ünün
▁davranış
din
adlı
ron
▁arı
▁organ
▁hikâye
▁hal
▁söyler
▁yaptıkları
▁kod
iliyor
▁önceki
▁ateş
▁çocukları
▁ısı
▁kesin
▁dönüştür
▁dalga
▁Dolayısı
▁İkinci
imizin
▁belir
▁çıkma
▁ölçü
▁çaba
▁yoksa
▁evrim
▁göstereceğim
▁gör
luğu
▁budur
har
▁yapabiliriz
▁istiyor
▁anlamı
▁Mü
▁ucuz
▁Hiç
▁akıllı
maz
up
▁konuşmak
miyorum
▁üçüncü
▁fikirler
▁teknik
▁laboratuvar
əl
hr
▁Ak
▁ila
miştim
▁tercih
▁istiyoruz
▁ada
▁av
fer
▁dön
▁alın
▁rol
▁zamanı
▁evren
▁amaç
▁tarih
mın
▁İyi
▁esas
▁li
kal
vu
▁ekran
▁yaratıcı
▁söylediği
▁içindeki
▁şa
▁çarp
▁Batı
▁kaldır
▁ol
▁Sen
H
▁anlamda
▁yapıyorlar
▁bilmiyor
▁köpek
mayan
▁Gör
madı
▁beceri
▁Kim
▁değilim
▁söyle
▁ham
▁dolaş
▁hayatını
▁liste
▁silah
lanıyor
▁balık
▁olun
▁80
▁sistemin
▁Ki
▁yıllar
▁mesela
▁okuma
▁hastane
▁W
dığında
lenme
▁kullanmak
▁kırmızı
▁arkadaşım
▁Birkaç
▁adlandır
▁pi
▁Pa
siyle
▁önünde
▁sanki
▁sey
▁karbon
▁taraf
▁söyley
ımın
▁geçmiş
▁hücreleri
▁edə
▁götür
▁yön
▁ilham
▁başında
▁işlem
ow
kçe
▁yüzünden
▁bekle
▁arkadaş
▁teşekkürler
▁hayvanlar
▁site
▁Onu
muyor
▁ürün
▁açısından
▁işle
▁Ni
ığı
sen
abilme
dıkları
▁hatırla
▁söylen
▁ince
ad
▁mikro
kleri
▁istedim
rü
▁sağlayan
leyici
yorum
▁bilər
dılar
▁gösteren
▁gözlem
▁gördüğümüz
▁amacı
▁Böyle
▁kıl
▁kendilerini
▁adında
▁alet
▁saniye
▁insanlarla
▁bulun
▁duvar
▁etkisi
▁olmuş
▁bitki
▁topluluk
▁sonucu
▁aldık
▁şirket
▁bazıları
▁arama
▁kendine
▁çeşitli
▁dönü
▁yaratma
ster
▁bununla
nuz
lemek
▁etkili
▁biyo
üs
▁kişinin
▁milyonlarca
▁kaynağı
▁sayısı
▁gelme
▁cep
▁dans
dar
▁Mu
▁sabah
mızda
▁numara
▁dayan
▁Gi
▁yük
▁verdik
▁buz
▁ilgilen
▁şaşırtıcı
▁çevir
▁hayır
meyecek
▁konusu
▁biliyorsunuz
▁işler
▁can
▁kes
nd
▁gizli
ılması
▁merkezi
dikleri
▁olacaktır
ildi
▁Fa
ren
▁edilmiş
▁edebilir
▁Tanrı
acağını
ıpkı
▁seviye
▁Ke
larımızın
▁zarar
▁hi
▁yazma
iği
▁etkileşim
▁olduklarını
▁Ho
▁dijital
▁açıl
▁Hatt
▁farkında
▁hak
▁aşırı
▁yerel
▁pro
▁bar
▁kullanıl
▁yapılmış
ğe
he
▁tutu
▁oranı
mer
▁boş
▁dik
▁Nasıl
▁iklim
▁kalp
▁hayatın
▁san
tro
medi
▁Kar
▁gittim
▁yaratmak
▁kır
▁yu
▁mal
O
▁Ara
▁içeri
▁25
▁cihaz
iyorlar
▁sayıda
▁Bazı
▁As
eği
nize
▁Mar
gen
▁çöz
▁yapıyoruz
▁sev
▁azında
▁sahne
▁yaşlı
▁Jo
uyor
eceğini
▁ediyoruz
▁dışarı
▁biçimde
anırım
▁geçti
▁sanırım
▁hâl
meliyiz
▁katı
▁okyanus
▁halde
ıyordu
ışı
▁ortada
▁politika
▁Mesel
▁yeşil
teki
N
yse
▁bakım
▁dış
▁Güney
iyorum
acağı
▁Orada
▁zamanlarda
▁Kuzey
▁günde
▁görsel
ana
▁öğret
meyi
leyen
▁Və
93;
▁şekil
▁sü
eceğiz
▁başla
▁sat
▁bi
▁paylaş
▁Google
larım
▁takım
▁hastalık
▁deneme
▁yiyecek
▁alt
▁dışı
▁tanesi
▁çalışmak
▁buradaki
▁ihtiyacı
rik
ıyorlar
▁hizmet
▁suç
▁üniversite
▁Çocuk
▁R
▁gözü
▁bo
▁şeylerin
▁mücadele
▁çık
▁düşünüyor
▁örneğin
▁baskı
▁kutu
▁gördüm
▁açı
▁Na
▁temsil
▁gerçekleştir
▁kurtar
▁icin
▁Va
▁görüş
diğiniz
▁belli
lanan
sıyla
▁kaynak
▁yıllık
▁edil
▁harita
▁söyleme
▁temiz
▁derecede
▁kanser
▁dönem
▁petrol
▁dünyaya
▁Orta
▁kök
▁çıkıyor
▁Örneğin
▁alıyor
▁virüs
ama
▁düz
▁çek
▁duygu
▁CA
una
▁İnsan
▁Başka
▁yeterli
▁yaşama
▁11
▁ufak
▁üstünde
▁x
▁eşit
şe
▁Mars
▁tut
ji
▁yaşıyor
lenmiş
▁aldım
▁olmaya
▁başar
lerdi
▁sar
▁fakir
▁fiziksel
▁ş
▁pazar
▁kendisi
▁mən
▁yerinde
▁bakalım
▁şeylerden
▁Birleşi
▁noktada
▁molekül
▁görün
oloji
▁Amerikan
▁tip
▁Herkes
laşma
▁yarı
▁yasa
mək
▁verdim
▁Artık
▁ö
▁Ko
ıyorsunuz
▁erkekler
▁gelişme
▁çocukların
▁medya
▁tartışma
kten
▁der
kları
▁söylemek
▁kişiler
▁Re
▁zaten
▁yapacak
▁Müzik
,000
▁oray
▁nedeni
▁gider
▁koruma
▁Li
▁öğrenme
▁kamera
▁dönüş
▁masa
▁olsaydı
▁aç
K
▁buraya
▁gördük
sından
▁mə
▁uç
▁po
▁Le
ğa
▁şekli
▁oluşan
▁Onun
if
umuz
tım
▁herkesin
▁kanıt
▁tarafta
ğu
iniz
▁em
▁başlar
ılan
▁beyaz
▁emin
ysa
▁yanında
▁alanı
▁kuş
▁sağlıyor
▁bulma
▁görev
▁mesaj
▁60
▁Bunları
▁ortalama
▁aldı
▁sol
▁yerlerde
lendi
▁sınır
ram
▁mavi
▁bulmak
▁kişisel
L
abiliyor
▁fırsat
▁yaş
▁algı
▁kitap
mıza
müş
▁çıkan
▁kendimi
▁fa
▁birini
▁Bi
▁9
▁aracı
▁tepki
▁şiddet
▁göstermek
▁program
üyor
ıyoruz
abil
91
▁görünüyor
ilen
▁olacağını
▁kimi
▁sayfa
▁gücü
tif
▁yayın
suz
▁bilirsiniz
▁sahibi
mize
tık
▁geliştir
eceğim
lıyor
sam
▁yüzey
▁pa
▁Ar
▁oluştur
▁dizi
▁birinin
▁dur
stik
sh
▁ayak
layan
▁iste
R
▁araç
▁kapı
▁12
ebiliyor
▁anlamak
▁ABD
▁çalışıyor
▁Ku
▁kullanma
▁konuş
▁hata
▁oldukları
▁diyor
▁işin
rak
▁biliyorum
G
▁geli
▁yıldır
▁sinir
▁se
▁nerede
▁Bil
▁beynin
yken
▁veriyor
duk
▁çift
▁altın
ıldı
▁başlıyor
nü
rat
▁kon
▁ko
▁düzen
iyle
▁üst
əm
▁sor
▁do
ladı
▁gönder
▁veren
▁Ge
ab
▁Mi
lığ
co
▁yedi
yiz
▁dahil
▁muhteşem
▁ayır
as
landı
tör
E
▁olduğum
met
▁it
▁Ev
▁La
liğe
▁mevcut
▁nə
▁normal
▁söyledi
▁7
▁heyecan
▁il
▁tanım
▁zamanlar
▁18
unun
▁olmadan
malıyız
▁korku
▁musunuz
▁büyüme
▁kara
▁yöntem
▁gerekir
▁tabii
▁varsa
▁He
▁sınıf
▁DNA
th
▁verdi
ger
▁düşük
▁zengin
▁ilaç
sunu
▁ye
▁büyü
▁giy
mde
▁sayesinde
pi
▁öz
mekte
raf
▁elektrik
▁görüntü
▁şarkı
▁sonuç
▁müzik
▁işaret
▁sa
▁yavaş
▁kas
▁gidip
▁mükemmel
▁söylüyor
▁yaptı
id
▁geçir
▁lazım
ah
▁San
▁is
▁si
▁8
▁asıl
larıyla
▁ediyorum
▁edecek
yə
▁sal
yü
▁yaptım
▁bilme
▁İş
os
▁kalan
▁dünyadaki
▁çal
lanmış
▁kadınlar
▁Hayır
▁kol
▁uzak
▁gel
▁arada
▁evet
meyen
▁yemek
▁Gerçekten
▁yapabilir
▁şeye
gu
▁başladık
po
▁düşün
tor
masını
▁Se
▁dil
liğin
taki
▁bulunan
dığım
do
▁nedenle
▁aşı
▁çözüm
lerimizi
▁başarı
▁Teşekkür
▁ait
op
yon
▁hedef
▁gidiyor
▁N
▁risk
▁L
▁devlet
▁sık
▁di
▁fikri
▁kalma
▁makine
eri
▁haline
▁başarılı
▁olmalı
▁acı
▁düşünme
▁ihtiyaç
▁Ga
miyor
▁yaptığım
▁kısmı
▁uygun
▁metre
▁M
abilecek
▁sesi
▁seçim
▁mutlu
▁yapar
▁binlerce
tar
▁olurdu
▁6
▁yatırım
▁resmi
▁g
▁gerektiğini
▁Da
▁duy
▁Ra
mu
▁gerekli
▁ettik
▁Do
▁hep
▁ayrı
▁El
▁art
▁konuda
▁vermek
▁ciddi
▁görüyoruz
▁u
larımızı
.000
▁tabi
▁beri
▁Co
▁takip
▁resim
▁yılda
▁destek
per
▁yaşında
▁ekonomik
▁değişim
▁kesinlikle
ist
ebilecek
▁sürekli
▁orta
▁küresel
ay
leşme
▁hayvan
bir
▁almak
kan
▁kazan
▁Yeni
▁hayatta
▁model
▁40
ık
▁engel
▁defa
▁be
▁erkek
sem
▁ayrıca
▁içerisinde
▁kendini
▁orman
lük
▁dünyayı
▁la
nu
▁eş
▁arka
▁hepimiz
ku
▁İki
▁dışında
▁merak
mesi
▁hücre
son
▁din
mıştı
▁Diğer
▁hoş
kı
is
▁hangi
▁alır
ımı
▁Bizim
sü
▁olup
▁meydan
▁yap
▁yan
▁yukarı
ko
▁adı
▁görmek
▁b
▁Bütün
tur
▁Ayrıca
▁bakar
▁bazen
▁etmeye
▁yılında
▁ilgi
▁yazı
▁robot
▁yaşayan
I
▁et
▁tamam
▁başına
mişti
▁test
▁re
▁kur
▁ba
▁olursa
▁ileri
yum
ver
▁bas
ley
▁Avrupa
▁düşündüm
▁koy
▁güneş
▁internet
ebilirsiniz
▁yardımcı
lamak
kar
▁Buna
▁çizgi
şi
▁ettim
▁Ro
▁bırak
▁olsun
▁asla
▁şehir
▁telefon
▁J
ilmiş
diğim
▁York
▁bil
▁adım
▁anlat
der
▁dolu
mo
go
dən
▁as
▁on
▁bakış
ici
▁altı
▁madde
▁Büyük
▁dolayı
▁iz
j
▁sistem
▁s
▁nedir
▁tə
▁ç
muz
▁teşekkür
▁getir
▁fotoğraf
▁bina
inden
▁Su
P
leriyle
▁uygulama
▁anne
▁alıp
ll
▁ele
acağız
▁görebilirsiniz
▁verir
▁etki
▁düşünüyorum
elim
▁beraber
▁rağmen
▁sebebi
sinden
▁sıra
▁görüyorsunuz
▁üçün
▁işi
mə
ze
▁tasarım
▁Belki
C
▁gitme
yım
▁bağ
▁insanın
▁biliyoruz
▁ders
▁yaptık
▁tanı
ol
cü
1
bu
▁yapılan
▁Bo
▁sağlık
5
▁ihtiyacımız
▁biliyor
▁çalış
ının
▁anlamın
▁Be
▁uzay
▁kelime
san
▁1
acağım
▁çeşit
▁bağlantı
ydu
nızı
▁ortak
▁eder
nizi
▁arasındaki
▁sebep
6
ste
iyoruz
▁sonraki
▁canlı
M
7
▁olduğumuz
▁İnsanlar
▁yoktu
ör
▁çocuklar
mda
▁gen
▁Tüm
ul
üm
▁çox
şa
dür
ton
▁Al
▁muhtemel
ılmış
mıyor
▁kullanarak
▁he
▁Aynı
▁bin
▁karmaşık
▁okul
▁plan
▁ön
0
▁seç
▁tak
▁geçen
T
▁yaz
ing
▁bunların
▁kafa
ləri
▁c
▁kar
▁ekonomi
lanma
▁dakika
▁genel
▁olmadığını
▁yanı
▁ikinci
▁Ba
▁başladım
ber
▁100
▁öğren
▁yapıyor
▁15
▁An
▁gezegen
▁ulaş
diğini
▁verici
▁problem
▁doğal
▁bakın
imi
iyet
alım
▁sen
mızı
▁ilişki
▁sayı
3
▁düşünün
▁iletişim
▁dikkat
▁şeyin
▁haber
▁ışık
▁deneyim
▁yaptığımız
diğimiz
▁ifade
▁bölge
▁bundan
ız
▁ister
▁içine
▁üzere
▁ölüm
yo
▁olay
▁gelecek
▁özellikle
▁gir
yız
ımız
▁değiştir
▁derece
▁olmadığı
▁gerekiyor
▁TED
▁sanat
ebiliriz
bo
▁yere
sə
abilirsiniz
▁yapan
▁gece
▁kan
▁kim
ünü
lığın
▁tedavi
▁bağlı
▁olduğuna
▁yara
▁çıktı
▁F
00
▁düşünce
▁Ta
▁va
9
▁güven
▁sizi
▁yaptığı
▁birisi
ho
▁Mo
▁neler
▁Di
ru
nden
▁oyun
▁D
fa
fi
▁Son
asyon
ran
▁neredeyse
▁sistemi
dığımız
▁yapmaya
▁değer
▁derin
yim
▁kez
▁Kendi
▁deniz
▁ver
rken
▁doğa
w
▁Hindistan
▁yanlış
4
▁Çin
D
mayı
▁bence
▁Me
8
▁Ban
▁video
▁kabul
▁değildir
ər
▁geniş
▁ek
▁dedim
sında
▁kısa
▁5
▁anlama
▁ku
nüz
▁Ş
▁gördüğünüz
▁50
▁grup
cə
▁ak
ck
▁De
▁değildi
â
▁İlk
▁araya
▁New
vi
▁ara
▁deney
▁görme
▁geç
▁verme
ch
▁insanlara
dık
abiliriz
ış
meye
B
▁bunları
▁idi
▁oda
iş
▁hazır
▁30
▁yarat
▁tahmin
▁Ç
▁şunu
sın
▁kimse
▁etti
ğı
▁hepsi
▁Neden
▁olsa
▁aşağı
luk
ən
▁alma
▁4
es
▁ana
▁gösteriyor
▁hatta
▁film
#
▁edin
▁Te
ey
▁yine
lerimiz
▁kullan
unu
▁başladı
2
▁beş
▁inşa
ve
▁ses
muş
mizi
sının
▁ağ
▁dair
▁sağ
A
larımız
’
diği
▁hasta
▁cevap
▁yalnız
▁inan
▁Bugün
▁benzer
ed
▁kal
▁mümkün
sınız
▁güçlü
çı
lə
▁izin
dum
▁ta
▁kız
zi
▁iç
çe
▁ka
▁yolu
▁I
sek
▁güç
▁kap
dığını
▁insanları
tim
▁özel
▁göster
▁çalışan
▁böylece
leme
▁gerek
▁baş
▁parçası
mı
▁şeyleri
▁demek
▁Teşekkürler
▁hemen
▁herhangi
▁hala
▁kontrol
▁Benim
▁dünyada
imiz
▁savaş
▁eski
▁durumda
▁söz
▁altında
▁inanılmaz
▁sürü
ebilir
▁araştırma
ğ
▁hem
▁el
▁kolay
▁Sa
▁birşey
us
▁milyar
▁də
▁eğitim
▁ha
ge
%
▁beyin
dığı
ga
▁istediğim
▁elde
S
▁hafta
ına
▁dört
▁toplum
ıcı
▁olmayan
ması
ça
ür
▁2
▁te
dik
▁sosyal
▁herkes
▁hale
▁onlara
▁ancak
▁Onlar
▁yaklaşık
▁hayat
▁me
ur
▁ona
seniz
▁Şu
▁çevre
sak
▁sonunda
▁G
▁genç
▁ilginç
ında
▁yeniden
▁işe
▁dolar
▁En
▁sizin
▁f
▁Sade
▁örnek
▁Tamam
inin
▁yerde
sunuz
▁proje
▁tane
▁yaşam
▁çoğu
▁yapma
▁bilim
▁gelir
▁parça
▁yüz
▁geldi
▁İ
▁sorun
za
ö
▁saat
▁hızlı
▁adam
sinin
▁i
▁çocuk
▁Sonra
lər
▁P
▁konusunda
▁bizi
▁ediyor
▁zorunda
min
ıl
▁Böylece
dım
▁temel
gi
▁vardır
▁in
▁H
▁sene
▁Amerika
▁eden
▁veri
▁araba
▁onların
sun
▁ederim
sinde
▁bilgisayar
▁alan
Z
▁hava
də
▁konuşma
▁nokta
to
nun
cu
▁şöyle
▁artık
▁Ma
▁hiçbir
lerinde
▁üzerine
▁olma
ro
lerinden
man
dü
▁Ha
iyor
▁çalışma
▁U
▁mü
▁yardım
lardı
▁ev
▁B
▁yapı
▁kadın
larından
▁3
çi
▁işte
▁gereken
▁fikir
▁Bunlar
▁yerine
▁öyle
maya
or
▁ülke
▁19
▁dünyanın
sal
sız
▁durum
▁basit
▁harika
▁kat
▁T
tik
▁pek
▁Afrika
▁etme
▁aile
inde
▁birlikte
▁bugün
▁süre
▁at
▁dedi
▁göz
▁gelen
▁tamamen
▁20
▁kaç
bi
ecek
▁belki
hi
▁orada
▁buna
larla
▁Evet
▁bak
abilir
va
lığı
▁yüksek
ha
▁hikaye
▁arasında
st
▁enerji
▁Biz
el
▁birçok
▁mu
Ü
siz
liği
▁Siz
▁k
erek
▁!
▁yüzde
▁K
▁Ka
▁konu
▁Daha
▁yakın
sin
▁olur
▁10
▁Anca
▁siz
lerle
▁çıkar
▁milyon
▁Ya
▁devam
▁Alkışlar
▁geliyor
▁ay
▁hayal
▁açık
▁Alkış
▁boyunca
▁fark
c
▁kötü
dur
on
lama
▁Aslında
▁bunlar
lü
▁onlar
su
▁onun
x
▁onları
dim
sına
▁kişi
nız
yu
▁olabilir
▁tekrar
▁beni
▁oluyor
▁Her
▁yani
▁uzun
▁yol
▁anda
▁etmek
ün
cı
▁fakat
be
▁birkaç
▁güzel
▁Burada
ıyor
▁karar
▁teknoloji
ydı
tır
▁al
lerinin
▁tür
ip
▁para
nde
▁oldukça
larında
iz
▁və
▁şeyi
ıp
▁Dünya
▁zor
▁bize
lerde
▁Peki
▁Bunun
sını
▁ortaya
▁mı
ine
mek
lo
nı
▁Çok
▁soru
acak
lerden
larda
▁istiyorum
▁İşte
v
al
il
mız
▁olmak
sanız
▁olacak
▁Kahkaha
siniz
▁dünya
▁şimdi
lan
▁tarafından
arak
ik
ndan
▁E
▁Ne
▁hareket
▁gerçek
▁bazı
▁yapmak
▁tam
▁su
lardan
▁Çünk
▁üç
larına
▁onu
▁olması
lerine
larının
▁böyle
nda
ra
▁yüzden
miş
tir
▁diye
▁zamanda
ba
ım
niz
▁C
sini
▁neden
▁karşı
▁vardı
ını
▁Bunu
ten
▁bilgi
ydi
▁göre
▁hiç
▁az
mış
re
ken
sine
▁üzerinde
yle
▁-
▁insanların
sel
▁biraz
▁Eğ
▁geri
▁iş
ır
▁size
ç
mak
▁bütün
▁yer
▁oldu
g
▁bana
▁Faka
miz
▁tek
deki
ar
mi
▁eğer
ci
ir
▁önemli
▁bizim
▁son
lu
se
▁şeyler
▁ise
tı
lere
▁an
▁gün
yla
▁Gülüşmeler
▁burada
ri
ini
tan
▁♫
▁biri
▁veya
▁küçük
▁doğru
▁sahip
▁bile
▁aslında
b
du
▁bunun
lara
▁biz
▁içinde
▁yok
dı
▁ilgili
▁insanlar
im
um
uz
▁başka
▁kendi
▁farklı
▁A
h
▁diğer
d
▁tüm
▁ilk
▁Ben
▁benim
▁ben
un
▁olduğu
o
▁hakkında
q
▁insan
▁Şimdi
▁Yani
sa
▁S
f
lık
▁mi
▁gerçekten
daki
ti
▁aynı
▁;
▁yeni
me
&
▁fazla
ca
▁yıl
▁iki
▁şekilde
larını
▁şu
▁önce
lik
▁çünkü
ə
ne
yı
lerini
.
ni
▁O
dır
-
▁sadece
ta
lerin
▁nasıl
ların
▁bunu
dir
▁Ama
ki
▁sonra
▁büyük
ş
ce
▁ama
an
lı
▁Bir
di
▁olduğunu
sı
▁iyi
▁zaman
y
en
ma
ın
yi
▁ya
na
u
▁değil
▁ile
er
▁her
s
▁en
▁kadar
ü
dan
nın
nin
▁ne
den
▁olan
l
ye
▁—
si
▁...
▁o
r
ı
▁şey
z
p
▁olarak
li
le
▁gibi
▁:
leri
in
(
▁)
la
▁var
ları
▁ki
ya
de
▁daha
▁de
da
▁?
▁çok
ler
▁Ve
i
▁da
▁için
m
▁Bu
lar
e
k
a
apos
n
▁bu
▁
▁ve
quo
▁bir
▁&
;
t
▁,
▁.
777
\
̊
¿
ĂŤ
¢
lz
ā
▁hotte
▁escap
▁judg
▁financ
▁perceiv
▁Ji
▁estimat
▁invisib
▁explod
▁advanc
▁optimiz
fabricat
▁balanc
transcenden
▁illustrat
▁ignor
▁purchas
▁Anthon
▁exoplanet
▁valu
▁burglar
▁Federal
▁daunt
▁Secret
▁persecut
▁irritat
▁messenger
▁semester
▁discourag
▁retrospect
▁bailout
▁imprison
▁menstruati
▁horrify
▁devastation
▁damag
▁Orchestra
urricane
▁Thursday
▁northwest
▁enlist
typical
▁99.9
▁ellip
▁necessit
mobile
borough
▁astounding
▁cherish
▁detergent
▁municipal
▁charg
▁perpetrator
▁evoke
▁practitioner
▁prosthes
▁Blood
correct
▁Plato
▁appetite
▁Language
watch
▁prompt
sound
▁uplift
▁abusi
▁salad
▁seroton
▁Economist
▁reconfigur
▁pepper
▁rumor
▁Hispanic
nitiative
▁precursor
▁Panama
organic
▁plaster
▁notorious
▁vague
carbon
▁daydream
▁pearl
▁Alexandria
machine
▁multiplicati
percussion
argass
▁transcript
▁artisan
▁Bowl
▁Guatemala
▁windmill
▁ATM
▁arrogan
▁virulen
determin
▁shrunk
tockhol
computer
▁papaya
▁congress
▁grizzl
▁Ecuador
▁malignan
▁Douglas
▁seamless
▁whil
▁inferior
▁behav
▁Traditional
hapel
▁Challenge
▁wizard
vantage
▁Visual
▁puzzling
▁cyborg
▁biomedic
▁scandal
▁DIY
▁roam
▁tackl
▁unveil
▁perfume
▁metaboliz
▁Katrina
uestion
▁crumbl
▁numb
feld
▁arithmetic
▁discrete
▁yog
▁brillian
▁latitude
▁prevalen
nowledge
▁Picture
▁intertwin
▁hygien
junction
elusive
▁Oscar
▁complian
▁goddess
▁methodolog
▁charisma
▁indulge
▁landfill
▁husk
clean
▁gecko
▁Cultural
▁retriev
▁quiz
▁mutate
fifth
▁yogurt
▁cursor
urora
▁supplement
healthy
▁Protect
▁insecticide
sufficien
▁pronounce
▁tapestr
▁trawl
▁ovari
▁sabbatical
▁pluripotent
▁Photoshop
▁whiske
▁Midwest
▁Origin
▁ceramic
▁expenditure
▁Hondura
▁diabetic
▁rehearsal
▁hostilit
▁amplify
▁Jaw
▁marble
▁Morocc
belief
▁stockpile
▁hippocamp
entagon
▁tadpole
▁nickname
wesome
▁nudge
▁superintelligen
▁multiplie
terroris
▁rejuvenat
▁vibrant
▁Wednesday
▁sushi
▁Potter
▁slate
▁rupee
▁frugal
▁mangrove
▁transgender
▁Farmer
▁Clap
▁skydiv
people
▁siege
▁cymatic
▁cemeter
▁privatiz
▁Understand
mendment
▁prestig
▁congratulat
appropriate
limited
▁courtyard
▁magnify
▁Clau
explored
▁condens
▁reconcile
▁psychopath
▁byproduct
▁underlie
▁unify
▁hawk
▁Abraham
▁anchor
▁omni
▁Survey
▁embed
▁mediocr
rthodox
electrifie
mpulsive
▁blunt
▁mortal
▁reconciliation
driving
▁inquiry
▁twentie
symmetr
▁reception
▁billionaire
▁garment
▁energiz
▁skate
▁ribbon
protect
▁fountain
▁Compare
▁gloom
quarter
▁modular
▁toddler
▁reciproc
▁Laborator
ntelligence
▁eyebrow
▁memorabl
▁traumatiz
terior
▁vase
▁intercept
▁Ardu
▁Point
▁relocate
▁explosive
▁convuls
▁verify
▁attorney
▁lemon
▁effic
fitted
▁reptile
ehind
▁qualify
▁Engineer
▁classifie
▁polish
author
species
▁audition
▁Nichol
▁ecsta
▁communal
▁Wilson
▁megacit
▁Innovation
▁Vienn
▁gradient
▁resume
▁bargain
▁balcon
▁Medit
▁precipitat
▁offense
▁Jennifer
▁Parad
▁peanut
▁acquisition
▁diffuse
▁Mahmo
▁hippie
▁levitat
▁seizure
▁constitute
▁remittance
▁SAR
atomic
▁Effect
▁Close
▁Dreyfus
▁seatbelt
▁microRNA
▁tolerate
▁dictatorship
▁Darfur
▁deconstruct
▁ingenious
▁clitoris
▁sprawl
▁captur
▁saturat
▁Burm
▁Psycho
▁plural
▁opponent
▁heartbeat
▁subtract
▁Evolution
▁orchid
▁gossip
▁clich
▁subconscious
culus
▁loom
▁disparate
▁Lanka
▁rigorous
erusal
▁visi
iki
blowing
▁Amazing
▁Sputnik
hrir
▁distill
▁Game
▁feasib
▁Orleans
▁Galile
▁Convention
▁discomfort
▁LGBT
▁repertoire
▁feminis
▁reservoir
▁Essential
▁Progress
▁elastic
▁giraffe
▁patriarch
lateral
credit
▁Village
▁MBA
▁sniff
welve
▁incubator
▁instructor
▁scour
▁electora
▁demonstrat
▁intellect
▁Cuba
▁hike
▁delusion
▁honeybee
▁Enlighten
gatherer
▁primordial
▁homicide
▁paranoi
▁Grace
▁unpleasant
▁detach
▁tyrann
▁bait
partisan
▁utopia
▁ripple
▁sponge
▁Network
▁contradict
▁Cloud
▁socket
▁solemn
▁embryonic
▁photosynthesi
▁calculator
▁extremism
▁aspire
▁carpenter
spiring
▁Financial
▁whistleblower
▁inclin
▁Friend
disproportionate
▁headphone
Aid
ahren
▁plume
▁premier
▁conscience
supervis
▁infuse
▁roommate
secure
▁Cameron
▁Massac
▁juni
▁hummingbird
▁pollinator
▁homosexual
▁gorilla
▁servant
▁comedian
present
▁kindergarten
▁withdraw
▁complet
▁convenience
▁Democracy
▁summon
bacc
▁indicat
▁underpin
▁deflect
▁acknowledg
▁Millenni
▁evaluation
▁bureaucrac
▁allocate
▁Broad
▁emulat
▁Netflix
ippi
▁PowerPoint
▁rhetoric
▁vicious
▁notebook
▁catalog
▁Susan
▁Soldier
▁pornograph
▁queue
bucks
▁carcinogen
▁slap
▁swap
▁skyscraper
▁McDonald
▁holistic
▁slot
▁Murray
▁Hungar
▁influenza
▁mundan
▁astonish
▁chord
▁Lawrence
▁unfamiliar
fetch
▁Algeria
▁reflex
▁fibro
▁extremist
▁worn
▁identification
▁vegetarian
▁Discover
▁populat
orporation
polar
▁hurdle
▁monarch
▁Odysse
▁Perfect
▁brute
▁Francis
▁hydrocarbon
fell
▁stagna
different
replicating
▁crochet
▁delegat
▁asylum
▁reprogram
crony
▁bonobo
▁Euro
▁barbershop
▁knob
▁replicator
sanitary
▁capacit
▁superconductor
▁Picasso
▁dictator
▁Teacher
▁Termina
opolis
▁composite
degree
▁rect
▁anomal
▁applaud
▁symboliz
▁speculate
▁optimal
▁tribute
▁plaque
induc
▁cereal
▁Martian
▁hind
▁heartbreak
▁recreation
▁millenni
ophis
▁tumbl
fund
▁improvisation
▁inexpensive
▁algebra
▁pneumo
▁Palestine
▁regulator
▁adjacen
▁turbulen
▁1.4
▁rainbow
▁ambiguit
▁distress
ovember
▁pivot
▁ambassador
▁tinker
AC
▁radioactiv
▁superhero
▁uh
nutrition
plausibl
▁royal
literate
▁Politic
▁Taiwan
▁Fantastic
▁immersi
▁Virtual
▁recipient
▁warrant
▁Group
▁empirical
▁Dream
▁reckless
▁strap
▁appliance
▁lettuce
▁biofuel
▁altruis
▁Ukrain
▁interrogat
▁intestine
▁turbine
▁manipulat
▁Safe
▁grassroots
▁physiological
▁Veg
withstand
▁mutant
ibera
▁Armstrong
retroviral
▁apparatus
▁Archimed
▁Spider
▁hunch
▁Shoot
▁neurosurge
▁Tamiflu
▁plutocra
▁Everglade
▁ballet
▁chalk
▁telecom
▁Control
▁delete
Planet
▁dictate
great
▁Conservati
▁hurricane
▁draft
▁tectonic
▁equator
▁uncertain
▁paradi
▁obey
▁Strange
▁unthink
▁sapien
▁multitask
izzy
▁Sydney
▁irregular
▁spawn
gnostic
deli
▁cosmetic
▁decre
▁excavat
▁splash
mpact
▁Common
▁offshor
▁plunge
▁cheek
▁thunder
▁Saint
▁Klei
▁doctrine
▁Among
▁metropolitan
▁Physic
▁superstar
▁committee
▁synchronize
sumabl
▁anecdote
▁fundrais
▁satisfaction
▁Current
▁firefl
▁juvenile
▁unaware
▁moderate
cycle
▁deteriorat
▁biodegrad
▁pediatric
▁Text
▁squeak
▁Defen
▁semina
▁consultant
▁vector
▁swirl
▁coworker
▁Guinea
▁Beyon
▁ultrasound
▁collage
▁harass
umblebee
▁catalyst
▁refrigerat
▁Desert
▁irrigat
▁vitamin
▁propagat
chille
▁introduc
▁Excuse
public
script
▁activis
▁asphalt
▁wetsuit
counterintuitive
▁responsive
▁Major
▁biomaterial
▁provision
▁sulfur
▁preschool
▁PRI
▁cochlea
▁Nanopatch
▁commodity
▁motorcycle
▁unequal
▁Commission
▁prosecut
communication
▁catastrophic
▁circum
▁sleeve
▁burial
▁dude
▁sec
▁cafeteria
▁disseminat
▁narrat
▁glide
▁Jacque
▁instantaneous
▁immigration
▁vacan
▁Short
▁interfere
lcome
▁accommodate
economic
▁Jefferson
▁premature
▁shave
▁separat
▁verge
▁Electro
▁radiat
▁filament
angular
▁orientation
▁Shake
▁tidy
▁pervasive
▁resort
▁taxpayer
munition
▁kidnappe
▁Though
▁energetic
▁redundan
▁glorious
▁throat
▁patien
confiden
▁Hyper
▁desir
▁abortion
▁template
▁implicit
▁packag
▁comprise
▁resonance
▁migraine
▁improbab
▁rug
market
▁approval
▁resign
fashion
▁relevanc
▁discard
▁Cooper
▁beekeeper
▁simplify
▁paragraph
social
▁hominid
sensitive
▁Empire
▁sync
▁enforce
▁cynic
ndex
▁corp
▁pheromone
▁Roger
▁choreograph
▁jacket
▁Dallas
▁Pixar
▁Balti
▁Drug
▁assessment
ahedron
▁Window
▁Montana
▁hectare
▁Scratch
▁metronome
nterviewer
wandering
▁marvel
▁thorough
▁Student
▁Economic
▁Nu
▁immunit
▁mortgage
Mart
sterda
▁CIA
▁Type
▁superior
▁Universe
▁microwave
▁Oregon
▁excerpt
▁advertisement
▁releas
▁Buddha
▁glory
▁vulture
▁Prime
▁Philippi
week
▁sneak
▁Exact
▁anthropolog
▁surge
▁counterpart
▁ruling
▁delicate
ermaid
▁compass
▁vapor
▁sterile
▁feat
▁Living
▁Serious
▁summar
▁astronomical
▁nuance
loved
▁hatred
▁biotechnolog
▁Mahat
▁Forget
▁illiterate
▁Norman
▁Victor
▁persuasi
▁Lock
▁Victorian
abbage
▁Fair
▁Darwinian
▁emphasi
▁dwarf
▁graduat
▁orangutan
trophy
massive
▁occupie
▁facult
▁feminin
▁matern
▁migrant
▁epilep
educat
▁Hundred
▁alternat
▁Mount
Barack
▁Stewar
▁hive
nourish
▁curator
Africa
▁Simon
▁globaliz
▁ingenu
▁Nazi
▁exclude
▁complication
▁Depressio
▁Click
nanometer
▁nanoparticle
▁existential
▁criticism
▁Pantheon
▁novelty
piece
▁advent
▁timber
▁stiff
advert
▁invasion
▁unpredictabl
▁battlefield
▁laundr
▁token
▁ozone
Gowan
▁mammogram
▁CMU
▁Russe
▁Explor
▁eager
▁jealous
▁touris
▁consent
▁Jay
plain
▁Merc
▁Cambodia
▁Danny
▁unimaginabl
▁treasure
▁curtain
▁Service
▁wreck
▁shallow
▁epic
▁chemo
▁monk
▁reconnect
quatic
▁RO
▁unacceptabl
▁wax
▁symbio
▁Know
FL
▁prohibit
▁millisecond
▁wavelength
▁Notice
▁Colombia
▁Falcon
▁2,
▁waist
▁archaeolog
▁pension
▁embark
▁DARPA
▁quantitative
▁viewpoint
▁Colli
▁collide
▁Margar
cientific
▁Ultimate
ithium
utilize
▁Solar
▁Europ
sleep
▁86
▁53
▁strive
▁sermon
▁confusing
▁Self
▁payload
▁Fire
▁prioritize
▁coincidence
hili
▁caregiver
▁Full
▁susceptib
positive
▁ignit
▁cognition
▁Hmm
▁condemn
disciplinar
▁meadow
▁sentiment
▁compensat
government
▁advoca
▁cathedral
▁intimidat
▁tutor
cumen
▁enslav
▁induce
group
▁Ninety
cultural
▁packet
▁halve
▁substitute
▁patholog
▁Emil
▁Magazine
▁synchron
▁industrialize
▁diminish
▁extrovert
▁dissect
▁regenerati
▁salmon
▁submarine
▁testimon
▁Code
▁ballot
▁divergen
ibati
▁Ushahidi
▁calci
▁RIS
▁declin
▁mammograph
▁Bonobo
▁temptation
▁scroll
▁anesthesi
▁genital
▁psychiatrist
▁devastate
▁Nine
▁Skype
▁deployment
▁rival
▁resonate
naut
▁unnecessar
▁regain
▁Secretary
▁aqua
▁Monday
▁marvelous
▁biosphere
▁haunt
▁dissolve
utheast
bility
▁decentraliz
▁58
▁Rena
ndra
▁revolutionize
▁assault
▁technician
rief
▁humiliat
▁lesbian
▁prejudice
plus
▁Intel
▁rover
▁polymer
▁grind
▁improvise
▁savanna
▁iteration
▁marshmallow
▁Copernic
▁bucket
▁abnormal
▁undergraduate
▁classmate
▁mandate
▁disparit
▁assess
▁generalize
▁bore
▁symphon
▁shield
▁essay
▁Pittsburg
▁adversit
▁execution
▁surplus
▁Pink
▁trad
▁lesion
▁permit
▁cultivate
▁Georgia
▁Marine
▁blanket
▁secular
▁restorati
▁gland
▁plague
▁facilitate
▁Moham
▁neurological
▁crocodile
EO
▁calv
▁marathon
▁reasonabl
▁autonom
▁Max
▁Indus
▁generator
▁Gall
▁grassland
▁boson
sembl
ctopus
▁compliment
▁veil
▁parliament
NG
▁conspirac
▁Tasmanian
▁plumb
▁Swee
▁subsequent
▁54
▁modify
▁anxious
banish
castle
▁chaotic
▁OE
▁Beat
▁manipulation
▁seize
▁Walter
cuba
▁communis
▁tuberc
▁Jean
▁repetiti
▁modification
▁arbitrar
▁socio
▁innate
wash
▁radar
▁obscure
▁gym
▁reassur
▁differ
▁timing
▁dug
▁exhilarat
structure
lvin
▁Radio
▁compil
▁sensibl
▁measl
▁certificate
▁dentist
uza
▁missile
▁bulk
process
▁brainstorm
▁sensitivit
▁prevail
▁remov
▁recreate
▁bloom
▁album
▁nanotechnolog
NC
▁versa
▁introvert
▁smash
▁graffiti
▁fog
▁neocort
▁pancrea
▁slaughter
▁mul
▁minor
▁wallet
▁smuggl
sourc
▁chemotherap
▁mash
ficial
▁Bruc
▁deplet
▁Venezuela
▁contagio
▁neurogenesis
▁chick
spel
▁laborator
▁blurr
▁functionalit
▁tilt
frontal
▁flap
▁autist
▁Whitopia
▁Rule
▁CRISPR
▁hung
▁convincing
▁slip
▁140
▁guideline
▁Himalaya
▁fierce
▁Audi
▁visceral
▁Archi
▁Luck
▁cinema
▁catastrophe
laughter
▁grammar
▁atheist
▁SMS
▁Case
▁TEDx
▁nuclei
▁Bio
▁responsibilit
▁beneficia
TO
▁singular
▁gadget
resolution
▁intricate
▁northeast
hip
▁retain
large
▁scatter
▁Vinc
craft
▁coca
▁plac
clusion
▁appoint
▁Certain
▁billboard
▁customiz
▁cerebr
▁End
track
▁calculating
sexual
▁choir
minded
▁gait
▁gyr
▁reproductive
▁ladder
▁worship
▁respirator
▁crust
▁miniatur
▁pharmac
▁urgent
▁mixture
▁Environment
▁psychiatr
▁recession
▁enabl
▁audaci
▁philosophical
▁interdependen
▁Doctor
▁minimize
▁evaluate
▁multinational
sustainabl
inister
arliament
▁ramp
▁KA
▁superpower
▁rang
▁lamb
▁conductor
uddin
▁masterpiece
SM
▁inflation
▁mutilat
▁Help
▁gaze
▁Michigan
,200
teem
▁coheren
▁shelve
▁fame
▁logistic
▁legitimate
▁Stay
▁amuse
▁gee
▁synthesi
▁geometric
▁Brit
▁headquarter
▁shepherd
▁candle
▁Golden
▁prophet
▁glove
▁thrust
▁flick
▁Societ
▁puppet
▁Tele
▁grim
▁psyche
▁snapshot
▁devise
▁gamma
▁cylinder
volt
▁equilibr
▁maximize
▁Evan
▁pric
▁intervene
▁folk
▁beef
▁virtu
▁accomplishment
▁portray
▁rott
▁lime
▁pillar
▁embryo
▁fungi
▁hammer
▁fuck
▁alphabet
▁USA
▁claw
▁negotiat
school
▁shap
▁yell
▁deny
▁Thirty
plasma
coli
▁cement
▁traffick
▁Ministr
▁province
plex
▁resemble
▁Gius
▁influen
▁stain
▁correlate
conduct
▁Brazilian
▁western
▁Speci
▁disadvantage
▁parameter
centric
▁iPad
▁Oklahoma
▁Jess
▁pollutant
▁supercomputer
▁checklist
▁guerrilla
▁cybercriminal
▁fraud
CD
▁prosecutor
▁violin
▁terminal
igital
▁erupt
genesis
▁certifi
▁Titanic
▁Swed
oma
▁immerse
colonial
▁rob
worm
▁prototyp
▁ideological
▁bonus
▁affirm
▁dispute
▁southwest
▁unifie
▁46
▁prim
ipping
▁wool
destructive
▁Similar
arriage
▁surrender
▁fluorescent
front
▁Architect
ambia
▁irrelevan
▁inhibit
▁indication
▁crank
▁Ground
▁watt
▁medi
▁Wonder
▁Data
▁cream
▁weakness
▁owe
pulsion
▁buzz
manda
▁controvers
tention
▁Hand
▁Louis
▁slope
▁cocktail
▁hamburger
▁flexibilit
percent
▁prolif
▁130
▁intentional
▁ethanol
Bay
▁Tower
alai
▁flame
▁Movement
▁commoditi
▁module
▁Public
rado
▁encyclopedia
▁statue
▁escalat
litary
▁ancestr
▁64
▁Auto
▁rhino
▁unsee
▁ambulance
▁vanish
▁Small
▁ALS
▁defect
▁indicator
▁Jamaica
walk
▁boost
hhh
▁abstraction
▁cartoonist
100
▁rectangle
▁Alpha
▁Chuck
▁juggl
▁Learn
▁elementary
▁praise
broad
▁hobby
▁midst
▁romance
giv
▁Christopher
▁voyage
▁satisfie
▁racial
ulosi
▁Lago
▁confusion
▁hatch
▁assum
▁digg
▁robb
▁conviction
▁butterfl
▁benign
▁obligation
▁volcan
▁hypothetical
▁shade
▁tolerance
▁Guard
▁Mario
▁grape
▁embodie
▁lump
material
lude
▁gallon
▁Large
orbital
glass
▁Hawk
▁NA
▁bowl
▁flock
▁1.3
▁taxi
▁Bett
▁collaborat
▁vagina
▁Bosnia
airo
▁acute
▁syringe
▁mustache
▁adaptive
▁imperative
▁gross
▁Patient
▁cease
▁Wood
▁Lama
▁antibod
▁flush
▁Daniel
▁elbow
▁steep
▁Jones
▁Peru
▁Under
▁52
▁Iraqi
▁bypass
▁bombsight
▁bay
▁perceptual
▁incremental
▁blockchain
ubert
▁governor
▁comprehensi
▁trail
▁Carne
▁browser
liberation
▁Rub
▁Saturday
▁rust
▁hallway
▁cockroach
▁apologize
▁mindful
▁geological
▁Shakespeare
▁hostile
▁corridor
nonymous
▁Muh
▁embrac
▁ghost
▁anthropologist
course
▁Beatbox
▁reverb
▁Change
▁43
▁dismiss
▁Hindu
▁gigant
▁peel
▁Dick
stein
▁Mathematic
shift
▁Kepler
▁Nav
▁vest
▁Clear
▁cabinet
PA
▁98
▁overlap
▁critic
▁dispers
▁captiv
▁entrepreneuri
▁locomoti
▁triumph
▁lawsuit
▁inflat
▁resilien
▁peripher
▁Cancer
▁monument
▁chess
▁visitor
▁quo
▁Phoenix
ED
▁empowerment
▁fingertip
▁spade
▁skeptic
▁calendar
▁Fifty
▁interrupt
▁pollut
▁asthma
▁Medicine
▁stratospher
▁Laur
▁collar
▁propagand
▁8,000
▁hollow
▁31
▁imperfect
▁Nathan
lept
▁freez
▁feather
▁postcard
▁Bor
▁swamp
▁carrot
▁restriction
▁34
▁disrupti
▁Rica
vascular
▁Yellow
▁Leban
▁opt
AV
▁Arabia
▁Linux
▁metabolism
▁JC
▁prevalence
▁Mola
▁celebration
link
▁salar
▁macro
▁Edward
▁TEDster
▁envision
▁cafe
▁pave
▁meditat
▁suspicious
built
▁submersible
▁Sudan
▁duty
▁Climate
▁humbl
▁Namibia
▁adolescence
▁Luc
▁Scientist
▁Rais
▁absurd
▁relativ
million
▁vegetati
▁divine
▁eternal
uite
kyo
▁Nai
spread
▁keen
▁Down
▁simulate
▁Senat
elect
▁erase
▁exquisite
▁insult
▁vaccinate
▁steam
▁Gaz
▁FDA
▁pleasant
▁doubling
▁Buddhis
▁Liberia
▁negotiate
▁progressive
▁towel
risk
fidel
▁Old
▁algae
produc
compatib
▁maneuver
▁hypothes
▁outdoor
▁textile
▁Hospital
▁nonprofit
▁exit
▁misunderst
SI
▁occupation
▁Phil
▁specimen
▁significan
▁unleash
▁zoo
▁oyster
▁dopamine
taircase
▁headache
▁squid
▁UK
▁pessimis
▁incorporate
elphi
▁Mama
▁speculati
▁Kosov
▁leopard
effective
▁zip
▁Natural
▁Columbia
▁obsession
▁visionar
▁mic
▁Hubb
▁accompani
▁fracture
▁celebrat
far
▁capsule
▁nail
▁sympath
onald
▁Austria
openha
▁Maria
▁incomplete
▁horrifi
▁enlighten
▁invitation
▁adolescent
Tech
▁1,500
▁Mumbai
▁silicon
▁spike
fensive
▁famine
▁charter
▁physiolog
▁slam
▁Siberia
▁stadium
▁38
▁48
▁neglect
▁larva
osh
▁opposition
▁confess
▁Food
▁clap
▁skeptical
▁cardiac
▁plea
▁authoritarian
▁Coc
▁reuse
▁25,000
▁integration
▁obsole
▁metabolic
lima
ature
▁contemplat
▁taboo
▁Republic
▁fetus
▁virgin
▁enrich
▁sediment
traumatic
▁tactic
▁intrinsic
▁lobe
▁Show
▁expense
▁melod
▁lucki
▁scarce
▁Step
▁Recent
▁integr
▁brake
▁cholera
invasive
▁replacement
▁characterize
▁assist
▁cooperative
▁JF
▁Sylvi
▁guest
▁Journal
page
▁Line
▁sovereign
▁Alaska
▁Pete
▁Milo
▁Interesting
▁guitar
▁vice
profit
reedom
▁Nepal
▁sweep
▁scholarship
skirt
16
▁extensive
▁sexualit
change
▁import
▁overlook
▁spatial
▁Bert
▁reproduction
▁resurrect
▁manifestation
▁convention
▁DVD
qualifie
style
▁practic
▁microscop
▁Consider
▁progression
▁Oo
▁mammoth
▁transit
▁institute
▁firing
▁1.2
▁harsh
▁Sex
▁Uncle
controll
▁historian
▁epiphan
diagnose
▁stimulation
▁Office
▁informal
▁depriv
▁shatter
▁competitor
18
▁prox
▁minimal
▁preced
▁underestimate
▁exceptional
▁trunk
▁pesticide
▁fractal
plat
▁humble
▁hemisphere
▁niece
▁McC
▁straw
▁Machine
▁jungle
▁Somalia
▁prevention
▁Emma
▁commut
▁elevator
▁sulfide
▁drama
▁identit
▁Android
▁snap
▁Johnny
▁Tibet
▁anniversar
▁coordinate
conserv
securit
▁spiral
▁Juli
▁summarize
▁Mexican
▁stereotype
▁revelation
▁thriv
▁Map
▁victor
▁intimacy
▁swarm
▁doom
▁fever
▁Garden
▁irrational
▁disabilit
▁differentiate
▁Elizabeth
▁atmospher
▁innovator
▁optimize
▁fuzz
▁processor
▁guid
▁diarrhea
▁Bern
lium
▁Craig
▁observer
▁Computer
▁conquer
▁deficit
▁Development
▁Atlant
month
dental
▁rigid
▁freeze
▁AK
virus
▁soccer
▁Benjam
▁microbi
▁entitle
▁Nike
istine
▁polariz
▁decent
▁Civil
▁Portug
▁correlation
▁sequenc
▁Syrian
▁lethal
▁cit
▁gluco
angelo
▁mock
▁memorial
▁DR
▁Phila
▁yeast
quality
▁janitor
▁justify
▁tire
▁Wolf
▁impulse
▁spouse
▁courageous
▁blueprint
▁Commun
▁restrict
bound
▁angel
closure
▁Government
▁petition
▁Milk
▁captain
▁hopeless
▁Catholic
▁therapist
▁couch
▁Opera
▁premise
▁96
▁purple
▁momentum
▁poke
cast
uel
▁schedule
▁holiday
▁Education
saw
▁Light
▁Jupiter
▁exaggerat
▁warp
▁admitted
▁evaporat
proof
▁curl
▁velocit
▁modifi
dad
▁distinction
Col
range
▁helmet
▁surgical
pping
▁elaborate
▁prostitut
▁Fil
pped
▁Probab
▁thus
field
ibbe
▁constrain
▁symbolic
▁turtle
▁abundant
▁similarit
▁funeral
▁mytholog
▁costume
▁transformati
▁crude
▁counsel
corn
▁greet
pago
▁entrance
lah
rhythm
▁smil
▁unfair
▁legend
▁constitution
▁MT
▁Business
▁Swa
▁Post
▁Grow
▁whip
▁heroin
cles
ennis
▁stagger
▁endeavor
▁persuade
▁vocabular
▁Berk
▁Suppose
▁cheer
▁beetle
▁nasty
▁Roman
rizon
▁assemble
▁flipp
▁hint
▁tide
13
▁Mean
▁1930
▁Bhutan
▁spare
▁arrange
▁retail
▁pursu
▁fuse
order
▁bann
▁negotiation
▁Goal
▁squeeze
▁harbor
▁reclaim
▁mosque
▁sauce
▁slipp
▁armor
▁replac
▁Cost
▁polite
▁jur
▁vocal
▁toxin
▁explicit
▁bacteri
▁Santa
▁Clinton
▁journalis
▁PC
viv
▁Tunisia
▁disgust
▁incarcerat
▁temple
▁helpless
osphere
▁genomic
▁Ask
▁Earl
▁tourist
▁isolation
▁Norden
▁favela
▁climber
▁consensus
AL
LP
itcoin
▁RNA
eigh
▁prior
▁Too
▁alert
▁classical
▁Watch
▁exposure
▁defining
▁Cassi
rank
▁faint
lapse
▁Librar
▁cope
▁Scot
▁manufacturer
▁nitrogen
▁exot
▁annoy
▁transferr
▁Iceland
▁Sierra
▁wow
▁Add
▁Pu
▁kingdom
urgenc
▁circular
▁sake
▁Cra
▁nucle
▁Indonesia
▁selective
▁mum
▁friction
▁pipeline
▁performer
▁Stephen
▁Libya
▁Happ
eval
▁generic
▁echo
▁ventilat
▁dropping
▁belt
▁settlement
▁Thai
▁sanct
▁acoustic
▁activate
GM
▁basement
▁stereo
▁Jordan
▁vivid
graphic
▁separation
▁Nata
▁Laden
▁scrap
▁empire
▁titan
▁reactor
▁valve
▁brows
▁CR
▁strict
▁odor
rude
▁digitiz
MS
▁trustworth
▁connectome
▁idiot
sense
▁storyteller
▁banker
▁manag
▁convict
eopard
▁deni
▁criteri
▁achiev
▁prince
▁motivate
▁redefine
▁Kir
▁manifest
▁doodl
▁protocol
imbabwe
▁Sub
▁coverage
▁assure
▁prospect
AG
screen
▁multiply
▁rehabilitat
▁translator
lvani
▁flesh
▁shoe
▁stunn
income
▁priest
▁juice
▁arrangement
▁Carl
▁blob
speed
▁analytic
solv
▁council
▁girlfriend
▁modest
▁congesti
▁triple
▁nightmare
▁devastating
▁mill
digit
▁neo
▁myceli
therland
▁sixth
▁possess
▁horror
▁Free
▁remix
▁penetrat
▁compet
▁absence
symmetrical
▁insert
▁immortal
▁chase
▁Kong
▁tapir
▁Fund
▁Hav
together
▁swo
▁passage
▁Rand
▁riot
▁Brooklyn
DI
▁cycl
▁Lake
▁stumbl
▁genocide
▁Peace
▁uninten
▁tribal
▁anticipate
worth
apped
▁crab
▁destination
▁emergence
scape
▁Plan
▁Venus
▁index
▁Penn
▁blast
▁Apri
▁flourish
viation
▁fluctuation
▁Keep
▁1.5
▁rubb
▁precis
▁shak
▁rubber
▁chew
▁eliminate
▁mesh
▁revolutionar
▁Cur
▁infra
▁sperm
▁denial
▁Philip
▁numer
▁bioluminescen
▁pizz
▁vulnerabilit
▁neuroscientist
▁synapse
▁artifact
▁cage
▁subjectiv
▁shrimp
▁democrac
▁realization
▁controversial
oil
▁division
five
▁injustice
▁cooperate
▁Spring
▁glimpse
▁Iranian
▁campus
▁Power
▁readers
▁delicio
▁valid
venge
▁trivial
wrestl
▁scheme
▁occupy
pecific
▁jaw
▁grocer
▁lever
▁collaborate
▁friendship
▁lifespan
▁eliminat
▁tiger
▁describ
horn
▁prostate
mira
▁associate
▁blade
▁Pretty
▁taxe
nformation
eague
▁indigen
▁egg
▁tile
▁banana
▁propell
▁incentive
band
▁voter
▁volcano
▁sale
▁receptor
▁2030
three
▁tomato
▁punishment
▁dependenc
▁redesign
▁Disney
interest
▁193
▁Securit
spring
▁EM
▁regenerate
▁Rover
▁regulate
▁Late
▁creep
▁pencil
▁reputation
▁democratiz
▁envelope
▁Histor
▁continuously
▁bleed
▁honey
▁arc
▁Canadian
▁preach
▁350
▁deck
▁plank
▁execute
racing
▁Simpl
toleran
▁Jose
▁chef
▁44
▁pursue
mile
wide
▁Brother
▁1900
▁spine
▁iceberg
▁parasite
▁Kha
sky
▁proposal
▁pirate
▁popp
▁impress
▁rode
RA
▁digest
▁refrigerator
▁forbid
▁divorce
▁proposition
▁anticipat
▁impair
▁chamber
second
▁trac
▁rethink
▁Medica
▁abundance
▁Laugh
▁warehouse
▁monster
▁nonviolen
▁hyp
▁SP
▁approve
▁alum
inum
▁insulin
▁loose
▁amateur
▁Die
rich
▁Ala
culture
▁yoursel
itz
▁Snow
stitution
▁diver
▁sibling
▁stigma
▁beaten
Corp
▁Hope
ogether
▁initiat
▁emphasize
▁optic
▁filmmaker
eastern
▁lotter
▁Beij
▁downtown
▁kilogram
▁adaptation
promising
▁transcend
▁November
▁devote
▁broader
▁peculiar
▁summit
▁assign
▁endanger
▁migration
▁belly
▁swallow
witzer
oline
▁mari
▁Water
▁bench
▁6,000
▁Alexand
tun
▁fatal
▁Hans
▁hom
▁unemploy
▁bamboo
▁executive
▁censor
▁consult
▁cliff
▁Media
▁Rose
touch
dict
▁obtain
▁Syria
▁cigarette
▁proceed
▁preference
▁subsid
▁innovate
▁Republican
▁LG
▁threshold
case
▁Kid
▁useless
▁Moz
▁miserable
▁cosmolog
▁warrior
▁exceed
▁accura
▁Live
▁crater
▁converg
▁pond
▁dar
robi
▁Mandel
▁Gree
most
▁illustration
tail
▁mild
▁workshop
upreme
▁decid
77
▁container
▁Camp
▁harmful
▁teache
▁satisfy
▁pedestrian
▁chemist
▁calculus
▁mini
▁centimeter
▁maximum
▁indoor
▁recall
▁Swiss
▁stamp
▁arter
write
▁conceptual
SD
▁casual
▁configuration
step
pple
▁substantial
▁slim
▁fertilizer
▁basketball
▁Build
ius
▁Lead
cca
▁skelet
▁appreciat
▁metric
▁Geographic
ounce
▁tagg
▁trailer
▁Coast
▁Compan
▁pigment
▁cellphone
▁Bali
▁contest
▁suppress
minute
▁Nigerian
▁starv
version
shirt
went
▁Story
▁hug
▁Johnson
▁endur
▁visualization
drop
▁drain
▁optical
▁awake
quat
▁navigat
world
regulat
violet
▁cruel
▁segment
▁190
▁Half
▁electromagnet
clock
▁debri
position
▁approximate
▁retreat
▁playful
▁cla
weight
▁aggregate
▁intensive
▁rank
▁payment
▁Academ
▁Roo
▁delay
mple
▁independen
▁specialist
orient
▁rig
▁hypothesis
▁hallucination
▁Organiz
▁RS
▁liberat
▁deposit
▁60,000
▁dough
▁foi
▁Van
▁update
lmost
▁Stop
▁Lego
▁criticiz
▁veteran
▁airline
▁aunt
▁attractive
▁Inter
▁accelerate
▁Try
▁accent
▁excess
▁geek
▁sufficient
▁explorer
▁Social
▁heavi
▁whisper
▁moralit
▁Steven
▁loving
▁deepest
▁42
▁pursuit
uke
▁parachute
▁cosmo
▁atomic
▁stab
▁gorge
▁prayer
▁Twenty
frame
▁blink
▁Mountain
▁40,000
▁neutral
▁800
▁approache
drive
▁operator
▁chimp
▁membrane
MW
▁surf
▁spinn
bacterial
▁enzyme
▁diagnostic
▁fortune
▁Fri
▁clon
zero
▁contrar
▁introduction
▁Singapore
▁accountabilit
▁Greenland
▁glamo
▁dragg
▁punish
▁oppress
▁corrupt
▁mall
adequate
▁investigation
▁despair
▁teenage
▁grabb
▁syndrome
▁archive
▁herita
▁phenomena
▁Way
▁Telescope
▁Democrat
▁frontier
▁torture
▁duck
▁insane
creat
▁Accord
▁erect
▁thermo
▁backyard
▁phenomenal
▁Op
▁pixel
▁wheat
▁lobby
▁exclusive
▁troop
▁outbreak
law
▁sidewalk
flow
▁episode
vian
▁transistor
▁tale
▁pride
▁Ell
uch
▁nerd
▁proven
▁nurtur
▁whistle
ilia
nforcement
▁Acc
▁contaminat
▁developer
▁semi
▁carpet
▁Jona
▁forecast
stage
▁drown
▁selfish
▁flaw
▁epi
▁SE
width
▁libert
▁Lester
▁pee
▁ES
▁desktop
▁Young
▁Sound
▁rose
▁minus
▁mapp
▁quantit
ament
▁millimeter
▁planetary
▁recogniz
▁formation
▁examine
perform
▁Creat
▁Pal
▁singer
▁sport
kill
▁unhapp
▁thrive
▁chunk
▁mutual
▁depict
▁naive
▁striking
ectar
▁texture
▁Lord
▁pregnanc
▁requirement
▁Mala
shape
xcept
▁dumb
▁fad
Fi
▁Wait
▁diameter
▁chronic
▁200,000
▁Coke
▁suburb
▁integrate
▁artwork
▁TEDTalk
▁displace
▁jewel
▁reinforce
14
▁Brad
▁tongue
▁blindness
▁infectious
▁pathogen
▁SW
aeda
▁protocell
▁Redwood
void
▁Korean
▁CD
▁Tanzania
▁Rock
▁orphan
▁strain
▁UN
▁drift
▁realistic
plica
▁blogg
load
▁Edi
▁steer
▁addiction
▁geometr
▁encouraging
▁virtue
▁fusion
▁gig
▁arise
▁Joe
▁reproduce
adi
▁commit
▁sculpt
▁spray
heart
▁principal
▁manuscript
▁canvas
gli
LA
active
▁inclusive
▁System
cost
chu
▁hybrid
▁deliberate
▁junk
▁workplace
▁29
▁drunk
▁Carolin
▁antenna
generation
▁Seattl
bag
▁decorat
▁millennia
▁bedroom
▁branche
▁Stage
TI
astro
▁gods
▁blank
▁reporter
▁upward
▁Stan
▁Sudden
▁Department
▁frustration
▁dispos
▁rear
▁intimate
▁Sara
known
▁defi
▁frog
▁Nel
▁appearance
keep
▁overwhelm
▁55
last
▁referr
▁marketplace
▁immigrant
new
▁suspend
▁computational
▁argu
▁harness
▁span
▁unfold
▁relax
▁Prince
▁encode
path
nergy
▁drought
itting
▁ironic
▁mainstream
▁statistical
▁historic
ealand
▁elegant
▁30,000
four
▁Citi
▁hunter
▁Mik
▁lowest
▁hardest
▁lap
▁harmon
▁Church
▁Sunday
ternet
▁margin
▁Still
▁Shanghai
▁scaffold
▁submit
▁prescription
▁foster
▁AI
▁wheelchair
▁detection
▁supermarket
▁Michel
▁ongoing
▁grateful
efficient
dministration
function
▁horizon
▁goat
▁sneaker
ollege
blew
▁retirement
▁magnificent
▁architectur
▁tar
▁composition
▁precious
▁merg
▁Square
▁unlock
▁ethic
▁racis
▁masse
▁helpful
▁inhabit
▁compress
▁Profess
▁distinguish
▁repli
▁gravitational
▁cake
▁Christ
▁crap
▁monsoon
found
▁Monte
▁Leonard
▁Neanderthal
▁impressi
▁2020
▁mobiliz
mination
▁Hill
direct
▁Colo
▁civilian
▁minimum
▁anonymous
▁Eight
▁spontaneous
▁static
▁mood
▁germ
▁compromise
▁schizophreni
▁Berli
▁retire
▁Play
▁wrap
▁server
▁bust
▁clos
▁stomach
▁resilienc
▁manner
▁beam
▁horizontal
ureau
▁terra
▁fault
▁mud
▁comic
▁territor
▁calm
▁impression
▁invad
▁native
▁electro
▁circulat
▁Court
▁crawl
glo
▁aggressive
▁quest
conceive
▁Moor
▁Koran
▁temporar
gur
▁auditor
▁potato
▁uncertaint
person
aka
▁Fortun
▁glow
▁resolve
▁serving
▁hierarch
▁celebrit
spen
▁bounc
▁innocent
mart
related
▁Scr
▁chas
▁Bangladesh
▁cube
▁dose
▁logg
▁Harr
▁ooh
two
▁interpretation
▁dressed
▁outrage
▁monitoring
▁enterprise
fast
▁Dutch
▁determin
▁dawn
▁visualize
ggle
▁elevat
code
▁astronaut
▁previously
▁unconscious
▁Homo
▁suggestion
▁Absolute
ison
▁simulat
▁believ
▁realiz
▁grandparent
▁concentration
▁Eastern
▁vary
▁deriv
▁entry
obi
▁minorit
▁champion
▁barrel
▁van
stream
▁wider
arrow
▁rebel
pox
▁triangle
▁register
▁MRI
▁spill
▁Chile
▁align
cker
▁rope
az
▁diamond
▁cotton
▁Bell
▁rabbi
▁declar
▁pandemic
▁wedding
▁confine
▁nutrition
▁Jane
▁contradiction
▁strategic
▁soap
▁Open
▁Work
estate
▁spec
▁knife
▁shine
▁Out
▁altitude
▁vent
▁wrapp
▁Year
▁flute
▁hub
▁reduc
▁silver
▁Kev
free
convenient
▁radi
▁glad
▁General
▁commission
▁transaction
▁occasion
▁imitat
▁frequent
▁Bol
▁leather
▁pant
▁woke
scope
▁homework
▁bored
▁Minister
venue
▁Shi
▁exhibit
▁valley
▁spoken
▁Josh
▁gang
▁Bab
▁inherit
▁Obvious
▁synthesiz
▁blend
▁ignoran
▁mapping
▁tendenc
wear
▁drum
▁astronomer
tron
away
▁poly
▁kidney
▁custom
▁uniform
▁Spanish
▁genuine
▁Gandhi
▁tooth
▁192
▁refine
▁85
▁Gore
▁aspiration
▁utilit
▁formal
▁float
evel
▁thread
finite
▁pathway
▁experimental
▁baseball
▁tattoo
oto
▁Marc
▁canopy
ndustrial
▁entrop
▁shit
osi
▁documentar
▁warning
word
▁jumped
▁homeless
▁portion
▁compassionate
▁distort
▁endless
human
▁discriminat
vor
▁rape
▁awkward
▁substance
iful
▁makers
▁Aristot
▁civic
▁Bel
▁logical
▁sheep
▁burned
▁curriculum
▁lamp
▁batter
▁Newton
▁continuous
▁Nic
▁scholar
ueen
▁winning
▁entit
▁theoretical
space
▁ideolog
▁intersection
▁convey
▁dri
▁reinvent
▁purchase
▁participant
shot
▁irre
▁wrist
▁manual
▁fence
▁equit
▁dilemma
▁expectanc
▁washing
cou
▁keyboard
racy
▁nuts
apping
▁calorie
▁default
▁romantic
▁weekend
▁grasp
▁educate
▁Gala
▁interconnect
▁Enc
unch
▁Ethiopia
▁humanitarian
▁representative
▁insist
▁Walk
▁Febr
▁Pop
hou
▁Asian
amma
▁clay
▁mysterious
▁rotat
▁annual
▁Men
▁Listen
▁vibration
▁collision
HC
▁collaborator
▁jar
▁via
▁subway
▁lonel
▁primate
▁bow
▁Florid
▁ethnic
▁agricultural
▁diagnosi
▁burie
▁Brun
type
aa
▁deforest
▁formula
▁oxy
hole
▁microphone
▁violat
▁Pre
▁Hall
▁typ
▁paralyz
▁spacecraft
▁stabilit
animate
osity
▁forgive
▁scanner
▁March
▁intrigu
▁gentl
▁competitive
▁agreement
▁laughing
▁Palestinian
▁Far
ancy
▁Gold
▁venture
ssociation
▁transmit
▁astonishing
▁Third
▁bush
▁Council
▁translation
▁ego
▁Jer
▁generous
▁relation
▁furniture
▁0.
▁contribution
▁producer
▁hid
▁tent
▁viral
▁farming
▁automobile
▁brick
▁pipe
▁Argentin
place
▁excuse
▁bribe
▁upload
▁twist
▁realm
▁ceremon
▁shelter
▁fate
▁terrifying
▁hydro
▁thrill
▁defeat
▁merc
uthern
▁brutal
▁reflection
▁patch
▁shin
▁journal
▁Islamic
▁bullet
▁Ever
▁east
▁upside
atrix
▁shrink
▁donor
▁profession
engineer
▁navigate
▁punch
▁August
▁4,000
▁Sure
▁distract
▁routine
▁glue
▁augment
▁sensation
▁observe
▁gase
▁gear
▁intens
▁specialize
▁spell
▁electrode
▁sandwich
▁connectiv
book
▁devil
part
▁restore
▁tragic
▁collaborative
▁vacuum
▁gathering
friend
▁ubiquit
▁descend
▁sink
▁urge
▁interior
▁Dece
▁emit
▁Little
▁wander
▁compell
▁crystal
▁automat
look
ugg
lash
cade
▁Child
▁passive
▁neck
▁personaliz
▁deaf
▁coordinat
audi
gua
ocin
▁stimulat
▁storytell
made
▁None
▁overwhelming
▁stole
▁shopp
▁Bee
▁bathroom
▁coach
▁dear
▁preserve
▁bizarre
▁healthie
▁panic
ogen
▁Jack
▁survivor
▁upset
vity
▁Northern
▁conc
▁Mag
▁detector
▁programmer
▁fulfill
▁lean
▁pause
▁sew
▁sensory
▁Jud
▁format
▁trash
▁Soviet
▁ecolog
▁galler
▁legislat
,500
▁luxur
▁shore
▁Long
▁golden
▁determined
▁Should
▁linear
▁leaf
▁confirm
▁prosthetic
▁garage
▁disabl
▁flavor
▁hitting
▁fragile
▁gradual
▁consist
▁investor
▁rotate
fire
▁bath
▁variable
▁migrat
▁fifth
▁marry
▁fanc
▁reliabl
▁lane
▁mayor
▁intend
▁trap
take
▁fed
ilicon
▁district
▁genetically
▁pigeon
▁structural
face
▁failing
▁burden
▁freak
▁currenc
▁trajector
▁chief
▁broadcast
▁damn
▁combat
▁arrow
▁extension
▁Gulf
round
▁exhaust
▁inherent
tact
tangible
▁instinct
▁enthusias
▁plain
▁Micros
▁Bush
▁ban
▁condom
▁sanit
▁crew
▁copie
▁glamor
▁voting
▁Egyptian
▁philanthrop
▁Home
▁computation
▁disrupt
BM
lihood
aba
▁pharmaceutical
▁20,000
▁alcohol
▁destin
▁export
▁crush
▁audio
drew
▁jet
▁Ab
▁delight
▁projection
▁anxiety
▁disconnect
▁weapon
▁athlete
▁unprecedented
▁fertil
ank
▁fee
▁yard
▁occasional
▁sharp
▁Design
▁crossing
ball
▁strand
▁advocate
▁jelly
stock
▁stor
▁manipulate
▁hormone
▁robust
▁Dere
▁jihad
▁palm
▁dial
▁branch
▁mixed
▁prepare
▁queen
▁ruin
▁cosm
▁Win
thermal
force
▁10-
▁creator
▁Love
▁Charl
▁cheese
▁prov
▁attribute
▁neuroscien
▁Back
▁diabetes
▁joint
▁senior
▁analyze
▁till
▁amaz
▁locate
▁enhance
▁poison
▁winner
assembl
▁bra
▁accus
▁Trans
▁installation
ois
▁acquire
▁vacation
▁Italian
▁encrypt
▁Moon
▁snake
▁bound
▁dece
▁Time
▁textbook
▁communicat
▁darkness
▁ratio
arm
▁195
▁hat
▁Seven
▁abilit
▁trauma
rapped
▁Research
▁dragonfl
▁strike
nia
▁leak
nny
▁systematic
▁unclear
brush
oft
▁vibrat
▁bulb
▁fragment
▁quit
▁constraint
▁anatom
▁aesthetic
▁Turn
▁institutional
▁SS
▁regulation
▁disappoint
▁resist
▁sel
▁Unti
▁bold
▁dancer
▁initiative
▁clock
▁rebuild
▁uncle
▁peaceful
▁fur
▁tower
▁classe
▁slave
▁march
▁borrow
▁Cambri
▁disability
▁spectacular
▁Through
▁terror
▁activat
▁50,000
ench
▁transparent
▁node
▁tension
▁industri
▁flexibl
▁struggl
ological
▁fastest
▁axis
dominant
▁intuitive
▁primitive
▁assignment
▁reserve
▁highlight
▁admir
children
▁dump
▁Put
alo
▁limitation
▁Nation
▁Up
▁philosopher
▁transmission
▁signature
▁transmitt
▁wise
▁Friday
▁ecological
▁paradox
▁guarantee
train
▁Lab
▁calculation
▁helicopter
▁ethical
▁surrounding
▁interpret
▁garb
grow
eaten
▁sketch
▁Dad
▁hous
▁pun
▁burst
▁shout
▁boot
▁acknowledge
▁render
ela
▁alter
▁probe
▁pole
▁tropic
▁slavery
fare
▁addict
▁qualit
▁recipe
▁fraction
bro
▁psychologist
▁vari
▁inspiring
▁rip
cro
▁naked
ota
▁sales
▁conclude
▁renewable
▁sacrifice
▁persist
▁mold
▁sens
▁shirt
▁Narrat
▁pulse
ept
▁gesture
mount
▁contemporar
ndeed
▁smooth
▁chapter
▁Fl
▁Texas
▁neat
▁Technolog
▁Ghana
burg
tasi
ough
▁bang
▁metha
▁tick
▁advis
▁White
▁Never
erial
▁editor
▁simultaneous
▁excellen
▁salt
▁array
▁rent
gon
▁unbelievabl
▁eradicat
▁Mother
▁pie
▁stunt
▁Yorker
▁Arm
▁slice
▁autonomous
▁synthetic
▁degrad
can
▁profile
gie
evolv
▁marker
▁bull
atory
▁bump
▁cop
▁bind
▁chocolate
▁norm
▁cousin
▁jam
▁supplie
▁mindset
▁Arabic
▁Sir
▁comp
▁fool
organiz
▁decrease
▁relations
▁engagement
▁yield
▁mate
▁frighten
point
▁neural
rctic
cellular
▁leverage
▁partnership
third
mission
▁grave
▁confident
forward
▁universit
▁Rome
▁agenda
▁Congo
▁verb
▁shooting
ibility
▁stake
▁pioneer
▁kiss
▁expansion
▁wage
▁Jesu
put
▁Miss
hour
▁Israeli
▁Lad
▁copyright
▁package
pound
▁conservative
▁distinct
▁adjust
scribe
play
▁Revolution
▁resident
▁slum
▁repeated
morph
▁charit
uction
▁Tell
▁hanging
stair
dia
ctor
▁coat
▁figur
▁external
▁shake
▁extinct
▁sacred
▁comparison
▁nei
ek
▁drawn
▁analyz
▁tunnel
▁breakthrough
▁pose
▁discipline
▁abandon
▁Pri
▁primari
zz
▁faci
kind
▁mushroom
ode
▁biodivers
▁nutrient
▁infant
sea
▁Rwanda
▁mad
view
ai
▁scann
▁Pr
ambi
bble
▁Nature
▁Rea
▁functional
ette
▁exam
▁northern
▁optimis
▁laid
▁identifie
▁Ven
▁dialogue
▁imag
▁Ital
▁Law
▁colony
▁legac
▁aircraft
▁locked
▁capita
▁vol
class
▁Prize
▁stroke
▁spark
arch
▁flo
▁ceiling
hildren
▁lake
▁tackle
ivity
▁underly
▁extinction
▁hip
▁explode
▁smoke
cus
▁screw
▁southern
▁reduction
▁backwards
▁inventor
▁mechanic
level
▁intuition
▁heaven
▁Olympic
▁toxic
▁transparency
▁mutation
▁breaking
▁improv
▁scream
▁smartphone
▁Mark
than
rid
▁disagree
▁Rob
▁dig
▁intention
▁recruit
▁psycho
▁priorit
▁River
state
dollar
rick
▁farmer
▁sweat
▁demographic
bola
▁artistic
lace
▁Next
▁traged
▁concert
▁tune
▁football
▁Matt
▁uncomfortabl
▁clar
▁guilt
▁Thing
▁concentrat
▁sunlight
▁demonstration
▁polar
▁magical
▁Atlantic
▁globally
▁prosper
▁immense
while
▁permission
▁incident
century
▁fabulous
▁domain
▁wip
fus
chan
▁corn
▁NGO
xi
▁terrifi
▁vegetable
▁accumulat
▁welcome
▁glacier
▁mask
▁rating
▁ridiculous
▁Foundation
▁guard
▁lock
▁description
van
▁edit
▁judgment
▁assembl
▁achievement
▁cash
▁clue
▁output
▁recommend
▁bless
▁Octo
▁Cal
▁Ocean
▁scratch
▁beside
▁trie
▁loan
▁antibiotic
ption
▁incentives
▁rainforest
▁ticket
empt
▁essence
▁boss
▁36
▁anger
▁miracle
▁preserv
▁pace
American
▁ensure
▁Was
▁ob
▁killer
▁brown
▁windows
▁twin
▁intense
▁chromosome
▁elect
▁Super
cher
▁debt
▁overcome
use
fold
ella
ola
▁ought
▁liver
gging
▁Tri
▁Mom
▁piano
▁utter
▁pr
▁min
▁bother
▁courage
▁birthday
▁pray
▁additional
grade
▁suppose
▁smok
▁consum
▁replicate
▁pad
▁flip
▁pyramid
▁craft
▁Spa
▁Nothing
▁Six
▁cute
▁identical
▁settl
▁scal
vill
▁corporation
▁manager
▁medication
▁reported
▁trait
urg
▁BF
▁gate
▁desk
▁club
▁International
▁household
▁afterward
▁prepar
▁proportion
▁Holly
▁parking
ference
▁dive
▁affair
▁arrive
▁procedure
▁Cor
▁plug
▁shipp
▁trigger
▁probabilit
▁stack
▁psycholog
▁disturb
▁dust
▁hunger
▁highway
▁Boy
▁scenario
▁request
▁rhythm
▁Global
▁tuna
▁genius
▁plent
▁mail
▁dictionar
▁wings
▁narrow
▁earthquake
▁expedition
uous
bot
▁apple
▁Basic
▁compound
▁marine
▁experienc
oven
▁choos
▁cru
fil
▁passenger
▁fixed
▁Abou
▁chaos
▁diploma
▁candidate
▁appeal
▁coin
generat
▁subtle
▁microbe
▁Make
▁diagram
▁mice
▁proof
iff
▁Korea
▁tele
▁vital
▁excite
▁tight
▁accomplish
▁ambitio
▁pan
▁obstacle
▁hungry
▁Cap
▁Tra
▁assistan
▁column
print
▁corporate
▁airport
ami
▁drag
▁optimistic
itch
▁poetry
▁murder
▁motivation
▁acid
▁reconstruct
▁Del
▁hill
▁hook
▁confuse
▁House
▁Turk
▁Blue
▁consistent
▁cast
▁suicide
▁indicate
▁floating
ease
▁neuron
▁chest
▁orchestra
▁Pole
matic
▁illustrate
▁session
▁refuse
▁prop
▁diagnos
▁philosoph
▁deploy
▁wound
▁psychological
▁portrait
▁Jew
▁representation
ural
▁whale
fall
▁entrepreneur
▁isolat
▁accessibl
▁productivit
▁shell
rous
▁brave
▁comfort
▁promote
▁bend
▁distant
ez
▁suspect
▁stepp
▁motivat
▁conventional
▁Christmas
▁desperate
▁Th
▁boil
▁pretend
▁Age
▁headline
▁ears
▁fe
▁densit
▁review
oid
▁intervention
▁impos
▁defense
▁seal
▁consume
▁Tes
▁telephone
▁Wall
house
▁pink
cula
bul
▁pitch
▁drove
dependent
▁horrible
pit
▁laboratory
azz
▁shall
▁investigat
mbo
cop
▁parallel
▁mono
row
▁knock
▁tech
▁database
▁dominat
all
▁boom
▁digni
▁clouds
▁measurement
▁printer
▁depress
▁worm
hop
own
▁explosion
▁Bible
▁fl
unk
▁froze
▁skeleton
▁shadow
▁fake
▁mentor
air
▁tri
town
▁tir
▁revenue
▁Museum
▁blame
▁complain
▁buck
▁adventure
▁fluid
box
▁entrepreneurs
▁Red
▁Greek
▁limb
▁presence
▁magnet
▁gr
▁1,
▁educational
▁contribute
▁Egypt
▁compos
▁item
▁skull
▁elite
Sahara
▁surveillance
tric
ock
what
▁lad
▁lifestyle
▁poet
▁defend
▁classic
▁embedded
▁overall
▁cloth
▁ugl
▁behavioral
▁transplant
▁silent
▁Voice
▁gray
bit
▁Count
▁afternoon
▁5,000
▁cooperat
▁recognition
press
▁lion
▁shame
▁selection
▁Rememb
oxide
▁route
▁orange
▁youth
▁obsess
▁physician
▁imagin
ulation
▁interactive
▁phase
▁leap
▁port
▁spiritual
▁engag
▁Bost
born
▁painful
▁sports
▁mimic
▁breed
▁footprint
▁crucial
▁frequenc
ook
▁refer
cat
▁fisher
▁characteristic
raising
▁correspond
▁Day
▁embarrass
inary
▁milk
▁gu
▁Russian
▁prepared
▁academic
▁Project
ix
▁bicycle
▁polio
▁dish
▁exploit
▁flash
ani
▁Dea
▁bug
▁evil
▁asset
▁divers
▁authentic
▁laser
▁prisoner
▁cyber
truck
▁inject
▁reject
▁Girl
▁vo
▁exten
▁install
▁wo
▁exponential
ngry
▁magn
▁Grand
▁regret
▁resolution
▁owner
▁presentation
▁Mad
▁cable
▁trace
▁burning
▁mode
▁style
▁inequalit
▁download
▁GPS
▁agreed
▁exception
▁globe
▁invite
▁license
Something
hold
▁guide
▁sta
▁Antarctic
▁regime
▁meal
pper
▁steal
▁wondered
▁gut
▁objective
▁confiden
▁depth
▁feeding
▁script
▁cri
▁wash
▁cord
▁photographer
12
▁officer
▁tank
▁pit
▁ga
eak
▁weigh
▁whales
▁attitude
▁committ
ttle
▁Valle
▁solv
▁chimpanzee
▁immune
▁exhibition
▁flood
roll
▁wireless
▁2.
▁Jun
▁rap
▁commitment
▁Centr
▁sensitive
▁contrast
▁High
▁geograph
▁animation
ada
pon
▁thanks
▁citizen
▁simulation
▁barrier
▁framework
▁department
▁tag
▁Human
▁lit
▁percentage
▁pile
▁observ
▁thumb
▁emergenc
▁permanent
▁predator
▁frank
▁arrest
▁Pol
tz
▁Sh
▁frustrat
▁danc
pr
▁curiosity
▁cheat
ether
ue
ional
meter
power
▁mathematician
▁Number
▁nor
▁Health
▁efficienc
▁hyper
▁humor
▁theme
nfortunate
▁army
SA
▁pet
▁dress
▁meaningful
▁minister
▁privacy
▁absorb
▁stronger
read
▁kit
call
▁greenhouse
▁nerve
▁improvement
11
▁contribut
▁integrat
▁repeat
▁boring
▁musician
▁Hol
▁elder
ua
plan
▁geo
▁Science
▁rocks
▁monitor
▁flag
▁behave
▁storm
▁pill
▁unexpected
efore
▁plus
▁instruction
▁pregnan
▁eggs
▁angle
aging
▁explor
▁rescue
▁sail
▁penguin
▁lecture
▁nose
▁grass
▁strip
▁Christian
▁sculpture
▁Higgs
▁auto
▁pollution
▁personalit
well
▁raw
aria
▁collaboration
▁beach
▁dogs
▁September
net
surance
▁weak
▁laptop
▁microscope
half
▁domestic
▁grab
▁relie
ridge
▁appropriate
ica
▁fabric
▁sophisticate
▁upper
▁pour
▁drill
heimer
▁agent
▁password
▁instant
▁tour
▁centuries
▁finance
▁Swede
▁engaged
▁electron
tial
destruction
▁rely
▁flie
ura
▁admit
▁poem
▁wine
▁ear
▁advertis
▁staff
▁demo
▁obes
▁spider
▁phrase
source
▁Get
▁file
▁accelerat
▁3,000
▁Russia
▁Give
▁innovative
ump
▁rush
long
▁shoulder
icity
▁habitat
▁hunt
▁violent
▁king
▁myth
▁breathe
▁split
▁illegal
▁church
▁teenager
▁younger
▁sphere
▁dedicat
▁paradigm
▁apparent
▁former
▁Space
▁div
▁mechanical
▁inevitabl
cho
▁Thom
▁stretch
ole
▁Talk
▁colon
aster
stone
▁por
ax
▁implement
ung
▁Whil
▁Fin
▁solid
▁hall
▁196
▁Part
▁vertical
omb
▁pool
▁favor
▁productive
▁boxe
▁unusual
▁magnetic
▁Pacific
▁aim
down
▁relevant
▁illusion
▁suck
▁tribe
▁Anyway
▁194
▁economi
ility
▁clothes
rice
▁boundar
▁select
▁ingredient
▁chart
▁fortunate
▁secure
▁thick
▁Sea
▁prefer
col
▁tax
zo
▁symptom
▁needle
▁advice
▁grandfather
▁section
▁School
▁loop
▁oppos
▁Japanese
▁clever
▁awareness
▁musical
▁dense
▁propose
▁tea
room
▁false
▁harvest
▁busy
▁mountains
▁sheet
▁educat
win
▁droppe
▁dirt
▁severe
▁participate
▁polic
▁author
▁iron
▁biologist
▁Jan
lock
▁Islam
▁reverse
▁vessel
▁automatic
▁abstract
▁peer
▁firm
▁spring
▁Real
▁handle
▁heal
▁activist
▁molecular
▁England
▁attend
▁ritual
back
▁polle
foot
▁harm
▁infection
rail
▁prototype
▁decline
▁sum
▁symmetr
▁Air
▁jail
▁measur
▁nest
▁hotel
▁terroris
ou
▁status
▁rocket
▁internal
▁theater
▁swim
▁transportation
▁logic
▁autism
▁bl
▁client
▁exchange
▁calculate
▁entertain
▁activit
▁circumstance
▁Canad
▁crack
▁compete
▁mile
▁concrete
▁observation
▁plot
▁cluster
▁unknown
▁length
▁grain
verse
▁regard
▁Wow
▁happi
dom
▁Israel
▁lady
▁soft
▁challeng
▁demonstrate
▁Arab
▁rep
▁danger
▁grant
▁reference
▁radiation
▁capitalis
▁steel
▁Center
hood
▁infinite
ean
▁roads
▁passionate
▁expectation
▁fiction
▁studio
cut
▁technological
▁Final
▁perceive
▁reef
▁broad
▁drone
▁Pleas
▁Island
▁according
▁thin
▁kitchen
▁Four
▁vulnerab
▁north
▁tube
▁apartment
▁Institute
▁habit
rtex
ush
▁continu
▁Angel
▁Congress
▁bond
▁stranger
▁graphic
▁lawyer
▁deserve
▁prediction
▁seek
▁shoot
▁counter
▁relate
▁conservation
▁Bank
▁knee
▁hire
▁fruit
▁forgot
▁threaten
▁icon
▁burn
iness
▁empty
▁neuro
▁videos
▁talent
▁title
▁previous
▁tape
▁comfortabl
▁prime
▁winter
hen
▁primary
tech
▁worldwide
▁filter
▁wi
▁label
▁assumption
▁teeth
▁joke
▁surgeon
▁tear
▁celebrate
▁Nigeria
▁democratic
▁President
▁Bang
▁sweet
▁pure
▁confront
ories
▁repair
llo
▁pot
▁economist
▁awful
▁bike
▁partners
jo
▁employ
▁shut
▁Five
▁privilege
▁implication
▁director
▁Brita
bel
▁yester
▁awesome
▁inspiration
▁hang
▁prize
▁pin
▁lie
▁statement
▁witness
▁mortality
▁zoom
mark
▁south
mine
▁height
▁Middle
▁toilet
▁stock
▁actor
▁escape
▁produc
▁expos
ink
▁crop
▁evolve
▁Will
▁dolphin
▁clinical
▁illness
▁battery
▁pleasure
▁enem
▁kick
▁ill
▁criminal
▁conclusion
▁appreciate
▁valuable
▁distribution
▁propert
▁wheel
▁cup
▁Yet
▁swimm
▁pump
▁emerge
▁definite
▁Si
▁encounter
▁recording
▁peak
▁poll
▁provid
▁stupid
▁cart
▁physicist
▁horse
▁plate
▁historical
▁rational
▁hydrogen
▁weapons
▁react
▁associat
▁hide
▁spectrum
▁accurate
▁feedback
▁protest
▁official
▁announc
▁rat
▁grid
top
fully
br
▁explanation
▁journalist
▁maintain
▁silence
▁Ten
ox
▁Mexic
▁participat
▁setting
ula
▁emissions
▁intellectual
life
▁disc
▁cow
▁cutting
▁caus
▁bill
▁bare
▁Star
fu
▁inform
▁attach
▁bla
▁involve
▁addition
▁melt
▁terrorist
▁laugh
▁lies
▁Sam
gue
▁grade
▁management
▁Iran
▁visibl
▁abuse
af
▁importan
▁convert
▁heads
▁authorit
▁bees
▁undern
▁mammal
ult
gh
▁novel
▁doubt
▁transition
▁chicken
▁establish
▁conduct
ory
▁protection
▁analog
▁mix
▁heavy
▁transport
▁memori
▁determine
▁load
▁France
ney
▁clinic
▁empath
▁disaster
▁operate
▁Washing
▁credit
▁folks
▁initial
▁input
▁II
▁capabilit
▁host
▁judge
▁myster
▁gravity
▁infect
▁programm
▁mosquito
▁2,000
▁smile
▁button
▁exploration
aking
▁King
▁facilit
▁inner
▁tie
▁voices
▁evolutionary
▁volume
▁sugar
▁alien
low
itude
ina
▁empower
▁lunch
▁killing
▁medium
▁practical
▁combination
▁electrical
▁fourth
▁silk
▁loud
▁pocket
▁origin
▁broke
▁speaker
lf
▁recycl
bal
▁variation
▁mathematical
▁tail
sumption
▁construction
▁gather
▁librar
▁collection
▁member
▁volunteer
▁diet
▁embrace
▁court
▁therap
▁telescope
▁May
▁highest
▁agenc
▁Since
▁tall
▁sight
▁rural
work
ulate
scale
ake
ground
▁surround
▁govern
▁battle
▁hell
▁liquid
▁processe
▁command
▁discussion
▁intelligent
▁cognitive
▁puzzle
▁Other
▁shoes
▁nurse
▁Their
atic
▁quarter
▁categor
▁soul
▁snow
▁note
▁survey
▁extract
▁dry
▁lifetime
▁wake
▁chemistr
▁topic
▁discuss
▁contract
▁pack
▁ordinar
cal
▁receive
▁opening
▁lift
▁Last
▁injur
▁translate
aker
▁cartoon
▁shapes
▁mirror
een
▁writer
corruption
▁channel
▁brilliant
▁stone
ual
▁nervous
ose
▁100,000
▁band
▁grown
▁quiet
versus
▁leaving
▁scan
nna
etic
▁chip
▁comput
▁restaurant
▁disorder
▁agricultur
▁elephant
▁narrative
▁hop
rising
▁Could
▁frame
▁im
daily
▁lung
▁na
▁university
▁Come
▁brief
▁unlike
▁dinner
▁quantum
▁employee
ju
▁profit
▁spoke
▁robotic
▁arms
▁symbol
▁resistan
▁mark
▁expression
▁cure
▁pal
▁ignore
▁hidden
▁invention
▁shop
▁ancestor
▁clip
▁fat
▁leader
▁lu
▁Com
▁wisdom
▁round
▁season
▁truck
▁gold
▁variet
ches
▁pig
fish
▁applie
▁budget
▁assume
▁ride
▁names
ping
▁error
▁fac
▁equip
▁balloon
▁earn
▁Does
▁attract
▁depression
▁precise
ware
▁operat
▁comment
▁opinion
rus
▁distribut
▁cent
▁bubble
▁statistic
▁occur
▁mouse
▁litera
▁crash
▁US
▁property
▁homes
▁conscious
▁compare
▁professor
▁row
▁stoo
▁independent
▁sorr
▁fellow
▁foundation
▁date
▁debate
▁trillion
cent
▁sw
▁taste
▁meat
▁negative
▁equivalent
▁shark
▁tens
▁parent
▁ski
▁curious
▁fell
▁factory
▁whom
board
▁stream
▁spaces
▁string
ier
lit
▁calling
wood
▁copy
▁bias
▁customer
▁existence
kin
▁collapse
▁interface
▁weather
▁mothers
▁dozen
▁insight
mber
▁Brazil
▁garden
▁joy
▁suffering
▁deeply
spect
▁dollar
▁spin
▁pop
▁multiple
▁belong
▁display
▁politician
uck
▁roof
▁circuit
▁lay
▁sexual
▁epidemic
▁closed
▁pounds
▁marriage
▁Australia
▁zone
erson
▁dreams
art
▁honor
▁marrie
▁chose
care
▁perception
▁construct
ade
▁era
▁universal
▁engine
▁sensor
▁proud
▁suffer
▁classroom
▁cloud
▁harder
▁score
▁analys
▁industrial
▁weird
▁newspaper
▁driver
▁metaphor
▁limited
▁British
▁identify
▁Sp
▁bird
▁coal
▁proper
▁carrie
▁grandmother
▁Three
▁ring
▁bright
▁discovery
▁photos
▁fresh
▁Mr
▁click
▁equation
▁orbit
▁civil
tive
▁coast
▁hurt
▁museum
▁dinosaur
▁location
▁bus
▁br
▁party
car
▁fashion
▁fossil
▁gift
▁responsibl
▁related
▁occurr
▁organic
rew
▁Iraq
▁succeed
▁Any
▁Ph
▁foreign
▁breast
▁phenomeno
▁stress
▁competition
▁president
▁due
▁odd
▁regular
▁graduate
light
▁traffic
▁worri
▁bat
▁Would
cha
gg
ification
▁flat
▁religious
▁bottle
▁French
▁spirit
▁hack
▁identity
▁engage
▁invit
▁th
▁architect
▁miss
▁quote
▁bread
▁yellow
▁conference
port
▁transformation
▁desert
val
▁attempt
▁198
▁mathematics
▁master
king
▁root
▁artificial
▁pen
▁reveal
▁arriv
▁holding
▁tradition
▁gender
ction
right
▁sc
▁farmers
▁recover
▁fr
▁article
▁chair
ak
▁crime
▁ten
▁opposite
▁mid
▁magazine
▁dramatic
▁alternative
▁dynamic
▁gentlem
▁Sometime
▁sold
▁diversit
ology
▁ecosystem
▁algorithm
▁replace
▁island
▁soil
▁curve
▁childhood
▁etc
▁Again
▁include
ug
ep
▁refugee
orrow
▁organiz
▁wood
▁soldier
▁Japan
▁broken
▁encourage
▁remote
▁sector
▁exercise
▁1,000
▁members
ee
▁hopeful
▁labor
▁graph
▁Asia
▁Art
▁gap
▁adopt
▁reward
▁technical
base
▁invisibl
rate
▁funny
set
▁core
▁combine
▁See
▁detect
▁Sun
▁advantage
▁bridge
▁fan
▁creation
▁faith
▁monkey
dimensional
lin
▁avoid
▁reaction
▁Good
▁mouth
▁researcher
▁rapid
▁suit
▁mountain
ologist
▁application
▁mechanism
▁civilization
▁pair
▁estimate
DP
dge
▁malaria
▁opportunit
▁boat
ui
▁crowd
▁extend
▁coffee
▁window
▁husband
▁divide
▁notion
▁claim
▁electronic
▁held
▁More
▁hum
ble
Ex
▁balance
▁fold
▁seed
▁Over
▁hero
▁sustain
▁aspect
▁chain
▁prove
▁oxygen
▁argue
▁responsibility
▁background
▁mess
ari
▁strength
▁wire
▁definition
▁controll
▁fully
▁blow
▁border
▁oh
▁Muslim
▁shock
▁European
▁tumor
▁struggle
▁victim
▁coral
▁eating
ka
▁unfortunate
▁Am
▁forever
▁twice
▁tremendous
▁sample
▁creativ
▁qua
▁sad
▁Audience
▁component
▁bag
▁aid
ner
▁radical
▁Un
rit
▁switch
let
▁contain
▁complexit
▁threat
▁station
▁central
▁Did
▁plane
▁efficient
▁muscle
▁desire
▁sick
rk
▁afr
▁babi
▁supply
▁birds
ile
▁receiv
▁justice
▁gain
▁ship
▁campaign
ograph
▁sand
▁drawing
▁His
▁edge
▁hearing
▁legal
▁lack
▁kilometer
▁climb
▁method
▁Have
night
fin
▁correct
▁rough
▁missing
▁manufactur
▁rid
ically
istic
▁California
▁emerg
▁continent
▁election
▁cry
▁camp
▁feature
▁reflect
▁surprising
oo
▁Wom
▁trip
term
▁outcome
▁operation
▁remove
ain
▁states
▁imp
▁total
▁base
▁popular
▁du
▁Hi
▁evolved
▁sharing
▁consumer
▁earth
hand
▁cave
▁surger
▁motion
ray
▁dad
▁seat
▁below
▁television
▁vast
▁loss
▁paid
▁flower
▁From
▁active
▁commercial
▁document
▁careful
▁highly
▁airplane
ice
▁contact
ator
▁ancient
so
▁tough
▁beat
▁serve
▁math
▁vote
▁Great
▁gun
▁hate
▁option
▁Second
▁profound
▁cycle
▁argument
ped
lic
▁rare
▁Thanks
▁speech
▁mistake
▁flight
▁Ver
▁promise
▁player
ible
▁aware
off
▁sentence
▁capacity
▁belief
▁agree
▁giant
▁accident
▁disappear
▁noise
▁streets
▁scene
▁enable
▁rock
▁convince
▁failure
▁infrastructure
▁smell
▁professional
▁honest
▁catch
▁imagination
▁capture
▁cultural
▁worst
ifi
▁199
▁town
▁consciousness
▁bear
rry
▁charge
▁farm
▁net
uar
▁citizens
▁sequence
▁express
ng
▁Ca
▁lo
▁basi
▁breath
▁emotional
▁match
water
▁birth
▁sing
▁trouble
tuck
▁app
▁sister
▁influence
▁interaction
wise
▁multi
▁forth
▁distance
▁useful
▁plann
▁City
▁survive
▁biological
▁random
▁except
qui
▁Think
▁website
▁destroy
▁teaching
▁j
▁circle
▁laws
▁wealth
▁sustainabl
▁Your
▁ran
▁nuclear
▁email
▁double
▁apart
▁passion
▁none
ome
▁vaccine
▁brand
izing
▁fle
▁types
▁generate
ging
▁drink
▁Take
▁flu
▁jump
▁gene
▁Western
▁stem
▁perform
▁typical
▁magic
▁London
▁willing
▁ca
▁introduce
▁moon
▁trade
▁forget
▁dog
▁satellite
▁radio
▁Many
▁peace
▁instrument
▁decade
▁collective
▁mission
▁neighbor
spite
▁summer
▁river
▁spot
▁underst
▁anyway
▁recent
▁Universit
▁temperature
▁fix
▁investment
▁various
▁production
▁luck
▁race
▁Indian
▁prevent
▁career
▁politic
▁micro
log
▁performance
▁decide
▁surviv
▁damage
au
▁landscape
▁cross
▁expand
▁technique
▁dot
▁layer
▁Two
▁grand
uff
▁win
▁strateg
ership
▁income
▁slight
over
▁emotion
▁separate
▁cat
▁Which
led
▁Like
▁prison
▁significant
▁minds
▁driving
▁consequence
▁glass
▁dimension
▁dance
▁define
▁urban
tion
▁military
ure
ward
▁trial
▁mobile
▁training
▁atmosphere
▁cook
aid
▁values
▁remarkabl
▁familiar
▁wide
▁financial
▁trick
▁release
▁sky
▁genome
▁bomb
ect
▁stopp
▁hair
che
ex
▁Chin
eath
▁blind
▁instance
▁police
▁insect
▁demand
ide
▁communicate
▁vehicle
▁roll
▁straight
▁freedom
▁gra
0,000
▁beaut
▁board
▁worry
▁rule
▁neighborhood
▁saving
▁crisis
▁respect
▁corner
▁target
▁writ
▁physics
▁fantastic
kept
▁interview
▁weight
▁tissue
▁mom
▁wave
▁concern
▁humanit
▁clearly
▁reading
▁capital
▁East
▁brother
▁bodi
▁expensive
▁series
▁reduce
▁critical
▁yea
▁report
▁user
▁enjoy
ack
▁international
▁dangerous
▁private
▁becom
▁terribl
▁happiness
▁compar
ship
▁massive
▁policy
▁positive
▁strange
▁respond
▁healthy
▁virtual
▁path
▁apply
▁mention
▁cheap
▁decades
▁photo
▁content
▁memory
▁fascinat
though
▁moral
▁lesson
ually
▁slide
▁please
▁unit
▁ma
▁improve
ise
▁enormous
▁wild
▁inter
▁effort
▁solutions
▁constant
▁meaning
▁remind
▁rise
▁enter
▁range
▁cr
▁creature
▁text
▁draw
▁ultimate
▁environmental
▁bunch
▁relative
▁biolog
▁finger
ative
▁meter
▁indeed
▁cap
▁square
▁drop
▁shot
▁task
▁principle
▁achieve
▁ho
▁foot
▁heat
▁ball
▁sh
▁excited
▁press
▁unique
▁afford
▁purpose
▁explore
▁female
▁organism
▁bone
▁invest
▁original
▁pain
▁intelligence
▁impossibl
ick
ium
▁male
▁particle
ps
▁plastic
▁standard
no
▁zero
▁advance
▁mental
▁floor
magine
like
▁mis
▁smaller
▁products
▁expert
▁painting
▁earlie
▁pressure
▁brains
▁architecture
▁link
▁compassion
▁neurons
▁meeting
▁check
▁paint
▁fuel
▁Con
refore
▁communication
▁activity
io
▁practice
▁famous
▁increasing
▁above
▁Afghan
▁cold
▁interact
▁launch
▁hot
▁feed
wa
▁larger
▁rain
older
▁genetic
ud
▁revolution
▁shift
▁hour
▁worse
▁possibilit
▁West
▁Act
▁supposed
ought
▁eventual
▁direction
▁sleep
▁gas
▁warm
▁return
▁German
▁publish
▁appear
▁visit
▁extra
▁account
▁address
▁models
▁religion
▁version
▁quality
ious
▁daughter
▁fail
▁wife
▁lower
▁treatment
▁factor
▁famili
▁chemical
▁complicated
▁bed
▁accept
▁bacteria
▁surprise
▁transform
▁fine
▁cu
▁depend
▁finding
▁conflict
▁higher
▁context
▁dy
▁progress
▁everywhere
▁genes
▁led
▁meant
▁North
que
▁position
▁inspire
▁letter
tally
▁colleague
▁immediate
▁finish
▁drug
the
▁larges
▁nation
how
ach
▁medicine
▁print
▁creative
▁college
▁Are
▁fit
▁democracy
▁remain
▁fill
▁worker
▁leaders
▁necessar
▁traditional
▁stars
▁ready
▁throw
▁month
ag
▁software
▁arm
▁poverty
▁exciting
▁onto
▁drugs
▁suggest
kay
▁carry
▁manage
▁communit
▁post
ood
▁further
ture
ub
▁national
▁office
▁price
▁materials
▁faster
▁includ
uc
▁Don
▁sent
▁card
▁writing
▁degree
▁favorite
▁lose
▁tru
▁signal
▁walking
▁street
▁deliver
▁War
ill
▁join
▁fund
▁Most
▁count
▁successful
▁molecule
▁subject
▁aren
▁crazy
▁securit
▁super
▁choose
end
▁adult
▁connected
ke
▁skin
▁violen
ily
▁evolution
ap
▁detail
▁road
▁list
▁Even
▁function
▁hole
▁tend
▁stick
▁waste
▁virus
▁effective
▁require
▁teach
▁secret
time
▁Maybe
▁scientific
▁search
▁designer
▁After
▁store
▁flow
▁invent
side
▁class
more
▁response
▁visual
▁wish
▁vision
▁concept
▁speed
▁mine
▁scar
▁benefit
▁perspective
oc
▁nine
▁extraordinar
▁evidence
▁fair
▁First
▁mass
▁event
▁usual
▁South
live
▁character
▁medical
▁equal
▁sell
em
▁describe
▁sounds
▁haven
▁connection
▁song
▁predict
▁collect
▁clean
ese
ization
▁Who
▁wear
ial
▁gre
▁connect
▁sub
▁incredibl
▁yes
▁success
con
▁represent
▁wind
▁several
▁institution
▁role
▁similar
▁track
av
▁Look
▁m
▁galax
▁trust
▁table
▁Where
▁offer
▁block
▁Of
ors
▁solar
▁star
▁involv
▁recognize
line
▁among
▁rules
head
▁rich
▁English
▁type
▁door
▁period
▁carbon
▁general
▁smart
▁goal
▁baby
▁box
▁guess
▁dead
▁World
▁sit
▁current
▁skill
▁ex
▁easi
▁leg
▁putting
▁sp
▁journey
▁attack
▁dream
▁sex
▁By
▁studie
▁screen
▁hospital
▁lab
▁special
▁affect
▁avail
▁main
▁runn
▁industry
▁direct
▁truth
▁cover
▁product
▁specific
▁soon
▁page
▁serious
▁wonder
ary
▁fast
specially
▁solution
▁worth
▁eye
▁village
▁late
▁raise
▁recently
▁strong
▁With
▁region
▁non
▁creat
cy
▁code
▁touch
▁audience
▁voice
▁forest
▁meet
▁electric
▁law
▁source
▁provide
▁Europe
▁theory
▁ice
▁fire
▁knowledge
▁sudden
▁hit
▁push
▁development
▁situation
▁chance
▁thank
▁spread
ating
and
▁bottom
rote
▁train
▁break
▁artist
▁African
▁attention
▁miles
ical
▁nice
▁developed
▁conversation
▁literal
▁pull
▁innovation
▁understanding
▁St
▁condition
▁forward
▁morning
▁giv
▁digital
▁essential
▁Music
▁eat
▁potential
▁shape
ful
▁photograph
▁sign
▁write
▁approach
▁books
▁climate
▁areas
changing
▁average
▁tin
▁expect
▁clear
▁material
▁cool
▁cut
▁dis
▁spen
▁increase
▁impact
▁consider
▁complex
ized
▁green
▁message
▁blood
▁doctor
▁fun
▁Not
▁fundamental
pe
▁shows
▁stage
▁access
▁camera
▁continue
▁extreme
▁technologi
▁record
at
▁wall
rought
▁action
▁toward
▁treat
▁resource
▁dark
▁low
alone
aught
▁white
▁sitt
▁economy
▁opportunity
ut
▁present
am
▁ground
▁key
▁hold
▁service
▁growth
▁obvious
ither
▁born
ond
credible
▁tried
▁gone
▁personal
▁measure
▁perfect
▁value
▁center
▁Yes
▁die
▁met
▁People
▁absolute
▁slow
▁pass
▁send
▁organization
▁Right
te
felt
▁map
▁add
▁movie
pa
▁oil
▁solve
▁Our
▁rate
▁Just
ated
▁blue
▁decision
▁longer
▁eight
▁Yea
tic
▁travel
▁notice
▁friend
▁rest
▁paper
▁begin
▁save
ish
▁political
▁protect
▁near
▁sea
▁stay
▁fight
▁humans
▁movement
▁area
▁easy
▁kill
▁powerful
▁China
▁fall
▁generation
▁behind
▁st
▁behavior
▁red
▁hands
▁major
ig
year
▁teacher
▁eyes
▁wonderful
▁safe
▁happy
▁media
▁parents
▁physical
▁fish
▁full
▁deep
▁father
▁reach
▁local
▁wait
▁citi
▁feeling
old
▁effect
moving
▁seven
▁drive
▁support
▁fear
▁third
▁century
▁common
▁beginning
▁surface
ism
▁buy
▁explain
▁focus
▁pattern
▁relationship
▁engineer
▁learning
▁device
▁gav
▁early
ant
▁scientist
▁poor
▁act
▁short
▁won
▁death
▁compani
▁step
▁At
▁simpl
▁amount
▁listen
▁choice
▁scale
▁population
▁systems
▁exist
▁field
▁middle
ph
▁state
▁pick
not
▁difficult
ling
▁tree
▁realit
▁Then
▁los
▁OK
▁outside
▁produce
▁God
ance
▁free
▁along
ie
▁hours
▁news
▁word
▁culture
▁structure
▁mother
▁network
▁company
▁bigge
ia
▁leas
▁front
▁Some
haps
▁Oka
▁black
▁con
▁experiment
where
▁oursel
▁color
▁natural
▁fly
▁sometimes
▁view
▁force
▁develop
▁deal
▁ocean
msel
▁economic
▁air
▁cancer
▁music
ian
▁spend
▁speak
▁discover
▁questions
▁huge
▁America
▁team
▁object
▁cause
▁house
▁kne
▁leave
▁education
▁species
▁stories
▁India
▁hear
▁quick
▁since
ent
ry
▁friends
▁follow
▁decided
▁sound
▁though
▁research
▁must
against
▁woman
▁tool
▁issue
▁night
▁Unit
came
▁works
▁language
▁On
▁phone
taking
▁Every
▁happening
▁true
▁environment
▁nature
▁past
▁unti
▁State
▁heart
▁American
▁couple
▁words
▁difference
▁built
▁individual
▁final
▁control
▁entire
less
▁plant
▁stand
▁heard
▁challenge
▁result
▁universe
▁stop
▁term
▁lead
▁patient
▁head
▁hundred
▁walk
ability
▁land
▁saying
▁game
▁wrong
▁war
▁cost
▁whe
▁exact
▁large
▁p
▁child
▁interest
▁book
▁run
▁study
▁both
▁six
▁beautiful
▁minute
▁level
▁months
▁certain
age
▁read
ous
▁mind
ive
▁student
▁figure
▁watch
▁community
▁nothing
▁public
▁self
▁histor
ready
▁while
▁often
▁age
▁hope
▁city
▁order
▁amazing
stead
▁happens
▁bad
▁ra
▁girl
▁imagine
▁particular
▁single
▁inside
▁disease
▁thousand
▁care
▁health
▁societ
▁makes
▁ways
▁almost
▁later
▁machine
▁days
▁business
▁remember
▁realize
▁week
▁name
ate
▁hav
▁set
▁complete
▁young
▁science
▁else
▁government
▁share
▁men
▁All
▁such
▁w
▁allow
▁far
ything
▁half
▁saw
▁keep
▁close
▁family
▁job
▁Earth
▁build
▁line
▁side
▁coming
▁dollars
▁possibl
▁face
▁countr
▁Africa
▁room
▁grow
▁prett
cross
▁piece
▁seem
▁animal
▁stuff
▁body
▁probabl
▁lives
▁answer
▁simple
▁process
▁image
▁hand
▁less
▁Let
▁times
▁getting
ness
▁basic
▁bring
▁energy
▁matter
▁interesting
▁best
▁mak
▁billion
ever
▁group
quite
▁Wh
▁left
▁planet
▁five
▁open
▁food
ter
▁These
▁social
▁moment
nough
▁under
▁hard
▁case
▁money
▁future
▁form
it
▁sense
▁man
!
▁home
▁One
▁My
▁thinking
▁project
▁high
▁country
▁building
▁experience
▁old
▁computer
▁guy
▁reason
▁space
▁working
▁small
▁information
▁picture
▁liv
▁four
▁power
▁person
▁move
est
▁children
▁per
▁second
▁always
thing
▁whole
▁real
▁light
▁ever
▁done
▁live
▁women
▁feel
ok
▁Bec
▁car
▁understand
▁data
▁believe
▁too
▁become
▁cell
▁un
ween
▁How
▁found
▁play
▁question
▁kid
▁number
ally
▁technology
▁again
▁water
▁sort
ves
out
▁bet
▁school
▁learn
▁When
▁brain
ers
▁system
▁next
▁long
▁design
ther
▁ago
way
▁story
▁still
▁came
▁million
each
▁help
▁love
▁course
▁point
▁few
▁together
▁never
▁better
▁example
▁able
▁off
▁before
▁big
▁might
▁last
▁him
▁end
▁should
▁thought
▁Thank
▁after
▁let
▁important
▁create
▁turn
▁happen
▁why
other
▁find
▁own
▁year
body
▁fact
▁human
able
ity
▁made
▁well
▁percent
self
one
▁ask
▁place
▁day
▁part
▁three
▁doing
▁great
▁may
▁put
▁If
▁try
nt
ion
▁Well
▁give
▁e
▁show
▁use
▁same
▁tell
▁being
▁idea
▁mean
day
▁down
▁good
▁through
▁does
▁There
▁change
▁Appl
▁around
▁different
▁new
▁many
▁she
▁any
▁talk
▁What
▁even
▁life
▁most
▁lot
▁That
▁thing
▁back
▁little
▁come
▁got
▁kind
▁call
lso
▁sai
▁over
▁two
▁than
▁work
▁first
▁much
▁something
▁right
▁start
▁take
▁need
hose
ause
▁make
been
▁Now
▁where
▁things
▁Laughte
▁now
▁did
▁way
▁years
▁will
▁every
▁could
▁into
▁t
▁other
ies
▁then
▁actual
▁You
▁go
▁here
▁world
▁has
▁Thi
▁time
▁want
▁which
▁really
▁who
▁how
▁their
▁look
▁get
▁your
▁think
▁would
▁were
▁because
▁some
▁more
▁had
▁when
▁going
▁by
▁them
▁up
▁if
▁out
very
▁these
▁know
▁see
▁or
▁But
▁us
▁just
▁We
▁but
▁our
▁from
▁people
▁like
▁It
▁one
▁there
▁my
▁all
▁about
▁what
▁with
▁have
▁are
▁for
▁was
▁this
▁And
▁we
▁you
quot
▁that
▁and
▁of
▁a
