<pad>
<unk>
<s>
<\s>
▁,
s
▁.
▁the
;
▁&
▁to
apos
▁a
▁of
▁and
▁that
quot
▁I
▁in
y
▁
ed
ing
▁is
▁it
▁you
▁we
▁And
ly
t
▁this
d
▁was
▁on
▁for
▁are
▁have
▁with
▁—
▁can
n
▁be
▁So
▁?
▁what
-
re
▁about
▁The
▁as
▁at
▁an
▁not
▁all
r
▁my
▁do
e
▁there
▁one
▁It
▁like
▁people
▁so
▁from
m
▁our
▁)
▁:
(
▁but
▁We
▁just
▁us
▁But
▁or
▁see
▁know
▁these
▁me
very
▁out
▁if
▁up
▁them
▁by
▁going
ve
▁when
▁had
▁more
es
▁some
▁because
▁he
▁were
▁would
▁think
▁your
▁get
▁look
▁their
▁how
▁who
▁really
▁which
▁want
▁time
▁Thi
▁has
▁world
▁here
▁go
▁You
▁actual
▁then
ies
▁other
er
▁t
▁into
▁could
▁every
▁will
▁don
▁years
▁way
▁did
▁now
▁Laughte
▁things
▁where
▁Now
been
▁make
ause
hose
▁need
▁take
▁no
▁start
▁right
▁say
▁something
▁much
▁first
▁work
▁than
▁He
▁two
▁In
▁over
▁sai
lso
ll
▁call
▁kind
▁got
▁come
▁little
▁back
▁thing
▁That
▁lot
al
a
▁most
▁life
.
▁even
▁What
▁talk
▁any
▁she
▁his
▁A
▁many
▁new
▁different
▁♫
in
▁around
▁Appl
▁change
▁There
▁does
▁through
▁good
▁her
▁down
day
▁mean
▁idea
▁being
▁tell
▁same
▁use
▁show
▁e
l
▁give
▁problem
▁Well
ion
nt
▁try
▁If
▁put
▁may
▁great
▁doing
▁three
▁part
▁day
h
▁place
ce
▁ask
one
self
▁percent
▁made
▁well
ity
ic
able
▁human
▁fact
body
▁year
▁own
w
▁find
other
▁why
c
▁happen
▁turn
le
▁create
o
▁important
▁let
▁re
▁after
▁Thank
▁thought
▁should
on
▁end
▁bit
▁him
▁last
▁might
▁big
▁before
▁off
▁example
▁able
▁better
▁together
▁never
▁few
▁point
ation
▁course
▁love
▁help
p
each
▁million
7
▁still
▁came
▁story
way
▁ago
ther
▁design
▁long
▁next
▁system
be
ers
th
▁brain
▁When
▁learn
▁school
▁bet
out
ves
▁sort
▁water
▁again
▁technology
ally
▁number
▁kid
▁play
▁question
▁found
▁How
ween
▁un
▁become
▁cell
en
▁too
#
▁believe
▁C
▁data
▁understand
▁car
▁Bec
ok
▁feel
▁women
▁live
▁done
▁ever
▁light
▁real
▁20
▁E
▁whole
thing
▁always
or
▁second
▁S
▁per
▁children
est
g
▁move
▁person
▁power
▁T
▁four
▁liv
▁picture
▁10
▁small
▁information
▁working
▁space
▁reason
▁guy
▁computer
ur
▁old
▁experience
▁building
▁b
▁country
▁No
ment
▁She
▁high
▁project
▁thinking
▁My
▁One
▁home
!
▁de
▁al
▁man
▁sense
ld
it
▁form
▁future
▁money
▁B
▁For
▁case
▁hard
▁under
▁U
nough
▁moment
▁am
▁social
▁These
ter
▁food
us
▁open
▁five
▁left
▁planet
▁Wh
quite
▁G
▁group
i
ever
▁billion
b
▁mak
▁interesting
▁best
▁matter
▁energy
▁bring
▁basic
ness
▁times
▁getting
▁Let
▁less
▁hand
▁image
▁process
ist
as
▁To
▁simple
▁answer
S
▁lives
▁probabl
▁stuff
▁body
▁animal
▁seem
cross
▁piece
▁prett
▁grow
▁room
▁Africa
▁countr
▁face
▁possibl
▁As
ro
▁dollars
▁coming
▁side
▁line
▁build
▁Earth
▁job
▁family
▁close
an
▁keep
▁saw
▁half
ything
▁far
▁allow
▁w
▁such
▁All
k
▁men
▁share
▁government
▁else
▁science
▁young
▁complete
▁set
▁hav
ate
▁name
▁week
▁remember
▁realize
ch
▁days
▁business
el
▁later
u
▁machine
▁almost
▁ways
▁F
▁makes
▁societ
▁health
▁thousand
▁care
f
▁disease
ten
is
▁inside
▁single
▁particular
▁New
▁imagine
▁global
▁girl
▁bad
▁ra
▁happens
stead
▁amazing
▁order
▁city
▁sure
▁hope
▁age
▁often
▁while
▁art
0
ready
▁histor
ar
▁self
▁yet
▁public
um
▁community
▁nothing
▁watch
▁student
▁figure
ous
▁mind
ive
▁read
age
▁certain
▁months
▁level
▁beautiful
▁minute
▁six
▁both
▁study
91
▁run
▁book
▁test
▁interest
▁child
▁p
▁exact
▁large
▁cost
▁whe
▁wrong
▁war
▁game
▁top
▁saying
▁land
▁Do
ability
▁walk
▁hundred
▁head
▁patient
▁stop
▁term
▁lead
il
▁universe
▁result
▁challenge
▁heard
▁stand
▁video
to
up
less
▁plant
▁entire
▁once
▁control
po
▁final
▁built
▁individual
93;
▁words
▁market
▁difference
▁couple
▁American
▁di
▁heart
▁c
▁30
▁State
▁unti
▁past
lo
▁nature
▁true
▁environment
▁50
▁happening
▁phone
taking
▁Every
▁Internet
▁On
▁language
▁works
came
▁Unit
▁issue
▁night
D
▁woman
▁tool
▁co
▁model
against
▁...
▁200
▁must
gan
▁research
▁though
▁sound
▁decided
▁follow
ry
▁friends
ent
▁since
▁quick
▁India
▁hear
▁stories
▁D
z
▁kne
▁leave
▁education
▁species
▁house
▁object
ne
ac
▁cause
ma
▁America
▁team
▁questions
▁huge
▁discover
la
▁speak
▁Or
▁spend
▁music
ian
msel
▁economic
▁air
▁cancer
▁develop
▁15
▁deal
▁ocean
’
▁pay
▁force
▁view
▁sometimes
▁P
▁fly
▁natural
▁color
▁oursel
where
man
▁black
▁con
▁experiment
▁Oka
haps
ta
▁front
▁Some
▁leas
ia
▁bigge
▁company
▁network
▁mother
▁culture
▁structure
▁word
ci
▁program
▁news
▁100
▁along
ie
▁hours
ance
▁free
▁An
▁God
▁los
▁OK
▁outside
▁produce
▁Then
▁realit
ling
▁tree
not
▁difficult
▁pick
▁state
ph
▁middle
▁robot
▁Oh
▁TED
▁exist
▁field
5
▁systems
▁population
▁scale
2
▁listen
▁choice
▁amount
▁simpl
▁At
▁step
▁death
▁compani
▁short
▁won
▁act
▁poor
▁scientist
ri
ant
▁gav
▁early
▁device
▁learning
▁focus
▁pattern
▁relationship
▁engineer
▁explain
▁buy
▁surface
ism
▁beginning
▁common
▁size
hi
▁century
▁J
▁support
▁risk
▁fear
▁third
▁o
moving
▁seven
▁drive
▁dur
▁effect
▁feeling
old
▁citi
▁wait
▁reach
▁local
▁father
un
ra
ol
▁deep
▁full
▁physical
ul
▁fish
▁parents
▁happy
▁media
▁safe
▁O
▁wonderful
▁teacher
▁eyes
▁major
ig
ton
year
▁Al
▁hands
▁st
▁behavior
▁red
▁behind
▁generation
▁fall
▁China
▁Mo
▁powerful
co
▁kill
C
li
▁easy
▁bas
▁area
▁40
▁K
▁York
▁movement
▁fight
▁humans
▁stay
▁sea
▁near
▁protect
▁political
ish
▁begin
▁save
▁rest
▁paper
▁friend
vi
▁notice
▁travel
▁longer
▁eight
▁Yea
▁film
▁normal
tic
▁decision
▁Just
ated
▁pre
▁blue
▁Our
▁rate
▁oil
ir
▁solve
▁movie
pa
felt
▁map
▁add
▁Right
te
A
T
9
▁send
▁organization
▁pass
▁slow
▁absolute
▁met
▁People
op
▁die
▁Can
▁Yes
▁center
im
▁value
▁DNA
▁perfect
id
▁measure
▁tried
▁gone
ine
▁personal
▁M
credible
▁born
ond
▁obvious
ither
▁hold
▁service
▁growth
▁key
am
▁ground
ut
▁present
▁opportunity
▁economy
ab
▁sitt
com
alone
aught
▁L
▁white
▁boy
▁dark
▁low
x
▁resource
▁feet
▁toward
▁treat
▁wall
rought
▁action
at
Z
▁record
▁extreme
▁technologi
▁camera
▁continue
v
▁shows
▁stage
▁access
pe
▁18
▁12
▁fundamental
▁fun
▁Not
▁doctor
P
▁blood
▁message
▁increase
▁impact
▁consider
▁complex
ized
▁green
▁spen
he
▁cut
▁dis
▁clear
▁material
▁cool
▁H
land
▁expect
changing
▁average
▁tin
▁1
▁climate
▁areas
M
▁books
▁sign
▁write
▁approach
▁Re
▁pro
▁photograph
▁3
ful
▁19
4
▁digital
▁essential
▁Music
▁eat
▁potential
▁shape
▁f
▁morning
▁giv
▁forward
▁condition
ge
▁understanding
▁St
▁literal
▁pull
▁innovation
▁conversation
ver
▁nice
▁developed
ical
▁miles
if
▁attention
▁artist
▁African
▁train
▁break
rote
3
and
▁bottom
▁thank
▁spread
ating
▁CA
▁development
▁situation
▁chance
▁push
▁hit
▁sudden
▁fire
▁knowledge
▁ice
▁Europe
▁theory
▁provide
▁W
▁source
me
▁law
mo
bo
▁meet
▁electric
▁touch
▁audience
▁11
▁voice
▁forest
▁code
▁sun
▁creat
cy
▁non
▁son
▁Ra
▁Le
▁raise
▁60
▁recently
▁strong
▁With
▁region
▁late
▁eye
▁village
lu
▁mo
▁solution
▁worth
▁wonder
ary
▁fast
specially
ho
▁serious
▁soon
▁page
ize
▁truth
▁cover
▁product
▁specific
▁industry
▁direct
▁Mars
▁special
▁affect
▁avail
▁main
▁runn
B
▁lab
▁modern
ard
▁hospital
▁By
▁studie
E
▁screen
▁dream
▁sex
▁putting
▁De
▁sp
▁Google
▁journey
,000
▁attack
▁leg
▁easi
▁Ba
▁Go
▁ex
▁guess
▁dead
▁World
▁sit
▁current
▁skill
K
▁N
▁box
▁goal
▁baby
▁R
▁smart
I
▁site
▁period
8
▁carbon
▁general
▁door
▁Bo
▁type
der
▁rich
▁English
head
R
▁rules
▁plan
line
▁among
▁recognize
▁star
▁involv
▁Of
ors
▁solar
ck
▁table
▁Where
▁offer
▁block
▁track
av
▁Look
▁m
▁galax
▁trust
▁institution
▁role
▁similar
▁several
▁represent
▁wind
▁success
con
O
▁yes
▁sub
▁incredibl
▁gre
▁connect
▁Who
▁wear
son
ial
ization
▁connection
▁song
▁predict
▁collect
▁clean
ese
▁sell
em
▁bar
▁describe
▁sounds
▁haven
▁equal
▁event
▁usual
▁South
live
▁character
▁medical
▁fair
▁First
▁mass
oc
▁nine
▁extraordinar
▁evidence
▁Me
▁Ro
▁mine
▁scar
▁benefit
▁perspective
▁speed
▁concept
▁wish
tra
▁vision
more
▁response
▁visual
va
side
▁class
▁80
▁search
▁designer
▁After
▁store
▁flow
▁invent
time
N
▁Maybe
▁online
▁scientific
▁teach
▁secret
▁g
▁Ma
▁25
▁require
▁waste
▁virus
Q
▁effective
▁stick
1
▁tend
▁list
▁Even
▁function
▁hole
▁road
bu
▁detail
ba
▁violen
ily
▁evolution
ap
ke
▁skin
▁connected
do
▁subject
▁aren
▁crazy
▁securit
▁super
▁choose
end
▁adult
▁Most
▁count
▁successful
▁molecule
ill
▁join
▁fund
▁deliver
▁War
▁walking
▁street
▁lose
go
▁en
▁tru
▁signal
▁writing
▁degree
6
▁favorite
▁Don
▁sent
▁card
▁office
▁price
▁materials
▁faster
by
▁includ
uc
ran
▁Be
▁national
ture
ub
▁post
ood
▁further
kay
▁Ha
▁carry
▁90
▁manage
▁communit
▁drugs
▁suggest
▁poverty
▁exciting
▁onto
ag
▁software
▁arm
▁throw
▁month
▁leaders
▁necessar
▁traditional
▁stars
▁ready
▁la
▁fill
▁worker
▁democracy
▁remain
▁Are
▁fit
▁print
▁creative
▁college
▁Dr
the
▁larges
▁nation
how
ach
▁medicine
▁immediate
ang
▁finish
▁drug
G
▁colleague
▁letter
▁2
ni
tally
bi
ber
que
ha
▁position
L
▁inspire
▁Video
▁led
▁meant
▁North
▁context
▁dy
▁progress
▁everywhere
▁genes
▁conflict
▁higher
▁transform
▁fine
▁Man
▁cu
▁depend
▁finding
▁bed
▁accept
▁bacteria
▁surprise
▁factor
▁famili
▁chemical
▁complicated
▁lower
▁treatment
▁bio
▁wife
istan
ious
▁daughter
na
▁fail
▁16
▁V
▁version
▁quality
▁account
▁address
▁models
▁religion
ot
▁appear
▁visit
▁extra
ti
▁return
▁German
▁publish
▁sleep
▁gas
▁warm
▁supposed
ought
▁eventual
▁direction
per
▁hour
▁worse
▁possibilit
▁West
▁Act
ud
▁revolution
▁shift
X
older
▁genetic
▁larger
▁rain
▁feed
wa
ru
▁interact
▁launch
▁hot
io
▁practice
▁famous
▁increasing
▁above
▁Afghan
▁cold
▁Con
refore
▁communication
▁activity
▁check
▁paint
▁fuel
▁earlie
▁pressure
▁brains
▁architecture
▁link
▁compassion
▁neurons
▁meeting
▁painting
▁mis
▁smaller
▁products
nce
▁expert
▁mental
▁floor
magine
like
min
▁plastic
▁standard
no
▁zero
▁advance
▁impossibl
ick
ium
▁male
▁particle
ps
▁intelligence
▁invest
▁original
▁pain
ip
▁purpose
▁explore
▁female
▁organism
▁element
▁bone
▁excited
▁press
▁unique
▁afford
▁ho
▁foot
▁heat
▁ball
▁sh
▁shot
▁task
▁principle
▁achieve
▁indeed
▁cap
▁square
▁drop
▁finger
▁bank
ative
▁meter
▁text
▁draw
▁ultimate
▁environmental
▁bunch
▁relative
▁biolog
▁enter
fi
▁Ne
▁range
▁cr
▁creature
▁constant
▁meaning
▁remind
▁rise
▁enormous
/
▁wild
ga
▁inter
▁effort
▁solutions
▁lesson
ually
▁slide
▁please
▁unit
▁ma
▁improve
ise
though
▁moral
▁photo
▁content
▁memory
▁fascinat
▁Br
▁mention
▁cheap
▁decades
mi
▁virtual
▁path
▁apply
▁strange
▁respond
▁healthy
▁compar
ship
▁massive
▁policy
▁positive
▁becom
▁terribl
▁happiness
▁enjoy
ack
▁international
▁dangerous
▁private
▁yea
▁report
▁user
▁Di
▁San
▁expensive
▁series
▁reduce
▁critical
▁capital
▁East
▁brother
▁bodi
▁mom
▁wave
▁concern
▁humanit
▁clearly
▁reading
▁fantastic
kept
▁Li
▁interview
▁weight
▁tissue
▁board
▁worry
▁rule
▁neighborhood
▁saving
▁crisis
iv
▁respect
▁corner
▁target
00
▁writ
▁physics
▁roll
▁HIV
▁straight
▁freedom
▁gra
0,000
▁beaut
▁21
▁demand
ide
▁communicate
▁vehicle
amp
ite
▁instance
▁police
▁insect
eath
▁blind
▁9
ect
▁stopp
▁hair
che
ex
▁Chin
▁bomb
▁financial
▁trick
▁li
▁release
▁sky
▁14
▁genome
ow
▁remarkabl
▁familiar
▁wide
▁atmosphere
▁cook
aid
▁values
▁trial
▁mobile
▁training
▁organ
H
▁military
ure
ward
▁dimension
▁dance
▁TV
▁define
▁urban
tion
led
▁Like
▁prison
▁significant
▁minds
▁driving
▁consequence
▁glass
ership
▁income
▁slight
over
▁web
▁emotion
▁separate
▁Car
▁cat
▁Which
▁protein
gra
▁Sa
▁Two
▁grand
uff
▁park
▁win
▁strateg
▁cross
▁expand
▁technique
▁dot
▁layer
hu
au
▁landscape
log
▁performance
▁24
▁decide
▁surviv
▁da
▁damage
chi
▁investment
▁various
▁production
ze
▁luck
▁race
▁Indian
▁prevent
▁career
▁politic
▁micro
▁anyway
▁recent
▁Universit
▁temperature
▁fix
▁decade
▁collective
▁mission
▁neighbor
spite
▁summer
▁river
▁spot
▁underst
▁Cha
▁satellite
▁radio
▁Many
▁peace
▁instrument
▁ca
▁introduce
▁moon
▁trade
▁forget
▁dog
▁perform
▁typical
▁magic
▁London
▁willing
▁Take
▁flu
▁jump
▁Co
▁gene
▁Western
▁stem
▁13
▁generate
men
ging
▁drink
ero
▁Ri
▁brand
izing
▁fle
▁types
▁Your
▁ran
▁nuclear
▁email
▁double
▁apart
▁passion
▁none
ome
▁vaccine
▁circle
▁laws
▁wealth
▁sustainabl
▁website
▁destroy
▁teaching
▁j
▁Chris
▁Hu
▁except
qui
▁Think
ca
▁plann
▁City
▁survive
▁biological
▁random
wise
▁multi
▁forth
▁distance
▁useful
▁sing
▁trouble
tuck
▁k
▁app
▁sister
▁influence
▁interaction
▁Per
water
▁birth
▁express
ng
▁Ca
▁lo
▁basi
▁sat
▁breath
▁emotional
ff
▁match
▁bear
rry
▁charge
▁4
▁farm
▁Fa
▁net
uar
▁citizens
har
▁sequence
ifi
▁199
▁town
ja
▁consciousness
▁professional
▁honest
▁catch
▁imagination
ib
▁capture
▁cultural
▁worst
▁Bu
▁rock
▁La
▁convince
▁failure
▁infrastructure
▁smell
▁disappear
▁noise
▁streets
▁scene
▁Su
▁enable
▁sentence
▁capacity
▁belief
▁agree
▁giant
▁accident
▁flight
▁Ver
▁promise
▁player
tor
ible
▁aware
off
♪
▁argument
ped
lic
▁rare
▁Thanks
▁speech
▁John
▁mistake
▁gun
▁Davi
▁ha
▁hate
▁option
▁Second
▁profound
▁cycle
▁tough
▁beat
▁serve
▁math
▁vote
▁Great
▁airplane
ice
▁contact
ator
▁ancient
so
▁document
▁careful
▁highly
▁Ka
▁paid
▁flower
▁From
▁active
▁commercial
▁motion
ray
▁dad
▁seat
▁below
▁television
▁vast
▁vi
▁loss
gen
▁8
den
▁du
▁Hi
▁evolved
▁sharing
▁consumer
▁earth
hand
▁cave
▁surger
▁operation
▁remove
ain
▁states
▁imp
▁total
▁base
▁popular
oo
ger
▁Wom
▁anti
wi
▁trip
term
▁outcome
▁California
▁emerg
▁continent
▁election
▁cry
▁camp
▁feature
▁reflect
F
▁surprising
▁Have
night
▁500
fin
▁correct
▁rough
▁missing
▁manufactur
▁rid
ically
istic
▁sand
▁drawing
▁His
▁edge
▁hearing
▁legal
▁lack
▁kilometer
▁limit
▁climb
▁method
ile
▁receiv
▁justice
▁gain
▁ship
▁campaign
ograph
▁desire
▁Mu
▁sick
rk
▁afr
▁babi
▁supply
▁birds
▁Did
▁plane
▁efficient
▁muscle
▁Pa
rit
▁switch
let
▁contain
qu
▁complexit
▁threat
▁station
▁central
▁Wi
▁aid
▁Ta
ner
▁radical
▁Un
▁sad
▁Audience
▁component
▁National
▁bag
ka
▁unfortunate
▁10,000
▁Am
▁forever
▁twice
▁tremendous
ley
▁sample
▁creativ
▁qua
▁shock
▁European
▁tumor
▁struggle
▁victim
▁coral
▁eating
▁strength
▁wire
▁definition
▁controll
▁fully
▁blow
▁border
▁oh
▁Muslim
▁argue
▁responsibility
▁background
▁mess
ari
▁Pro
▁Over
▁hero
▁sustain
tar
▁aspect
▁chain
▁prove
▁oxygen
Ex
▁balance
▁fold
▁seed
▁claim
▁electronic
ft
▁held
▁More
j
ler
▁hum
ble
▁Mi
▁window
▁husband
▁divide
▁notion
▁Che
▁Ho
▁malaria
▁opportunit
▁boat
ui
▁crowd
▁extend
▁coffee
▁pair
$
▁estimate
DP
dge
mak
▁6
▁civilization
▁Good
▁mouth
▁researcher
▁rapid
▁suit
▁mountain
ologist
▁application
▁mechanism
▁Lo
▁fan
▁creation
▁faith
of
▁monkey
dimensional
lin
▁platform
▁avoid
▁reaction
▁combine
▁See
▁detect
▁Sun
▁advantage
▁bridge
▁Art
▁gap
ham
▁adopt
▁Facebook
▁reward
▁technical
base
▁invisibl
rate
▁funny
set
▁core
▁broken
▁encourage
▁remote
▁sector
▁exercise
▁1,000
▁members
ee
▁hopeful
▁labor
▁graph
▁Asia
orrow
▁organiz
▁wood
▁Na
▁soldier
▁Japan
▁childhood
▁Da
▁etc
▁Again
▁include
ug
ep
▁refugee
▁dynamic
▁gentlem
▁Sometime
▁Se
▁sold
▁diversit
ology
▁ecosystem
▁algorithm
▁replace
▁island
▁soil
▁curve
ak
▁crime
▁ten
▁opposite
▁mid
▁Her
▁magazine
▁dramatic
▁alternative
▁300
ev
▁recover
▁fr
▁article
▁chair
▁pen
▁reveal
▁arriv
▁holding
▁tradition
▁gender
ction
right
▁sc
▁farmers
▁master
king
▁root
▁artificial
port
▁Big
▁transformation
gi
▁desert
val
▁motor
▁attempt
▁198
▁mathematics
▁architect
▁trend
▁miss
▁Kenya
ana
▁quote
▁bread
▁yellow
▁conference
▁French
▁spirit
▁Vi
▁hack
▁identity
▁engage
▁invit
▁th
gg
ification
▁flat
▁adapt
V
▁religious
▁bottle
▁competition
▁president
▁due
▁odd
▁regular
▁graduate
light
▁traffic
▁worri
▁bat
▁Would
cha
▁Any
▁AIDS
▁Ph
▁foreign
▁breast
▁phenomeno
▁stress
▁gift
▁responsibl
▁related
▁occurr
W
▁organic
rew
▁Iraq
gram
▁succeed
▁bus
▁br
▁party
car
▁fashion
▁fossil
▁Mr
▁click
▁equation
▁orbit
▁civil
▁metal
tive
▁coast
▁hurt
▁museum
▁dinosaur
▁location
▁proper
▁carrie
▁grandmother
▁Three
fa
▁ring
▁bright
▁discovery
▁photos
▁fresh
▁weird
▁newspaper
▁driver
▁metaphor
▁limited
▁British
▁identify
ah
▁Sp
▁bird
▁coal
▁proud
▁suffer
▁classroom
▁5
▁cloud
▁harder
▁Bill
▁bi
▁score
▁analys
▁industrial
erson
▁dreams
art
▁honor
▁marrie
▁chose
care
▁perception
▁construct
ade
▁era
▁universal
▁engine
▁CO
▁sensor
▁Web
▁lay
▁sexual
▁epidemic
▁Life
▁closed
▁pounds
▁marriage
▁Australia
▁Twitter
▁zone
▁pop
▁multiple
▁belong
▁display
▁politician
uck
▁roof
▁circuit
▁joy
▁suffering
▁Gu
▁deeply
spect
▁dollar
▁spin
▁interface
▁weather
▁mothers
▁dozen
▁insight
fer
mber
▁Brazil
▁garden
▁string
ier
lit
▁calling
wood
▁copy
▁bias
▁customer
▁existence
▁Ki
kin
▁collapse
▁tens
▁parent
▁ski
▁curious
▁fell
▁Fe
▁factory
▁whom
▁Ge
board
▁stream
▁spaces
▁negative
▁equivalent
ight
▁shark
▁stoo
▁independent
▁sorr
▁fellow
▁foundation
▁date
▁debate
▁trillion
▁Einstein
cent
▁sw
▁taste
▁patent
▁meat
▁mouse
▁litera
▁crash
▁US
▁Po
▁property
▁homes
▁conscious
▁compare
▁professor
▁row
▁trans
▁earn
▁Does
▁attract
▁depression
▁precise
ware
▁operat
▁comment
▁opinion
rus
▁distribut
▁Pe
▁cent
▁bubble
▁Jo
▁statistic
▁occur
▁applie
ong
▁budget
▁assume
▁ride
▁names
ping
▁atom
▁error
▁fac
▁equip
▁balloon
▁clip
▁fat
▁leader
▁lu
▁Com
▁wisdom
▁round
▁season
▁truck
▁gold
▁variet
ches
▁pig
fish
ju
▁profit
▁spoke
▁robotic
▁arms
▁symbol
▁resistan
▁mark
▁expression
▁cure
▁pal
▁ignore
▁hidden
▁invention
▁shop
▁ancestor
▁na
▁university
▁Come
▁brief
▁Har
▁unlike
▁dinner
▁quantum
▁employee
▁agricultur
▁elephant
▁narrative
▁hop
rising
▁Could
▁frame
▁im
daily
▁lung
ose
▁100,000
▁band
▁grown
▁quiet
versus
▁leaving
▁scan
nna
▁Paul
etic
▁chip
▁comput
▁restaurant
▁disorder
▁ideal
▁writer
corruption
▁400
▁channel
▁brilliant
▁stone
ual
▁nervous
▁mirror
een
▁ordinar
cal
▁receive
▁opening
▁lift
▁Last
▁injur
▁translate
aker
▁cartoon
▁Dan
▁shapes
▁soul
▁snow
▁note
▁survey
▁extract
▁dry
▁lifetime
▁wake
▁chemistr
▁topic
▁discuss
▁contract
U
ov
▁pack
▁puzzle
▁Other
▁shoes
▁nurse
▁Their
form
atic
▁quarter
▁categor
▁govern
▁battle
▁hell
▁liquid
▁processe
▁command
▁discussion
▁intelligent
▁cognitive
▁Since
▁45
▁tall
▁sight
▁rural
work
ulate
scale
ake
ground
▁George
▁surround
▁construction
▁gather
▁librar
▁collection
▁member
▁volunteer
▁diet
▁embrace
▁court
▁therap
▁telescope
▁May
▁highest
▁agenc
▁fourth
▁silk
▁loud
▁pocket
▁origin
▁Y
▁broke
▁speaker
lf
▁recycl
bal
▁El
▁variation
▁mathematical
▁tail
sumption
▁alien
bb
low
itude
ina
▁empower
▁lunch
▁killing
▁medium
▁practical
▁combination
▁electrical
▁smile
▁button
▁exploration
aking
▁King
▁facilit
▁inner
▁tie
▁NASA
▁voices
▁evolutionary
▁volume
▁sugar
▁2000
▁host
▁judge
▁myster
▁fiber
lan
▁gravity
▁infect
sha
▁programm
▁mosquito
▁2,000
▁disaster
▁operate
▁Washing
▁150
▁credit
▁Street
▁folks
▁partner
▁initial
▁input
▁II
▁capabilit
▁35
gh
▁novel
▁Times
▁doubt
▁transition
▁chicken
▁establish
▁conduct
ory
▁protection
▁analog
▁mix
▁heavy
▁transport
▁memori
▁determine
▁load
▁France
ney
▁clinic
▁empath
▁laugh
▁lies
▁Sam
gue
▁grade
▁management
▁Iran
▁visibl
▁abuse
af
▁gay
▁importan
▁convert
▁heads
▁authorit
▁bees
▁undern
▁mammal
▁Richard
ult
life
▁disc
▁cow
▁cutting
▁caus
▁bill
▁bare
▁Star
fu
▁inform
▁attach
▁bla
▁involve
▁addition
▁melt
▁terrorist
fully
br
▁explanation
▁journalist
▁maintain
▁silence
▁Ten
ox
▁para
▁Mexic
▁participat
▁setting
ula
▁emissions
▁intellectual
▁react
▁associat
▁Jam
▁hide
▁spectrum
▁accurate
▁feedback
▁protest
▁official
▁announc
▁rat
▁grid
top
▁definite
▁Si
▁encounter
▁22
▁recording
▁peak
▁poll
▁provid
▁stupid
▁cart
▁physicist
▁horse
▁plate
▁historical
▁rational
▁hydrogen
▁weapons
▁battery
▁pleasure
▁enem
▁golf
▁kick
▁ill
▁criminal
▁conclusion
▁appreciate
▁valuable
▁distribution
▁Tom
▁propert
▁wheel
▁cup
▁Yet
▁swimm
▁pump
▁emerge
▁Bar
▁actor
▁escape
▁produc
▁expos
ink
▁crop
▁evolve
▁Will
▁dolphin
▁clinical
▁illness
▁pin
▁lie
▁statement
ik
▁witness
▁Sha
ki
▁mortality
▁zoom
mark
▁south
mine
▁height
▁Middle
▁toilet
▁stock
▁awful
▁bike
▁partners
jo
▁employ
▁shut
▁Five
▁privilege
▁Ben
▁implication
▁director
▁Brita
bel
▁yester
▁awesome
▁inspiration
▁hang
▁prize
▁celebrate
▁Nigeria
▁reform
▁democratic
▁President
▁Bang
▁sweet
▁pure
han
▁confront
ories
▁repair
llo
é
▁pot
▁economist
▁talent
▁title
▁previous
▁tape
▁Francisco
▁comfortabl
▁prime
▁winter
▁blog
hen
▁primary
tech
▁worldwide
▁filter
▁wi
▁label
▁assumption
▁teeth
▁lens
▁Charles
▁joke
▁surgeon
▁tear
▁Bank
▁knee
▁hire
▁fruit
▁forgot
▁threaten
▁icon
▁burn
iness
▁par
▁empty
▁neuro
▁videos
ush
▁MIT
▁continu
▁Angel
▁Congress
▁bond
▁stranger
▁graphic
▁lawyer
▁deserve
▁prediction
▁Min
▁seek
▁shoot
▁counter
▁relate
▁conservation
▁Pleas
▁Island
▁according
▁thin
▁kitchen
▁Four
▁vulnerab
▁north
▁YouTube
▁Ru
▁tube
▁apartment
▁Institute
▁habit
ino
rtex
▁Center
hood
▁infinite
ean
▁roads
▁passionate
▁expectation
▁fiction
▁studio
cut
▁2008
▁technological
▁Final
▁perceive
▁reef
▁broad
▁Ya
▁drone
▁regard
▁Wow
▁happi
dom
▁iPhone
▁Pi
▁Israel
▁lady
▁soft
za
▁challeng
▁demonstrate
▁Arab
▁Los
▁rep
▁danger
▁grant
▁Harvard
▁reference
▁radiation
bra
▁capitalis
▁steel
▁bl
▁Bi
▁client
▁exchange
▁calculate
▁entertain
▁activit
▁circumstance
▁Canad
▁crack
▁compete
▁mile
▁concrete
▁observation
▁plot
▁cluster
▁unknown
▁length
▁grain
verse
▁Ah
▁Air
▁jail
▁measur
▁nest
▁Michael
▁hotel
▁terroris
▁Ju
ou
▁status
▁rocket
▁internal
▁Lu
▁theater
▁swim
▁23
▁transportation
▁logic
▁autism
▁spring
▁Real
▁handle
▁heal
▁tip
▁pilot
▁activist
▁molecular
▁England
▁attend
▁ritual
back
▁polle
foot
▁harm
▁infection
rail
▁prototype
▁decline
▁sum
▁symmetr
▁busy
▁mountains
▁sheet
▁educat
win
▁droppe
▁dirt
▁severe
▁participate
▁polic
▁author
▁iron
▁biologist
▁Jan
lock
▁Islam
▁reverse
▁vessel
▁automatic
▁abstract
▁peer
▁firm
▁advice
▁grandfather
▁section
▁School
▁Apple
▁loop
▁oppos
▁Japanese
▁clever
▁awareness
▁musical
▁Ar
▁dense
▁propose
▁tea
room
▁2010
▁false
▁harvest
▁Anyway
▁194
▁economi
ility
▁clothes
rice
▁boundar
▁select
▁ingredient
▁chart
J
▁fortunate
▁secure
▁thick
▁Sea
▁prefer
▁Ke
▁Darwin
col
▁tax
▁Park
zo
▁symptom
▁needle
▁implement
ung
▁Whil
▁Fin
▁solid
▁hall
▁196
▁Part
▁vertical
omb
▁pool
▁su
▁favor
▁productive
▁boxe
▁unusual
▁magnetic
▁Pacific
▁aim
down
▁relevant
▁illusion
▁suck
▁tribe
▁split
▁illegal
▁church
▁teenager
▁younger
▁sphere
▁dedicat
▁paradigm
▁apparent
▁former
▁Space
▁div
▁Te
▁mechanical
▁Mc
▁inevitabl
cho
▁Thom
▁stretch
ole
▁Talk
▁colon
aster
stone
▁por
ax
▁Frank
▁phrase
▁Obama
source
▁Ken
▁Get
▁file
▁accelerat
▁3,000
▁Russia
▁Give
▁innovative
ump
▁rush
long
▁shoulder
icity
▁habitat
▁hunt
▁violent
▁king
▁myth
▁breathe
▁password
▁instant
▁tour
▁centuries
bar
▁finance
▁Swede
▁engaged
▁electron
tial
destruction
▁rely
▁flie
ura
▁admit
▁poem
▁wine
50
▁ear
▁advertis
▁staff
▁demo
▁Green
▁obes
▁spider
▁beach
▁dogs
▁Mar
▁September
net
surance
▁weak
▁laptop
▁microscope
half
▁1960
▁domestic
gar
▁grab
▁relie
ridge
▁appropriate
▁poster
ica
▁fabric
▁Col
▁sophisticate
▁upper
▁panel
▁pour
▁drill
heimer
▁agent
▁unexpected
efore
▁plus
▁instruction
▁pregnan
▁eggs
▁angle
aging
▁explor
▁rescue
▁Amazon
▁sail
▁penguin
▁lecture
▁nose
▁grass
▁strip
▁Christian
▁sculpture
▁Higgs
▁auto
▁pollution
▁personalit
well
▁raw
ris
aria
▁collaboration
▁Du
▁1990
▁musician
▁Hol
▁elder
ua
plan
▁geo
▁Science
▁rocks
▁monitor
▁flag
▁behave
▁storm
▁pill
▁theme
nfortunate
▁army
SA
▁pet
▁dress
▁meaningful
▁minister
▁privacy
▁mal
▁1980
▁absorb
▁stronger
read
▁kit
call
▁greenhouse
▁nerve
▁improvement
11
▁contribut
▁integrat
▁repeat
▁boring
▁arrest
▁Pol
tz
▁Sh
▁frustrat
▁danc
▁Mary
pr
▁curiosity
▁cheat
ether
ue
ional
meter
▁Adam
▁65
power
▁mathematician
▁Number
▁nor
▁Health
▁99
▁efficienc
▁Pakistan
▁hyper
▁humor
▁flood
roll
▁wireless
▁2.
▁Jun
▁Black
▁rap
▁commitment
▁Centr
▁sensitive
▁contrast
▁High
▁geograph
▁animation
ada
pon
▁thanks
▁citizen
▁simulation
▁barrier
▁framework
▁department
▁tag
▁Human
▁lit
▁percentage
▁pile
▁observ
▁thumb
▁emergenc
▁permanent
▁predator
▁frank
▁wash
▁cord
▁Latin
▁photographer
12
▁officer
▁tank
▁pit
▁ga
eak
▁weigh
▁whales
▁attitude
for
▁committ
ttle
▁Valle
▁solv
▁chimpanzee
▁immune
▁exhibition
▁agreed
▁exception
▁globe
▁invite
▁license
Something
hold
▁guide
▁sta
▁Antarctic
▁regime
▁meal
pper
▁steal
▁wondered
▁gut
▁objective
▁Steve
▁confiden
▁depth
▁feeding
▁script
▁cri
▁tap
ngry
▁magn
▁Grand
▁regret
▁resolution
▁owner
▁presentation
▁Mad
▁cable
▁trace
▁burning
▁mode
▁style
▁inequalit
▁download
▁GPS
▁bug
▁evil
▁asset
▁divers
▁authentic
▁laser
▁prisoner
▁cyber
berg
truck
▁inject
▁reject
▁ultra
▁Girl
▁vo
▁exten
▁install
▁wo
▁exponential
▁embarrass
inary
▁milk
▁gu
▁Russian
▁organize
▁prepared
▁academic
▁Paris
▁Project
ix
▁bicycle
▁polio
▁dish
▁exploit
▁CEO
▁flash
ani
▁Dea
▁imagin
ulation
▁interactive
▁phase
▁asteroid
▁leap
▁port
▁spiritual
▁engag
▁Bost
born
▁painful
▁sports
▁mimic
▁breed
▁footprint
▁crucial
▁frequenc
ook
▁refer
cat
▁fisher
▁characteristic
raising
▁correspond
▁Day
▁meme
▁afternoon
▁5,000
▁cooperat
▁recognition
press
▁lion
▁shame
▁selection
▁Martin
▁Rememb
oxide
▁route
▁orange
▁youth
▁obsess
▁physician
▁elite
Sahara
▁liberal
▁surveillance
tric
ock
what
▁lad
▁lifestyle
▁poet
▁defend
▁classic
▁embedded
▁overall
▁cloth
▁ugl
▁behavioral
▁transplant
▁silent
▁Voice
▁gray
bit
▁Count
▁tir
ram
▁revenue
▁Museum
▁blame
▁Chicago
▁complain
▁buck
▁adventure
▁fluid
▁Ed
▁Nor
box
▁entrepreneurs
▁Red
▁Greek
▁limb
▁presence
▁magnet
▁gr
▁1,
▁educational
▁contribute
▁Egypt
▁Pat
▁compos
▁item
▁skull
▁mono
row
▁knock
▁tech
▁database
▁dominat
all
▁boom
▁digni
▁clouds
▁measurement
▁printer
▁depress
▁worm
hop
own
▁explosion
▁implant
▁Bible
▁Dur
▁fl
unk
▁froze
▁skeleton
▁shadow
▁fake
▁mentor
air
▁tri
town
▁telephone
▁Wall
house
▁sil
▁pink
cula
bul
▁pitch
▁drove
dependent
▁horrible
pit
▁laboratory
azz
▁shall
▁investigat
mbo
cop
▁parallel
▁DH
rous
▁brave
▁comfort
▁promote
▁bend
▁distant
ez
▁x
▁suspect
▁stepp
▁motivat
▁conventional
▁Christmas
▁desperate
▁Th
▁boil
▁pretend
▁Age
▁headline
▁ears
▁fe
▁densit
▁review
oid
▁intervention
▁impos
▁defense
▁seal
▁consume
▁Tes
matic
▁illustrate
▁session
▁refuse
▁prop
▁diagnos
▁philosoph
▁deploy
▁wound
▁psychological
▁portrait
▁Jew
▁representation
ural
▁Tu
▁whale
fall
▁entrepreneur
▁Kan
▁isolat
▁accessibl
▁productivit
▁shell
▁airport
ami
▁transfer
▁drag
▁optimistic
itch
▁poetry
▁murder
▁motivation
▁acid
▁reconstruct
▁Del
▁hill
▁hook
▁confuse
▁House
▁Turk
▁Blue
▁consistent
▁cast
▁suicide
▁indicate
▁floating
ease
▁neuron
▁chest
▁orchestra
▁Pole
▁PM
▁proof
iff
▁Korea
▁tele
▁vital
MA
▁excite
▁tight
▁accomplish
▁ambitio
▁pan
▁Peter
▁obstacle
▁hungry
▁Cap
▁Tra
▁assistan
▁column
print
▁corporate
▁genius
▁plent
▁mail
▁dictionar
▁wings
▁narrow
▁earthquake
▁expedition
uous
bot
▁apple
▁Basic
▁compound
▁marine
▁experienc
oven
▁choos
▁cru
fil
▁passenger
▁fixed
▁Abou
▁chaos
▁diploma
▁candidate
▁appeal
▁coin
generat
▁subtle
▁microbe
▁Make
▁diagram
▁mice
▁gate
▁desk
▁club
▁International
gun
▁household
▁afterward
▁prepar
▁proportion
▁Holly
her
▁parking
▁600
ference
▁dive
▁affair
▁arrive
▁procedure
▁Cor
▁plug
▁shipp
▁MS
▁trigger
▁probabilit
▁stack
▁psycholog
▁Jim
▁disturb
▁dust
▁Gene
▁hunger
▁highway
▁Boy
▁scenario
▁Scott
▁request
▁rhythm
▁Global
BG
▁tuna
gging
▁Tri
▁Mom
▁piano
▁utter
▁pr
rim
▁min
▁bother
▁courage
▁birthday
▁pray
▁additional
grade
▁suppose
▁smok
▁consum
▁replicate
▁pad
▁flip
▁pyramid
▁craft
▁Spa
▁Nothing
▁Six
▁cute
▁identical
▁settl
▁scal
vill
▁corporation
▁manager
▁medication
▁reported
▁trait
urg
▁BF
▁ticket
empt
▁essence
▁boss
▁32
▁36
▁anger
▁miracle
▁preserv
▁pace
American
▁ensure
▁Was
▁ob
▁killer
▁brown
▁windows
▁twin
▁intense
▁Sch
▁chromosome
▁mat
▁elect
▁Super
cher
▁debt
▁overcome
use
fold
ella
ola
▁ought
▁liver
▁ridiculous
▁Foundation
▁Mac
▁nano
▁guard
▁Uganda
▁lock
▁description
van
▁edit
▁judgment
▁assembl
▁achievement
▁cash
▁clue
▁output
▁recommend
▁bless
▁Octo
▁Cal
▁Ocean
▁scratch
▁beside
▁trie
▁loan
▁antibiotic
ption
▁incentives
▁rainforest
▁artistic
lace
▁Next
▁traged
▁Wal
▁concert
▁tune
▁football
▁Matt
▁uncomfortabl
▁clar
▁guilt
▁Thing
▁concentrat
▁sunlight
▁demonstration
▁polar
▁magical
▁Atlantic
▁globally
▁prosper
▁immense
while
▁permission
▁incident
,
century
▁fabulous
▁Wikipedia
▁Haiti
▁domain
▁wip
fus
chan
▁corn
▁NGO
▁1950
xi
▁terrifi
▁vegetable
▁accumulat
▁welcome
▁glacier
▁mask
▁rating
▁breaking
▁pi
▁improv
▁Titan
▁scream
▁smartphone
▁Mark
than
▁Robert
rid
ko
▁disagree
▁Rob
▁dig
▁intention
▁recruit
▁psycho
▁priorit
▁Mal
▁River
state
stan
dollar
rick
▁farmer
▁sweat
▁demographic
bola
▁locked
▁capita
▁vol
class
▁Prize
▁alarm
▁stroke
▁spark
arch
▁flo
▁ceiling
hildren
▁Saturn
▁lake
▁Pan
▁tackle
▁Bob
ivity
▁underly
▁extinction
▁hip
▁explode
▁smoke
cus
▁screw
▁southern
▁reduction
▁backwards
▁inventor
▁mechanic
level
▁intuition
▁heaven
▁Olympic
▁toxic
▁transparency
▁mutation
▁infant
sea
▁Rwanda
▁mad
view
ai
▁scann
▁Pr
ambi
bble
▁Nature
▁Rea
▁functional
ette
▁exam
▁northern
▁optimis
▁laid
▁identifie
▁Ven
▁dialogue
▁imag
▁Ital
▁Law
▁colony
▁legac
▁aircraft
morph
▁charit
uction
15
▁Tell
▁hanging
stair
▁Manhattan
dia
ctor
▁coat
▁figur
▁external
▁shake
▁extinct
▁sacred
▁comparison
▁nei
ek
▁drawn
▁analyz
▁fo
▁tunnel
▁breakthrough
▁pose
▁discipline
▁Stanford
▁abandon
▁Pri
▁Va
▁primari
zz
▁faci
kind
▁mushroom
ode
▁biodivers
▁nutrient
▁partnership
third
mission
▁grave
▁confident
forward
▁universit
▁Rome
▁agenda
▁Congo
▁verb
▁shooting
ibility
▁stake
▁pioneer
▁kiss
▁expansion
zi
▁wage
▁Jesu
put
▁Miss
hour
▁Kar
▁Israeli
▁Lad
▁copyright
▁package
pound
▁conservative
▁Sal
▁distinct
▁adjust
scribe
play
▁Revolution
▁resident
▁slum
▁repeated
▁Par
▁profile
gie
evolv
▁marker
▁bull
atory
▁bump
▁cop
▁bind
▁chocolate
▁norm
▁cousin
▁jam
▁supplie
▁mindset
▁Arabic
▁Sir
▁mega
▁comp
▁fool
organiz
▁decrease
▁relations
▁engagement
▁yield
▁mate
▁frighten
point
▁neural
rctic
cellular
▁leverage
▁gesture
mount
▁contemporar
ndeed
▁smooth
▁chapter
▁Fl
▁Texas
▁neat
▁Technolog
▁Ghana
burg
tasi
ough
▁bang
▁metha
▁tick
▁advis
▁White
▁Never
erial
▁editor
▁simultaneous
▁excellen
▁salt
▁array
▁rent
gon
▁unbelievabl
BC
▁eradicat
▁Mother
▁pie
▁stunt
▁Yorker
▁Arm
▁slice
▁autonomous
▁synthetic
▁degrad
can
eaten
▁sketch
▁Dad
▁hous
▁pun
▁burst
▁shout
▁boot
▁acknowledge
hur
▁render
ela
▁alter
▁probe
▁pole
▁tropic
▁William
▁slavery
fare
▁addict
▁qualit
▁recipe
▁fraction
bro
▁psychologist
▁vari
▁inspiring
▁rip
cro
▁naked
ota
▁sales
▁conclude
▁renewable
▁sacrifice
▁persist
▁mold
▁sens
▁shirt
▁Narrat
BI
▁pulse
ept
▁intuitive
▁primitive
▁assignment
▁reserve
▁highlight
▁admir
children
▁dump
▁Put
alo
▁limitation
▁Nation
▁Up
▁philosopher
▁transmission
▁signature
▁transmitt
▁wise
▁Friday
▁ecological
▁paradox
▁guarantee
train
▁Lab
▁calculation
▁helicopter
▁ethical
▁surrounding
▁interpret
▁garb
▁opera
grow
▁disappoint
▁resist
▁sel
▁Unti
▁bold
▁dancer
▁28
▁initiative
▁federal
▁clock
▁rebuild
▁uncle
▁peaceful
▁fur
▁tower
▁Bay
▁classe
▁slave
▁march
▁borrow
▁Cambri
▁disability
▁spectacular
▁Through
▁terror
▁activat
▁50,000
ench
▁transparent
▁node
▁tension
▁industri
▁flexibl
▁33
▁struggl
▁2006
ological
▁fastest
▁axis
▁Tim
dominant
▁vacation
▁Italian
▁encrypt
▁Moon
▁snake
▁bound
▁dece
▁Time
▁textbook
▁communicat
▁darkness
▁ratio
arm
▁195
▁hat
▁Seven
▁abilit
▁trauma
rapped
▁Research
▁dragonfl
▁strike
nia
▁leak
nny
▁systematic
▁unclear
brush
oft
▁vibrat
▁bulb
▁fragment
▁quit
bil
▁constraint
▁anatom
▁aesthetic
▁Turn
▁institutional
RB
▁SS
▁regulation
▁palm
▁dial
▁branch
▁mixed
▁prepare
▁queen
▁ruin
▁cosm
▁Win
thermal
force
▁10-
▁creator
▁Love
▁Charl
▁cheese
▁prov
▁attribute
▁250
▁neuroscien
▁Back
▁diabetes
▁joint
▁senior
▁analyze
▁till
▁amaz
▁locate
▁enhance
▁poison
▁winner
assembl
▁bra
▁accus
▁Trans
▁installation
ois
▁acquire
▁20,000
▁alcohol
▁destin
▁export
▁crush
▁audio
drew
▁jet
▁Ab
▁delight
▁projection
▁anxiety
▁disconnect
▁weapon
▁athlete
▁unprecedented
▁fertil
ank
▁fee
▁yard
▁occasional
▁sharp
▁Design
▁crossing
ball
▁strand
▁feminist
▁advocate
▁jelly
stock
▁stor
▁manipulate
▁hormone
▁robust
▁retina
▁Dere
▁jihad
face
▁failing
▁burden
▁freak
▁currenc
▁trajector
▁chief
▁broadcast
▁damn
▁combat
▁120
▁arrow
▁extension
▁Gulf
round
▁exhaust
▁inherent
tact
tangible
▁instinct
▁26
▁enthusias
▁pat
▁plain
▁Micros
▁Bush
▁ban
▁condom
▁sanit
▁95
▁crew
▁copie
▁glamor
▁voting
▁Egyptian
▁philanthrop
▁Home
▁computation
▁disrupt
BM
lihood
aba
▁pharmaceutical
▁origami
▁Smith
▁galler
▁Fo
▁legislat
,500
▁luxur
▁shore
▁Long
▁golden
▁determined
▁Should
▁linear
▁leaf
▁confirm
▁prosthetic
▁garage
▁disabl
▁flavor
▁hitting
▁fragile
▁gradual
▁consist
▁investor
▁rotate
fire
▁bath
▁variable
▁migrat
▁fifth
Y
▁marry
▁fanc
▁reliabl
▁lane
▁mayor
▁intend
▁trap
take
▁fed
▁tweet
ilicon
▁district
▁genetically
▁pigeon
▁structural
▁storytell
made
▁None
▁overwhelming
▁stole
▁shopp
▁Bee
▁bathroom
▁coach
▁dear
▁Virgin
▁preserve
▁bizarre
▁healthie
▁panic
ogen
▁Jack
▁survivor
▁upset
vity
▁Northern
▁conc
▁Mag
▁detector
▁programmer
▁mobil
▁fulfill
▁lean
▁Oxford
▁pause
▁sew
▁sensory
▁Jud
▁format
▁trash
▁Soviet
▁ecolog
book
ara
▁devil
part
▁restore
▁tragic
▁collaborative
▁vacuum
▁gathering
friend
▁ubiquit
▁descend
▁sink
▁urge
▁interior
▁Vietnam
▁Dece
▁emit
▁Little
▁wander
▁compell
ER
▁crystal
▁automat
look
ugg
lash
cade
▁Child
▁passive
▁neck
▁personaliz
▁Ni
▁deaf
▁coordinat
audi
gua
ocin
▁stimulat
place
▁excuse
▁bribe
▁mineral
▁upload
▁twist
▁realm
▁ceremon
▁shelter
▁fate
▁terrifying
▁hydro
▁thrill
▁defeat
▁merc
uthern
▁brutal
▁reflection
▁patch
▁shin
▁journal
▁Islamic
▁bullet
▁Ever
▁east
▁upside
atrix
▁shrink
▁donor
▁profession
engineer
▁navigate
▁punch
▁August
▁4,000
▁Sure
▁distract
▁routine
▁glue
▁augment
▁sensation
▁observe
▁gase
▁gear
▁intens
▁specialize
▁spell
▁electrode
▁sandwich
▁connectiv
▁bin
hole
▁microphone
▁violat
▁Pre
▁Hall
▁typ
▁paralyz
▁spacecraft
▁stabilit
animate
osity
▁forgive
▁scanner
▁March
▁intrigu
▁gentl
▁competitive
▁2001
▁agreement
▁laughing
▁Palestinian
▁Far
ancy
▁Gold
▁venture
ssociation
▁transmit
▁astonishing
▁Third
▁bush
▁Council
▁translation
▁ego
▁Jer
war
▁generous
▁relation
▁furniture
▁0.
▁contribution
▁producer
▁hid
ji
▁tent
▁viral
▁farming
▁automobile
▁brick
▁pipe
▁Argentin
cou
▁keyboard
racy
▁nuts
apping
▁calorie
▁default
▁Eric
▁romantic
▁weekend
▁grasp
▁educate
▁Gala
▁interconnect
▁Enc
unch
▁Ethiopia
▁humanitarian
▁representative
▁insist
▁Walk
▁Febr
▁Pop
hou
▁Asian
▁Tony
amma
▁clay
▁mysterious
▁rotat
▁annual
▁Men
▁Listen
▁vibration
▁collision
HC
▁collaborator
▁jar
▁via
▁subway
▁lonel
▁primate
▁bow
▁LED
▁Florid
▁ethnic
▁agricultural
▁diagnosi
▁burie
▁Hawaii
▁Brun
type
aa
▁deforest
▁formula
▁oxy
▁shit
osi
▁documentar
▁warning
word
▁jumped
▁homeless
▁portion
▁compassionate
▁distort
▁endless
human
▁discriminat
vor
▁rape
▁awkward
▁substance
iful
▁makers
▁Aristot
▁Nick
▁civic
▁Bel
▁logical
▁sheep
▁burned
▁curriculum
▁lamp
▁batter
▁Newton
▁continuous
▁Nic
▁scholar
ueen
▁winning
▁entit
▁theoretical
space
▁ideolog
▁intersection
▁tsunami
▁Gar
▁convey
▁dri
▁reinvent
▁Brown
▁purchase
▁participant
shot
▁irre
▁wrist
▁manual
▁fence
▁equit
▁dilemma
▁expectanc
iz
▁washing
▁pant
▁woke
scope
▁homework
▁bored
▁Minister
venue
▁Shi
▁exhibit
▁valley
▁spoken
▁Josh
▁gang
▁Bab
▁inherit
▁Obvious
▁synthesiz
▁blend
▁ignoran
▁mapping
▁tendenc
wear
▁drum
▁astronomer
tron
away
▁poly
▁kidney
▁custom
▁uniform
▁Spanish
▁genuine
▁Gandhi
▁tooth
▁192
▁refine
▁85
▁Gore
▁aspiration
▁utilit
▁formal
▁Port
▁float
evel
▁thread
finite
▁pathway
▁experimental
▁baseball
▁tattoo
oto
▁Marc
▁canopy
ndustrial
▁entrop
▁Open
▁Work
estate
▁spec
▁Jeff
▁Henr
▁knife
▁shine
▁Taliban
▁Out
▁altitude
▁vent
▁wrapp
▁Year
▁flute
▁hub
▁reduc
org
▁silver
▁Kev
free
convenient
▁radi
▁glad
▁Gates
▁General
▁commission
▁transaction
▁occasion
▁imitat
▁frequent
▁Bol
▁leather
▁interpretation
▁dressed
▁outrage
▁monitoring
▁enterprise
fast
▁Dutch
▁determin
▁dawn
▁visualize
ggle
▁elevat
code
▁astronaut
▁previously
▁unconscious
▁Homo
▁suggestion
▁Absolute
ison
▁simulat
▁believ
▁realiz
▁grandparent
▁concentration
▁Eastern
▁vary
▁deriv
▁entry
obi
▁minorit
▁champion
▁barrel
▁van
stream
▁wider
arrow
▁rebel
pox
▁triangle
▁register
▁MRI
▁spill
▁Chile
▁align
cker
▁rope
az
▁diamond
▁cotton
▁Bell
▁rabbi
▁declar
▁pandemic
▁wedding
▁confine
▁nutrition
▁Ko
▁Jane
▁contradiction
▁strategic
▁soap
▁Play
▁wrap
▁server
▁bust
▁clos
▁stomach
▁resilienc
▁manner
▁beam
▁horizontal
ureau
▁terra
▁fault
▁mud
▁comic
▁territor
▁calm
▁impression
▁invad
▁native
▁electro
▁circulat
▁Court
▁crawl
glo
▁aggressive
▁quest
conceive
▁Moor
▁Koran
▁temporar
gur
▁auditor
▁potato
▁uncertaint
person
aka
▁Fortun
▁kilo
▁glow
▁resolve
▁serving
▁hierarch
▁celebrit
spen
▁bounc
▁innocent
mart
related
▁Scr
▁chas
▁Bangladesh
▁cube
▁dose
▁logg
▁Harr
▁ooh
two
▁supermarket
▁Michel
▁ongoing
▁grateful
efficient
dministration
function
▁horizon
▁goat
▁sneaker
ollege
blew
▁retirement
▁magnificent
▁architectur
▁tar
▁composition
▁precious
▁merg
▁Square
▁unlock
▁ethic
▁racis
▁masse
▁helpful
▁inhabit
▁compress
▁Profess
▁distinguish
▁repli
▁gravitational
▁cake
▁Christ
▁crap
▁monsoon
found
▁Monte
▁Leonard
▁Neanderthal
▁impressi
▁2020
▁mobiliz
mination
▁Hill
direct
▁sponsor
▁Colo
▁civilian
▁minimum
▁anonymous
▁Eight
▁spontaneous
▁static
▁mood
▁germ
▁compromise
▁schizophreni
▁Berli
▁retire
▁blank
▁reporter
▁upward
.5
▁Stan
▁Sudden
▁Department
▁frustration
▁dispos
▁rear
▁intimate
▁Sara
known
▁defi
▁frog
▁Nel
▁appearance
keep
▁overwhelm
▁55
last
▁referr
▁marketplace
▁immigrant
new
▁suspend
▁computational
▁argu
▁harness
▁span
▁unfold
▁relax
▁Prince
▁encode
path
nergy
▁drought
itting
▁ironic
▁mainstream
▁statistical
▁historic
ealand
▁elegant
▁30,000
four
▁Citi
▁hunter
▁Mik
▁lowest
▁hardest
▁lap
▁harmon
▁Church
▁Sunday
ternet
▁margin
▁Still
▁Shanghai
▁scaffold
▁submit
▁prescription
▁foster
▁AI
▁wheelchair
▁detection
void
▁Korean
▁CD
▁Tanzania
▁Rock
▁orphan
▁strain
▁UN
▁drift
▁realistic
plica
▁blogg
load
▁Edi
▁steer
▁addiction
▁iPod
▁geometr
▁encouraging
▁virtue
▁fusion
▁gig
▁arise
▁Joe
▁reproduce
adi
▁commit
▁sculpt
▁spray
heart
▁principal
▁manuscript
▁canvas
gli
LA
active
▁inclusive
▁System
cost
chu
▁hybrid
▁deliberate
▁junk
▁workplace
▁29
▁drunk
▁Carolin
▁antenna
generation
▁Seattl
bag
▁decorat
▁millennia
▁bedroom
▁branche
▁Stage
TI
astro
▁gods
▁desktop
▁Young
▁Sound
▁rose
▁minus
▁mapp
▁quantit
▁Alex
ament
▁millimeter
▁planetary
▁recogniz
▁formation
▁examine
perform
▁Creat
▁Pal
▁singer
▁sport
kill
▁unhapp
▁thrive
▁chunk
▁mutual
▁depict
▁naive
▁striking
ectar
▁texture
▁Lord
▁pregnanc
▁requirement
▁Mala
shape
xcept
▁dumb
▁fad
Fi
▁Wait
▁diameter
▁chronic
▁200,000
▁Coke
▁Wa
▁suburb
▁integrate
▁artwork
▁TEDTalk
▁displace
▁jewel
▁reinforce
14
▁Brad
▁tongue
▁blindness
▁infectious
▁pathogen
▁Detroit
▁Yemen
▁Parkinson
▁SW
aeda
▁protocell
▁Redwood
▁dragg
▁punish
▁oppress
▁corrupt
▁mall
adequate
▁investigation
▁despair
▁teenage
▁grabb
▁syndrome
▁archive
▁herita
▁phenomena
▁Way
▁Telescope
▁Democrat
▁frontier
▁torture
▁logo
▁duck
▁insane
▁Mill
creat
▁Accord
▁erect
▁thermo
▁backyard
▁phenomenal
▁Op
▁pixel
▁wheat
▁lobby
▁exclusive
▁troop
▁outbreak
law
▁sidewalk
flow
▁episode
vian
▁transistor
▁tale
▁pride
▁Ell
uch
▁nerd
▁proven
▁nurtur
▁whistle
ilia
nforcement
▁Acc
▁contaminat
▁developer
▁semi
▁carpet
▁Jona
▁forecast
stage
▁drown
▁selfish
▁flaw
▁epi
▁SE
width
▁libert
▁Lester
▁pee
▁ES
▁Van
▁update
lmost
▁Stop
▁Lego
▁criticiz
▁veteran
▁airline
▁aunt
▁attractive
▁Inter
▁accelerate
▁Try
▁accent
▁excess
▁geek
▁sufficient
▁explorer
▁Bir
▁Social
▁heavi
▁whisper
▁moralit
▁Steven
▁loving
▁deepest
▁42
▁pursuit
uke
▁parachute
▁cosmo
▁atomic
▁stab
▁gorge
▁prayer
▁Twenty
frame
▁blink
▁Mountain
▁40,000
▁neutral
▁800
▁approache
drive
▁operator
▁chimp
▁membrane
MW
▁surf
▁spinn
bacterial
▁enzyme
▁diagnostic
▁fortune
▁Fri
▁clon
▁Brian
zero
▁contrar
▁introduction
▁Singapore
▁accountabilit
▁Greenland
▁glamo
▁contest
▁suppress
minute
▁Nigerian
▁starv
version
▁Bronx
shirt
went
▁Story
▁hug
▁Johnson
▁endur
▁visualization
drop
▁drain
▁optical
▁awake
quat
▁navigat
world
regulat
violet
▁cruel
▁segment
▁190
▁Half
▁electromagnet
clock
▁debri
position
▁approximate
▁retreat
▁playful
▁cla
weight
▁aggregate
▁intensive
▁rank
▁payment
▁Academ
▁Roo
▁delay
mple
▁Tur
▁independen
▁specialist
orient
▁rig
▁hypothesis
▁hallucination
▁Organiz
▁RS
▁liberat
▁deposit
EC
▁60,000
▁dough
▁foi
case
▁Kid
▁useless
▁Moz
▁miserable
▁cosmolog
▁warrior
▁exceed
▁accura
▁Live
▁crater
▁converg
▁pond
▁dar
robi
▁Mandel
▁Gree
most
▁illustration
tail
▁mild
▁workshop
upreme
▁decid
77
▁container
▁Camp
▁harmful
▁teache
▁satisfy
▁pedestrian
▁chemist
▁calculus
▁mini
▁Mil
▁centimeter
▁maximum
▁indoor
▁recall
▁Swiss
▁stamp
▁arter
write
▁conceptual
SD
▁casual
▁configuration
step
pple
▁substantial
▁slim
▁fertilizer
▁basketball
▁Build
ius
▁Lead
cca
▁skelet
▁appreciat
▁metric
▁Geographic
ounce
▁tagg
▁trailer
▁Coast
▁Compan
▁Julia
▁pigment
▁cellphone
▁Bali
▁loose
▁amateur
▁Die
rich
▁Ala
culture
▁yoursel
itz
▁Snow
stitution
▁diver
▁sibling
▁stigma
▁beaten
Corp
▁Hope
ogether
▁initiat
▁emphasize
▁optic
▁filmmaker
eastern
▁lotter
▁Beij
▁downtown
▁kilogram
▁adaptation
promising
▁transcend
▁November
▁devote
▁broader
▁peculiar
▁summit
▁assign
▁endanger
▁migration
▁belly
▁swallow
witzer
oline
20
▁mari
▁Water
▁bench
▁6,000
▁Alexand
tun
▁fatal
▁Hans
▁hom
▁unemploy
▁bamboo
▁Watson
▁executive
▁censor
▁consult
▁cliff
▁Media
▁Rose
touch
dict
▁obtain
▁Syria
▁cigarette
▁proceed
▁preference
▁subsid
▁innovate
▁Republican
▁LG
▁threshold
▁Late
▁creep
▁pencil
▁reputation
▁democratiz
▁envelope
▁Histor
▁continuously
▁bleed
▁honey
▁arc
▁Canadian
▁preach
▁350
▁Apollo
▁deck
▁plank
▁Albert
▁Yo
▁execute
racing
▁Simpl
toleran
▁Jose
▁chef
▁44
▁pursue
mile
wide
▁Yu
▁Brother
▁1900
▁spine
▁iceberg
▁Maldiv
q
▁parasite
▁Kha
sky
▁proposal
▁pirate
▁popp
▁impress
▁rode
RA
▁digest
▁refrigerator
▁forbid
▁divorce
▁proposition
▁anticipat
▁impair
▁chamber
second
▁trac
▁rethink
▁Medica
▁abundance
▁Laugh
▁warehouse
▁monster
▁nonviolen
▁hyp
▁SP
▁approve
▁alum
inum
▁insulin
▁realization
▁controversial
oil
▁division
five
▁injustice
▁cooperate
▁Spring
▁glimpse
▁Iranian
▁campus
▁Power
▁readers
▁delicio
▁valid
venge
▁trivial
wrestl
▁scheme
▁occupy
pecific
▁jaw
▁grip
▁grocer
▁lever
▁collaborate
▁friendship
▁lifespan
▁eliminat
▁tiger
▁describ
horn
▁prostate
mira
▁associate
▁blade
▁Pretty
▁taxe
nformation
eague
▁indigen
▁egg
▁tile
▁banana
▁propell
▁incentive
band
▁voter
▁volcano
▁sale
▁receptor
▁2030
three
▁tomato
▁punishment
▁dependenc
▁redesign
▁Disney
interest
▁193
▁Securit
spring
▁EM
▁regenerate
▁Rover
▁regulate
▁Fund
▁Hav
together
▁swo
▁passage
▁Rand
▁riot
▁Brooklyn
DI
▁cycl
▁Lake
▁stumbl
▁genocide
▁Peace
▁uninten
▁tribal
▁anticipate
worth
apped
▁crab
▁destination
▁emergence
scape
▁Plan
▁Venus
▁index
▁Penn
▁blast
▁Apri
▁flourish
viation
▁fluctuation
▁Keep
▁1.5
▁rubb
▁precis
▁shak
▁rubber
▁chew
▁eliminate
▁mesh
▁revolutionar
▁Cur
▁infra
▁sperm
▁denial
▁Philip
▁numer
▁bioluminescen
▁pizz
▁vulnerabilit
▁neuroscientist
▁synapse
▁artifact
▁cage
▁subjectiv
▁shrimp
▁democrac
▁idiot
sense
▁storyteller
▁banker
▁manag
▁convict
eopard
▁deni
▁criteri
▁achiev
▁prince
▁motivate
▁redefine
▁Kir
▁manifest
▁doodl
▁protocol
imbabwe
▁Sub
▁coverage
▁assure
▁prospect
AG
screen
▁multiply
▁rehabilitat
▁translator
rah
lvani
▁flesh
▁shoe
▁stunn
income
▁priest
▁juice
▁arrangement
▁Carl
▁blob
speed
▁analytic
solv
▁council
▁girlfriend
▁modest
▁congesti
▁triple
▁nightmare
▁festival
▁devastating
▁mill
digit
▁neo
▁myceli
therland
▁sixth
▁possess
▁horror
▁Free
▁remix
▁penetrat
▁compet
▁absence
symmetrical
▁insert
▁immortal
▁chase
▁Kong
▁tapir
eigh
▁prior
▁Too
▁alert
▁classical
▁Watch
▁exposure
▁defining
▁Cassi
rank
▁faint
lapse
▁Librar
▁cope
▁Scot
▁manufacturer
▁nitrogen
▁exot
▁annoy
▁transferr
▁Iceland
▁Sierra
▁wow
▁Add
▁Pu
▁kingdom
urgenc
▁circular
▁sake
▁Cra
▁nucle
▁Indonesia
▁selective
▁mum
▁friction
▁pipeline
▁performer
▁Stephen
▁Libya
▁Happ
eval
▁generic
▁echo
▁ventilat
▁dropping
▁belt
▁settlement
▁Thai
▁sanct
▁acoustic
▁activate
GM
▁basement
▁stereo
▁Jordan
▁vivid
graphic
▁separation
▁Nata
▁Laden
▁penis
▁scrap
▁empire
▁titan
▁reactor
▁valve
▁brows
▁CR
▁strict
▁odor
rude
▁digitiz
MS
▁trustworth
▁connectome
▁smil
▁unfair
▁legend
▁constitution
▁MT
▁Business
▁Swa
▁Post
▁Grow
▁whip
▁heroin
cles
ennis
▁stagger
▁endeavor
▁persuade
▁vocabular
▁Berk
▁Suppose
▁cheer
▁beetle
▁nasty
▁Roman
rizon
▁assemble
▁flipp
▁hint
▁tide
13
▁Mean
▁1930
▁Bhutan
▁spare
▁arrange
▁retail
▁pursu
▁fuse
order
▁bann
▁negotiation
▁Goal
▁squeeze
▁harbor
▁reclaim
▁mosque
▁sauce
▁slipp
▁armor
▁replac
▁Cost
▁polite
▁jur
▁vocal
▁toxin
▁explicit
▁bacteri
▁Santa
▁Clinton
▁journalis
▁PC
viv
▁Tunisia
▁disgust
▁incarcerat
▁temple
▁helpless
osphere
▁genomic
▁Ask
▁Earl
▁tourist
▁isolation
▁Norden
▁favela
▁climber
▁consensus
AL
LP
itcoin
▁RNA
▁justify
▁tire
▁Wolf
▁impulse
▁spouse
▁courageous
▁blueprint
▁Commun
▁restrict
bound
▁angel
closure
▁Government
▁petition
▁Milk
▁captain
▁hopeless
▁Catholic
▁therapist
▁couch
▁Opera
▁premise
▁96
▁purple
▁momentum
▁poke
cast
uel
▁schedule
▁holiday
▁Education
saw
▁Light
▁Jupiter
▁exaggerat
▁warp
▁admitted
▁evaporat
proof
▁curl
▁velocit
▁modifi
dad
▁distinction
Col
range
▁helmet
▁surgical
pping
▁elaborate
▁prostitut
▁Fil
pped
▁Probab
▁thus
field
ibbe
▁constrain
▁symbolic
▁turtle
▁abundant
▁similarit
▁funeral
▁mytholog
▁costume
▁transformati
▁crude
▁counsel
corn
▁greet
pago
▁entrance
lah
rhythm
▁drama
▁identit
▁Android
▁snap
▁Johnny
▁Tibet
▁anniversar
▁coordinate
conserv
securit
▁spiral
▁Juli
▁summarize
▁Mexican
▁stereotype
▁revelation
▁thriv
▁Map
▁victor
▁intimacy
▁swarm
▁doom
▁fever
▁Garden
▁irrational
▁disabilit
▁differentiate
▁Elizabeth
▁atmospher
▁innovator
▁optimize
▁fuzz
▁processor
▁guid
▁diarrhea
▁Bern
lium
▁Craig
▁observer
▁Computer
▁conquer
▁deficit
▁Development
▁Atlant
month
dental
▁rigid
▁freeze
▁AK
virus
▁soccer
▁Benjam
▁microbi
▁entitle
▁Nike
istine
▁polariz
▁decent
▁Civil
▁Portug
▁correlation
▁sequenc
▁Syrian
▁lethal
▁cit
▁gluco
angelo
ini
▁mock
▁memorial
▁DR
▁Phila
▁yeast
quality
▁disk
▁MR
▁janitor
▁Interesting
▁guitar
▁vice
profit
reedom
▁Nepal
▁sweep
▁scholarship
skirt
16
▁extensive
▁sexualit
change
▁import
▁overlook
▁astronom
▁spatial
▁Bert
▁reproduction
▁resurrect
▁manifestation
▁convention
▁DVD
qualifie
style
▁practic
▁microscop
▁Consider
▁progression
▁Oo
▁mammoth
▁transit
▁institute
▁firing
▁1.2
▁harsh
▁Sex
▁Uncle
controll
▁historian
▁epiphan
diagnose
▁stimulation
▁Office
▁informal
▁depriv
▁shatter
▁competitor
18
▁prox
▁minimal
▁preced
▁underestimate
▁exceptional
▁trunk
▁pesticide
▁fractal
plat
▁humble
▁hemisphere
▁niece
▁McC
▁straw
▁Machine
▁jungle
▁Somalia
▁prevention
▁Emma
▁commut
▁elevator
▁sulfide
effective
▁zip
▁Natural
▁Columbia
▁obsession
▁visionar
▁mic
▁Hubb
▁accompani
▁fracture
▁celebrat
far
▁capsule
▁nail
▁sympath
onald
▁Austria
openha
▁Maria
▁incomplete
▁horrifi
▁enlighten
▁invitation
▁adolescent
Tech
▁1,500
▁Mumbai
▁silicon
▁spike
fensive
▁famine
▁charter
▁physiolog
▁slam
▁Siberia
▁stadium
▁38
▁48
▁neglect
▁larva
osh
▁opposition
▁confess
▁Food
▁clap
▁skeptical
▁cardiac
▁plea
▁authoritarian
▁Coc
▁reuse
▁25,000
▁integration
▁obsole
▁metabolic
lima
ature
▁contemplat
▁taboo
▁Republic
▁Robot
▁fetus
▁virgin
▁enrich
▁sediment
traumatic
▁tactic
▁intrinsic
▁lobe
▁Show
▁expense
▁melod
▁lucki
▁scarce
▁Step
▁Recent
▁integr
▁brake
▁cholera
invasive
▁replacement
▁characterize
▁assist
▁cooperative
▁JF
▁Sylvi
▁guest
▁Journal
page
▁Line
▁sovereign
▁Alaska
▁Pete
▁Milo
▁celebration
link
▁salar
▁macro
▁Edward
▁TEDster
▁envision
▁cafe
▁pave
▁meditat
▁suspicious
built
▁submersible
▁Sudan
▁duty
▁Climate
▁humbl
▁Namibia
▁adolescence
▁Luc
▁Scientist
▁Rais
▁absurd
▁relativ
million
▁vegetati
▁divine
▁eternal
uite
kyo
▁Nai
spread
▁keen
▁Down
▁simulate
▁Senat
elect
▁erase
▁exquisite
▁insult
▁slogan
▁vaccinate
▁steam
▁Gaz
▁FDA
▁pleasant
▁doubling
▁Buddhis
▁Liberia
▁negotiate
▁progressive
▁towel
risk
fidel
▁Old
▁algae
produc
compatib
▁maneuver
▁hypothes
▁outdoor
▁textile
▁Hospital
▁nonprofit
▁exit
▁misunderst
SI
▁occupation
▁Phil
▁specimen
▁significan
▁unleash
▁zoo
▁oyster
▁dopamine
taircase
▁headache
▁squid
▁UK
▁pessimis
▁incorporate
elphi
▁Mama
▁speculati
▁Kosov
▁leopard
ubert
▁governor
▁comprehensi
▁trail
▁Carne
▁browser
liberation
▁Rub
▁Saturday
▁rust
▁hallway
▁cockroach
▁apologize
▁mindful
▁geological
▁Shakespeare
▁hostile
▁corridor
nonymous
▁Muh
▁embrac
▁ghost
▁anthropologist
course
▁Beatbox
▁reverb
▁Change
▁43
▁dismiss
▁Hindu
▁gigant
▁peel
▁Dick
stein
▁Mathematic
shift
▁Kepler
▁Nav
▁vest
▁Clear
▁cabinet
PA
▁98
▁overlap
▁critic
▁dispers
▁captiv
▁entrepreneuri
▁locomoti
▁triumph
▁lawsuit
▁inflat
▁resilien
▁peripher
▁Cancer
▁monument
▁chess
▁visitor
▁quo
▁Phoenix
ED
▁empowerment
▁fingertip
▁spade
▁skeptic
▁calendar
▁Fifty
▁interrupt
▁pollut
▁asthma
▁Medicine
▁stratospher
▁Laur
▁collar
▁propagand
▁8,000
▁hollow
▁31
▁imperfect
▁Nathan
lept
▁freez
▁feather
▁postcard
▁Bor
▁swamp
▁carrot
▁restriction
▁34
▁disrupti
▁Rica
vascular
▁Yellow
▁Leban
▁opt
AV
▁Arabia
▁Linux
▁metabolism
▁JC
▁prevalence
▁Mola
▁Learn
▁elementary
▁praise
broad
▁hobby
▁midst
▁romance
giv
▁Christopher
▁voyage
▁satisfie
▁racial
ulosi
▁Lago
▁confusion
▁hatch
▁assum
▁digg
▁robb
▁conviction
▁butterfl
▁benign
▁obligation
▁volcan
▁hypothetical
▁shade
▁tolerance
▁Guard
▁Mario
▁grape
▁embodie
▁lump
material
lude
▁gallon
▁Large
orbital
glass
▁Hawk
▁NA
▁bowl
▁flock
▁1.3
▁taxi
▁Bett
▁collaborat
▁vagina
▁Bosnia
airo
▁acute
▁syringe
▁mustache
▁adaptive
▁imperative
▁gross
▁Patient
▁cease
▁Wood
▁Lama
▁antibod
▁flush
▁Daniel
▁pul
▁elbow
▁steep
▁Jones
▁Peru
▁Under
▁52
▁Iraqi
▁bypass
▁bombsight
▁bay
▁perceptual
▁incremental
▁blockchain
▁fraud
CD
▁prosecutor
▁violin
▁terminal
igital
▁erupt
genesis
▁certifi
▁Titanic
▁Swed
oma
▁immerse
colonial
▁rob
worm
▁prototyp
▁ideological
▁bonus
▁affirm
▁dispute
▁southwest
▁unifie
▁46
▁prim
ipping
▁wool
destructive
▁Similar
arriage
▁surrender
▁fluorescent
front
▁Architect
ambia
▁irrelevan
▁inhibit
▁indication
▁crank
▁Ground
▁watt
▁medi
▁Wonder
▁Data
▁cream
▁weakness
▁owe
pulsion
▁buzz
manda
▁controvers
tention
▁Hand
▁Louis
▁slope
▁cocktail
▁hamburger
▁flexibilit
percent
▁prolif
▁130
▁intentional
▁ethanol
Bay
▁Tower
alai
▁flame
▁Movement
▁commoditi
▁module
▁Public
rado
▁encyclopedia
▁statue
▁escalat
litary
▁ancestr
▁64
▁Auto
▁rhino
▁unsee
▁ambulance
▁vanish
▁Small
▁ALS
▁defect
▁indicator
▁Jamaica
walk
▁boost
hhh
▁abstraction
▁cartoonist
100
▁rectangle
▁Alpha
▁Chuck
▁juggl
▁masterpiece
SM
▁inflation
▁mutilat
▁Help
▁gaze
▁Michigan
,200
teem
▁coheren
▁shelve
▁fame
▁logistic
▁legitimate
▁Stay
▁amuse
▁gee
▁synthesi
▁geometric
▁Brit
▁headquarter
▁shepherd
▁candle
▁Golden
▁prophet
▁glove
▁thrust
▁flick
▁Societ
▁puppet
▁Tele
▁grim
▁psyche
▁snapshot
▁devise
▁gamma
▁cylinder
volt
▁equilibr
▁maximize
▁Evan
▁pric
▁intervene
▁folk
▁beef
▁virtu
▁accomplishment
▁portray
▁rott
▁lime
▁pillar
▁embryo
▁fungi
▁hammer
▁fuck
▁alphabet
▁USA
▁claw
▁negotiat
school
▁shap
▁yell
▁deny
▁Thirty
plasma
coli
▁cement
▁traffick
▁Ministr
▁province
plex
▁resemble
▁Gius
▁influen
▁stain
▁correlate
conduct
▁Brazilian
▁western
▁Speci
▁disadvantage
▁parameter
centric
▁iPad
▁Oklahoma
▁Jess
▁pollutant
▁supercomputer
▁checklist
▁guerrilla
▁cybercriminal
▁hung
▁convincing
▁slip
▁140
▁guideline
▁Himalaya
▁fierce
▁Audi
▁visceral
▁Archi
▁Luck
▁Modern
▁cinema
▁catastrophe
laughter
▁grammar
▁atheist
▁SMS
▁Case
▁TEDx
▁nuclei
▁Bio
▁responsibilit
▁beneficia
TO
▁singular
▁gadget
resolution
▁intricate
▁northeast
hip
+
▁retain
large
▁scatter
▁Vinc
craft
▁coca
▁plac
clusion
▁appoint
▁Certain
▁billboard
▁customiz
▁cerebr
▁End
track
▁calculating
sexual
▁choir
minded
▁gait
▁gyr
▁reproductive
▁ladder
▁worship
▁respirator
▁crust
▁miniatur
▁pharmac
▁urgent
▁mixture
▁Environment
▁psychiatr
▁recession
▁enabl
▁audaci
▁philosophical
▁interdependen
▁Doctor
▁minimize
▁evaluate
▁multinational
sustainabl
inister
arliament
▁ramp
▁KA
▁superpower
▁rang
▁lamb
▁conductor
uddin
▁subsequent
▁54
▁modify
▁anxious
banish
castle
▁chaotic
▁OE
▁Beat
▁manipulation
▁seize
▁Walter
cuba
▁communis
▁tuberc
▁Jean
▁repetiti
▁modification
▁arbitrar
▁socio
▁innate
wash
▁radar
▁obscure
▁gym
▁reassur
▁differ
▁timing
▁dug
▁exhilarat
structure
lvin
▁Radio
▁compil
▁sensibl
▁measl
▁certificate
▁dentist
uza
▁missile
▁bulk
process
▁brainstorm
▁sensitivit
▁prevail
▁remov
▁recreate
▁bloom
▁album
▁nanotechnolog
NC
▁versa
▁introvert
▁smash
▁graffiti
▁fog
▁neocort
▁pancrea
▁slaughter
▁mul
▁minor
▁wallet
▁smuggl
sourc
▁chemotherap
▁mash
ficial
▁Bruc
▁deplet
▁Venezuela
▁contagio
▁neurogenesis
▁chick
spel
▁laborator
▁blurr
▁functionalit
▁tilt
frontal
▁flap
▁autist
▁Whitopia
▁Rule
▁CRISPR
▁temptation
▁scroll
▁anesthesi
▁genital
▁psychiatrist
▁devastate
▁Nine
▁Skype
▁deployment
▁rival
▁resonate
naut
▁unnecessar
▁regain
▁Secretary
▁aqua
▁Monday
▁marvelous
▁biosphere
▁haunt
▁dissolve
utheast
bility
▁decentraliz
▁58
▁Rena
ndra
▁revolutionize
▁assault
▁technician
rief
▁humiliat
▁lesbian
▁prejudice
plus
▁Intel
▁rover
▁polymer
▁grind
▁improvise
▁savanna
▁iteration
▁marshmallow
▁Copernic
▁bucket
▁abnormal
▁undergraduate
▁classmate
▁mandate
▁disparit
▁assess
▁generalize
▁bore
▁symphon
▁shield
▁essay
▁Pittsburg
▁adversit
▁execution
▁surplus
▁Pink
▁trad
▁lesion
▁permit
▁cultivate
í
▁Georgia
▁Marine
▁blanket
▁secular
▁restorati
▁gland
=
▁plague
▁facilitate
▁Moham
▁neurological
▁crocodile
EO
▁calv
▁marathon
▁reasonabl
▁autonom
▁Max
▁Indus
▁generator
▁Gall
▁grassland
▁boson
sembl
ctopus
▁compliment
▁veil
▁parliament
NG
▁conspirac
▁Tasmanian
▁plumb
▁Swee
▁Russe
▁Explor
▁eager
▁jealous
▁touris
▁consent
▁Jay
plain
▁Merc
▁Cambodia
▁Danny
▁unimaginabl
▁treasure
▁curtain
▁Service
▁wreck
▁shallow
▁epic
▁chemo
▁monk
▁reconnect
quatic
▁RO
▁unacceptabl
▁wax
▁symbio
▁Know
FL
▁prohibit
▁millisecond
▁wavelength
▁Notice
▁Colombia
▁Falcon
▁2,
▁waist
▁archaeolog
▁pension
▁embark
▁DARPA
▁quantitative
▁viewpoint
▁Colli
▁collide
▁Margar
cientific
▁Ultimate
ithium
utilize
▁Solar
▁Europ
sleep
▁86
▁53
▁strive
▁sermon
▁confusing
▁Self
▁payload
▁Fire
▁prioritize
▁coincidence
hili
▁caregiver
▁Full
▁susceptib
positive
▁ignit
▁cognition
▁Hmm
▁condemn
disciplinar
▁meadow
▁sentiment
▁compensat
government
▁advoca
▁cathedral
▁intimidat
▁tutor
cumen
▁enslav
▁induce
group
▁Ninety
cultural
▁packet
▁halve
▁substitute
▁patholog
▁Emil
▁Magazine
▁synchron
▁industrialize
▁diminish
▁extrovert
▁dissect
▁regenerati
▁salmon
▁submarine
▁testimon
▁Code
▁ballot
▁divergen
ibati
▁Ushahidi
▁calci
▁RIS
▁declin
▁mammograph
▁Bonobo
▁marvel
▁thorough
▁Student
▁Economic
▁Nu
▁immunit
▁mortgage
Mart
sterda
▁CIA
▁Type
▁superior
▁Universe
▁microwave
▁Oregon
▁excerpt
▁advertisement
▁releas
▁Buddha
▁glory
▁vulture
▁Prime
▁Philippi
week
▁sneak
▁Exact
▁anthropolog
▁surge
▁counterpart
▁ruling
▁delicate
ermaid
▁compass
▁vapor
▁sterile
▁feat
▁Living
▁Serious
▁summar
▁astronomical
▁nuance
loved
▁hatred
▁biotechnolog
▁Mahat
▁Forget
▁illiterate
▁Norman
▁Victor
▁persuasi
▁Lock
▁Victorian
abbage
▁Fair
▁Model
▁Darwinian
▁emphasi
▁dwarf
▁graduat
▁orangutan
trophy
massive
▁occupie
▁facult
▁feminin
▁matern
▁migrant
▁epilep
educat
▁Hundred
▁alternat
▁Mount
Barack
▁Stewar
▁hive
nourish
▁curator
Africa
▁Simon
▁globaliz
▁ingenu
ó
▁Nazi
▁exclude
▁complication
▁Depressio
▁Click
nanometer
▁nanoparticle
▁existential
▁criticism
▁Pantheon
▁novelty
piece
▁advent
▁timber
▁stiff
advert
▁invasion
▁unpredictabl
▁battlefield
▁laundr
▁token
_
▁ozone
Gowan
▁mammogram
▁CMU
▁Commission
▁prosecut
communication
▁catastrophic
▁circum
▁sleeve
▁burial
▁dude
▁sec
▁cafeteria
▁disseminat
▁narrat
▁glide
▁Jacque
▁instantaneous
▁immigration
▁vacan
▁Short
▁interfere
lcome
▁accommodate
economic
▁Jefferson
▁premature
▁shave
▁separat
▁verge
▁Electro
▁radiat
▁filament
angular
▁orientation
▁Shake
▁tidy
▁pervasive
▁resort
▁taxpayer
munition
▁kidnappe
▁Though
▁energetic
▁redundan
▁glorious
▁throat
▁patien
confiden
▁Hyper
▁desir
▁abortion
▁template
▁implicit
▁packag
▁comprise
▁resonance
▁migraine
▁improbab
▁rug
market
▁approval
▁resign
fashion
▁relevanc
▁discard
▁Cooper
▁beekeeper
▁simplify
▁paragraph
social
▁hominid
sensitive
▁Empire
▁sync
▁enforce
▁cynic
ndex
▁corp
▁pheromone
▁Roger
▁choreograph
▁jacket
▁Dallas
▁Pixar
▁Balti
▁Drug
▁assessment
ahedron
▁Window
▁Montana
▁hectare
▁Scratch
▁metronome
nterviewer
wandering
▁ballet
▁chalk
▁telecom
▁Control
▁delete
Planet
▁dictate
great
▁Conservati
▁hurricane
▁draft
▁tectonic
▁equator
▁uncertain
▁paradi
▁obey
▁Strange
▁unthink
▁sapien
▁multitask
izzy
▁Sydney
▁irregular
▁spawn
gnostic
deli
▁cosmetic
▁decre
▁excavat
▁splash
mpact
▁Common
▁offshor
▁plunge
▁cheek
▁thunder
▁Saint
▁Klei
▁doctrine
▁Among
▁metropolitan
▁Physic
▁superstar
▁committee
▁synchronize
sumabl
▁anecdote
▁fundrais
▁satisfaction
▁Current
▁firefl
▁juvenile
▁unaware
▁moderate
cycle
▁deteriorat
▁biodegrad
▁pediatric
▁Text
▁squeak
▁Defen
▁semina
▁consultant
▁vector
▁swirl
▁coworker
▁Guinea
▁Beyon
▁ultrasound
▁collage
▁harass
umblebee
▁catalyst
▁refrigerat
▁Desert
▁irrigat
▁vitamin
▁propagat
chille
▁introduc
▁Excuse
public
script
▁activis
▁asphalt
▁wetsuit
counterintuitive
▁responsive
▁Major
▁biomaterial
▁provision
▁sulfur
▁preschool
▁PRI
▁cochlea
▁Nanopatch
▁commodity
▁motorcycle
▁unequal
▁Picasso
▁dictator
▁Teacher
▁Termina
opolis
▁composite
degree
▁rect
▁anomal
▁applaud
▁symboliz
▁speculate
▁optimal
▁tribute
▁plaque
induc
▁cereal
▁Martian
▁hind
▁heartbreak
▁recreation
▁millenni
ophis
▁tumbl
fund
▁improvisation
▁inexpensive
▁algebra
▁pneumo
▁Palestine
▁regulator
▁adjacen
▁turbulen
▁1.4
▁rainbow
▁ambiguit
▁distress
ovember
▁pivot
▁ambassador
▁tinker
AC
▁Jenn
▁radioactiv
▁superhero
▁uh
nutrition
plausibl
▁royal
literate
▁Politic
▁Taiwan
▁Fantastic
▁immersi
▁Virtual
▁recipient
▁warrant
▁Group
▁empirical
▁Dream
▁reckless
▁strap
▁appliance
▁lettuce
▁biofuel
▁altruis
▁Ukrain
▁interrogat
▁intestine
▁turbine
▁manipulat
▁Safe
▁grassroots
▁physiological
▁Veg
withstand
▁mutant
ibera
▁Armstrong
retroviral
▁apparatus
▁Archimed
▁Spider
▁hunch
▁Shoot
▁neurosurge
▁Tamiflu
▁plutocra
▁Everglade
spiring
▁Financial
▁whistleblower
▁inclin
▁Friend
disproportionate
▁headphone
Aid
ahren
▁plume
▁premier
▁conscience
supervis
▁infuse
▁roommate
secure
▁Cameron
▁Massac
▁juni
▁hummingbird
▁pollinator
▁homosexual
▁gorilla
▁servant
▁comedian
present
▁kindergarten
▁withdraw
▁complet
▁convenience
▁Democracy
▁summon
bacc
▁indicat
▁underpin
▁deflect
▁acknowledg
▁Millenni
▁evaluation
▁bureaucrac
▁allocate
▁Broad
▁emulat
▁Netflix
ippi
▁PowerPoint
▁rhetoric
▁vicious
▁notebook
▁catalog
▁Susan
▁Soldier
▁pornograph
▁queue
bucks
▁carcinogen
▁slap
▁swap
▁skyscraper
▁McDonald
▁holistic
▁slot
▁Murray
▁Hungar
▁influenza
▁mundan
▁astonish
▁chord
▁Lawrence
▁unfamiliar
fetch
▁Algeria
▁reflex
▁fibro
▁extremist
▁worn
▁identification
▁vegetarian
▁Discover
▁populat
orporation
polar
▁hurdle
▁monarch
▁Odysse
▁Perfect
▁brute
▁Francis
▁hydrocarbon
fell
▁stagna
different
replicating
▁crochet
▁delegat
▁asylum
▁reprogram
crony
▁bonobo
▁Euro
▁barbershop
▁knob
▁replicator
sanitary
▁capacit
▁superconductor
▁tolerate
▁dictatorship
▁Darfur
▁deconstruct
▁ingenious
▁clitoris
▁sprawl
▁captur
▁saturat
▁Burm
▁patron
▁Psycho
▁plural
▁opponent
▁heartbeat
▁subtract
▁Evolution
▁orchid
▁gossip
▁clich
▁subconscious
culus
▁loom
▁disparate
▁Lanka
▁rigorous
erusal
▁visi
ö
iki
blowing
▁Amazing
▁Sputnik
hrir
▁distill
▁Game
▁feasib
▁Orleans
▁Galile
▁Convention
▁discomfort
▁LGBT
▁repertoire
▁feminis
▁reservoir
▁Essential
▁Progress
▁elastic
▁giraffe
▁patriarch
lateral
credit
▁Village
▁MBA
▁sniff
▁petrol
welve
▁incubator
▁instructor
▁scour
▁electora
▁demonstrat
▁intellect
▁Cuba
▁hike
▁delusion
▁honeybee
▁Enlighten
gatherer
▁primordial
▁homicide
▁paranoi
▁Grace
▁unpleasant
▁detach
▁tyrann
▁bait
partisan
▁utopia
▁ripple
▁sponge
▁Network
▁contradict
▁Cloud
▁socket
▁solemn
▁embryonic
▁photosynthesi
▁calculator
▁extremism
▁aspire
▁carpenter
▁privatiz
▁Understand
mendment
▁prestig
▁congratulat
appropriate
limited
▁courtyard
▁magnify
▁Clau
▁Normal
explored
▁condens
▁reconcile
▁psychopath
▁byproduct
▁underlie
▁unify
▁hawk
▁Abraham
▁anchor
▁omni
▁Survey
▁embed
▁mediocr
rthodox
electrifie
mpulsive
▁blunt
▁mortal
▁reconciliation
driving
▁inquiry
▁twentie
symmetr
▁reception
▁billionaire
▁garment
▁energiz
▁skate
▁ribbon
protect
▁fountain
▁Compare
▁gloom
quarter
▁modular
▁toddler
▁reciproc
▁Laborator
ntelligence
▁eyebrow
▁memorabl
▁traumatiz
terior
▁vase
▁intercept
▁Ardu
▁Point
▁relocate
▁explosive
▁convuls
▁verify
▁attorney
▁lemon
▁effic
fitted
▁reptile
ehind
▁qualify
▁Engineer
▁classifie
▁polish
author
á
species
▁audition
▁Nichol
▁ecsta
▁communal
▁Wilson
▁megacit
▁Innovation
▁Vienn
▁gradient
▁resume
▁bargain
▁balcon
▁Medit
▁precipitat
▁offense
▁Jennifer
▁Parad
▁peanut
▁acquisition
▁diffuse
▁Mahmo
▁hippie
▁levitat
▁seizure
▁constitute
▁remittance
▁SAR
atomic
▁Effect
▁Close
▁Dreyfus
▁seatbelt
▁microRNA
▁seamless
▁whil
▁inferior
▁behav
▁Traditional
hapel
▁Challenge
▁wizard
vantage
▁Visual
▁puzzling
▁cyborg
▁biomedic
▁scandal
▁DIY
▁roam
▁tackl
▁unveil
▁perfume
▁metaboliz
▁Katrina
uestion
▁crumbl
▁numb
feld
▁arithmetic
▁discrete
▁yog
▁brillian
▁latitude
▁prevalen
nowledge
▁Picture
▁intertwin
▁hygien
junction
elusive
▁Oscar
▁complian
▁goddess
▁methodolog
▁charisma
▁indulge
▁landfill
▁husk
clean
▁gecko
▁Cultural
▁retriev
▁quiz
▁mutate
fifth
▁yogurt
▁cursor
urora
▁supplement
healthy
▁Protect
▁insecticide
sufficien
▁pronounce
▁tapestr
▁trawl
▁ovari
▁sabbatical
▁pluripotent
▁Photoshop
▁whiske
▁Midwest
▁Origin
▁ceramic
▁expenditure
▁Hondura
▁diabetic
▁rehearsal
▁hostilit
▁amplify
▁Jaw
▁marble
▁Morocc
belief
▁stockpile
▁hippocamp
entagon
▁tadpole
▁nickname
wesome
▁nudge
▁superintelligen
▁multiplie
terroris
▁rejuvenat
▁vibrant
▁Wednesday
▁sushi
▁Potter
▁slate
▁rupee
▁frugal
▁mangrove
▁transgender
▁Farmer
▁Clap
▁skydiv
people
▁siege
▁cymatic
▁cemeter
▁Anthon
▁exoplanet
▁valu
▁burglar
▁Federal
▁daunt
▁Secret
▁persecut
▁irritat
▁messenger
▁semester
▁discourag
▁retrospect
▁bailout
▁imprison
▁menstruati
▁horrify
▁devastation
▁damag
▁Orchestra
urricane
▁Thursday
▁northwest
▁enlist
typical
▁99.9
▁ellip
▁necessit
mobile
borough
▁astounding
▁cherish
@
▁detergent
▁municipal
▁charg
▁perpetrator
▁evoke
▁practitioner
▁prosthes
▁Blood
correct
▁Plato
▁appetite
▁Language
watch
▁prompt
sound
▁uplift
▁abusi
▁salad
▁seroton
▁Economist
▁reconfigur
▁pepper
▁rumor
▁Hispanic
nitiative
▁precursor
▁Panama
organic
▁plaster
▁notorious
▁vague
carbon
▁daydream
▁pearl
▁Alexandria
machine
▁multiplicati
percussion
argass
▁transcript
▁artisan
▁Bowl
▁Guatemala
▁windmill
▁ATM
▁arrogan
▁virulen
determin
▁shrunk
tockhol
computer
▁papaya
▁congress
▁grizzl
▁Ecuador
▁malignan
▁Douglas
▁balanc
transcenden
▁illustrat
^
ã
▁ignor
▁purchas
▁invisib
ç
▁explod
▁advanc
▁optimiz
fabricat
ü
▁judg
▁financ
▁perceiv
▁Ji
▁estimat
▁escap
è
▁hotte
–
%
ñ
à
ä
ï
ZX
ō
É
ô
QQ
ø
£
*
ā
ê
อร
่
อย
Á
∇
τ
ú
ZZ
”
777
û
ë
\
̊
Č
ē
Ç
¿
ĂŤ
Ō
â
ì
XX
æ
Ö
¢
lz
ć
