<unk>	0
<s>	0
</s>	0
.	-3.04065
,	-3.252
▁bir	-3.85586
▁ve	-4.21631
▁bu	-4.61276
▁	-4.75481
'	-4.89343
n	-5.00035
lar	-5.20366
k	-5.22179
i	-5.23209
▁Bu	-5.23751
▁için	-5.23793
e	-5.3189
a	-5.33501
m	-5.39073
ler	-5.44192
▁da	-5.45557
▁çok	-5.48657
▁Ve	-5.50052
da	-5.5417
▁de	-5.54479
▁daha	-5.60295
?	-5.67048
ları	-5.75246
de	-5.75653
in	-5.79376
▁ki	-5.79851
leri	-5.8165
▁var	-5.83126
la	-5.847
)	-5.87243
:	-5.90303
ya	-5.91878
▁(	-5.92309
r	-5.92981
ı	-5.93773
▁gibi	-5.95233
▁olarak	-5.99573
▁"	-6.00423
t	-6.00902
▁şey	-6.01518
▁""	-6.06313
li	-6.06751
le	-6.1028
si	-6.10312
▁olan	-6.1055
▁o	-6.12994
▁ne	-6.15391
."	-6.21587
▁kadar	-6.22528
ın	-6.25671
s	-6.26895
▁en	-6.28619
ye	-6.28648
dan	-6.29496
den	-6.29678
▁—	-6.31508
nın	-6.31523
▁her	-6.31705
nin	-6.32157
u	-6.35253
y	-6.35542
▁değil	-6.37114
▁ile	-6.38212
an	-6.39729
z	-6.39854
""	-6.42333
di	-6.45772
▁iyi	-6.47338
▁zaman	-6.49844
▁ya	-6.50411
▁olduğunu	-6.51243
sı	-6.53243
ların	-6.53955
▁ama	-6.55642
lı	-6.56457
l	-6.56582
▁sonra	-6.57091
▁büyük	-6.57571
▁Bir	-6.57743
ma	-6.57752
▁bunu	-6.5833
ki	-6.60858
▁nasıl	-6.62403
dir	-6.62816
▁Ama	-6.62851
ta	-6.62955
na	-6.63083
p	-6.63645
yi	-6.65468
-	-6.65847
lerin	-6.67047
▁sadece	-6.695
lik	-6.72918
ş	-6.73294
ne	-6.76258
te	-6.76382
ni	-6.77108
yı	-6.77212
larını	-6.78719
▁çünkü	-6.78968
▁şekilde	-6.80103
en	-6.8019
▁...	-6.81221
dır	-6.81383
▁O	-6.81649
lerini	-6.82239
...	-6.8279
▁iki	-6.84616
▁önce	-6.84724
▁fazla	-6.86742
▁yıl	-6.86961
▁şu	-6.90348
ti	-6.90988
▁yeni	-6.92243
;	-6.92773
me	-6.92852
▁aynı	-6.93659
ü	-6.94674
lık	-6.95838
▁gerçekten	-6.96505
un	-6.96765
▁insan	-6.97521
daki	-6.98611
im	-7.01397
▁benim	-7.0346
▁ben	-7.03821
▁Yani	-7.03916
sa	-7.04285
h	-7.05096
▁Şimdi	-7.05445
▁olduğu	-7.05961
ce	-7.06075
o	-7.06519
▁ilk	-7.07234
▁tüm	-7.07715
ə	-7.08077
lara	-7.08185
▁hakkında	-7.09071
▁diğer	-7.10286
dı	-7.10421
▁farklı	-7.11585
▁başka	-7.12764
▁mi	-7.13187
ca	-7.13995
▁A	-7.14621
▁insanlar	-7.14754
▁ilgili	-7.15376
f	-7.17424
▁kendi	-7.17593
▁yok	-7.17625
▁içinde	-7.18174
▁sahip	-7.1924
.""	-7.20618
▁bunun	-7.20846
ç	-7.21057
ra	-7.21072
▁doğru	-7.21329
▁aslında	-7.21445
du	-7.21623
▁bile	-7.21761
ini	-7.21781
lere	-7.21932
mak	-7.22067
b	-7.22383
▁küçük	-7.22887
▁yer	-7.23627
tan	-7.24792
▁biz	-7.25194
d	-7.25462
ir	-7.26205
um	-7.2689
▁burada	-7.27135
Gülüşmeler	-7.27361
▁an	-7.29208
▁gün	-7.29653
▁veya	-7.30257
▁ise	-7.30553
▁önemli	-7.3337
mi	-7.33644
▁bizim	-7.34033
▁son	-7.3442
se	-7.34504
▁♫	-7.3472
lu	-7.35064
▁eğer	-7.3509
▁biri	-7.35636
▁oldu	-7.36738
▁bana	-7.37585
uz	-7.37635
mek	-7.37666
tı	-7.37839
▁iş	-7.37917
▁tek	-7.3851
il	-7.3912
▁bütün	-7.39589
deki	-7.39714
▁Fakat	-7.4027
ar	-7.40541
▁size	-7.40791
miş	-7.40899
mış	-7.4132
miz	-7.41895
▁geri	-7.42313
▁şeyler	-7.43067
yle	-7.4327
ten	-7.46184
▁göre	-7.47479
▁insanların	-7.47482
▁az	-7.47649
▁Ben	-7.47897
▁hiç	-7.488
▁biraz	-7.48828
nda	-7.49127
yla	-7.49306
ydi	-7.50641
▁karşı	-7.51085
er	-7.51619
re	-7.51999
g	-7.52542
q	-7.5267
ını	-7.52922
▁vardı	-7.53319
dim	-7.53566
▁onu	-7.53703
▁Eğer	-7.54164
ım	-7.54201
nı	-7.54308
▁neden	-7.54311
ır	-7.54372
▁T	-7.54661
v	-7.5562
▁-	-7.55857
larının	-7.56085
ri	-7.56357
▁yüzden	-7.56495
ken	-7.57502
lardan	-7.57772
▁su	-7.57903
sel	-7.58035
▁diye	-7.58628
▁üç	-7.59209
sini	-7.594
▁Bunu	-7.595
larına	-7.60043
▁dünya	-7.60328
lan	-7.60706
▁gerçek	-7.61
nde	-7.61082
tir	-7.61237
▁böyle	-7.61256
ci	-7.6148
▁tam	-7.61589
larda	-7.61631
▁bazı	-7.61883
▁zamanda	-7.62166
▁yapmak	-7.62328
▁üzerinde	-7.62766
iz	-7.63107
▁zor	-7.63652
▁S	-7.6396
▁tarafından	-7.64378
al	-7.64386
▁hareket	-7.64879
lerden	-7.65189
▁şimdi	-7.6539
▁olacak	-7.65393
▁Çünkü	-7.65953
c	-7.66834
ro	-7.66855
▁E	-7.66868
ik	-7.67223
▁tür	-7.67647
▁istiyorum	-7.67788
lama	-7.68419
▁olmak	-7.69167
A	-7.6958
S	-7.69862
ydı	-7.70446
lerine	-7.70509
lerde	-7.70616
acak	-7.70684
el	-7.71049
ıyor	-7.71139
ine	-7.71602
sine	-7.71811
▁İşte	-7.72248
▁yol	-7.72575
niz	-7.72655
▁mı	-7.72809
▁ortaya	-7.72928
maya	-7.73672
▁K	-7.73692
mız	-7.73768
▁al	-7.74075
—	-7.74757
sını	-7.74798
ün	-7.74816
lerinin	-7.74899
▁Çok	-7.74931
▁göz	-7.74968
▁və	-7.75995
▁oldukça	-7.76346
▁bize	-7.76628
larında	-7.7688
▁etmek	-7.77633
at	-7.7781
▁şeyi	-7.7818
▁karar	-7.78435
on	-7.78573
▁güzel	-7.79063
▁birkaç	-7.79167
▁oluyor	-7.79544
▁olabilir	-7.80018
▁uzun	-7.80369
▁bilgi	-7.80698
▁para	-7.81198
▁fakat	-7.81346
ip	-7.81391
▁tekrar	-7.8153
▁C	-7.81542
▁açık	-7.81589
ba	-7.81889
▁onları	-7.81988
▁yani	-7.82046
▁bunlar	-7.82091
▁anda	-7.821
▁Peki	-7.82133
▁beni	-7.82368
ecek	-7.82388
ndan	-7.82501
ve	-7.83262
▁olması	-7.83372
?""	-7.83669
▁Burada	-7.83699
▁kişi	-7.83832
▁çıkar	-7.84267
▁onun	-7.84307
▁at	-7.84485
▁fark	-7.84632
siniz	-7.85107
Alkış	-7.85242
lerle	-7.85316
▁kötü	-7.85648
larla	-7.85691
▁boyunca	-7.85738
st	-7.86079
▁20	-7.86177
▁G	-7.86335
▁Her	-7.86391
▁19	-7.86622
ur	-7.86628
▁p	-7.8673
siz	-7.86756
▁soru	-7.86898
▁hayal	-7.87001
▁Aslında	-7.87863
▁geliyor	-7.8789
▁devam	-7.87998
Alkışlar	-7.88374
cı	-7.88406
▁milyon	-7.88529
▁Ne	-7.88692
et	-7.88947
▁ay	-7.89196
tır	-7.89389
or	-7.89602
▁kat	-7.89707
lü	-7.90272
arak	-7.90826
dik	-7.90958
nun	-7.91419
dım	-7.91834
sin	-7.92088
▁yüzde	-7.92306
abilir	-7.92422
▁Bunun	-7.93369
liği	-7.93576
nız	-7.93734
▁Biz	-7.93782
▁birçok	-7.9383
▁arasında	-7.94078
iyor	-7.94626
▁kaç	-7.94712
▁10	-7.95033
▁yüksek	-7.95069
sına	-7.95142
▁B	-7.96055
▁D	-7.96156
x	-7.96466
tik	-7.96473
▁Daha	-7.96545
ka	-7.96854
sız	-7.96884
va	-7.96985
▁Dünya	-7.96991
▁olur	-7.97213
su	-7.97454
▁onlar	-7.9774
ması	-7.97898
Bu	-7.98019
▁Ancak	-7.98236
▁konu	-7.98829
sal	-7.99764
▁belki	-7.99832
inde	-8.00062
▁mu	-8.00332
▁3	-8.00441
▁gelen	-8.00872
▁tamamen	-8.00981
▁yardım	-8.01091
ıp	-8.01092
▁dedi	-8.01206
ğ	-8.01347
▁ev	-8.01825
▁çalışma	-8.01989
▁aile	-8.01998
▁Ya	-8.02374
▁hiçbir	-8.02377
▁yakın	-8.02619
ına	-8.02677
▁birlikte	-8.02794
▁buna	-8.02874
▁bugün	-8.03132
▁pek	-8.0339
▁el	-8.03837
▁enerji	-8.03881
▁siz	-8.04096
▁bilgisayar	-8.04104
▁harika	-8.04113
▁basit	-8.04259
▁araba	-8.04921
ak	-8.05086
inin	-8.05149
▁parça	-8.05197
▁çocuk	-8.05345
▁fikir	-8.0535
▁Afrika	-8.05545
lo	-8.05944
▁yerine	-8.06316
▁dünyanın	-8.06348
▁öyle	-8.06463
B	-8.06524
▁gereken	-8.06696
Kahkahalar	-8.06812
▁kadın	-8.06837
lardı	-8.07239
▁konuşma	-8.07259
sanız	-8.07738
lerinde	-8.07965
▁teknoloji	-8.08134
ebilir	-8.08172
meye	-8.08471
▁orada	-8.08497
lığı	-8.08661
yu	-8.08746
▁hikaye	-8.09034
▁işte	-8.09301
erek	-8.09974
▁geldi	-8.10056
▁üzerine	-8.10324
▁kız	-8.1033
bi	-8.10343
▁etme	-8.10408
▁şöyle	-8.108
▁durum	-8.10864
lerinden	-8.10877
ıl	-8.10984
ında	-8.11049
▁Evet	-8.11203
▁artık	-8.11309
dur	-8.11703
▁k	-8.1204
▁yüz	-8.12627
larından	-8.12835
sinin	-8.12931
tu	-8.12947
K	-8.13538
▁ederim	-8.1361
▁yapma	-8.13653
lər	-8.14139
▁adam	-8.14314
▁eden	-8.14325
ol	-8.14383
▁sene	-8.14845
də	-8.15156
▁ediyor	-8.15585
▁onların	-8.15905
▁zorunda	-8.15943
▁sorun	-8.16009
▁alan	-8.16076
▁temel	-8.16141
▁Amerika	-8.16502
▁vardır	-8.17148
▁kullan	-8.17435
▁hava	-8.17503
D	-8.17864
sun	-8.17869
▁ara	-8.17994
▁konusunda	-8.1804
▁olma	-8.18194
T	-8.18242
▁hayat	-8.18273
!	-8.18405
▁örnek	-8.18675
▁çoğu	-8.18693
sinde	-8.1874
ha	-8.18843
▁ona	-8.19122
▁Böylece	-8.19182
▁iç	-8.19468
mı	-8.20113
▁Ma	-8.2028
ge	-8.20653
be	-8.20656
▁bizi	-8.20695
▁savaş	-8.20781
gi	-8.20831
▁gelir	-8.20883
▁araştırma	-8.21041
çi	-8.21194
▁süre	-8.21504
▁saat	-8.2156
M	-8.21684
▁tane	-8.21812
sek	-8.21931
min	-8.22636
▁"""	-8.22877
▁ses	-8.22891
▁bilim	-8.22899
▁2	-8.23145
it	-8.23199
▁yaşam	-8.23317
dığı	-8.23374
E	-8.23398
▁Bunlar	-8.2353
▁sonunda	-8.23673
▁ilginç	-8.23702
▁sağ	-8.23763
▁genç	-8.2403
▁yeniden	-8.2421
▁sizin	-8.24356
▁işe	-8.24401
▁yerde	-8.24517
▁özel	-8.25187
ul	-8.25533
w	-8.26003
O	-8.26301
▁ancak	-8.26373
sınız	-8.26455
▁Sonra	-8.26556
▁onlara	-8.26591
▁g	-8.26652
▁yaklaşık	-8.26654
cu	-8.26826
▁sosyal	-8.26875
▁hale	-8.26945
▁veri	-8.27317
▁olmayan	-8.27507
sak	-8.2759
iş	-8.27631
▁hafta	-8.27716
ça	-8.28187
▁dört	-8.28204
dü	-8.28442
lə	-8.28474
▁istediğim	-8.28633
▁Sadece	-8.29145
▁milyar	-8.29289
▁beyin	-8.29357
▁bak	-8.29366
muş	-8.29376
▁dolar	-8.29402
▁elde	-8.29518
▁Ha	-8.29705
imiz	-8.30007
nden	-8.30376
C	-8.30421
▁hem	-8.30919
▁birşey	-8.31081
▁inanılmaz	-8.31191
mizi	-8.31441
▁Şu	-8.31448
to	-8.31504
sunuz	-8.31588
us	-8.31666
ek	-8.31696
▁altında	-8.3174
▁kontrol	-8.31852
▁e	-8.31902
▁ülke	-8.3193
▁eğitim	-8.32161
ür	-8.32231
yan	-8.32388
▁hemen	-8.32729
▁herhangi	-8.32817
ch	-8.3285
sının	-8.32895
▁hala	-8.33105
▁ek	-8.33108
▁hızlı	-8.33199
diği	-8.33363
▁demek	-8.33772
▁söz	-8.33919
▁yolu	-8.34077
▁nokta	-8.34281
▁durumda	-8.34319
▁Teşekkürler	-8.34348
▁çalışan	-8.34412
▁mü	-8.34555
seniz	-8.34731
ter	-8.34793
▁böylece	-8.34966
▁proje	-8.34966
▁edin	-8.35017
ey	-8.3517
dum	-8.35342
▁geç	-8.35371
▁Sa	-8.35378
▁U	-8.35385
▁toplum	-8.35502
dık	-8.35672
▁gerek	-8.35801
▁insanları	-8.3586
▁güç	-8.36002
P	-8.361
▁P	-8.36286
▁dünyada	-8.36291
ız	-8.36418
▁düşünce	-8.36842
▁şeyleri	-8.36897
▁parçası	-8.37054
▁izin	-8.3706
unu	-8.37294
▁inan	-8.37395
▁güçlü	-8.3741
▁kal	-8.38179
▁yaz	-8.38316
▁mümkün	-8.38409
▁benzer	-8.388
▁ta	-8.38842
▁ağ	-8.39082
▁cevap	-8.39171
▁sürü	-8.39289
▁başladı	-8.39867
▁i	-8.39936
▁çevre	-8.40064
▁yapı	-8.40097
çı	-8.40106
▁baş	-8.40121
▁değer	-8.40197
▁En	-8.40358
▁kabul	-8.40714
▁dair	-8.4108
▁in	-8.41327
▁də	-8.41425
▁Benim	-8.41543
ış	-8.41631
zi	-8.41748
▁etti	-8.41758
▁inşa	-8.42242
man	-8.42245
▁kap	-8.42725
▁beş	-8.42813
ının	-8.43046
▁kolay	-8.43217
G	-8.43262
▁ma	-8.43408
▁herkes	-8.43492
▁oyun	-8.43768
▁yine	-8.44112
çe	-8.44272
▁ilişki	-8.44353
larımız	-8.44885
▁hatta	-8.4528
diğimiz	-8.45379
▁I	-8.45615
bir	-8.45655
ünü	-8.45656
tim	-8.45753
▁ç	-8.45777
▁yarat	-8.46077
▁görme	-8.46171
▁te	-8.46434
rken	-8.46471
dığını	-8.46494
▁Size	-8.46596
▁tahmin	-8.46898
bu	-8.46924
luk	-8.46943
mızı	-8.47049
am	-8.47092
iyoruz	-8.47137
▁model	-8.472
▁bağlı	-8.47318
ö	-8.47515
▁hasta	-8.47522
"	-8.47533
▁F	-8.47566
▁olsa	-8.47618
▁şunu	-8.47655
▁gösteriyor	-8.47658
▁et	-8.4767
▁yara	-8.47672
▁İ	-8.47898
▁eski	-8.48065
▁bunları	-8.48257
sında	-8.48386
▁anlama	-8.48419
▁Bugün	-8.48593
▁idi	-8.48738
▁bölge	-8.48844
ay	-8.49154
▁Tamam	-8.49226
es	-8.49227
▁grup	-8.49252
▁göster	-8.4927
▁ver	-8.49285
▁deney	-8.4936
ga	-8.49395
▁f	-8.49524
▁hepsi	-8.49605
▁film	-8.49677
▁derin	-8.49751
Ve	-8.49848
▁ana	-8.49992
ck	-8.50026
diğini	-8.50139
▁De	-8.50455
abiliriz	-8.50561
▁gördüğünüz	-8.50753
▁öğren	-8.50974
▁yaptığı	-8.50986
R	-8.51091
▁New	-8.51169
▁Ka	-8.51393
▁1	-8.51505
▁insanlara	-8.51533
dığımız	-8.51957
▁kısa	-8.52053
▁fotoğraf	-8.52415
▁verme	-8.52455
ıcı	-8.52529
▁ha	-8.52564
ən	-8.52837
1	-8.53019
▁değildir	-8.53129
▁haber	-8.53166
ru	-8.53265
len	-8.53335
▁yanlış	-8.53364
▁bence	-8.5337
▁4	-8.53399
▁araya	-8.53508
leme	-8.53642
▁kez	-8.53998
▁Bence	-8.54119
▁dedim	-8.54331
▁Ba	-8.55045
ımız	-8.55068
▁dakika	-8.55084
▁Hindistan	-8.55144
▁ulaş	-8.5537
▁neredeyse	-8.55553
▁c	-8.55572
▁güven	-8.55953
bo	-8.55977
▁30	-8.56011
mayı	-8.56073
4	-8.56103
5	-8.56152
▁İlk	-8.56334
sın	-8.56442
▁sayı	-8.5652
▁alma	-8.56526
ık	-8.56637
vi	-8.56928
ran	-8.57072
▁Çin	-8.57113
▁olay	-8.57137
▁sizi	-8.57215
▁q	-8.57361
▁problem	-8.57404
▁çıktı	-8.5744
▁tedavi	-8.57743
nu	-8.57782
▁yapmaya	-8.57863
▁derece	-8.58168
▁Onlar	-8.58208
▁gelecek	-8.58445
▁kur	-8.58453
6	-8.58488
▁olduğuna	-8.58503
▁resim	-8.58549
▁özellikle	-8.58604
▁değildi	-8.58645
▁yapan	-8.58895
▁hazır	-8.58944
▁birisi	-8.5902
imi	-8.59026
lerimiz	-8.59031
hi	-8.59143
▁doğa	-8.59206
▁yapıyor	-8.59236
▁gece	-8.59289
▁gerekiyor	-8.59541
▁5	-8.59733
8	-8.59948
▁ölüm	-8.6015
▁Son	-8.60206
▁oda	-8.60236
▁üzere	-8.60412
nizi	-8.60473
▁neler	-8.60504
▁çalış	-8.60552
fe	-8.60585
▁yere	-8.60607
▁TED	-8.60818
▁ifade	-8.60818
mesi	-8.61187
ng	-8.6186
▁kelime	-8.619
za	-8.61907
?"	-8.62091
▁iste	-8.62172
▁ışık	-8.6219
2	-8.62226
▁dikkat	-8.62266
▁olmadığı	-8.62281
▁aç	-8.62309
▁ak	-8.624
▁iletişim	-8.62461
▁yaptığımız	-8.62486
▁düşünün	-8.62517
▁kan	-8.62681
ğe	-8.62855
▁deniz	-8.62866
ed	-8.63173
▁50	-8.63182
▁kim	-8.63205
▁seç	-8.63252
▁bundan	-8.63265
▁sanat	-8.63269
▁getir	-8.63397
▁deneyim	-8.6344
▁verici	-8.63541
▁üst	-8.63742
yız	-8.63853
▁sistem	-8.63976
▁yan	-8.6409
nızı	-8.64191
▁ön	-8.64193
▁beraber	-8.64272
▁ikinci	-8.64277
▁doğal	-8.64308
▁başladım	-8.64315
▁video	-8.64518
7	-8.64563
ah	-8.64567
▁sev	-8.6466
▁kar	-8.64669
muz	-8.6467
▁Ko	-8.64777
▁bağ	-8.64865
▁işi	-8.64878
üz	-8.64967
▁H	-8.65236
▁bakın	-8.65263
▁tasarım	-8.65359
▁kafa	-8.65403
▁yap	-8.65503
▁ka	-8.65535
ılmış	-8.65732
▁olmadığını	-8.65982
üm	-8.66043
▁geniş	-8.66419
▁geçen	-8.66701
▁sistemi	-8.66773
▁Kendi	-8.66789
▁etki	-8.6682
▁kullanarak	-8.67039
▁şeyin	-8.67153
▁yaşında	-8.67202
▁bunların	-8.67291
▁karmaşık	-8.67411
▁çox	-8.67558
▁eder	-8.67629
▁aşağı	-8.67731
▁bırak	-8.67736
▁olduğumuz	-8.68137
▁yoktu	-8.68169
▁kimse	-8.68325
▁biliyor	-8.68425
mişti	-8.68857
▁gen	-8.68962
▁plan	-8.69028
▁gir	-8.69143
▁canlı	-8.69157
▁bin	-8.69218
▁Neden	-8.69223
▁kes	-8.69233
▁15	-8.69259
▁çeşit	-8.69327
liğin	-8.69385
yım	-8.69392
▁sebep	-8.69487
I	-8.69493
▁okul	-8.69503
▁tanım	-8.69568
▁hücre	-8.69584
▁bağlantı	-8.69865
▁arasındaki	-8.69947
▁do	-8.69958
▁sonraki	-8.70169
▁ortak	-8.70174
▁hayvan	-8.70202
dən	-8.70287
▁dil	-8.70292
▁orta	-8.70473
▁100	-8.70541
▁Aynı	-8.70542
ret	-8.70604
▁ihtiyacımız	-8.70624
▁kazan	-8.71034
▁M	-8.71361
▁h	-8.71377
▁uzay	-8.7141
▁çocuklar	-8.71482
yim	-8.71526
▁ekonomi	-8.71531
▁ister	-8.7156
▁Al	-8.71618
layan	-8.71751
▁biliyoruz	-8.71796
▁yaptık	-8.71806
▁değiştir	-8.72083
00	-8.72116
▁anne	-8.72262
▁Ç	-8.72298
ağı	-8.7237
▁kalan	-8.72379
▁geçir	-8.72434
ör	-8.72506
diğim	-8.72714
tü	-8.72772
ül	-8.72982
▁Tüm	-8.72985
▁sağlık	-8.731
▁görüyorsunuz	-8.73114
Kahkaha	-8.733
▁tanı	-8.73326
leşme	-8.73362
▁tut	-8.734
▁J	-8.7346
▁rağmen	-8.73543
▁sebebi	-8.73543
yum	-8.7359
▁paylaş	-8.7369
lanma	-8.7374
▁yapılan	-8.7401
▁insanın	-8.74105
▁ele	-8.74334
▁düşünüyorum	-8.74364
▁görebilirsiniz	-8.74488
▁altı	-8.74503
taki	-8.74529
▁teşekkür	-8.74619
kar	-8.74642
▁program	-8.74672
▁alıp	-8.74718
sinden	-8.74753
acağız	-8.74818
▁bil	-8.74863
▁anlat	-8.74926
▁fikri	-8.74978
▁görmek	-8.75051
tık	-8.75083
▁üçün	-8.75095
▁erkek	-8.75167
ap	-8.75409
▁dolayı	-8.7541
▁risk	-8.7542
ver	-8.75566
meyi	-8.75695
▁destek	-8.75704
▁madde	-8.75726
▁gitme	-8.75791
▁oku	-8.75964
▁bakış	-8.75989
son	-8.76086
▁bas	-8.76155
▁içine	-8.76248
ıyoruz	-8.76264
▁kaldır	-8.76352
▁ders	-8.76408
▁din	-8.76433
lamak	-8.76526
▁küresel	-8.76529
ll	-8.76609
ləri	-8.76612
▁uygulama	-8.76671
dür	-8.76699
üyor	-8.76726
ğa	-8.76731
▁kır	-8.76742
▁internet	-8.76742
▁telefon	-8.7675
▁sıra	-8.76809
▁on	-8.7684
▁nedir	-8.76904
▁dolu	-8.77035
leriyle	-8.77262
▁York	-8.77315
inden	-8.77337
po	-8.77516
▁a	-8.77566
▁olsun	-8.77654
no	-8.77664
abilecek	-8.77874
L	-8.77892
▁adı	-8.78024
▁tamam	-8.78047
is	-8.78066
▁sen	-8.7816
▁b	-8.78257
3	-8.78491
▁mutlu	-8.78543
▁ettim	-8.7858
▁çizgi	-8.7862
ıyorlar	-8.78689
▁asla	-8.78763
mıyor	-8.78796
▁Mo	-8.78899
▁kendini	-8.79045
ici	-8.79073
▁adım	-8.79158
▁yardımcı	-8.79213
iyet	-8.79217
▁kalma	-8.79279
▁düşündüm	-8.79285
acağım	-8.79294
yə	-8.79337
mə	-8.79395
lük	-8.79463
▁me	-8.79507
dığım	-8.79583
ilmiş	-8.79615
▁Belki	-8.79646
▁kuş	-8.79786
fi	-8.79867
▁güneş	-8.79949
▁R	-8.79959
tur	-8.80133
▁başına	-8.80177
▁Avrupa	-8.80239
▁yaşayan	-8.80417
▁Bo	-8.80422
▁şehir	-8.80494
▁koy	-8.80549
N	-8.80561
abiliyor	-8.80666
▁İnsanlar	-8.8074
9	-8.80814
ər	-8.80885
kı	-8.81002
▁etmeye	-8.81102
lanmış	-8.81139
▁çöz	-8.81169
H	-8.81431
duk	-8.81503
▁bazen	-8.81601
▁tak	-8.81737
▁robot	-8.81857
▁değişim	-8.81952
ze	-8.81956
▁olup	-8.8208
▁çal	-8.82081
▁hep	-8.82122
▁yukarı	-8.82237
▁test	-8.82269
İ	-8.82551
▁muhtemelen	-8.82592
▁dur	-8.82615
▁ilgi	-8.82697
▁eş	-8.82732
▁yılında	-8.82795
ton	-8.82848
▁'	-8.82945
▁Büyük	-8.83242
▁hangi	-8.83252
▁hoş	-8.833
▁dışında	-8.83333
▁merak	-8.83432
▁arka	-8.83469
masını	-8.83568
fa	-8.83592
▁içerisinde	-8.83657
▁kısmı	-8.83903
▁orman	-8.83961
▁Ayrıca	-8.83961
▁hepimiz	-8.84051
▁dünyayı	-8.84162
▁Di	-8.8424
.000	-8.84572
▁Su	-8.84634
mıştı	-8.84748
▁ayrıca	-8.8487
▁duy	-8.84989
ber	-8.84992
▁bul	-8.85066
alım	-8.85351
mda	-8.85373
▁engel	-8.85383
miyor	-8.85522
uyor	-8.8557
▁ko	-8.85582
▁çık	-8.85701
larıyla	-8.85747
cə	-8.8579
▁kitap	-8.86178
▁sürekli	-8.86185
▁kesinlikle	-8.86228
ımı	-8.86308
▁yürü	-8.86328
ger	-8.86445
▁geliştir	-8.86547
▁beri	-8.86585
▁Me	-8.86601
▁sık	-8.86641
▁W	-8.86709
san	-8.8675
▁takip	-8.86754
go	-8.868
ğı	-8.86882
▁görüyoruz	-8.86923
▁alanı	-8.87073
▁vermek	-8.8722
▁tabi	-8.87225
abilirsiniz	-8.87348
▁ekonomik	-8.87378
▁düşünme	-8.87382
Bir	-8.87423
abil	-8.87456
▁Li	-8.876
▁sonuç	-8.87645
▁yılda	-8.87706
▁top	-8.8777
▁ciddi	-8.8777
▁almak	-8.8777
▁''	-8.8785
▁olurdu	-8.88093
der	-8.88105
▁Bütün	-8.88191
ebiliriz	-8.88264
▁ba	-8.88467
▁resmi	-8.88486
▁konuda	-8.88569
▁yatırım	-8.88664
▁ayrı	-8.88738
▁büyü	-8.88768
▁gerektiğini	-8.88844
▁Ro	-8.89044
▁gidiyor	-8.89054
▁hayatta	-8.89058
▁binlerce	-8.89114
▁ihtiyaç	-8.89128
▁yazı	-8.8915
▁di	-8.89158
▁uygun	-8.89204
mez	-8.89296
mu	-8.89468
▁gerekli	-8.89537
▁uzak	-8.89756
▁Diğer	-8.89808
▁kas	-8.89863
▁haline	-8.90024
up	-8.90029
▁başarılı	-8.90135
ist	-8.90181
▁iz	-8.90332
▁verir	-8.90386
▁çek	-8.90431
▁İki	-8.90523
şa	-8.90634
▁konuş	-8.90666
▁acı	-8.90815
▁sor	-8.90833
▁ait	-8.91062
▁bi	-8.91103
sə	-8.91149
▁yıldız	-8.91208
▁devlet	-8.91216
▁çözüm	-8.91269
▁yaptı	-8.913
▁nedenle	-8.91326
▁z	-8.91329
ana	-8.91433
▁Bizim	-8.91452
▁Teşekkür	-8.91468
▁düşün	-8.91479
▁olmalı	-8.91537
▁korku	-8.91562
▁hedef	-8.91575
▁seçim	-8.91644
▁bulunan	-8.91712
▁sa	-8.91746
yiz	-8.91952
▁uç	-8.91975
mıza	-8.92053
larımızı	-8.92234
▁se	-8.92304
▁Bil	-8.9233
▁gönder	-8.92364
▁öz	-8.92372
▁arada	-8.92423
▁alır	-8.92439
▁sınır	-8.9261
▁yaptığım	-8.92873
F	-8.92949
▁açı	-8.93071
▁6	-8.93249
▁Yeni	-8.93455
ıyorum	-8.93515
▁as	-8.93756
▁ettik	-8.93816
▁s	-8.93892
▁aşı	-8.93906
▁bilme	-8.93958
▁başladık	-8.94002
▁yemek	-8.94084
▁ediyorum	-8.94166
▁yaptım	-8.94166
▁başarı	-8.94174
▁Buna	-8.94191
▁edecek	-8.94215
▁görüntü	-8.9428
▁belir	-8.94296
▁dünyadaki	-8.94328
▁varsa	-8.94336
▁La	-8.94353
▁lazım	-8.94384
▁makine	-8.94465
▁sınıf	-8.94522
▁yaş	-8.94903
▁verdi	-8.95024
▁asıl	-8.95033
▁söylüyor	-8.95075
▁yanında	-8.95077
▁gidip	-8.95338
▁kadınlar	-8.95404
▁metre	-8.95475
▁Ş	-8.95523
▁40	-8.95717
▁mükemmel	-8.95722
ət	-8.9585
▁defa	-8.95871
▁işaret	-8.95916
teki	-8.96041
▁yalnızca	-8.96169
mo	-8.96197
▁anlamın	-8.96246
▁sayesinde	-8.96496
men	-8.96515
elim	-8.96568
tım	-8.96633
▁silah	-8.96697
▁giy	-8.96968
▁araç	-8.97071
▁şarkı	-8.97079
iyorum	-8.97095
▁yanı	-8.97192
▁ayır	-8.97234
landı	-8.9727
▁başar	-8.97312
▁söyle	-8.97327
ste	-8.97364
▁müzik	-8.97471
▁yöntem	-8.97485
▁söyledi	-8.97618
▁alın	-8.97655
▁der	-8.97656
▁düşük	-8.97872
lerimizi	-8.97931
ktan	-8.97962
sem	-8.98036
ük	-8.98118
eği	-8.98143
▁musunuz	-8.9815
▁bina	-8.98168
▁gerekir	-8.98183
kan	-8.98211
▁zengin	-8.98258
ley	-8.98461
▁yarı	-8.98581
▁zamanlar	-8.98598
▁200	-8.98633
▁DNA	-8.98652
▁olmadan	-8.98673
▁kol	-8.98694
▁tabii	-8.98855
▁yedi	-8.98872
liğe	-8.98892
unun	-8.98957
ama	-8.99163
▁El	-8.99274
▁Bana	-8.99302
iyorlar	-8.99503
▁Co	-8.99627
ot	-8.99738
▁alt	-8.9981
▁mevcut	-8.99849
▁gücü	-8.99893
asyon	-8.99904
▁davranış	-8.99922
ko	-8.9998
ıyordu	-9
ebilirsiniz	-9.00062
▁evet	-9.00201
müş	-9.00221
▁nə	-9.00236
▁dahil	-9.00339
ebilecek	-9.00358
▁çevir	-9.00414
▁muhteşem	-9.00452
▁ince	-9.00519
mde	-9.00573
▁yapar	-9.00871
▁ilaç	-9.00903
▁Gerçekten	-9.01002
as	-9.01071
▁görüş	-9.01149
▁üret	-9.01317
ev	-9.01401
▁dön	-9.01596
▁şeye	-9.01606
▁ö	-9.0163
▁İş	-9.01638
▁ileri	-9.01657
ab	-9.01668
sam	-9.01703
▁kara	-9.01763
yken	-9.01784
maz	-9.0183
▁olduğum	-9.01914
ydu	-9.01925
ıldı	-9.01929
▁oluştur	-9.01959
▁nerede	-9.01984
▁duvar	-9.0208
j	-9.0228
▁veren	-9.02374
tar	-9.02504
▁il	-9.02532
▁gördük	-9.02562
▁düzen	-9.02655
▁sesi	-9.02663
lığın	-9.02679
op	-9.02791
▁biliyorum	-9.02816
▁normal	-9.02874
os	-9.03272
▁yıldır	-9.03445
▁gel	-9.03549
▁başlıyor	-9.03745
▁sinir	-9.03755
▁büyüme	-9.03774
▁Re	-9.03788
▁hata	-9.038
▁ayak	-9.04038
diğiniz	-9.04142
ad	-9.04188
▁kaynak	-9.0425
ing	-9.04494
leyen	-9.04663
▁aldı	-9.04688
▁heyecan	-9.04768
suz	-9.04914
▁alıyor	-9.04919
▁dizi	-9.05079
▁başlar	-9.05141
lıyor	-9.05188
▁gör	-9.05189
▁göstermek	-9.05215
eri	-9.05225
▁çift	-9.05295
▁kullanıl	-9.05325
bil	-9.05341
▁sahibi	-9.05363
▁Orta	-9.05481
▁anlamak	-9.05525
əm	-9.05534
▁görünüyor	-9.05545
▁çocukların	-9.05571
▁18	-9.05629
▁ABD	-9.0563
▁sayfa	-9.05642
malıyız	-9.05678
▁olacağını	-9.05697
▁yayın	-9.05706
lığa	-9.05935
lanan	-9.0602
▁la	-9.06117
mizde	-9.0616
▁7	-9.06162
▁kapı	-9.06395
tor	-9.065
▁bilirsiniz	-9.06512
▁mesaj	-9.06533
eceğim	-9.06563
▁algı	-9.06634
▁yerleştir	-9.06643
▁art	-9.06677
▁tepki	-9.06698
co	-9.06744
▁diyor	-9.0681
▁çalışıyor	-9.0683
▁edil	-9.0694
▁anlamı	-9.07067
per	-9.0716
meliyiz	-9.07195
gu	-9.07267
iniz	-9.07312
▁çıkan	-9.07401
▁veriyor	-9.07451
dikleri	-9.07472
▁şiddet	-9.076
▁fırsat	-9.07685
▁L	-9.07688
▁Da	-9.07729
▁şekli	-9.07746
▁8	-9.0801
▁oyna	-9.08355
▁kimi	-9.08416
ebiliyor	-9.08443
▁mavi	-9.08471
▁ortalama	-9.08542
sen	-9.08633
mamız	-9.08785
▁kişisel	-9.0883
kten	-9.08943
pi	-9.09278
dılar	-9.09279
diler	-9.09294
mızda	-9.09323
▁aracı	-9.09323
▁bulmak	-9.09426
▁12	-9.09519
▁Siz	-9.09579
▁beyaz	-9.09756
▁kanıt	-9.0977
▁şirket	-9.09826
iyle	-9.09893
met	-9.10052
ılan	-9.10096
▁beynin	-9.10187
let	-9.10231
▁emin	-9.10274
▁oluşan	-9.10277
▁9	-9.10284
ından	-9.10415
▁Ta	-9.10454
▁Be	-9.10466
▁arkadaş	-9.10628
▁An	-9.10642
▁kendimi	-9.10752
▁kurtar	-9.10857
▁sağlıyor	-9.10893
▁sol	-9.11017
do	-9.11285
▁re	-9.1144
▁taşı	-9.11556
▁nedeni	-9.11573
▁herkesin	-9.1164
▁olsaydı	-9.11665
,000	-9.1173
th	-9.1173
▁kullanma	-9.11739
▁kamera	-9.11765
▁hastalık	-9.11824
▁oldukları	-9.11834
▁genel	-9.11839
▁sat	-9.1188
em	-9.11901
▁gezegen	-9.11936
▁yavaş	-9.11957
Müzik	-9.11995
sü	-9.12041
▁işlem	-9.12051
id	-9.12225
▁Do	-9.12233
▁ku	-9.12331
▁harca	-9.1242
▁kendisi	-9.12436
▁zaten	-9.12447
mək	-9.12693
▁gider	-9.12743
▁koruma	-9.12812
▁He	-9.12858
▁birinin	-9.12918
▁Tanrı	-9.1304
▁medya	-9.1313
▁buraya	-9.13148
▁işin	-9.13176
▁Ra	-9.13333
▁bulun	-9.13343
▁kanser	-9.13404
▁harita	-9.13737
▁Si	-9.13748
▁sal	-9.13773
▁eşit	-9.13813
▁Ni	-9.13865
▁verdim	-9.14029
▁masa	-9.14031
yo	-9.14046
▁bit	-9.14069
▁tip	-9.14071
meyen	-9.14261
ok	-9.14303
▁yapacak	-9.14481
▁görev	-9.14536
▁bakalım	-9.14548
az	-9.14594
▁pazar	-9.14736
▁tartışma	-9.14919
▁söylemek	-9.14926
mın	-9.15007
lerdi	-9.15119
ği	-9.15149
▁gelişme	-9.15181
▁yapabilir	-9.15195
▁dönem	-9.1522
▁fiziksel	-9.1524
▁Se	-9.15412
▁elektrik	-9.15449
▁fakir	-9.15449
▁henüz	-9.15451
una	-9.15604
▁aldım	-9.15635
▁meydana	-9.15641
▁olursa	-9.15697
▁yerlerde	-9.15764
rt	-9.15803
▁kültür	-9.15865
▁ufak	-9.15918
▁temiz	-9.15939
▁öğrenme	-9.16055
▁Amerikan	-9.1608
▁öğret	-9.16209
▁günde	-9.16266
▁zamanı	-9.16304
▁Başka	-9.16349
▁düz	-9.16361
cü	-9.1641
▁olmaya	-9.16445
▁şeylerden	-9.16449
▁düşünüyor	-9.16612
▁yasa	-9.1665
sh	-9.16705
▁is	-9.16845
sunu	-9.16856
▁karakter	-9.16865
▁yeterli	-9.16865
▁okyanus	-9.16915
diniz	-9.17048
▁kök	-9.17388
▁gelme	-9.17436
▁san	-9.17581
▁icin	-9.17647
▁belli	-9.17721
Ben	-9.17728
▁mücadele	-9.1782
▁temsil	-9.17821
▁cihaz	-9.17823
▁gördüm	-9.17866
▁gelip	-9.17869
▁başla	-9.17873
ren	-9.17901
▁boş	-9.17932
▁aklı	-9.17942
▁uzman	-9.17971
lenme	-9.18015
▁petrol	-9.18061
▁Onun	-9.18121
▁bulma	-9.18125
▁baskı	-9.18151
▁dünyaya	-9.18163
▁Mars	-9.18215
▁yüksel	-9.18239
ysa	-9.18247
▁yaşıyor	-9.18312
Y	-9.18339
▁takım	-9.18385
▁yaşan	-9.18458
▁bazıları	-9.18476
▁oraya	-9.18548
▁yıllık	-9.18548
▁üniversite	-9.18548
tör	-9.18633
▁it	-9.18638
▁Hayat	-9.1869
lenmiş	-9.18868
▁er	-9.189
nü	-9.19016
▁N	-9.19092
▁dışarı	-9.19153
▁yüzey	-9.19203
▁ihtiyacı	-9.1923
▁yiyecek	-9.19372
▁duygu	-9.19401
▁CA	-9.19453
▁tanesi	-9.19518
▁şekil	-9.19581
▁çıkıyor	-9.19647
▁dış	-9.19655
▁sayıda	-9.19767
▁üstünde	-9.19781
▁ilgilen	-9.19868
▁öğrenci	-9.19946
▁derecede	-9.20199
▁söyleme	-9.20225
▁noktada	-9.20247
▁görsel	-9.20315
▁birini	-9.2037
yse	-9.2043
▁buradaki	-9.20496
yen	-9.20608
▁ısı	-9.20657
▁kutu	-9.20758
▁suç	-9.20791
miyorum	-9.20879
▁sanırım	-9.20991
▁hayır	-9.20992
▁Artık	-9.21008
▁mesele	-9.21046
▁içeri	-9.21144
▁ediyoruz	-9.21181
▁Bazı	-9.21204
▁biçimde	-9.21212
▁konusu	-9.21243
▁deneme	-9.21248
▁hak	-9.21262
memiz	-9.21286
▁politika	-9.21349
▁Ar	-9.21432
yor	-9.21634
şi	-9.21653
▁yapıyoruz	-9.21658
Ba	-9.21737
▁halde	-9.21752
▁Google	-9.21988
▁Güney	-9.22
ilen	-9.2214
▁bitki	-9.22184
▁örneğin	-9.22246
▁bakarsanız	-9.22257
▁yarısı	-9.22289
▁götür	-9.22343
▁mən	-9.2243
▁Kuzey	-9.2249
▁bebek	-9.2249
▁yeşil	-9.2249
▁azından	-9.22557
▁Herkes	-9.22571
▁yaşlı	-9.22674
▁gittim	-9.22868
▁yalnız	-9.22916
ydım	-9.22982
▁Pa	-9.23001
▁Və	-9.23078
▁sahne	-9.23242
yü	-9.23259
▁bekle	-9.23306
if	-9.23342
▁Ku	-9.2336
▁yaşama	-9.23369
▁topla	-9.23433
yorum	-9.23471
▁yön	-9.23535
▁kalp	-9.23551
▁Örneğin	-9.23564
▁iklim	-9.23756
▁Birleşi	-9.23765
▁çalışmak	-9.23832
laşma	-9.23933
▁ürün	-9.23943
ho	-9.24043
▁hal	-9.24091
▁çocukları	-9.24292
yoruz	-9.24316
▁hizmet	-9.24385
acağını	-9.24403
luğu	-9.2448
▁tə	-9.2448
▁işler	-9.24484
▁şeylerin	-9.24494
▁Ca	-9.24498
▁ol	-9.24559
▁farkında	-9.24691
▁Mi	-9.24785
▁bar	-9.2479
▁yaratmak	-9.24841
▁gerçekleştir	-9.24862
▁etkileşim	-9.24877
▁biyo	-9.24935
▁dinle	-9.24939
▁dijital	-9.25037
▁edebilir	-9.25049
▁v	-9.25313
▁Ho	-9.25397
▁olacaktır	-9.25613
▁olduklarını	-9.25621
▁zarar	-9.25765
▁gizli	-9.25816
ünün	-9.25964
▁yerel	-9.26024
▁yapılmış	-9.26032
manın	-9.26036
ası	-9.26088
▁u	-9.26122
dıkları	-9.26146
amaz	-9.26189
▁dönüş	-9.26283
▁numara	-9.26336
▁şaşırtıcı	-9.26344
▁kişiler	-9.26403
▁ar	-9.26447
▁uydu	-9.26461
▁aşırı	-9.26602
▁cep	-9.26612
ut	-9.26637
▁balık	-9.26652
▁saniye	-9.26706
▁can	-9.26736
sından	-9.26751
▁biliyorsunuz	-9.26845
▁etkili	-9.26929
▁Gör	-9.26982
▁erkekler	-9.27133
▁olmuş	-9.27155
▁sonucu	-9.27173
mesini	-9.2719
▁kaynağı	-9.27194
▁düş	-9.27271
lemek	-9.27313
▁milyonlarca	-9.27389
▁sabah	-9.27393
▁San	-9.27492
mizin	-9.27493
▁zamanlarda	-9.27529
▁kon	-9.2757
▁kişinin	-9.27638
▁topluluk	-9.27664
lerim	-9.27675
larım	-9.27726
▁ila	-9.27827
larımızın	-9.27929
dığınız	-9.28031
▁ülkeler	-9.28032
▁gördüğümüz	-9.28218
▁edilmiş	-9.28242
miştim	-9.28245
▁Orada	-9.28309
▁gösteren	-9.28427
▁İnsan	-9.28495
▁bitir	-9.28655
▁davran	-9.28705
▁görün	-9.28741
diğinde	-9.28813
▁oran	-9.28886
▁kendine	-9.28902
▁evrim	-9.29004
▁sağlayan	-9.29049
▁istedim	-9.29074
gen	-9.29082
▁em	-9.29107
▁etkisi	-9.29276
▁amacı	-9.29343
siyle	-9.29429
▁verdik	-9.29523
▁açısından	-9.29562
▁bununla	-9.29736
▁çeşitli	-9.29866
▁durumu	-9.29964
▁adında	-9.30103
▁say	-9.30161
▁site	-9.30207
▁ölç	-9.30232
▁yüzünden	-9.30358
▁Hayır	-9.30477
▁insanlarla	-9.3051
▁ilham	-9.30616
▁isteme	-9.3062
▁dans	-9.3067
sıyla	-9.30715
▁istiyor	-9.30806
▁hayvanlar	-9.30908
▁hükümet	-9.31039
▁Mar	-9.31053
▁hatırla	-9.31133
â	-9.31142
▁söylen	-9.31175
▁önünde	-9.31177
▁alet	-9.31275
▁adlandır	-9.31313
ral	-9.3136
▁hayatın	-9.31516
unda	-9.31516
▁gözü	-9.31631
lendir	-9.31724
▁duyu	-9.31835
üs	-9.31859
▁yük	-9.31867
lanıyor	-9.31929
▁teşekkürler	-9.32
lardır	-9.32015
▁olun	-9.32139
▁sanki	-9.32147
▁"(	-9.32202
▁başında	-9.32245
▁hastane	-9.3226
medi	-9.32265
▁kırmızı	-9.32297
leyici	-9.32313
▁fa	-9.32355
af	-9.32419
▁Böyle	-9.32442
ılması	-9.32453
▁arkadaşım	-9.32472
▁yaratıcı	-9.32475
ışı	-9.32519
nızda	-9.32562
üş	-9.32665
▁renk	-9.32684
▁aldık	-9.3278
▁mesela	-9.32817
▁Ev	-9.33016
▁ettiği	-9.33022
▁anlamda	-9.33806
he	-9.33831
▁sayısı	-9.33931
▁Hatta	-9.33939
▁beceri	-9.34015
▁dolaş	-9.34095
▁ekran	-9.34314
▁değilim	-9.34315
▁bilmiyor	-9.34362
▁çarp	-9.3447
tra	-9.34548
▁Yap	-9.34591
▁Sanırım	-9.34788
▁ateş	-9.34832
▁istiyoruz	-9.34861
▁vur	-9.34883
ndeki	-9.34929
▁mal	-9.34964
▁25	-9.34981
ğimiz	-9.35021
▁otur	-9.35053
▁11	-9.35061
▁kullanmak	-9.3514
▁köy	-9.35198
▁rol	-9.35268
▁laboratuvar	-9.35359
▁av	-9.35417
din	-9.35551
▁tercih	-9.35645
▁üçüncü	-9.35668
▁sür	-9.35687
▁teknik	-9.35705
▁yapabiliriz	-9.3575
▁çiz	-9.358
▁dayan	-9.35924
▁ucuz	-9.35933
▁yaptıkları	-9.35944
▁göstereceğim	-9.35989
ildi	-9.36046
mızın	-9.36078
▁oranı	-9.36091
mize	-9.36209
▁çaba	-9.36223
▁dev	-9.36229
▁hücreleri	-9.36288
duğu	-9.36294
eceği	-9.36537
▁kendilerini	-9.36585
▁si	-9.36599
▁geçmiş	-9.36602
ək	-9.36638
▁Ö	-9.36672
yıp	-9.36685
▁hesap	-9.36742
▁anlam	-9.36779
▁Baş	-9.36851
▁dönüştür	-9.369
▁mo	-9.36917
▁önceki	-9.36939
▁karşılaş	-9.36965
▁dalga	-9.36973
▁ye	-9.3698
eceğini	-9.37023
▁Nasıl	-9.37238
ladı	-9.37284
▁amaç	-9.37307
▁veril	-9.37467
▁be	-9.37473
▁yoksa	-9.37558
▁hikâye	-9.37674
▁akıllı	-9.377
▁inanıyorum	-9.37738
▁arı	-9.37751
▁Onu	-9.378
▁getirmek	-9.37821
▁organ	-9.37911
▁karbon	-9.3797
▁merkez	-9.37994
▁don	-9.37995
▁ortada	-9.38079
▁süreç	-9.38184
▁Birkaç	-9.38262
W	-9.3827
▁umut	-9.38291
ınız	-9.38296
▁kesin	-9.38312
▁evren	-9.38373
▁görüyor	-9.38383
▁Batı	-9.38412
▁kuru	-9.38513
mektedir	-9.38578
▁kod	-9.38587
▁duruyor	-9.38595
lerdir	-9.38709
maktadır	-9.38749
▁gerçekte	-9.38784
▁Çocuk	-9.38786
▁bulduk	-9.38847
cılar	-9.38994
▁geçti	-9.39057
▁satın	-9.39124
▁budur	-9.39175
▁üzerinden	-9.39238
▁tutku	-9.39283
▁olduğundan	-9.39317
▁içindeki	-9.39351
▁Ara	-9.39435
▁olmasını	-9.39497
▁adlı	-9.39546
▁tarz	-9.39567
leriniz	-9.39581
eceğiz	-9.39612
lma	-9.3968
muyor	-9.39696
net	-9.39731
▁yapıyorlar	-9.39766
iyorsunuz	-9.39781
▁gaz	-9.39804
▁kor	-9.39864
tri	-9.39925
▁mikro	-9.3999
▁konuşmak	-9.40017
▁söyler	-9.40086
iliyor	-9.40114
▁Mesela	-9.40123
50	-9.40199
▁bilimsel	-9.40211
▁ölçü	-9.40254
▁kural	-9.40254
▁yüzlerce	-9.40346
rak	-9.40393
▁okuma	-9.40475
▁bilir	-9.40482
mer	-9.40533
imizi	-9.40549
arı	-9.40615
▁garip	-9.40647
▁denge	-9.40671
▁seviyorum	-9.40705
laştır	-9.40707
▁uçak	-9.40707
▁günlük	-9.40774
▁dağ	-9.40875
▁Ki	-9.40895
▁katı	-9.40908
▁demokrasi	-9.40948
▁elbette	-9.40948
ku	-9.40959
▁akıl	-9.40996
▁sanatçı	-9.41
V	-9.41028
▁sar	-9.41058
Gülüş	-9.41251
▁karanlık	-9.41254
▁öğretmen	-9.41335
yon	-9.41336
▁senin	-9.41378
▁olanlar	-9.41383
▁teori	-9.41494
▁korkunç	-9.41556
▁eylem	-9.41572
makta	-9.41587
▁herşey	-9.41647
bilme	-9.41692
▁gitmek	-9.41703
şe	-9.41725
▁durdur	-9.41801
om	-9.41808
larınız	-9.41957
▁bilmiyorum	-9.41957
umuz	-9.41961
▁oldum	-9.42045
▁sağlıklı	-9.42053
▁ada	-9.42084
▁katıl	-9.42194
stik	-9.42236
▁yoktur	-9.42251
▁kendimizi	-9.42356
▁sok	-9.42367
▁aşama	-9.42377
nd	-9.4239
▁Hi	-9.42486
▁söylediği	-9.42518
madı	-9.42532
▁tepe	-9.42662
▁giden	-9.42673
▁Devletler	-9.42726
▁kere	-9.4276
▁zeki	-9.42784
▁İkinci	-9.42838
▁işle	-9.42843
imizin	-9.42848
▁çıkma	-9.42856
▁yaratma	-9.42945
uk	-9.43085
▁Dolayısıyla	-9.43089
▁sevgi	-9.43154
▁miyiz	-9.43226
▁tarafta	-9.43249
▁baba	-9.43277
▁nesil	-9.43312
ndaki	-9.4341
▁tur	-9.43614
▁değişik	-9.43627
▁fikirler	-9.43645
ıyorsunuz	-9.43652
▁güvenli	-9.43666
▁açıdan	-9.4371
▁genellikle	-9.43718
▁indir	-9.43739
▁konuşuyor	-9.43756
▁mil	-9.43769
cek	-9.43776
▁kıl	-9.43818
▁eğit	-9.4387
▁na	-9.4396
▁alakalı	-9.44021
▁rakam	-9.44021
▁Hepimiz	-9.44022
▁nereye	-9.44024
▁bunlardan	-9.44078
(	-9.4416
▁sorunu	-9.44177
▁gerektiği	-9.44232
▁rahat	-9.44311
▁geldiği	-9.44314
▁Biraz	-9.44532
iyordu	-9.44535
▁üzerindeki	-9.44567
abilmek	-9.44633
▁açıklama	-9.44669
▁doku	-9.44761
▁buluş	-9.44802
▁tarafı	-9.44871
▁türlü	-9.44875
▁molekül	-9.44923
▁kilo	-9.44997
▁çocuğu	-9.45008
▁taraf	-9.45036
▁Ja	-9.45046
ara	-9.45154
▁yazma	-9.45183
maq	-9.45328
landır	-9.4534
▁gelecekte	-9.45394
▁edilen	-9.45461
▁gösterdi	-9.45466
▁olmayacak	-9.45515
▁tarih	-9.45555
birine	-9.45558
▁gitti	-9.45572
ydim	-9.45588
layıcı	-9.45616
▁anlaşıl	-9.45702
▁tasarla	-9.45853
▁taş	-9.45905
▁rahatsız	-9.45905
▁icat	-9.45912
▁etrafında	-9.4592
▁buldum	-9.45984
▁sey	-9.45986
▁sinyal	-9.45987
▁piyasa	-9.46229
▁geleneksel	-9.46247
▁Sen	-9.46299
▁Ye	-9.46315
▁ortam	-9.46317
lin	-9.46324
▁So	-9.46338
▁belirli	-9.46474
▁sefer	-9.46527
▁yetiştir	-9.46547
▁köpek	-9.46548
▁İnternet	-9.46549
▁verin	-9.46575
▁olduğunda	-9.46664
▁önemlisi	-9.46746
▁cevabı	-9.46869
▁Çoğu	-9.46869
ib	-9.46955
ğim	-9.47025
liğini	-9.47112
▁düşünür	-9.47127
▁ülkede	-9.47148
imin	-9.47163
ırken	-9.472
▁motor	-9.47204
▁ilerleme	-9.47223
kları	-9.4723
▁eve	-9.47261
eş	-9.4728
▁sağladı	-9.47287
▁Onları	-9.47292
▁hakkı	-9.47306
düğü	-9.47379
▁çalışır	-9.47395
nıza	-9.4753
▁deyil	-9.47536
▁yerinde	-9.47594
▁gü	-9.47768
▁kayıt	-9.47839
▁süper	-9.47846
▁yaşa	-9.4786
ımın	-9.47933
▁sorular	-9.47992
ji	-9.48019
ğin	-9.48141
▁Kar	-9.48173
▁başlama	-9.48222
nuz	-9.48223
leştirme	-9.48262
▁tasarımcı	-9.48283
▁istediğimiz	-9.48335
▁kaya	-9.48383
yacağım	-9.48426
▁hayatı	-9.48529
▁sağlamak	-9.48552
▁hissed	-9.48553
▁virüs	-9.48673
ebileceği	-9.48706
▁olmaz	-9.48706
▁boyut	-9.48728
▁hə	-9.48749
▁V	-9.488
▁örneği	-9.48804
▁bilgiyi	-9.48858
▁Kim	-9.48929
▁sonsuz	-9.48989
▁kom	-9.4909
▁sırada	-9.49092
▁hər	-9.49112
▁yaklaş	-9.49151
▁Gerçek	-9.49185
▁anı	-9.49215
▁Hiç	-9.49216
▁aş	-9.49279
ket	-9.49414
▁bizler	-9.49466
▁duyma	-9.4947
▁genetik	-9.49471
▁uğraş	-9.49544
▁Tabii	-9.49576
▁bölüm	-9.4962
▁Jo	-9.49623
▁bulunduğu	-9.49658
▁ediyorlar	-9.49789
▁yağ	-9.49809
▁döndü	-9.49812
▁girdi	-9.49837
▁parmak	-9.49861
▁ikisi	-9.49886
▁dokun	-9.49903
▁park	-9.49906
ans	-9.49952
▁yazılım	-9.50096
▁arama	-9.50096
▁insanı	-9.50136
▁Le	-9.5018
▁ayrıl	-9.50188
▁yapmayı	-9.50204
▁yaparken	-9.5022
ğu	-9.50228
▁dal	-9.5027
▁gösterme	-9.50292
mekte	-9.50312
ılıyor	-9.50326
▁Tek	-9.5033
▁geldiğini	-9.50331
▁yana	-9.50346
oloji	-9.5036
▁dahi	-9.50402
inizi	-9.50411
▁gerçeği	-9.50464
▁sekiz	-9.50468
▁x	-9.50508
liyor	-9.50526
▁kısım	-9.50633
▁anlamaya	-9.50655
▁odaklan	-9.5078
▁ziyaret	-9.50798
▁verimli	-9.50812
▁değiştirmek	-9.50848
▁çalışıyoruz	-9.50936
ss	-9.50973
▁annem	-9.51022
▁dile	-9.51102
▁hâlâ	-9.51134
gün	-9.51138
▁doğu	-9.51203
rat	-9.51288
tal	-9.51297
lt	-9.51341
ster	-9.51347
▁altına	-9.5143
▁kurtul	-9.51503
▁kavram	-9.5155
▁Na	-9.51585
mıştım	-9.51675
▁60	-9.51749
madan	-9.51782
▁öte	-9.51788
▁teşvik	-9.51804
▁Ak	-9.51835
▁yapmamız	-9.51983
▁hastalığı	-9.52017
▁sahibiz	-9.52081
▁çocuğun	-9.52092
nün	-9.521
▁yüzyıl	-9.52109
nik	-9.52139
▁oğlu	-9.52144
▁şehrin	-9.52369
▁ruh	-9.52421
▁siyah	-9.52427
ince	-9.52493
▁süreci	-9.52493
▁izle	-9.52519
ümüz	-9.52586
▁önem	-9.52619
▁politik	-9.52636
▁hız	-9.52643
▁oy	-9.52647
▁sırasında	-9.52681
▁merkezi	-9.52705
▁halinde	-9.52739
▁sessiz	-9.52776
ığı	-9.52821
▁modern	-9.52822
▁yetişkin	-9.52832
▁endişe	-9.52872
▁ortasında	-9.52877
▁ettiğimiz	-9.53018
▁düşünmeye	-9.53058
nə	-9.53082
miştir	-9.53101
▁vücut	-9.53163
▁olağanüstü	-9.53164
▁Burası	-9.53203
▁düşündük	-9.53204
▁16	-9.53365
▁t	-9.53458
işi	-9.53469
▁gittiği	-9.53511
▁gıda	-9.53512
nize	-9.53534
▁davet	-9.53544
▁değiş	-9.53547
▁benziyor	-9.53549
▁Tam	-9.53613
▁hali	-9.53631
▁ter	-9.5368
tür	-9.53712
▁beden	-9.5376
Ne	-9.53831
▁yağmur	-9.53853
▁toprak	-9.53869
▁kü	-9.53879
▁kitabı	-9.54064
▁yeterin	-9.54133
▁ş	-9.54149
▁taşın	-9.54149
▁tecrübe	-9.54193
▁Go	-9.54195
▁geçme	-9.54241
▁Birçok	-9.5427
syon	-9.54412
▁yoğun	-9.54526
▁öldür	-9.54558
▁olmayı	-9.54627
▁yaparak	-9.54688
ry	-9.54704
ram	-9.5471
♫	-9.54718
▁yönlendir	-9.54737
▁sıcak	-9.5488
▁ikna	-9.54897
▁git	-9.55011
▁katkı	-9.55012
▁ışığı	-9.55027
▁mə	-9.55037
Ya	-9.55068
▁Va	-9.55072
▁seviye	-9.55114
▁televizyon	-9.55235
dar	-9.55236
▁yazar	-9.55247
▁çekici	-9.55266
▁yüzü	-9.55268
lıkla	-9.55272
▁gəl	-9.55319
oz	-9.55425
inci	-9.55444
▁Br	-9.5551
▁İnsanların	-9.55597
▁Yüz	-9.55602
▁to	-9.55716
▁demektir	-9.55757
▁olmasına	-9.55804
muştu	-9.55821
acağı	-9.56216
lərin	-9.56236
▁isim	-9.56256
Ama	-9.56412
fer	-9.56449
▁günü	-9.56449
▁ton	-9.56528
▁getirdi	-9.5659
lamaya	-9.56598
▁yaygın	-9.56641
▁polis	-9.56642
▁gemi	-9.56647
▁İyi	-9.56709
hu	-9.56719
▁so	-9.56918
əl	-9.57064
▁bulunma	-9.57078
▁Pekala	-9.57079
▁geriye	-9.57184
▁Y	-9.57205
▁olmamız	-9.57215
▁erken	-9.57302
ırlar	-9.57411
▁man	-9.57508
▁doktor	-9.5753
nizde	-9.57535
▁buz	-9.57595
▁yorum	-9.57616
▁yay	-9.57667
▁edildi	-9.57713
▁saldırı	-9.5774
▁fare	-9.57816
▁noktası	-9.57929
▁edir	-9.57968
lığını	-9.57979
▁sonuçlar	-9.58023
▁Ay	-9.58052
▁görürsünüz	-9.58067
▁strateji	-9.58067
▁zeka	-9.58069
kçe	-9.58085
▁kimyasal	-9.5809
▁görür	-9.58095
sti	-9.5811
▁cam	-9.58114
▁başa	-9.58128
▁Fa	-9.58217
▁çalışıyorum	-9.58221
▁esas	-9.58234
▁modeli	-9.58239
▁soruyu	-9.5824
ılır	-9.58246
▁onunla	-9.58267
▁kendime	-9.5829
▁kalk	-9.58336
▁hücreler	-9.58432
▁sergi	-9.58449
▁araçlar	-9.58474
▁boyutlu	-9.58498
▁ağır	-9.58533
▁No	-9.5859
▁yapıl	-9.58605
▁kadınların	-9.58623
▁parti	-9.58661
▁olduğumu	-9.58676
zer	-9.58681
▁St	-9.58728
▁görül	-9.58731
mle	-9.588
isi	-9.5885
▁olduk	-9.58905
lerimi	-9.5891
▁adet	-9.58938
▁ger	-9.58991
▁John	-9.59151
▁sonrasında	-9.59316
▁hissetme	-9.59316
▁getiriyor	-9.59344
Ha	-9.59385
lerimizin	-9.59422
▁sıfır	-9.59514
▁ayar	-9.59571
▁burda	-9.5961
ld	-9.5972
düm	-9.59776
▁Lo	-9.5982
▁dava	-9.59832
ladık	-9.59834
▁malzeme	-9.59883
▁problemi	-9.59903
ınca	-9.59929
▁kullanıyor	-9.59959
▁bağlan	-9.60064
abileceği	-9.60074
▁hakkındaki	-9.60135
▁yeri	-9.60268
▁nesne	-9.60278
▁telefonu	-9.60339
▁Vi	-9.60377
▁dili	-9.60381
tma	-9.60402
▁belirt	-9.60409
▁Ge	-9.60578
▁gösteri	-9.60595
▁tarihi	-9.60601
▁adını	-9.60608
▁şans	-9.60631
▁şirketler	-9.60633
▁dik	-9.60705
▁arazi	-9.60726
▁birşeyler	-9.60804
masına	-9.60843
ımda	-9.60866
▁işçi	-9.60876
▁ülkelerde	-9.60906
lığına	-9.60924
▁girme	-9.60949
▁Po	-9.6102
▁kapat	-9.61125
malı	-9.61128
▁devre	-9.61213
▁programı	-9.61331
▁tehdit	-9.61352
▁seyahat	-9.61352
kal	-9.61361
▁düşür	-9.61388
▁olduğunuz	-9.61408
tığımız	-9.61472
sidir	-9.61505
mem	-9.61596
▁nöron	-9.61607
0	-9.61614
▁çalışmaya	-9.61661
▁adına	-9.61701
▁pahalı	-9.61724
▁edici	-9.61762
ic	-9.61796
▁yabancı	-9.61812
▁güvenlik	-9.61894
nızın	-9.61939
▁fiyat	-9.61945
!""	-9.61947
lardaki	-9.61977
▁kare	-9.62021
▁miktarda	-9.62095
▁verdiği	-9.621
▁tıpkı	-9.6211
▁beyni	-9.62143
▁mühendis	-9.62143
▁kaybol	-9.62159
▁çalıştığım	-9.62257
▁Demek	-9.62287
▁yıllar	-9.62313
▁benze	-9.62322
▁yet	-9.62333
▁tehlikeli	-9.62355
▁yaklaşım	-9.62395
hane	-9.62445
ğini	-9.62447
▁analiz	-9.6248
▁Hepsi	-9.62496
onu	-9.6253
▁babam	-9.62576
▁hızla	-9.62624
mıştır	-9.62635
▁Mən	-9.62635
aman	-9.6267
gı	-9.62686
lerinizi	-9.62728
▁fabrika	-9.62848
▁Geçen	-9.62848
▁kaldı	-9.62882
dy	-9.62883
▁imkansız	-9.62905
dük	-9.62922
▁suyu	-9.62954
▁azalt	-9.62983
▁genelde	-9.62997
▁yak	-9.63153
▁Doğu	-9.63333
▁eriş	-9.63421
▁kalbi	-9.63425
▁gor	-9.63469
yordu	-9.63505
manız	-9.63534
▁cok	-9.63559
▁Doğru	-9.63604
▁saygı	-9.63617
▁sektör	-9.63628
▁nefes	-9.63665
▁eğlenceli	-9.63669
gel	-9.63747
▁getirme	-9.63809
▁gücünü	-9.63832
layarak	-9.63869
▁anlatmak	-9.63929
▁rüzgar	-9.63984
▁Öyle	-9.64051
▁bildiğimiz	-9.64067
ize	-9.64211
▁fil	-9.6422
▁geçerli	-9.64254
landırma	-9.6431
▁kör	-9.6435
izm	-9.64351
▁muazzam	-9.64366
▁tarım	-9.64394
▁toplam	-9.64397
var	-9.6443
layacak	-9.64444
dığında	-9.64523
menin	-9.64658
▁ondan	-9.64716
tığını	-9.6472
ıyla	-9.64729
▁yaşındaki	-9.64749
▁tasarruf	-9.64749
▁bahçe	-9.64749
▁imkan	-9.64884
▁ağaç	-9.65049
▁yollar	-9.65055
▁gerekiyordu	-9.65085
▁performans	-9.65133
▁çapında	-9.65133
▁bağımlı	-9.65136
▁kay	-9.6514
▁düşünmek	-9.65188
▁Buradaki	-9.65227
tif	-9.65265
▁fazlası	-9.65272
▁dışı	-9.65295
layıp	-9.65329
▁edə	-9.65352
▁ip	-9.65475
▁yapmış	-9.65514
▁akşam	-9.6552
▁Öyleyse	-9.6553
lanır	-9.65584
acaktır	-9.65588
ünde	-9.65629
▁öğrendim	-9.65688
▁bü	-9.65753
▁üretim	-9.65771
▁Chris	-9.65907
▁makale	-9.65908
▁etkin	-9.65967
▁organizma	-9.66002
▁14	-9.66154
leşmiş	-9.66206
▁olmaları	-9.66241
▁önceden	-9.66294
▁olduğumuzu	-9.663
▁kamu	-9.66348
▁azal	-9.66365
▁ederek	-9.6637
▁bilər	-9.66469
▁uğra	-9.66548
▁gördü	-9.6657
▁ettiler	-9.66636
süz	-9.66657
▁işbirliği	-9.66689
▁sağlayacak	-9.66717
▁deri	-9.66718
▁çalıştık	-9.6672
▁bulunuyor	-9.66722
lanması	-9.66732
▁alanda	-9.66841
▁liste	-9.66955
▁artır	-9.67016
emez	-9.67036
▁bisiklet	-9.67079
▁organizasyon	-9.67079
▁kopya	-9.67081
cil	-9.67106
▁ürünü	-9.67176
qu	-9.67205
indeki	-9.67272
cık	-9.67282
▁şehirler	-9.67382
ımızı	-9.67429
▁ilə	-9.67438
▁sokak	-9.67474
meli	-9.67486
▁okula	-9.67492
▁halk	-9.67556
gin	-9.67593
▁burası	-9.67607
mezsiniz	-9.67632
layabilir	-9.67723
20	-9.67729
▁Ri	-9.67756
▁farkına	-9.67759
▁gül	-9.67807
▁sanal	-9.67815
▁kısmını	-9.67894
dınız	-9.67931
duğunu	-9.67941
▁onlarla	-9.67949
öz	-9.68048
▁Beni	-9.68134
gun	-9.68136
▁sana	-9.68203
▁adamı	-9.68211
ttiği	-9.68215
▁neyse	-9.68217
▁elimizde	-9.68283
tme	-9.68339
▁etmiş	-9.68366
▁Bilim	-9.68401
evi	-9.68508
U	-9.68597
▁seks	-9.686
ebileceğimiz	-9.6867
▁karşılaştır	-9.68725
▁uçuş	-9.68734
bar	-9.68766
▁biyolojik	-9.6877
▁bakma	-9.68771
▁Pe	-9.68772
▁alış	-9.68814
▁ardından	-9.68847
▁Sonuç	-9.68858
▁13	-9.689
▁sap	-9.68934
▁qədər	-9.69063
▁reklam	-9.69068
▁mahalle	-9.69136
düğünü	-9.69141
▁bahsed	-9.6915
▁sağlığı	-9.69161
▁tanış	-9.69179
▁bakteri	-9.6923
▁Kız	-9.69237
iği	-9.69269
▁21	-9.69352
▁kaçır	-9.69361
▁mimari	-9.69411
▁müthiş	-9.69465
▁zihni	-9.69465
▁Düşün	-9.69468
▁isteyen	-9.69502
▁sorunları	-9.69557
▁sürdür	-9.69599
▁değişikliği	-9.69599
▁görə	-9.69712
har	-9.69718
▁boya	-9.69759
nüz	-9.69767
J	-9.69814
▁Bazen	-9.69869
▁Tabi	-9.6996
▁salgın	-9.69984
▁kuvvet	-9.70019
▁veriler	-9.70027
▁Kur	-9.70069
▁Dünyanın	-9.70101
▁kurma	-9.70179
▁döv	-9.70273
▁bomba	-9.70274
▁göreceksiniz	-9.70281
▁gelişim	-9.70285
▁almaya	-9.70311
log	-9.70312
▁Yine	-9.70328
ğın	-9.70345
▁arkadaşlarım	-9.7035
▁soğuk	-9.70389
▁öğrenmek	-9.70448
▁olacağı	-9.70466
▁bakıyor	-9.70501
▁özü	-9.70519
▁gö	-9.70536
▁obje	-9.70679
▁tablo	-9.70679
▁kağıt	-9.7068
▁kilometre	-9.70682
▁Güneş	-9.70686
▁ettiğim	-9.7072
▁bireyler	-9.70749
▁net	-9.70799
▁sordu	-9.70895
▁İn	-9.70897
▁yerler	-9.7092
▁verileri	-9.70943
▁çekti	-9.70977
▁başlat	-9.71005
Ç	-9.71028
▁ayı	-9.71035
▁herşeyi	-9.71087
▁vatandaş	-9.71087
▁mesafe	-9.71088
▁ceza	-9.7109
▁kart	-9.71099
▁spor	-9.71123
▁sıkı	-9.71123
▁Mü	-9.71145
▁şeylere	-9.71186
▁çıkart	-9.71191
▁j	-9.71221
▁devrim	-9.71231
▁saç	-9.71272
rek	-9.71304
▁birine	-9.7137
ilmesi	-9.71446
▁diş	-9.71484
▁bağımsız	-9.71498
▁buçuk	-9.71502
▁es	-9.71505
yacak	-9.71536
ilebilir	-9.7157
▁lider	-9.71637
▁17	-9.71692
▁olmadı	-9.71738
ırsınız	-9.71761
▁uyum	-9.71792
▁uyar	-9.71805
leyecek	-9.71826
▁düşündü	-9.71843
larınızı	-9.71862
▁buydu	-9.71866
▁şüphe	-9.7187
▁standart	-9.71909
▁tuhaf	-9.71909
▁benimle	-9.71917
▁bakım	-9.72012
▁As	-9.72019
▁tehlike	-9.72037
▁gözlem	-9.72078
▁benzeri	-9.72118
par	-9.72189
▁çalıştım	-9.72239
▁iddia	-9.72322
▁zayıf	-9.72322
▁çöp	-9.72322
▁makina	-9.72323
▁çatışma	-9.72326
▁gördüğüm	-9.72337
▁ödeme	-9.72337
▁uzan	-9.7234
▁firma	-9.72353
▁teknolojinin	-9.72448
kül	-9.72525
yet	-9.7269
kat	-9.72718
▁seçenek	-9.72737
▁yakıt	-9.72758
larındaki	-9.7285
▁kuruluş	-9.72945
ow	-9.73022
80	-9.73045
▁yeteneği	-9.73154
▁biçim	-9.73173
▁belə	-9.73244
▁km	-9.73267
▁geleceği	-9.73295
▁kum	-9.734
▁To	-9.73402
▁yemeği	-9.73433
▁verilen	-9.73452
▁bakar	-9.73468
▁fayda	-9.73493
▁parçaları	-9.73544
▁sorumlu	-9.73567
▁etrafı	-9.73581
▁görmeye	-9.73602
▁Hasta	-9.73609
Bunu	-9.73662
▁sordum	-9.73674
▁görünen	-9.73758
▁öner	-9.7378
▁ölü	-9.73785
lılar	-9.738
▁geçiş	-9.7388
▁alanlar	-9.7389
▁şeklinde	-9.73899
▁anahtar	-9.73992
▁suyun	-9.7401
abileceğimiz	-9.74016
▁şansı	-9.74021
▁Bazıları	-9.74054
üne	-9.74085
▁kullanımı	-9.74175
▁Bunların	-9.74252
▁par	-9.74268
ində	-9.74283
mayacak	-9.74321
▁arası	-9.74341
▁başı	-9.74355
▁kaybed	-9.74369
▁Sizin	-9.74392
▁doğum	-9.74414
▁nefret	-9.74415
▁banka	-9.74415
▁değiştirme	-9.74416
▁grafik	-9.74418
▁buldu	-9.74453
saydı	-9.745
▁taşıma	-9.74514
▁Adam	-9.74533
▁geçiyor	-9.74583
hal	-9.74633
sizlik	-9.74694
▁gez	-9.74783
▁kullanılan	-9.74787
dunuz	-9.74899
▁kullanıcı	-9.74935
▁yapabilirsiniz	-9.74953
▁miktar	-9.74978
ümü	-9.75099
▁fi	-9.75132
▁uygulan	-9.75148
▁biyoloji	-9.75149
▁çoğunu	-9.75157
▁yönet	-9.75174
▁kanseri	-9.75203
ard	-9.75207
uc	-9.7525
▁İngiltere	-9.75263
▁dergi	-9.75333
▁hesaplama	-9.75349
▁Amerikalı	-9.75359
▁farklılık	-9.75365
▁alanında	-9.75449
lim	-9.75465
likle	-9.75527
▁hepimizin	-9.75624
yecek	-9.75642
▁Ek	-9.75668
Biz	-9.75731
▁sıradan	-9.75746
▁dönme	-9.75819
▁hikayeler	-9.75826
ft	-9.75875
▁değiller	-9.75927
▁his	-9.75956
▁In	-9.7604
▁keşif	-9.7612
▁protein	-9.76123
▁olmanın	-9.76153
▁giriş	-9.76173
▁istediğiniz	-9.7618
▁hissi	-9.76328
▁boy	-9.76352
▁denedi	-9.76373
▁yada	-9.76538
▁sürdürülebilir	-9.76551
▁dediği	-9.76555
▁tutar	-9.7659
▁zorundayız	-9.7664
▁ata	-9.76694
▁not	-9.76731
▁olabileceği	-9.76836
▁dediler	-9.76838
▁bakmak	-9.76851
▁kaza	-9.7689
ebilirim	-9.76963
▁hafif	-9.76984
▁duygusal	-9.77043
▁İngilizce	-9.77058
mıyorum	-9.77115
▁önemlidir	-9.77208
▁gazete	-9.77327
▁sonuçları	-9.77331
üt	-9.77435
▁oluşturuyor	-9.77461
▁geldik	-9.7756
▁sizinle	-9.77585
▁değiliz	-9.77594
ime	-9.77621
bet	-9.77639
▁balığı	-9.77695
▁Asya	-9.777
▁plastik	-9.77856
▁kamp	-9.77857
▁dönüşüm	-9.77899
▁asker	-9.77914
yabilirsiniz	-9.77966
▁bıraktı	-9.77981
▁öğrenciler	-9.7802
larımı	-9.78165
▁eyalet	-9.78294
▁bekliyor	-9.78294
30	-9.783
▁ünlü	-9.78301
.''	-9.78329
gü	-9.78343
▁üstüne	-9.78358
▁yenilik	-9.78456
▁ad	-9.78457
meden	-9.78462
▁isə	-9.78525
▁geliştirme	-9.78581
▁araştır	-9.78601
▁değerli	-9.78622
▁değiştirdi	-9.78622
▁hayatını	-9.78659
,"	-9.78663
▁aktivite	-9.78735
▁komşu	-9.78757
▁etiket	-9.78758
▁evrenin	-9.78775
▁giderek	-9.7879
▁oyuncu	-9.78844
maları	-9.78847
▁yapıldı	-9.78856
▁sorunlar	-9.78857
▁çekil	-9.78875
▁terk	-9.78964
▁maliyet	-9.78974
▁gaye	-9.79031
▁sesleri	-9.79053
▁yönetim	-9.79058
▁Mu	-9.79113
aj	-9.79134
lüğü	-9.79161
lıyoruz	-9.79164
▁Anla	-9.79169
▁yolculuk	-9.79185
▁Dr	-9.79211
▁sevdiğim	-9.79391
▁özgür	-9.79446
▁sağlar	-9.79465
▁yapıyorum	-9.79495
▁matematik	-9.79542
▁niye	-9.7959
▁öğrendik	-9.79613
▁HIV	-9.79621
▁sağlama	-9.79629
ğü	-9.7966
▁patlama	-9.79736
▁kanun	-9.79747
▁şeyden	-9.79766
▁keşfetti	-9.79855
ebilmek	-9.79959
▁sabit	-9.80075
▁köşe	-9.8015
▁saf	-9.80203
▁batı	-9.80286
▁kurum	-9.80346
▁vi	-9.80363
▁ödül	-9.80363
▁sığ	-9.80398
▁tüket	-9.80401
▁ameliyat	-9.80516
▁cesaret	-9.80516
▁maymun	-9.80516
▁Afganistan	-9.80517
▁mekanizma	-9.80519
▁kitle	-9.80523
leyerek	-9.80529
▁Pro	-9.806
ğını	-9.80669
▁yolunu	-9.80695
lerdeki	-9.80709
liler	-9.80731
diklerini	-9.80828
▁delik	-9.8088
▁türü	-9.80885
▁yandan	-9.8093
nizin	-9.80948
▁etmeyi	-9.80953
▁keşfed	-9.81035
▁oluş	-9.81079
▁gelişmiş	-9.81119
▁paylaşmak	-9.81126
▁dağıt	-9.8126
▁Onlara	-9.81289
▁nevi	-9.81291
▁kullandığı	-9.81316
▁hassas	-9.81419
▁toplantı	-9.81421
▁yaptığını	-9.8144
ff	-9.81472
▁İç	-9.81503
▁Küçük	-9.81508
▁toplumun	-9.81513
▁edip	-9.81521
dıklarını	-9.81541
▁hissettiği	-9.81648
▁olanı	-9.81671
niversitesi	-9.81694
▁Hiçbir	-9.81696
▁Ona	-9.81732
▁oyunu	-9.81777
▁servis	-9.81877
▁önümüzde	-9.81882
▁fotoğrafı	-9.8192
▁olabileceğini	-9.8212
▁noktaya	-9.8214
▁Gi	-9.82155
ğr	-9.8216
▁istediği	-9.82216
▁gerçeklik	-9.82225
▁oluşturmak	-9.82241
▁anladı	-9.82244
▁kahraman	-9.8233
▁detay	-9.82331
▁yapay	-9.82367
▁radyo	-9.82402
nca	-9.82409
duğumuz	-9.8245
▁sü	-9.82476
▁etkilen	-9.82485
land	-9.82559
▁fizik	-9.82711
▁24	-9.82718
▁barış	-9.82732
▁açtı	-9.82788
▁ettir	-9.82802
yalım	-9.82808
▁görünür	-9.82832
miyoruz	-9.82846
▁mantıklı	-9.82895
▁çıkardı	-9.82913
▁bulundu	-9.82942
▁olmuştu	-9.82964
▁yarış	-9.83081
▁ülkenin	-9.8315
▁hepsini	-9.83163
seydi	-9.83232
cılık	-9.83247
▁ayakkabı	-9.8325
▁Elbette	-9.8325
▁müşteri	-9.8325
mon	-9.83254
mdan	-9.83336
90	-9.83338
eyim	-9.83346
▁dedik	-9.83368
▁edilme	-9.83619
▁karış	-9.83661
yer	-9.83696
▁uluslararası	-9.83713
▁web	-9.83714
hat	-9.83799
▁tık	-9.8381
▁birinci	-9.8387
▁Pi	-9.83896
▁şeydir	-9.83963
ırdı	-9.83995
▁verecek	-9.84037
▁değişti	-9.84051
ladım	-9.84056
▁Çocuklar	-9.84062
▁Birincisi	-9.84083
▁hepiniz	-9.84125
▁galaksi	-9.84178
▁Gel	-9.84198
▁sarı	-9.84215
▁Man	-9.84223
▁500	-9.84237
▁bulut	-9.84253
lıq	-9.84261
▁Kan	-9.84305
▁besin	-9.84331
▁içer	-9.84332
▁istiyorlar	-9.84421
mis	-9.84468
▁yola	-9.8448
ırız	-9.84535
▁birer	-9.84601
ladığı	-9.84609
▁onlardan	-9.84632
▁Gördüğünüz	-9.84645
▁siyasi	-9.84647
▁adamın	-9.84669
▁çoğunlukla	-9.84713
▁tıp	-9.84796
99	-9.84891
▁yarım	-9.84908
▁filmi	-9.85001
▁yolla	-9.85004
▁inanç	-9.85055
▁böyük	-9.85115
▁hatırlıyorum	-9.85144
▁adalet	-9.85144
▁belge	-9.85162
▁sakl	-9.85239
▁alacak	-9.85242
sey	-9.85287
▁misiniz	-9.85295
luyor	-9.85477
▁geldiğinde	-9.85503
▁kullanır	-9.85529
▁şirketi	-9.85546
▁kemik	-9.85587
▁Sonunda	-9.8562
▁artış	-9.85633
▁edebilirsiniz	-9.8566
▁bax	-9.85682
▁diyorum	-9.85774
▁arzu	-9.85842
▁kullandık	-9.85908
liydi	-9.85943
amazsınız	-9.8598
▁yaşamak	-9.86033
▁başarısız	-9.86049
▁sizlere	-9.86056
ciler	-9.86162
▁olabilecek	-9.86265
lenen	-9.86267
▁koku	-9.86298
liğine	-9.86409
▁fikirleri	-9.86442
▁yönel	-9.86463
▁özellikleri	-9.8648
▁altyapı	-9.86537
▁epey	-9.86537
▁değeri	-9.86537
▁karınca	-9.8656
sk	-9.86608
▁yanıt	-9.86625
▁bilinen	-9.86627
meleri	-9.86631
▁açısı	-9.86676
▁mah	-9.8669
▁kaynakları	-9.86691
▁dek	-9.86708
▁ediyordu	-9.86773
Ş	-9.86936
▁yaptığınız	-9.86962
▁gurur	-9.87015
▁olanak	-9.87034
▁uyan	-9.87098
▁değişiklik	-9.87119
▁bağış	-9.87143
▁olasılık	-9.87177
▁Par	-9.87253
▁anlattı	-9.873
▁oynama	-9.87323
▁sistemin	-9.87335
▁arkadaşları	-9.87378
▁dokuz	-9.87405
▁anlayabil	-9.87415
yseniz	-9.8744
▁fazlasını	-9.87443
esi	-9.87472
▁unut	-9.87475
▁dök	-9.87496
▁dizayn	-9.87497
▁endüstri	-9.87547
▁koş	-9.87555
▁ölme	-9.87564
▁Har	-9.87582
▁düşündüğümüz	-9.87588
▁ötesinde	-9.87605
▁olabil	-9.87637
mayan	-9.87681
▁işleri	-9.87697
▁geçer	-9.87804
▁anlatı	-9.87854
▁nüfus	-9.87914
▁neyin	-9.87925
▁koyar	-9.87926
rik	-9.87976
▁şeker	-9.87984
▁mimar	-9.88071
abilen	-9.88168
▁dost	-9.88175
▁bilmek	-9.88196
▁Or	-9.88206
▁parlak	-9.88251
▁evde	-9.88338
▁potansiyel	-9.88411
▁kalıyor	-9.8848
▁bol	-9.88484
▁öykü	-9.88485
abilirim	-9.88569
▁dikkatli	-9.88675
▁boz	-9.88728
▁duyar	-9.88755
▁öldü	-9.88774
▁olabilirsiniz	-9.88814
▁şa	-9.8889
for	-9.88911
▁gözleri	-9.88921
leşti	-9.88923
▁yeme	-9.88947
lıyız	-9.88949
dışı	-9.8895
▁cümle	-9.88953
leniyor	-9.88954
▁tırman	-9.88955
▁sistemleri	-9.88969
▁kıyı	-9.88969
▁karıştır	-9.88995
▁başladılar	-9.88995
▁uzakta	-9.89
▁düşündüğüm	-9.89013
▁doldur	-9.8912
tığım	-9.89164
▁şuydu	-9.89194
we	-9.89264
▁tutul	-9.89358
▁ismi	-9.89405
▁şifre	-9.89442
▁kapalı	-9.89449
▁dediğimiz	-9.89608
yüz	-9.89615
▁depo	-9.89683
ben	-9.89837
▁insanlardan	-9.89909
▁Londra	-9.89935
▁tespit	-9.89935
▁kanal	-9.90057
▁ölçüde	-9.90083
lke	-9.90142
▁yen	-9.90143
▁tap	-9.90184
▁aşk	-9.90228
▁halka	-9.90242
▁deniyor	-9.9025
▁girişimci	-9.9046
▁gelişmekte	-9.90462
▁aktif	-9.90466
je	-9.90473
umu	-9.90473
▁araçları	-9.90483
Eğer	-9.90561
Evet	-9.90561
▁yaşadığı	-9.90576
▁gerekirse	-9.90594
iyyət	-9.90643
müştü	-9.90654
▁ölçek	-9.90673
▁gittik	-9.90721
▁geliş	-9.90722
▁korumak	-9.90738
▁ters	-9.90837
▁büyüt	-9.90888
▁değişimi	-9.90896
▁Önce	-9.90922
▁kuzey	-9.9093
▁şiir	-9.90931
▁yılı	-9.90933
▁Sp	-9.91115
▁güney	-9.91132
▁yaptılar	-9.91198
lendi	-9.91218
▁pro	-9.91283
▁insana	-9.91297
▁ülkelerin	-9.91359
pat	-9.91374
▁bitkiler	-9.91376
▁cinsiyet	-9.91434
▁taban	-9.91447
▁önüne	-9.9145
▁atom	-9.91514
▁ən	-9.91542
▁am	-9.91576
▁Harika	-9.91584
▁toplu	-9.91588
▁tel	-9.91623
sünü	-9.91638
▁sil	-9.91638
likten	-9.91658
▁inceleme	-9.91688
▁arkasında	-9.91729
▁yüzyılda	-9.91749
▁çekme	-9.91843
▁bölümü	-9.91914
▁nükleer	-9.9193
▁yargı	-9.91931
▁vaka	-9.91935
▁şekillendir	-9.91969
▁tarafında	-9.92064
▁ediliyor	-9.92129
ımızın	-9.92135
▁hayata	-9.92176
▁içi	-9.92212
▁yılın	-9.92262
▁inanma	-9.92263
▁seçme	-9.92269
▁karşısında	-9.92331
▁cinsel	-9.92457
▁çalıştığımız	-9.92481
▁sonu	-9.92512
▁sır	-9.92559
▁robotlar	-9.92568
▁Kral	-9.92581
▁kullanıyoruz	-9.92614
mden	-9.92674
▁kok	-9.92699
▁deli	-9.92708
▁yapacağım	-9.92784
▁durma	-9.92843
▁İngiliz	-9.92856
▁Bunları	-9.92902
▁böl	-9.92937
▁lütfen	-9.92943
▁ticaret	-9.92943
▁bahsetmek	-9.93003
▁istedik	-9.93043
▁nereden	-9.931
▁görevi	-9.93116
▁kaba	-9.9312
▁isterim	-9.93255
▁olmaktan	-9.9334
ladığımız	-9.93366
ğım	-9.93394
▁girişim	-9.93404
▁düzey	-9.9341
lari	-9.93439
▁kablo	-9.93441
▁çiçek	-9.93453
▁Bilirsiniz	-9.93453
▁kulak	-9.9346
art	-9.93494
▁çıkarmak	-9.93532
▁Bununla	-9.9358
▁günün	-9.93595
▁tıbbi	-9.93599
▁ihtiyacınız	-9.93615
▁grubu	-9.93644
▁oto	-9.93719
▁Hadi	-9.9374
▁Hu	-9.93748
▁doğrudan	-9.93756
▁sürece	-9.93791
▁adamları	-9.93802
ebilen	-9.93876
▁üstün	-9.9391
altı	-9.93914
▁taklit	-9.93968
▁araştırmacı	-9.94015
▁açıkça	-9.94035
▁yaşamın	-9.9405
▁Ses	-9.94118
▁değişme	-9.94136
▁kriz	-9.94197
▁bulur	-9.94214
▁Onların	-9.94285
▁çalıştır	-9.94323
▁harf	-9.94327
▁çılgın	-9.94402
▁kaybetti	-9.9443
▁istedi	-9.94452
gan	-9.94476
▁konferans	-9.94481
▁kütle	-9.94482
▁işletme	-9.94499
▁gittikçe	-9.94516
▁tüken	-9.94524
▁arttır	-9.94555
örü	-9.94631
▁yaşıyoruz	-9.94669
cik	-9.94707
and	-9.94732
▁Yo	-9.94814
▁gay	-9.94876
▁David	-9.94999
▁dönüp	-9.95
▁Afrikalı	-9.95017
▁Okul	-9.95037
▁mutluluk	-9.95069
Video	-9.95174
▁birbirleri	-9.9518
▁diyoruz	-9.95188
▁edebil	-9.95191
imde	-9.95261
mıyoruz	-9.95268
malısınız	-9.95296
mayın	-9.95312
leştirmek	-9.95417
▁konum	-9.95472
▁daire	-9.95509
▁gelmiş	-9.95509
▁300	-9.95533
asyonu	-9.95541
▁Car	-9.95558
▁edeceği	-9.95591
▁hayatımı	-9.95698
▁gördüğü	-9.95698
▁At	-9.95731
▁Göz	-9.95748
▁vermeye	-9.95783
▁Aile	-9.9582
▁kullandığımız	-9.9585
▁alanları	-9.95905
lenmesi	-9.95912
kür	-9.95916
▁seni	-9.96009
▁teknolojiyi	-9.96027
▁işim	-9.96033
▁marka	-9.96044
▁komik	-9.96127
▁anlamıyla	-9.96195
▁kullanım	-9.96214
▁yansıt	-9.96223
▁yaratıyor	-9.96285
▁suçlu	-9.96286
▁şimdiye	-9.96358
luğa	-9.96359
▁Mil	-9.965
▁sorunun	-9.96502
▁bo	-9.96517
▁çök	-9.96563
▁Teknoloji	-9.9657
▁sembol	-9.96585
ly	-9.96598
▁haklı	-9.96637
▁kurtarma	-9.96643
▁edebiliriz	-9.96676
Ö	-9.96741
layın	-9.9678
▁baktığı	-9.96864
▁musun	-9.96866
▁eğilim	-9.9687
baş	-9.96917
▁ez	-9.9694
form	-9.96993
▁eğitimi	-9.97005
▁ulus	-9.97025
▁dürüst	-9.97099
▁yaxşı	-9.97099
▁rapor	-9.97099
▁sandalye	-9.97099
▁yapabileceği	-9.97132
▁1.	-9.97167
▁Gün	-9.97206
▁bakarak	-9.9734
iyordum	-9.97381
▁sö	-9.97554
▁resimler	-9.97591
▁kişiye	-9.9763
▁hakları	-9.97631
▁mağara	-9.97632
lerindeki	-9.97634
▁yarar	-9.97771
likte	-9.9785
▁isti	-9.97902
▁çağ	-9.97985
▁gösterir	-9.98025
▁yolda	-9.9804
▁önemi	-9.98046
▁karşılık	-9.98087
▁şeydi	-9.98099
▁aktar	-9.98142
▁cerrah	-9.98166
▁tuvalet	-9.98166
▁sermaye	-9.98166
▁düzenleme	-9.98183
lendirme	-9.98198
▁gruplar	-9.98331
▁anlaşma	-9.98335
▁denen	-9.98338
▁bakıp	-9.98348
ümüzü	-9.98368
▁çalıştığı	-9.98383
acağımız	-9.98388
▁kıta	-9.98423
▁yerden	-9.98458
▁yapılması	-9.98474
▁sevme	-9.98514
▁gerçekleş	-9.9853
unuz	-9.98536
▁yapabil	-9.98567
▁ihtimalle	-9.98623
▁dolarlık	-9.98691
▁balina	-9.98707
▁ekibi	-9.98715
▁degil	-9.9874
▁görüyorum	-9.98834
▁ala	-9.98854
larsa	-9.98855
▁vücudun	-9.98878
irken	-9.98931
ğında	-9.9894
▁bilgileri	-9.99018
▁Bize	-9.99153
▁değişiklikler	-9.99168
lerse	-9.99181
▁ağacı	-9.99245
▁Eski	-9.99247
▁sayede	-9.99249
▁karışık	-9.99268
▁savunma	-9.99371
▁bayan	-9.99407
yordum	-9.99422
ayım	-9.99447
▁katman	-9.99448
▁bulmaya	-9.99567
yorlar	-9.99596
▁çalışmaları	-9.99598
riz	-9.99615
str	-9.99676
▁ola	-9.9974
▁ücret	-9.99748
▁berbat	-9.99788
▁yavru	-9.99788
▁yönetici	-9.99808
▁ordu	-9.99811
▁sorma	-9.99848
▁Sağ	-9.99864
▁çıkıp	-9.99892
od	-9.99912
▁düşünüyoruz	-9.99935
ecektir	-9.99962
Sen	-9.99963
arım	-10.0001
▁80	-10.0001
▁özelliği	-10.0006
▁maliyeti	-10.0011
▁başlangıç	-10.0012
▁he	-10.0013
gar	-10.0015
▁soy	-10.0016
▁kurmak	-10.0016
▁hikayesi	-10.002
▁düşünül	-10.0021
▁istemiyor	-10.0026
▁kullanan	-10.0031
▁pencere	-10.0033
▁serbest	-10.0033
çüncü	-10.0033
▁Der	-10.0036
▁Sol	-10.0036
▁yox	-10.0036
mesine	-10.0038
▁lise	-10.0042
▁kıs	-10.0042
▁ulaşmak	-10.0055
▁dışarıda	-10.0062
▁uygula	-10.0065
meyecek	-10.0065
▁harcama	-10.007
▁haberler	-10.0071
ham	-10.0071
lərdə	-10.0077
▁İsrail	-10.0088
▁Söyle	-10.0088
▁kimya	-10.0092
▁yürüt	-10.0092
▁Irak	-10.0093
▁olamaz	-10.0093
▁kendinizi	-10.0096
ner	-10.0098
▁necə	-10.0102
▁edersiniz	-10.0103
▁balon	-10.0108
▁Hava	-10.0109
ras	-10.011
▁kardeş	-10.0111
▁atık	-10.0114
▁yeti	-10.0114
▁şanslı	-10.0124
▁Fe	-10.013
▁Ju	-10.0134
ark	-10.0139
▁kurdu	-10.0141
▁hukuk	-10.0144
▁söyleyebilir	-10.0144
▁olaraq	-10.0144
aca	-10.0149
▁yönde	-10.015
▁evrensel	-10.0153
▁kültürel	-10.0154
▁ser	-10.0158
▁2000	-10.0159
▁ulaşma	-10.0161
▁hareketi	-10.0164
▁yerlere	-10.0166
▁arkadaşı	-10.0171
▁hissediyor	-10.0174
▁kendilerine	-10.0178
▁olursak	-10.018
▁sert	-10.0182
▁kesim	-10.0184
cak	-10.0184
ilir	-10.019
▁etmək	-10.0191
▁baz	-10.0199
▁rekabet	-10.0199
▁kampanya	-10.0199
abileceğiniz	-10.0205
▁kayıp	-10.0207
▁söylediğim	-10.0213
▁başlayan	-10.0215
▁oluşturma	-10.0223
▁ihtiyacım	-10.0231
▁çağır	-10.0234
▁olayı	-10.0234
▁şaşır	-10.0236
▁kelimeler	-10.024
▁ıs	-10.0243
▁İkincisi	-10.0245
2'	-10.0251
▁bozul	-10.0253
▁ticari	-10.0255
▁Güzel	-10.0255
▁başlangıcı	-10.0255
▁sivil	-10.0255
▁olacaktı	-10.0261
▁koyuyor	-10.0264
▁çizim	-10.0266
▁kurallar	-10.0267
▁miydi	-10.028
▁kenar	-10.0296
▁seri	-10.0298
▁gözüküyor	-10.0311
▁Tekrar	-10.0311
▁şefkat	-10.0312
▁beklenti	-10.0312
▁çalıştığını	-10.0312
abildiği	-10.0312
▁roman	-10.0313
▁kedi	-10.0314
▁besle	-10.0318
▁yöne	-10.0323
yarak	-10.0324
▁ihtiyaçları	-10.0334
▁uyu	-10.0337
▁aldığı	-10.0337
Şimdi	-10.0338
▁ürünleri	-10.0345
▁çalışmalar	-10.0347
▁benden	-10.035
▁elinde	-10.0354
▁olmaması	-10.0357
▁Top	-10.0357
uğu	-10.036
▁eser	-10.0361
▁zevk	-10.0368
▁görünüş	-10.037
▁istə	-10.0372
▁fikrini	-10.0372
duğunuz	-10.0396
diğinizde	-10.0399
▁yerini	-10.0407
▁düşman	-10.0417
▁tavsiye	-10.0424
▁kredi	-10.0425
Neden	-10.0426
▁dayalı	-10.0428
▁çək	-10.0429
▁boşluk	-10.043
▁istiyorsanız	-10.0431
▁ulusal	-10.0434
▁yaka	-10.0438
▁döner	-10.0438
▁tartış	-10.0439
mekten	-10.0441
▁Wal	-10.0442
▁şehri	-10.0443
Hayır	-10.0452
▁olmanız	-10.0454
▁Şöyle	-10.0454
▁çalışması	-10.0456
ser	-10.0457
ksiyon	-10.0459
▁diy	-10.0472
▁endişelen	-10.0473
▁tasarımı	-10.0478
▁karşıya	-10.0479
▁oksijen	-10.0482
▁mercan	-10.0482
▁memnun	-10.0482
▁tanıma	-10.0487
▁gibiydi	-10.0488
▁oynay	-10.049
▁yaptır	-10.0496
▁görüşme	-10.0498
ysanız	-10.0509
▁yetki	-10.0509
dığınızda	-10.0516
▁günümüzde	-10.0521
▁tanımlama	-10.0524
▁merkezinde	-10.0524
▁Bar	-10.0529
▁dünyasında	-10.0532
▁ah	-10.0535
▁bildiği	-10.0538
▁Brezilya	-10.0539
▁gürültü	-10.0539
▁Facebook	-10.0539
▁talep	-10.0539
▁birleştir	-10.054
meniz	-10.0544
▁Sanat	-10.0548
bur	-10.055
▁kurul	-10.0552
▁alabilir	-10.0558
▁nadir	-10.0568
▁bahset	-10.0571
ecekler	-10.0574
▁krizi	-10.0575
eceğiniz	-10.0576
▁alabil	-10.0577
▁engelli	-10.0577
▁koyma	-10.0579
▁dişi	-10.0593
▁ibaret	-10.0597
▁gönüllü	-10.0597
▁tanrı	-10.0597
▁sıvı	-10.0598
▁anlatıyor	-10.06
▁heç	-10.0605
▁kimin	-10.0609
▁misin	-10.0609
olojik	-10.061
▁edi	-10.0611
sıdır	-10.0613
▁değerlendir	-10.0614
leyin	-10.0619
▁eminim	-10.0621
əcək	-10.0624
larımıza	-10.0627
▁ettiğini	-10.0627
▁edilebilir	-10.0636
▁etmemiz	-10.0638
bel	-10.0642
▁sahiptir	-10.0647
▁mekan	-10.0655
▁zorluk	-10.0655
▁Araştırma	-10.0655
▁bileşen	-10.0657
▁yazık	-10.0668
lidir	-10.0669
▁gelebilir	-10.067
▁yetiş	-10.0672
▁duyuyor	-10.0673
▁toplumsal	-10.0674
▁herkese	-10.0675
melisiniz	-10.0677
▁türden	-10.0683
▁yoluyla	-10.0687
irler	-10.0689
▁domuz	-10.0694
▁askeri	-10.0707
▁toplama	-10.0709
▁bekleme	-10.071
▁yöntemi	-10.071
▁kazandı	-10.0712
▁kahve	-10.0714
▁calis	-10.0714
▁Açık	-10.0714
▁olduğunuzu	-10.0714
res	-10.0719
▁bal	-10.0723
▁başladığı	-10.0734
▁gökyüzü	-10.0738
▁yetenek	-10.0738
▁kuralları	-10.0749
tılar	-10.075
▁çıkış	-10.075
▁altın	-10.0759
▁buluyor	-10.0763
bri	-10.077
▁oluşturan	-10.077
▁Bilgisayar	-10.0772
▁kıyafet	-10.0772
▁yumurta	-10.0772
▁imza	-10.0773
▁elektronik	-10.0776
▁meydan	-10.0783
▁isterseniz	-10.0785
▁üretme	-10.0786
8'	-10.0786
abilirler	-10.0789
0.000	-10.0792
▁Kal	-10.0797
▁Dan	-10.0799
▁edebiliyor	-10.0801
▁yarattığı	-10.0807
▁acil	-10.0808
▁Geri	-10.0809
öv	-10.0814
kti	-10.0822
ədə	-10.083
▁deneyimi	-10.0831
▁materyal	-10.0832
▁müdahale	-10.0832
▁bütçe	-10.0832
▁fonksiyon	-10.0832
▁yalan	-10.0835
▁durumunda	-10.0837
▁dönüyor	-10.0837
▁atmosfer	-10.0838
▁çoğunluğu	-10.0838
▁hissettir	-10.084
▁diğeri	-10.084
▁müze	-10.0841
▁gerekti	-10.0843
▁kadının	-10.0844
▁görüşü	-10.0851
▁aksine	-10.0852
▁Pek	-10.0852
▁tas	-10.0856
▁Fi	-10.0858
▁ofis	-10.086
▁tarzı	-10.0868
▁sağlam	-10.0877
▁takdir	-10.088
▁hafıza	-10.0891
▁trilyon	-10.0891
▁Yaklaşı	-10.0891
▁bebeği	-10.0891
▁dəyiş	-10.0891
▁oluşuyor	-10.0893
▁mantar	-10.0893
▁çöl	-10.0894
▁ağı	-10.0902
▁oluşturur	-10.0905
11	-10.0905
▁Kenya	-10.0916
▁yapabiliyor	-10.0924
▁bırakma	-10.0928
ker	-10.0929
ırsanız	-10.0934
▁oranda	-10.094
istan	-10.0945
▁Ol	-10.0947
▁istatistik	-10.0951
▁faktör	-10.0952
▁dönüştü	-10.0952
ja	-10.0962
▁şah	-10.0962
leyebilir	-10.0964
▁kimsenin	-10.0967
▁Sağlık	-10.0967
ent	-10.097
▁Almanya	-10.0972
▁doğdu	-10.0972
▁yakından	-10.0982
▁Wi	-10.0983
landığı	-10.0988
▁koruy	-10.0989
▁alarak	-10.0991
erken	-10.0992
▁hastalıklar	-10.0992
▁heyecanlı	-10.0998
▁aşağıya	-10.1003
eceksiniz	-10.1005
▁dolara	-10.1011
▁manzara	-10.1011
▁sıtma	-10.1012
▁edilmesi	-10.1014
▁bilinç	-10.1017
amayacak	-10.1018
▁ilaçlar	-10.1018
▁edebilme	-10.102
▁şudur	-10.1025
▁sistemler	-10.1026
▁Kimse	-10.1026
▁özgü	-10.1028
▁Japonya	-10.1029
▁tren	-10.1031
▁şe	-10.1032
▁Bakın	-10.1036
▁bilgisayarlar	-10.1037
▁olmasının	-10.1041
▁imkanı	-10.1042
▁dönemde	-10.1042
▁paylaşma	-10.1048
ınızı	-10.105
▁yansı	-10.1051
▁durumun	-10.1056
▁etmesi	-10.1063
▁peki	-10.1064
▁öğretti	-10.1064
acaksınız	-10.1068
▁kendisini	-10.1071
▁paket	-10.1072
▁örnekler	-10.1074
▁deyişle	-10.1074
▁çocuklara	-10.1093
▁70	-10.1094
▁ederken	-10.1094
▁tesis	-10.11
▁böcek	-10.1111
▁uy	-10.1112
▁yıldan	-10.1113
▁diz	-10.1114
ılabilir	-10.1114
▁yapmıyor	-10.1118
▁yaşı	-10.1127
▁alternatif	-10.1133
▁teşhis	-10.1133
▁düzgün	-10.1135
▁Biliyorsunuz	-10.1136
▁ilacı	-10.1143
▁İran	-10.1144
birinden	-10.1149
▁nedeniyle	-10.1164
▁zamanlı	-10.1168
▁hikayeyi	-10.117
▁üzeri	-10.1173
posta	-10.1174
▁Deniz	-10.1177
▁yapabilecek	-10.118
▁kendileri	-10.1182
▁evin	-10.1183
jen	-10.1185
▁Bey	-10.1188
▁uzaklaş	-10.119
▁vakit	-10.1194
▁popüler	-10.1194
▁Uzun	-10.1194
▁baktığınızda	-10.1196
▁tüketici	-10.1196
tum	-10.1203
▁koru	-10.1217
abileceğini	-10.122
▁konuyu	-10.122
eceğimiz	-10.1221
▁isimli	-10.1226
▁bağlam	-10.123
öl	-10.1241
▁mantık	-10.1245
▁getiren	-10.1245
▁finans	-10.1251
▁sonrası	-10.1256
▁ekosistem	-10.1256
▁platform	-10.1256
▁takıl	-10.1259
lduğu	-10.1259
▁boyu	-10.1263
▁Anne	-10.1271
▁anlar	-10.1272
▁yaşamı	-10.1276
▁söylüyorum	-10.1279
▁Bay	-10.1284
▁insanlık	-10.1284
stan	-10.1288
▁yolculuğu	-10.1295
▁hi	-10.1306
▁ihtimali	-10.1307
▁rastgele	-10.1318
▁Bak	-10.1333
▁alalım	-10.1333
▁sim	-10.134
▁ulaştı	-10.1341
▁bilin	-10.1343
▁anlamlı	-10.1348
▁Arap	-10.135
▁çağrı	-10.1354
▁konuşmaya	-10.1356
▁izleme	-10.1359
▁tutmak	-10.1364
▁yörünge	-10.138
▁Mısır	-10.138
▁çerçeve	-10.138
▁bilgiye	-10.1385
▁kişiyi	-10.1388
▁ham	-10.1389
▁Fo	-10.1392
▁hâle	-10.1393
▁bizimle	-10.1395
ön	-10.1398
▁tutma	-10.1399
▁köle	-10.1402
çok	-10.1403
eb	-10.1413
rit	-10.1414
▁ahlaki	-10.1417
yip	-10.1426
▁Sorun	-10.1426
▁Ana	-10.1431
▁başlattı	-10.1433
▁bölgede	-10.1433
▁saçma	-10.1433
▁kalite	-10.1437
▁profesyonel	-10.1443
▁heykel	-10.1443
▁Kısa	-10.1444
kâr	-10.1446
▁devasa	-10.1447
▁oturuyor	-10.1449
3'	-10.145
▁ebeveyn	-10.145
▁hissediyorum	-10.1454
iriz	-10.1456
▁kalın	-10.1465
ldukça	-10.1467
▁yaşadığımız	-10.1468
so	-10.1469
▁çevresel	-10.1473
her	-10.1477
▁almış	-10.1477
▁teknolojiler	-10.1478
▁tümör	-10.1481
▁çözümler	-10.1489
▁fikrim	-10.1491
▁Altı	-10.1493
▁kitabın	-10.1496
▁klinik	-10.1507
▁milyarlarca	-10.1507
▁zemin	-10.1507
▁olaylar	-10.1508
▁verdiler	-10.1509
▁mezun	-10.1512
▁anladım	-10.1513
▁bunlara	-10.1514
▁yazdı	-10.1514
▁metal	-10.1517
miyordu	-10.1521
▁olası	-10.1523
abiliyoruz	-10.1524
▁bende	-10.1526
▁yönelik	-10.1527
▁ederiz	-10.1528
▁çevresinde	-10.1532
▁getirir	-10.1533
▁fırsatı	-10.1534
▁bakan	-10.1537
▁çekmek	-10.154
▁kalmış	-10.1542
▁baktı	-10.1543
ılacak	-10.1546
▁çekiyor	-10.1556
▁çözmek	-10.1558
▁düştü	-10.1565
▁əvvəl	-10.157
▁tabaka	-10.157
▁vaxt	-10.157
▁beğen	-10.157
▁tarif	-10.1571
▁Kanada	-10.1571
▁finansal	-10.1575
▁geliyordu	-10.1576
▁sorar	-10.1579
▁400	-10.1582
▁vergi	-10.1588
▁terim	-10.159
yuz	-10.1608
▁teknolojisi	-10.1612
ıyorlardı	-10.1613
▁konuya	-10.1614
▁eksik	-10.1617
▁görebiliyor	-10.1621
▁dünyası	-10.1625
▁sonucunda	-10.1627
▁yaptıklarını	-10.1631
▁radikal	-10.1634
60	-10.1636
▁güvenilir	-10.1637
▁biçimi	-10.1639
▁yapama	-10.1639
ıb	-10.1642
▁içerik	-10.1647
▁çalıştı	-10.165
▁yiy	-10.1651
▁çiftçi	-10.1653
▁etmiyor	-10.1654
▁olmasa	-10.167
▁toz	-10.1677
▁Şunu	-10.1678
▁Yaşam	-10.1683
▁qal	-10.1684
bah	-10.1686
▁olmama	-10.1694
▁şart	-10.1697
▁basın	-10.1697
▁adamlar	-10.1697
▁Ulusal	-10.1699
▁Değil	-10.1699
▁baktığımızda	-10.17
şık	-10.17
▁kurban	-10.17
ıydı	-10.1704
▁kilit	-10.1704
▁uyku	-10.1705
▁yaradı	-10.1708
▁sürdü	-10.1708
▁eşi	-10.1708
▁bayıl	-10.1708
▁sürede	-10.171
▁içeren	-10.1715
▁inceledi	-10.1719
▁?	-10.1729
▁fikrin	-10.173
▁ağrı	-10.1732
▁dediğim	-10.1733
lerimize	-10.1736
▁bilmə	-10.1737
▁şişe	-10.1739
▁grubun	-10.174
▁oluşturul	-10.1747
▁diyorlar	-10.175
▁Is	-10.1751
▁fon	-10.1753
▁Yu	-10.1761
acağınız	-10.1763
▁karikatür	-10.1764
▁faaliyet	-10.1764
▁Amma	-10.1765
etti	-10.1765
▁buradan	-10.1766
▁yenilikçi	-10.1768
▁artan	-10.1769
▁diyelim	-10.1776
▁yapmanın	-10.1779
▁Yer	-10.178
▁alıcı	-10.1787
ulmuş	-10.1787
inizin	-10.1791
▁gidebil	-10.1801
▁Ter	-10.1803
▁çağı	-10.1808
▁sistemimiz	-10.1808
car	-10.1812
▁bilimi	-10.1813
▁zorundaydı	-10.1816
▁sınırlı	-10.1817
▁bildiğiniz	-10.1821
▁Küresel	-10.1829
▁vakti	-10.1829
▁verdiğimiz	-10.183
▁fosil	-10.183
▁boyutu	-10.1831
▁zihinsel	-10.1834
▁uçur	-10.1834
▁Bunlardan	-10.1835
▁Pr	-10.1836
▁yaşadı	-10.1837
▁olmam	-10.1838
▁tamamı	-10.1838
▁eğri	-10.1838
▁Neyse	-10.1839
▁sözü	-10.1841
▁bilmiyoruz	-10.1846
▁ekip	-10.1848
▁Sizi	-10.1849
▁birden	-10.1856
▁zamana	-10.186
▁saha	-10.186
▁parayı	-10.1861
▁biliyordu	-10.1862
▁tasarlama	-10.1872
▁yığın	-10.1873
▁yarattı	-10.1875
▁küme	-10.1876
▁hızlıca	-10.188
▁maden	-10.1882
▁takımı	-10.1884
▁sebeple	-10.1885
▁akım	-10.1886
▁odada	-10.1892
▁vahşi	-10.1895
▁avantaj	-10.1895
▁göstər	-10.1895
▁psikoloji	-10.1895
▁hayran	-10.1895
▁seyirci	-10.1895
▁teklif	-10.1896
▁görebil	-10.1897
▁Özellikle	-10.1898
▁rengi	-10.1898
▁yönetme	-10.1898
bilirsin	-10.1904
anne	-10.1905
▁satış	-10.1908
▁küre	-10.1908
▁yatak	-10.1908
▁bakıma	-10.191
▁yapacağız	-10.1912
▁yo	-10.1918
▁bahsetti	-10.193
▁salon	-10.1936
▁hatırlat	-10.1939
▁onay	-10.1944
▁yapması	-10.1946
▁kazandır	-10.195
▁makinesi	-10.1956
▁öfke	-10.1961
▁diren	-10.1962
▁katılma	-10.1962
▁kendimize	-10.1963
▁yıllarda	-10.1964
▁zar	-10.1968
▁civarında	-10.1969
gram	-10.1972
ildiği	-10.1974
▁yapabileceğimiz	-10.1982
ınızda	-10.1985
▁hastalığın	-10.199
▁bey	-10.2001
▁çektiği	-10.2003
▁olmuştur	-10.2003
lilik	-10.2011
▁fo	-10.2012
▁durdu	-10.2026
▁öğretmenler	-10.2026
▁ilişkiler	-10.2026
uantum	-10.2033
iğin	-10.2035
▁Öncelikle	-10.2038
▁çalışırken	-10.2043
▁Gö	-10.2044
▁birbirlerine	-10.2044
▁giriyor	-10.2045
▁olgu	-10.2045
▁AIDS	-10.2046
▁sunum	-10.2048
▁anlatma	-10.2053
▁yapılıyor	-10.2056
ıldığı	-10.2063
▁Tu	-10.2064
▁yapılar	-10.2074
▁hastalar	-10.2077
10	-10.208
▁gelmek	-10.2083
▁bahsettiğim	-10.2084
▁sağlayabilir	-10.2087
▁Kap	-10.2088
▁götürdü	-10.209
▁konuştuğu	-10.2091
▁üçte	-10.2095
▁Kadın	-10.2095
▁maruz	-10.2095
▁Genç	-10.2095
imize	-10.2095
▁düşündüğünüz	-10.2096
▁söyleyen	-10.2099
Yani	-10.21
maktır	-10.2102
yelim	-10.2108
▁bel	-10.2118
▁seviyede	-10.212
▁düzenli	-10.2123
▁Soru	-10.2125
▁etraf	-10.2128
suzluk	-10.2129
ıma	-10.2132
▁alıyoruz	-10.2136
ris	-10.2141
sındaki	-10.2146
Tamam	-10.2146
▁Rus	-10.2148
▁kaydı	-10.2152
▁bağır	-10.2153
▁şehirde	-10.2155
çu	-10.2158
▁mülteci	-10.2163
▁başqa	-10.2163
▁kocaman	-10.2165
▁başlamak	-10.2166
Ma	-10.2168
▁yaşındayken	-10.2168
▁noktalar	-10.217
▁birinde	-10.217
uldu	-10.2173
▁gelince	-10.2173
▁Pat	-10.2175
▁tü	-10.2181
▁basitçe	-10.2182
▁bizden	-10.2186
▁okulda	-10.219
▁koca	-10.2191
ıldığında	-10.2199
▁yüzyılın	-10.22
▁zordur	-10.2203
▁bakteriler	-10.2203
▁zamandır	-10.2209
amayacağı	-10.2214
▁çıkmış	-10.2215
▁bölün	-10.2222
▁sürecin	-10.2222
▁kapasite	-10.2223
▁meme	-10.2227
▁sever	-10.2229
▁arttı	-10.2229
▁anlatacağım	-10.223
▁sıkıntı	-10.2231
▁Konuşma	-10.2232
▁özgürlük	-10.2233
▁Hint	-10.2233
▁canlandır	-10.2235
▁çözümü	-10.2236
▁tatlı	-10.224
▁indi	-10.2242
ınıza	-10.2245
▁gazeteci	-10.2245
▁çatı	-10.2253
▁Ah	-10.2253
▁hücrelerin	-10.2254
▁ahlak	-10.226
han	-10.2265
ebileceğiniz	-10.2265
▁internette	-10.2271
▁istedikleri	-10.2275
▁zinciri	-10.2275
▁kavra	-10.2281
▁başta	-10.2282
▁hisse	-10.2288
▁hayvanların	-10.2295
tıcı	-10.2295
▁Fransız	-10.2299
▁cesur	-10.2299
▁olmuyor	-10.2302
▁teknolojileri	-10.2304
▁Genel	-10.2306
▁kişilik	-10.231
▁bilimci	-10.2317
Ge	-10.2317
▁soyut	-10.2324
▁ölçüm	-10.2325
▁problemleri	-10.2332
▁vereceğim	-10.2339
▁çeken	-10.2343
▁Bizler	-10.2349
5'	-10.235
▁geliştirmek	-10.2356
▁yapmanız	-10.2356
▁farkı	-10.2362
▁yolunda	-10.2364
▁Meksika	-10.2368
▁Twitter	-10.2368
▁algoritma	-10.2368
▁tohum	-10.2368
▁genom	-10.2369
▁blog	-10.2371
layabiliriz	-10.2372
▁etkileyici	-10.2372
yorsunuz	-10.2373
▁hayatımız	-10.2373
▁kullanmaya	-10.2379
▁Paul	-10.2379
▁kıyasla	-10.2386
▁döngü	-10.2387
▁Farklı	-10.2388
▁gönderme	-10.239
▁keşfetme	-10.2397
▁ürünler	-10.2399
▁dışına	-10.2403
▁havada	-10.2406
şey	-10.241
▁ederler	-10.2414
▁öngörü	-10.2416
mur	-10.2417
▁istek	-10.2418
▁sıklıkla	-10.2427
▁sp	-10.2429
▁Beş	-10.2429
▁yaratıl	-10.2429
▁Ön	-10.2431
lanabilir	-10.2433
▁ziyade	-10.2438
▁duran	-10.2438
▁başlayalım	-10.2439
▁düşüş	-10.244
▁şok	-10.244
▁tutuyor	-10.2447
▁çıkarıyor	-10.2448
▁buzul	-10.2456
▁başlıyoruz	-10.2463
▁bat	-10.247
les	-10.247
▁birçoğu	-10.2486
▁sınırları	-10.2487
▁olabilirdi	-10.249
▁Cha	-10.2505
▁çalışıyorlar	-10.2507
▁İslam	-10.2507
▁esnek	-10.2508
▁həyat	-10.251
▁kutsal	-10.2511
▁sorumluluk	-10.2511
▁Annem	-10.2512
▁yazdım	-10.2512
▁seviyor	-10.2512
▁anlayış	-10.2514
▁duydum	-10.2517
▁söyleyebilirim	-10.2519
▁kızı	-10.2522
▁um	-10.2524
▁falan	-10.2524
muzun	-10.2535
▁ilgisi	-10.2538
▁hükümeti	-10.254
▁Sır	-10.2544
üsü	-10.255
▁kapan	-10.257
lemeye	-10.2575
▁felaket	-10.2578
▁İsveç	-10.2578
▁aracılığıyla	-10.2578
▁öğle	-10.2578
▁tahta	-10.2578
▁hasar	-10.2579
▁koloni	-10.2579
▁nehir	-10.258
yeceğim	-10.2582
▁Yakın	-10.2585
▁büyüdü	-10.2594
▁çıkarma	-10.2595
▁The	-10.2601
ebileceğini	-10.2603
▁zamanında	-10.2606
mıyordu	-10.261
inizde	-10.2611
▁inancı	-10.2611
▁örgüt	-10.2612
leyip	-10.2616
▁Ken	-10.2617
▁sürücü	-10.2619
umun	-10.2621
▁koşu	-10.2643
▁150	-10.2644
▁neyi	-10.2649
▁demokratik	-10.2649
▁merhamet	-10.2649
▁sahte	-10.2649
▁iyimser	-10.2649
▁idare	-10.2649
▁Uzay	-10.2649
▁denilen	-10.265
▁bazılarını	-10.2651
▁kolu	-10.2653
rayı	-10.2654
▁duyduk	-10.2655
▁yapmam	-10.266
▁seçil	-10.2662
▁eleştir	-10.2666
▁biriydi	-10.2666
▁ailem	-10.2667
▁hayatlarını	-10.2671
don	-10.2675
▁Eş	-10.2677
▁Kara	-10.2681
▁kontrolü	-10.2682
▁miktarı	-10.2683
▁kurumlar	-10.2686
▁varlığı	-10.2694
▁ayında	-10.2695
▁etmə	-10.27
▁zamanla	-10.2703
▁olmasıdır	-10.2707
▁kut	-10.2707
nuzu	-10.2708
▁nesneler	-10.2715
▁kayded	-10.2716
larımızda	-10.2717
▁soruyor	-10.2719
▁Müslüman	-10.272
▁depresyon	-10.272
▁pozisyon	-10.272
▁zirve	-10.272
▁otomatik	-10.2721
▁mobil	-10.2723
▁oyuncak	-10.2724
▁üretmek	-10.2731
▁bahsedeceğim	-10.2731
▁değişken	-10.2731
▁sıkıcı	-10.2737
▁Savaşı	-10.2749
▁sahipler	-10.2749
▁olacağız	-10.2754
▁Doğa	-10.2767
▁binalar	-10.2774
▁zorlu	-10.2779
▁uyuşturucu	-10.2792
Alqış	-10.2792
▁olumlu	-10.2792
▁blok	-10.2792
▁ucu	-10.2794
▁kaybetme	-10.2795
▁sakin	-10.2804
▁hadi	-10.2808
▁projesi	-10.2816
▁tersine	-10.282
▁özellikler	-10.2821
▁yoksul	-10.2829
▁hızı	-10.2831
▁mənim	-10.2832
▁sonuna	-10.2833
▁suya	-10.2836
▁Video	-10.284
▁Per	-10.2841
üstü	-10.2844
▁dilim	-10.2844
▁iskelet	-10.2845
▁çıktığı	-10.2846
biriyle	-10.2853
▁biliyordum	-10.2854
▁içeriği	-10.2862
▁yapıyordu	-10.2864
▁Eğitim	-10.2865
▁Nijerya	-10.2865
▁kritik	-10.2865
▁simetri	-10.2865
▁etrafta	-10.2865
▁ideal	-10.2865
▁resme	-10.2867
▁konuşmayı	-10.2868
▁hazırla	-10.2873
çü	-10.2876
▁ısınma	-10.2876
▁izliyor	-10.2881
düşünebilirsiniz	-10.2888
▁ırk	-10.2895
uncu	-10.2897
▁süredir	-10.2898
▁damar	-10.2906
▁genişlet	-10.291
▁yarışma	-10.2916
▁duygusu	-10.2917
hit	-10.292
▁yuva	-10.2922
▁göç	-10.2926
▁babası	-10.2934
araya	-10.2937
▁Eylül	-10.2938
▁Kesinlikle	-10.2938
▁avukat	-10.2938
▁istifadə	-10.2938
▁çoğal	-10.2938
▁George	-10.2938
▁stres	-10.2938
▁meslek	-10.2939
▁oturdu	-10.2939
▁aniden	-10.294
▁Hə	-10.2945
▁uzat	-10.2948
▁çeşitliliği	-10.295
▁Bi	-10.2955
▁konuştu	-10.2959
▁Kore	-10.2966
▁hatır	-10.2968
val	-10.297
larımın	-10.2973
▁Sana	-10.2975
▁altındaki	-10.2985
▁tək	-10.2992
40	-10.2994
▁hiss	-10.2994
▁kendimiz	-10.3
▁baktım	-10.3
▁edebileceği	-10.3008
ğum	-10.3008
▁Şehir	-10.3011
▁başvur	-10.3011
▁trafik	-10.3011
▁Toplum	-10.3011
▁bulabil	-10.3012
▁Babam	-10.3013
▁beslenme	-10.3014
▁nesli	-10.3018
▁hakim	-10.3021
▁sunuyor	-10.3024
ebildiği	-10.3024
▁yüzeyin	-10.3025
▁kanat	-10.3036
▁ağzı	-10.3041
▁yapıp	-10.3042
▁hisseder	-10.3051
▁aldığımız	-10.3052
iyat	-10.3052
▁baştan	-10.3059
▁arayüz	-10.306
▁hayatım	-10.3063
umuzu	-10.3064
▁problemler	-10.3066
▁sormak	-10.307
▁geçirdim	-10.3072
▁işlev	-10.3079
uşu	-10.308
▁liderlik	-10.3081
▁köprü	-10.3085
▁patent	-10.3085
▁polen	-10.3085
▁Steve	-10.3085
▁bireysel	-10.3086
▁yapılma	-10.3086
▁öldürme	-10.3087
▁sıradışı	-10.3088
▁Kendisi	-10.309
▁versiyonu	-10.3093
▁birazcık	-10.3096
▁koymak	-10.3097
▁arıyor	-10.3097
▁sırt	-10.3107
▁hissettim	-10.3109
▁düşme	-10.3109
▁saatte	-10.3113
15	-10.3121
▁hareketleri	-10.3121
məyə	-10.3125
cilik	-10.3126
▁eskiden	-10.3127
▁gelmişti	-10.3136
▁zamandan	-10.3139
▁aylık	-10.3142
fik	-10.3146
sən	-10.3151
▁kaynaklar	-10.3151
▁edeceğim	-10.3156
▁süt	-10.3158
▁Öz	-10.3159
▁korkutucu	-10.316
▁iğne	-10.316
▁İnanılmaz	-10.316
▁Basit	-10.3163
▁öldürül	-10.3164
▁eğlen	-10.3166
▁Dünyada	-10.3168
▁taşıyor	-10.3168
▁dusun	-10.3172
▁organik	-10.3173
▁istemiyorum	-10.3175
▁özet	-10.318
▁kullanabiliriz	-10.3181
▁başladığımız	-10.3184
▁moda	-10.3187
lıyım	-10.3192
sıydı	-10.3197
▁pil	-10.3198
▁aklıma	-10.3204
▁Konu	-10.3205
▁pay	-10.3209
▁edildiği	-10.321
emeyeceği	-10.3211
▁bugünkü	-10.3212
▁artıyor	-10.3212
▁inanıyor	-10.3215
ktif	-10.3216
▁geldim	-10.3217
dığımı	-10.3219
▁etkileri	-10.3219
▁değerler	-10.3222
▁renkli	-10.3225
▁dağıl	-10.323
▁eğlence	-10.3231
▁ekmek	-10.3231
leştirilmiş	-10.3233
▁gerçekliği	-10.3234
▁Einstein	-10.3235
▁slayt	-10.3235
sıl	-10.3236
▁organize	-10.3237
▁dini	-10.3237
▁çocuklarımız	-10.3238
▁vazgeç	-10.3241
▁yakala	-10.3246
ayet	-10.325
üğümüz	-10.3251
▁koşullar	-10.3251
lıyorum	-10.3252
▁oradaki	-10.3254
▁Sal	-10.3256
▁Mc	-10.3259
)"	-10.326
▁oranında	-10.3261
▁geçmişte	-10.3262
▁yasak	-10.3265
▁faydalı	-10.3268
▁işleme	-10.3268
▁çeker	-10.3275
ğiniz	-10.3275
▁söyledim	-10.3279
▁olursanız	-10.328
▁Gu	-10.3283
ülü	-10.3284
▁korun	-10.3288
▁ettikleri	-10.3289
acağımızı	-10.3291
▁varsayım	-10.3295
org	-10.3295
▁Hak	-10.3296
ebilirler	-10.33
▁etmekte	-10.3302
▁aldığım	-10.3306
▁görünmez	-10.3309
▁cihazı	-10.331
▁Kaliforniya	-10.3311
▁Umarım	-10.3311
▁kasaba	-10.3311
▁dosya	-10.3311
▁Allah	-10.3311
▁hapishane	-10.3311
▁enerjisi	-10.3312
▁nano	-10.3315
▁bilinci	-10.3322
▁gözlemle	-10.3324
▁belirsiz	-10.3325
▁üzü	-10.3325
tasyon	-10.3327
▁gec	-10.3327
▁dinleme	-10.3329
12	-10.3334
▁tutun	-10.3336
▁gelin	-10.334
▁yükselt	-10.3341
▁mor	-10.3342
▁Başkan	-10.3343
▁35	-10.3346
▁kullanıyorlar	-10.3348
liyim	-10.335
▁erkeklerin	-10.335
▁getiril	-10.335
▁isteği	-10.3355
lıyorlar	-10.3364
▁soğu	-10.3368
▁çözme	-10.3369
▁gezegenin	-10.3373
vaz	-10.3378
dil	-10.3382
▁Avustralya	-10.3387
▁Muhtemelen	-10.3387
▁yürüyüş	-10.3387
▁borç	-10.3387
▁peşinde	-10.3387
▁yaşar	-10.3388
▁Yunan	-10.3388
luğun	-10.339
▁geçtiği	-10.339
▁oturup	-10.3391
amayız	-10.3392
▁görmüş	-10.3394
▁yüzleş	-10.3395
▁düzelt	-10.3397
▁geçirme	-10.3397
▁zorluklar	-10.3401
▁gidebilir	-10.3401
▁Bill	-10.3402
▁gök	-10.3402
▁utan	-10.3405
▁Ber	-10.3407
▁kuram	-10.3409
▁ihtimal	-10.3412
Hey	-10.3414
▁gezegende	-10.3417
▁soruları	-10.3417
▁düşen	-10.3423
larımızdan	-10.3429
baba	-10.3429
▁Savaş	-10.3434
▁planlama	-10.3439
▁bağlantılı	-10.3443
▁öğretme	-10.3448
▁bilimin	-10.3454
▁ağaçlar	-10.3457
▁kö	-10.3458
▁şirketlerin	-10.3458
▁etdi	-10.3458
▁zihin	-10.3459
▁hikayesini	-10.3462
▁başkanı	-10.3463
▁Erkek	-10.3464
▁kategori	-10.3464
▁çevril	-10.3464
▁hayret	-10.3464
▁hediye	-10.3464
▁yanına	-10.3466
Siz	-10.3466
▁konser	-10.3466
▁kitaplar	-10.3467
▁alana	-10.3473
▁kariyer	-10.3474
▁verebilir	-10.3474
dığımızda	-10.3483
▁süren	-10.3487
▁düzeyde	-10.3487
▁görülen	-10.3488
nizle	-10.3489
▁kullanılıyor	-10.3489
▁öne	-10.3492
▁oradan	-10.3496
▁malzemeler	-10.3496
▁ağırlığı	-10.3502
▁farkettim	-10.3503
▁getirdiği	-10.3507
miyorlar	-10.3507
▁ikisini	-10.3511
▁kardeşim	-10.3514
▁makineler	-10.3516
▁alıntı	-10.352
▁90	-10.352
▁sistemini	-10.3524
▁Hala	-10.3532
▁testi	-10.3535
▁sesini	-10.3536
▁yasal	-10.3537
▁geçmek	-10.354
▁sohbet	-10.3542
▁səbəb	-10.3542
▁dinamik	-10.3542
▁kainat	-10.3542
▁küçül	-10.3542
▁Neredeyse	-10.3542
▁gidecek	-10.3542
▁Times	-10.3543
▁hücresi	-10.3544
▁tamamıyla	-10.3552
▁ölüyor	-10.3554
▁projeler	-10.3557
lerimizden	-10.3558
▁tuz	-10.3558
▁kültürü	-10.3559
yacağını	-10.3573
▁yapısı	-10.3577
lıyordu	-10.3586
ebildi	-10.3592
▁erişim	-10.3592
▁günlerde	-10.3593
▁tersi	-10.3593
com	-10.3595
▁ardı	-10.3601
mışlardı	-10.3605
▁Kat	-10.3607
▁çat	-10.3614
▁yolları	-10.3614
▁Lu	-10.3618
emeyiz	-10.3619
▁Wa	-10.3619
▁Darwin	-10.362
▁Sosyal	-10.362
▁mektup	-10.362
▁barındır	-10.362
▁lisans	-10.362
▁Hepiniz	-10.362
▁haqda	-10.362
▁operasyon	-10.3621
▁gideceği	-10.3621
▁usta	-10.3621
▁benzeyen	-10.3622
▁hamile	-10.3625
▁halkın	-10.3629
▁görebiliriz	-10.363
▁göçmen	-10.363
▁Araba	-10.3631
▁keşfedil	-10.3648
▁attı	-10.3654
▁hızlandır	-10.3655
▁çalışıyordu	-10.3656
▁dakikada	-10.3658
▁yıka	-10.366
Al	-10.3661
▁Hem	-10.3662
lərini	-10.3662
▁hesab	-10.3664
▁iken	-10.3665
eğer	-10.3666
▁ölçekte	-10.3668
▁kolayca	-10.3674
▁hizmeti	-10.3676
▁alanlarda	-10.3683
▁değerlendirme	-10.3685
▁Alman	-10.3686
▁yerin	-10.3689
▁mühendislik	-10.3695
▁üstesinden	-10.3699
▁kabile	-10.3699
▁umarım	-10.3699
▁harcıyor	-10.3699
▁Merkezi	-10.3703
▁ayakta	-10.3705
dığımda	-10.371
▁müdür	-10.371
▁yaşadık	-10.3712
tmak	-10.3713
mızdan	-10.3715
▁fotoğraflar	-10.372
▁açma	-10.3724
▁Para	-10.3728
▁veriyi	-10.3729
▁düşünüyordum	-10.3737
▁kutup	-10.3742
▁şiş	-10.3742
▁değiştirebilir	-10.3744
▁girer	-10.3747
▁teknolojik	-10.3757
▁kalmak	-10.3757
▁gri	-10.3759
▁45	-10.3761
▁azaltma	-10.3763
▁Herhangi	-10.3778
▁meşgul	-10.3778
▁profesör	-10.3778
▁rüya	-10.3778
▁sezgi	-10.3778
▁gövde	-10.3778
▁İtalya	-10.3778
▁Uç	-10.3778
▁əl	-10.3782
▁bulduğumuz	-10.3787
▁ulaşım	-10.3793
▁süreçte	-10.3794
▁söylediler	-10.38
▁etmeniz	-10.3801
▁koydu	-10.3807
▁değiştiriyor	-10.3808
▁ayağı	-10.3811
▁həm	-10.3813
yabilir	-10.3813
▁iyileştir	-10.3826
▁köken	-10.383
▁değiştiren	-10.384
▁miras	-10.3842
▁kalem	-10.3844
▁tarama	-10.3847
ılmaz	-10.3852
▁sanatı	-10.3857
Do	-10.3857
▁otobüs	-10.3858
▁çanta	-10.3858
▁vizyon	-10.3858
▁üreme	-10.3859
▁prensip	-10.3859
▁kaybı	-10.386
▁bakarsak	-10.3863
▁düşüyor	-10.3863
▁tasarlanmış	-10.3865
▁hap	-10.387
▁sorgu	-10.3871
▁anlıyor	-10.3874
▁kırsal	-10.3876
▁tanıt	-10.3882
▁İşin	-10.3886
▁sahipti	-10.3889
▁fikirlerin	-10.3893
▁temelde	-10.3907
▁gelmesi	-10.3908
▁çay	-10.3921
ov	-10.3931
▁duruma	-10.3932
▁avcı	-10.3934
ligi	-10.3934
▁çabuk	-10.3938
▁kamyon	-10.3938
▁Geliş	-10.3941
▁şaka	-10.3945
▁elle	-10.3946
▁oluşur	-10.3946
▁görmez	-10.3946
▁yapalım	-10.3947
lərə	-10.3949
▁siyahi	-10.3952
larımdan	-10.3954
cılığı	-10.3959
▁denklem	-10.3961
▁ucunda	-10.3961
▁yaşayabil	-10.3961
▁Los	-10.3962
ləş	-10.3969
▁ortamda	-10.3971
kahkahalar	-10.3981
▁kayna	-10.3982
▁ışığın	-10.3988
Bil	-10.3998
▁mesajı	-10.4001
▁görevli	-10.4004
▁bacak	-10.4004
▁sürüyor	-10.4012
▁vücudu	-10.4012
▁öğrendiğim	-10.4019
▁NASA	-10.402
▁edelim	-10.402
▁yaratan	-10.4023
▁dolayısıyla	-10.4025
▁Evren	-10.4026
▁Gelecek	-10.4027
▁mekanik	-10.4027
▁ediyorsunuz	-10.4028
▁bahsediyorum	-10.4029
▁adapt	-10.4029
▁Bilgi	-10.4037
▁şeylerle	-10.404
▁Veri	-10.404
▁kişilerin	-10.404
▁geçiriyor	-10.4046
▁taraftan	-10.4054
▁çıkmak	-10.4054
▁çiftlik	-10.4056
▁aydınlat	-10.4058
▁Sonuçta	-10.4062
▁Sanki	-10.4064
▁dönüştürme	-10.4084
sində	-10.41
▁Richard	-10.4102
▁masraf	-10.4102
▁şeffaf	-10.4102
▁mucize	-10.4102
▁dükkan	-10.4102
▁meyve	-10.4102
▁umursa	-10.4102
▁mahkum	-10.4103
▁gölge	-10.4104
▁gezegenler	-10.4104
▁bilginin	-10.4104
▁Sistem	-10.4104
▁Yıl	-10.4106
▁yaratıklar	-10.4112
▁Yol	-10.4116
▁beynimiz	-10.4118
▁konuşacağım	-10.412
▁tatil	-10.4122
▁çalışarak	-10.4124
▁oluyorlar	-10.4129
▁derdi	-10.413
▁güvenliği	-10.4133
lerimizde	-10.4136
▁içinden	-10.4143
kinden	-10.4144
▁aydın	-10.4147
▁evrimleş	-10.4157
▁yaratır	-10.4162
▁tuttu	-10.4165
▁bölgesinde	-10.4175
▁ortamı	-10.4184
▁favori	-10.4184
▁Günümüzde	-10.4185
▁maaş	-10.4185
▁ettiğiniz	-10.4187
▁kitapları	-10.4188
▁şekilleri	-10.419
▁gösterdiği	-10.4191
▁dün	-10.4192
▁yapımı	-10.4192
▁yapış	-10.4193
▁topluluğu	-10.4199
▁yuvarla	-10.4203
▁söyledikleri	-10.4208
▁beyniniz	-10.4208
▁sevdiği	-10.4213
▁olasılığı	-10.4213
niversite	-10.4215
▁büyüklüğünde	-10.4217
▁döndüm	-10.4218
▁bildir	-10.4219
▁ekledi	-10.424
▁döndüğü	-10.424
▁Mer	-10.4242
▁haz	-10.4243
▁anlayışı	-10.426
▁aday	-10.4262
▁duyarlı	-10.4262
Peki	-10.4266
▁nüfusun	-10.4266
▁anında	-10.4267
▁prototip	-10.4268
▁restoran	-10.4268
▁alışveriş	-10.4268
▁dayanıklı	-10.4268
▁Proje	-10.4268
▁donanım	-10.4268
▁gezegenimiz	-10.427
▁önde	-10.4271
▁göstereyim	-10.4271
lanmıştı	-10.4275
▁seçimler	-10.4276
▁biten	-10.4279
▁beslen	-10.428
▁şirketleri	-10.4282
▁doktorlar	-10.4288
▁isterse	-10.4289
▁doktora	-10.429
▁kirli	-10.4291
mıştık	-10.4293
leşik	-10.4294
▁değişiyor	-10.43
▁80'	-10.4301
▁uyarı	-10.4309
▁etdiyi	-10.4313
▁oynat	-10.4315
rey	-10.4316
▁diyordu	-10.432
▁edilir	-10.4322
▁elektro	-10.4324
▁şurada	-10.4325
▁görüntüsü	-10.4325
▁balıkları	-10.4328
▁yapın	-10.4328
▁ac	-10.4329
▁faydalan	-10.4332
▁yararlı	-10.4332
lıktan	-10.4332
▁varlıklar	-10.4339
▁endüstrisi	-10.4343
▁aptal	-10.4344
▁gezi	-10.4344
▁varsay	-10.4345
▁kalır	-10.4346
▁Tamamen	-10.4347
▁Tasarım	-10.4352
▁mutlak	-10.4352
▁öneri	-10.4352
▁bedava	-10.4352
▁emekli	-10.4353
yacağı	-10.4359
▁bilərsiniz	-10.436
▁sinek	-10.4362
▁kendim	-10.4364
▁bilge	-10.4367
▁konuşan	-10.4368
▁daima	-10.4369
▁kral	-10.4369
▁tipik	-10.437
▁eşsiz	-10.4371
lly	-10.4372
▁eseri	-10.4372
▁yapıştır	-10.4375
▁kısmında	-10.4376
▁zorundasınız	-10.4377
sızlık	-10.438
▁böcekler	-10.4382
▁doğanın	-10.4384
▁satıl	-10.4387
▁sizden	-10.4389
▁lif	-10.4394
▁diğerine	-10.4414
▁bakacak	-10.4415
▁özgürlüğü	-10.4419
▁bırakmak	-10.442
lendiği	-10.4421
müyor	-10.4427
▁elimde	-10.4431
▁bırakıyor	-10.4433
unuzu	-10.4435
▁Washington	-10.4436
▁kütüphane	-10.4436
▁pozitif	-10.4436
▁kömür	-10.4437
▁cadde	-10.4437
▁sigara	-10.4437
▁oynuyor	-10.4437
▁sahil	-10.4437
▁formu	-10.4437
▁yürüme	-10.4438
▁biridir	-10.4442
▁büyüyen	-10.4442
▁ayna	-10.4446
▁unutma	-10.4447
▁bölgelerde	-10.4447
ırdım	-10.4447
▁sonuçta	-10.4449
▁konuşur	-10.445
▁durumlarda	-10.4453
Biliyor	-10.4454
▁kurduk	-10.4462
▁kalıp	-10.4463
▁tarihinde	-10.4465
Her	-10.4466
▁sanayi	-10.4467
yorsun	-10.4469
dakı	-10.4472
▁Park	-10.4476
▁foto	-10.4483
▁tamir	-10.4485
kop	-10.4489
▁belirleme	-10.4492
Bana	-10.4496
▁güzellik	-10.4499
▁danış	-10.45
▁uygulay	-10.45
▁dolan	-10.4501
▁kısaca	-10.4505
▁savaşı	-10.4509
▁olabiliriz	-10.4514
▁oluyordu	-10.4517
▁Oyun	-10.4518
▁bulduğum	-10.4519
▁Fransa	-10.4522
▁Hikaye	-10.4522
▁düğme	-10.4522
▁macera	-10.4522
▁sensör	-10.4522
▁qarşı	-10.4523
▁birbirimize	-10.4523
▁buyuk	-10.4528
▁müziği	-10.453
▁anlattığı	-10.4533
▁çoğunuz	-10.4534
▁kafe	-10.4535
▁Beyin	-10.4538
▁dua	-10.4538
▁Hemen	-10.454
▁ruhu	-10.4541
▁çalışmayı	-10.4548
▁etmenin	-10.4549
▁kullanabilir	-10.4555
▁Adı	-10.4561
▁sorduk	-10.4582
▁istemez	-10.4593
▁tanıyor	-10.4596
▁1000	-10.4596
▁görüntüler	-10.4603
▁Anderson	-10.4608
▁egzersiz	-10.4608
▁fırtına	-10.4608
▁hekayə	-10.4608
▁yetersiz	-10.4608
▁keçi	-10.4608
▁toprağı	-10.4608
▁puan	-10.4609
▁Kişi	-10.4623
▁tarihin	-10.463
▁üretken	-10.4631
▁Gar	-10.4636
dra	-10.4636
▁İlki	-10.464
▁sağladığı	-10.4644
▁virüsü	-10.4646
törü	-10.4646
▁algılama	-10.4648
▁üreten	-10.4656
▁2008	-10.4659
▁düşünen	-10.4661
▁Fark	-10.4676
▁uzaktan	-10.4676
▁içeriyor	-10.4683
▁deneyler	-10.4684
▁destekleme	-10.4684
▁çeşitlilik	-10.4689
▁Angeles	-10.4695
▁Ekonomi	-10.4695
▁senaryo	-10.4695
▁kulağa	-10.4695
▁unsur	-10.4695
▁refah	-10.4695
▁direkt	-10.4695
▁Tarih	-10.4695
▁tanıştım	-10.4698
▁görülüyor	-10.4699
▁görürüz	-10.4699
▁izleyici	-10.47
lərində	-10.47
Değiş	-10.4701
▁kilise	-10.4701
birimiz	-10.4705
lanacak	-10.4706
▁okulu	-10.4722
▁nöro	-10.4726
▁kaz	-10.4731
▁forma	-10.4732
▁Sh	-10.4734
▁Var	-10.4735
emedi	-10.4739
▁baktık	-10.4743
▁seviyesi	-10.4743
▁evrende	-10.4744
▁istiyordum	-10.4744
▁Gene	-10.475
▁iyisini	-10.4751
leştiği	-10.478
▁güçlendir	-10.4782
▁Yüksek	-10.4783
Merhaba	-10.4783
▁bant	-10.4787
▁geleceğin	-10.4787
▁üretici	-10.479
▁üstü	-10.4792
▁co	-10.4792
▁ölen	-10.4794
▁çekim	-10.4796
▁tüy	-10.4799
▁kalıcı	-10.4799
▁yapmaz	-10.4802
▁girdiği	-10.4805
▁tutan	-10.4817
▁oturma	-10.4819
caq	-10.4823
▁bulabilir	-10.4832
▁kullandı	-10.4832
▁Amerikalılar	-10.4833
▁Bell	-10.4836
▁doğduğu	-10.4842
▁hizmetleri	-10.4855
▁fırlat	-10.4856
▁Az	-10.4857
▁22	-10.4866
▁enfeksiyon	-10.4871
▁havuz	-10.4871
▁ayağa	-10.4871
zaman	-10.4876
▁millet	-10.4876
▁yaban	-10.4878
▁bilmiyordum	-10.4879
▁potansiyeli	-10.4881
▁yapmalıyız	-10.4884
▁izledi	-10.4887
▁edemez	-10.4888
▁etkiledi	-10.4888
matik	-10.489
▁yakalan	-10.4896
▁yarıyor	-10.4898
▁ağaçları	-10.49
▁gezin	-10.49
▁kova	-10.4905
▁planı	-10.4906
▁Roma	-10.4907
▁Sonrasında	-10.4908
▁geçirmek	-10.4909
▁sera	-10.4909
▁duyur	-10.4911
▁annesi	-10.4913
▁kimlik	-10.4914
▁işini	-10.492
▁herkesi	-10.4921
▁miyim	-10.4922
▁saniyede	-10.4924
abildi	-10.4927
▁olurlar	-10.493
▁çoğumuz	-10.4931
▁temas	-10.4934
▁oranları	-10.4936
▁savaşın	-10.4942
▁veriyorlar	-10.4943
▁kültürün	-10.4944
▁halkı	-10.4946
▁yapabilmek	-10.4958
▁MIT	-10.4961
▁Normal	-10.4961
▁Hareket	-10.4961
▁limit	-10.4961
▁terörist	-10.4962
gre	-10.4982
▁gösterdiğim	-10.4983
▁yapacağını	-10.4984
▁gittiğini	-10.4986
▁har	-10.4989
▁aldat	-10.499
▁şaşırt	-10.499
ladılar	-10.499
▁yazdığı	-10.4991
ph	-10.4993
▁şeklini	-10.4994
▁geçmişi	-10.502
amam	-10.5021
laşmış	-10.5026
▁vermiş	-10.5026
▁kaldım	-10.503
▁açar	-10.5035
70	-10.5037
▁gitmeye	-10.5037
▁ileriye	-10.5045
▁23	-10.5049
▁kişiden	-10.5049
▁İlginç	-10.5051
▁elbise	-10.5051
▁ötürü	-10.5051
▁tahri	-10.5051
▁kalacak	-10.5052
▁kavramı	-10.5053
▁bilinçli	-10.5054
▁şartlar	-10.5058
▁matematiksel	-10.5061
▁ötesine	-10.5063
▁demir	-10.5064
▁duyduğum	-10.5065
leşiyor	-10.5066
▁oyunun	-10.5066
▁sual	-10.5067
▁teorisi	-10.5071
▁yeteri	-10.5071
▁60'	-10.5072
▁açığ	-10.5073
▁odaklanma	-10.5074
▁amma	-10.5077
▁sorusu	-10.5078
▁inşaat	-10.5095
▁0	-10.5097
▁umu	-10.5114
▁Japon	-10.5115
▁sürükle	-10.5117
▁farketti	-10.5119
ydü	-10.512
▁İste	-10.5126
layabileceği	-10.5135
▁binanın	-10.5137
▁haritası	-10.5141
▁yaparlar	-10.5141
▁titre	-10.5142
▁fərq	-10.5142
▁seçeneği	-10.5142
▁pratik	-10.5142
▁çünki	-10.5142
▁gördünüz	-10.5143
▁pilot	-10.5144
▁büyüleyici	-10.5146
▁kullanılabilir	-10.5147
▁kozm	-10.5147
▁Kadınlar	-10.5148
▁etkiler	-10.5148
▁etkileyen	-10.5149
ografi	-10.5149
sün	-10.5149
▁hapse	-10.515
▁bölgesi	-10.5151
▁duyduğumuz	-10.5152
▁liderler	-10.5155
▁boşluğu	-10.5162
▁Deney	-10.5162
▁kullanılma	-10.5164
▁aletler	-10.5165
▁üretimi	-10.5166
▁girip	-10.5167
▁katılım	-10.5175
▁hile	-10.5177
▁pis	-10.5184
masından	-10.5185
▁bitti	-10.5185
▁topu	-10.5187
▁sıcaklık	-10.5187
▁olabiliyor	-10.519
▁açan	-10.519
▁orda	-10.5195
▁mənə	-10.5206
▁görebilir	-10.5209
▁mes	-10.5215
▁savun	-10.5219
▁Öğren	-10.5223
▁kazanma	-10.5224
▁hat	-10.5224
▁olağan	-10.5233
▁Harvard	-10.5233
by	-10.5233
▁akciğer	-10.5233
▁dördüncü	-10.5233
▁teslim	-10.5233
▁yunus	-10.5233
▁empati	-10.5233
▁ajan	-10.5235
▁Web	-10.5237
▁gömül	-10.5238
▁çarpıcı	-10.524
▁kadınlara	-10.5248
▁yararlan	-10.5248
görebiliyorsunuz	-10.5252
▁üyesi	-10.5252
▁anket	-10.5254
▁uyandır	-10.5255
▁bekley	-10.5257
▁tarihte	-10.527
▁yapabilirim	-10.5273
▁şimdiki	-10.5275
▁vücudunuz	-10.5281
▁hey	-10.529
▁oluşturdu	-10.5291
▁inek	-10.5293
▁devrimi	-10.5294
▁oturan	-10.5296
▁renkler	-10.5296
lerimden	-10.5297
▁yapısını	-10.5307
▁bakmaya	-10.5319
▁klasik	-10.5326
▁siyaset	-10.5326
▁dehşet	-10.5326
▁yaşamış	-10.5326
▁Obama	-10.5326
▁Hangi	-10.5326
▁Temel	-10.5326
▁tarla	-10.5328
▁yoksulluk	-10.5329
▁söyleyecek	-10.533
▁yaprak	-10.5332
▁Hayal	-10.5334
araq	-10.535
▁elektron	-10.5351
▁yaşımda	-10.5355
▁bahsediyor	-10.5356
▁gelenek	-10.5357
▁olursunuz	-10.5358
▁günümüz	-10.5362
▁yaşına	-10.5364
▁gizem	-10.5367
▁diyebilir	-10.5373
▁ilgilenme	-10.5376
▁gide	-10.5377
▁milli	-10.5378
▁normalde	-10.5381
▁parçasını	-10.5382
▁veriyoruz	-10.5382
nuzda	-10.5388
▁Kendimi	-10.5409
və	-10.541
▁başardı	-10.5414
▁başlayacak	-10.5415
▁Internet	-10.5419
▁kompleks	-10.5419
▁Charles	-10.5419
▁kaçınılmaz	-10.5419
▁Tahmin	-10.5419
▁mahkeme	-10.5419
▁hidrojen	-10.542
▁neçə	-10.542
▁sisteminin	-10.5422
▁fizikçi	-10.5425
▁düşünelim	-10.5426
▁yetiştirme	-10.5428
▁kurgu	-10.5429
▁anti	-10.5432
▁TV	-10.5436
▁İz	-10.5436
▁Devlet	-10.5437
Onlar	-10.5445
▁gitmiş	-10.5446
▁problemin	-10.5447
▁iniş	-10.5453
▁hastaların	-10.5466
▁tanıdık	-10.5467
▁sisteme	-10.5471
▁Ed	-10.5473
▁öncelikle	-10.5475
▁işlerini	-10.5475
▁ışın	-10.5475
▁damla	-10.5494
mişlerdi	-10.5504
▁istediğini	-10.5507
▁Kom	-10.5508
▁elə	-10.551
▁90'	-10.5512
amadım	-10.5513
▁koyul	-10.5514
▁penguen	-10.5514
▁teleskop	-10.5514
▁sivrisinek	-10.5514
▁market	-10.5514
▁Böylelikle	-10.5517
▁düşünürseniz	-10.5521
▁istiyorsunuz	-10.5523
▁Dev	-10.5529
▁bulunur	-10.5531
▁adil	-10.5531
ther	-10.5541
▁listesi	-10.5545
▁Bit	-10.5549
▁yetenekleri	-10.5554
▁Yaşa	-10.5559
▁Öl	-10.5562
emediği	-10.5572
▁düşündüğü	-10.5575
▁vs	-10.5584
▁kimliği	-10.5586
▁direk	-10.5589
▁Ser	-10.5592
▁çiftçiler	-10.5595
▁koyun	-10.5596
▁pas	-10.5597
▁bö	-10.5598
ttığı	-10.5602
▁konuştuk	-10.5602
▁fenomen	-10.5609
▁iPhone	-10.5609
▁tekerlek	-10.5609
▁mağaza	-10.5609
▁Dört	-10.5609
▁acaba	-10.5609
▁yirmi	-10.5609
▁aldılar	-10.5612
▁pazarlama	-10.5613
▁2010	-10.5615
▁ücretsiz	-10.5616
▁türün	-10.5616
▁kızın	-10.5618
▁seferinde	-10.5619
▁gücün	-10.5624
▁devamlı	-10.5625
▁sistemine	-10.5625
▁gelişti	-10.5625
▁tüp	-10.5631
▁70'	-10.5633
▁karşılıklı	-10.5635
ünüzü	-10.5635
▁olunca	-10.5637
▁bulunmakta	-10.564
mazlar	-10.5643
▁dersiniz	-10.5645
▁tarafa	-10.566
ylə	-10.566
▁bahsetme	-10.5666
▁zararlı	-10.5669
▁kutusu	-10.5676
▁yıllardır	-10.5677
▁öğrencilerin	-10.5682
▁nerde	-10.5684
▁öğrencisi	-10.5686
▁azalma	-10.5691
▁alınan	-10.5692
▁uçan	-10.5696
▁bulmuş	-10.57
▁uşaq	-10.5705
▁Çevre	-10.5705
▁göğüs	-10.5705
▁terapi	-10.5705
▁kiçik	-10.5707
▁tatmin	-10.5708
▁çekildi	-10.5709
▁entegr	-10.5709
▁sorumluluğu	-10.5709
▁mıydı	-10.5711
▁tavan	-10.5711
▁ölümün	-10.5714
▁yapamaz	-10.5715
eceğimizi	-10.5715
Çok	-10.5718
▁görünme	-10.5719
▁başlamıştı	-10.572
▁geçici	-10.572
▁yapılacak	-10.572
▁otel	-10.5722
fat	-10.5725
▁gelişen	-10.5727
▁Kaç	-10.5733
▁ilkel	-10.5734
▁doğrusu	-10.5738
▁Rusya	-10.5744
▁CO	-10.5746
▁İndi	-10.5748
▁hastalıkları	-10.5748
landırıl	-10.5754
▁Tom	-10.5758
▁Mal	-10.5761
▁keşfetmek	-10.5764
▁yakalama	-10.5767
▁Tak	-10.5775
▁umudu	-10.5784
▁Dur	-10.5786
▁tekne	-10.5797
▁Bas	-10.5801
▁imkân	-10.5802
▁metafor	-10.5802
▁sigorta	-10.5802
▁sözcük	-10.5802
▁uzunluğunda	-10.5803
▁heves	-10.5803
▁olduğudur	-10.5807
deyken	-10.5808
▁bulgu	-10.581
▁politikacılar	-10.5812
▁kapasitesi	-10.5813
▁istekli	-10.5815
▁düşünüyorsunuz	-10.5817
Sonra	-10.582
▁düzeltme	-10.5821
▁büyükanne	-10.5824
▁geçirdi	-10.5825
▁giderken	-10.5827
▁evim	-10.5835
▁teknolojiye	-10.5837
▁atar	-10.5837
▁özgün	-10.5838
▁geliştiril	-10.5843
▁katıldı	-10.5844
▁kent	-10.5845
▁öyrən	-10.5855
▁sars	-10.5866
▁sən	-10.5867
abileceğim	-10.5873
▁nota	-10.5873
▁projenin	-10.5876
▁kızım	-10.5878
▁istiyordu	-10.5879
lenebilir	-10.588
▁danışman	-10.5883
▁kendisinin	-10.5886
▁kenara	-10.5887
▁Bağ	-10.589
▁öğreniyor	-10.5895
▁ürettiği	-10.5899
ıvı	-10.59
▁Higgs	-10.59
▁keyif	-10.59
▁tecavüz	-10.59
▁nitelik	-10.59
▁lamba	-10.59
▁yönetimi	-10.5904
▁Buraya	-10.5904
▁boru	-10.5906
▁getirdik	-10.5906
▁yazılmış	-10.5914
▁eksen	-10.5918
▁parla	-10.5919
Burada	-10.5921
▁alıyorlar	-10.5927
▁insanlığın	-10.5929
ebiliyoruz	-10.5942
▁sağlaya	-10.5942
▁bacakları	-10.5951
▁deyə	-10.5952
▁ekleme	-10.5953
▁bilmediği	-10.5953
mağa	-10.5965
▁kaynaklı	-10.5967
▁çocukken	-10.5968
▁görüntüleri	-10.597
▁çıxa	-10.597
okul	-10.5971
▁dokusu	-10.5978
yeceğiz	-10.5982
gal	-10.5985
▁atmosferi	-10.5988
▁ağın	-10.5994
laştırma	-10.5995
▁İnsanları	-10.5995
▁Apple	-10.5999
▁merdiven	-10.5999
▁muhafaza	-10.5999
▁Pakistan	-10.5999
▁akraba	-10.5999
▁gülümse	-10.5999
▁medeniyet	-10.5999
▁panel	-10.6
▁ayrıntı	-10.6
▁ispat	-10.6001
▁belirgin	-10.6003
ıldığını	-10.6003
▁şahit	-10.6005
▁döneminde	-10.6006
▁raf	-10.6009
▁27	-10.6013
▁ulaştır	-10.6013
batı	-10.6017
▁Che	-10.6029
▁kendinize	-10.6032
▁pal	-10.6033
▁öncü	-10.6043
▁tez	-10.6045
▁qur	-10.6045
▁etmez	-10.6054
▁izlemek	-10.6057
▁75	-10.6062
▁üye	-10.6064
▁denk	-10.6065
insan	-10.6071
bit	-10.6077
▁bildiğim	-10.6077
▁bitirmek	-10.6083
▁yerinden	-10.6088
▁futbol	-10.6099
▁kalabalık	-10.6099
▁Tıpkı	-10.6099
▁Doktor	-10.6099
▁sahnede	-10.6101
lenir	-10.6103
▁görebileceğiniz	-10.6109
▁direnç	-10.6111
▁abart	-10.6111
▁taşıyan	-10.6112
▁hepsinin	-10.6117
məyi	-10.6125
▁büyüklüğü	-10.6125
kuş	-10.6129
▁kelimesini	-10.6134
▁denir	-10.6135
▁durur	-10.6137
▁geçtiğimiz	-10.6152
▁ekonomisi	-10.6158
▁öldüğü	-10.6158
▁yoldan	-10.616
▁olmalıdır	-10.6161
▁üretiyor	-10.6162
▁yoğunlaş	-10.6165
▁harcan	-10.617
▁kılan	-10.6171
▁kazanmak	-10.6189
▁doktoru	-10.6199
▁keşfi	-10.62
▁hemşire	-10.62
▁stüdyo	-10.62
▁James	-10.62
▁koltuk	-10.62
▁Sha	-10.6202
▁kaldığı	-10.6203
▁Film	-10.6203
▁hayatının	-10.6207
▁çıkacak	-10.6212
▁çevirme	-10.622
▁gerçekleşen	-10.6225
The	-10.6227
▁oluşturduğu	-10.6231
▁tetik	-10.6232
▁yaşlanma	-10.6232
▁yüzünü	-10.624
▁posta	-10.6242
liğimiz	-10.6247
▁kuruyor	-10.6249
▁etkisini	-10.6255
▁evlen	-10.6256
▁koyduk	-10.6257
▁yazıyor	-10.6257
▁Haydi	-10.6257
abilmesi	-10.6268
▁rolü	-10.6274
▁yapacağımız	-10.6275
▁yaşadığım	-10.628
▁eşim	-10.6284
▁geldiğimiz	-10.6286
▁keşfettik	-10.629
▁açıyor	-10.6296
▁diploma	-10.6302
▁Cevap	-10.6302
▁Thomas	-10.6302
▁garanti	-10.6302
▁çocuğa	-10.6302
▁felci	-10.6302
▁manyetik	-10.6302
▁ölümcül	-10.6302
▁redded	-10.6302
▁nasil	-10.6302
▁yurt	-10.6303
▁otorite	-10.6303
▁ilerliyor	-10.6303
▁alkış	-10.6303
▁animasyon	-10.6303
▁Lakin	-10.6304
▁yaxın	-10.6305
▁atmak	-10.6307
▁itibaren	-10.6311
▁yoru	-10.6314
▁oluşma	-10.6317
eceğine	-10.6322
▁olmalıyız	-10.6323
▁okur	-10.6325
▁solu	-10.6326
▁göründüğü	-10.6327
doğu	-10.6333
▁öngör	-10.6334
▁kesil	-10.6335
grafi	-10.6335
▁yoğunluğu	-10.6336
▁dinlemek	-10.6337
▁korkuyor	-10.634
▁açıklamak	-10.6344
▁600	-10.6345
▁yarattık	-10.6346
▁edən	-10.6363
▁şekillerde	-10.637
▁düşünmemiz	-10.6372
▁çalışıyordum	-10.6374
emeyecek	-10.6375
▁oldugu	-10.6375
▁tanesini	-10.6381
95	-10.6386
▁Michael	-10.6405
▁protesto	-10.6405
▁tesadüf	-10.6405
▁Ardından	-10.6405
▁vadede	-10.6406
▁Titan	-10.6407
▁yiyor	-10.6407
ight	-10.6407
▁desteği	-10.6408
▁edilemez	-10.6409
▁balıkçı	-10.6415
▁ömrü	-10.6416
amayan	-10.6418
▁grip	-10.6423
Dünya	-10.6423
İşte	-10.6423
▁gelmez	-10.6425
▁amacıyla	-10.6427
▁Dış	-10.6431
ılıp	-10.6434
▁temin	-10.6435
▁sav	-10.6438
▁Yıllar	-10.6439
▁uzmanı	-10.6447
▁ağırlık	-10.6454
▁yil	-10.6462
▁Mac	-10.6476
▁eleman	-10.6482
▁Birisi	-10.6488
▁toplumu	-10.6489
▁gösteril	-10.6492
▁kendisine	-10.6502
▁olacağım	-10.6506
▁Francisco	-10.651
▁efsane	-10.651
▁çamaşır	-10.651
▁travma	-10.651
▁huzur	-10.651
▁bayağı	-10.651
▁dunya	-10.651
▁Amazon	-10.6511
▁digər	-10.6511
▁topluluğun	-10.6517
▁yazıcı	-10.6517
▁2009	-10.6518
▁parçalara	-10.6522
▁Burda	-10.6523
▁sonuca	-10.6527
▁hazırladı	-10.6527
▁gönderdi	-10.6528
▁duymak	-10.6532
▁oturur	-10.6534
▁söylemeye	-10.6536
olo	-10.654
gər	-10.6541
▁detaylı	-10.6542
▁olmalıydı	-10.6546
▁gelmiyor	-10.6547
▁sistemlerin	-10.6549
▁saldır	-10.6553
▁hayatımda	-10.6555
▁okyanusun	-10.6556
▁kadarıyla	-10.6564
▁fazlasıyla	-10.6566
▁ilerledi	-10.6566
▁noktasında	-10.6566
▁ilgileniyor	-10.6568
laşıyor	-10.6579
▁bekler	-10.6582
▁yapabilme	-10.6588
▁öncesine	-10.6609
▁Enstitüsü	-10.6615
▁röportaj	-10.6615
▁gətir	-10.6615
▁olumsuz	-10.6615
▁etmesini	-10.6616
▁memur	-10.6618
▁artışı	-10.662
▁düşer	-10.6621
▁boğ	-10.6622
▁hapis	-10.6625
▁onlarca	-10.6626
▁okumak	-10.6634
▁Ger	-10.6634
▁BM	-10.6656
▁edebileceğiniz	-10.6657
▁değin	-10.6658
▁uğraşma	-10.6661
▁Büyü	-10.6664
luğunu	-10.6669
▁liderleri	-10.6672
lərlə	-10.6673
▁şirketin	-10.6679
▁duyguları	-10.6697
▁yaratıcılık	-10.6702
▁yönü	-10.6704
▁Kötü	-10.6721
▁felsefe	-10.6721
▁perspektif	-10.6721
▁pompa	-10.6721
▁tavuk	-10.6721
▁sıçra	-10.6721
▁GPS	-10.6721
▁korteks	-10.6721
▁roket	-10.6721
▁iyileşme	-10.6723
▁söyleyeceğim	-10.6723
▁söylemeliyim	-10.6724
▁kayda	-10.6725
▁Yalnızca	-10.6728
▁dönelim	-10.6728
▁korunma	-10.673
ılmıştı	-10.6732
teknoloji	-10.6742
▁inanıyoruz	-10.6746
▁vücudumuz	-10.6748
▁olmazdı	-10.6749
▁sürme	-10.6751
seydik	-10.6752
ebilmesi	-10.6757
▁Esas	-10.6762
▁değiştirecek	-10.677
dıkça	-10.6774
▁Birinci	-10.6788
dol	-10.6793
▁kurulu	-10.6807
▁sayısını	-10.6811
▁şəkil	-10.6812
▁bırakır	-10.6816
▁muhtemel	-10.6817
▁kullanmayı	-10.6818
▁kitab	-10.6827
▁Gezegen	-10.6829
▁müzisyen	-10.6829
▁çelişki	-10.6829
▁tiyatro	-10.6829
▁filtre	-10.6829
▁otizm	-10.6829
▁Robot	-10.6831
▁Nerede	-10.6834
meyeceğim	-10.6835
▁istiyorsak	-10.6839
25	-10.684
meliyim	-10.6844
▁okudum	-10.6845
▁Yapma	-10.6846
▁düşünerek	-10.6846
▁akışı	-10.6847
▁kaldık	-10.6852
Kendi	-10.6852
▁mutluluğu	-10.6855
▁öğrenir	-10.686
▁bakıyoruz	-10.6863
▁yönünde	-10.687
▁topar	-10.687
▁gerektiğine	-10.687
MA	-10.6871
▁yaşlarında	-10.688
▁terör	-10.688
▁götürme	-10.6883
▁aktör	-10.6883
▁birbirini	-10.6883
▁atış	-10.6891
ğımız	-10.6894
▁verdiğim	-10.6919
ülmüş	-10.6924
▁yapabileceğiniz	-10.6928
▁öden	-10.6931
▁yaklaşımı	-10.6932
▁nüfusu	-10.6935
▁Alzheimer	-10.6937
▁bağışıklık	-10.6937
▁karbondioksit	-10.6937
▁koleksiyon	-10.6937
▁Görüyorsunuz	-10.6938
▁parmağı	-10.6938
▁kucak	-10.694
▁gerçekleşiyor	-10.694
▁elini	-10.6941
▁kaydetti	-10.6942
▁Paris	-10.6944
▁konuşurken	-10.6944
▁evlilik	-10.6945
▁ancaq	-10.6946
▁durup	-10.6947
▁keresinde	-10.6948
▁Pazar	-10.6951
ustu	-10.6955
▁bekleyen	-10.6956
ceği	-10.696
Amerika	-10.6961
Daha	-10.6961
▁tüketimi	-10.6961
▁yazarı	-10.6961
▁heyecanlandır	-10.697
▁çip	-10.6983
liğinden	-10.6987
▁cins	-10.6987
19	-10.6989
▁derler	-10.6991
▁kış	-10.6993
▁değiştirir	-10.6993
▁diyecek	-10.6996
▁hastanın	-10.6996
▁farketme	-10.7002
▁boyun	-10.7007
▁dokunma	-10.7008
▁yayıldı	-10.7014
▁Arka	-10.7017
▁seviyesinde	-10.7024
▁birbirlerini	-10.7025
▁hatırlama	-10.7025
▁gerçekleşti	-10.7027
▁ayırma	-10.703
▁Tur	-10.7038
▁Kuru	-10.7039
▁önyargı	-10.7047
▁felç	-10.7047
▁Frank	-10.7048
▁umuyorum	-10.7049
▁eyni	-10.7049
▁bez	-10.7051
▁anlatmaya	-10.7052
▁vereyim	-10.7054
▁gücümüz	-10.7055
▁sokakta	-10.706
▁kafatası	-10.7061
▁yaparsınız	-10.7062
▁yükle	-10.7064
▁uyumlu	-10.7065
▁elma	-10.7071
▁antik	-10.7078
▁sınıfta	-10.7084
sor	-10.7097
▁aralarında	-10.71
▁tanışma	-10.7104
▁kazanan	-10.7116
▁Yarı	-10.7135
▁aslı	-10.7139
ment	-10.7146
▁psiko	-10.7158
▁görüntüleme	-10.7158
▁Hayvan	-10.7158
▁çirkin	-10.7158
▁şikayet	-10.7158
▁kavga	-10.7158
▁lezzet	-10.7158
▁canavar	-10.7158
▁Dikkat	-10.7158
▁Süper	-10.7158
▁poster	-10.7159
▁çizme	-10.7159
▁görmüyor	-10.716
▁Beyaz	-10.7161
▁Latin	-10.7162
▁göreceğiz	-10.7163
▁vurgu	-10.7163
▁Biliyorum	-10.7166
▁bulunduğumuz	-10.7167
▁gücüne	-10.7171
▁mühendisliği	-10.7173
▁MR	-10.7174
▁benzin	-10.7175
Fakat	-10.7184
▁10.000	-10.7185
▁ismini	-10.7185
▁üretti	-10.7188
▁yapacağı	-10.7191
▁arkasındaki	-10.7193
▁tat	-10.7193
▁gidiyoruz	-10.7199
lüğün	-10.7208
▁etrafındaki	-10.721
▁pul	-10.7212
▁kodu	-10.7223
▁şef	-10.7223
Benim	-10.7228
▁For	-10.7237
▁Yaptığı	-10.7242
▁aramızda	-10.7243
▁başardık	-10.7249
▁yararı	-10.725
▁şiddetli	-10.725
▁tara	-10.7256
▁dönüm	-10.7261
▁odadaki	-10.7263
▁katına	-10.7267
▁global	-10.7271
▁gübre	-10.7271
▁pembe	-10.7271
▁şarap	-10.7271
▁deprem	-10.7271
▁ümit	-10.7271
▁anımsa	-10.7272
▁Korku	-10.7273
▁kablosuz	-10.7273
▁Ödül	-10.7274
▁zorunlu	-10.7274
▁bot	-10.7274
▁ellerinde	-10.7276
▁Herşey	-10.7278
▁Col	-10.7283
berg	-10.7284
▁yaparız	-10.7285
▁sıkıştır	-10.7288
▁fotoğrafçı	-10.7292
▁bariz	-10.7296
▁kolaylaştır	-10.73
▁inanır	-10.7301
▁orası	-10.7303
digim	-10.7307
▁genelinde	-10.7309
▁bölümünü	-10.7319
▁görünüyordu	-10.7323
▁dalış	-10.7337
Şu	-10.7338
▁yaratıcılığı	-10.7339
▁söylemişti	-10.734
▁büyüdüm	-10.7348
▁etmişti	-10.7355
▁etik	-10.7361
▁neşe	-10.7371
▁oluruz	-10.7373
▁açmak	-10.7381
▁ayrıldı	-10.7382
▁yem	-10.7383
▁elektrikli	-10.7384
Lütfen	-10.7384
▁frekans	-10.7384
▁geleceğe	-10.7384
▁köpeği	-10.7384
▁kılavuz	-10.7384
▁motivasyon	-10.7384
▁sürpriz	-10.7384
▁meslektaşları	-10.7384
▁protez	-10.7385
▁əsas	-10.7385
gülüşmeler	-10.7385
▁bilmir	-10.7386
▁element	-10.7387
▁biriktir	-10.7388
▁Karşı	-10.7389
▁erişimi	-10.7389
▁gittiğimde	-10.7392
▁diyebiliriz	-10.7393
▁görebiliyoruz	-10.7401
▁yaparsanız	-10.7402
▁göl	-10.7407
meyeceğini	-10.7407
▁olabildiğin	-10.7409
▁söyleyebil	-10.741
çünkü	-10.7413
▁vererek	-10.7419
▁edeceğiz	-10.7421
▁boğu	-10.7423
▁etkiliyor	-10.7423
▁değişen	-10.7423
▁ülkedeki	-10.7423
leşir	-10.7423
acağına	-10.7424
▁65	-10.7427
▁veriyorum	-10.7449
▁gizemli	-10.7449
▁görünüm	-10.7453
▁yaşta	-10.7456
▁edebilecek	-10.7465
Dedi	-10.7472
▁bölgelerinde	-10.7479
▁dışındaki	-10.7482
▁Dağ	-10.7483
▁öğrenmeye	-10.7492
▁koştu	-10.7493
▁tamamını	-10.7493
▁geliştirdik	-10.7497
▁cazibe	-10.7499
▁orkestra	-10.7499
▁yumuşak	-10.7499
▁Çox	-10.7499
▁Boston	-10.7499
▁somut	-10.7499
▁Milletler	-10.75
▁gökada	-10.75
▁istəyirəm	-10.75
▁mülk	-10.7502
▁metod	-10.7502
▁fotograf	-10.7503
▁bahseder	-10.7509
▁oldugunu	-10.7512
▁ölmüş	-10.7516
▁çelik	-10.7517
▁getirecek	-10.7517
▁duyuyorum	-10.7517
▁Kas	-10.7519
▁dağıtım	-10.752
▁nüfusunun	-10.752
▁edersek	-10.7521
▁gəlir	-10.7523
Son	-10.7526
▁okulun	-10.7527
▁Mary	-10.7528
▁açlık	-10.7533
▁kapak	-10.7535
▁ödülü	-10.7556
tığınızda	-10.7559
▁kazı	-10.756
▁yazılı	-10.7567
▁ildə	-10.7582
▁evinde	-10.7593
▁akış	-10.7602
▁kullanabileceği	-10.7604
▁istediler	-10.7607
▁Pasifik	-10.7616
▁dâhil	-10.7616
▁konsept	-10.7616
▁Geçmiş	-10.7616
▁koruyucu	-10.7616
▁hariç	-10.7616
▁Dışarı	-10.7617
▁pasif	-10.7617
▁Kanser	-10.7617
▁keskin	-10.7618
▁sanmıyorum	-10.7619
▁biyolog	-10.7619
landığını	-10.7621
▁Peter	-10.7623
▁kəs	-10.7624
▁sınav	-10.7625
▁utanç	-10.7627
▁ekipman	-10.7631
▁duyduğu	-10.7634
▁geleceğini	-10.7634
▁the	-10.7635
▁başlamış	-10.7636
▁yatağı	-10.7637
▁mikroplar	-10.7641
▁videoyu	-10.7642
▁rastla	-10.7644
▁istersiniz	-10.7647
▁değiştirmeye	-10.7648
diyimiz	-10.7648
▁kalmıyor	-10.7649
▁işliyor	-10.7651
▁Tim	-10.7656
▁gösterecek	-10.7659
▁zehir	-10.7672
▁neresi	-10.7682
▁dönen	-10.7683
▁davranışı	-10.7684
▁Çalışma	-10.7687
▁oluştu	-10.769
▁çekilmiş	-10.7693
▁sevdikleri	-10.77
▁Gece	-10.7705
▁bulundur	-10.7711
▁izni	-10.7722
▁düşünüyordu	-10.7726
▁disiplin	-10.7733
▁Hükümet	-10.7733
▁beklenmedik	-10.7733
▁orijinal	-10.7733
▁rehber	-10.7733
▁çıplak	-10.7733
▁ətraf	-10.7733
▁tedarik	-10.7733
▁Kongre	-10.7733
▁ömür	-10.7733
▁Aşağı	-10.7733
▁rejim	-10.7734
▁hara	-10.7734
▁baylar	-10.7734
▁nihayetinde	-10.7735
▁parçacıkları	-10.7736
▁yıkıl	-10.7736
▁lazer	-10.7738
▁mutasyon	-10.774
100	-10.7742
▁yürüyor	-10.7743
▁deyir	-10.7748
▁yapılabilir	-10.7749
▁sihirli	-10.775
▁karşılaştığı	-10.7757
▁DH	-10.7758
▁varlığını	-10.7758
▁üyeleri	-10.776
▁gösterilen	-10.7764
malıdır	-10.7767
▁evrimin	-10.7769
▁almayı	-10.7775
▁istemedi	-10.7777
▁anlamamız	-10.7778
▁ettirme	-10.7779
▁güncel	-10.778
▁söyleyeme	-10.778
bilim	-10.7782
▁buradayım	-10.7791
▁gerçekçi	-10.7799
▁formları	-10.7806
▁değişimin	-10.7811
port	-10.7813
▁Tanı	-10.7824
▁oluşturduk	-10.7835
▁gelmeye	-10.7839
▁güzelliği	-10.7841
▁müziğin	-10.7842
▁kullandım	-10.7845
▁sunmak	-10.7847
▁kalitesi	-10.7851
▁Fotoğraf	-10.7852
▁alışkanlık	-10.7852
▁matematiği	-10.7852
▁mikroskop	-10.7852
▁radyasyon	-10.7852
▁itiraf	-10.7852
▁kağıdı	-10.7853
▁resif	-10.7853
▁kaybetmiş	-10.7853
▁mısır	-10.7853
▁gereği	-10.7857
▁matematikçi	-10.786
▁koyduğu	-10.7864
▁kaybettiği	-10.7864
▁izleyen	-10.7865
▁disk	-10.7866
▁kapsam	-10.7866
▁yetenekli	-10.7872
▁anlayama	-10.7873
▁toplumumuz	-10.7874
▁soyu	-10.7876
▁Mavi	-10.7879
▁önemsiz	-10.7884
▁Birlikte	-10.7885
▁bulaş	-10.7887
▁eksikliği	-10.7888
▁verebil	-10.7889
▁alabilirsiniz	-10.789
ğunu	-10.7892
▁kötüsü	-10.7896
İnsanlar	-10.7896
▁geçirir	-10.7897
▁etkileme	-10.7908
▁ulaştığı	-10.7911
▁boyutta	-10.7913
▁korkusu	-10.7914
▁çıkarıp	-10.7916
▁kuvvetli	-10.7928
▁once	-10.7929
▁olmasından	-10.7948
▁kusur	-10.7953
▁aldığınız	-10.7955
zyon	-10.7966
▁YouTube	-10.7973
▁jenerasyon	-10.7973
▁meşhur	-10.7973
▁cunku	-10.7973
▁sebze	-10.7973
▁kavuş	-10.7973
▁kemiği	-10.7973
▁Önemli	-10.7973
▁nəzər	-10.7973
▁Mutlu	-10.7973
▁kullanışlı	-10.7973
▁istisna	-10.7973
▁portre	-10.7973
▁İklim	-10.7973
▁golf	-10.7973
▁Fikir	-10.7973
▁gidin	-10.7973
▁nakli	-10.7974
zgünüm	-10.7974
▁Oraya	-10.7974
▁arayış	-10.7975
▁reform	-10.7976
▁verildi	-10.7979
▁genomu	-10.798
▁düştüğü	-10.798
▁başladığımda	-10.7987
▁simge	-10.7987
▁bulabilirsiniz	-10.7989
▁Yaptığımız	-10.7994
▁büyüyor	-10.8004
Anne	-10.801
▁tasarladı	-10.801
▁olacağına	-10.8015
▁duyduğunuz	-10.8019
laştığı	-10.8021
▁amaçlı	-10.8034
▁çalışmıyor	-10.8035
▁sorduğum	-10.8039
metre	-10.8041
▁aşkın	-10.8048
▁özen	-10.8051
▁çözmeye	-10.8059
▁koydum	-10.8061
▁korkma	-10.8065
▁yapıldığını	-10.8066
▁şehirlerin	-10.807
▁örtüsü	-10.8071
▁ölçme	-10.8077
▁maliyetli	-10.8085
▁açıp	-10.8087
▁kardeşi	-10.8088
▁kurtulma	-10.8089
▁büyüdüğü	-10.8092
▁Telefon	-10.8095
▁cömert	-10.8095
▁astronom	-10.8095
▁intihar	-10.8095
▁aktivist	-10.8096
▁yangın	-10.8098
▁edirəm	-10.8099
▁yapımcı	-10.8101
▁qoy	-10.8103
▁2005	-10.8107
▁hâline	-10.8109
▁uçağı	-10.811
▁Söz	-10.811
▁hattı	-10.811
▁İnan	-10.811
▁komut	-10.8111
ləşdir	-10.8115
▁alırsınız	-10.8125
▁alındı	-10.8127
leyebilirsiniz	-10.813
▁unuttu	-10.8132
▁açtığı	-10.8133
▁pop	-10.8139
▁başlangıçta	-10.8143
▁sıcaklığı	-10.8159
▁işimiz	-10.8169
bilimci	-10.8173
▁ödeye	-10.8176
▁dönüştürül	-10.8198
▁250	-10.821
▁düşünmüyor	-10.8213
▁yepyeni	-10.8218
▁bəzi	-10.8218
▁endüstriyel	-10.8218
▁opera	-10.8219
▁optik	-10.8219
▁konuştuğumuz	-10.8222
▁Henüz	-10.8222
▁Başarı	-10.8224
▁sorduğu	-10.8233
▁Şey	-10.8238
layabilecek	-10.825
▁Fre	-10.8251
▁önlem	-10.8252
▁yapıyorsunuz	-10.8253
▁Ölüm	-10.8254
▁Biyo	-10.8254
▁açıkçası	-10.8254
▁ayrılma	-10.8254
▁öğrendiğimiz	-10.8257
▁hayatımızı	-10.8268
▁görülme	-10.8273
▁etken	-10.8275
▁mısınız	-10.8278
▁hatırlıyor	-10.828
▁sizlerle	-10.8284
▁babamın	-10.8288
▁temizleme	-10.8292
▁karşılaşma	-10.8295
çoğu	-10.8296
▁başlık	-10.8296
?''	-10.8316
asiya	-10.8328
▁sorgulama	-10.8331
▁örümcek	-10.8343
▁tarayıcı	-10.8343
▁vesaire	-10.8343
▁Yeşil	-10.8343
▁gerektirir	-10.8343
▁Fizik	-10.8343
▁online	-10.8344
▁samimi	-10.8344
▁alakası	-10.8346
▁ulaşılabilir	-10.8347
▁Kitap	-10.8348
▁içgüdü	-10.8348
▁seyred	-10.8348
▁bildikleri	-10.8352
▁destekleyen	-10.8353
▁kurumsal	-10.8353
▁elinizde	-10.8354
▁etmeliyiz	-10.8356
▁bahsediyoruz	-10.8358
▁bulup	-10.8359
▁böylelikle	-10.8359
▁soyle	-10.836
▁çılgınca	-10.8363
▁olmalısınız	-10.8364
▁düşünürken	-10.8364
▁Kafa	-10.8366
▁bağlama	-10.8368
▁getirebilir	-10.8372
leyebiliriz	-10.8372
▁yıllarca	-10.8372
▁yapıldığı	-10.8373
▁döngüsü	-10.8373
▁kalmadı	-10.8375
▁minik	-10.8379
▁çocukluk	-10.838
Çünkü	-10.8383
▁çalışacak	-10.8385
▁ima	-10.8388
▁yanımda	-10.8398
laştı	-10.84
▁kazanç	-10.8405
▁zehirli	-10.8409
▁değişir	-10.8414
▁besleme	-10.8416
diyini	-10.8417
▁yayınladı	-10.8418
▁bacağı	-10.842
▁duymuş	-10.8426
lıyorsunuz	-10.843
▁hidro	-10.8431
▁üretebil	-10.8435
▁olmayabilir	-10.8437
▁özür	-10.8439
sunuzdur	-10.8447
▁sag	-10.8451
▁kromozom	-10.847
▁maddə	-10.847
▁kabuk	-10.847
▁Haiti	-10.8471
▁karmaşıklığı	-10.8471
▁bilinmeyen	-10.8472
▁hatırlayın	-10.8473
▁yapmıştı	-10.8473
▁Vadisi	-10.8473
▁götürüyor	-10.8479
▁mutsuz	-10.848
▁Mus	-10.8481
▁yavaşça	-10.8484
▁32	-10.8487
lüğünü	-10.8488
▁Ocak	-10.8498
▁çekip	-10.8499
▁edemey	-10.8501
▁topluyor	-10.8501
▁zincir	-10.8515
▁yatıyor	-10.8516
▁yapmasını	-10.8521
▁basar	-10.8521
müzde	-10.8546
▁Nə	-10.8548
▁katılımcı	-10.8553
▁sıkışı	-10.8555
▁çağında	-10.8561
▁çıkması	-10.8573
▁yolcu	-10.8578
▁She	-10.8582
leştiriyor	-10.8593
▁Filistin	-10.8598
▁figür	-10.8598
▁çeşidi	-10.8598
▁çözünürlük	-10.8598
▁şebeke	-10.8598
▁torba	-10.8598
▁qadın	-10.8598
▁olacaq	-10.8599
▁nazik	-10.8599
▁perde	-10.86
▁gerektiren	-10.8601
▁kısmen	-10.8601
▁yayılan	-10.8603
▁Martin	-10.8603
▁yavaşlat	-10.8603
▁kuyruklu	-10.8604
▁dizilim	-10.8608
▁dayanıyor	-10.8608
▁giderse	-10.8608
▁dikey	-10.8609
▁düzenlen	-10.861
▁paylaştı	-10.8621
▁umutsuz	-10.8623
▁bölümünde	-10.8624
▁edemedi	-10.8629
▁uyuş	-10.8636
▁Okyanus	-10.8636
▁hip	-10.8637
Gerçek	-10.8641
▁hazırlama	-10.8643
▁Kaza	-10.8647
▁isteyeceği	-10.8649
▁çalma	-10.8651
▁gerekecek	-10.8658
▁kartı	-10.8665
▁mantığı	-10.8677
əndə	-10.8677
▁eşyaları	-10.868
▁koşul	-10.8684
▁oradaydı	-10.8686
itap	-10.8707
▁ilişkilendir	-10.8708
▁ödüllendir	-10.8708
▁ebeveynleri	-10.8713
▁şempanzeler	-10.8721
▁çember	-10.8728
▁Geçtiğimiz	-10.8728
▁Suriye	-10.8728
▁mikrofon	-10.8728
▁Önümüzde	-10.8729
seksüel	-10.8729
▁şerit	-10.8729
▁oğlan	-10.8729
▁Ancaq	-10.873
▁rica	-10.873
▁alkol	-10.8732
lemez	-10.8734
▁kesme	-10.8734
▁sonuçlarını	-10.8735
▁ölçeği	-10.8736
▁Jim	-10.8738
▁görebilme	-10.8739
▁2004	-10.8741
▁götürür	-10.8742
▁metin	-10.8743
▁yaparsak	-10.8745
▁yaşıyordu	-10.8746
lanmamış	-10.8758
▁düzenledi	-10.8762
leştirdi	-10.8767
▁yerleşim	-10.8774
▁İster	-10.8774
▁Çalış	-10.878
▁ölür	-10.8785
▁Bob	-10.8785
▁kenarında	-10.8789
yacağınız	-10.8791
▁merkezine	-10.8795
▁gelişimin	-10.8813
▁örtü	-10.8825
▁Gerçekte	-10.8836
Arkadaş	-10.8843
malıyım	-10.8846
▁Yalnız	-10.8852
▁kalmıştı	-10.8853
▁hüküm	-10.8857
▁gidiş	-10.8858
▁akademi	-10.886
▁həqiqətən	-10.886
▁sekilde	-10.886
▁teşkil	-10.886
▁Uganda	-10.886
▁ölkə	-10.886
▁ısrar	-10.886
▁sevimli	-10.886
▁tören	-10.886
▁büyüklükte	-10.8861
▁bazılarınız	-10.8862
▁ödev	-10.8862
▁kaygı	-10.8862
▁baktığımda	-10.8866
▁kendiliğinden	-10.8869
▁başladığını	-10.887
▁taşındı	-10.887
▁kabiliyeti	-10.8874
▁Öğrenciler	-10.8874
rtesi	-10.8879
▁Doğal	-10.8884
▁yapılır	-10.8897
▁kullanıyorum	-10.8905
▁başıma	-10.8909
▁fiyatı	-10.8919
▁oluşum	-10.8924
▁hastalıkların	-10.893
burg	-10.8955
▁ofisi	-10.8957
▁öğrencilerim	-10.896
▁hayl	-10.8975
▁Kültür	-10.8993
▁Uluslararası	-10.8993
▁enstrüman	-10.8993
▁kırılgan	-10.8993
▁maddi	-10.8993
▁Robert	-10.8993
▁dəfə	-10.8993
▁çarpışma	-10.8993
▁niçin	-10.8993
▁sentez	-10.8993
▁enstitü	-10.8994
▁doğmuş	-10.8994
▁İçinde	-10.8995
▁təsir	-10.8996
▁düşünmüyorum	-10.9001
▁siber	-10.9001
▁paylaştığı	-10.9004
▁kapsamlı	-10.9009
▁kusursuz	-10.9015
▁programlama	-10.9017
▁bastır	-10.9026
yolu	-10.9027
▁geçecek	-10.903
▁MS	-10.9034
▁esasen	-10.9035
▁bozuk	-10.9061
▁Derek	-10.9064
▁çekimi	-10.907
▁oluşmuş	-10.9071
▁geçirdik	-10.9085
yacaksınız	-10.9088
▁Okyanusu	-10.9088
▁ağız	-10.9096
▁tutum	-10.9101
▁benzediğini	-10.9103
▁kısıt	-10.9107
▁kalırsa	-10.9108
digini	-10.9109
▁dördü	-10.911
leşen	-10.9111
▁kurar	-10.9115
▁yayılı	-10.9121
▁haqqında	-10.9128
▁otomobil	-10.9128
▁Enerji	-10.9128
▁Jeff	-10.9128
▁ekstra	-10.9128
▁maske	-10.9128
▁torunları	-10.9128
▁ulduz	-10.9128
▁hoca	-10.9128
▁Hedef	-10.9129
▁bittiğini	-10.9129
▁ideoloji	-10.9129
▁formül	-10.913
▁tekniği	-10.9135
▁kentsel	-10.9135
▁diyebilirsiniz	-10.9137
▁hük	-10.9139
▁düşünürsek	-10.914
▁yetecek	-10.9142
için	-10.9151
▁yapabildiği	-10.916
▁çare	-10.9165
▁tanıştır	-10.9168
▁Bina	-10.9171
▁Sizlere	-10.9175
▁mısın	-10.9176
▁Yazı	-10.9176
Aslında	-10.9178
▁eğil	-10.9181
▁yapıcı	-10.9186
!"	-10.9192
▁yut	-10.9195
▁durumunu	-10.9198
▁yayılması	-10.9199
75	-10.9228
amayacağını	-10.9231
▁bag	-10.9235
▁sundu	-10.9258
▁kapatma	-10.9263
▁hipotez	-10.9265
▁mürekkep	-10.9265
▁Street	-10.9265
▁bilişsel	-10.9265
▁cennet	-10.9265
▁Modern	-10.9265
▁zıt	-10.9265
▁bıraktığı	-10.9266
▁Program	-10.9266
▁bozukluk	-10.9267
▁mezar	-10.9267
taşı	-10.9268
▁anlatayım	-10.9269
▁üretilen	-10.9272
▁beton	-10.9274
▁aptalca	-10.9278
▁hamur	-10.9281
▁amca	-10.9288
▁anlıyorum	-10.929
▁kaydetme	-10.9297
▁çıktığını	-10.9299
▁gönderiyor	-10.9301
▁görünce	-10.9309
▁bilinir	-10.9314
▁izlediği	-10.9315
▁Görü	-10.9316
lüğ	-10.932
▁sorunumuz	-10.9336
▁Günü	-10.9336
▁malzemeleri	-10.9344
▁sarma	-10.937
zerinde	-10.9376
▁itibar	-10.9391
▁kuyruk	-10.9397
▁ped	-10.9398
▁sunma	-10.94
▁istəyir	-10.9404
▁Manhattan	-10.9404
▁dinozor	-10.9404
▁liberal	-10.9404
▁uzağa	-10.9404
▁çubuk	-10.9404
▁Etrafı	-10.9404
▁piyano	-10.9404
▁uğultu	-10.9404
▁vadeli	-10.9404
▁simülasyon	-10.9404
▁fiziği	-10.9404
▁santral	-10.9405
▁şov	-10.9405
▁söyleyin	-10.9406
▁Halk	-10.941
▁dönüşüyor	-10.9413
▁sunduğu	-10.9421
▁kaos	-10.9425
landığında	-10.9425
▁kutlama	-10.9427
▁düşünmeniz	-10.943
▁karşılaştırma	-10.9434
▁yapamayacağı	-10.9435
▁edemiyor	-10.9436
▁kısıtlama	-10.9442
▁yayımla	-10.9444
▁bakıyorum	-10.9447
üydü	-10.9455
▁buzun	-10.9455
▁ödedi	-10.9458
▁sinema	-10.946
ologlar	-10.9461
▁Rio	-10.9461
▁yaşayacak	-10.9466
▁gidiyordu	-10.947
▁atalarımız	-10.9471
▁eviniz	-10.9487
▁salgı	-10.951
▁kalktı	-10.9513
▁tepesinde	-10.9516
▁fikr	-10.9521
▁istediklerini	-10.9521
▁satır	-10.9527
▁fikrimiz	-10.9529
▁açılma	-10.9531
▁konuşul	-10.9536
▁Laboratuvar	-10.9545
▁antibiyotik	-10.9545
▁kapitalizm	-10.9545
▁məktəb	-10.9545
▁çukur	-10.9545
▁CEO	-10.9545
▁inovasyon	-10.9545
▁1960'	-10.9545
▁Yahudi	-10.9545
▁Güç	-10.9545
▁cisim	-10.9545
▁istasyonu	-10.9545
▁kuzen	-10.9546
▁gidelim	-10.9546
▁Nobel	-10.9546
▁çarpma	-10.9552
amadık	-10.9555
▁sırrı	-10.9563
▁bakıyorsunuz	-10.9565
▁dağılımı	-10.9566
▁şəkildə	-10.9567
▁10,000	-10.9567
▁100.000	-10.9567
▁qız	-10.9572
▁oluşumu	-10.9576
▁bırakıp	-10.9578
▁yaramaz	-10.9582
leştiril	-10.9584
Tanrı	-10.9601
▁birbirimizi	-10.9607
▁olmasaydı	-10.961
▁haklarını	-10.9614
▁hâl	-10.962
Bunlar	-10.9644
▁birikim	-10.9665
▁hissetti	-10.9675
200	-10.9676
▁başarısızlık	-10.9678
▁uçtu	-10.9686
▁Hollanda	-10.9688
▁Hollywood	-10.9688
▁Muhteşem	-10.9688
▁Sürekli	-10.9688
▁geometri	-10.9688
▁mutfak	-10.9688
▁tərəfindən	-10.9688
▁Problem	-10.9688
▁ressam	-10.9688
▁esnasında	-10.9688
▁sabır	-10.9688
▁Kutbu	-10.9688
▁sezon	-10.9689
Yeter	-10.9691
▁yitir	-10.9691
▁Devam	-10.9692
▁satıcı	-10.9703
▁sözlük	-10.971
▁uçurum	-10.971
▁asit	-10.9711
hop	-10.9714
▁hic	-10.9717
▁Kalp	-10.9721
▁güce	-10.9726
▁vb	-10.9728
laşır	-10.9728
▁açıkladı	-10.9732
▁şair	-10.9734
ehr	-10.9742
büyük	-10.9746
Hiç	-10.9746
▁yayılma	-10.9748
▁yerleş	-10.9762
▁ekliyor	-10.9767
▁gerekmiyor	-10.9783
▁isimlendir	-10.9788
▁pişir	-10.9804
▁başlığı	-10.9816
▁içlerinde	-10.9831
▁enteresan	-10.9832
▁referans	-10.9832
▁şablon	-10.9832
▁hacker	-10.9832
▁şehre	-10.9832
▁diyalog	-10.9832
▁Bankası	-10.9833
▁Kırmızı	-10.9833
▁karmaşa	-10.9833
▁Yoksa	-10.9833
▁Bakanlığı	-10.9833
▁taşıyıcı	-10.9833
▁tümüyle	-10.9833
▁yolculuğa	-10.9833
▁gerçeğ	-10.9833
▁aygıt	-10.9833
▁dizüstü	-10.9833
47	-10.9834
▁tünel	-10.9834
▁basamak	-10.9835
▁gergin	-10.9835
▁eşitsizlik	-10.9836
▁Gid	-10.9845
▁dayanarak	-10.9852
▁severim	-10.9852
▁kaybediyor	-10.9853
▁tarihsel	-10.9856
▁sopa	-10.9859
▁şunlar	-10.9862
▁miktarını	-10.9862
▁PM	-10.9869
▁üretimin	-10.9879
▁120	-10.9887
ırıq	-10.9887
▁Orman	-10.9903
▁bozukluğu	-10.9905
▁Leo	-10.9926
▁trend	-10.9941
▁okuyabil	-10.9941
▁davranma	-10.997
▁değiştirebil	-10.9975
▁Olay	-10.9978
▁Açıkçası	-10.998
▁California	-10.998
▁Körfez	-10.998
▁hərəkət	-10.998
▁istikrar	-10.998
▁koridor	-10.998
▁motive	-10.998
▁cidden	-10.998
▁söyleyeyim	-10.998
▁Kongo	-10.998
▁paralel	-10.998
▁terörizm	-10.9981
▁görünmüyor	-10.9981
▁kumanda	-10.9982
▁aşina	-10.9982
▁değiştiğini	-10.9982
▁Mimar	-10.9983
▁Elimizde	-10.9984
▁bakımından	-10.9984
▁kaderi	-10.9984
▁boşalt	-10.9985
▁İçeri	-10.9985
▁düğüm	-10.9985
▁öldürdü	-10.9988
▁apar	-10.9991
▁işgal	-10.9993
▁memeliler	-10.9994
əcəyi	-11.0003
▁aranızda	-11.0003
▁yosun	-11.0012
▁düşünecek	-11.0016
▁aktarma	-11.0033
▁vermişti	-11.0036
▁tuttuğu	-11.0044
▁gelebil	-11.0059
▁karşılaştığımız	-11.0064
▁rota	-11.0074
▁sürecinde	-11.0082
▁becer	-11.0089
▁vermiyor	-11.0097
▁çıktığında	-11.0098
▁26	-11.01
Gör	-11.0108
▁kısıtlı	-11.0111
▁Hristiyan	-11.0129
▁elektriği	-11.0129
▁gecekondu	-11.0129
▁hükumet	-11.0129
▁küçücük	-11.0129
▁pirinç	-11.0129
▁negatif	-11.0129
▁reçete	-11.0129
▁emisyon	-11.0129
▁süresince	-11.0129
▁Eminim	-11.0129
▁çamur	-11.0129
▁acımasız	-11.0129
▁metro	-11.0129
▁Müzesi	-11.0129
▁kalori	-11.0129
▁salonun	-11.013
▁Siyah	-11.0131
▁adlandırılan	-11.0135
▁duman	-11.0143
▁2006	-11.0143
▁çalışacağım	-11.0146
▁buluyorum	-11.0148
▁öyleyse	-11.0148
▁verirseniz	-11.0149
▁Matt	-11.015
▁Güvenlik	-11.015
▁hâli	-11.0152
▁yuzde	-11.0154
▁pişirme	-11.0158
▁yakalanma	-11.017
▁dinliyor	-11.0176
▁Mont	-11.0203
▁uğraşıyor	-11.0206
▁Sev	-11.0208
▁bardak	-11.021
▁üretir	-11.0219
▁Durum	-11.0243
▁anlamsız	-11.0251
▁köşesinde	-11.0254
▁vazgeçme	-11.0268
Seyirci	-11.0274
▁verdiğiniz	-11.0278
▁cavab	-11.028
▁karaciğer	-11.028
▁mevsim	-11.028
▁patron	-11.028
▁Çift	-11.028
▁əgər	-11.028
▁Ebola	-11.028
▁profil	-11.0281
▁dağınık	-11.0281
▁gerektiriyor	-11.0281
▁pound	-11.0282
▁İzleyici	-11.0282
▁etməyə	-11.0282
▁kulağı	-11.0282
▁çöküş	-11.0283
▁göreceğiniz	-11.0284
▁Şef	-11.0284
▁Dön	-11.0291
▁koyup	-11.0294
▁başlayıp	-11.0295
▁içimizde	-11.0295
▁yenilenebilir	-11.0296
▁anlaş	-11.0296
▁basınç	-11.0298
▁yaramadı	-11.0301
leştirir	-11.0307
▁inceliyor	-11.0316
▁yakaladı	-11.0324
▁canlandırma	-11.0333
▁okyanusta	-11.0334
▁haritasını	-11.0337
▁bildirim	-11.0351
▁kurumların	-11.0367
▁burnu	-11.0375
▁dolduru	-11.0381
▁bahsettiği	-11.0398
▁molekülü	-11.0403
▁koşulları	-11.0407
▁öğretil	-11.0412
▁saklama	-11.0413
▁olmayacağı	-11.0431
▁trans	-11.0433
▁bıçak	-11.0434
▁kosmos	-11.0434
▁partner	-11.0434
▁Smith	-11.0434
▁kurbağa	-11.0434
▁şapka	-11.0434
▁Politik	-11.0434
▁anatomi	-11.0434
▁çətin	-11.0434
▁emniyet	-11.0434
▁Yəni	-11.0434
▁titreşim	-11.0434
▁bedeli	-11.0435
▁növ	-11.0436
▁fırın	-11.0437
▁esinlen	-11.0438
▁ergen	-11.0441
▁kaynaklanıyor	-11.0442
▁benzetme	-11.0442
▁sanıyorum	-11.0443
▁yoğunluk	-11.0444
▁degis	-11.0445
▁kabin	-11.0445
▁atlat	-11.0446
▁Merak	-11.0449
▁şüphesiz	-11.0449
▁uçuyor	-11.0454
▁açıldı	-11.0457
▁Port	-11.0458
▁davranışsal	-11.046
▁kurulmuş	-11.0469
Sadece	-11.0504
▁Doku	-11.053
▁şansımız	-11.0533
▁okuduğum	-11.0542
itgide	-11.0566
▁arkadaşlarınız	-11.0567
▁kariyerim	-11.0571
malısın	-11.0589
▁Britanya	-11.059
▁Bölge	-11.059
▁Scott	-11.059
▁William	-11.059
▁belediye	-11.059
▁dramatik	-11.059
▁kahverengi	-11.059
▁maalesef	-11.059
▁çikolata	-11.059
▁Stanford	-11.059
▁nöroloji	-11.059
▁onemli	-11.0591
▁akıntı	-11.0591
▁Yardım	-11.0591
▁hakkinda	-11.0591
▁böceği	-11.0591
▁geleceğimiz	-11.0591
▁transfer	-11.0591
▁ödün	-11.0591
▁solucan	-11.0592
▁fena	-11.0594
▁vadi	-11.0596
▁seçtiği	-11.0597
leştirilmesi	-11.0597
▁karşılaştım	-11.0598
▁başlayabiliriz	-11.06
▁tamamiyle	-11.0602
▁kalkıp	-11.0605
▁eğiliminde	-11.0611
▁yiyeceği	-11.0637
▁hayatınızı	-11.064
▁galeri	-11.0641
▁aşamasında	-11.0691
▁gerçekleştiği	-11.0712
▁uzaklaştır	-11.0715
▁hızını	-11.0719
▁görmüştü	-11.0747
▁Beləliklə	-11.0749
▁güvercin	-11.0749
▁hormon	-11.0749
▁qalaktika	-11.0749
▁trajedi	-11.0749
▁vasitə	-11.0749
▁Chicago	-11.0749
▁şaşkın	-11.0749
▁paradigma	-11.0749
▁yıkıcı	-11.0749
▁reaksiyon	-11.0749
▁Sahip	-11.0749
▁koltuğu	-11.0749
▁Mikro	-11.0749
▁retina	-11.0749
▁rekor	-11.075
▁mizah	-11.075
▁Evrim	-11.0751
▁grafiği	-11.0751
▁parazit	-11.0751
▁Özel	-11.0753
▁telif	-11.0753
▁jeo	-11.0756
▁beste	-11.0757
▁sayılır	-11.0759
▁Ford	-11.0759
▁işlevsel	-11.076
▁yayma	-11.0763
▁yardımıyla	-11.0763
▁dönüşür	-11.0764
▁gözəl	-11.0769
▁yapamıyor	-11.077
▁mega	-11.0771
▁akışını	-11.0779
günkü	-11.0789
▁karışımı	-11.079
▁genişleme	-11.0792
▁ihtiyac	-11.0827
İlk	-11.0828
▁danışma	-11.085
▁alanlarında	-11.0854
layabilmek	-11.086
leştiren	-11.0862
▁hoşlanma	-11.0865
▁başladığında	-11.0865
▁çaresiz	-11.0868
▁fiil	-11.0868
▁yığ	-11.0877
Gülme	-11.0886
▁Aslın	-11.0889
▁duruş	-11.0891
▁attığı	-11.0893
▁Big	-11.0895
▁tuş	-11.0896
▁Afgan	-11.091
▁yeryüzünde	-11.091
▁Oxford	-11.091
▁dinazor	-11.091
▁eşcinsel	-11.091
▁İsviçre	-11.091
▁çevrimiçi	-11.091
▁Silikon	-11.091
▁batarya	-11.091
▁ünite	-11.0911
▁varoluş	-11.0911
▁ironi	-11.0912
▁çürü	-11.0912
▁ırkçı	-11.0916
▁kalkınma	-11.0916
▁bahar	-11.0918
▁imaj	-11.0919
▁Yerel	-11.0922
İnanıyorum	-11.0932
▁odaklı	-11.0934
▁yayılmış	-11.0945
▁korkar	-11.0949
▁geldiğimde	-11.0953
▁telefonunuz	-11.0956
▁vat	-11.0968
ılmamış	-11.0986
Çocuk	-11.0987
▁görülmemiş	-11.1003
▁ülkemiz	-11.1009
Sevgi	-11.1017
▁elinizi	-11.1038
▁kabiliyet	-11.1057
▁versiyon	-11.1057
▁helikopter	-11.1074
▁mıknatıs	-11.1074
▁tərəf	-11.1074
▁Antarktika	-11.1074
▁Geleneksel	-11.1074
▁asteroid	-11.1074
▁nəticə	-11.1074
▁rüşvet	-11.1074
▁tropik	-11.1074
▁üzərində	-11.1074
▁əlaqə	-11.1074
▁sentetik	-11.1074
▁sömür	-11.1074
▁1970'	-11.1074
▁Biyoloji	-11.1074
▁sunucu	-11.1075
▁defalarca	-11.1075
▁kumaş	-11.1075
▁ogren	-11.1075
▁Makine	-11.1075
▁doğma	-11.1075
▁klip	-11.1075
▁üzücü	-11.1077
▁denizaltı	-11.108
▁hiçbirşey	-11.1083
▁sürət	-11.1083
▁yükselme	-11.1085
▁maşın	-11.1086
▁biliniyor	-11.1089
▁aff	-11.1092
▁kalitesini	-11.1095
▁mekaniği	-11.1097
▁aklımda	-11.1107
▁azalıyor	-11.1114
▁gelis	-11.1125
▁öncülü	-11.1148
▁ardında	-11.1169
▁bahsettiğimiz	-11.1175
▁taşıyabil	-11.1209
▁Güven	-11.1217
▁evcil	-11.1222
▁Şah	-11.1229
▁tadını	-11.1233
▁yağış	-11.1235
▁aykırı	-11.1241
▁enfekte	-11.1241
▁kombinasyon	-11.1241
▁çekirdek	-11.1241
▁sipariş	-11.1241
▁Atlantik	-11.1241
▁alıkoy	-11.1241
▁öbür	-11.1241
▁estetik	-11.1241
▁banyo	-11.1241
▁prensibi	-11.1241
▁karşılığında	-11.1241
▁nehrin	-11.1241
▁kemer	-11.1241
▁imalat	-11.1242
▁Etki	-11.1242
▁göstergesi	-11.1243
▁darbe	-11.1243
▁zarif	-11.1244
▁hansı	-11.1247
▁ölecek	-11.1247
▁evlenme	-11.1249
▁oxu	-11.125
▁kopar	-11.1254
▁hiper	-11.1255
▁edemeyeceği	-11.1273
▁2003	-11.1278
digimiz	-11.129
▁kaynaklarını	-11.1295
▁hesabı	-11.1316
▁dalgalanma	-11.132
Şöyle	-11.1324
binlerce	-11.1324
▁vurma	-11.134
engin	-11.1384
▁almıştı	-11.1393
▁Kontrol	-11.1411
▁sandviç	-11.1411
▁Matematik	-11.1411
▁Sovyet	-11.1411
▁cinayet	-11.1411
▁husus	-11.1411
▁meclis	-11.1411
▁rezerv	-11.1411
▁əslində	-11.1411
▁Yavaş	-11.1411
▁enjekt	-11.1411
▁farz	-11.1412
▁Genellikle	-11.1412
▁kaçınma	-11.1413
▁Asker	-11.1413
▁bulaşıcı	-11.1413
▁Hazır	-11.1414
▁Eric	-11.1415
▁olalım	-11.1421
▁korsan	-11.1423
▁goz	-11.1427
▁lüks	-11.1431
▁zıpla	-11.1433
▁kirliliği	-11.1446
▁yaklaştı	-11.1452
▁kirlet	-11.1452
▁fiber	-11.1465
▁arttırma	-11.1468
▁uzaklıkta	-11.1469
Afrika	-11.1496
▁kıt	-11.1512
bunu	-11.1535
▁gözükme	-11.1571
▁Wikipedia	-11.1583
▁interaktif	-11.1583
▁pişmanlık	-11.1583
▁Örnek	-11.1583
▁Arjantin	-11.1583
▁Cambridge	-11.1583
▁təhsil	-11.1583
▁acayip	-11.1583
▁popülasyon	-11.1583
▁Hızlı	-11.1583
▁artıq	-11.1583
▁başlıca	-11.1583
▁ultra	-11.1583
▁çapta	-11.1583
▁irade	-11.1583
▁psikolog	-11.1584
▁imge	-11.1585
▁ertesi	-11.1588
▁Işık	-11.1589
▁düşünebiliriz	-11.1596
▁destekliyor	-11.1618
Nasıl	-11.1672
Hayat	-11.1678
▁keyfi	-11.1684
▁səs	-11.1686
▁döndürü	-11.174
ville	-11.1755
▁GSYİH	-11.1758
▁Vietnam	-11.1758
▁düşünürsünüz	-11.1758
▁feminist	-11.1758
▁minnettar	-11.1758
▁peynir	-11.1758
▁İspanya	-11.1758
▁Akademi	-11.1758
▁Demokrasi	-11.1758
▁Gazete	-11.1758
▁mağdur	-11.1758
▁haricinde	-11.1758
▁ihlal	-11.1758
▁paraşüt	-11.1758
▁niteliği	-11.1758
▁goster	-11.1758
▁kızgın	-11.1759
▁halihazırda	-11.1759
▁takıntı	-11.1759
əlkə	-11.1759
▁saldırgan	-11.176
▁evvel	-11.176
▁netice	-11.176
▁çözülme	-11.1761
▁gereksinim	-11.1761
ugh	-11.1779
▁Model	-11.1781
▁gerçekleşmesi	-11.1784
Sür	-11.1808
▁görüldüğü	-11.181
▁alarm	-11.1842
dünya	-11.1854
▁stil	-11.1906
▁rast	-11.1906
▁yönetil	-11.1923
▁coğrafi	-11.1937
▁hakikaten	-11.1937
▁muayene	-11.1937
▁patates	-11.1937
▁LED	-11.1937
▁dogru	-11.1937
▁xüsus	-11.1937
▁ampul	-11.1937
▁fırça	-11.1937
▁gruba	-11.1937
▁Green	-11.1937
▁Brown	-11.1937
▁duymuşsunuzdur	-11.1937
▁masum	-11.1937
▁çiğ	-11.1938
▁göğsü	-11.1938
▁Uygu	-11.1938
▁günəş	-11.1938
▁Şirketler	-11.1942
▁aklınızda	-11.1947
▁vali	-11.1955
▁kaydedil	-11.1976
▁lens	-11.2002
▁hatırlatıyor	-11.2004
▁yayılıyor	-11.2028
▁dürtü	-11.2103
değiştirebiliriz	-11.2118
▁Haziran	-11.2119
▁istihdam	-11.2119
▁məlumat	-11.2119
▁çabucak	-11.2119
▁Petrol	-11.2119
▁süpür	-11.2119
▁öldürücü	-11.2119
▁Vakfı	-11.2119
▁Gates	-11.2119
▁arşiv	-11.2119
▁hemfikir	-11.2119
▁cihad	-11.2119
▁görüp	-11.2119
▁işkence	-11.2119
▁bütünüyle	-11.2119
▁sistematik	-11.2119
▁yüce	-11.2119
▁olub	-11.212
▁ödüyor	-11.212
▁biləcəyi	-11.2121
termal	-11.2121
▁geçtikçe	-11.2123
▁Resim	-11.2124
▁aktiv	-11.2125
▁sakat	-11.2126
▁şempanze	-11.2129
▁liman	-11.2164
əzə	-11.2199
▁basladi	-11.2208
▁örgü	-11.2215
ograf	-11.2224
▁eklem	-11.2231
▁seviyesini	-11.2239
▁Bekle	-11.2245
▁tıbb	-11.2251
▁aktarıl	-11.2265
gülüş	-11.2291
▁Florida	-11.2304
▁Mükemmel	-11.2304
▁Ruanda	-11.2304
▁bambaşka	-11.2304
▁dəqiq	-11.2304
▁eşdeğer	-11.2304
▁istihbarat	-11.2304
▁kristal	-11.2304
▁Microsoft	-11.2304
▁musiqi	-11.2304
▁mövzu	-11.2304
▁spektrum	-11.2304
▁cocuk	-11.2304
▁uzaq	-11.2304
▁Sıradaki	-11.2304
▁çağdaş	-11.2304
▁zafer	-11.2304
▁rakip	-11.2304
▁Şehri	-11.2304
Özgür	-11.2305
▁penis	-11.2305
▁evlat	-11.2306
▁unutmayın	-11.2306
▁şahane	-11.2307
Şarkı	-11.2312
▁keşfe	-11.2316
▁Tony	-11.2328
▁Hatırla	-11.2328
▁idam	-11.2391
▁yoksulluğu	-11.2395
çoğunuzun	-11.2462
▁nihayet	-11.249
▁Dijital	-11.2493
▁Hücre	-11.2493
▁coğrafya	-11.2493
▁müddət	-11.2493
▁qaranlıq	-11.2493
▁əhəmiyyət	-11.2493
▁Binlerce	-11.2493
▁Hâlâ	-11.2493
▁Taliban	-11.2493
▁Yanlış	-11.2493
▁istismar	-11.2493
▁sadəcə	-11.2493
▁timsah	-11.2493
▁yozlaşma	-11.2493
▁şükür	-11.2493
▁patern	-11.2493
▁tahıl	-11.2493
▁Aristo	-11.2493
▁işıq	-11.2493
▁Yaşlı	-11.2494
▁zira	-11.2495
▁Belir	-11.2495
▁denetim	-11.2498
▁rahatlat	-11.251
▁oluştuğunu	-11.2514
▁statü	-11.252
▁ikon	-11.252
mişsinizdir	-11.2538
▁sahib	-11.2576
▁buralarda	-11.2592
▁göründüğünü	-11.2599
▁olamayacağı	-11.2601
normal	-11.2601
▁Kullan	-11.2662
▁illüzyon	-11.2685
▁klavye	-11.2685
▁volkan	-11.2685
▁yırtıcı	-11.2685
▁tweet	-11.2685
▁şarj	-11.2685
Yaxşı	-11.2685
▁Yukarı	-11.2685
▁birdenbire	-11.2685
▁kuyruğu	-11.2685
▁fatura	-11.2685
▁Bebek	-11.2685
▁talebi	-11.2685
▁tasvir	-11.2685
▁aslinda	-11.2685
▁gündüz	-11.2685
▁Koruma	-11.2685
▁olmaksızın	-11.2686
▁Simdi	-11.2686
▁Saturn	-11.2688
▁sahə	-11.2688
▁kömək	-11.2688
▁Berlin	-11.2688
▁hekim	-11.2689
▁çene	-11.2689
▁beklenen	-11.2692
▁ışıl	-11.2694
▁Polis	-11.2697
▁düşünebil	-11.2701
maktansa	-11.2705
▁modül	-11.2757
▁başlayacağım	-11.2771
çeşitli	-11.2794
aslında	-11.2794
▁belirtileri	-11.2803
▁primat	-11.2881
▁National	-11.2881
▁beyefendi	-11.2881
▁filozof	-11.2881
▁küçümse	-11.2881
▁laboratuar	-11.2881
▁mövcud	-11.2881
▁origami	-11.2881
▁personel	-11.2881
▁ritüel	-11.2881
▁numune	-11.2881
▁doğuştan	-11.2881
▁Devrimi	-11.2881
▁mineral	-11.2881
▁çırp	-11.2881
▁Sahra	-11.2881
▁avuç	-11.2881
▁yatkın	-11.2882
▁efekt	-11.2882
▁yıkım	-11.2882
▁Seçim	-11.2882
▁açılış	-11.2882
▁solunum	-11.2882
▁itibariyle	-11.2883
▁ivme	-11.2883
▁uzerinde	-11.2883
▁süzül	-11.2883
▁umuyoruz	-11.2883
▁Organ	-11.2887
▁Seyirciler	-11.2889
▁ilerlet	-11.2891
▁bandı	-11.2894
▁hissettikleri	-11.291
▁enzim	-11.2912
▁Arkadaşları	-11.2916
▁çocukluğum	-11.296
hücre	-11.2994
▁homo	-11.3044
BG	-11.3046
▁çoğunluk	-11.3052
▁görebileceği	-11.3054
▁oluştuğu	-11.306
▁Duygu	-11.3081
▁Etiyopya	-11.3081
▁Norveç	-11.3081
▁misafir	-11.3081
▁məsələ	-11.3081
▁oksitosin	-11.3081
▁semptom	-11.3081
▁spesifik	-11.3081
▁ufacık	-11.3081
▁mecbur	-11.3081
▁okuyucu	-11.3081
▁zekâ	-11.3081
▁meslektaşım	-11.3081
▁Duvar	-11.3081
▁muhabir	-11.3081
▁talimat	-11.3081
▁Delhi	-11.3081
▁Nelson	-11.3081
slində	-11.3081
▁ışığa	-11.3081
▁manşet	-11.3081
▁Nehri	-11.3081
▁izole	-11.3081
▁taciz	-11.3082
▁niha	-11.3083
▁kurşun	-11.3084
▁evliliği	-11.309
▁yatay	-11.3102
▁genişliğinde	-11.3119
▁otoyol	-11.3124
uyru	-11.3138
▁moleküle	-11.3146
▁patlay	-11.3176
İnsan	-11.3182
▁uyuyor	-11.3195
hazırda	-11.3203
wood	-11.3285
▁halüsinasyon	-11.3285
▁konsantr	-11.3285
▁levha	-11.3285
▁Charlie	-11.3285
▁Demokrat	-11.3285
▁Kütüphane	-11.3285
▁federal	-11.3285
▁inkişaf	-11.3285
▁pantolon	-11.3285
▁sponsor	-11.3285
▁tsunami	-11.3285
▁Örgütü	-11.3285
▁FBI	-11.3285
▁Parkinson	-11.3285
▁nötr	-11.3285
▁pamuk	-11.3285
▁Yaratıcı	-11.3285
▁gütmeyen	-11.3285
▁düşünmüştüm	-11.3285
▁çorba	-11.3285
▁garaj	-11.3285
▁1950'	-11.3285
▁Görünüş	-11.3285
▁Moore	-11.3285
▁Medya	-11.3285
▁ipucu	-11.3286
▁kabuğu	-11.3286
▁Stasi	-11.3287
▁sindir	-11.329
▁halled	-11.3311
leştirerek	-11.3423
▁Seattle	-11.3493
▁ehtiyac	-11.3493
▁Singapur	-11.3493
▁Ticaret	-11.3493
▁astronot	-11.3493
▁festival	-11.3493
▁uyguluyor	-11.3493
▁örüntü	-11.3493
▁argüman	-11.3493
▁omurga	-11.3493
▁bayrak	-11.3493
▁razı	-11.3493
▁meyilli	-11.3493
▁doğaçlama	-11.3493
▁tercüme	-11.3494
▁borsa	-11.3494
▁düşünüp	-11.3494
▁mühim	-11.3494
▁salınımı	-11.3494
▁Sekiz	-11.3494
oskopi	-11.3494
▁eşitsizliği	-11.3494
▁servet	-11.3494
▁logo	-11.3495
▁birbirimizle	-11.3495
▁cikar	-11.3495
▁Şili	-11.3495
▁Kaçınız	-11.3496
▁lakin	-11.3497
▁yaşayacağı	-11.3572
Büyük	-11.3619
Yeni	-11.3621
▁başlayabilir	-11.3635
▁yaklaştığı	-11.368
▁görebildiği	-11.3702
▁Maalesef	-11.3706
▁hiyerarşi	-11.3706
▁maraqlı	-11.3706
▁süpermarket	-11.3706
▁sızıntı	-11.3706
▁vasıtasıyla	-11.3706
▁xəbər	-11.3706
▁Detroit	-11.3706
▁Yoksul	-11.3706
▁iPod	-11.3706
▁imparator	-11.3706
▁kulübe	-11.3706
▁nöqtə	-11.3706
▁vacib	-11.3706
▁çizelge	-11.3706
▁bozucu	-11.3706
▁Kitabı	-11.3706
▁Sekoya	-11.3706
▁tələb	-11.3706
▁israf	-11.3706
▁işleyişi	-11.3706
▁Yıldız	-11.3706
▁klişe	-11.3706
▁Çünki	-11.3706
▁baloncuk	-11.3706
▁sansür	-11.3706
▁Acaba	-11.3706
▁zanned	-11.3707
▁Kelime	-11.3707
▁Finans	-11.3707
▁Alex	-11.3707
▁ritmi	-11.3707
▁makul	-11.3708
▁Mayıs	-11.3708
▁vaad	-11.3708
▁Cuma	-11.3709
▁azınlık	-11.371
▁Julia	-11.3714
▁sosyo	-11.3724
▁West	-11.3727
▁Aklım	-11.378
Belki	-11.3837
▁sihir	-11.3893
yüzüne	-11.3893
▁insanoğlunu	-11.3898
▁Merkez	-11.3911
Mühendis	-11.3924
▁Dördüncü	-11.3924
▁Grönland	-11.3924
▁Muhammed	-11.3924
▁obezite	-11.3924
▁röntgen	-11.3924
▁İrlanda	-11.3924
▁şampiyon	-11.3924
▁NSA	-11.3924
▁uyğun	-11.3924
▁çiçeğ	-11.3924
▁Soğuk	-11.3924
▁Henry	-11.3924
▁söyleyerek	-11.3924
▁Bruno	-11.3924
▁öğüt	-11.3924
▁Şubat	-11.3924
▁Kevin	-11.3924
▁Sokak	-11.3924
▁afet	-11.3925
▁Bayanlar	-11.3925
▁yedek	-11.3925
▁adresi	-11.3929
▁dörd	-11.3952
▁değme	-11.4025
Tabi	-11.4059
Kaide	-11.4077
▁Çağ	-11.4129
arşı	-11.414
▁müslüman	-11.4146
▁Apollo	-11.4146
▁Bangladeş	-11.4146
▁Olimpiyat	-11.4146
▁fakülte	-11.4146
▁fevkalade	-11.4146
▁implant	-11.4146
▁qəbul	-11.4146
▁soykırım	-11.4146
▁tansiyon	-11.4146
▁tişört	-11.4146
▁təşkil	-11.4146
▁çekirdeği	-11.4146
▁ürkütücü	-11.4146
▁Bronx	-11.4146
▁coşku	-11.4146
▁mütevaz	-11.4146
▁Cunku	-11.4146
▁birleşimi	-11.4146
▁ipuçları	-11.4146
▁çaplı	-11.4146
▁qərar	-11.4146
▁City	-11.4146
▁mucit	-11.4146
▁Karanlık	-11.4146
▁talih	-11.4147
▁dibinde	-11.4148
▁pano	-11.4148
▁enkaz	-11.4152
▁proses	-11.4153
▁getireceği	-11.4163
▁hanım	-11.4165
▁dollar	-11.4208
▁fırla	-11.4229
mişimdir	-11.4247
Ancak	-11.4287
▁etkileş	-11.4291
ştırma	-11.4307
▁hoparlör	-11.4373
▁kəşf	-11.4373
▁santimetre	-11.4373
▁çeyrek	-11.4373
▁əlavə	-11.4373
▁omurilik	-11.4373
▁qeyri	-11.4373
▁Türkiye	-11.4373
▁mektubu	-11.4373
▁asansör	-11.4373
▁Kulağa	-11.4373
▁Bahçe	-11.4373
▁sıçan	-11.4373
▁şirin	-11.4373
▁Somali	-11.4373
▁tavır	-11.4373
▁panik	-11.4374
▁Mesele	-11.4374
▁ilerleyen	-11.4374
▁Brian	-11.4374
▁saatlerce	-11.4374
▁alıştırma	-11.4374
Endişe	-11.4376
ləyir	-11.438
▁başkent	-11.4384
▁uçağ	-11.4387
▁kalıntıları	-11.4391
yahut	-11.4403
Oğlum	-11.4404
▁Şurada	-11.4419
▁vuruş	-11.4421
leştirip	-11.4536
laştıkça	-11.4548
▁Saray	-11.4595
▁Elektro	-11.4606
▁Endüstri	-11.4606
▁fizyoloji	-11.4606
▁Elektrik	-11.4606
▁Leonardo	-11.4606
▁entropi	-11.4606
▁ihmal	-11.4606
▁müfredat	-11.4606
▁psikiyatri	-11.4606
▁veritabanı	-11.4606
▁yelpaze	-11.4606
▁şizofreni	-11.4606
▁Watson	-11.4606
▁savunucu	-11.4606
▁İskoç	-11.4606
▁slogan	-11.4606
▁kraliçe	-11.4606
▁kütlə	-11.4606
▁piksel	-11.4606
▁karides	-11.4606
▁kucuk	-11.4606
▁qayda	-11.4606
▁herhalde	-11.4606
▁Fazla	-11.4606
▁icra	-11.4606
▁şekle	-11.4606
▁tayf	-11.4606
▁feet	-11.4607
▁bizzat	-11.4607
▁Köy	-11.4608
▁icadı	-11.4608
▁getmə	-11.4609
▁bileşim	-11.4619
▁kademe	-11.4624
▁patladı	-11.4638
▁karanlığ	-11.4661
▁hissəsi	-11.4667
kahkaha	-11.4718
Bütün	-11.4757
▁kıyas	-11.478
▁tasarlandı	-11.4839
▁prens	-11.4842
▁çevrim	-11.4844
▁Pekâlâ	-11.4844
▁döşe	-11.4844
▁edebiyat	-11.4844
▁genetiği	-11.4844
▁kaplumbağa	-11.4844
▁mahremiyet	-11.4844
▁montaj	-11.4844
▁trajik	-11.4844
▁Hawaii	-11.4844
▁Maldiv	-11.4844
▁rəng	-11.4844
▁xatırla	-11.4844
